{"version":"1.0","truncation":null,"padding":null,"added_tokens":[{"id":0,"special":true,"content":"<UNK>","single_word":false,"lstrip":false,"rstrip":false,"normalized":false},{"id":1,"special":true,"content":"<SEP>","single_word":false,"lstrip":false,"rstrip":false,"normalized":false},{"id":2,"special":true,"content":"<MASK>","single_word":false,"lstrip":false,"rstrip":false,"normalized":false},{"id":3,"special":true,"content":"<CLS>","single_word":false,"lstrip":false,"rstrip":false,"normalized":false}],"normalizer":null,"pre_tokenizer":{"type":"Whitespace"},"post_processor":null,"decoder":null,"model":{"type":"Unigram","unk_id":0,"vocab":[["<UNK>",0.0],["<SEP>",0.0],["<MASK>",0.0],["<CLS>",0.0],[".",-3.11398183971378],["de",-3.2353025699393854],["en",-3.356906303579306],[",",-3.7667875868063643],["van",-3.9812166858981968],["een",-4.062584362664671],["het",-4.069399119717156],["e",-4.087053819908176],["in",-4.143549227633633],["s",-4.149456117603032],["t",-4.324383972247382],["is",-4.507728149416879],["dat",-4.54412657264108],["op",-4.567656912128124],["n",-4.662471432941635],["te",-4.775993002621494],["voor",-4.8725859510312794],["met",-4.964389746865187],["er",-4.972706641044384],["zijn",-4.975419053200193],["niet",-5.032690133555743],["die",-5.038248734310677],["-",-5.119399862121929],["De",-5.132159473681025],["je",-5.13488797955743],["om",-5.145927663113893],["aan",-5.222866443638397],["ook",-5.463149478290459],["als",-5.503487926092962],["bij",-5.538083120480193],["maar",-5.550438443998985],["al",-5.562823100256519],["ze",-5.636088248457451],["uit",-5.63821838040902],["Het",-5.7110633298689955],["nog",-5.72315100810642],["’",-5.740920424750065],["dan",-5.791121198736711],["zo",-5.804038287280994],["ik",-5.806468249646207],["over",-5.846980796824811],["wel",-5.885644020835995],["door",-5.896607101766188],["naar",-5.898197792413004],[":",-5.916229261985174],["d",-5.9295150331695865],["heeft",-5.935788716034184],["of",-5.981874406443568],["'",-5.98341007880706],["was",-6.024363281164085],["\"",-6.076361482904737],["(",-6.0769880114871935],["meer",-6.0847306796223375],["ge",-6.102299918052996],["hij",-6.103979584960959],["?",-6.107523058247679],["“",-6.124404415232352],["hebben",-6.130843595766134],["moet",-6.146074932555326],["jaar",-6.1955811059550125],["worden",-6.206501278137871],["we",-6.20803566119285],["wat",-6.267300199892249],["word",-6.275091092193303],[")",-6.2842601444758515],["kan",-6.300505352281627],["‘",-6.302150214636676],["waar",-6.302268564577647],["a",-6.3202323307225825],["Dat",-6.353650911004488],["Ik",-6.368367760067288],["na",-6.389564683759614],["dit",-6.391855602948695],["In",-6.397264279787533],["geen",-6.414356869685024],["zich",-6.459871037420328],["werd",-6.474100972350936],["tot",-6.492103748731751],["daar",-6.49517178655592],["kunnen",-6.512102334702872],["nu",-6.521227719612314],["veel",-6.524458592996883],["i",-6.5926254958782735],["Maar",-6.6050425566709485],["gaat",-6.60642342869457],["gaan",-6.614391456406673],["hun",-6.616991695871027],["mensen",-6.621196078958154],["had",-6.640636900633092],["onder",-6.6544499208943],["zou",-6.666323363529689],["l",-6.677033124822711],["En",-6.677994971109081],["deze",-6.6789840463181385],["r",-6.688501845978551],["weer",-6.696849771387757],["o",-6.697824900939921],["tegen",-6.701763806380213],["dus",-6.720711271788589],["af",-6.744248612666062],["Een",-6.761692064188212],["mee",-6.785285029145303],["haar",-6.799673688516394],["1",-6.823650961742911],["z",-6.839958985503368],["m",-6.845702303491407],[".”",-6.8488782511367265],["goed",-6.876210443955288],["g",-6.881279472298025],["heb",-6.883194306233469],["komen",-6.911306747052379],["zelf",-6.930622236334216],["twee",-6.936270754758721],["andere",-6.938665539175933],["k",-6.952433236420251],["doen",-6.984533084398459],["2",-7.005623630971057],["maken",-7.006486887243249],["alle",-7.0083778131964465],["kom",-7.014371006252643],["nieuwe",-7.034617057127849],["krijg",-7.036403062874447],["f",-7.063322511776159],["wil",-7.0701632583278355],["tijd",-7.072262620633388],["toch",-7.073070156044836],["zal",-7.084724585444557],["Als",-7.085796419758127],["land",-7.091781778938211],["ing",-7.095839081631752],["hier",-7.098042279321453],["Daar",-7.10869327538586],["”",-7.109065319494052],["me",-7.1241327944185135],["staat",-7.124786986298449],["weg",-7.127751903344625],["vind",-7.130523338484499],["mijn",-7.135862871627127],["volgen",-7.154964058756607],["heel",-7.167383654137888],["zegt",-7.1834739484641625],["man",-7.1838328568592],["Ook",-7.197448719579758],["Er",-7.198993192566114],["hoe",-7.203491640035966],["Van",-7.203655482072986],["eerste",-7.207289864099843],["hele",-7.216812386026804],["Hij",-7.219096005742591],["We",-7.219351826057862],["lopen",-7.232079911770251],["Ze",-7.241709547631087],["iets",-7.246641020477532],["Op",-7.2601125468445],["toe",-7.264089324938443],["zien",-7.27478311060649],["u",-7.294983438053246],["A",-7.297045025479887],["tussen",-7.299676208886682],["alleen",-7.300358179503306],["even",-7.302002242078028],["Nederland",-7.305791626063571],["grote",-7.313382270653886],["ons",-7.318654605314627],["D",-7.327859579547786],["ver",-7.33944171298357],["heid",-7.34564831055079],["Die",-7.348424710502847],["procent",-7.351689930444173],["h",-7.352657315981984],["auto",-7.35302297425364],["maal",-7.355628296964615],["Zo",-7.35665523210211],["”,",-7.363308494046156],["hem",-7.379363701608194],["on",-7.389920625220013],["B",-7.409304961494442],["euro",-7.410105057893713],["S",-7.428350135038519],["dag",-7.4367096725308],["20",-7.438870579677332],["kun",-7.4399545268589735],["Je",-7.440296750463827],["3",-7.444349746834531],["be",-7.444408331962459],["echt",-7.44565700020811],["altijd",-7.461749334858662],["keer",-7.464841979276741],["leven",-7.466834323116573],["Dit",-7.471677318282467],["ooit",-7.481407910599379],["v",-7.484272263073796],["gewoon",-7.486026187620025],["E",-7.487433123358215],["kwam",-7.4883101683614495],["waren",-7.489168814647605],["eigen",-7.504332652539755],["b",-7.514951222895258],["!",-7.517562885129911],["uur",-7.533200865950631],["mogelijk",-7.534461193426272],["houden",-7.536543225649067],["laten",-7.538470069560271],["binnen",-7.550963410973299],["zij",-7.552064696688162],["terug",-7.553250867519041],["K",-7.55399398687398],["week",-7.569951698891144],["willen",-7.5769251806426725],["per",-7.579721029078035],["eens",-7.582776228324405],["onze",-7.586054796056593],["mij",-7.587507559768116],["y",-7.5919981232153795],["5",-7.594856786554023],["minder",-7.597871795236626],["steed",-7.603092966640208],["V",-7.604509637657607],["ben",-7.614076128148466],["staan",-7.614160349122863],["tijden",-7.616046126053556],["politie",-7.616577323192704],["O",-7.6367092397104175],["Voor",-7.637436509459012],["net",-7.643089485974082],["geld",-7.644696555292135],["toen",-7.6475547923658835],["jaren",-7.660532613976779],["afge",-7.665665722137889],["drie",-7.669775879847582],["lang",-7.676489897613906],["Met",-7.679338207745662],["le",-7.686667158900123],["werk",-7.688372253459449],["want",-7.692398000726096],["Oekraïne",-7.6941956979303825],["moment",-7.7007864788322005],["Wat",-7.70389375855128],["laatste",-7.705249162676008],["één",-7.70815652312749],["rond",-7.716155074292698],["achter",-7.717188569252171],["Rusland",-7.722002848663193],["202",-7.723073236917999],["plaats",-7.72808177551308],["I",-7.730058259274468],["Bij",-7.733177983694379],["4",-7.733434057737581],["el",-7.738923701244637],["p",-7.746434032177878],["huis",-7.7470197458565515],["Russisch",-7.750829104001357],["wereld",-7.751444527827478],["verder",-7.761375355675272],["Volgen",-7.769119401799248],["zit",-7.776916036229491],["voorbeeld",-7.786752449255288],["/",-7.789503548785668],["weten",-7.79328645949955],["gebruik",-7.794864758475495],[".\"",-7.798831495721321],["mag",-7.803493110794791],["nodig",-7.808055703069665],["kinder",-7.808905988030695],["Nederlands",-7.813202261947644],["zonder",-7.8164677299414045],["onderzoek",-7.821461466243547],["blijven",-7.8281478894071626],["gemaakt",-7.832797521188916],["deel",-7.836340273029886],["aantal",-7.839482499350492],["G",-7.83953229785261],["Na",-7.847573073256102],["W",-7.854275236565234],["maakt",-7.85913450227968],["nieuw",-7.86299361447768],["snel",-7.864677648750309],["jarige",-7.869095788867666],["vooral",-7.869412731239226],["beter",-7.879614595983622],["geven",-7.8828350338356765],["6",-7.890917192131054],["ullen",-7.897973598699421],["000",-7.899657151874772],["alles",-7.902299156032792],["elkaar",-7.902708673373522],["laat",-7.9037825551686085],["weet",-7.9051976282833785],["miljoen",-7.910227313101581],["zitten",-7.913115904606766],["bedrijf",-7.915568669897073],["ging",-7.919277317136276],["Dan",-7.921838950980387],["anders",-7.929908806348271],["zeggen",-7.933270319739501],["eerder",-7.935240677470802],["zeker",-7.938304892170062],["P",-7.938727455955135],[").",-7.939573620223505],["zelfs",-7.940317768780485],["gemeente",-7.942456209138505],["Hoe",-7.9497385077834535],["stad",-7.958889284388648],["nemen",-7.959141264808623],["M",-7.959731208106361],["bekend",-7.960979391342473],["avond",-7.961689278334203],["groot",-7.969092038288093],["T",-7.969553611034387],["kon",-7.970919140732013],["Zij",-7.977402944143234],["werken",-7.982974219122514],["via",-7.99175745357635],["–",-7.993164722905281],["blijft",-7.995227358571319],["oorlog",-8.009002825204808],["samen",-8.013146316989246],["doet",-8.014737334372072],["naast",-8.01809871586606],["lijkt",-8.018883967809927],["10",-8.022309063496552],["vaak",-8.023851517538859],["ren",-8.02820486842463],["8",-8.033422072258164],["us",-8.04241497512869],["boven",-8.04557424848139],["energie",-8.05304266023484],["0",-8.063430004433823],["wij",-8.064920714890595],["moest",-8.06798301787003],["vrij",-8.07888623647605],["natuurlijk",-8.083301345342925],["C",-8.085599575068098],["N",-8.0904755635998],["vier",-8.093164060539397],["zetten",-8.09481415828331],["vol",-8.103642298352248],["vraag",-8.111475062038462],["sinds",-8.11528356134103],["Om",-8.122058821809611],["vrouw",-8.123841076495115],["soort",-8.124831180209746],["19",-8.130076986086127],["Deze",-8.139579209509673],["zei",-8.14208745806869],["later",-8.14422171563895],["iemand",-8.151818807546324],["j",-8.161885526362529],["juist",-8.162848688489866],["duidelijk",-8.173012398441067],["erg",-8.173311439741365],["eerst",-8.174964170379454],["genomen",-8.181765513067862],["kijken",-8.184695109803343],["vast",-8.186636941516038],["w",-8.186970982188818],["dagen",-8.18872776937403],["tweede",-8.18923562096645],["landen",-8.191161014440976],["water",-8.20165688446097],["hoofd",-8.203088775389347],["genoeg",-8.205551267602907],["H",-8.209186344968485],["licht",-8.211183249056546],["manier",-8.212402835712595],["7",-8.214151994462057],["woning",-8.216016227064951],["Nu",-8.217430051099853],["paar",-8.217645549589921],["geef",-8.220698767477302],["gezien",-8.221272764646997],["wie",-8.226287856311092],["ken",-8.226352612400493],["bijna",-8.22646353971185],["Amerikaans",-8.22939281339637],["enkele",-8.233283368854305],["buiten",-8.23337509565468],["gelede",-8.23450954773937],["wedstrijd",-8.241278807182226],["denk",-8.24614025532191],["maanden",-8.246175805652374],["extra",-8.247675087740422],["goede",-8.248263047970571],["weinig",-8.261659119126815],["gedaan",-8.266381245777227],["Europe",-8.271165103975276],["iedere",-8.277214572564901],["stond",-8.277334231269839],["breng",-8.28113350702463],["bedrijven",-8.282023141271818],["amelijk",-8.284031987738754],["lig",-8.288521286007349],["30",-8.291573024656856],["minister",-8.291683196623794],["blijk",-8.298826835102691],["gas",-8.300212818108381],["corona",-8.302714437915462],["9",-8.30499080725977],["eren",-8.305411665876527],["beetje",-8.305973081499467],["R",-8.309949046063165],["eigenlijk",-8.311190079252036],["Waar",-8.313666628407862],["kree",-8.316019550841322],["partij",-8.320500072342377],["rijden",-8.326336156585324],["Of",-8.330225804370713],["straat",-8.330935645065622],["Al",-8.33120443000443],["geval",-8.336567277457277],["hand",-8.337301866411044],["verwacht",-8.33777718588924],["pas",-8.342465168258215],["weest",-8.344653404579029],["vijf",-8.344733065243476],["weken",-8.34988112930894],["he",-8.352110818769548],["halen",-8.35791080568217],["ja",-8.359246217200749],["Europa",-8.366511764448834],["seizoen",-8.367261348008308],["ander",-8.367999096164965],["ziet",-8.37028205583188],["groep",-8.370658826265508],["prijs",-8.372300172668037],["vanaf",-8.372725706310662],["prijzen",-8.373025035191539],["terwij",-8.373325128360023],["gek",-8.37889801748361],["F",-8.381100345586631],["Door",-8.383863386718666],["probleem",-8.389696328199978],["reden",-8.39369972754438],["vandaag",-8.394248730760415],["eind",-8.39430754896875],["wege",-8.395033195869633],["markt",-8.395226071578833],["ga",-8.395858591456893],["niets",-8.396896442062456],["Dus",-8.397327143890575],["media",-8.398712306199641],["…",-8.400028780580701],["maakte",-8.400578037749531],["mogen",-8.405679996885542],["EU",-8.412002398735165],["maand",-8.413378233416605],["vragen",-8.417866559941022],["Niet",-8.422590909145779],["zie",-8.42489101334529],["meest",-8.431614593185543],["middels",-8.439061504330073],["ruim",-8.44007285495312],["ieder",-8.440155908649274],["kans",-8.440322428741137],["vond",-8.441494505805734],["15",-8.44302953656192],["gebied",-8.443605872542378],["zorgen",-8.44650646813583],["hoor",-8.446853318292288],["vrouwen",-8.447686096232665],["problem",-8.447750211099658],["leden",-8.448368869375342],["foto",-8.448852868229707],["enige",-8.453132597842373],["zaterdag",-8.45359142270945],["%",-8.45398239011835],["Ja",-8.45549514287987],["best",-8.455778177760944],["thuis",-8.458815693655708],["zoude",-8.460029714239198],["vorig",-8.460076425678373],["stellen",-8.466271350680667],["basis",-8.46664601312543],["president",-8.473140142684247],["echter",-8.476672733488149],["Poetin",-8.47681179572802],["U",-8.476958886062167],["denken",-8.478164404623907],["kosten",-8.479275612287836],["hard",-8.480026857992819],["woensdag",-8.484005291599932],["ie",-8.485147208190803],["recht",-8.490129204849191],["maandag",-8.4975961472151],["druk",-8.498557989325398],["mannen",-8.499190946771947],["„",-8.500168839339866],["bent",-8.503785409089183],["isschie",-8.504944507870036],["team",-8.505044365225046],["rol",-8.508041125623944],["ter",-8.508730309654267],["hoger",-8.50902621623942],["werkt",-8.514995840451302],["vrijdag",-8.517902498881632],["der",-8.518357751736776],["zat",-8.519814676567005],["at",-8.521473427292246],["kant",-8.527403397236961],["regering",-8.527471875588883],["zaak",-8.528432890061891],["grootste",-8.528438201852982],["kabinet",-8.530747158294947],["betalen",-8.534514593289533],["spelen",-8.53522251807389],["beste",-8.537669572073202],["graag",-8.539156583345532],["overheid",-8.541205458907418],["begin",-8.544346920080756],["club",-8.545923375221683],["tien",-8.555577304744116],["c",-8.565830439564728],["elke",-8.569191930520123],["an",-8.56982440161961],["ers",-8.570448782892065],["nieuws",-8.570710878736215],["totaal",-8.572699638223357],["wilde",-8.577029412789528],["gevolg",-8.577632257300014],["naam",-8.578106838399485],["dinsdag",-8.57951950283823],[";",-8.579629523362527],["hoge",-8.581709256602114],["Apple",-8.584722732967428],["regen",-8.588130765711002],["kort",-8.588260332878225],["idee",-8.588944209376862],["valt",-8.592646768528146],["langer",-8.596877924037212],["app",-8.597208927992126],["gegeven",-8.605275460378971],["18",-8.607670259273217],["gekomen",-8.608739685164265],["Wij",-8.612015233584557],["ton",-8.614249740656428],["zondag",-8.618815771981696],["plan",-8.619434373670723],["familie",-8.620562646398296],["donderdag",-8.621699427218768],["verhaal",-8.623520633234957],["dienst",-8.625468605413992],["gelijk",-8.626504532925011],["allemaa",-8.626588655092734],["Oekraïens",-8.627313712756258],["ste",-8.627841036305671],["volledig",-8.629247013162882],["L",-8.632260354763229],["hoog",-8.634598015550033],["ruimte",-8.63493357208672],["201",-8.6349940605128],["uiteindelijk",-8.637437299430822],["gebruikt",-8.640668540280222],["ongeveer",-8.646334176351262],["jij",-8.646523343996286],["stuk",-8.647125523433914],["Rutte",-8.649196919688784],["derde",-8.653435148775138],["neer",-8.65488169671281],["plek",-8.65801615542598],["mooi",-8.659221320548316],["oud",-8.659663550353686],["welke",-8.659913204969165],["Hier",-8.66052499165199],["miljard",-8.662853184806046],["Is",-8.66335279043112],["liggen",-8.663754562574649],["zorg",-8.66478620781257],["leggen",-8.665168749653915],["heden",-8.665536518767679],["houdt",-8.66648669790922],["dood",-8.667219821139291],["programma",-8.667658732096774],["ploeg",-8.671256156053861],["200",-8.672396957894126],["situatie",-8.67465337599341],["men",-8.675443607940375],["periode",-8.677026931312442],["waardoor",-8.680068400474763],["school",-8.688520803550407],["12",-8.68909391163454],["start",-8.692164886898249],["belangrijk",-8.697357973255336],["zeer",-8.699526460890088],["waarom",-8.703451660248012],["17",-8.70370680842369],["zoveel",-8.705135785414722],["punten",-8.70682301307699],["langs",-8.707669345362543],["regel",-8.708678260932832],["bied",-8.709273473151935],["beleid",-8.711567643960528],["zaken",-8.71405946085726],["niks",-8.71529139572379],["boeren",-8.717798401042696],["loopt",-8.718287455604488],["25",-8.718367018097759],["beteken",-8.719534489246623],["helpen",-8.721024433655877],["50",-8.722202483443844],["kleine",-8.723686392684836],["100",-8.726339000010046],["richting",-8.729935076644132],["organisatie",-8.732200778333226],["Aan",-8.732261074722818],["vorige",-8.733080100919182],["verschillend",-8.733629473147325],["vallen",-8.734372574465866],["zomer",-8.736595738591092],["kopen",-8.741738152253554],["ar",-8.751801888207662],["én",-8.753772670821593],["moeder",-8.754744542513455],["acht",-8.756231791341966],["hoop",-8.759701384307114],["bezig",-8.762450341290823],["baar",-8.762556217792024],["&",-8.763129065163781],["systeem",-8.76379829585882],["Toen",-8.764484149912427],["lekker",-8.766272514026936],["groter",-8.76718528537847],["Wel",-8.769026351822065],["maatregelen",-8.772643272376467],["16",-8.773092621304578],["Wie",-8.773605985331141],["00",-8.77431559565824],["neem",-8.778754291540341],["grond",-8.779179175482057],["Amsterdam",-8.784464444055246],["veld",-8.78510587528651],["Mijn",-8.785918446923993],["Uit",-8.78741761479129],["flink",-8.788464102692963],["huidig",-8.788474889128981],["Want",-8.788610322720064],["beeld",-8.792866440629227],["precie",-8.793946294801941],["meeste",-8.7950298643059],["da",-8.795258383060602],["vertelt",-8.7954837783054],["zelfde",-8.798140069325061],["Duitsland",-8.801134956952943],["’,",-8.804409706698031],["direct",-8.80575107672545],["daarom",-8.807247246438932],["21",-8.809126451476798],["rechts",-8.809447250468766],["ouders",-8.810249700474161],["honderd",-8.81089900069259],["eten",-8.81101129144219],["rgens",-8.811110395408981],["Russen",-8.811177823178317],["actie",-8.8116527853999],["um",-8.814624787983044],["ma",-8.817030974632491],["dollar",-8.817285830056294],["meter",-8.817344826231283],["centrum",-8.820343161371209],["middag",-8.820710427931242],["relatie",-8.824051252430543],["ochtend",-8.824777059812014],["sector",-8.825275670304165],["doel",-8.82814710924891],["klaar",-8.82955109550847],["rest",-8.830166116875443],["einde",-8.83199058826156],["daarna",-8.832101825157217],["China",-8.833861259630364],["meerdere",-8.834242691860151],["vak",-8.836718616336697],["leuk",-8.837562472168237],["regio",-8.842028033305],["gedrag",-8.8426289122472],["finale",-8.845975536529096],["sociale",-8.84730391811627],["cijfer",-8.849595355239327],["hulp",-8.8519047252703],["klimaat",-8.854483779958652],["gebracht",-8.855895636353914],["soms",-8.857194874435866],["2020",-8.859100393798196],["rechter",-8.860713263635533],["gevallen",-8.860885405184128],["oplossing",-8.863389889981558],["pen",-8.863485156816118],["partijen",-8.863997219318671],["heen",-8.866071042918215],["liet",-8.86976052943157],["delen",-8.869827823939566],["inflatie",-8.871017265781086],["politiek",-8.873490233746852],["gesloten",-8.875546236309386],["ari",-8.876226196628574],["nacht",-8.877255887065981],["slag",-8.880023966622481],["waarschijnlijk",-8.881065175480781],["The",-8.882835415584314],["hoeveel",-8.88317965302241],["kilometer",-8.88350810845353],["bank",-8.883664026840336],["Toch",-8.885016644413213],["dicht",-8.889728510602072],["trekken",-8.893621727199685],["rij",-8.89476331402421],["brand",-8.895301787230988],["strijd",-8.898092177853455],["vader",-8.89932500912623],["rekening",-8.89972681673343],["zag",-8.905951381714953],["wind",-8.906293964166306],["horen",-8.906422125724633],["vorm",-8.908264421412927],["22",-8.908564599336916],["dingen",-8.912012985813401],["punt",-8.912904656736984],["meld",-8.914275284881091],["voel",-8.915837978400756],["VS",-8.916859233187886],["beide",-8.917995139970092],["ogen",-8.918915212245642],["Groningen",-8.920644520168842],["ziekenhuis",-8.921875213673559],["nou",-8.922029691974622],["stelt",-8.922123482522071],["24",-8.922830649281904],["minuten",-8.924445079530926],["olie",-8.925638561537315],["niemand",-8.926182048493086],["reactie",-8.927576610396112],["stand",-8.927618724508278],["grens",-8.928014190171325],["voorzitter",-8.928792433246626],["blij",-8.929621052679384],["duizend",-8.9326532295666],["moeilijk",-8.934519471086377],["half",-8.935092175860502],["jonge",-8.936228381943751],["Verenigd",-8.93897404716742],["vervolgen",-8.941529423125617],["Duitse",-8.9442138768702],["dezelfde",-8.950123027764189],["gevoel",-8.95057695816443],["toekomst",-8.95069119784553],["slechts",-8.95216557200532],["11",-8.952305096648933],["gezet",-8.952592246432399],["buurt",-8.953288464021249],["gemiddeld",-8.953390734189144],["boek",-8.953519032091261],["Kamer",-8.953844913990046],["muziek",-8.955104027381864],["lezen",-8.957042686591933],["mooie",-8.9574514067259],["betrokken",-8.958078427901054],["vroeg",-8.958375275931338],["bleek",-8.960032956282426],["pakken",-8.961786438889565],["eel",-8.963856032994101],["elk",-8.964817063016646],["helft",-8.96537285190431],["belasting",-8.965540213296666],["klein",-8.96647056322756],["medewerker",-8.967866882630018],["nummer",-8.97098102241679],["niveau",-8.97131865993189],["€",-8.976627431187778],["weekend",-8.977541357289033],["aange",-8.977572562448874],["kind",-8.97859285308244],["won",-8.980261346123573],["lange",-8.980689799236517],["gesprok",-8.980692268634158],["bijzonder",-8.982496419184441],["zoek",-8.983024105449964],["Ter",-8.984003080963259],["sommige",-8.984356823801678],["mocht",-8.985538741622975],["deur",-8.987793441262031],["Over",-8.992464826290288],["mis",-8.99373961436319],["wachten",-8.995015460572901],["aanwezig",-8.99731377496407],["verschillen",-9.000295203641453],["Z",-9.005472309826],["lijn",-9.0059033716037],["vakantie",-9.006187887431386],["België",-9.007830679547187],["januari",-9.011791019044377],["gebeurt",-9.013260186249887],["aard",-9.01453469885622],["woordvoerder",-9.015799239264052],["aandacht",-9.016443000365001],["terecht",-9.018555561385844],["schade",-9.020972162417046],["40",-9.021162166865171],["Jan",-9.021408913277853],["verdachte",-9.02223385116098],["functie",-9.022509236725554],["handen",-9.022626206062647],["voetbal",-9.022963002557152],["aar",-9.025522888718541],["enkel",-9.027236289976468],["Geen",-9.027479760045455],["14",-9.028538064493574],["project",-9.030509087014632],["FC",-9.03141674798676],["begon",-9.031488539157792],["anderen",-9.038915440444455],["oude",-9.039011374625872],["denkt",-9.04243925249937],["gezegd",-9.043227261093978],["sport",-9.043486599448155],["ve",-9.04573330313243],["Tot",-9.046610575637084],["ulli",-9.046624815212557],["winnen",-9.050098388630428],["Onder",-9.058233832329547],["lijk",-9.059716450141156],["lever",-9.060982898854112],["voorbij",-9.061066566376653],["sterk",-9.062687675472858],["beginnen",-9.062805498739095],["risico",-9.06307830408172],["winst",-9.065759355469659],["gang",-9.067400684413009],["begint",-9.069603030916316],["gesprek",-9.073847156969798],["Noord",-9.074383425525294],["strak",-9.074536625586301],["speelt",-9.07930395014715],["verkiezing",-9.079666475334584],["fiets",-9.080274157788963],["slecht",-9.081378546840373],["informatie",-9.083275610459769],["Franse",-9.086090675446588],["beelden",-9.086434324801433],["dacht",-9.086467440318778],["voldoende",-9.086791594891228],["Veel",-9.09091977963356],["verantwoordelijk",-9.091960756464694],["verschil",-9.092350477457494],["liep",-9.092750817997747],["eindelijk",-9.093187547976003],["lijst",-9.094166776122814],["uw",-9.096439951196498],["dank",-9.097443961672042],["slachtoffer",-9.098491032535005],["spel",-9.09942885589864],["Britse",-9.100860921998212],["kost",-9.100896464457612],["film",-9.101141708501562],["opge",-9.10247069279648],["vlucht",-9.103211994458196],["juni",-9.10328623511929],["Vlaams",-9.103366125489345],["wegen",-9.104490722260703],["13",-9.104609457021372],["zoeken",-9.10564022885707],["voorkomen",-9.10693597609766],["bare",-9.108200655319639],["leger",-9.108538112604936],["halve",-9.109271664673376],["wonen",-9.111613887554777],["gaf",-9.113013021937562],["begrijp",-9.116999758332838],["personeel",-9.11756424351125],["spraak",-9.117841006140681],["vertrouwen",-9.12008647954791],["23",-9.120886621095707],["huizen",-9.12103924065142],["gebeur",-9.121896342461634],["crisis",-9.12230597863752],["zes",-9.123488969630046],["500",-9.123635250588173],["VVD",-9.128071745130153],["natuur",-9.128517430604061],["uren",-9.129926183185201],["lucht",-9.130125855855526],["Belgisch",-9.130772196656826],["lager",-9.131278531971542],["D66",-9.133797283823837],["Net",-9.13420809846416],["viel",-9.137806021530757],["september",-9.13880916330473],["stroom",-9.145927339300655],["Zuid",-9.146499121017051],["personen",-9.147273114863312],["ë",-9.147410796848646],["elektrisch",-9.147916407075055],["online",-9.14793981473364],["bedrag",-9.150409294949544],["J",-9.15153597236114],["wan",-9.151714097051226],["ën",-9.1518570948659],["politieke",-9.151948833937016],["legt",-9.154141181405448],["vluchtelingen",-9.15449519357064],["Sinds",-9.15704480923672],["zware",-9.158773829466195],["steun",-9.160188214326638],["trokken",-9.160594520736094],["premier",-9.16212947704621],["locatie",-9.16223930869764],["klanten",-9.162301415436858],["ij",-9.162456261397315],["ebru",-9.163032266857954],["hoeft",-9.16316273789726],["contract",-9.164934889845286],["international",-9.165013918340685],["Alleen",-9.165351378807397],["macht",-9.166236148426792],["voormalig",-9.16632142909959],["zeg",-9.166601578851285],["korte",-9.169047923545389],["stemmen",-9.171130974696752],["zwaar",-9.171783152058879],["Ben",-9.172074156864136],["noem",-9.172644107877087],["publiek",-9.172682344422046],["mens",-9.17344052853474],["lid",-9.17626227746273],["belangrijke",-9.177153322547253],["rust",-9.178964979005574],["mei",-9.179533199075106],["belang",-9.18129911471977],["gevon",-9.18164483146322],["CO",-9.182231309038478],["vele",-9.186892934220381],["x",-9.187288029810995],["video",-9.187491258963181],["baan",-9.188021177027196],["woord",-9.188725217764466],["los",-9.189421005503133],["enorm",-9.190481710997357],["slot",-9.191047996739815],["zoal",-9.191548347679628],["stappen",-9.191605081732455],["normaal",-9.19290149276921],["Haag",-9.19299383206172],["kieze",-9.193905333214898],["bepaalde",-9.195185717033922],["kamer",-9.195400319733565],["rechtbank",-9.196323092139309],["winkel",-9.197019086955777],["ministerie",-9.200057532911941],["antwoord",-9.201885254897693],["afstand",-9.203007830396261],["Frankrijk",-9.204118218070398],["stoppen",-9.204974962402712],["studenten",-9.204979352066458],["wist",-9.206799442825488],["prima",-9.206904215714042],["ële",-9.208794114370097],["economisch",-9.208932069760184],["zin",-9.209151326320754],["bezoek",-9.209623508433623],["wijk",-9.210462701795585],["hart",-9.213024252028815],["vlak",-9.213350512471393],["contact",-9.214090165528063],["voeren",-9.214171629024333],["klink",-9.215498610685962],["sprake",-9.21655623117146],["len",-9.217979761133563],["80",-9.21854822762542],["liefst",-9.218873441388192],["volk",-9.219030078775608],["inwoners",-9.220388250302062],["links",-9.221362338470726],["schrijft",-9.222500925970962],["omgeving",-9.227128875260078],["keuze",-9.227513903570415],["persoonlijk",-9.228322292156328],["Heb",-9.228464257042582],["League",-9.228491700721982],["directeur",-9.228673573036797],["hoogte",-9.22949776165736],["verbod",-9.230971513692264],["geweld",-9.233277481781993],["Ajax",-9.233447418419171],["leef",-9.23490599085132],["echte",-9.235349573955162],["trein",-9.237234650021925],["termijn",-9.237297922439057],["collega",-9.238433878017052],["Nederlanders",-9.241670169743845],["jouw",-9.242301834002358],["volgend",-9.242513253386205],["spreken",-9.242563937779032],["race",-9.242647485060504],["positie",-9.242820606577798],["betref",-9.243500128325135],["planne",-9.24642505823978],["besluit",-9.247293924953118],["ontwikkeling",-9.24736326461234],["jongeren",-9.24865141127631],["Misschie",-9.249219166542542],["oog",-9.250195874147327],["ronde",-9.250790887989869],["schrijven",-9.251493566008072],["ktober",-9.252829408912032],["liever",-9.253153930978307],["Twitter",-9.253269142883752],["zoon",-9.255012271936252],["bestaa",-9.256934802198654],["spelers",-9.257496223944845],["ster",-9.2624050111564],["groei",-9.26344074255678],["He",-9.26398141961841],["Tijden",-9.265419257692564],["é",-9.267055617658524],["bevolking",-9.267274714315434],["Alle",-9.267696800446267],["maatschappij",-9.268699352001429],["juli",-9.268799574375333],["dochter",-9.268826055354731],["Nog",-9.269398431856574],["productie",-9.271037665155422],["persoon",-9.271177700446653],["leren",-9.272261142992967],["kracht",-9.272391450389659],["gratis",-9.273964573378503],["Twee",-9.275226863603464],["band",-9.279431440003176],["lokale",-9.28012289818545],["prob",-9.282057071687333],["camera",-9.283343139779465],["serie",-9.283427868138707],["koers",-9.28387390593208],["economie",-9.284344545657405],["melding",-9.284528257072846],["proces",-9.285026125571346],["dorp",-9.287901159729262],["ex",-9.288516666399026],["twintig",-9.288663078794418],["militaire",-9.293271337805077],["producten",-9.294113432777506],["provincie",-9.295015830941793],["politic",-9.297711938597569],["Staten",-9.29815969490543],["succes",-9.298715966306911],["35",-9.299077513505852],["artikel",-9.299625018227186],["NAV",-9.299756834238494],["november",-9.300371285711552],["rapport",-9.30070846104594],["stikstof",-9.302304186523713],["enorme",-9.302476860477373],["roepen",-9.3037248163571],["doe",-9.305268628378952],["cultuur",-9.305309668074463],["PS",-9.306548290360412],["raad",-9.310585954363031],["diensten",-9.3151002042171],["voorlopig",-9.31625639497274],["Verder",-9.316413880813485],["zorgt",-9.31652067227898],["kennen",-9.31655369313699],["trainer",-9.316890253811916],["zeven",-9.322039690288886],["plaatsen",-9.3228682858288],["leider",-9.32434898669862],["verlies",-9.325005644688158],["morgen",-9.327321697778203],["Mark",-9.331492870307596],["Trump",-9.332482710796706],["sloot",-9.334336133228678],["last",-9.334410086256991],["financië",-9.334501087541296],["bouwen",-9.334720968709652],["geldt",-9.335107773949822],["advies",-9.336288022596907],["dragen",-9.336325244068016],["namen",-9.337394225143392],["geraakt",-9.337773025402964],["On",-9.3380793400008],["verandering",-9.33841894081151],["kijkt",-9.338739835030207],["Chine",-9.33894786663251],["Brussel",-9.339065444519358],["mening",-9.340893617575862],["voertuig",-9.342942407345252],["ou",-9.344552425558529],["geschiedenis",-9.347524505853794],["sturen",-9.348733733908393],["toernooi",-9.348826059401684],["bouw",-9.349280002351644],["lastig",-9.351967453585388],["Be",-9.352670512018273],["kozen",-9.353518454176545],["wagen",-9.353580948557227],["loos",-9.354017060222974],["woorden",-9.354407680255974],["burgers",-9.355858592854837],["ut",-9.356738196550495],["rente",-9.359716484305565],["overigen",-9.363953484518252],["Nee",-9.364384194347068],["bericht",-9.365631140587743],["versie",-9.366008522560069],["gingen",-9.366741074681634],["draaien",-9.367154616485976],["jou",-9.367374176284004],["verwachting",-9.369603336043426],["volle",-9.369647648500852],["ven",-9.370165475433579],["sneller",-9.370654839956071],["nam",-9.37180756657175],["tafel",-9.371869284732401],["opvang",-9.372342028183933],["speelde",-9.374143715210234],["reed",-9.374600718472529],["gehaald",-9.374745072808604],["hield",-9.376510096349975],["tjes",-9.377222342700163],["april",-9.377374434565859],["dagelijks",-9.377523886592524],["wann",-9.377562081563664],["tekort",-9.377816605426077],["tegenover",-9.378197697029913],["sche",-9.37897304980334],["woon",-9.379698672655957],["park",-9.380474118381528],["gesteld",-9.38053630045859],["fout",-9.381168194308257],["geschr",-9.381336877559688],["iPhone",-9.383059903676088],["Antwerpen",-9.38327533682769],["slachtoffers",-9.38641268807622],["Mensen",-9.386964033527846],["platform",-9.38851929245335],["ervaring",-9.388807922250916],["val",-9.388819341940684],["december",-9.388868678620586],["praten",-9.389124079242094],["burgemeester",-9.390332518952697],["60",-9.390686046373403],["sprak",-9.392259654865324],["winter",-9.392534295631854],["geloof",-9.393097380456929],["dak",-9.393431206336626],["leiden",-9.393830465184523],["70",-9.393968234213125],["model",-9.39419888983902],["feit",-9.39535803104409],["waarde",-9.396949907954395],["scherm",-9.398830141500632],["website",-9.40034743257832],["to",-9.402866328101751],["noemen",-9.405479782015565],["kwaliteit",-9.405606432372492],["Oost",-9.405919850167635],["schuld",-9.406290891813931],["OS",-9.408450214726496],["post",-9.410031238435755],["test",-9.411110166940793],["vrienden",-9.413083999717855],["Ge",-9.413916584186117],["bestaan",-9.414326315412183],["Kan",-9.415095083140208],["verkeer",-9.41768505503198],["sprong",-9.419939804797373],["kwartaal",-9.423474146163759],["90",-9.424147342773049],["Verstappen",-9.424322703389354],["kaart",-9.427428621654146],["motor",-9.427518936690847],["duur",-9.428243471019513],["laag",-9.428929457435842],["lichaam",-9.4295915921323],["gevraagd",-9.431102117014689],["wijl",-9.431923458909957],["getroffen",-9.43252378155763],["leeftijd",-9.435702051444046],["Tweede",-9.436119946888827],["verleden",-9.436159220366509],["ugust",-9.43620679659898],["pandemie",-9.43642300151931],["name",-9.436968946797288],["NL",-9.437656102437312],["leiding",-9.438798923361576],["middel",-9.439191705127469],["stap",-9.439716503798842],["vertelle",-9.441464877452376],["sanctie",-9.444214034125594],["overleden",-9.444822806236218],["tijdelijk",-9.445121075524344],["kerk",-9.445895328328271],["veiligheid",-9.44813156421938],["â",-9.44855302234728],["sluiten",-9.449517286091144],["controle",-9.44975121776428],["titel",-9.450648204752722],["Rotterdam",-9.45216614247109],["27",-9.452938975488017],["verkopen",-9.453142126117896],["bal",-9.454184920603264],["veilig",-9.456414336681245],["va",-9.457437112614404],["verkoop",-9.457944102576768],["straf",-9.460155993196166],["28",-9.460485921025006],["onderzoeker",-9.460550888656018],["samenleving",-9.460954400785695],["di",-9.462382087064828],["kop",-9.462467080361796],["rs",-9.463093028894434],["orde",-9.4636993115538],["belangrijkst",-9.463970920916754],["beslissing",-9.467190126783326],["wet",-9.467929019307347],["gewon",-9.469352889257943],["bestuur",-9.46956996989049],["loop",-9.469968544733357],["Onze",-9.4705152533185],["26",-9.471378762397338],["actief",-9.472646234565069],["ondank",-9.474240890731725],["ieso",-9.477615787621742],["gegevens",-9.478529951288467],["eken",-9.479040255898187],["burger",-9.481604804844238],["Nou",-9.481690618735637],["dieren",-9.482248959097713],["allerle",-9.482307020282999],["samenwerking",-9.482733053136464],["krege",-9.483147599366749],["makkelijk",-9.485528537780208],["akkoord",-9.486172953663239],["voelen",-9.486284343168904],["begonnen",-9.486859139296408],["volgt",-9.48906573991247],["agent",-9.489288876085231],["Max",-9.490023921296764],["bewoners",-9.490601814848366],["tegenwoordig",-9.491113871955708],["45",-9.491603406985153],["wapens",-9.491915127309174],["keren",-9.493106799520167],["raakte",-9.49466591084824],["vliegtuig",-9.49806100623926],["beschikbaar",-9.498436328772138],["Utrecht",-9.498841642005097],["duel",-9.499227361223625],["immers",-9.500833864944479],["kijk",-9.501398673059803],["telefoon",-9.501705587887628],["Ver",-9.505181655579822],["asielzoekers",-9.507705236355989],["coach",-9.508528176732955],["draagt",-9.511631771832262],["kennis",-9.512242789811907],["invloed",-9.512752752619951],["Eerder",-9.51295815045324],["werknemers",-9.515410442830422],["verdacht",-9.51639792047292],["vroeger",-9.517329769111782],["brief",-9.518194745475746],["midden",-9.51835149485227],["Naast",-9.518709010196414],["trouwens",-9.51889089198204],["patiënten",-9.519041638089934],["verklaring",-9.5190548605195],["wijzen",-9.519510852027459],["expert",-9.51962231671404],["stil",-9.52044441346532],["gebeurde",-9.521312672320942],["industrie",-9.522935077881316],["Vorig",-9.525281402570595],["Vlaanderen",-9.52532308025966],["kritiek",-9.525338248411064],["generatie",-9.525451198452451],["onge",-9.52553059124019],["West",-9.52580891081864],["vierde",-9.526246985852758],["verkocht",-9.528603993958612],["reis",-9.529214542946946],["omzet",-9.531816328443739],["wereldwijd",-9.533073431128209],["duurder",-9.533166722322907],["stem",-9.534387635655804],["maxima",-9.537471638624439],["commissie",-9.53865499159182],["merken",-9.538999326035736],["Tour",-9.53903426644477],["positief",-9.539832977798044],["fans",-9.539866968184821],["aandeel",-9.541366130926127],["X",-9.541653554859339],["+",-9.54329268215875],["daarme",-9.54348439058788],["stijgen",-9.543530720965752],["heet",-9.543578148088873],["Boven",-9.54402424717445],["hoogste",-9.545219419235458],["tekst",-9.546168788899038],["merk",-9.546657507370703],["Oranje",-9.548790163305576],["brandweer",-9.549488787337388],["feest",-9.550321543863365],["mond",-9.550500952681215],["overal",-9.551364568395964],["poging",-9.552235428129976],["krant",-9.552785442771597],["gelukkig",-9.552808196707021],["overwinning",-9.553168266597885],["grade",-9.553733124775293],["probeer",-9.55494136021802],["Iedereen",-9.557287370996375],["kwijt",-9.557737569762807],["vertelde",-9.558955650938366],["aanval",-9.559554524727055],["bewust",-9.562752261728651],["vrije",-9.563366169364443],["nood",-9.563508745974609],["gewond",-9.564506108203801],["OM",-9.565714441111242],["milieu",-9.565839533495268],["kwestie",-9.56600744462638],["boete",-9.566989038697004],["drugs",-9.570236880189363],["vriend",-9.570422239463419],["lag",-9.570545349877653],["tuin",-9.572821284134916],["vraagt",-9.573732889156503],["incident",-9.57403823202921],["hangen",-9.576196828858857],["gewerkt",-9.57852403173932],["qua",-9.57872410450269],["pensioen",-9.57973432149068],["ont",-9.580267657037739],["sow",-9.580329788818958],["atie",-9.580638993947687],["gebeurd",-9.580951739008903],["organisaties",-9.581402362761267],["gen",-9.581973785756121],["gebouw",-9.582593899913851],["angst",-9.582706214723837],["Nederlander",-9.584254596473933],["eemt",-9.58487689684987],["vermogen",-9.585160201445433],["gewone",-9.585861937938638],["Ga",-9.587661293002105],["omstandighe",-9.587875057846881],["TV",-9.58827007890508],["bracht",-9.589822754009479],["virus",-9.590054950380457],["fijn",-9.591412825640539],["29",-9.592407827769271],["koop",-9.592738488192325],["berichten",-9.59379256566009],["vergeten",-9.594116160872904],["interview",-9.595173544037356],["rode",-9.595240219263694],["ische",-9.595686596476877],["eigenaar",-9.595916519596596],["Zaken",-9.596437380316454],["waard",-9.596448846826418],["jes",-9.59813339789884],["ding",-9.598238156386763],["Biden",-9.601254536075995],["taal",-9.601272580746546],["pijn",-9.602217239814463],["simpel",-9.602797856320635],["levert",-9.602818062308852],["daarvan",-9.60298468772907],["massa",-9.603737240842523],["Vooral",-9.603889331028789],["og",-9.60560807829848],["slaan",-9.606228921311182],["leek",-9.607771603244753],["bewijs",-9.608043009181152],["raken",-9.60821852995763],["behoorlijk",-9.608399857082102],["Daarna",-9.609444569254055],["jeugd",-9.610166339080308],["plein",-9.610189163005774],["Suriname",-9.610270646771067],["groeien",-9.610512174789367],["netwerk",-9.611092993934793],["kunst",-9.611540127409059],["ervoor",-9.612576162673331],["gelegd",-9.613492694974429],["veranderen",-9.616164115520021],["vuur",-9.617332762846512],["bang",-9.619176529528445],["Unie",-9.619540410085035],["bus",-9.6204017877672],["Frans",-9.620995448596975],["variant",-9.622572356472162],["Kaag",-9.622964817034926],["selectie",-9.622968819437254],["definitie",-9.622976271609858],["gezicht",-9.623637691907316],["vrijheid",-9.623665788237707],["stijging",-9.624508294227446],["gisteren",-9.625806056407853],["bestaande",-9.626717131085131],["onderwijs",-9.627538212354732],["liefde",-9.628203325157827],["gezin",-9.629295977126167],["Pro",-9.629748848743084],["moeite",-9.630264050566854],["centrale",-9.630756140644296],["snelheid",-9.63156496076177],["Zelfs",-9.63380426626973],["spreekt",-9.634713969563254],["doden",-9.63488263685554],["hof",-9.63756979207837],["meerderheid",-9.637706779785848],["algemeen",-9.638171899060026],["hopen",-9.63885970552596],["bezoekers",-9.638864138768298],["uitge",-9.63928222612407],["Sint",-9.639898927158786],["duren",-9.639931871574348],["negen",-9.640536935799162],["deels",-9.64198632677672],["schree",-9.647161017217169],["cel",-9.648038778480652],["maak",-9.648848028687961],["ziekte",-9.64948537153456],["betaald",-9.649802079504445],["hout",-9.651317377472305],["optie",-9.652395732453439],["gevaar",-9.652817919323304],["sta",-9.65391405798609],["dergelijk",-9.65404759810102],["genoemd",-9.654241547746473],["witte",-9.655854020580927],["schap",-9.65742077735877],["Rond",-9.657452363452386],["populair",-9.657517584744689],["lijken",-9.65886408413936],["jaarlijks",-9.659245481112885],["wijze",-9.66035653768668],["code",-9.660506990896895],["afhankelijk",-9.663037483176057],["voren",-9.663666139338511],["75",-9.665871562691056],["bloed",-9.666928568331922],["kent",-9.667386239377826],["ho",-9.669964375291283],["wapen",-9.672376325961416],["kleur",-9.674330375299814],["diverse",-9.674529749541243],["ra",-9.674580326379317],["uwelijks",-9.675025018870056],["trekt",-9.675043603420646],["bestuurder",-9.675309776311245],["Google",-9.675549612125712],["verliezen",-9.675743941734368],["Pas",-9.676423064111615],["speler",-9.676622398831782],["La",-9.677217843469377],["training",-9.678994317198397],["eeuw",-9.679756045148748],["tegelijk",-9.680771395630224],["ontstaan",-9.681519566852376],["genoot",-9.681629987166309],["reeks",-9.68180827850855],["plekke",-9.681969765579957],["werkelijk",-9.682251289812452],["verhalen",-9.683226228739255],["Feyenoord",-9.684432253139047],["Wanne",-9.684450585912165],["bepaald",-9.686311909651181],["hoeven",-9.686334289706908],["operatie",-9.68701394093727],["wijst",-9.68733246507995],["national",-9.688026557657436],["groen",-9.688149464091307],["gehoude",-9.688284420173968],["temperatuur",-9.68909354939196],["verlo",-9.690160942433117],["regelmatig",-9.690719690005794],["gericht",-9.691250987674723],["ontvangen",-9.691536460959624],["baas",-9.692926483190956],["Berg",-9.69422416345213],["helpt",-9.694619615849156],["gebruikers",-9.694887394175996],["zwart",-9.69504323103198],["Zou",-9.696807645441194],["beurs",-9.698595063749476],["goud",-9.698760007393101],["omhoog",-9.699385094591985],["optreden",-9.699868381744412],["steden",-9.701952125329393],["Jong",-9.703113333829695],["beroep",-9.704843251869526],["show",-9.706534895857786],["technologie",-9.707579710354732],["Even",-9.708026943177513],["haalt",-9.708236478722991],["boom",-9.708476367529343],["podium",-9.708566726138521],["leid",-9.70956498787239],["vaccin",-9.710580968713408],["kamp",-9.712002615048917],["elukkig",-9.713582738376527],["Vandaa",-9.715744279762708],["aandelen",-9.718016238096311],["Meer",-9.718658603101693],["mede",-9.721155835374606],["verbruik",-9.722840113714746],["Qatar",-9.722993296306857],["geloven",-9.72322494989476],["bekijk",-9.72327196022044],["bak",-9.72350428463701],["blauw",-9.724195886876593],["nooi",-9.724385576344797],["Europees",-9.72462985491514],["ongeluk",-9.725029269919506],["zagen",-9.729647831051581],["zege",-9.730163869069651],["eisen",-9.73037146901558],["waarvan",-9.730549267565955],["prachtig",-9.731203225076825],["geheel",-9.731587671434454],["advoca",-9.731649886077498],["co",-9.731915164808598],["rijdt",-9.733064330019255],["Air",-9.733976518468967],["studie",-9.734660522869184],["buitenland",-9.734708854587007],["stemming",-9.734865127899084],["dader",-9.734911731427907],["terrein",-9.739055279513106],["passen",-9.739286521703136],["Schiphol",-9.739322762908074],["Musk",-9.739400840775824],["standaard",-9.739524350856914],["stel",-9.739578684734484],["Spanj",-9.740057766081112],["verdienen",-9.741205510061523],["voordeel",-9.741235704913247],["El",-9.741413090049761],["vlees",-9.74230365968625],["boeken",-9.744776496815023],["voedsel",-9.744879823751663],["effect",-9.746215695139032],["Afrika",-9.74674839892554],["carrière",-9.747581015550654],["geplaatst",-9.747683946336132],["scholen",-9.748094050655602],["gelaten",-9.748138945762012],["John",-9.74835705898072],["gebrek",-9.748581573816768],["kond",-9.749157510743625],["stelde",-9.75144551406929],["troepen",-9.752251045101076],["Red",-9.754657023464475],["festival",-9.755279815643647],["museum",-9.75591373598134],["jongen",-9.75596641614809],["Zeker",-9.756382888892325],["klachten",-9.757784636384628],["Le",-9.757948732636104],["debat",-9.758755171732126],["moord",-9.759909870844055],["haven",-9.76099097966104],["Q",-9.761183057923601],["twaalf",-9.762956867651383],["zwarte",-9.764389695035423],["afdeling",-9.76445969015441],["geweldig",-9.765204544868208],["helaa",-9.765602822668686],["meisje",-9.766447610040807],["resultaa",-9.767106106956316],["geleverd",-9.767742889580646],["melden",-9.767983783225112],["voet",-9.768049815431734],["sch",-9.77036245449192],["Wil",-9.770485860028753],["New",-9.770562754984725],["hoopt",-9.770868282322322],["fase",-9.771216258637292],["Polen",-9.771506333138143],["type",-9.772395979824626],["hotel",-9.77262782581792],["papier",-9.772749180598876],["anti",-9.77292497977843],["serieus",-9.773337839061384],["discussie",-9.773870953465547],["update",-9.774614095702045],["ingezet",-9.777485720378465],["kampioen",-9.77750278107079],["Open",-9.777714791613866],["regeling",-9.778120245894712],["minste",-9.778347709924883],["zette",-9.778550626304352],["raden",-9.77862643745096],["hangt",-9.778774878726477],["jongens",-9.780283281112343],["Denk",-9.780500594237154],["uitstoot",-9.780605480811861],["comple",-9.781618219109951],["autoriteit",-9.781691001056704],["dra",-9.782469180750649],["Som",-9.783610341156287],["record",-9.785326041335985],["modellen",-9.787517652832356],["vormen",-9.787833306729334],["site",-9.789784114357516],["geluid",-9.789894227409313],["lees",-9.789895800576984],["Sommige",-9.789960495833384],["onderwerp",-9.790612639706506],["wacht",-9.79121256814246],["apps",-9.791713196709111],["steken",-9.791981005812904],["Sport",-9.792672340073235],["brug",-9.792973810302193],["Peter",-9.793575398898984],["bureau",-9.793681292107323],["past",-9.79451295778815],["Tesl",-9.794836748265638],["college",-9.797701387637744],["pand",-9.798517333819287],["fabriek",-9.7987259099543],["geboren",-9.798854318823192],["Parijs",-9.798859842084882],["gebouwd",-9.799487459681593],["komst",-9.800465604905721],["internet",-9.800941278661902],["treden",-9.801199008369132],["militair",-9.80123598723859],["rug",-9.801327213738844],["talië",-9.801489562823983],["schieten",-9.804623340372437],["maat",-9.804885482897653],["minima",-9.8052805182999],["vereniging",-9.805568398140977],["gespeeld",-9.807294837789003],["activiteiten",-9.807340572971547],["resultaten",-9.8077075589181],["bedoeld",-9.808441336716207],["pad",-9.808551560806142],["veiligheids",-9.809143159234335],["33",-9.809800070644295],["Laat",-9.811448787038676],["betere",-9.811786367342936],["horeca",-9.813745291978655],["kantoor",-9.813812814513525],["bier",-9.813955469037822],["leeg",-9.814374100219593],["etc",-9.814435733595767],["speciale",-9.815996814205093],["slapen",-9.816103646270708],["praktijk",-9.81627611913957],["Mercedes",-9.8162789165591],["impact",-9.81634295421319],["invasie",-9.816419384265924],["broer",-9.81643853547499],["kapot",-9.816574990182493],["opdracht",-9.818117403103377],["product",-9.81825759393957],["gehoord",-9.819558849912603],["voorzien",-9.820776414430611],["groene",-9.821157464094048],["Kom",-9.823270794226548],["sterke",-9.82329293173975],["for",-9.824141021962511],["grenzen",-9.824454122278304],["baby",-9.824965818087762],["PvdA",-9.825263670412388],["berg",-9.826089365622575],["Grote",-9.82624005518424],["Kijk",-9.827063977569829],["verband",-9.827382844943283],["aanbod",-9.827944733229284],["genieten",-9.830224806118647],["concert",-9.83072769628362],["Haar",-9.831086072578593],["gesteg",-9.83320917449867],["minuut",-9.834214007462236],["supermarkt",-9.834364221955344],["opzichte",-9.835313422809818],["deelnemers",-9.83590295691228],["199",-9.836552936679205],["eventue",-9.837693138640914],["twijfel",-9.838875462215771],["vliegen",-9.839403665437674],["bed",-9.84060194187111],["kleding",-9.841544021286206],["verschijn",-9.841605730605401],["nderdaa",-9.841616066327163],["protest",-9.842099663452553],["diep",-9.843009687546568],["filmpje",-9.843454654621809],["veroorzaakt",-9.844036067982048],["goedkoper",-9.84425319159007],["liter",-9.844271314014774],["jarenlang",-9.84444921337624],["CDA",-9.845086838919784],["2014",-9.846236033762747],["Amerika",-9.847670048023412],["Willem",-9.849370893306643],["pak",-9.851482014785464],["betaal",-9.851795291794174],["toont",-9.851948078319218],["conflict",-9.85247888970061],["digital",-9.852560599589037],["tegenstander",-9.85267380452922],["banken",-9.852744720185697],["wetenschapper",-9.853739120686956],["les",-9.853886477375863],["consumenten",-9.85728203579485],["Kie",-9.857610485895538],["ch",-9.858241796519263],["doorgaan",-9.85951326393327],["schepen",-9.859522503264728],["verzoek",-9.860787779702406],["32",-9.861289461883768],["zone",-9.862490880150185],["beweging",-9.862860417039103],["gereden",-9.864224906538897],["duurt",-9.864229005824098],["warm",-9.86430804242514],["Co",-9.864383166673777],["bomen",-9.864385201652428],["total",-9.864541067538688],["gooien",-9.86544223180596],["sluit",-9.866148647808389],["vriendin",-9.867419316515175],["seconde",-9.868227096830731],["bekende",-9.868680813972968],["game",-9.870551603711704],["pro",-9.870574263443206],["roept",-9.871137896744331],["campagne",-9.873623495948188],["winnaar",-9.87492871391254],["budget",-9.875390850287936],["criminele",-9.877160377096626],["Mosk",-9.87735844135084],["laas",-9.878154754904688],["Ro",-9.878456440464907],["gesprekken",-9.879227601879256],["broek",-9.879246729034486],["Kort",-9.879492965233162],["daadwerkelijk",-9.880565283114207],["toegang",-9.8806025059755],["brandstof",-9.881079028449896],["westers",-9.881278192262407],["Putin",-9.881821533578673],["stukje",-9.883743354352259],["reizen",-9.885028525754706],["sfeer",-9.885295971828363],["bereid",-9.885420207511338],["Leiden",-9.885664327736901],["ondernemers",-9.885899221885307],["plezier",-9.887333745670336],["rustig",-9.888287239361079],["aangekondigd",-9.890649935452537],["leed",-9.890914885944415],["handel",-9.890998362573914],["Bank",-9.891430564573355],["tientallen",-9.892016548132393],["ijs",-9.893665737110789],["Oekraïner",-9.893679440306931],["ertijd",-9.894028197375203],["draait",-9.8942205358807],["openbaar",-9.894504891307985],["eerlijk",-9.896614612846738],["kerst",-9.897149233904214],["schoon",-9.89752980393408],["eeft",-9.897551799817279],["31",-9.89778324888105],["gezondheid",-9.897912284404239],["Alles",-9.899690371255248],["kwart",-9.900887670364778],["miljoenen",-9.901904693644436],["tank",-9.902384105250665],["partner",-9.90243811890791],["raakt",-9.90469236049011],["Doe",-9.905579633253462],["spits",-9.905798477891901],["blessure",-9.906524975250793],["vertrekken",-9.907778982789097],["loon",-9.907871865246499],["wijn",-9.908032089176842],["letter",-9.908552585573997],["daad",-9.908798853352579],["overleg",-9.908963242388433],["reageren",-9.909366693342825],["vergelijking",-9.909508290236072],["editie",-9.909761496938316],["?”",-9.910049458093468],["up",-9.91015100426257],["asiel",-9.910483275238445],["kern",-9.913343842665675],["danks",-9.916843760263784],["City",-9.919186841098895],["historisch",-9.919193662276538],["haalde",-9.920321872681],["gestuurd",-9.920402692303426],["behandeling",-9.920735561134187],["droom",-9.920827969714022],["Moet",-9.921033250608216],["beperkt",-9.921828620953306],["slagen",-9.92226942977317],["indruk",-9.922529833422313],["Was",-9.922774057952175],["route",-9.924832385159705],["US",-9.924887554085416],["opvallend",-9.925312394687666],["herstel",-9.926897581401146],["middelen",-9.927030570042307],["dertig",-9.92769922408391],["conclusie",-9.929070749448314],["vervangen",-9.929317200146631],["Spaans",-9.929734577921657],["trots",-9.929998075380121],["feiten",-9.930145242886985],["westen",-9.930190236445096],["handig",-9.930879922413762],["live",-9.93091958063403],["greep",-9.931113717498015],["Dank",-9.93132752956086],["zak",-9.932829583335494],["trok",-9.933728929640452],["inderda",-9.933968380120449],["Wereld",-9.934163415093733],["techniek",-9.935748160559134],["ester",-9.936100741009936],["schoten",-9.938123451742438],["Instagram",-9.938373301324502],["lage",-9.939036819601897],["instantie",-9.939074578381724],["BMW",-9.939180706371223],["EK",-9.940187710556565],["afscheid",-9.941102121326011],["nieuwd",-9.941600224945695],["or",-9.942135604342477],["Italiaanse",-9.942608196836733],["ziek",-9.943085490895818],["spoor",-9.9433787410265],["drinken",-9.946024367369473],["rekenen",-9.946672403549947],["stuur",-9.94707029664118],["offici",-9.947389698465104],["dossier",-9.949191459825114],["ka",-9.949223411372284],["aangifte",-9.949260541816418],["Formule",-9.949326386805204],["spulle",-9.949427488040403],["aflevering",-9.950008710970755],["testen",-9.950701173339633],["konde",-9.95114619390749],["ongeval",-9.951508441236161],["400",-9.952130635355676],["combinatie",-9.95303969896274],["300",-9.953052732583073],["tip",-9.955337101867258],["hond",-9.955717299850487],["koning",-9.956479351511122],["hoek",-9.957167379408727],["extreem",-9.957805397207071],["bescherming",-9.958096255762523],["democratie",-9.958817496749845],["dikke",-9.95891920467336],["Facebook",-9.95938159242193],["hoef",-9.96229989353148],["Naar",-9.962314287015975],["pers",-9.965398987003883],["voorstel",-9.966315820510117],["ernstig",-9.967313204428113],["ouder",-9.96805954556769],["voorstellen",-9.969271646742168],["kansen",-9.969433920258208],["luchthaven",-9.970056823164068],["huishouden",-9.970089800416092],["beurt",-9.970358761401656],["landelijk",-9.973318880774979],["36",-9.976077056217708],["verplicht",-9.977675355129428],["bos",-9.978779109012194],["leidde",-9.978844207289058],["clusief",-9.97903431472481],["perfect",-9.980079786998507],["lukt",-9.980381832424865],["excuse",-9.980491802972406],["Watch",-9.980671435175626],["vechten",-9.98106722105874],["inzet",-9.98199040165183],["Paul",-9.98274721825947],["vuurwerk",-9.98289443692166],["competitie",-9.983539738339282],["acties",-9.984156682002173],["la",-9.985413927333841],["37",-9.985611961820398],["vijftien",-9.986221433173565],["schip",-9.987029666667762],["werkte",-9.987109607146266],["Ten",-9.988552271750805],["verloo",-9.988980844227314],["vergunning",-9.99066792024948],["Beide",-9.99101773535697],["buitenlands",-9.992586546161869],["bereikt",-9.993527421939671],["beslag",-9.99407188457139],["vertrek",-9.995229957085689],["Zelf",-9.9963217674865],["koffie",-9.996368493448074],["gerekend",-9.998406785691705],["geluk",-9.998831869160185],["Eindhoven",-9.998841269198318],["bereiken",-10.000151489184905],["officie",-10.000461884347029],["Minister",-10.001108948732888],["wisten",-10.00134035363534],["bodem",-10.001488383848706],["bedoeling",-10.002038087804326],["aarde",-10.002341443282873],["mail",-10.003226776537167],["gebrok",-10.003310948783147],["Samen",-10.003621122213808],["beleggers",-10.003776387073465],["leuke",-10.003823908744238],["inkomsten",-10.00509453371642],["rit",-10.005705072564037],["staats",-10.008495758571062],["besmetting",-10.009585777415836],["rijk",-10.009603589990908],["Gent",-10.01055014251649],["bondscoach",-10.012110526827573],["stadion",-10.01211791151172],["aanvallen",-10.012317536923247],["steeg",-10.012464857010816],["soldat",-10.012597772593555],["slechte",-10.013301559525004],["Johan",-10.01362247522302],["bijdrage",-10.014754334578463],["gelegenheid",-10.015902775768286],["veroordeeld",-10.016598516350157],["38",-10.016984758480476],["grad",-10.01812117142623],["ny",-10.020507461601683],["klant",-10.020983678248777],["rood",-10.021678016860257],["koppel",-10.021965373185898],["prestatie",-10.022591549334871],["uitdaging",-10.022987406665015],["zichtbaar",-10.02362367125435],["eiland",-10.023887736310773],["hou",-10.024282201287658],["boer",-10.026009067899487],["beschermen",-10.027185434692921],["investering",-10.027629445082674],["noemde",-10.028099790397906],["gedacht",-10.029209088791808],["golf",-10.03060133546504],["apart",-10.030610222024643],["zorgde",-10.031782593409467],["Bart",-10.033348452572138],["ce",-10.033721170834916],["jammer",-10.033773805901959],["pk",-10.03381299981457],["maatschappelijk",-10.033880282518865],["VV",-10.034175403260573],["scenario",-10.034180483260627],["wezen",-10.035549835901904],["linkse",-10.036197782812863],["welkom",-10.037790392939531],["levens",-10.038473548088067],["Groot",-10.038535450234233],["geschikt",-10.039098973818898],["Te",-10.039936316426875],["televisie",-10.040136885541862],["herinner",-10.040249643931638],["klopt",-10.041167859465515],["mogelijke",-10.04219478821895],["interessant",-10.043804080052237],["pakket",-10.044436986325781],["ingen",-10.044479273598446],["Defensie",-10.044994241033038],["vrachtwagen",-10.04500941761076],["Oekraine",-10.045123818686776],["Raad",-10.045808126975214],["verbeter",-10.048852757185045],["super",-10.04887171339156],["Tom",-10.049656914758767],["erger",-10.050152487375325],["afloop",-10.051613867878014],["coalitie",-10.051741970292131],["fietsen",-10.051824622370804],["gevangenis",-10.052350394452008],["uitkering",-10.052361179887608],["minsten",-10.052463566605043],["gekocht",-10.052801482550159],["55",-10.053385052359147],["dwong",-10.053626893518121],["opleiding",-10.054143472736392],["ineens",-10.054288660868846],["positieve",-10.054402307588052],["station",-10.054804564560202],["$",-10.056224730236192],["Koninkrijk",-10.056224731840876],["NPO",-10.056271116851672],["mo",-10.05758327493319],["bord",-10.057667641965134],["achtergrond",-10.057800096335322],["Commissie",-10.057837536229467],["breken",-10.058278007328525],["bron",-10.059622464475336],["leeft",-10.060401125996464],["vertegenwoordig",-10.061922717238538],["aller",-10.062089782446472],["logisch",-10.062195418647974],["schot",-10.062321473667541],["winkels",-10.063686703317327],["boel",-10.06493234912367],["Groen",-10.065842320192623],["wens",-10.066297610376767],["vaste",-10.06646710635614],["snap",-10.066779808545927],["zekerheid",-10.066880937420262],["fabrikant",-10.06692098956852],["voelde",-10.067542869641981],["uniek",-10.067960982014938],["software",-10.068629791277667],["oproep",-10.06990287039955],["Elke",-10.070408832347335],["uitgevoerd",-10.07090342598813],["klap",-10.070903674150431],["universiteit",-10.071820621730026],["praat",-10.072313443518162],["150",-10.07239495106374],["Afge",-10.072475543088244],["banden",-10.072681383652741],["index",-10.073073068525101],["EC",-10.073473503542985],["volgde",-10.075127199716917],["cent",-10.076479846765054],["amper",-10.077834284411459],["zetel",-10.078506042917795],["tevreden",-10.078670121069127],["aanslag",-10.078809091626994],["negatieve",-10.07908263725999],["Natuurlijk",-10.079134472316163],["Club",-10.079228866408773],["mir",-10.079400133636057],["woke",-10.079807808423642],["bevestig",-10.080134565527946],["principe",-10.080141745368845],["aanpak",-10.081907823684695],["leerlingen",-10.083095765151324],["Londen",-10.08371082335978],["gedragen",-10.083974730060888],["fractie",-10.084426884046966],["as",-10.084456516798214],["redelijk",-10.084524577096346],["her",-10.085142994642506],["aangepast",-10.085433828030475],["wethouder",-10.086576365516255],["alternatie",-10.086781346191348],["jong",-10.086798148013923],["vervoer",-10.087617652537748],["medische",-10.08773740577027],["afval",-10.088748311205272],["Me",-10.089365031287135],["café",-10.089783240917065],["stijl",-10.090374002607017],["privé",-10.090463098407666],["beperking",-10.090713953146938],["elders",-10.091802304964855],["verkeers",-10.0928134347371],["schaal",-10.093061618223006],["mate",-10.093191875894195],["Joe",-10.093424561995366],["onduidelijk",-10.094189147866032],["spanning",-10.094530082944896],["vakbond",-10.094806553424753],["behoefte",-10.095410918420178],["zulk",-10.095494358193701],["CB",-10.096033370654403],["boos",-10.097314079616496],["God",-10.097314435018989],["zuiden",-10.097363256428762],["blijkbaa",-10.098252981279972],["Bull",-10.099226322154234],["zolang",-10.100382512402575],["Echt",-10.100488776076443],["opgepakt",-10.100648036732071],["Rijks",-10.101718399445792],["lockdown",-10.102196543630946],["gebaseerd",-10.10250101726446],["Heel",-10.10460774516586],["centra",-10.104694718707234],["gemakkelijk",-10.105393488325426],["Rob",-10.106678004086039],["Euro",-10.106926834252207],["ov",-10.10698519853463],["Westen",-10.108622330990636],["geslag",-10.108736672490329],["woont",-10.109843967934662],["oosten",-10.110525536453308],["Manch",-10.111323128814675],["voldoen",-10.111821094283302],["alcohol",-10.112291924464675],["él",-10.112867530379337],["daling",-10.113124269843896],["Jumbo",-10.1143898441684],["uiter",-10.114456905488922],["vermoedelijk",-10.114591054837495],["Ministerie",-10.114626845537167],["groepen",-10.114746229118047],["stelling",-10.115058801320354],["verre",-10.115068868973442],["vlag",-10.115305980261887],["Ma",-10.115393803481332],["Antwerpse",-10.117384696696199],["focus",-10.117526257123679],["vrijwilligers",-10.117668984947175],["LM",-10.118959521731277],["verdwijnen",-10.119325050796931],["Holland",-10.119445134645185],["boot",-10.119815119521096],["vijftig",-10.122019207695068],["gemeenschap",-10.123247841596204],["gepland",-10.124726626122438],["voorkeur",-10.125154006057945],["thema",-10.125801809211975],["account",-10.12642284826405],["coureur",-10.12642819904962],["materiaal",-10.12642819950197],["Baudet",-10.12647748504235],["automatisch",-10.12650452694237],["onderzocht",-10.127277982649142],["ring",-10.129923668200973],["erop",-10.130824916126013],["34",-10.1310582283134],["hi",-10.131294172131605],["gemeld",-10.132218783969059],["stoken",-10.133078435157486],["riep",-10.134400898748854],["red",-10.134530507127614],["plaatsvind",-10.135278369344697],["respect",-10.135454396906276],["elf",-10.135991741672324],["voorwaarde",-10.137132625154708],["sloeg",-10.137290998222188],["Ho",-10.137397431249441],["Arnhem",-10.138038221207115],["€™",-10.138628728679294],["financieel",-10.138643803711673],["verhogen",-10.138660166628881],["zakken",-10.138674395529955],["begrip",-10.138686874665819],["verspreid",-10.138924255319154],["play",-10.139156903798245],["geleid",-10.139923737057423],["bezit",-10.140342199497018],["VA",-10.141339574870608],["gevoerd",-10.141532398407847],["Da",-10.142086771676103],["ervaren",-10.142159693370097],["Anders",-10.142334341143428],["meldde",-10.143391724133945],["kanker",-10.143873966831531],["verkeerde",-10.143953208884394],["vaccinatie",-10.144715111644619],["Had",-10.145411287577756],["legde",-10.145585381422102],["seks",-10.148349207728687],["fonds",-10.14863791548661],["kilo",-10.149554219949144],["dalen",-10.150070770075594],["Ju",-10.15010369682497],["Hamil",-10.150990227375592],["écht",-10.15101480144364],["gepakt",-10.151041444558878],["status",-10.151236303607504],["stijds",-10.151847313453759],["probeerde",-10.152298852380461],["openbare",-10.152796374213596],["beschikk",-10.153044018264325],["oudere",-10.153898308935467],["gedeeld",-10.156216181888599],["stukken",-10.15768186750482],["Live",-10.157803730249967],["York",-10.159181803025426],["manager",-10.159869127678657],["wit",-10.160250140064278],["defensie",-10.160542121085662],["dijk",-10.16095199421388],["AD",-10.161087110012932],["crypto",-10.161657737030858],["go",-10.162640784556256],["vloer",-10.162846476033941],["loze",-10.163455566521092],["armoede",-10.163459366198401],["ko",-10.164946821671997],["subsidie",-10.165681671328596],["Mol",-10.16640815853869],["starten",-10.166907164172326],["waarna",-10.167400510516776],["georganiseerd",-10.168263237989137],["bedrijfs",-10.168989795833419],["gaten",-10.16926292799277],["eenvoudig",-10.169717500002928],["snelle",-10.169721923062045],["lachen",-10.17001167196835],["stichting",-10.170179495543678],["gewicht",-10.170220760100301],["telt",-10.170447074440808],["verzet",-10.17048412171195],["diesel",-10.170499102096128],["sprint",-10.171120219541532],["gemeenteraad",-10.171131408122966],["gezond",-10.17235991729859],["onmogelijk",-10.17253123078634],["am",-10.173398419687214],["duurzame",-10.174054831906473],["daalde",-10.175007588580325],["2000",-10.175058886896299],["argument",-10.175582305236773],["kandidaat",-10.176127241325894],["Tegen",-10.17636777414549],["oorzaak",-10.176369720081375],["blijf",-10.176681618590518],["coronacrisis",-10.1768351289066],["Nieuw",-10.17757006556258],["reizigers",-10.177848377011847],["Turki",-10.178332901431894],["gezellig",-10.179957373610492],["Drie",-10.179988710729585],["strand",-10.180414050200397],["huur",-10.181039568091151],["goal",-10.181459210097987],["absolu",-10.18149467338923],["parlement",-10.18275825128818],["arm",-10.18310172164446],["bepalen",-10.183355921830085],["gezondheids",-10.18348098778504],["probeerd",-10.184088380611971],["eentje",-10.184121923900225],["kleuren",-10.184234533627905],["Limburg",-10.184394569871717],["Ander",-10.184425792185232],["capaciteit",-10.184488697573165],["ha",-10.185317248987765],["journalist",-10.186642775756042],["bedoel",-10.186860046408949],["richten",-10.186915082974556],["aanleiding",-10.187296800702818],["boodschap",-10.187341056874546],["aal",-10.187833980506007],["Frank",-10.187919346888053],["decennia",-10.188273740828167],["kust",-10.188485642812967],["system",-10.18874696003256],["zonnepanelen",-10.188990785167631],["Brugge",-10.189554723579107],["zogenaamd",-10.190358673407866],["Eerst",-10.190470447093817],["Binnen",-10.190502648454736],["herinnering",-10.191231935390409],["Dijk",-10.191627920048258],["belangen",-10.191688497719834],["snelweg",-10.191698528337186],["hersen",-10.192284031384876],["proef",-10.192644580445883],["iederee",-10.19348351057495],["luxe",-10.194074839432805],["boord",-10.19448044376289],["out",-10.194585859531074],["overlast",-10.19568983012622],["vrede",-10.195816696611107],["buren",-10.196301134055219],["ontdekt",-10.196837768807992],["bond",-10.197297591862668],["NS",-10.197428081838133],["gat",-10.197432429181884],["eindigde",-10.198145335620701],["acteur",-10.198832044431812],["complex",-10.199049727298732],["publieke",-10.20025770800196],["vrees",-10.201003841031488],["communicatie",-10.201595625572551],["gevangen",-10.20168657759586],["strategie",-10.201932371504977],["speciaal",-10.201934771978195],["Zelensky",-10.201938613093041],["aanzienlijk",-10.202030850360376],["United",-10.202040477733014],["ontstond",-10.202381128767648],["betaalt",-10.202462822945488],["Zie",-10.202580672550372],["Via",-10.20365670105381],["Huis",-10.204612030677332],["uitgebreid",-10.207514309808452],["leiders",-10.207615375122701],["bronnen",-10.207830602715742],["Go",-10.208826570691059],["oor",-10.20893008314219],["veranderd",-10.210229621506691],["Man",-10.21027419179621],["verkeerd",-10.210887696460027],["pelijk",-10.210948684996005],["Hug",-10.211375847614839],["pakt",-10.211444082579632],["iteit",-10.211747547375968],["laden",-10.212211524804022],["slaap",-10.213227380970395],["wakker",-10.213421426187407],["nek",-10.214718790427881],["Champions",-10.215092796509932],["Michael",-10.21511178632909],["Johnson",-10.215220042619716],["films",-10.215244367852044],["Vervolg",-10.215276347637358],["ontzettend",-10.215277725955861],["coronavirus",-10.215575382489419],["65",-10.215780905734206],["factor",-10.216050796909336],["geboden",-10.216875442943135],["gestart",-10.217625295421279],["redden",-10.217666579635974],["supporters",-10.217758528304058],["ambitie",-10.218580346191027],["teams",-10.218625028832694],["Gelderland",-10.219430188282864],["ontwikkelen",-10.220419451166398],["benadrukt",-10.22087003580876],["zul",-10.22105594122345],["onderhandeling",-10.222024940220555],["Premi",-10.222119921055128],["Weet",-10.222422565395922],["procedure",-10.222445712015794],["culture",-10.222941728249303],["198",-10.223263980975462],["600",-10.223847563662762],["twijfeld",-10.224345753402284],["achtste",-10.224701550079814],["knop",-10.225104131088639],["schoot",-10.225753075789576],["Japan",-10.225883880335907],["tellen",-10.227665260049061],["Lat",-10.227925159590825],["iPad",-10.228546358269368],["Mac",-10.228627950981842],["wereldkampioen",-10.228656344746373],["kiest",-10.229332461784322],["esloten",-10.229890762335096],["achterstand",-10.229976875250255],["harde",-10.230961205165844],["ontwerp",-10.23103937111772],["bedacht",-10.231144717637935],["daarop",-10.231498136966998],["speel",-10.23152974340315],["front",-10.23270279056433],["66",-10.232926977078108],["brood",-10.233573742355844],["Amerikan",-10.23399040396564],["planten",-10.234219715332452],["analyse",-10.23444051420334],["koningin",-10.235269497136166],["AZ",-10.235468464483864],["onderzoeken",-10.235872958235781],["lui",-10.236230000835924],["oorlogs",-10.238688282407303],["benzine",-10.238707605213804],["ham",-10.238784981769173],["geb",-10.2389290734824],["Mag",-10.23925916849952],["eerdere",-10.239350807687162],["werking",-10.240274838332875],["werkgever",-10.240438303358253],["velen",-10.240745101567382],["F1",-10.24117822591049],["reageer",-10.24175915457905],["chauffeur",-10.241854818963457],["Zweden",-10.24194518022815],["Vroeger",-10.24202515977555],["categorie",-10.242149614685976],["99",-10.242920879590006],["normale",-10.244632899116926],["stijg",-10.244828323688624],["errari",-10.244991476873745],["honden",-10.245263938401212],["verdient",-10.24587368411702],["richt",-10.245991287528064],["Zorg",-10.24650744352963],["ernstige",-10.24726665058586],["Goed",-10.249375184343027],["39",-10.24982210989197],["erbij",-10.252421889265781],["*",-10.252583008967855],["BS",-10.252603697212008],["rechten",-10.252988608370226],["rakette",-10.25317762248062],["Welke",-10.254963356067202],["landbouw",-10.255093947061273],["collectie",-10.255413365212977],["ry",-10.255443323835227],["glas",-10.255528606036647],["Nieuwe",-10.255570811275742],["juridisch",-10.255641333071345],["creër",-10.25564543011986],["realiteit",-10.25566815431006],["uitzending",-10.25580977477211],["beneden",-10.255846438287925],["Tegelijk",-10.255847527398528],["Henk",-10.256099050813614],["Hun",-10.256187092925625],["justitie",-10.256786867015261],["opgelost",-10.257491412608701],["voetballer",-10.257627388136001],["gevaarlijk",-10.258146442394532],["sporen",-10.258493557184039],["verbonden",-10.258572669321447],["federal",-10.25907575672917],["stop",-10.25927666794087],["plastic",-10.259721526220696],["recente",-10.259930970310283],["misbruik",-10.260281761863983],["Charles",-10.260582541593617],["slaat",-10.261457902905924],["ijn",-10.261626448866803],["match",-10.262216649375905],["inkomen",-10.262415449712867],["beslist",-10.2634221913668],["wiel",-10.263662158947461],["wint",-10.263748635611204],["keuken",-10.263835739148437],["aardig",-10.265893621749012],["piek",-10.265919515166445],["Kun",-10.265984407844329],["dichter",-10.266285999784532],["talent",-10.26684708098906],["clubs",-10.267092454733916],["werkzaamhe",-10.268324927836161],["teken",-10.268533233336086],["storm",-10.268649358821573],["detail",-10.268813226477],["agina",-10.268915904863157],["geboorte",-10.26911009993308],["geregeld",-10.269311961833152],["Aert",-10.26933542131362],["Vitesse",-10.269527033286955],["Team",-10.269571146993835],["drama",-10.269612750891158],["Ha",-10.269614628730631],["initiatief",-10.269630158223755],["II",-10.2699123204506],["Iet",-10.270238052416776],["197",-10.270339107385862],["avonds",-10.271293046572712],["rand",-10.271620219175414],["Robert",-10.271629607575813],["burg",-10.272143447477331],["fors",-10.27251990160999],["Centra",-10.272543861683227],["gele",-10.272649990571626],["verbinding",-10.272837979830744],["Jonge",-10.27437292000306],["ermee",-10.27444354487973],["hoorde",-10.275123719487938],["produceren",-10.275812092818931],["stof",-10.276376579853522],["reclame",-10.276487998242548],["neus",-10.277140811225841],["elft",-10.278188046211891],["rijke",-10.27821441213369],["slim",-10.279340901288649],["vermoord",-10.279389543942651],["arts",-10.279980676432963],["bellen",-10.280818250418353],["Belg",-10.281153127020811],["vreemd",-10.281650071347734],["bar",-10.281695381551256],["maatregel",-10.281886443449205],["kijker",-10.283379348114554],["jury",-10.28350774413573],["keihard",-10.283612402069915],["42",-10.283613341385188],["Thomas",-10.283658244806492],["ambulance",-10.283664086923384],["opmerking",-10.283664992580984],["Apel",-10.28393572540002],["paard",-10.283953570901595],["leverde",-10.286145527749357],["doelman",-10.286605656506499],["veertig",-10.287248243058615],["chef",-10.287766063310468],["pleit",-10.28857224638363],["technisch",-10.288869929431524],["lossen",-10.28894252302036],["lkens",-10.289257560313784],["?’",-10.289456119664845],["sterren",-10.289897335888368],["gaven",-10.291109779444884],["Ali",-10.291477046907165],["wé",-10.291882601503703],["overschrijdend",-10.291972343274729],["sociaal",-10.292148003591457],["inzicht",-10.29261407208705],["GS",-10.293456999260439],["huwelijk",-10.2949102475938],["machine",-10.296233601541898],["makkelijker",-10.296931878268044],["NA",-10.297866551776774],["gezamenlijk",-10.297897246274534],["Universiteit",-10.297900021804406],["GroenLinks",-10.29790813159487],["smartphone",-10.29802528653108],["Nijmegen",-10.298090696337127],["aanvaller",-10.298274579382031],["verdediger",-10.298904409135105],["weiger",-10.299531249169725],["apparaten",-10.299867809191145],["onafhankelijk",-10.300557412077618],["ig",-10.3008154286423],["zanger",-10.301169120192672],["reken",-10.301694238428386],["kleiner",-10.301734416990707],["Kinder",-10.301976308851806],["Gaa",-10.302064133936831],["ley",-10.302260713047904],["gelegen",-10.303975240354436],["lijden",-10.3044144054181],["Zonder",-10.304683915328841],["Eind",-10.306538379529856],["kader",-10.3065445031386],["bevind",-10.307696377536498],["verrassend",-10.307732024333642],["recent",-10.307906954938442],["heren",-10.308975379662687],["Bos",-10.309032302548811],["verwijder",-10.309227339401236],["nazi",-10.309918050869808],["zoekt",-10.310673867837316],["nië",-10.311192913483927],["waarden",-10.311311940499142],["à",-10.312389977188248],["volks",-10.31252061385077],["verdrag",-10.314189443489541],["eerd",-10.315306249486657],["dronken",-10.315574832552933],["plus",-10.315971341893642],["traject",-10.316071443778487],["EV",-10.31649718365177],["Y",-10.317000882206731],["pot",-10.317231537953841],["uitzondering",-10.317442846032815],["klasse",-10.317606151019808],["blad",-10.317953439927628],["behouden",-10.31852539385007],["verzekering",-10.321268065115742],["zaal",-10.322272960009368],["term",-10.323673524150601],["vangen",-10.323984835843083],["Australië",-10.324177048246014],["feestje",-10.32437689413604],["250",-10.325051383921235],["interesse",-10.325487486800334],["nlangs",-10.325573076040342],["blik",-10.32646287923547],["Grand",-10.326577780943628],["gevuld",-10.326653071256501],["temperatu",-10.327093669521354],["Porsche",-10.327098276744493],["vertraging",-10.32710082035674],["etappe",-10.327286130410464],["welk",-10.327331861494855],["ehalve",-10.327911854818334],["it",-10.328201512095369],["stress",-10.328262926601377],["Bo",-10.328965697690515],["ic",-10.329723655974],["toestand",-10.329857373943508],["exact",-10.33074856776225],["stoffen",-10.330910154403393],["off",-10.331267196601553],["onderhoud",-10.332059131664323],["durf",-10.33259773695241],["drukken",-10.333189256436068],["muur",-10.334074530874211],["ramp",-10.334231348434255],["pakte",-10.334360902079343],["overtuigd",-10.334831512351322],["stopt",-10.335584656374765],["ontslag",-10.335668176486674],["boodschappen",-10.336152377508986],["technische",-10.336478909429811],["mini",-10.337069132758014],["betaling",-10.337222694385392],["fraude",-10.33940464259215],["transport",-10.340531554503404],["vullen",-10.340705000013013],["netto",-10.340860608331983],["Netflix",-10.342024822865916],["fantastisch",-10.34205367357005],["olympisch",-10.342082319494565],["Alexander",-10.342098482876676],["fietser",-10.342133435459546],["straten",-10.342244272869431],["verdeeld",-10.342904333698272],["stads",-10.34304963295167],["onzin",-10.343596602936984],["mars",-10.343960155368563],["droeg",-10.34397660224299],["Energie",-10.344143768353328],["Gaal",-10.344238754635786],["gast",-10.344353873217841],["grondstoffen",-10.344605728935264],["instellingen",-10.344948440067274],["Hans",-10.345079135176324],["opties",-10.345169798250254],["France",-10.34526989998934],["and",-10.345867717752505],["ca",-10.346137105132417],["ondersteuning",-10.346747643221333],["gestopt",-10.346749859032368],["SP",-10.347710414793411],["gedachte",-10.348235034726002],["gasten",-10.350063410385816],["specialist",-10.350305425590848],["46",-10.350337714919242],["plaatse",-10.352249086727955],["chip",-10.352253026437069],["vic",-10.35323230437707],["harder",-10.353286195864316],["lief",-10.354352541920068],["theater",-10.354377683755668],["trap",-10.354545356435477],["car",-10.35460635196731],["Jo",-10.355156839388474],["schuldig",-10.356050785391254],["kraan",-10.35703272884135],["organiseren",-10.357174211815948],["Iran",-10.357188103946218],["Morgen",-10.357327150225903],["verander",-10.357683149328295],["Mocht",-10.357820425958504],["sneeuw",-10.35786590122385],["Word",-10.35797101079276],["radio",-10.358433114080082],["verbied",-10.358749435281329],["verbetering",-10.359080262814205],["comment",-10.360156583557899],["ontwikkeld",-10.36129436288892],["bevestigd",-10.361865250623886],["beloof",-10.361870385450333],["National",-10.363855710450991],["opvolger",-10.365100097100434],["stevig",-10.365103291436316],["erd",-10.36528194953862],["loog",-10.36940399051832],["meisjes",-10.369628712247017],["treffer",-10.371032418658418],["schakel",-10.371945193035494],["hal",-10.372180844707415],["urven",-10.3727448541919],["schatting",-10.372886399744305],["inch",-10.373031285080007],["controleren",-10.373580545318049],["seksueel",-10.374083652985114],["moslim",-10.374260668317172],["voorzichtig",-10.374978687266534],["waarheid",-10.375374317724756],["bewolkt",-10.376032862811341],["dubbele",-10.377000594517762],["Hoge",-10.37734356956299],["missie",-10.378247524704301],["onderdelen",-10.37882954444434],["lening",-10.379389841722496],["Engels",-10.379797298281904],["keten",-10.38007393938705],["geving",-10.380634817498441],["stoel",-10.38207764252212],["aanpassen",-10.382543656381783],["Rode",-10.382658922702891],["Wout",-10.383000779386942],["vlieg",-10.383254507924267],["journalisten",-10.384199884888902],["bedreiging",-10.384824972922347],["beland",-10.385187131837121],["schijn",-10.385543773039874],["beker",-10.385737498025415],["onzeker",-10.386098523337651],["breed",-10.386444328240522],["toestel",-10.38703859463594],["William",-10.38818749063229],["Mogelijk",-10.388893734993408],["inval",-10.38937720008456],["werkgevers",-10.389956738084315],["43",-10.39134410149807],["Enkele",-10.391458660816541],["luisteren",-10.391623400922057],["geopend",-10.392003657444853],["verlate",-10.39231394878299],["ige",-10.392417959117083],["kondigde",-10.392920219461363],["rijbewij",-10.393189682327066],["goedkoop",-10.39389306821188],["box",-10.39654400072886],["overheids",-10.396619164367916],["igenlijk",-10.397138473591973],["AM",-10.397220742008734],["onbekende",-10.398148270809134],["gevecht",-10.398284077615482],["zocht",-10.399230610579387],["export",-10.39954755091943],["degelijk",-10.400076490024883],["dreig",-10.400418924946711],["aak",-10.402252109467861],["matige",-10.402781206418885],["Sovjet",-10.402928078476807],["invester",-10.403131881031737],["agenda",-10.403526268566864],["»",-10.404055379084664],["Canad",-10.404115340892954],["langzaam",-10.404192060730356],["concurrentie",-10.404208331379557],["privacy",-10.404274748895531],["Olympisch",-10.404459019768122],["Engelse",-10.404591989434277],["za",-10.404845904896064],["VN",-10.405066808030165],["braak",-10.40567128735455],["korting",-10.405726034215107],["Amsterdamse",-10.406001200010738],["kandidaten",-10.406757617253746],["trui",-10.406989031302547],["Bovend",-10.407926738075208],["ontmoet",-10.408531734180798],["betekenen",-10.409279979237294],["schoenen",-10.409807023452442],["dubbel",-10.410671070409368],["44",-10.410803297987705],["laatst",-10.410810426499953],["file",-10.411879976018014],["onderneming",-10.414614633428581],["ontmoeting",-10.41486911626138],["Cup",-10.416647295517258],["advocaten",-10.416686023851616],["link",-10.417451939466382],["Kerk",-10.41755068363053],["oppositie",-10.417957628424997],["Martin",-10.417976007371015],["verminder",-10.41808237457489],["kast",-10.418369194926502],["album",-10.418874132245442],["ur",-10.41923630003184],["slimme",-10.419516576640293],["fan",-10.419835241276315],["interieur",-10.42018443771626],["wetenschappelijk",-10.420266262751],["ck",-10.420331758168187],["koopkracht",-10.420347518142396],["bizar",-10.420400669490482],["Poel",-10.420516168043521],["mist",-10.420759788641234],["spannend",-10.421003568237074],["veertien",-10.421298999096773],["GP",-10.421651460450798],["drijven",-10.42166971470127],["48",-10.422100193615277],["Louis",-10.422274759217412],["overlijden",-10.422548514596851],["fouten",-10.422972897450986],["geest",-10.423279314915504],["openings",-10.423526100307779],["levering",-10.423560017846881],["toekomstig",-10.424961129958486],["design",-10.42594342533369],["vergoeding",-10.425956696037993],["gevolgd",-10.426505438028009],["verzamel",-10.426726124413726],["wild",-10.427961642059035],["overname",-10.427969137535461],["missen",-10.428209095892877],["reageerde",-10.428382930558932],["stra",-10.430009364151882],["57",-10.43002295340009],["fysiek",-10.430129724821352],["Noor",-10.430169101052032],["brak",-10.430682294733481],["vo",-10.430871807669554],["mobiele",-10.431059691677216],["warme",-10.432348108505028],["visie",-10.43307860320601],["goederen",-10.433139664892384],["uitsprak",-10.43330167172102],["tachtig",-10.433337542541956],["sloten",-10.434629186664019],["knie",-10.435390164196864],["Antwerp",-10.436113623671368],["ware",-10.43631272124266],["agressie",-10.436479659537184],["Begin",-10.436642332708953],["Vladi",-10.436779140741784],["restaurant",-10.437033730314507],["Vrijdag",-10.43711239519825],["abortus",-10.43712922376848],["verhouding",-10.437155972130572],["kocht",-10.437410533109578],["topman",-10.437845501550019],["oefening",-10.437986652952976],["tegenstelling",-10.438339031046159],["bestuurders",-10.438539531561984],["ruil",-10.439422932114498],["lagen",-10.439441170138021],["Fin",-10.439529226096756],["International",-10.439640628184893],["Post",-10.440084602272734],["Mo",-10.442588630157864],["kaarten",-10.442721392818669],["stak",-10.443502159853708],["bergen",-10.445532700564687],["ellende",-10.446697935628725],["IS",-10.446757134787056],["ney",-10.447080315161848],["vermoed",-10.447531551557946],["graven",-10.447583262626845],["theorie",-10.447615939188696],["houding",-10.448163924921765],["accu",-10.449526905386273],["CD",-10.449668336879995],["minst",-10.449726292270583],["advertentie",-10.451313894067914],["premie",-10.451421126032347],["vergadering",-10.45184894072202],["voorbereiding",-10.45223250158009],["Leclerc",-10.453252168772469],["negatief",-10.453365694609886],["miljarden",-10.45336974405917],["bijeenkomst",-10.453371313201274],["kwartfinale",-10.45349269526989],["95",-10.453602762696411],["aankoop",-10.45396193187333],["Herman",-10.454104716635054],["Brabant",-10.454172109982558],["Maak",-10.454185004910231],["ontwikkelaar",-10.454599503740585],["klagen",-10.454712875353856],["Overig",-10.455760587363587],["Hoog",-10.455942026702655],["Andere",-10.456260180658045],["zwakke",-10.456687566100388],["trek",-10.456832208433305],["bloemen",-10.458545973854179],["Turks",-10.458738629993526],["BB",-10.459037136695324],["haat",-10.459878673763853],["David",-10.460195540999079],["kanaal",-10.46022049959606],["huid",-10.460503685524282],["stevige",-10.460579481141473],["Rome",-10.46201326011905],["ontvang",-10.46388026342673],["vrouwelijk",-10.46391608190137],["evenement",-10.46490703620124],["Duitser",-10.465448336066498],["helder",-10.466517736226937],["traditionele",-10.467590491588865],["plots",-10.468948207108596],["presentator",-10.469942625739131],["besparen",-10.46999656579268],["podcast",-10.470059840707336],["zus",-10.47012317211976],["Wilders",-10.470744415299315],["Hebben",-10.471930235755547],["Re",-10.471993572466667],["noodzakelijk",-10.47205906083359],["ambtenaren",-10.472827983350887],["zins",-10.472833439179066],["ministers",-10.475317897468486],["raak",-10.475948250146672],["Let",-10.4763616314786],["vinger",-10.47661650179963],["scherp",-10.476958829710556],["RS",-10.477472813539976],["Wal",-10.478345440042386],["Wit",-10.479031282401841],["Vier",-10.479148256916659],["Mooi",-10.479479692710065],["motie",-10.481096233933924],["merkt",-10.481953374205062],["toeslagen",-10.482020295394666],["belangrijker",-10.483312228091382],["bel",-10.48371656087841],["overeenkomst",-10.48472629728855],["rendement",-10.485232777351687],["homo",-10.485815750378055],["behandeld",-10.486551831220448],["Jette",-10.48665275480836],["gesto",-10.48719405664865],["prik",-10.48738089637464],["anoniem",-10.48743508160733],["haupt",-10.487436216371457],["Ronald",-10.48744086445658],["wijken",-10.487450604847012],["Harry",-10.487463123120587],["1000",-10.487551359922524],["regime",-10.487566478546512],["toegevoegd",-10.48757678440537],["explosie",-10.48792398506978],["melk",-10.487924914017281],["ment",-10.487947811846974],["succesvol",-10.488037937155825],["profit",-10.48821513721084],["ag",-10.488301892870691],["vergele",-10.488749222126918],["nummers",-10.489027434587769],["zestien",-10.489787216553818],["achttien",-10.489912315691768],["India",-10.491734078000833],["staatssecretaris",-10.492216301990391],["schappen",-10.493182213455654],["gezinne",-10.493266418537488],["cliënt",-10.49340750149901],["41",-10.493935168316552],["aardgas",-10.4945392726353],["allen",-10.494861306982362],["omroep",-10.495301710706393],["opgelegd",-10.495968304710164],["Men",-10.497017076991394],["rem",-10.499307015499053],["adres",-10.499384083514736],["verblijf",-10.49989537329738],["Israël",-10.502421762665044],["plaat",-10.50256092180005],["geel",-10.502765529633654],["geleerd",-10.503378277746064],["air",-10.503560813296406],["najaar",-10.50422092147527],["verhoging",-10.504274278366701],["Krim",-10.504831860768565],["verjaardag",-10.504938304723904],["kennelijk",-10.504984320399306],["garantie",-10.50501036244948],["traditie",-10.505019143180856],["streep",-10.505196908215],["uitenlands",-10.50524119186967],["transitie",-10.505352676375391],["Justitie",-10.506869361826785],["kleinere",-10.508763271535795],["Pools",-10.50902512483391],["dient",-10.509888769824936],["verdedigen",-10.510692343660649],["adem",-10.51078825784193],["getuigen",-10.513929762804658],["draag",-10.514668694531434],["taak",-10.514926811547149],["apparaat",-10.515190057544352],["scoorde",-10.515395318126453],["Rijk",-10.515502467457516],["ot",-10.515600227339913],["St",-10.515739170318021],["800",-10.51611350905125],["luid",-10.51711880393539],["wa",-10.51841500772063],["Weer",-10.51868476538104],["documenten",-10.51873209928381],["verloop",-10.518774545166817],["automobilist",-10.518793596186491],["banen",-10.51917091735259],["leraar",-10.519459489447982],["leert",-10.519821964251932],["bod",-10.520913827195486],["geheim",-10.521387777075027],["beperken",-10.521604826897423],["Audi",-10.522314524544136],["Land",-10.522347714494964],["kabel",-10.522543216743276],["nederla",-10.522671833238196],["blaze",-10.522673852426095],["prioriteit",-10.522836195105643],["World",-10.522836430047516],["persconferentie",-10.522861718236566],["propaganda",-10.523009498724782],["Ach",-10.523055581632796],["Macron",-10.523072443806635],["Shell",-10.523127306180363],["rpool",-10.523403861209243],["hybride",-10.52356255191015],["Boris",-10.523759260919935],["vermoeden",-10.523838830039045],["Vrij",-10.524201021184197],["schiet",-10.52436924648687],["Michel",-10.524648876892734],["gok",-10.524897158154678],["Hongar",-10.525238081837195],["dames",-10.525325236289394],["oren",-10.525756408788414],["Uiter",-10.525789512250057],["stal",-10.525930893540085],["trend",-10.526007361311118],["Qua",-10.527050362677507],["ouderen",-10.527121721842827],["toren",-10.52773976942423],["adviseur",-10.527798573644805],["eieren",-10.528671081773002],["raam",-10.529152094742992],["alternatieve",-10.529542018373062],["Anne",-10.529813462549768],["internationa",-10.529887422748622],["uitkomst",-10.530024398737789],["opslag",-10.530925700347302],["49",-10.531423408482556],["handels",-10.531875415786125],["Achter",-10.532356168258593],["maker",-10.532726257202784],["CE",-10.533602307503184],["vogels",-10.534332010615493],["Mar",-10.534867664277934],["tech",-10.535457277488842],["bereik",-10.535676672108337],["nul",-10.535988001559554],["staten",-10.536388684215183],["moderne",-10.536549673160025],["eek",-10.536550500404283],["las",-10.53712992994988],["uitvoeren",-10.537235223548304],["Oh",-10.538317690921566],["serieuze",-10.539015898524509],["raads",-10.53942215232918],["gewen",-10.540730099656148],["Dam",-10.540823882160712],["demonstratie",-10.54101788366659],["verlaging",-10.54102462908308],["paniek",-10.541025817732006],["vóór",-10.541050385837211],["oranje",-10.54106164726771],["personeelstekort",-10.54106339330576],["balans",-10.541073849612397],["Jammer",-10.54109818417483],["actrice",-10.54112705910533],["nucleair",-10.54113124933297],["persbureau",-10.541169842347013],["fruit",-10.541193065697252],["lidsta",-10.541254847909656],["luchtvaart",-10.541271288723145],["effectief",-10.541301838716656],["verwonding",-10.541424535253164],["zangeres",-10.541715807408101],["toenmalig",-10.541963497626197],["ngeland",-10.542557988194885],["Angel",-10.543003926287202],["toevallig",-10.543193928972322],["IT",-10.543306152846466],["kwalificatie",-10.54365788053624],["ondernemer",-10.543724660697553],["vijfde",-10.543794772116492],["raket",-10.544990694490705],["zestig",-10.545671239581528],["opening",-10.547407879429455],["grappig",-10.547601210174108],["Politie",-10.547621622777566],["beheer",-10.547860736792607],["fysieke",-10.548225216309806],["85",-10.54862404301977],["mans",-10.549342058633982],["Lees",-10.549459895093728],["volwassen",-10.549809796790582],["zoge",-10.550073875241285],["Brit",-10.550111291281063],["Fi",-10.550510769178],["rollen",-10.55224849005768],["ski",-10.552476767163022],["52",-10.552611577944019],["salaris",-10.553292111189826],["makers",-10.553546681481732],["Geef",-10.553726658640272],["batterij",-10.553868856894514],["elijk",-10.554928148338245],["schouder",-10.555084498560792],["waarschuw",-10.55519599443539],["voert",-10.555379855608937],["borst",-10.555457955477127],["toon",-10.555646601774187],["sterker",-10.555689111866705],["geslaagd",-10.555827312432505],["officier",-10.556023878573319],["schilder",-10.556733194652068],["Patric",-10.557047395055989],["96",-10.557303473985387],["gestemd",-10.558101760024533],["Marokk",-10.558390593962447],["zilver",-10.558889945377047],["liefhebber",-10.558901068545316],["noord",-10.559194833932871],["concern",-10.559494696837213],["voer",-10.559527346559902],["Groninger",-10.559536807542003],["Eredivisie",-10.559545143715916],["afkomstig",-10.559599799512029],["Bosch",-10.55969514642301],["Radio",-10.559781068233786],["algemene",-10.559815017858082],["blok",-10.559956141586877],["kies",-10.560810309944388],["springen",-10.560863173818205],["getekend",-10.561000200108499],["nauw",-10.561736077114997],["medaille",-10.5619429969836],["gerecht",-10.562026538446],["elektriciteit",-10.562622731979685],["port",-10.563488362155196],["verwijderd",-10.563626966521939],["gouden",-10.56763385731509],["computer",-10.567836004712891],["houd",-10.568354194096813],["klappen",-10.568427977508996],["stromen",-10.56888418472855],["Maas",-10.56916513009019],["Si",-10.570172669039852],["verstandig",-10.571047053855999],["stelsel",-10.571267304604472],["ling",-10.571358439108353],["vervolg",-10.571381198084003],["kwaad",-10.571422166818568],["opgezet",-10.571804154430975],["puur",-10.572538788330903],["kwetsbaar",-10.57254765126571],["plat",-10.572688149701024],["iet",-10.572887798914396],["kloppen",-10.573450157753285],["Wi",-10.574600694125643],["verdwe",-10.575186822810624],["abonnement",-10.575276014351793],["dode",-10.576892027455127],["veroorzake",-10.57746902147889],["vervelend",-10.577659181912887],["jacht",-10.577905341654445],["wensen",-10.577992671420573],["correct",-10.578077834471154],["Donald",-10.578402990559962],["Portugal",-10.57840431703652],["slavernij",-10.578404317090545],["perspectie",-10.578406223300256],["Covid",-10.578447303121125],["Maandag",-10.578452891925522],["Lijk",-10.578503186752622],["oorspronkelijk",-10.57857350536305],["infrastructuur",-10.578870449815149],["gigantisch",-10.579011163464958],["ontstaa",-10.57910138822907],["gegooid",-10.579193094639612],["Albert",-10.579346618700962],["terugkeer",-10.57937644466166],["beveiliging",-10.579814128472073],["afspra",-10.580025143902306],["specifiek",-10.580395964709215],["circuit",-10.581163487137331],["Gold",-10.581291909527712],["Mario",-10.581788601401804],["zingen",-10.581954730117229],["ballen",-10.582666732492248],["getoond",-10.582900124287146],["lecht",-10.58342304818745],["kampioenschap",-10.583757817577915],["pop",-10.583771182021126],["gedaald",-10.584494740267749],["uitstekend",-10.585605821478788],["plicht",-10.585910938537387],["lokaa",-10.585942120409644],["degene",-10.586032874127044],["zand",-10.586493989445694],["schrik",-10.58726466871532],["moois",-10.587731255283053],["Tim",-10.587859596195923],["beur",-10.5883277245734],["nabij",-10.588467910151724],["aanloop",-10.588938684606145],["weder",-10.589972434481695],["verteld",-10.59066223199035],["leg",-10.590888063090084],["koud",-10.590920154205964],["geroep",-10.59095238153619],["democratisch",-10.59194308545416],["voorstelling",-10.592260027250436],["munt",-10.592511154456318],["overwegen",-10.59367437612868],["Ruim",-10.594361204345974],["zitting",-10.594763547863815],["verluid",-10.595427203217719],["oplopen",-10.595477554057052],["kampen",-10.596088842741185],["drone",-10.596825285805743],["recessie",-10.597635496789042],["individuele",-10.597749113180427],["gearresteerd",-10.597769357546689],["ify",-10.59777438132815],["schilderij",-10.597783062270157],["Kremlin",-10.597808984833993],["hè",-10.597896318154426],["Fortu",-10.598048448697266],["percentage",-10.598332071065316],["RIV",-10.598728639972618],["overzicht",-10.599026375122776],["kring",-10.599064940354955],["Tussen",-10.599292263581585],["uitslag",-10.599527950772716],["job",-10.599865435926993],["keuzes",-10.600014365724343],["Jeroen",-10.600286785068844],["pauze",-10.600463267489069],["alarm",-10.600611640188221],["aankomen",-10.60102148011877],["extreme",-10.601363619530375],["gevoelig",-10.601440219481841],["Staat",-10.601795617486577],["specifieke",-10.601910397861987],["gebeurtenis",-10.601943976930553],["73",-10.602077763528872],["vergelijk",-10.603230366851394],["kende",-10.60371916217681],["zwaarder",-10.603722379660862],["dure",-10.604080667287175],["scoren",-10.604323983303793],["54",-10.6050236864085],["lul",-10.605313154889561],["getest",-10.605407712872843],["dividend",-10.605563846525765],["gelukt",-10.605967505585971],["Belgen",-10.606447578377894],["verantwoord",-10.60784290906789],["score",-10.608278586795146],["time",-10.609589431500147],["eigenaren",-10.609626399724222],["gevaarlijke",-10.611472877071744],["sluiting",-10.611550739770799],["oplossen",-10.6117864619585],["Tja",-10.61212291229464],["58",-10.612310825698955],["bespro",-10.612937863810092],["aanwijzing",-10.613523632867405],["overleven",-10.614063706995504],["haal",-10.614396522536527],["zogenoemd",-10.614738249968983],["doelen",-10.615086526247078],["doelpunt",-10.615393892005091],["mensenrechten",-10.615627995644452],["waarschuwing",-10.61571840745501],["gebouwen",-10.616134327042307],["GT",-10.616258401040284],["San",-10.616259960019782],["voeg",-10.616571701631036],["aantrekkelijk",-10.616575215969096],["vet",-10.616739470242624],["˜",-10.617242928584336],["medicijn",-10.617245375323847],["kwetsbare",-10.617246078912117],["über",-10.617247131948313],["Financië",-10.617261900144896],["zwembad",-10.617275938276142],["Breda",-10.617304363834403],["Waarschijnlijk",-10.617317864917386],["diefstal",-10.617355188704297],["typisch",-10.617358030576474],["arbeidsmarkt",-10.617450907269125],["Jam",-10.617716131502508],["toezicht",-10.617722983584088],["rechtstreeks",-10.617908570657445],["Jij",-10.618068835513387],["jongst",-10.61853488121423],["bezorgd",-10.618726053559929],["du",-10.619682862765746],["vrijdagavond",-10.620079303558867],["Japans",-10.620897274444586],["ingediend",-10.622276956933478],["steunen",-10.62255778010972],["verklaarde",-10.622648166055951],["netjes",-10.622689874457762],["Andr",-10.624191695724647],["verrassing",-10.624491811655945],["Di",-10.624693368409897],["Kuiper",-10.624767630249403],["vooraf",-10.625405831927466],["NV",-10.625449865948502],["toenam",-10.625885684014008],["prins",-10.626117451999935],["matig",-10.62619593463857],["klok",-10.62756155324787],["seksuele",-10.627667988430323],["gehol",-10.627788878458592],["afgerond",-10.628307988183519],["Li",-10.628354841923148],["Witte",-10.62983246731117],["ussen",-10.630309712139747],["veilige",-10.630811853393046],["brede",-10.631713750378909],["hoogst",-10.631743791820718],["lichte",-10.632302221543165],["ING",-10.632949476671051],["voeten",-10.63379659654066],["Hag",-10.633972689429408],["schat",-10.634115494376552],["gerust",-10.634260981324383],["winning",-10.634407614769069],["ruzie",-10.634964710047807],["allebe",-10.635074361915404],["zonne",-10.63524437798651],["wees",-10.635778145518465],["beïnvloed",-10.637242928588517],["portemonnee",-10.63724292858914],["Elizabeth",-10.63724292926389],["Barneveld",-10.637243553270302],["lidmaatschap",-10.63725914516999],["toepassing",-10.637263782743467],["opbrengst",-10.63730983081621],["woonde",-10.63735787196498],["kerncentrale",-10.637372730248979],["favoriete",-10.637396931951692],["Corona",-10.637568425194104],["beschermd",-10.637577011524101],["Leuk",-10.63757876827619],["racisme",-10.637587457403821],["verlichting",-10.637773535928151],["schietpartij",-10.63803610377537],["bestand",-10.638235385323803],["nemark",-10.638690402189638],["vastgesteld",-10.638783891382026],["gedrukt",-10.638846899482687],["gevestigd",-10.63897048559863],["grid",-10.63918603340209],["gewezen",-10.639907097479796],["schrijver",-10.64112995461235],["varen",-10.641382828886638],["uiterst",-10.641509866380723],["onderweg",-10.641753842820238],["drukte",-10.641794366257024],["branche",-10.641858314224269],["hitte",-10.641895393768095],["Zwitser",-10.641898877674336],["lege",-10.641971835873107],["toeristen",-10.642055555412451],["Ons",-10.643569679937535],["leer",-10.643731689994347],["lieden",-10.64455395524267],["pan",-10.644680044679777],["droge",-10.64602474550437],["dienen",-10.646446824765153],["doelstelling",-10.647309138074009],["Erik",-10.647533625917113],["handelen",-10.647887329865558],["haast",-10.647928085457227],["raar",-10.649220792207437],["plann",-10.649427300153857],["eruit",-10.649458372537714],["Real",-10.650209753864633],["uitgesteld",-10.650690265230724],["stier",-10.650975772118205],["long",-10.651325973147529],["wijziging",-10.65137411392043],["ipv",-10.651669866834023],["Car",-10.6519971460847],["MI",-10.652419841919958],["afspraak",-10.652800622005643],["behoud",-10.652946446265577],["Rus",-10.654074666392152],["adden",-10.655478143964826],["Ka",-10.656356269346508],["branden",-10.656533913252975],["herstellen",-10.656577830205883],["ontdekk",-10.657627846375293],["Surinaams",-10.657651236534004],["profiel",-10.65768088552153],["Vries",-10.657686868511998],["compensatie",-10.657690432034162],["kwartier",-10.657712475406717],["vrezen",-10.657735184246793],["signaal",-10.657824606524107],["duo",-10.657884804750063],["verwarming",-10.658017318658743],["noodzaak",-10.658206601793026],["groeit",-10.658273491979486],["regulier",-10.6585599730006],["schuive",-10.658562004509744],["geschote",-10.659099066949226],["kut",-10.659154213910012],["verstand",-10.659756299709123],["!’",-10.659780933689614],["genodigd",-10.65993291128521],["dertien",-10.659946485444875],["hoogtepunt",-10.660707688233241],["biliteit",-10.661266489481424],["check",-10.661360192872033],["trainen",-10.661385063481834],["grijpen",-10.661795486979685],["Grieken",-10.661854456708909],["ID",-10.66199428318116],["vaart",-10.66293846238748],["management",-10.66327303658413],["53",-10.663696345500274],["ontslagen",-10.663752519098034],["onafhankelijke",-10.664414354058787],["uitgaven",-10.664907183829074],["Lew",-10.665378772501413],["wetgeving",-10.665661567645389],["wolf",-10.66587233986446],["Wim",-10.666025796228906],["zeventien",-10.666757616329612],["FA",-10.667274698415305],["hypotheek",-10.667585924190911],["besteed",-10.66864090448033],["partners",-10.669871957960996],["son",-10.670138612134608],["complete",-10.670191163031273],["tarief",-10.670615928363514],["hé",-10.672075603076273],["vis",-10.672225909343108],["doelpunten",-10.67267969685429],["knal",-10.673137541685291],["bruin",-10.6747707419394],["onden",-10.675612329433438],["pomp",-10.676247961211054],["concurrent",-10.67730252968773],["droog",-10.67788017328437],["toenemen",-10.678238017735584],["beroemd",-10.678283118262497],["spijt",-10.67834071165046],["Zaterdag",-10.678485222467636],["TikTok",-10.67848553210117],["Partij",-10.678498018027856],["ontving",-10.678506137720477],["generaal",-10.678523650684514],["tunnel",-10.678641184223963],["Vraag",-10.678703858129023],["Smith",-10.678773568857231],["topic",-10.678982984979914],["Markt",-10.679260016173824],["penbaar",-10.679760595582493],["dreigen",-10.67994859343882],["arbeids",-10.680286192731002],["Ford",-10.680538360978495],["verklaar",-10.680621090953363],["ba",-10.682654878091535],["istan",-10.683069470869249],["lot",-10.683256371847321],["inhoud",-10.68407297564957],["uitvoering",-10.684091090545177],["realis",-10.684130800099698],["normen",-10.684172549162412],["Spel",-10.68466353165216],["aanbied",-10.68467022247333],["bonus",-10.684711681844886],["meneer",-10.685642803335613],["oudste",-10.685855149047956],["tempo",-10.685941686444371],["Vijf",-10.686409444459011],["parke",-10.687376901294988],["lessen",-10.687389532878033],["onderzoeks",-10.687466300279777],["breek",-10.687918414329623],["gelden",-10.688001820985502],["bevatte",-10.688914805201351],["gedreven",-10.689014393937521],["standpunt",-10.689220870326473],["eking",-10.690399721069799],["potentie",-10.691039384727947],["komend",-10.691485866658553],["betaalde",-10.691520473538136],["okken",-10.691835484967845],["celstraf",-10.691985356732626],["bek",-10.692257686857591],["migratie",-10.692292034416665],["donker",-10.692983542964342],["Neem",-10.693062500307846],["institu",-10.693129497741737],["Kees",-10.693348874382394],["Brazili",-10.69340025060456],["BN",-10.694364507711683],["way",-10.69516685530936],["EX",-10.695202012453393],["onbekend",-10.695256030868617],["bedenk",-10.695262822693646],["nep",-10.695493458578339],["ly",-10.69670388933963],["tekenen",-10.697192663992725],["overstap",-10.698106305138397],["verklar",-10.698585004228857],["toilet",-10.69900501164304],["koos",-10.699306905697485],["Boer",-10.69961461384823],["provincies",-10.69969786088106],["Burgemeester",-10.699761667653323],["Precie",-10.699762486078544],["ranglijst",-10.699796241857193],["laptop",-10.699818001726348],["klonk",-10.699912123483251],["Media",-10.699949444435283],["RTL",-10.699955087898925],["tentoonstelling",-10.699963765420893],["botsing",-10.69999839373325],["roze",-10.700015585755791],["claim",-10.700133169517338],["%.",-10.700404774769883],["vieren",-10.700720017585564],["Normaal",-10.701496707638107],["Leidse",-10.70174919905182],["bevat",-10.702204168424293],["passagiers",-10.70237251169201],["line",-10.7024466049599],["gezocht",-10.702490486254511],["graan",-10.703071318839331],["verplichting",-10.703135921767762],["Afrikaans",-10.7033125895278],["verklaard",-10.70337150303917],["kritisch",-10.703817817080965],["transfer",-10.704270746766666],["reageerd",-10.70450667063436],["Djoko",-10.70490112075499],["gecontroleerd",-10.705012678031053],["versch",-10.705624837536067],["Lind",-10.705683417855962],["schijnt",-10.705859873233834],["afwachten",-10.706213718407858],["GL",-10.706231987039025],["directe",-10.706477566664443],["scheiden",-10.70664739568289],["63",-10.70738419379724],["Marc",-10.708480824452886],["wi",-10.70942904055471],["dringen",-10.70985280125571],["51",-10.710011820024368],["voetballen",-10.71235773127289],["emotie",-10.71256922162488],["inder",-10.712754962650262],["ok",-10.71366470168161],["tische",-10.713723189982979],["stuurde",-10.714274908595268],["lieten",-10.714916475843289],["vocht",-10.715573318594709],["herkenn",-10.71578016155093],["Late",-10.716576748406949],["schulden",-10.717293892608302],["god",-10.717676771660244],["Kim",-10.718212940554569],["noteerde",-10.719154190009329],["AI",-10.72008083190176],["moeilijke",-10.720173555699317],["actieve",-10.720760687326344],["tennis",-10.720805163720222],["igheid",-10.72090643523684],["humor",-10.721116075416223],["sleutel",-10.721184794223802],["Lekker",-10.721442023255603],["studio",-10.72150017945536],["Gronings",-10.721500295737405],["onmiddellijk",-10.72151745568351],["wekelijks",-10.721531298008152],["Momente",-10.721559271709745],["aanpassing",-10.721680986633082],["cursus",-10.721715921180671],["zakt",-10.721843202479587],["discriminatie",-10.721893874131368],["Jezus",-10.722198665723143],["dreiging",-10.722414671781843],["jongere",-10.722506523067581],["ophef",-10.722670899343573],["chao",-10.72289707800952],["arcelo",-10.722980252342472],["katten",-10.723010718400475],["blanke",-10.723019768026749],["mentale",-10.723105868081968],["effecten",-10.723908546478308],["enthousiast",-10.724048385153331],["middenvelder",-10.72429478166669],["il",-10.724436119360647],["migranten",-10.724576894479405],["wetenschap",-10.7247270902206],["verhoogd",-10.72570382757079],["Koning",-10.72624963234657],["Madri",-10.726681737180165],["stuurt",-10.726758660061561],["gezonde",-10.726874504854306],["plafond",-10.727496510904121],["gegroeid",-10.727744909506981],["ies",-10.727834497274054],["ideale",-10.727913166720654],["omvang",-10.728039415093205],["inspectie",-10.728212384405436],["lukken",-10.729285276504747],["bussen",-10.729661725437284],["64",-10.729877617767217],["stapt",-10.729994387331086],["verenigingen",-10.730492632697672],["spannen",-10.730670369793517],["toevoegen",-10.731165500729315],["consument",-10.731423601585135],["methode",-10.731547183333696],["Spot",-10.732584164992657],["Pieter",-10.733201158522423],["Steven",-10.733289579529385],["loren",-10.733673356651385],["bestemming",-10.734401569184282],["67",-10.734428760155911],["uitgang",-10.734688799580585],["toegankelijk",-10.734974958289463],["Fed",-10.735508185497823],["overige",-10.735857975312612],["wonder",-10.73684614846251],["ekt",-10.73772746316215],["herfst",-10.738085934214876],["domme",-10.738130316519234],["beschadigd",-10.738236082601386],["Stel",-10.738326598741263],["eindig",-10.738534994434524],["drank",-10.73959870594772],["AC",-10.73994088796333],["Mart",-10.740482680768173],["finish",-10.74101273787575],["moeilijker",-10.741250258507165],["import",-10.741522387219588],["deelt",-10.742231283735823],["omlaag",-10.74272107226503],["gedachten",-10.743702925359454],["Donderdag",-10.743755731678402],["zoektocht",-10.743813602461806],["IC",-10.743903334839102],["gedeeltelijk",-10.74396894027439],["bewegen",-10.744487582369315],["verlagen",-10.74460609024533],["achteraf",-10.744798562574186],["gezelschap",-10.744846105813089],["tallen",-10.74568353108876],["menselijke",-10.745898469087349],["vooruit",-10.747044886115685],["wisselen",-10.747053484534392],["vergelijken",-10.747078272911558],["behulp",-10.7471696785381],["Ol",-10.747704030720861],["gras",-10.747773488910314],["conservatieve",-10.74786269240945],["uitbreiding",-10.748116720659493],["voorzieningen",-10.748219886555919],["waterstof",-10.748873435121089],["elite",-10.749507894881688],["rook",-10.74981175994746],["Ra",-10.752735297099083],["digita",-10.752921847945444],["Oud",-10.753325178262894],["opeens",-10.753810360157058],["forse",-10.753820967390011],["malen",-10.753835114744728],["straffen",-10.755070115452416],["drong",-10.755954325853216],["zieken",-10.756463105528201],["Gemeente",-10.756772063370516],["voorganger",-10.758157524139465],["69",-10.758699401387007],["po",-10.75893428156583],["dam",-10.759485544966557],["bestuurs",-10.76100132612942],["Midden",-10.761643632026633],["buik",-10.762402554333637],["kruis",-10.76263419968031],["Dinsdag",-10.763064116458434],["social",-10.763189613811347],["ervaringen",-10.76321547991711],["heus",-10.76325013052005],["kanten",-10.763596848914254],["oordeel",-10.763948521225622],["vingers",-10.764710841744005],["leveranciers",-10.765621644999754],["Maria",-10.765713580887347],["koude",-10.76611400818387],["Luc",-10.76620951771684],["docent",-10.766464180678174],["Black",-10.76646823680773],["Twente",-10.766472611975807],["content",-10.766480271003566],["zelfstandig",-10.766556429141474],["Onderwijs",-10.766592116965748],["Kleine",-10.766608124803016],["lo",-10.766655421812368],["mishandeling",-10.766789723287987],["bad",-10.76680025415543],["Mathi",-10.766828263172593],["gedeelte",-10.766847945780421],["wettelijk",-10.766903382394442],["Kamerlid",-10.766999940193976],["uiterlijk",-10.767315227644685],["uitsluiten",-10.767828958896683],["Marokkaans",-10.767987471911034],["stemt",-10.768327638119445],["artiesten",-10.768605426739764],["72",-10.768641993181703],["bedreigd",-10.769097130422843],["kindje",-10.769274002755104],["bezocht",-10.769531466430552],["groeide",-10.769572739778532],["berekening",-10.770654693059635],["terras",-10.770983692756571],["gedur",-10.77132977923177],["vereist",-10.771423721363426],["staking",-10.772325144311777],["gan",-10.77337170117777],["verwachte",-10.773467037568635],["inspanning",-10.774120321677378],["schaats",-10.77483834748613],["bleke",-10.774857790435428],["Amazon",-10.774937829548495],["aansluiting",-10.77551952453679],["Spele",-10.77563796071628],["afsluiten",-10.776419117380552],["76",-10.776545024556123],["paspoort",-10.77734833108769],["huren",-10.77743907755757],["games",-10.777794240283837],["trappen",-10.777952889319529],["appartement",-10.77811818491519],["maximal",-10.778258117445224],["aanvraag",-10.77839388234238],["taken",-10.779371361110442],["stapte",-10.779962923883284],["toeslag",-10.780583295587096],["reeds",-10.780775685792683],["Los",-10.781462583423115],["graf",-10.78224655992791],["Bol",-10.782291778777921],["anse",-10.783619505593762],["Ba",-10.783862730607382],["Hof",-10.783974651330142],["gevangenisstraf",-10.78414557813644],["circ",-10.784165615344687],["Meta",-10.784519852446003],["Jans",-10.784875090003567],["wandelen",-10.785575421708325],["cadeau",-10.786890854836312],["Play",-10.787810023969744],["assistent",-10.788598360741865],["liberale",-10.788624551560229],["experiment",-10.788750964552325],["innovatie",-10.788783171281302],["grap",-10.789071962706723],["Vl",-10.789287825399274],["betrouwbaar",-10.789351093027161],["deug",-10.78943749499483],["confronteer",-10.789705599660705],["Group",-10.789722199061385],["aanrijding",-10.78972222493794],["Zwolle",-10.789735831504863],["organisator",-10.789763441635236],["Vlaming",-10.789778452783192],["Prins",-10.78982313977586],["preventie",-10.790151278869288],["Plus",-10.790496947746337],["zijde",-10.790940842585794],["redactie",-10.790991923395932],["label",-10.791781882583889],["geheime",-10.79180335180261],["buurland",-10.791933204681058],["wer",-10.791949443618549],["Ne",-10.792297657474679],["ak",-10.793113768748979],["scheel",-10.793522709095537],["emotione",-10.793626959235926],["schermen",-10.793758685120642],["rot",-10.794613950638595],["warmte",-10.795005976134608],["):",-10.795054316399083],["Berlijn",-10.795074248727236],["!”",-10.79529254029178],["reserve",-10.795561758130509],["samenwerken",-10.796040480326964],["lijf",-10.796132580086518],["verleng",-10.796314298464639],["eigendom",-10.796515523040101],["com",-10.797639845588547],["lied",-10.79782545955209],["droogte",-10.798447010146752],["Britt",-10.800114000378787],["woede",-10.800263678075648],["Goud",-10.800833233918098],["ior",-10.801338852180699],["paal",-10.803137796532269],["Parlement",-10.803294678283262],["hu",-10.803819204585055],["overtuigen",-10.803893452952973],["versche",-10.804510178181507],["nader",-10.80486898877433],["laan",-10.80568514973522],["Pri",-10.805718844199392],["AS",-10.805825359387928],["accepte",-10.806559411728909],["gevaccineerd",-10.807319169536537],["bocht",-10.808575468152148],["Green",-10.809725536451468],["ubai",-10.810203024646299],["drang",-10.810376469862337],["regelen",-10.810985324619788],["ontbre",-10.811253055667601],["To",-10.811272662632685],["bi",-10.811688094881148],["relevant",-10.811891585584394],["gister",-10.812419246920623],["evenementen",-10.81287833558147],["commissaris",-10.813515223871928],["George",-10.81351572609593],["affaire",-10.813585374086315],["goeie",-10.81360254265717],["goedgekeurd",-10.813605684372053],["Zondag",-10.813763342636674],["journalistiek",-10.81379806659896],["deelname",-10.814117218578447],["genot",-10.814159070194988],["aat",-10.814262266010447],["Slecht",-10.814328494302893],["Nick",-10.814526030961126],["pijnlijk",-10.814706603201827],["ezorgd",-10.814996969621097],["verkrijg",-10.815412193023977],["goedkope",-10.81558374126379],["aanmeld",-10.81583590406762],["begre",-10.81615554366402],["FI",-10.8163174964115],["idiote",-10.816507585662047],["Kev",-10.81685735335216],["bezwaar",-10.816859715316276],["hersteld",-10.817212491076539],["rapper",-10.81750272963488],["Jean",-10.817628123697716],["Afghan",-10.818052990942],["booster",-10.818812233421056],["130",-10.819911728901168],["soortgelijk",-10.820248800441526],["rondje",-10.820695337076636],["Oisterwijk",-10.821088756640485],["tienduizend",-10.821220720752851],["GG",-10.822129769616405],["Bert",-10.822995295651861],["leest",-10.82328970584498],["klas",-10.823400073322416],["kilometers",-10.82440232710663],["betaalbaar",-10.825577764745692],["roken",-10.826254112359909],["nachts",-10.82642572337452],["mevrouw",-10.826488060340797],["verricht",-10.826820751436852],["verdwijn",-10.826914891170336],["artsen",-10.827609222980154],["deelnemen",-10.827742148949493],["emand",-10.827950552707296],["aankomst",-10.827966555611798],["wassen",-10.827994387646395],["GB",-10.828319301651511],["enigs",-10.828758730153433],["eeuwig",-10.830280720920424],["treffen",-10.830441831303641],["So",-10.830442867059936],["kou",-10.83077381428544],["wijs",-10.831786803118192],["kritische",-10.833269660549686],["gooide",-10.833678736485668],["Belasting",-10.833993940345632],["activisten",-10.834465822865159],["epoel",-10.835304916640094],["armen",-10.835649868087415],["figuur",-10.835657790494233],["enig",-10.835818097839205],["plank",-10.835894315863264],["wou",-10.836022909945367],["meent",-10.836882869259698],["Korea",-10.836905583114389],["hevige",-10.837314768124475],["concept",-10.83752757851862],["held",-10.837632366653448],["boerderij",-10.837739377228393],["documentaire",-10.83791066926033],["covid",-10.83795632828593],["marketing",-10.838019400553211],["sensor",-10.83813594278454],["Schouten",-10.838392773268236],["beschuldiging",-10.838412763080907],["religie",-10.838867981513763],["vermeld",-10.839174542806914],["criminaliteit",-10.839358788695723],["kampt",-10.839424215029991],["laagste",-10.84007299479566],["Joris",-10.840332253458868],["Kroati",-10.840348119185162],["Giro",-10.841009959655612],["aanhouden",-10.841046065307186],["zondagavond",-10.841107319538994],["signale",-10.841275564748136],["Zweeds",-10.841300751033573],["plant",-10.841415242967987],["Har",-10.84147767736209],["Argenti",-10.84165504702097],["beslissen",-10.842597359532213],["rechters",-10.843033342953472],["merkte",-10.843173691049271],["Will",-10.843249475955396],["jarig",-10.843740021564404],["behandelen",-10.844630307183653],["ingevoerd",-10.844813231598348],["120",-10.844847914098356],["Zand",-10.845348068792912],["douche",-10.845865548725055],["Serie",-10.846070426207916],["lacht",-10.846901572261453],["smaak",-10.84696250928241],["graad",-10.84858121952559],["duik",-10.848739852630347],["beveiligings",-10.84924196402688],["vervuil",-10.849251162294308],["gemist",-10.849611691881364],["Leuven",-10.850339318522261],["halver",-10.85047983872038],["Sa",-10.850525041319496],["vestiging",-10.850556367940747],["?\"",-10.850843837243794],["spoed",-10.851651562033496],["waarschuwd",-10.85171386571659],["honger",-10.851724933525986],["tref",-10.85185506052209],["aanleg",-10.851886347377398],["oplever",-10.85255216337261],["Beste",-10.852571132877102],["verdiend",-10.854464579012728],["negentig",-10.855088084233849],["situaties",-10.85620360856764],["tegel",-10.856257756395529],["Rijn",-10.85665693679613],["crash",-10.856758335903335],["jagen",-10.857706283045768],["aren",-10.858226262800214],["Iedere",-10.858715820996888],["fijne",-10.85882152827018],["mega",-10.859311596230341],["pest",-10.86000672866933],["Overige",-10.860821837204064],["Dag",-10.861783690209442],["verblijven",-10.86206695241995],["volwassenen",-10.862493132180084],["vacature",-10.862915024245254],["illegaal",-10.8629406597429],["maandelijks",-10.862996029240987],["corruptie",-10.863042690584223],["verbazen",-10.86308346877303],["biologisch",-10.863147609468074],["wandeling",-10.863400832476183],["uitgeschakeld",-10.863454708119185],["debuut",-10.863526561198272],["Thijs",-10.863668800703177],["richtlijn",-10.86379262789668],["Geert",-10.863930539930864],["leverancier",-10.864015700178285],["Bekijk",-10.864161029666283],["47",-10.864167350375418],["statushouder",-10.864220782858293],["energierekening",-10.865161244172274],["praktisch",-10.865270764209376],["Buiten",-10.865319568331858],["onrust",-10.865322216375018],["Sam",-10.865831077143248],["beschikt",-10.866720209435485],["klassieke",-10.866781217793859],["sportieve",-10.86724833921652],["toonde",-10.867385491861631],["tas",-10.867622589889843],["renners",-10.867757363748854],["server",-10.868093287125127],["illegale",-10.869555009122152],["Mi",-10.871080075064821],["Zwarte",-10.871089171979005],["linker",-10.87117870328804],["vel",-10.871974085605636],["Rotterdams",-10.872487745972542],["knoppen",-10.873256610122159],["organiseer",-10.873724385695123],["ota",-10.873795391717788],["peil",-10.873868484964865],["Do",-10.87403238243063],["trouw",-10.87406849037647],["ontdekte",-10.874342011858621],["suiker",-10.874546380040819],["sponsor",-10.874883363155572],["knap",-10.875763337364182],["geï",-10.876043564809574],["besmet",-10.876113486030418],["trad",-10.876128488580715],["bio",-10.877522422659979],["gemak",-10.878351675314885],["koste",-10.878715825382567],["slaven",-10.879833776561668],["huisarts",-10.880082345110763],["Nieuws",-10.880298427614388],["achteruit",-10.880728297332578],["scooter",-10.880963443259994],["Best",-10.881202253500028],["steek",-10.88120854689638],["Tijd",-10.881674565888536],["lat",-10.881974221820412],["tegemoet",-10.882023640695074],["zender",-10.882075487939016],["pleegd",-10.88229095006939],["opkomst",-10.882646717484338],["analisten",-10.883033008527086],["%)",-10.883357524356793],["olksgezondheid",-10.883432138902712],["kenmerken",-10.883644067706252],["munitie",-10.884018430050036],["instelling",-10.884734677299582],["econo",-10.886494017636414],["meester",-10.886763314805135],["gram",-10.88680980029381],["vervolgd",-10.886828371462109],["duurzaam",-10.887252880370902],["behoren",-10.887266224467993],["element",-10.887280326313435],["vijand",-10.887414042800325],["cocaïne",-10.888546253702765],["verschrikkelijk",-10.888546348447857],["peloton",-10.888546381248204],["continu",-10.888549359730787],["gestorven",-10.888549493345877],["Museum",-10.88856007042913],["verdriet",-10.888636213683517],["SUV",-10.88877858315878],["Spanjaard",-10.888908729002058],["begeleiding",-10.888958512621425],["heerlijk",-10.888964213735738],["Gister",-10.889067384764896],["prijsstijging",-10.889354537290757],["toegangs",-10.889750258757958],["gespecialiseerd",-10.890577161832663],["getuige",-10.890742046550132],["stoelen",-10.89093801453185],["Lang",-10.892769507364335],["Derksen",-10.89278483059724],["ban",-10.893100252887827],["overtreding",-10.893220266117314],["tie",-10.893712734524467],["aarmee",-10.894050892660317],["vorming",-10.894270730297505],["Carlo",-10.894743088276728],["vonnis",-10.895597557906573],["ondersteunen",-10.895920555540092],["62",-10.896388656584486],["slechter",-10.89651767290755],["bruto",-10.896838742099618],["bot",-10.897434495493762],["overval",-10.897470983485015],["lieve",-10.89778441135924],["Ri",-10.898552715609163],["opmerkelijk",-10.898579785621413],["Brusselse",-10.898613483842992],["kernwapen",-10.899165425625991],["lukte",-10.89926765485632],["material",-10.899539320447577],["likken",-10.900824652447959],["lek",-10.900843790966679],["arbeiders",-10.90101706436175],["thans",-10.902291049092556],["genoemde",-10.902508599182509],["oven",-10.902704955633165],["gestelde",-10.902869996081616],["Chris",-10.9030590990168],["klacht",-10.90385722914338],["tikken",-10.90393464377691],["neger",-10.904070927955125],["vastgoed",-10.904635625443287],["feesten",-10.904927464283391],["belde",-10.906218506432925],["staf",-10.906479660946996],["BC",-10.906840907547032],["klassement",-10.906884958507948],["Water",-10.907286873415455],["Mexic",-10.907886676918313],["Per",-10.908131308909155],["Wouter",-10.909248213773468],["ramen",-10.909721697286406],["ff",-10.91007508088731],["KV",-10.911090514670148],["professionele",-10.912514056855219],["oost",-10.913252909981374],["succesvolle",-10.913628269197343],["Oostenrijk",-10.913768947775274],["hemel",-10.913816259726742],["promotie",-10.913868559617793],["commerci",-10.91441180706191],["context",-10.914699067565827],["München",-10.914862043102506],["Chelsea",-10.914862073575943],["karakter",-10.914862095310772],["Microsoft",-10.914863445777302],["plotseling",-10.914902169854862],["arrestatie",-10.914918399413873],["Sparta",-10.914953698106707],["afbeelding",-10.914977275006875],["limiet",-10.915168429939218],["betrekking",-10.915173314599517],["Union",-10.915291127573246],["hinder",-10.91533410949464],["tranen",-10.915572192016858],["transactie",-10.915625427503114],["toezichthouder",-10.915664170031395],["ME",-10.91566564555049],["remmen",-10.915690029702137],["Voic",-10.915805532318577],["kaartje",-10.915998049482692],["uitgebracht",-10.916052484647441],["ziekenhui",-10.916318550969738],["verbaasd",-10.916574537213428],["wegge",-10.916791910017428],["Eerste",-10.916978136130862],["factuur",-10.917031199980698],["ach",-10.917099429031918],["ongekend",-10.918212637659558],["norm",-10.918791184398497],["Vind",-10.918960266916221],["vervanger",-10.918971933676678],["blokkeren",-10.919307721552062],["directie",-10.919397704031201],["beveiliger",-10.919495402391735],["NB",-10.919530037057937],["geregistreerd",-10.91966143950359],["brein",-10.920509248510529],["NU",-10.920708965622204],["subsidies",-10.921494667052368],["Philips",-10.921576048102718],["Tien",-10.922013339237385],["lon",-10.922516133453733],["Inter",-10.922629588940154],["uitleg",-10.923249721889345],["rouw",-10.923891763677986],["ploegen",-10.924688385096182],["spiegel",-10.924939805107893],["roep",-10.92503529523999],["aanvoerder",-10.925317734979679],["drukke",-10.92536295480317],["concrete",-10.925404751398727],["satelliet",-10.925442434701214],["Oude",-10.926025529391039],["scheidsrechter",-10.926052441035285],["Simon",-10.926200957346648],["getraind",-10.92714891199806],["Vergee",-10.927639921954425],["volgers",-10.927752661334683],["liedjes",-10.927773402032736],["belofte",-10.927840691365532],["sterven",-10.928261010501224],["bedien",-10.929631926543179],["WhatsApp",-10.93010924976322],["Hele",-10.930399538566434],["Marco",-10.930655394021025],["menselijk",-10.930887968918423],["crucia",-10.931585007713952],["beperkte",-10.931682904920612],["aankondiging",-10.931932828565277],["staal",-10.932408032259504],["lijnen",-10.93257202101657],["kippen",-10.93312454020164],["ticket",-10.933705032854446],["raans",-10.933722969698344],["vriendelijk",-10.933812618707242],["KN",-10.933853195566144],["begroting",-10.934036354133774],["bakke",-10.9348020061467],["landschap",-10.935227466132119],["71",-10.937226542691631],["Elk",-10.938647999023429],["constructie",-10.938658745438682],["gun",-10.938807795841507],["shit",-10.938890368687048],["State",-10.939218663210488],["vrijwillig",-10.940230595534304],["column",-10.94156793917506],["gewenste",-10.941673370520094],["creëer",-10.941731591338538],["gepubliceerd",-10.94176623120035],["beantwoord",-10.941790657368898],["quarantaine",-10.941889070137517],["portefeuille",-10.94188907022394],["tribune",-10.941889071272325],["psychisch",-10.941889076022443],["Visma",-10.941952518863241],["koploper",-10.941961745756462],["verslaggever",-10.941984919663138],["presentatie",-10.94207351190447],["inhoudelijk",-10.942390700989598],["loopbaan",-10.942405751602521],["draai",-10.942521740925987],["Opvallend",-10.942695213583594],["vul",-10.942988922293772],["aanvankelijk",-10.943343641763096],["Alf",-10.943370803869696],["uitbreid",-10.943373034003546],["wissel",-10.944129983793202],["lippen",-10.94424398055644],["geruchten",-10.94438019220964],["storing",-10.944405335366081],["operatione",-10.944471351743465],["betrapt",-10.944597585446312],["vroege",-10.944605251370872],["Emmen",-10.944624516571158],["Park",-10.944862675896726],["offs",-10.944870774446688],["blee",-10.945164145962345],["graaf",-10.945846881451581],["koopt",-10.945906702791406],["aliteit",-10.946643836541764],["Taiwan",-10.946750393888296],["lading",-10.947097296225177],["cellen",-10.947953012963476],["taxi",-10.948992376294445],["tanks",-10.949646164037935],["teller",-10.94970158024458],["rechtszaa",-10.949751178122174],["tweehonderd",-10.950096272809814],["diende",-10.950371143909004],["helikopter",-10.950482211531538],["huisvesting",-10.950854791778182],["visse",-10.951289358035531],["mi",-10.952061304706534],["kat",-10.952325362648041],["ritten",-10.952446191320643],["gelijkheid",-10.952491989518416],["voorraad",-10.952503110430904],["tuig",-10.952749166028424],["diens",-10.95295397599622],["hing",-10.953208411536549],["77",-10.953651402641436],["Zeeland",-10.953867843923485],["Canade",-10.953888867458778],["belegging",-10.954471715535881],["enberg",-10.955403570094676],["bepaal",-10.955654511375648],["overlee",-10.956034448644061],["iële",-10.956134619418828],["bekek",-10.956201339399467],["Dieren",-10.956229073373045],["service",-10.956648618758038],["vers",-10.956649324449302],["dwingen",-10.95671661425429],["zeventig",-10.957167864299631],["fenome",-10.957487992356254],["valse",-10.95754457260197],["zwak",-10.957782443586433],["materie",-10.958111069046216],["opgericht",-10.95815145907055],["instroom",-10.95894096704215],["destijd",-10.95894419071374],["fossiele",-10.959069236377854],["ewoon",-10.959354096128873],["rix",-10.959969659279183],["strenge",-10.960414670558144],["68",-10.961024336311604],["nationaal",-10.961507738178229],["plaatste",-10.962359656182876],["logo",-10.962806030433049],["trekkers",-10.962812973176105],["Pere",-10.962927710833172],["puntje",-10.963037699963326],["voorgaande",-10.963651867599143],["lasten",-10.963944703339388],["Burg",-10.96450951451374],["student",-10.9645812305076],["herken",-10.96571780727551],["NO",-10.965897457070904],["sporten",-10.966009408663115],["vervolgt",-10.96653166369508],["hit",-10.966808476392526],["Bu",-10.967502362513812],["akken",-10.967514527390179],["Brabants",-10.968139725860611],["slaagde",-10.96824085832038],["onderhandel",-10.969618025537597],["Sinterklaas",-10.969666849624948],["Erdogan",-10.969666860619586],["Pogacar",-10.96966734802696],["bitcoin",-10.969669682947787],["omikron",-10.969677142477384],["aanmerking",-10.96968638684304],["garage",-10.969686512746382],["Volkskrant",-10.969711485255175],["gewelddadig",-10.969714752117877],["administratie",-10.96981109746379],["permanent",-10.96983013801977],["brons",-10.96985292025884],["toeschouwer",-10.969911554720484],["panelen",-10.969936037948976],["all",-10.970204106096439],["betreffen",-10.970482416942785],["nota",-10.97096403820964],["Christian",-10.971286371364847],["Rij",-10.971398131258237],["Economisch",-10.971471376898613],["bezorg",-10.971502414787214],["onderling",-10.971545825974003],["verrast",-10.971592312398382],["verliefd",-10.972020640850193],["ul",-10.972522554253699],["KNV",-10.972573549352145],["meermaals",-10.97302628012797],["Su",-10.973084992074574],["Jack",-10.973088957584284],["onterecht",-10.973406250090376],["vuurwapen",-10.974030888979378],["Tag",-10.974544178400784],["unnen",-10.974583253355611],["Zeg",-10.974853129502318],["voorjaar",-10.97527678822322],["hooglera",-10.975567905773906],["verdw",-10.97558605227457],["ET",-10.975620860571675],["hel",-10.977155427782932],["uiting",-10.977736310535821],["Visser",-10.97788654230001],["atten",-10.977917408323696],["verkoopt",-10.978315566557995],["voegen",-10.978391077806467],["immigratie",-10.9785224124607],["aanhanger",-10.978667893148282],["dé",-10.97873563905189],["aandeelhouders",-10.97874063366384],["tevens",-10.979022396968144],["segment",-10.979515422399391],["rie",-10.979801033168759],["breuk",-10.980366817576089],["gedoe",-10.980788223476939],["Zal",-10.980831757436302],["Apeldoorn",-10.9809090541618],["auteur",-10.981755953284308],["by",-10.982589106217038],["pa",-10.98312838910628],["adviseer",-10.983247474819533],["wereldtitel",-10.983328785293466],["voorbereiden",-10.983532676043481],["Time",-10.983893766234353],["voortdurend",-10.984067201321006],["88",-10.985773116579029],["griep",-10.986573533448844],["bol",-10.987269041357205],["rez",-10.988199675174748],["Boeren",-10.988339573638495],["lastige",-10.989649485587698],["stapel",-10.990220831667731],["Stra",-10.990261664220792],["heer",-10.990388648182801],["vlaggen",-10.990803000231626],["Gewo",-10.990898880205862],["Hollandse",-10.992090398363729],["Dirk",-10.992279587058828],["luister",-10.992280472161442],["patiënt",-10.992608474557647],["Syrië",-10.99279252931818],["gepast",-10.993024342716058],["inkomens",-10.993027755443299],["grijs",-10.993044255250151],["zacht",-10.993358991453391],["verlopen",-10.993943645069264],["opzet",-10.994055159029044],["krachtig",-10.994871033267579],["erkennen",-10.995612949850258],["straling",-10.995688184674005],["lost",-10.995713694109572],["Vol",-10.995733453828342],["mooier",-10.996014012886583],["bestrijding",-10.996243211733525],["Eric",-10.99641318627497],["contacten",-10.996564098619015],["eredivisie",-10.996694620111555],["vierkante",-10.99704942110759],["bevestigen",-10.997180021839018],["planeet",-10.998117964913192],["spectaculair",-10.9982382764737],["valuta",-10.99823921727746],["centimeter",-10.998239773349926],["hectare",-10.998248353602458],["steekt",-10.998251260778881],["President",-10.99825405125469],["vergeet",-10.998256308642613],["Disney",-10.998256864142007],["Verschillen",-10.998257339761036],["Woensdag",-10.99826417859697],["Volkswagen",-10.998289687503217],["Aziatisch",-10.998347428316956],["VRT",-10.998778625565127],["racistisch",-10.998999531382541],["negentien",-10.999152665009664],["kruising",-10.99936699268196],["Gelderse",-10.999534935086],["papa",-10.999792361177962],["Utrechtse",-10.999974223018373],["waardering",-10.999988183894121],["uitgeven",-11.000090517318679],["peiling",-11.000110653780636],["gezeten",-11.000152619522542],["zië",-11.000898239050096],["zó",-11.00093010311299],["aangeven",-11.001317092434178],["Werk",-11.001723839962512],["prettig",-11.001864583571273],["gegaa",-11.002009328116918],["vernieuwd",-11.002223313665654],["ri",-11.002413821835002],["producent",-11.002462755102757],["investeerders",-11.002718098962463],["fel",-11.002758641740632],["staakt",-11.002824263460976],["moe",-11.002847963352094],["rabië",-11.003197253613845],["interne",-11.003637382711045],["gepresenteerd",-11.00427151625036],["thee",-11.004761825641541],["donkere",-11.005350618163382],["Mil",-11.00574890696509],["koken",-11.005987516606757],["boze",-11.006038045038297],["indien",-11.006115424292926],["jongetje",-11.00618208026092],["HEM",-11.006585820080893],["ondersteun",-11.006827880618056],["drome",-11.007630414792715],["onverwacht",-11.007701545111193],["Bouw",-11.00775287949018],["lezing",-11.007806194454487],["Haags",-11.008157901783541],["Winter",-11.008627542986671],["ram",-11.008720675567027],["betekenis",-11.008816043105512],["kiezers",-11.009213866707025],["Queen",-11.009513337954484],["Croo",-11.009948593177745],["kelder",-11.010442804837194],["beëindig",-11.010510767567665],["hielp",-11.010862445698855],["Australi",-11.011145012030266],["realistisch",-11.011805867983744],["figure",-11.011980939757535],["Geld",-11.012244537613096],["Nord",-11.012535366420805],["gids",-11.01265452799641],["Af",-11.01270419585098],["winnaars",-11.012715272958625],["draad",-11.012715528261936],["Sy",-11.013109959820962],["Vos",-11.01336033617116],["Auto",-11.013730881379622],["zwemmen",-11.01420836305526],["optima",-11.015330683059442],["aangevallen",-11.016028219415787],["opgesteld",-11.016321404556509],["dringend",-11.016489116905671],["ique",-11.017023564236657],["diversiteit",-11.01783492377569],["schadelijk",-11.017980324242822],["700",-11.01836345955154],["oekstra",-11.018375088358905],["hobby",-11.018645510384161],["Marie",-11.018716546890222],["Nation",-11.019207256381984],["aanhouding",-11.019218801771025],["….",-11.020093598071847],["nuttig",-11.020416366381689],["bon",-11.021173346902614],["Zwitsers",-11.021236998395125],["doos",-11.021592915104609],["tanden",-11.022500700881839],["installatie",-11.022618707133516],["bagage",-11.023116287393687],["startte",-11.023184958093438],["planning",-11.023280439984731],["klus",-11.023636664027674],["verdediging",-11.024270477682144],["Super",-11.02445249354054],["Xi",-11.02456293210309],["afnemen",-11.025105366628344],["flat",-11.025137744404008],["Jos",-11.025548973484408],["isolatie",-11.027629595482054],["horloge",-11.02765012953764],["Portuge",-11.02765052494237],["Heerenveen",-11.02765058249118],["ultiem",-11.027652625288386],["statement",-11.027660003326023],["FIFA",-11.02768238481396],["kroeg",-11.027706695021452],["langzamer",-11.027732779633045],["kaas",-11.02774612914155],["Forum",-11.0277517344333],["School",-11.027752403003372],["schadevergoeding",-11.027869496870384],["nieuwkomer",-11.02790771060723],["lift",-11.027971231379134],["gekoppeld",-11.028044530250249],["verkiezings",-11.028293273299617],["initiatie",-11.028333115144784],["bescheiden",-11.028519029855543],["infectie",-11.028842782202032],["Joods",-11.0288617815729],["ijzer",-11.028959667613908],["stiekem",-11.029487055850554],["windmolen",-11.0295317036438],["BO",-11.029622103838346],["heffing",-11.02969162278503],["voeding",-11.029693034776155],["Bas",-11.030492603409805],["Remk",-11.03061702745892],["lelijk",-11.030626725931379],["dwars",-11.031432830802466],["verzekeraar",-11.03149402300377],["Lo",-11.031615626245143],["versterkt",-11.031761606053813],["PV",-11.031790386224277],["vooruitzicht",-11.032176074108454],["islam",-11.032901586717148],["Koen",-11.032909527491642],["Natuur",-11.033099832378927],["NEC",-11.033417207109101],["Boe",-11.033585876647358],["handeling",-11.033703678962246],["richtte",-11.03382547305187],["mix",-11.033872011130628],["verlaagd",-11.034028537418209],["bevond",-11.034407107894648],["vreselijk",-11.03487512520889],["Ye",-11.035304339967254],["terugkeren",-11.035453016268011],["Mede",-11.035579388793362],["lonen",-11.035675278838994],["aangewezen",-11.035991581515546],["meiden",-11.036239841954826],["district",-11.036583185569988],["Turnhout",-11.036928481570753],["ongewenst",-11.037480331147302],["second",-11.037986482166838],["geha",-11.038015362268421],["Top",-11.038536349135978],["ruime",-11.03879027963847],["interessante",-11.039764544360521],["plaatsge",-11.040496350271969],["druppel",-11.040610639650902],["agentschap",-11.040885396477776],["sterkst",-11.04141458040397],["oordelen",-11.041501773199538],["identiteit",-11.041532119230823],["verplaats",-11.04163118589332],["oefenen",-11.041801170883613],["Bar",-11.041873117218511],["rice",-11.042105056400128],["BA",-11.042203164606756],["kar",-11.042485035484535],["schrap",-11.042594751817742],["pech",-11.043186251710729],["razend",-11.043307027577342],["regiona",-11.043312682318835],["ro",-11.043342713421568],["stemmer",-11.043381727509779],["gekend",-11.04370638058004],["Col",-11.04390721644215],["vertrok",-11.04400933947277],["vermeend",-11.044947504414706],["Genk",-11.045006893733904],["gestapt",-11.04511764552446],["dol",-11.045317613109956],["Sta",-11.045340853813006],["Laatst",-11.045916008057599],["snapp",-11.046861935406527],["tenzij",-11.047790572587427],["Intussen",-11.048120117103704],["streeks",-11.048278241339997],["lichting",-11.04867180229133],["repen",-11.049559836790616],["OC",-11.050114325406842],["Nik",-11.050217160974302],["busje",-11.05033538342931],["Piet",-11.050651584063349],["fles",-11.051387087199117],["56",-11.051734702303477],["vreemde",-11.05302886901151],["stoten",-11.053991823725356],["tijdrit",-11.056041791112884],["chips",-11.056145963755252],["krachten",-11.056314197536123],["Central",-11.056844648142054],["worstel",-11.057200598229446],["filter",-11.057622303052066],["individu",-11.057713775197639],["penalty",-11.057843421891068],["intimidatie",-11.05795307156942],["ceremonie",-11.057953071666532],["koninklijk",-11.057953306954563],["Telegram",-11.057958353840164],["Donbas",-11.057959085724983],["Stijl",-11.057959708296117],["teleurgesteld",-11.057975736221577],["volume",-11.057978825443636],["beseffen",-11.057990847133762],["vanzelfsprekend",-11.058017584150825],["Arabisch",-11.058051393044789],["Hond",-11.058129298981385],["hervorming",-11.058160456868775],["vastge",-11.058168976318639],["originele",-11.058318745155612],["NIET",-11.058440634068607],["ideaal",-11.058458384369688],["ku",-11.058515162134826],["stekker",-11.058548198463694],["Model",-11.058829360859404],["Sain",-11.058857234823094],["Milan",-11.059000106491819],["Koreaans",-11.05905554153459],["voorstander",-11.059221685203319],["geluids",-11.059504657233566],["drager",-11.0596619850052],["versoepeling",-11.05979943778031],["landse",-11.059914597621617],["symptom",-11.059965624961007],["drinkwater",-11.060050503252505],["rey",-11.060111179046816],["werkzaam",-11.060227724640235],["Klein",-11.060563789111603],["61",-11.06120855897968],["geboekt",-11.061330044780602],["doodge",-11.061731125015726],["streek",-11.06188609432532],["handelaar",-11.061906631933073],["beschouwd",-11.061916902824573],["lol",-11.06232268580048],["Dor",-11.062521848247538],["AN",-11.06277573098994],["verzameld",-11.063129848511853],["apparat",-11.063266863269613],["zondagmiddag",-11.064198000583094],["Tay",-11.064576503515815],["tiener",-11.064620823440075],["geldig",-11.065747490246412],["cher",-11.067442986268851],["App",-11.067766203359342],["opnames",-11.06845194870487],["verkoper",-11.068862407216077],["tallo",-11.069257693000985],["buigen",-11.069631202450292],["verbeterd",-11.070177718096932],["mondkapjes",-11.07024176013039],["Ah",-11.070548751541814],["lijke",-11.071166108562611],["onnodig",-11.071296292330763],["stations",-11.071499945295953],["uitkomen",-11.072122713007207],["beschuldigd",-11.072322893230675],["Du",-11.072537354466757],["sten",-11.07265925685693],["dokter",-11.072784452131526],["Republikein",-11.072824144731158],["appartementen",-11.073310604825805],["werknemer",-11.073442785022475],["single",-11.073861652233056],["kroon",-11.074341082577739],["Mon",-11.074865258467199],["Wester",-11.075122031475892],["maximum",-11.075285511121571],["helm",-11.075723187926016],["oppervlakte",-11.075842961648723],["absolute",-11.075952474962659],["renner",-11.076039759257421],["ance",-11.07606258435231],["houder",-11.076066448584681],["dodelijke",-11.076265208118551],["ium",-11.0764323241623],["elektriciteits",-11.076580351489874],["opmerkelijke",-11.077078341518622],["sporters",-11.077127636251008],["snapt",-11.077224400205324],["object",-11.077565308023246],["plekk",-11.077950692614422],["Emma",-11.07798238445408],["behoor",-11.078802670322899],["que",-11.080236832322134],["Sch",-11.080334366230332],["more",-11.080344456578803],["afgezet",-11.08038240728025],["loper",-11.080488154299811],["Saint",-11.0808133965905],["kap",-11.080846365725572],["weigerde",-11.081027465009537],["burgemeesters",-11.081038271965761],["achterban",-11.081084375062066],["bewolk",-11.082116215803982],["achtige",-11.083348938404455],["opgehaald",-11.083476464596384],["Vooruit",-11.083705613219996],["ingang",-11.084611491659178],["schuil",-11.084624805044918],["trof",-11.084688773898424],["nadenk",-11.084764608991325],["voorgesteld",-11.084800469385378],["maaltijd",-11.084838468427428],["Belang",-11.084990483662189],["YouTube",-11.085118226275291],["vergroot",-11.085726226569836],["196",-11.08619103724051],["artiest",-11.086241025982119],["bom",-11.086465514989593],["activiteit",-11.086480779111653],["gebruikte",-11.087822740824484],["schaduw",-11.0885268526517],["liegen",-11.0889871535176],["Vincen",-11.08914523987944],["respectievelijk",-11.08920609394191],["Omtzigt",-11.089212665278529],["break",-11.089228756193727],["Vereniging",-11.089244291552646],["Window",-11.089449013768396],["vliegveld",-11.089509644804625],["cryptomunt",-11.089711482459167],["groeps",-11.089729086652062],["Award",-11.08987612712287],["strafbaar",-11.089901063084584],["coronabesmetting",-11.089937559637164],["leerkracht",-11.089954342720736],["Donets",-11.090138468933965],["óg",-11.090267099367498],["geteld",-11.09029206307433],["put",-11.090636939979518],["ingericht",-11.09090602656089],["cao",-11.091323969039928],["beroeps",-11.091391136255197],["toneel",-11.091756385630758],["paarden",-11.092184059941609],["vrolijk",-11.092622438872173],["zesde",-11.093015330304478],["velgen",-11.09301718244091],["ASM",-11.093268165007023],["q",-11.093400999169914],["creatieve",-11.0936552923978],["koeien",-11.09400164880308],["verhuis",-11.094423792583118],["bevinding",-11.09493483107743],["plaatsvond",-11.095269954864731],["wolven",-11.095407191995434],["Toy",-11.095732389116268],["Kruis",-11.09648887147221],["Rechts",-11.097137814038945],["ingrijpen",-11.097251962884249],["Meest",-11.097494507032724],["Daarin",-11.097582561799603],["constant",-11.097917188437908],["zwijgen",-11.098254795371467],["brugge",-11.098692700795075],["letsel",-11.098908802119253],["klassieker",-11.098918543317588],["mogelijkhe",-11.099308082903441],["rare",-11.099410292396389],["exemplar",-11.099516832265964],["stream",-11.100498851873104],["my",-11.100714259791374],["Stee",-11.10166666540233],["bestond",-11.10206473431784],["dodelijk",-11.102521531686914],["Thuis",-11.10252366502004],["uurtje",-11.102565139995617],["vlogen",-11.102906604890531],["parlements",-11.103878978477493],["duurde",-11.104602985843027],["pre",-11.10477090082609],["War",-11.104850385836064],["drink",-11.10498234510234],["Ger",-11.105072564558746],["kamers",-11.105569332679288],["Zeven",-11.105795461327574],["gemerkt",-11.106075816186067],["nest",-11.106217630810683],["emco",-11.106284806077163],["Tilburg",-11.10643439471706],["vertrekt",-11.106603931942969],["verlenen",-11.106918976787432],["Mel",-11.107270618965835],["Blue",-11.107484735239554],["bo",-11.107655751760731],["MC",-11.10877450732766],["verplaatst",-11.10919430073874],["troffen",-11.109502272569655],["kunstwerk",-11.109584772653623],["voorbereid",-11.109598938471617],["titels",-11.10964357860713],["ingewikkeld",-11.109970793711454],["maals",-11.111260510907487],["lichtingendienst",-11.112525706934568],["illa",-11.11257380452577],["jurk",-11.112683385558183],["daalt",-11.112758798598394],["Maarten",-11.112928433462564],["rock",-11.113265493279705],["formatie",-11.113418618364518],["compens",-11.11355556409487],["geur",-11.114109272311321],["oorden",-11.114342587218344],["Ni",-11.114374597848656],["erachter",-11.114790968627371],["monument",-11.114930028098104],["eert",-11.115920288694593],["families",-11.11642871370741],["orry",-11.116457127009147],["prinses",-11.116478838832556],["zuur",-11.116887666944578],["drijf",-11.118147663632922],["Messi",-11.118879256681472],["overgang",-11.119045277675504],["doelgroep",-11.119065150085639],["stok",-11.119411046046949],["bewer",-11.119679297197596],["trauma",-11.120304281134437],["besprek",-11.12037231523378],["Noors",-11.120718045832849],["huilen",-11.120820372976995],["plaatje",-11.120862930956502],["communic",-11.120938454169186],["Krijg",-11.121135439082668],["grijze",-11.121204410370098],["strafschop",-11.121368349997375],["audio",-11.121385313654525],["Sophie",-11.121461889342573],["comfort",-11.121463360686793],["MacBook",-11.121467662103989],["Klimaat",-11.12147768570031],["virtue",-11.121498733719127],["achtervolging",-11.121528114266223],["presteren",-11.121534499836134],["mmers",-11.121607686156288],["installer",-11.121617952776527],["Klaver",-11.121621162379522],["warmtepomp",-11.121638473672743],["SV",-11.121662127053732],["dingetje",-11.121696874675958],["aspect",-11.121739087072456],["consequentie",-11.121799406631718],["ontbreken",-11.122072515943525],["rap",-11.122330371109797],["verkrachting",-11.122645743130043],["extreemrechts",-11.122849712297022],["stapje",-11.122983061395196],["Gi",-11.123086928428474],["ontken",-11.123373385974254],["verton",-11.12345979943565],["omgekeerd",-11.124189821434147],["kinderopvang",-11.124323788251651],["breder",-11.124440595623753],["marge",-11.124470162054097],["Klop",-11.124482128333382],["Grieks",-11.124501436595908],["afgelegd",-11.12464853886407],["biertje",-11.12496316669321],["bommen",-11.125245266954147],["Meerder",-11.125280985972879],["vriendjes",-11.12589322899579],["info",-11.126072022381027],["Gas",-11.126814316551489],["ans",-11.126905004527982],["Gra",-11.127235027327204],["Sterk",-11.127331561211472],["bemoeien",-11.127623497026807],["spreek",-11.127702347828283],["tour",-11.128452649130491],["leuker",-11.12853789998136],["stukjes",-11.128864771894058],["Racin",-11.12915444434963],["1500",-11.129298147937881],["eur",-11.129481940417605],["lijstje",-11.129822307227334],["knuffel",-11.130592089463509],["uitgedeeld",-11.131010856128611],["Cent",-11.13111201341969],["78",-11.131191166552703],["350",-11.131310867799574],["besef",-11.1317222083519],["kenteken",-11.13221097216951],["opname",-11.132227688457405],["verslaan",-11.132731620670487],["leugens",-11.132958784871693],["verliet",-11.13314169154286],["wethouders",-11.133309047428337],["Wh",-11.133348616922799],["automaa",-11.133503334274105],["dansen",-11.133504297701652],["gemeentelijk",-11.133584368447877],["ergste",-11.13370166349266],["cruciaal",-11.13393406602494],["trainings",-11.134501715557178],["vogel",-11.134555558612776],["lach",-11.134566952647354],["gered",-11.134765450354005],["té",-11.134781441374763],["versnelle",-11.134879184620017],["varkens",-11.134915188911618],["strategische",-11.135662868897459],["gender",-11.135832606740973],["900",-11.135960638091747],["ngeveer",-11.136014740433005],["plaatselijk",-11.136017596351556],["poort",-11.136021609497035],["Beet",-11.136601577046504],["verpakking",-11.137073570153483],["voorspel",-11.13731337682045],["lezers",-11.137611645282421],["oprichter",-11.138188019810798],["Store",-11.138391372912121],["cilinder",-11.13875468249784],["Wall",-11.138823602528632],["ix",-11.138838111046008],["opgebouwd",-11.138852133391866],["Uni",-11.138981212613576],["robot",-11.139105074106368],["egenwoordig",-11.139681902379767],["ëren",-11.139966373277566],["kunstenaar",-11.140136255238374],["Amerikaan",-11.14021414017595],["opbouwen",-11.141459444952913],["geïnteresseerd",-11.141512688258523],["gevel",-11.14223821804481],["gebruiker",-11.142816262409692],["Rog",-11.14332978526164],["slepen",-11.143779060879735],["sma",-11.143899000363856],["verlengd",-11.144078418589734],["aanbieder",-11.14412755787588],["Algeme",-11.144422671308877],["exempla",-11.14450653796539],["ontbijt",-11.14474639318339],["Vrouwen",-11.144892181934997],["OV",-11.145244250960392],["stort",-11.145741651235197],["liedje",-11.14626810047546],["particuliere",-11.147369940980337],["vergelijkba",-11.147816473526413],["verbinden",-11.148114458800073],["bestelle",-11.148255464957693],["container",-11.148502408079786],["behaald",-11.148767848529658],["neef",-11.148818540373256],["450",-11.1492865178584],["brieven",-11.149618666905399],["versterken",-11.149961940831345],["Staats",-11.150523343178428],["voerde",-11.150657446868152],["spier",-11.151851478375608],["ontkenne",-11.152089097972112],["handhave",-11.15218223394469],["rijders",-11.15230150074904],["onderscheid",-11.152675315341067],["studies",-11.152681669105199],["óó",-11.153028809808255],["erland",-11.153189114082815],["noch",-11.153375875809056],["nomen",-11.153533064050986],["instrument",-11.153540290135108],["restaurants",-11.153593701403377],["gebl",-11.153855928527541],["éér",-11.153984845557403],["patroon",-11.154386210932985],["Amersfoort",-11.154387558212415],["stabiel",-11.154488224302355],["zorgvuldig",-11.154794473187364],["Koninklijk",-11.154794474037242],["kliniek",-11.15479637645271],["commandant",-11.154798441598667],["problematiek",-11.154800328213826],["Beleggers",-11.154805248768948],["Space",-11.154810345968684],["dictator",-11.154845909752476],["AOW",-11.154869064485831],["Nationaal",-11.154916636119966],["geheugen",-11.154932261447701],["Cherson",-11.154943286061386],["renteverhoging",-11.155058159666392],["bitter",-11.155170949031168],["ambassadeur",-11.155218295442118],["islamitisch",-11.155302885943193],["geopolitiek",-11.155342908446567],["zwaargewond",-11.155505043784203],["voorspelling",-11.155739304358438],["ieke",-11.155763538759828],["polder",-11.155779240817928],["leken",-11.155858742661978],["oontje",-11.15613868077422],["protesteren",-11.156711314011403],["beek",-11.156866148855151],["geestelijk",-11.15688968302456],["MG",-11.157078155708312],["Amsterdammer",-11.157253445243107],["mode",-11.157267897094801],["Son",-11.157276916019278],["Drenth",-11.157287758770282],["án",-11.15745277517576],["Zit",-11.15794337896774],["scheiding",-11.158158433304276],["kopje",-11.158279103278613],["enquête",-11.159130318073725],["regenbui",-11.159137919658676],["bevoegd",-11.159188152833028],["aert",-11.159377997797204],["koppen",-11.159451165571873],["verdeling",-11.160040504410945],["vandaa",-11.160052695831467],["lust",-11.16067233700288],["dankbaar",-11.16077134062308],["Valt",-11.160940024331598],["Bern",-11.160952284992096],["huurwoning",-11.160997221458828],["Mah",-11.161458775661213],["Mike",-11.16164733468385],["benoem",-11.162205493063635],["Egypte",-11.162265706019602],["rado",-11.162330084459406],["monster",-11.162640686067196],["reaguurders",-11.162804495683242],["rellen",-11.163008566818892],["medisch",-11.163558573299168],["Stads",-11.16464500138572],["Institu",-11.164914590313309],["verplichte",-11.165020603781718],["bespreek",-11.165052994947702],["gehakt",-11.165538024174138],["Prima",-11.166144871491282],["vice",-11.166273363889939],["verwerkt",-11.166345299765693],["volg",-11.166397715497451],["stunt",-11.166441940394135],["welvaart",-11.166457055608738],["letten",-11.166491735352789],["Tel",-11.167660353949756],["Bel",-11.16771639463509],["Engel",-11.167892703989839],["midde",-11.16860737839875],["groenten",-11.16873006031577],["west",-11.168903686109653],["Ferr",-11.169035384623363],["kunstenaars",-11.170107428493285],["nny",-11.17072696002476],["gemeenteraads",-11.170785011639829],["Oorlog",-11.170948286475717],["belandde",-11.17096761268413],["Nieman",-11.171089860236622],["versneld",-11.171270568475014],["Hart",-11.171309490968941],["Von",-11.172458327251446],["Hitler",-11.172532056242993],["79",-11.173146446410716],["reikt",-11.174006963137892],["dame",-11.174397692326657],["openlijk",-11.174645073560104],["schaars",-11.175456332612933],["geweten",-11.17560573650475],["besmette",-11.176008836604804],["rijtje",-11.176040945500796],["complexe",-11.176765345868848],["BV",-11.176871313722158],["verzin",-11.1775368722203],["simpele",-11.177761470349816],["verwoest",-11.178101086882101],["schuif",-11.178107414662561],["elijke",-11.178542882565273],["hekel",-11.179131310914537],["buitenspel",-11.179257740258224],["Filip",-11.179402116805418],["ruimtes",-11.181133800983211],["moeders",-11.181431367311617],["immuun",-11.181529866358396],["kuu",-11.182074827556493],["excu",-11.182978382206223],["98",-11.184075101134189],["Christ",-11.184176120531745],["externe",-11.18420976922189],["stemde",-11.184237314401333],["zuinig",-11.184360280051818],["woningbouw",-11.184520143344464],["180",-11.185187853984079],["vreten",-11.185461051610432],["toegest",-11.18602178123172],["erry",-11.186092031497338],["benoemd",-11.18672101626132],["Ooi",-11.186849055814465],["84",-11.187191158279834],["Duits",-11.187349186806202],["groepje",-11.187415613468904],["kranten",-11.187605861208228],["Mechel",-11.187637718965547],["tijdig",-11.187753001875404],["web",-11.187914588018796],["mits",-11.187968374449653],["Sun",-11.188516372033753],["bestorm",-11.188988912374334],["Binnenland",-11.189032000661227],["schaamte",-11.189057252919826],["introductie",-11.189205924925766],["verbazing",-11.189266504529844],["symbool",-11.189277228177165],["logistiek",-11.189277265459435],["avontuur",-11.18927794241524],["chemisch",-11.189280081300552],["Senegal",-11.189280609790043],["frustratie",-11.189294967419308],["attractie",-11.189296467704091],["stimuleren",-11.189306723464343],["Ziggo",-11.18931034993905],["humanitair",-11.189317982701585],["strafrechtelijk",-11.189320921906031],["comité",-11.189392446209375],["Golf",-11.189413782122456],["NASA",-11.189437333033387],["professor",-11.18945620393481],["bood",-11.189479062836723],["regisseur",-11.189484133166925],["McLa",-11.189492375876318],["NFT",-11.189527282596313],["glazen",-11.189535972345471],["gouverneur",-11.189538587450087],["Vuel",-11.189555131584314],["Excels",-11.18959655227436],["Rabo",-11.189642967655676],["structureel",-11.189675667649793],["hardware",-11.189736237334568],["Heijn",-11.189899294964718],["plusser",-11.189995821822547],["gold",-11.190331353138086],["mbledo",-11.190593731134213],["streng",-11.19060497867764],["verlenging",-11.190735365424718],["steunt",-11.190792920863878],["Minder",-11.190945485279487],["versloeg",-11.191010559305349],["tool",-11.191106573317157],["mama",-11.191199618645967],["nationaliteit",-11.191219647475304],["Beter",-11.191279607474002],["geschat",-11.191288534109185],["lengte",-11.191880781215676],["doelwit",-11.192107936742488],["Sara",-11.192366596489489],["Stop",-11.19238769077798],["fit",-11.192445499964723],["genaamd",-11.192690047214512],["Luik",-11.192779436531568],["voorspellen",-11.193138038104548],["zevende",-11.193286177878692],["EN",-11.193672155776875],["verslag",-11.193677591049548],["motoren",-11.193708166365674],["Anton",-11.194163398992233],["Sven",-11.194339984262523],["poep",-11.194901395346422],["strijden",-11.195044152977628],["stopte",-11.195362943550478],["My",-11.195405845406786],["schaffe",-11.195596924362212],["sticker",-11.196615900800058],["lingen",-11.19700067512113],["schijt",-11.197847023325462],["deskundigen",-11.19855986667046],["geliefde",-11.198717246195889],["vernietigen",-11.198876664565539],["geklaag",-11.199214285988537],["uitzonderlijk",-11.199492663741685],["potenti",-11.200436821465006],["opgemerkt",-11.20169529202341],["bevestigde",-11.201959728006761],["handje",-11.202846522289795],["pompen",-11.20306419372288],["trekker",-11.203299106693716],["vi",-11.203590866540457],["kostte",-11.20360518682849],["Stad",-11.204556689663011],["chema",-11.204796261780942],["sorry",-11.206322795475337],["duurzaamheid",-11.206843356554002],["lobby",-11.207247308173987],["zwem",-11.207551206058504],["puzzel",-11.207699506611647],["dreven",-11.208310686456059],["eindigen",-11.208358964840913],["Nada",-11.20883597601544],["inzittende",-11.209078549769643],["gaard",-11.2091610311508],["toeval",-11.209212373729983],["rnacht",-11.209213647109113],["tickets",-11.209216332497602],["Or",-11.209225445010347],["ips",-11.210057176859884],["mislukte",-11.21027085867102],["!\"",-11.210322501432653],["Ham",-11.21133462834596],["Test",-11.21134240059365],["gevierd",-11.211547456882384],["triest",-11.211878795249977],["zaamheid",-11.212117296414952],["59",-11.212582103523896],["vulling",-11.212999657407536],["ingesteld",-11.213038926521548],["ders",-11.213597300541329],["process",-11.213741958133415],["erover",-11.214392124488985],["emissie",-11.214626553009953],["ashing",-11.215049615847082],["Fries",-11.2151971677058],["voetbalclub",-11.216310321232992],["voorspeld",-11.216340218322522],["vaardighe",-11.216474355447776],["IV",-11.216812774986954],["behal",-11.217966766185029],["warming",-11.21807421841175],["ol",-11.219091789513927],["ambte",-11.219620291941546],["ondernemen",-11.219722593551012],["schandaal",-11.22003641741539],["waarschuwen",-11.22007861270349],["Anna",-11.220181344730193],["cross",-11.222301532133066],["PF",-11.222368459628715],["onverwachte",-11.22298837057214],["Terug",-11.223392890925036],["Ring",-11.223439602618928],["vanzelf",-11.224021512802196],["medium",-11.224154550627697],["erkenning",-11.224911976086101],["pond",-11.224952896767434],["criminee",-11.224975955510237],["sessie",-11.224976826573482],["reality",-11.224992534484283],["speech",-11.224992589750393],["bibliotheek",-11.22499657343749],["evaluatie",-11.22500847118926],["publicatie",-11.225038457421139],["Familie",-11.225042498700004],["verdenking",-11.22504873097964],["tweedehands",-11.225049023332836],["volstrekt",-11.225050735218346],["radar",-11.225099076317175],["lunch",-11.225100000183204],["veiling",-11.22512508241166],["VTM",-11.22517675472938],["talkshow",-11.225275282485622],["schorsing",-11.225316290933801],["Ryan",-11.225407348358479],["Ziekenhui",-11.225430850671227],["expositie",-11.225676165641236],["Camb",-11.2256832045536],["tests",-11.225734866666112],["Janssen",-11.225937176531493],["koper",-11.225972975558095],["nadeel",-11.226108542981988],["gezondheidszorg",-11.226314936057749],["feestelijk",-11.226382756751036],["eilanden",-11.226593513229695],["revolutie",-11.226752087432402],["menig",-11.226790725766364],["paleis",-11.227080640100194],["badkamer",-11.22716260897951],["rivier",-11.227252491477302],["loods",-11.227301995225053],["Eva",-11.227821458796251],["ingeschakeld",-11.228318137778524],["geproduceerd",-11.228390845098348],["Bayer",-11.228506948965498],["Hou",-11.22857842530149],["Pé",-11.22870870954847],["Federal",-11.228913508633493],["ras",-11.229141879486743],["pure",-11.229246900926846],["Prijs",-11.231494165464015],["Peet",-11.23169695499591],["gelanceerd",-11.231714206485602],["stoer",-11.231916898851749],["afwezig",-11.23197088762226],["ation",-11.232382822451244],["MR",-11.232549251682489],["Bakker",-11.232580343273703],["voorkom",-11.233451896707933],["geschikte",-11.233710777038352],["Limburgs",-11.233861500459115],["bril",-11.234202170254635],["rooster",-11.234250837966762],["Haas",-11.234252513580735],["AH",-11.234419732648524],["platen",-11.234778035799206],["nagedacht",-11.235750696151861],["Ca",-11.23600228109372],["zwanger",-11.236254950255475],["dachten",-11.236633091243448],["Christen",-11.236812182294646],["buis",-11.236992042121944],["blind",-11.237281269630378],["belangstell",-11.23744220456276],["bewuste",-11.23751387808655],["shirt",-11.237937650254935],["opstand",-11.238133440557348],["gekke",-11.238372220602123],["waai",-11.238676816347912],["aanvoer",-11.238859667096825],["schakeling",-11.238886767528221],["gelijke",-11.238929681354687],["langdurige",-11.238963172118021],["gebruikelijk",-11.239094572072059],["iek",-11.2393754100795],["kassa",-11.239473636466352],["horst",-11.239872507006673],["keur",-11.240587102146568],["SE",-11.240688004822363],["geslacht",-11.241297925849429],["grootschalige",-11.241432629164379],["plege",-11.242173531933513],["muzika",-11.242293252254552],["potje",-11.242390802236603],["VID",-11.242467501544965],["Meijer",-11.242700160813182],["camping",-11.242836418218175],["gaaf",-11.243188573015333],["verhuize",-11.243764356500801],["download",-11.244003484183281],["Big",-11.24411102653807],["lezer",-11.244275355088767],["buien",-11.24521039757581],["storten",-11.24569209077172],["Roemeni",-11.245768859106398],["racle",-11.245776794617054],["Gerrit",-11.246025169967403],["Natie",-11.246239008399597],["zakelijke",-11.246319524703935],["uitgebreide",-11.246353998313285],["Just",-11.247087852056753],["baat",-11.247325597647306],["koffer",-11.248235893962994],["miljardair",-11.248452965213811],["keeper",-11.24858445365405],["86",-11.248591425090448],["Star",-11.24861517783523],["evolutie",-11.248858544601454],["aannemer",-11.249625631271407],["kogel",-11.249852907410137],["ansk",-11.25002768391375],["onschuldig",-11.250029941164598],["beloofd",-11.25041199447989],["No",-11.25056802625455],["Kies",-11.250736397283667],["back",-11.25090292716406],["regenboog",-11.251342305223325],["lampen",-11.25151047846593],["Scha",-11.251644602666813],["Ko",-11.252039587902427],["bedden",-11.252248801528754],["bovenstaand",-11.252444472614481],["Mechele",-11.252641038717423],["assist",-11.25393466938032],["werkende",-11.254099347164729],["rechtse",-11.254169107080916],["verdiende",-11.254409129220008],["present",-11.254532158904757],["flessen",-11.2549724299227],["star",-11.255439168310009],["Che",-11.255475816462026],["vlot",-11.25611951494465],["diepe",-11.25643948001257],["vliegt",-11.256551268446216],["tak",-11.256572116304667],["jas",-11.256886540802386],["beslo",-11.257026041553384],["Las",-11.257072067696711],["passie",-11.257425139188507],["bezetting",-11.257989819625987],["ard",-11.258062891289473],["wachting",-11.25921716460444],["Alpin",-11.259258607067409],["rel",-11.259365723632639],["Mars",-11.259664306998848],["mbo",-11.25989515340017],["versoepel",-11.260132546707021],["hoefde",-11.260198751658429],["gooit",-11.260285442895826],["Steen",-11.26045155675458],["bereikte",-11.26059638148334],["fragment",-11.260661726317299],["weekeinde",-11.260698893327959],["Plan",-11.261016559321948],["Moeder",-11.261505197583585],["Stream",-11.261602500631362],["onference",-11.261660916008926],["Internationa",-11.26168289002086],["krachtige",-11.261714500290719],["depressie",-11.261928006509265],["—",-11.262028550702372],["Festival",-11.262028551232582],["Studio",-11.262028580369922],["Hongkong",-11.262028624016326],["Milieu",-11.26202880888852],["continent",-11.262041508405359],["boycot",-11.262050480315374],["Centrum",-11.262061469992963],["Oscar",-11.26210894511933],["geëist",-11.262209316709475],["cash",-11.26222549102508],["Gerard",-11.26237711308951],["torenho",-11.262441629437125],["hausse",-11.262459647140712],["Dick",-11.262489497401893],["streven",-11.262504401039294],["conferentie",-11.26252150028643],["geschrapt",-11.262713176534973],["idd",-11.262822121036802],["eenmalig",-11.262935822640342],["ARN",-11.26301088766643],["HR",-11.263166821947465],["feitelijk",-11.263230479770002],["ius",-11.26329104230552],["Rotterdammer",-11.263433950606867],["vastgelegd",-11.263645231428656],["natuurgebied",-11.263862919305742],["Blind",-11.263978621329597],["hub",-11.264022020315137],["leraren",-11.264093223928374],["grootte",-11.264123908197949],["bestuurlijk",-11.26429231683703],["favoriet",-11.26446894477807],["uitgezet",-11.264564540523551],["basisschool",-11.264805678856336],["massale",-11.265149027070372],["opbouw",-11.26547031070048],["ondervind",-11.265526401999198],["epol",-11.266246429512279],["geland",-11.266448594966027],["tekende",-11.266483223651964],["verbaas",-11.266539545875329],["MH",-11.267232359927839],["grondig",-11.267266899136738],["AB",-11.2673591054395],["tand",-11.267426986880963],["doek",-11.267473182483304],["schadelijke",-11.268001824470788],["parkeer",-11.268008304261414],["European",-11.26861320189495],["vermist",-11.269480134418728],["bezighoud",-11.269579149263304],["Ok",-11.269632462941754],["beweer",-11.270311993009317],["terreur",-11.270762856202081],["sparen",-11.271101759486447],["Lil",-11.271795458447592],["Gir",-11.271887717875451],["Kar",-11.272496719893347],["koel",-11.272651115929648],["ci",-11.273303043922352],["Hope",-11.273768250650626],["werven",-11.274497412907797],["therapie",-11.274575296505898],["Houd",-11.274805643694842],["hoven",-11.275833008741227],["pikke",-11.276426564143694],["deeltjes",-11.277123915578054],["Francisc",-11.277217889648455],["Lu",-11.277441614395977],["vervanging",-11.277687593622796],["uitstel",-11.277704159162633],["schreeuwen",-11.27824441589992],["zielig",-11.278629581683859],["secretaris",-11.27873253726759],["Wa",-11.27917445166289],["ier",-11.279226887351644],["Cel",-11.279887521802252],["omring",-11.280306020115987],["faillissement",-11.280515621124607],["gens",-11.281091747870256],["schapen",-11.281178369681719],["oordeelde",-11.28126009582466],["age",-11.281423945078755],["divisie",-11.2823395194801],["pit",-11.282533379703118],["bloot",-11.28266811499427],["Westers",-11.282685981203624],["buur",-11.282972510368705],["strategisch",-11.283765749577501],["wieler",-11.284010875121782],["kleuter",-11.284401615439783],["nauwkeurig",-11.284535548598823],["wappie",-11.2846789399994],["bouwt",-11.28525090378484],["ongelijk",-11.285583021111185],["schop",-11.286020380202071],["kantoren",-11.287298691025423],["inspiratie",-11.28758247233156],["ghan",-11.288154377682792],["release",-11.288222202574254],["moraal",-11.288466968294205],["concre",-11.289101665710605],["knip",-11.289281031940245],["bu",-11.289363466872555],["SC",-11.289455810550857],["Take",-11.289491220137652],["explosief",-11.289655167841694],["Waal",-11.292581094985374],["gel",-11.29260521821136],["Bob",-11.293737021574541],["zwangerschap",-11.293970547548362],["getrouwd",-11.294243641207256],["structuur",-11.294619248025139],["Marine",-11.295079937062106],["maag",-11.295243490693924],["wille",-11.295409494962104],["krediet",-11.29555779422702],["rechtvaardig",-11.296285368462957],["versterking",-11.296312711297238],["kapitaal",-11.296598737179632],["allereerst",-11.296672586375223],["viert",-11.296706243740967],["schone",-11.297047519171294],["gewisseld",-11.297128885110347],["breid",-11.297527858467792],["intensieve",-11.298663900852937],["assen",-11.299026717007047],["bezuinig",-11.299088430180628],["forma",-11.299113161878566],["Pa",-11.299113183508565],["minimum",-11.299369731884799],["concentratie",-11.30002052915453],["koepel",-11.300213545578089],["corrupt",-11.300309635526315],["expliciet",-11.300490089164608],["parcours",-11.300490089246608],["Curaçao",-11.30049009515378],["Californi",-11.30049029330532],["adviser",-11.300495926615849],["eenzijdig",-11.30049829015597],["Tokio",-11.30049939052993],["elektronisch",-11.300509915572555],["Quick",-11.300521064614738],["reputatie",-11.300530040840146],["Zelenski",-11.30053419746096],["begraafplaats",-11.30053535483887],["mentaliteit",-11.30054209322041],["renovatie",-11.300542905139848],["artillerie",-11.300544543132842],["gemengd",-11.300555816345112],["donatie",-11.300564332917233],["dialoog",-11.300567764168935],["Jones",-11.300592472916952],["display",-11.300633876431963],["individueel",-11.300641269533806],["geble",-11.300657335062432],["beleving",-11.30069382980643],["Russell",-11.300721933231367],["aanbeveling",-11.30075267369123],["NRC",-11.300812085317567],["akpo",-11.300812387587994],["grafiek",-11.301129895515023],["bedank",-11.301164494699098],["paus",-11.301168213291046],["stilstand",-11.301182252286655],["VAR",-11.301277868879733],["verbruikt",-11.301282525666387],["importeren",-11.301394177943337],["regie",-11.301412347041552],["Depp",-11.301534844340074],["195",-11.30154230004676],["Walter",-11.301569095618246],["kussen",-11.301702726550165],["persbericht",-11.301751745948915],["katholieke",-11.301786842819924],["onderuit",-11.30179427006894],["Blijf",-11.302081284655833],["inlever",-11.302149585550213],["examen",-11.30216713503038],["item",-11.30221796955575],["Wageningen",-11.302680701605915],["personeels",-11.302733891704507],["verspreiding",-11.303296638306266],["Colleg",-11.303337092693358],["Lei",-11.303470788231587],["woonwijk",-11.303543079532833],["veer",-11.303632027140901],["verliep",-11.303661861491664],["Duivels",-11.303729247528915],["congres",-11.3038026266682],["Theo",-11.303830787765014],["ouwe",-11.305077420446846],["03",-11.305228668427027],["leefde",-11.305248515764056],["fiscal",-11.305420924641174],["big",-11.305515766189092],["Ab",-11.30600221488723],["stokje",-11.306935238881373],["bit",-11.307328553885581],["laad",-11.30777611685243],["ang",-11.308789109405133],["zong",-11.308945629187194],["Koop",-11.30945065853353],["weergave",-11.309559307529199],["levenslang",-11.310107323738851],["minderjarige",-11.31038491366134],["bescherm",-11.310408411316917],["wetsvoorstel",-11.311420317670786],["est",-11.312084827020254],["run",-11.312481352249511],["lor",-11.312721522534684],["tichting",-11.312820243046875],["Brand",-11.312971716476046],["DP",-11.313074154586076],["krap",-11.313728464170403],["demonstrante",-11.313927323654136],["plekje",-11.313933099112905],["RB",-11.314205906140627],["helden",-11.31431412816865],["shop",-11.31462549346607],["verbrand",-11.315159168683309],["woestijn",-11.315358673955576],["arme",-11.315369324986664],["invoering",-11.315710438258085],["talenten",-11.31596674294297],["binnenlands",-11.316020845136249],["blog",-11.316482848706181],["Volod",-11.31658759804874],["groente",-11.316714965382168],["weeg",-11.31674511327443],["staart",-11.31702701309876],["puin",-11.317441223583215],["atlete",-11.318622393207098],["ondersteund",-11.31887426332305],["Light",-11.31918054598139],["Veiligheid",-11.319241849736429],["dwang",-11.31929794984631],["emotionee",-11.319797913228044],["verwerken",-11.319949427166115],["Demir",-11.320316392742324],["keel",-11.320382004366854],["ontvlucht",-11.320476083247373],["invoer",-11.32140350567602],["heilig",-11.321825294289118],["vermijd",-11.322011506913366],["dia",-11.322137502532314],["Wees",-11.322174606555993],["cirkel",-11.32254893190822],["Lamb",-11.322569625901547],["handhaving",-11.322933482747363],["verzekerd",-11.323183991187655],["gedood",-11.323325939108852],["Niels",-11.323746830402971],["blokken",-11.323836713988111],["feite",-11.323979473166455],["Sal",-11.324050324685686],["Hasselt",-11.324119025290367],["82",-11.32420610341408],["ontdekking",-11.324257487275478],["financier",-11.324406635411336],["mondkapje",-11.324430794746023],["leerde",-11.324536901071205],["stroming",-11.325936734653387],["Volt",-11.326618280474678],["roman",-11.327456645758701],["Mal",-11.327466586507144],["Roos",-11.328621488443654],["uniform",-11.33203759536401],["Richard",-11.332262955391423],["Slot",-11.333075210175],["kondig",-11.333602650540305],["JA",-11.333954293863865],["nvesteerd",-11.335040854042031],["zuidelijke",-11.335070609757526],["fietspad",-11.335337797601454],["wisseling",-11.335523204610084],["91",-11.335711835419318],["WO",-11.336369788584754],["lente",-11.3369044712882],["worp",-11.337028276452067],["uiterste",-11.337804369984193],["regelgev",-11.337919324560529],["efficiënt",-11.338104965515853],["verkracht",-11.33890764779678],["Lee",-11.33896237180152],["grijp",-11.339524276489307],["bezette",-11.340024302060565],["roer",-11.340093148112075],["geduld",-11.340158064814704],["personage",-11.340260410269497],["Haarlem",-11.34045248650931],["Kardashian",-11.34049008916404],["demonstreren",-11.340490089424405],["asfalt",-11.340490475139427],["herhaling",-11.34049063440797],["Bitcoin",-11.340491282864024],["America",-11.340491365786141],["motivatie",-11.340497011704311],["verdieping",-11.340497194623389],["Leeuwarde",-11.340531540790066],["Randstad",-11.34058135243767],["Stijn",-11.340601197660435],["Lely",-11.340612243890627],["imago",-11.340621514260413],["willekeurig",-11.340631933532695],["benadrukte",-11.34070227179783],["Bedrijven",-11.340704539753435],["Sky",-11.340709401366489],["handtekening",-11.340714960406336],["ego",-11.340740040729576],["kermis",-11.340759713849106],["kist",-11.340810059178402],["business",-11.34084809236813],["cannabis",-11.34092790600801],["technologisch",-11.340949836867996],["brandstoffen",-11.340974713433592],["truck",-11.340984245538081],["veroordeling",-11.341126891903368],["symbolisch",-11.341206197456053],["tactiek",-11.341206796701888],["verplaatsing",-11.341230439412257],["betrouwba",-11.34123323266643],["vieze",-11.341391088605942],["hypotheekrente",-11.3415061493621],["suggestie",-11.341525639144553],["verzuim",-11.341640063233458],["parlementair",-11.341686732504789],["tankstation",-11.341761399471661],["kernenergie",-11.34176796769696],["full",-11.341802172951848],["honderdduizend",-11.342157263287325],["stempel",-11.342520981723814],["vorst",-11.342546880467864],["fuck",-11.342999797494674],["staande",-11.343274262200396],["omwonende",-11.343536836588058],["mannelijk",-11.343603280634138],["talige",-11.343626172998999],["Loe",-11.343863918678286],["''",-11.344010560707744],["deugen",-11.34425656328536],["structure",-11.345911494272725],["poten",-11.346671964434186],["aftrap",-11.347032267597221],["Weg",-11.347117452291462],["Pay",-11.348435056538703],["steen",-11.348570399615124],["stam",-11.349278949845143],["rommel",-11.350040789816081],["reedt",-11.350280100418807],["uitkom",-11.350365966152179],["terugge",-11.35083229271342],["Jaren",-11.352708584415211],["klim",-11.353404449405263],["moed",-11.353554846430113],["Ligt",-11.35357729858114],["vreugde",-11.353725930873832],["arbeid",-11.353786597163111],["vergoed",-11.354543565928653],["sleep",-11.354571931612353],["vernietigd",-11.354669395918416],["blond",-11.354804850033743],["Democrati",-11.354812236920061],["juichen",-11.355195045024178],["miste",-11.355504731356918],["stikke",-11.355913734790132],["Vera",-11.355941765327003],["Rock",-11.355996755680245],["Lier",-11.356067320355852],["reet",-11.356174012647864],["Roy",-11.356276321243215],["Veiligheids",-11.356686029713808],["schatte",-11.356796502414621],["sius",-11.35696592389968],["wond",-11.357167466957613],["Dome",-11.35733623016186],["pet",-11.358558832325699],["modu",-11.358880333230001],["Ecuador",-11.35891891261767],["haken",-11.359828125015074],["beheers",-11.360024620393173],["wette",-11.36036288454188],["buit",-11.360518940067529],["mails",-11.360725619467871],["slid",-11.361349630601353],["schoen",-11.361851436107766],["bewoner",-11.362054004218782],["hol",-11.362461206830186],["plaatjes",-11.362490070163169],["mé",-11.362552850102125],["gedicht",-11.362560109608092],["machts",-11.362705515272404],["NC",-11.363142040387945],["herdenking",-11.363417128694518],["89",-11.363803518428073],["jonger",-11.364239416508958],["bijstand",-11.364829110917444],["Nova",-11.364993405531415],["praatje",-11.365064440476472],["Luka",-11.365189116390534],["Mont",-11.365200184829948],["financiering",-11.365285998424802],["Kamp",-11.365569745410895],["langdurig",-11.36605222041736],["erkend",-11.366419387040725],["intern",-11.366600294327872],["klem",-11.36661393170505],["haren",-11.366918483141502],["deskundige",-11.367311643020624],["drempel",-11.367542585306667],["overduidelijk",-11.368218023098917],["AP",-11.368429922756867],["anno",-11.368759355711617],["houdbaar",-11.369097322730795],["spuit",-11.369135044258822],["privat",-11.370188792713584],["lenen",-11.370370341684357],["voorziening",-11.371372207502183],["Bal",-11.371824759647842],["con",-11.371857307259102],["hack",-11.372072542380732],["Game",-11.372174365074908],["vecht",-11.372666112950503],["MA",-11.373056233482846],["fusie",-11.373155195198537],["aanstaand",-11.373732685036249],["Laur",-11.373941446983082],["Surinamer",-11.374010197882114],["knappe",-11.374059724449086],["tablet",-11.37411723131391],["danig",-11.374559990402496],["zonnige",-11.375102589180464],["menu",-11.375528362141047],["ong",-11.376423797995164],["rukt",-11.37686439726972],["snelst",-11.377791974278324],["masker",-11.378110466737441],["beest",-11.378800429346091],["Saoedi",-11.378837909443671],["worst",-11.378973709950131],["blank",-11.379264713961803],["achtig",-11.380113034217622],["diploma",-11.380127803062871],["beweeg",-11.380304348109958],["macro",-11.380720037150121],["neutra",-11.380899992280035],["Groene",-11.380935874406074],["Sander",-11.381233251120134],["haalbaar",-11.381543675605357],["83",-11.381990299978073],["presentat",-11.382034038803626],["discipline",-11.38215675583503],["confrontatie",-11.382156761125252],["Gündo",-11.382157514305204],["Mohammed",-11.382157583808038],["oligarch",-11.382157635636071],["Management",-11.382164384831094],["apenpokken",-11.382165392568742],["concurreren",-11.382165927349668],["Dutch",-11.38219084531968],["Rafael",-11.38219112680851],["arrogant",-11.382216255148743],["referendum",-11.382230067981807],["Jonas",-11.38223411387904],["Argentijn",-11.382270181351336],["functioneren",-11.382319228103096],["intentie",-11.38232245448468],["federatie",-11.382326885770729],["bubbel",-11.38236699268913],["smerig",-11.38238482232595],["exclusief",-11.382515857809231],["hekken",-11.382526402478657],["ruimtevaart",-11.38253922403308],["afschaff",-11.382566625595201],["registratie",-11.382768924697874],["wal",-11.382850569286283],["ST",-11.383049794648954],["misdaad",-11.383106221223867],["steekpartij",-11.38311931153607],["tractor",-11.383134146879945],["Stree",-11.383165937167417],["rennen",-11.383229558046935],["wachtrij",-11.38325052882118],["parkeerplaats",-11.383529233784698],["stelen",-11.383815914747215],["Gerw",-11.383902482161076],["rolstoel",-11.383925393650266],["campus",-11.38403255525478],["boekje",-11.384047392079903],["Strak",-11.384098210203279],["Wever",-11.38452199602515],["mund",-11.384628648483321],["tijdstip",-11.384751696213957],["(!)",-11.384788171082162],["É",-11.384873584339754],["woordvoer",-11.384876461406565],["maten",-11.384938255910726],["landgenote",-11.385085780299125],["verf",-11.385481831241455],["Agent",-11.385529991891678],["Heist",-11.385782301877484],["twitter",-11.385823834140087],["criteri",-11.386047959526104],["huurders",-11.386113398984623],["iloot",-11.386135497978609],["intensie",-11.386167386153142],["camper",-11.386588179038112],["Braziliaans",-11.387300563277899],["races",-11.387390287033414],["afkomst",-11.387563080553234],["snijd",-11.38766913917734],["nieuwbouw",-11.387970916520533],["Israëlisch",-11.38833094188782],["enburg",-11.388340767958455],["levend",-11.388345936476108],["Ron",-11.388518633154115],["May",-11.388678018128598],["Pelo",-11.388921729246869],["aflopen",-11.389221521723002],["Dekker",-11.389775473034119],["legende",-11.389782826627073],["analist",-11.390129748670617],["straal",-11.390469210039667],["AF",-11.390502438309383],["ova",-11.390721848281958],["schijf",-11.39088955178095],["uitbrak",-11.391403867569398],["verwarmen",-11.391924373724912],["Sticht",-11.392597907033194],["kers",-11.392598090735161],["falen",-11.393146229697765],["geten",-11.393976234413673],["ië",-11.394309420533839],["eenvoudige",-11.39452351583174],["Tor",-11.394782307743203],["ddy",-11.394927604886792],["balk",-11.395898109810519],["bestur",-11.396026179549773],["UMC",-11.396057135876937],["regerings",-11.396206026198836],["slechtste",-11.396394003040147],["besparing",-11.396509146659533],["oorlogsmisdad",-11.396570530517733],["Wijn",-11.39671145035415],["Ub",-11.396896019089725],["strijk",-11.397156477544543],["Consumenten",-11.397385741713693],["head",-11.397728848310358],["gevoeld",-11.39776351982222],["boss",-11.397936457683922],["Blijk",-11.398713490300675],["sterf",-11.399179418008577],["li",-11.39974587692975],["troost",-11.399830615063596],["han",-11.3998340376633],["Maz",-11.400367350996126],["Ieder",-11.401129123287662],["wolken",-11.401267313417],["interactie",-11.401587032007583],["Hear",-11.401660333053211],["Ukraine",-11.401939702111546],["erkende",-11.4031974212786],["bankier",-11.403653477869835],["AA",-11.40386033895349],["kwalijk",-11.404435811506481],["verhoogde",-11.404526354554465],["sters",-11.404643086779721],["voegde",-11.40493770921808],["ap",-11.405433743360584],["populariteit",-11.406000515483717],["besteld",-11.406098134021278],["meters",-11.406134074580319],["ung",-11.406144098282596],["misdrij",-11.406391783272444],["getuig",-11.406499165230349],["jongeman",-11.407207765078923],["overstroming",-11.407498407190191],["pijl",-11.407570771043913],["heldere",-11.407900070945008],["Winterswijk",-11.40795459185728],["dramatisch",-11.409311283646646],["bewegingen",-11.409363566781156],["begeleiden",-11.409423735259391],["gewapend",-11.409443489547314],["solidariteit",-11.409690358367763],["presenteerde",-11.409889908207843],["Flori",-11.410690285476308],["bende",-11.410882129893917],["issen",-11.411632130397113],["sentiment",-11.411687696456204],["kraam",-11.413567128301338],["besliste",-11.414239864830904],["wo",-11.41441168669272],["mondmasker",-11.414513802055332],["Nooi",-11.414876952930761],["Matt",-11.415394494441022],["verdienmodel",-11.415550943690654],["FV",-11.415735186203573],["fris",-11.416721275992245],["bezet",-11.416831596840568],["bereken",-11.417103119177835],["verslagen",-11.417109388165317],["schommel",-11.417231014901475],["kens",-11.417649277286854],["beta",-11.41787937811495],["Australia",-11.419804272461299],["Delft",-11.421337971321314],["beschikba",-11.42140435428762],["Cor",-11.421516834818908],["stoom",-11.421631277713722],["natte",-11.42187222170771],["fa",-11.422172818346812],["OK",-11.422942397056293],["hype",-11.422964533232244],["trainers",-11.423243920300841],["korter",-11.423571184431445],["war",-11.423824877928267],["Wale",-11.424088500380076],["offensie",-11.424158427454973],["gigant",-11.424261472008165],["IND",-11.424469029094423],["racist",-11.42453461375349],["grappen",-11.4246791803428],["kerel",-11.424682457486194],["jubileum",-11.425635016702762],["diagnose",-11.425635076125134],["provider",-11.425635079122644],["licentie",-11.425636464546193],["toetreding",-11.425637932591103],["bombardement",-11.425644225036155],["Autoblog",-11.42565502104738],["Heuvel",-11.425656146945009],["Suzan",-11.42565882159263],["absurd",-11.425670809882128],["mededeling",-11.425676549174904],["applaus",-11.425677188572411],["zuurstof",-11.425681354534323],["correspondent",-11.425682085422302],["Probeer",-11.425687783508316],["ongelooflijk",-11.425724710655007],["Theater",-11.425733027925673],["gewijzigd",-11.425782323068262],["louter",-11.425782659447414],["musea",-11.425797161350395],["trekking",-11.425897144104509],["onacceptabel",-11.425969847586792],["Kortrijk",-11.426042836176325],["merendeel",-11.42611910158128],["loterij",-11.42613641940413],["kloof",-11.4261386951247],["gehoor",-11.426146808114915],["aanklager",-11.42617272552719],["werf",-11.42624211108025],["soep",-11.426273437535194],["Bommel",-11.42639840235524],["kiezer",-11.426503031481026],["Noordzee",-11.426518420527756],["webwinkel",-11.426541915026805],["beloofde",-11.426592735415154],["Landelijk",-11.426646451640543],["oo",-11.426684144007261],["tijdschrift",-11.426692985672148],["communistisch",-11.426918488133014],["benoeming",-11.426949727898707],["voorafgaand",-11.426988911505685],["genre",-11.427221153596827],["Gelre",-11.427298055878417],["Mechelse",-11.427586477543088],["verborg",-11.427589316536224],["essentie",-11.42798933828153],["anderhalve",-11.42813389053844],["insecten",-11.428327820778412],["kolonial",-11.428400464961825],["billen",-11.428554746579941],["Voetbal",-11.428570815511373],["Pim",-11.428639865641232],["lamp",-11.42881206717885],["overweeg",-11.428820125863986],["Thier",-11.428835366370748],["tennisser",-11.428945612006776],["OP",-11.428973892423105],["fraaie",-11.429051649396948],["soldaat",-11.429310562922154],["kunstmatig",-11.430007069713259],["Reken",-11.430069980646405],["stilte",-11.43040725765811],["visum",-11.430469668159985],["veiliger",-11.430768159118458],["ering",-11.430778084096413],["day",-11.431100962436478],["zakelijk",-11.43111416801558],["FB",-11.43126154353259],["verse",-11.431313051496005],["scène",-11.431777032537688],["burn",-11.432007265995558],["You",-11.4320951736746],["wachtwoord",-11.43228127605545],["ongelukk",-11.432753015299655],["bonden",-11.432773112879774],["Volgend",-11.43322161092539],["binden",-11.433770566706084],["efficiënter",-11.433802936560618],["molen",-11.433925304106388],["87",-11.434045859367211],["tekening",-11.434189790338813],["document",-11.434296016323712],["gracht",-11.434306963404254],["190",-11.434583291325598],["Paris",-11.434591517587592],["bijbehorend",-11.434811457196021],["Lucas",-11.435043206997031],["duw",-11.435478236809939],["pol",-11.43569586403061],["01",-11.435980652800543],["piloten",-11.436156154044886],["machtig",-11.43664843774679],["aanklacht",-11.436767197897993],["lease",-11.437564267981367],["Islam",-11.437749082171404],["noten",-11.438306825332575],["draaide",-11.438766421586868],["egers",-11.439040395827213],["gooi",-11.439488290423062],["nipt",-11.439542405438338],["toeren",-11.439957517685867],["populairst",-11.440036411507043],["gewenst",-11.44014924490842],["onveilige",-11.440495582458034],["schr",-11.440506758129924],["koek",-11.44147936426922],["zeik",-11.441490228402033],["cancel",-11.442332413783273],["bestrijd",-11.444337208253687],["mislukt",-11.444681277543548],["gasprij",-11.444908107231633],["Renau",-11.44526954649702],["fatsoenlijk",-11.445329768914462],["roet",-11.44565851149039],["VD",-11.446139367444653],["verg",-11.446635620589175],["verhuisd",-11.44678585562934],["vuren",-11.446849867854338],["Hal",-11.447266139451386],["Ar",-11.44846438275933],["waanzin",-11.448640371967851],["amateur",-11.448697931035252],["korps",-11.448821810758755],["rijken",-11.449213164417511],["át",-11.449314276670425],["Uw",-11.451030777030631],["moedig",-11.451285684274328],["strook",-11.45153330977205],["tassen",-11.451690531565438],["erzijds",-11.45172786036644],["Els",-11.452641291853203],["aardbeving",-11.453780777644035],["oid",-11.454137628036067],["voorhand",-11.454682002269106],["Kempen",-11.45476535147758],["benodigd",-11.454959295106297],["leugen",-11.454971686809813],["verstopt",-11.455141504421496],["ergen",-11.455439751161498],["!)",-11.455657740580635],["train",-11.455839910948134],["boy",-11.456070303821473],["sterkte",-11.456103878792065],["dracht",-11.456198730410675],["inwoner",-11.456450928884456],["Marcel",-11.456610066293392],["asso",-11.457443679284326],["ó",-11.457546907346996],["intens",-11.457838827543647],["gewaardeerd",-11.45787277843478],["Boom",-11.458266367627248],["begrijpelijk",-11.458315450967397],["che",-11.458539822967998],["plas",-11.458569731618553],["drankje",-11.45921188684058],["waarschuwde",-11.459415284176622],["wereldbeker",-11.459794276117586],["opladen",-11.460360294197626],["Nij",-11.460386522155021],["semi",-11.460483662585618],["uk",-11.460979862067173],["zonde",-11.461172878194143],["2G",-11.461628080810186],["aardappel",-11.462290266043963],["noodopvang",-11.463032869318756],["musical",-11.463689601130305],["klik",-11.463794591530164],["Gu",-11.463955679521733],["tegels",-11.464093237855039],["aanvang",-11.464545813345602],["voornaam",-11.4654229641456],["verover",-11.465811739857324],["opvanglocatie",-11.466018815224528],["UW",-11.467050214270397],["King",-11.467094752172066],["briefje",-11.467221712156155],["strooi",-11.467232994163917],["Free",-11.467338707162817],["benen",-11.467843431783141],["NM",-11.467872417052998],["oefen",-11.468263768758565],["zucht",-11.468842696399534],["oprecht",-11.468903269241222],["aire",-11.469061917798577],["rek",-11.469907039669636],["TP",-11.470376967124462],["vracht",-11.470393069424523],["oorlopig",-11.47044747245855],["Ur",-11.470605545243407],["origine",-11.470677216650863],["gebel",-11.470936451329042],["teelt",-11.4710519295951],["«",-11.471089562154688],["Kosovo",-11.471089564874296],["prestigieu",-11.471089568376811],["première",-11.471089632817032],["Bureau",-11.471092269466254],["compromis",-11.471092420287214],["comeback",-11.471095180973828],["delegatie",-11.471100315510283],["Kyiv",-11.471107476697947],["conditie",-11.471116287353475],["Cross",-11.471125573248818],["compliment",-11.471128141526817],["onthulling",-11.471130468778508],["slogan",-11.471136803456451],["kalender",-11.47113981278211],["toerisme",-11.471142777036137],["Erasmus",-11.471151742428862],["opzettelijk",-11.471178353152473],["uitnodiging",-11.471237055482073],["Ridder",-11.471242913757012],["kleedkamer",-11.471257397840807],["Aston",-11.47129014037254],["gegarandeerd",-11.471305097028946],["somber",-11.471310161161984],["integratie",-11.471371622153452],["Vader",-11.471490579584476],["strepen",-11.471521867709862],["Bram",-11.471595815899132],["slaapkamer",-11.471607979063903],["Daniel",-11.471628440959066],["Wopk",-11.471659306157084],["wachtlijst",-11.471685979309967],["enthousiasme",-11.471768785171838],["Stalin",-11.471775099831204],["populistisch",-11.471828825194972],["teleurstelling",-11.471847164391285],["Irak",-11.471931975571762],["domein",-11.471937430929291],["streamingdienst",-11.472002614440346],["Sergi",-11.47206632600233],["Serge",-11.472225760800864],["Param",-11.472449692584544],["vee",-11.472642153718459],["gedraaid",-11.4726744072995],["riskeer",-11.472821720125651],["ongen",-11.473010759465465],["speelster",-11.473119281456205],["misbruikt",-11.473396246393555],["Joost",-11.474253126761054],["speelgoed",-11.47467270023332],["slaaf",-11.474702121316973],["felle",-11.474788524031448],["zelfmoord",-11.475169796441492],["passeren",-11.475370891744692],["oorzake",-11.47562136642412],["Brun",-11.475887760387165],["eco",-11.47588813175824],["ketting",-11.476172175788717],["prof",-11.476537683975724],["ondiale",-11.476967130358902],["Arj",-11.477105043214843],["dictat",-11.477117950587186],["Vleute",-11.47746951821803],["mac",-11.47755402513748],["bestemd",-11.477697589605711],["LED",-11.478092407698906],["zakte",-11.478183516972859],["lam",-11.478376459475143],["Snap",-11.478566093624696],["poll",-11.478899053677821],["Tata",-11.478990363197674],["presenteer",-11.479075501384576],["Gil",-11.479217899133774],["taks",-11.47951458269786],["cruise",-11.479519817638185],["Carolin",-11.479791019544368],["CU",-11.479872119264467],["beleggen",-11.47987540283113],["AT",-11.479902152458338],["Home",-11.47993684976419],["mest",-11.480175148825968],["DC",-11.48017858995139],["organiseerde",-11.480237220808938],["Maxim",-11.480821347199123],["particulier",-11.48136655249853],["VW",-11.48153929322655],["Alex",-11.481577886877396],["ontwor",-11.481796311017758],["overtuiging",-11.483052764821142],["fundamente",-11.483189646463568],["WA",-11.483438602668334],["Direct",-11.483527211678672],["aansluiten",-11.483986703765058],["mobilis",-11.484132349992237],["reist",-11.484134789228497],["minderheid",-11.484151048233597],["professional",-11.484259834883355],["stoot",-11.484483627985965],["vasthouden",-11.485585269624853],["Leeuw",-11.485977784907352],["Royal",-11.486288507191404],["spektakel",-11.486654609455925],["lei",-11.487094680594945],["garde",-11.487139324430958],["Muziek",-11.487373053481114],["dorps",-11.487483408009044],["unie",-11.487776119826073],["scanne",-11.48937449071544],["Tur",-11.489961210867946],["mmy",-11.490160763375073],["wappies",-11.490183099700216],["uitmaakt",-11.490340943981174],["ervaart",-11.490386426708055],["voorwerp",-11.490844302449329],["Ouder",-11.490845577627416],["SL",-11.491040425920266],["gelach",-11.491249780751003],["schutter",-11.491436711760844],["Chark",-11.49160079492627],["Toe",-11.492164768450705],["pols",-11.492804455962109],["teleurstellend",-11.493007658827505],["perk",-11.493010160413611],["hervat",-11.493028254282695],["gunstige",-11.493060572574619],["ewezen",-11.493218532009813],["late",-11.493524911247945],["Marokka",-11.494235624481462],["Eat",-11.494264482359771],["issan",-11.494735947454114],["ich",-11.49478564828499],["houders",-11.494876404260381],["Nor",-11.495819641533112],["Tiel",-11.496043350293853],["bewinds",-11.496310502672177],["Waals",-11.496454984356108],["Nijkerk",-11.49649898295636],["marathon",-11.496649795981403],["halfjaar",-11.496756667213448],["tiende",-11.496820112533772],["tering",-11.497824066650722],["93",-11.497827773940077],["kolen",-11.497956178667831],["uijs",-11.498217210991047],["tante",-11.498475040292702],["studeren",-11.498574711604453],["beleggings",-11.498675196455055],["saai",-11.498812898152124],["vervelende",-11.498924454128291],["hamer",-11.499365440536385],["beloning",-11.49938579143778],["stage",-11.499753937261687],["Aalsmeer",-11.500051234834817],["Belarus",-11.50041567080702],["ooth",-11.500427627628262],["platteland",-11.500623972293893],["Charle",-11.501997408859898],["dealer",-11.502051402096688],["Lien",-11.502495299840836],["lijsttrekker",-11.502778880752752],["mannetje",-11.50278145169797],["ritme",-11.503030294222581],["feestdagen",-11.503053107407437],["strikt",-11.503323340186212],["waarts",-11.503326049022881],["oever",-11.503447897360912],["havens",-11.503758087472637],["prikkel",-11.505954081297158],["bootje",-11.506517603002477],["versnelling",-11.506672335081042],["volhoud",-11.506758503261683],["afreken",-11.50687837458875],["belast",-11.507030133289685],["Alpe",-11.507171948130562],["vrijwillige",-11.507259616696253],["Lange",-11.50749104535877],["mat",-11.507516770899278],["Kram",-11.507964060788186],["ele",-11.508033164499059],["appel",-11.508400640832924],["Les",-11.508464004987205],["SM",-11.508466708783754],["dorpje",-11.508637826030924],["Pol",-11.509116157373256],["Stefan",-11.50924915244599],["Leg",-11.509527061655],["vertegenwoordigd",-11.50957727075856],["fluit",-11.509709682626617],["CP",-11.509887014621858],["Ton",-11.510375064517179],["Her",-11.511446874642743],["ion",-11.511720920053452],["verhoor",-11.511895366760626],["opletten",-11.512000883437722],["indrukwekkend",-11.512555822277474],["zig",-11.513024225742829],["Burger",-11.513253484190072],["tekent",-11.513417446068784],["zang",-11.513420714275426],["verminderd",-11.513683550292818],["friet",-11.513747384610665],["wolde",-11.513938861839126],["dienstverlen",-11.514148198330115],["werkers",-11.514467025297519],["Mij",-11.514587771662105],["hip",-11.514605234633533],["verschijnsel",-11.514933230946802],["sms",-11.514941595385439],["kip",-11.514954689279291],["UE",-11.516222239026577],["uurman",-11.516816051940566],["Zoek",-11.517047717243704],["grof",-11.517066482147058],["evenwicht",-11.517214522482384],["Kenne",-11.517238215412673],["talen",-11.517251192678174],["wijf",-11.51748913489075],["Haha",-11.5180143762157],["zeuren",-11.518213915581109],["immun",-11.518300545571662],["orghi",-11.5183395024726],["protocol",-11.518431854819685],["Eerd",-11.518574018594396],["Plas",-11.518644389408859],[">",-11.518708609773736],["Cruijff",-11.518708610339912],["Frankfurt",-11.518708621213381],["consumptie",-11.518708631933883],["interventie",-11.518708637687887],["tribuna",-11.518708641219492],["browser",-11.518708922450863],["atmosfe",-11.518709468559605],["Dylan",-11.518710862512323],["Mohamed",-11.518711459027292],["onvermijdelijk",-11.518715208425549],["AirPod",-11.518724492802802],["failliet",-11.51872725378099],["Linux",-11.518735956366186],["Voormalig",-11.51874273795999],["historie",-11.518747392728924],["Capitool",-11.518747679554053],["millimeter",-11.518756252673247],["Video",-11.518768003890969],["toonaangevend",-11.518770798264146],["Fox",-11.518800474583816],["monetair",-11.518805428011705],["René",-11.518813991680831],["kartel",-11.51882550190891],["influencer",-11.518858455347651],["vroegtijdig",-11.518894247514236],["ecologisch",-11.51894250354735],["koorts",-11.518952965402981],["Texa",-11.518957865116555],["alencia",-11.518987495217718],["Rousse",-11.519052454612837],["geschorst",-11.51906952577096],["timing",-11.519098828128175],["vriendelijke",-11.519169598590995],["leiderschap",-11.519291487283725],["initiatiefnemer",-11.51930038999428],["spaargeld",-11.519369794797061],["Japanner",-11.519430046403826],["Arena",-11.519444436527687],["seizoenen",-11.519526024522257],["opereren",-11.519576771608259],["Santo",-11.519670481753607],["Saudi",-11.519792280451204],["Reuter",-11.519847795190294],["Ruu",-11.519863364243811],["Beek",-11.519877314772469],["prijskaartje",-11.519942486565043],["langetermijn",-11.519963230743205],["transparantie",-11.520007982036908],["verwijzing",-11.520075952675642],["comfortabel",-11.520170743303293],["Fijn",-11.52020307093153],["buurvrouw",-11.52022980539928],["74",-11.520504586617895],["reativiteit",-11.520602589628874],["berucht",-11.52103604903077],["alleenstaande",-11.52105613274821],["geblokkeerd",-11.521062052029707],["echtgenote",-11.521144838407576],["koor",-11.521160606824134],["vogelgriep",-11.521286143159877],["aandoening",-11.521396385476608],["kruispunt",-11.521456469530701],["afname",-11.521505676788056],["gesteund",-11.521586803977762],["jurist",-11.521647596905098],["voedings",-11.521662086909016],["Britta",-11.521775615488894],["aribo",-11.521883664459965],["bestelling",-11.521960352090236],["balkon",-11.5221247586562],["Steel",-11.522673023783172],["socialist",-11.523050160502889],["ker",-11.523084000485952],["Noa",-11.52320079198],["Boy",-11.523797717440639],["gevormd",-11.52382593434135],["circus",-11.524043429650252],["ongemakkelijk",-11.524167853588505],["burgerlijk",-11.524452076308627],["broertje",-11.524694666492929],["trage",-11.524933105108891],["Wacht",-11.525050753126637],["sigaretten",-11.525097318537561],["boekte",-11.525225827050669],["Hoef",-11.525653091216972],["Delh",-11.525668374609532],["Reserve",-11.525845626910545],["For",-11.52632487096991],["scoor",-11.526341928917397],["bedankt",-11.526644594345434],["Schre",-11.526876946257374],
[...]
