{"version":"1.0","truncation":null,"padding":null,"added_tokens":[{"id":0,"special":true,"content":"<UNK>","single_word":false,"lstrip":false,"rstrip":false,"normalized":false},{"id":1,"special":true,"content":"<SEP>","single_word":false,"lstrip":false,"rstrip":false,"normalized":false},{"id":2,"special":true,"content":"<MASK>","single_word":false,"lstrip":false,"rstrip":false,"normalized":false},{"id":3,"special":true,"content":"<CLS>","single_word":false,"lstrip":false,"rstrip":false,"normalized":false}],"normalizer":null,"pre_tokenizer":{"type":"Whitespace"},"post_processor":null,"decoder":null,"model":{"type":"Unigram","unk_id":0,"vocab":[["<UNK>",0.0],["<SEP>",0.0],["<MASK>",0.0],["<CLS>",0.0],["s",-2.6656056241119366],["de",-2.994556700404644],[",",-3.2918060085420144],[".",-3.531540116474499],["a",-3.56515297964115],["la",-3.565574246085168],["que",-3.7908500733685724],["e",-3.8343851332621632],["en",-3.898508307305775],["el",-3.9156682276225663],["y",-3.942034109357822],["es",-4.312039207003872],["o",-4.524722811967033],["los",-4.596006226424985],["ó",-4.690830812630676],["n",-4.705680713176594],["un",-4.793704127732699],["del",-4.858610211050328],["ción",-4.909481002886768],["con",-4.925350043265075],["por",-5.034366620892463],["para",-5.075506658163249],["l",-5.1145261345887665],["una",-5.167399194482403],["las",-5.223013595481991],["su",-5.301962115153236],["no",-5.317273348133071],["al",-5.58799910344338],["El",-5.605719592476255],["lo",-5.635012820136733],["más",-5.669957061350731],["“",-5.7011885156019275],["La",-5.796270100041207],["ha",-5.83145629594698],["\"",-5.88126125382678],["como",-5.908102400845969],["mente",-5.914696759134886],["este",-6.121526598318937],["on",-6.141492484440876],["En",-6.160385413742711],["d",-6.190557519016902],["ón",-6.227531713571446],["(",-6.290788260319951],["A",-6.322043885368746],[":",-6.329583838566895],["mos",-6.406975367500888],["esta",-6.4250747158805765],["fue",-6.489179299318403],["sus",-6.522104638694119],["ciones",-6.580600256857565],["”,",-6.5988715158862306],["-",-6.610094051170748],["pero",-6.610776476990248],["i",-6.6460838732293315],["años",-6.664316779390081],["tiene",-6.670376708695116],["r",-6.70137797241113],["ndo",-6.727127866307713],["también",-6.736383765665323],["está",-6.738890627923302],["S",-6.748122948235871],["si",-6.7798229987133265],["dos",-6.799902687030043],["sobre",-6.825668063889916],["día",-6.8258327130191905],["entre",-6.83958209834036],["han",-6.848354214687982],["”.",-6.909595829173659],["Los",-6.912332549262208],["«",-6.918602721797283],["puede",-6.934414311637308],[")",-6.938498467173936],["”",-6.940319831518099],["»",-6.940675140808263],["ser",-6.942223220824292],["todo",-6.961587393994227],["%",-6.992575274040361],["desde",-6.9956077778484556],["parte",-7.000630559577415],["muy",-7.013380143404721],["son",-7.018044183733843],["m",-7.022229695327524],["país",-7.034648193228024],["ando",-7.048994749198348],["año",-7.061091322096537],["u",-7.067953570229441],["hasta",-7.086867935209623],["do",-7.1006675443096405],["Por",-7.109401841594453],["z",-7.133276831438962],["sin",-7.143823587068678],["No",-7.149503102653412],["donde",-7.17734115067251],["personas",-7.177412228068861],["hay",-7.178270310842797],["cuando",-7.188800285915922],["T",-7.192849005556653],["1",-7.196199764258159],["me",-7.202057710084598],["C",-7.22150647111465],["t",-7.241406988005379],["caso",-7.25231332047357],["20",-7.268751688331529],["toda",-7.27484837222912],["Y",-7.294126158736532],["quien",-7.294920372564897],["De",-7.295126059506872],["contra",-7.298777549374524],["hora",-7.302076793593545],["ante",-7.31092848089133],["egún",-7.318523483837676],["é",-7.321361921134506],["E",-7.334556212825262],["L",-7.36963536949338],["momento",-7.378796574453014],["te",-7.38378723818961],["2",-7.384155384503898],["¿",-7.390695965714348],["forma",-7.394105392695581],["Es",-7.395279651616518],["tiempo",-7.39653731628818],["durant",-7.404413837026393],["ión",-7.411235879220767],["había",-7.416518218643693],["millones",-7.440435102027761],["?",-7.451131806512486],["todos",-7.454974805418309],["19",-7.455807700783888],["solo",-7.469223252832612],["Se",-7.473218948474935],["hacer",-7.474645617432534],["ron",-7.476519677159382],["idad",-7.48022276590554],["\",",-7.487957904922888],["iendo",-7.491952702245011],["porque",-7.492226288396855],["ación",-7.496864134433464],["3",-7.4973949882180575],["'",-7.500534574187378],["vez",-7.504193593059532],["va",-7.511588332907095],["equipo",-7.519629064812223],["cuenta",-7.519678898559701],["están",-7.5203078801080565],["lugar",-7.522402932079088],["mi",-7.523077769204402],["Estado",-7.528059485686409],["nuevo",-7.528681789591853],["sido",-7.537763408648219],["hace",-7.53784725528545],["5",-7.5424349218540465],["mismo",-7.551053671944936],["partido",-7.555927064956512],["vida",-7.565831494663408],["semana",-7.567624047731491],["emos",-7.56871921709019],["dij",-7.570397703898338],["primera",-7.572059590757936],["ía",-7.57935603501556],["P",-7.580142716961606],["4",-7.584932265251568],["cada",-7.587517581198691],["mejor",-7.588202942760697],["mayor",-7.593562951681707],[";",-7.595093022861047],["nos",-7.596337592518639],["era",-7.59807632151264],["ver",-7.59888264682592],["presidente",-7.599460111793756],["tres",-7.615906116301254],["uno",-7.617078185847764],["\".",-7.625659529412952],["así",-7.626295822238151],["otros",-7.633219880151831],["después",-7.633835810985182],["gran",-7.635191308132061],["último",-7.637642017192273],["ras",-7.649885274335022],["nueva",-7.650950336974249],["pasado",-7.653090345669855],["embre",-7.6534622060767346],["tras",-7.654663686086086],["tanto",-7.676166615905502],["á",-7.677072086590244],["és",-7.684113144259312],["F",-7.685722628488508],["social",-7.693079699263271],["ciudad",-7.702840618018949],["ni",-7.703773180336089],["bien",-7.707235883709944],["medio",-7.708948493842023],["R",-7.710828923324029],["Ademá",-7.710962314161443],["esto",-7.720025394610006],["hecho",-7.72144443123691],["otro",-7.733045350082528],["trabajo",-7.736577389115301],["Si",-7.739870428388855],["será",-7.7429890277505855],["6",-7.743312275276313],["p",-7.755546596943245],["Pero",-7.759426671442502],["Esta",-7.764460632736039],["menos",-7.768631984481093],["2022",-7.770392858741381],["punto",-7.7829441706976334],["final",-7.784210499022139],["Con",-7.7892030761575235],["mucho",-7.796627713959314],["mil",-7.802753875359607],["8",-7.806363121278873],["Las",-7.807332900999592],["empresa",-7.810015193578441],["primer",-7.813749617996425],["án",-7.815359164117996],["uego",-7.815823828817989],["importante",-7.819867158179208],["tener",-7.821760982422242],[").",-7.8237883923742],["000",-7.824820589691653],["Este",-7.8409138723671035],["manera",-7.842123137303563],["ahora",-7.84770404490316],["),",-7.8487758483906065],["acuerdo",-7.848926167671004],["mundo",-7.8572930298573285],["h",-7.858532938522314],["Al",-7.859341296002095],["estaba",-7.864898492518352],["10",-7.86559610504232],["Para",-7.8672207004309875],["estado",-7.868521022470389],["familia",-7.881341245944501],["‘",-7.885226032586368],["qué",-7.890325939815979],["antes",-7.89386923980939],["zona",-7.895069430300856],["gobierno",-7.896941745314743],["Gobierno",-7.900190287337807],["estos",-7.901232707496361],["9",-7.904581059968784],["embargo",-7.908564980691957],["proyecto",-7.923124600003503],["servicio",-7.926406435448861],["nuestro",-7.931442692531407],["aron",-7.932719998074054],["7",-7.935387209689135],["empre",-7.936242410579796],["Un",-7.938814006145275],["hoy",-7.939217471746706],["Sin",-7.945336344158004],["estar",-7.945580236825879],["c",-7.950051541613351],["30",-7.963776170906568],["algo",-7.968725890560148],["fuero",-7.971805333712307],["tuvo",-7.97714061427376],["grupo",-7.9798183186061555],["N",-7.982012102255053],["mient",-7.988369479499488],["casa",-7.993471534212522],["ten",-7.993842318773849],["poco",-7.999462145082975],["debe",-7.999713845990176],["ico",-8.0047530615037],["trav",-8.005940090955995],["política",-8.006903959787703],["Nacional",-8.009373705358508],["cual",-8.011708512989665],["inform",-8.020477827509346],["poder",-8.030197232013222],["podría",-8.043948600014525],["Lo",-8.044959887532684],["tipo",-8.047764805306954],["hombre",-8.05649200945384],["Esto",-8.062325943145119],["M",-8.064773574226955],["otra",-8.065347024827144],["nivel",-8.072414477332789],["Una",-8.074717341632098],["ambién",-8.075182588971954],["total",-8.075457044577144],["problema",-8.080084966518005],["autoridad",-8.084204006523443],["sector",-8.084766834982894],["situa",-8.090703584606164],["alguno",-8.093134332082352],["’",-8.09604879348236],["medida",-8.098256176109363],["v",-8.10486786951078],["Méx",-8.111154834654176],["amos",-8.115374320071526],["mucha",-8.118336383072464],["San",-8.119059735174154],["haber",-8.122972408833679],["nuestra",-8.12909671324913],["tu",-8.132100128368567],["meses",-8.134557016041747],["cambio",-8.138388329309027],["actividad",-8.138905614550879],["proceso",-8.142167168546223],["D",-8.147968520103365],["programa",-8.15145281023836],["última",-8.153759806228482],["U",-8.157300412225592],["España",-8.15877846469201],["Su",-8.160745458980603],["tan",-8.16139502370973],["principal",-8.16636111469307],["seguridad",-8.186963742122284],["historia",-8.18949558029271],["2021",-8.18977325983807],["/",-8.194965881088663],["local",-8.196986674216337],["18",-8.19704401885307],["junto",-8.197604600795822],["centro",-8.198576005125691],["bajo",-8.20008359890431],["12",-8.204588134910423],["cuatro",-8.210808428263265],["cosa",-8.21318407771712],["15",-8.214878893729741],["alguna",-8.215279751403],["cómo",-8.217855983762636],["hiz",-8.220485869333766],["dar",-8.222064577290242],["otras",-8.224129947790466],["ieron",-8.227480900584302],["Unidos",-8.230234944270524],["él",-8.238787163535797],["tenía",-8.243537467310837],["salud",-8.243869611132986],["sión",-8.244178550751695],["resultado",-8.24456399132627],["general",-8.246738316576995],["gente",-8.247827406701074],["Ucrania",-8.248904459374302],["ello",-8.250013434925865],["eron",-8.250214026346361],["dato",-8.255985827330763],["señal",-8.25646994692628],["fin",-8.258680494080371],["nada",-8.259090663338185],["agua",-8.2604198771336],["posible",-8.260710812300186],["miento",-8.261872957894294],["O",-8.264596363883232],["vía",-8.264628918142824],["trata",-8.267356612562901],["próximo",-8.271524985663138],["B",-8.271577297021595],["persona",-8.279748709040845],["frente",-8.283641188630748],["derecho",-8.284877564927093],["casi",-8.290825805966367],["número",-8.294705551538716],["dólar",-8.29849900142127],["encuentra",-8.299276408253412],["euros",-8.299416739156449],["grande",-8.30405683026892],["misma",-8.307206856160004],["sistema",-8.310642466992093],["nacional",-8.311073090113975],["tema",-8.311829528335402],["niño",-8.314133746738833],["objetivo",-8.315894812454687],["oficial",-8.31997744913354],["cualquier",-8.320109712465115],["unos",-8.320451914608464],["segundo",-8.320948332174737],["G",-8.326982412597328],["ones",-8.32778973212672],["co",-8.329171853954026],["especial",-8.330774536688931],["actual",-8.3377987267943],["llegar",-8.34013895916866],["I",-8.341382485062445],["muchos",-8.341823913565621],["decir",-8.346178674435642],["redes",-8.346560290739383],["noche",-8.34702551566209],["í",-8.3504363329079],["mes",-8.350489588410152],["personal",-8.351139145523678],["minuto",-8.355783006449442],["les",-8.356178035190435],["obra",-8.362627236190011],["primero",-8.362657770435154],["quiere",-8.367324678337372],["sigue",-8.367631422948076],["11",-8.369601561080469],["Así",-8.370438412905472],["sino",-8.381050362948804],["lunes",-8.381511025271823],["informa",-8.383391973110955],["hijo",-8.387365332628425],["viern",-8.387865659010306],["0",-8.392176592715849],["in",-8.394125749784905],["vehículo",-8.395896071810427],["decisi",-8.397069345001249],["jugador",-8.398250868874154],["cinco",-8.404122104778255],["ijo",-8.40449014705289],["mujer",-8.404548929498668],["mercado",-8.405451749856548],["público",-8.405531208679111],["lado",-8.410908305725508],["sí",-8.415939689185922],["dio",-8.416269215734376],["investiga",-8.416490208953899],["pueda",-8.419378952928126],["ciento",-8.423745241640376],["mujeres",-8.424524397994553],["sentido",-8.432198429794376],["mañana",-8.433448568837647],["haci",-8.43391580019874],["onces",-8.434429389470141],["…",-8.43483035902816],["tendrá",-8.43675347432466],["cerca",-8.438328751777748],["sábado",-8.439127202681917],["producto",-8.440985730393406],["juego",-8.444884163796226],["vario",-8.451144806216362],["24",-8.452381558659606],["aún",-8.455905739239206],["unque",-8.45595007673078],["víctima",-8.457832750393335],["veces",-8.459322797024264],["paso",-8.463748050245455],["14",-8.469925849637749],["domingo",-8.473941782005713],["ex",-8.474240642221378],["cargo",-8.480550662069163],["fuera",-8.481685601340214],["eves",-8.48274634570412],["ju",-8.482791346073247],["Argentina",-8.482834424525155],["pandemia",-8.484326426663781],["espera",-8.485239868287032],["$",-8.490307921132416],["seguir",-8.492949578965712],["ir",-8.494124996583349],["realizar",-8.498620370515395],["temporada",-8.500893403184254],["V",-8.506051183214737],["puesto",-8.510867188693542],["13",-8.513630798605064],["dice",-8.515835431562529],["respect",-8.51613040025741],["buena",-8.516411314960644],["encuentro",-8.51867835657088],["fecha",-8.52015833455448],["comunidad",-8.520754066724454],["17",-8.526524349835032],["edad",-8.530388242459228],["podrá",-8.533711324106399],["oportunidad",-8.534822736279416],["16",-8.536818492036122],["marte",-8.53722906418951],["valor",-8.538608917989677],["ley",-8.539904642431974],["tarde",-8.540946930380176],["iércol",-8.545835086310479],["00",-8.547420114341813],["carrera",-8.55079965954527],["er",-8.552907943881294],["segunda",-8.556999284577945],["25",-8.56212872319366],["diferentes",-8.56646896927736],["Des",-8.568252725245067],["partir",-8.571942165560001],["ismo",-8.575919787699013],["cuerpo",-8.57642484963046],["internacional",-8.577714111700038],["real",-8.57929461346988],["pública",-8.582719996001666],["200",-8.584647168438064],["inclus",-8.591556484681817],["ministro",-8.591745355424525],["uso",-8.592786048363555],["conocer",-8.602174003696302],["Todo",-8.604366719408604],["201",-8.608907538113225],["50",-8.609843598574466],["ca",-8.612597508778471],["re",-8.613430950916094],["prueba",-8.615210251553803],["falta",-8.615581579908806],["fuerza",-8.616254669880528],["alto",-8.62377093908908],["dici",-8.624237781197374],["serie",-8.624585477486452],["marca",-8.627269550497163],["varia",-8.630144100796194],["simismo",-8.631173447259105],["pueblo",-8.631946721523242],["endo",-8.632524836789432],["joven",-8.632781790542406],["largo",-8.633924597730884],["padre",-8.634034514041431],["indic",-8.636344887421672],["enero",-8.636930857000255],["ba",-8.638744489209545],["asegur",-8.64060279410587],["Ministerio",-8.640768926963661],["precio",-8.642108340291541],["Juan",-8.642784127678247],["línea",-8.6437957615305],["muerte",-8.645846179196294],["produc",-8.647560328463438],["apoyo",-8.647631303553514],["sabe",-8.650039696585736],["población",-8.651107293921935],["usia",-8.652256454051638],["municipio",-8.65287096933163],["fuerte",-8.653024601671046],["Como",-8.65547444658272],["guerra",-8.65828542541554],["dado",-8.66245457242237],["ín",-8.6633872615595],["ent",-8.666374120672678],["nunc",-8.666549251544545],["ve",-8.667365637585114],["posición",-8.66792318357558],["ejemplo",-8.668885518381245],["debido",-8.669048959257047],["mayoría",-8.67044541598123],["evento",-8.67125527232548],["jornada",-8.67428188055912],["H",-8.674615638456888],["Hay",-8.676158562328734],["Jos",-8.67646809052342],["pues",-8.680420908277885],["espacio",-8.680763454938727],["cia",-8.685134475789223],["causa",-8.691294526431902],["provincia",-8.692998496309707],["nombre",-8.693062421588394],["recurso",-8.695255153123558],["igual",-8.697311466595696],["ayuda",-8.698751138345525],["seis",-8.709212069985934],["mensaje",-8.7108190067924],["van",-8.715328284536614],["expres",-8.71679271685617],["líder",-8.722311823927244],["calle",-8.723239314467351],["control",-8.723375473398017],["junio",-8.724218117075527],["aten",-8.725491795468542],["pesos",-8.727190698371954],["Me",-8.728387378400502],["viene",-8.729147416545446],["propuesta",-8.729909789227818],["legó",-8.7337018791745],["policía",-8.733766647574615],["ntro",-8.734269655532557],["estará",-8.735648290898354],["profesional",-8.738619245051558],["propio",-8.743645784804478],["dinero",-8.745274216024015],["muestra",-8.747871947948681],["Madrid",-8.749199317501315],["trabajador",-8.750047781824795],["octubr",-8.751097969529795],["club",-8.751098520149213],["novi",-8.75126540214782],["2020",-8.751743818999575],["tal",-8.762914652380527],["director",-8.763418226733679],["ataque",-8.766787568689796],["ellos",-8.769114458808382],["precios",-8.769370361790898],["llevar",-8.772107373865808],["pas",-8.772521879738783],["desarrollo",-8.773266122670428],["sería",-8.774832031057889],["40",-8.778567412966293],["Mundial",-8.780744402137863],["alta",-8.781755243686225],["compañía",-8.782753209244508],["futuro",-8.782843761340725],["22",-8.783720140283815],["f",-8.784097946250233],["Policía",-8.786781408253056],["epti",-8.787229142882817],["riesgo",-8.788051431909144],["21",-8.788374365099866],["realidad",-8.789445736857589],["arzo",-8.789690509008697],["–",-8.790825124588633],["experiencia",-8.790825124632011],["mano",-8.792149515859439],["unidad",-8.793232686401844],["estas",-8.795348419097376],["ruso",-8.796702285852177],["busca",-8.797907794222311],["ólo",-8.799029636170768],["hemo",-8.79927513075724],["baja",-8.808012343009743],["dicho",-8.810277729239203],["rela",-8.810497107217536],["necesario",-8.813117546960436],["poner",-8.813603853536865],["tenga",-8.814413459840381],["capital",-8.814521518952102],["tenido",-8.816084365937265],["100",-8.816089853249814],["evitar",-8.816784128833163],["aumento",-8.816860452618561],["plan",-8.817055456035991],["accione",-8.818874243347254],["cabo",-8.822357834875842],["agreg",-8.82968719317542],["Luis",-8.830131986023996],["comunicado",-8.833491808271507],["posibilidad",-8.83366621670919],["idea",-8.834177616899321],["Entre",-8.8423995099942],["gosto",-8.842851851353991],["respuesta",-8.845011551524566],["juli",-8.849288578730464],["Tras",-8.849807622074675],["necesidad",-8.85138667394493],["campaña",-8.855702840194812],["prensa",-8.857879265541001],["parece",-8.859566357339205],["explicó",-8.860308627681947],["familiar",-8.861808238381812],["Fue",-8.86210279325515],["económica",-8.864354003500129],["Europ",-8.86537318030484],["inicio",-8.866614541668763],["encontrar",-8.868837143267289],["difícil",-8.870952237028032],["gún",-8.871168557273736],["aciones",-8.87208388596994],["grave",-8.872291094511395],["video",-8.8733026825908],["2023",-8.873751195661953],["estadounidense",-8.875352682563749],["elección",-8.876349914408594],["nosotros",-8.876541259897586],["calidad",-8.880630576002865],["vecino",-8.882004198529302],["participa",-8.883606917730923],["amigo",-8.883956388270429],["miembro",-8.884233084192584],["pez",-8.884515480894276],["genera",-8.885023106679153],["Carlo",-8.887047859933183],["energía",-8.888727791249504],["claro",-8.888998675513747],["municipal",-8.890047915189655],["dad",-8.891884378224795],["condicione",-8.89608361802667],["palabra",-8.899961744878802],["tomar",-8.901299875221651],["sociedad",-8.90219448310517],["dejar",-8.902534288821258],["base",-8.903750293658762],["resto",-8.903811214889119],["trabajar",-8.904781980598354],["entidad",-8.905106111027546],["afirm",-8.908137633536484],["mayo",-8.90853676334439],["Día",-8.908678179428083],["pareja",-8.909386894346346],["cifra",-8.913269504926875],["lleva",-8.914324866973718],["abril",-8.916382260796297],["madre",-8.91781323098795],["ambo",-8.91934974539765],["gracia",-8.921075305322654],["violencia",-8.922767397171588],["capacidad",-8.923762394616535],["anterior",-8.924950103728722],["Salud",-8.925154462313547],["gan",-8.927472868777489],["present",-8.928169446516574],["camino",-8.930312013605143],["presente",-8.935869561610833],["vivienda",-8.940331705235845],["venta",-8.940576930419546],["fiscal",-8.940652971915224],["pesar",-8.942603216426203],["febrero",-8.943811764188993],["anunci",-8.94500116651555],["pasar",-8.94528705205063],["conjunto",-8.947065772989548],["comenz",-8.94861118566742],["b",-8.94916797350929],["Centro",-8.949342353106353],["delito",-8.954548583559362],["mal",-8.957776037819402],["único",-8.961266039917737],["presenta",-8.962388314550154],["reciente",-8.9625035802557],["Durant",-8.962691086422122],["área",-8.966697185660518],["permite",-8.966735429324876],["za",-8.970624910797563],["cción",-8.971531585050542],["alrededor",-8.972177872666158],["enfermedad",-8.972542204302979],["Qué",-8.972564533230077],["ingreso",-8.972665703078809],["mantener",-8.973052280730716],["español",-8.973710660494767],["esos",-8.976684657598533],["media",-8.980291702984378],["gas",-8.98159248829083],["cuanto",-8.982382389675655],["plataforma",-8.982424859684777],["destac",-8.983374746871938],["haya",-8.983710160292834],["salir",-8.983784805952965],["g",-8.98397266207325],["60",-8.98758611570888],["duda",-8.987658644749489],["reunió",-8.988576856000364],["llev",-8.990305095855028],["buen",-8.990390291105054],["cantidad",-8.992188578372106],["presencia",-8.993607705575364],["23",-8.994920924662697],["remos",-8.995361957845326],["esté",-8.995870254268747],["menor",-8.997731721968204],["mo",-9.000248252441263],["victoria",-9.0021342051398],["diferencia",-9.003121809285066],["motivo",-9.003456124121332],["ganar",-9.004766536984558],["aquí",-9.005975390647635],["artista",-9.007218335424843],["inflación",-9.007282780538333],["plazo",-9.007349460318297],["General",-9.009794564787835],["red",-9.010200571861553],["ciudadano",-9.010915149766285],["Twitter",-9.012197102533825],["usuarios",-9.012778771341928],["viaje",-9.015971110893073],["uela",-9.017812726678518],["llí",-9.017997951716058],["Ló",-9.019511144155263],["demanda",-9.02493602219006],["Ante",-9.025284271696332],["haciendo",-9.025622774766884],["humano",-9.02744350515923],["pago",-9.027993993282996],["ahí",-9.028903219399028],["jefe",-9.029843387481826],["deben",-9.030261437061998],["noticia",-9.032795263213332],["económico",-9.035182071403126],["película",-9.035221007732705],["compromiso",-9.035242118485968],["principio",-9.03530469309408],["organiza",-9.03652701624155],["modelo",-9.037228559784388],["ningún",-9.038343445107305],["acceso",-9.038417645396006],["Santa",-9.039995270099585],["recibi",-9.040006227896242],["Yo",-9.040273372024533],["cris",-9.04083810706428],["mar",-9.041239758794806],["visto",-9.041704775407819],["pequeño",-9.043060354761531],["hub",-9.046804314911476],["volver",-9.04971764685485],["realiz",-9.05209448440814],["logr",-9.05263846074864],["metro",-9.052934862969382],["Ciudad",-9.053198395143927],["informe",-9.054765527491309],["habría",-9.05880435316001],["¡",-9.059244083588508],["libre",-9.063499284477029],["negocio",-9.064509616756396],["explica",-9.064586577288711],["cierto",-9.066831339729372],["iete",-9.068286693826959],["ta",-9.069370062292913],["nadie",-9.069534685342775],["ra",-9.071711019072351],["mundial",-9.071910707064767],["manifest",-9.076323619856481],["26",-9.083804669295526],["visita",-9.08415126060363],["Venez",-9.08484093121262],["economía",-9.084896458804597],["próxima",-9.085624527537735],["mí",-9.08673005243303],["eleccione",-9.088830418894709],["regi",-9.089064855704692],["efecto",-9.090516514097054],["modo",-9.091041249195385],["ernández",-9.091058167533925],["comunica",-9.09139319963808],["J",-9.091864248991643],["lograr",-9.094412062993548],["Ha",-9.094677763327233],["lista",-9.095245611487595],["territorio",-9.096568553217743],["Liga",-9.096645832161407],["X",-9.097630709704925],["jóv",-9.09830134624481],["fútbol",-9.102131745701723],["cara",-9.104033027211191],["María",-9.104925588935716],["gol",-9.104992532936114],["jugar",-9.106056785184707],["pudo",-9.106366780099348],["estudio",-9.107095443341407],["puerta",-9.107550085341957],["periodista",-9.107666624330465],["Ahor",-9.108346050399485],["importa",-9.108576168788137],["lucha",-9.109168642811703],["luz",-9.109213580263987],["única",-9.11022825017475],["escenario",-9.110496868586885],["elemento",-9.110602955697978],["grado",-9.111864494137249],["Después",-9.113212485182814],["tarjeta",-9.113271520643643],["ayer",-9.116878894394137],["can",-9.118292533331195],["28",-9.120446792948854],["27",-9.123511135963007],["campo",-9.123671553863417],["paciente",-9.124870581034855],["práctica",-9.12506847590629],["crecimiento",-9.12731421311306],["hablar",-9.131629028641125],["rez",-9.132535399861137],["k",-9.132895234438582],["Congreso",-9.135867266250756],["Eso",-9.13852213784996],["técnico",-9.13854397196068],["to",-9.14015480045095],["Mient",-9.142861873287536],["jó",-9.143384727208705],["llega",-9.144322676761256],["clave",-9.145903382536442],["suma",-9.148331791331426],["siguiente",-9.148825414252425],["popular",-9.14997793456444],["música",-9.150341906341124],["ú",-9.154198489241423],["Hoy",-9.155020410055766],["!",-9.155376551590788],["amor",-9.1559943018352],["habrá",-9.156098666005875],["Universidad",-9.156160267182553],["máximo",-9.156238716439715],["distinto",-9.156293585633641],["ampoco",-9.156350557259806],["hospital",-9.156652520548489],["representa",-9.157224802903336],["accidente",-9.157883381176095],["impacto",-9.157937718109075],["entrega",-9.158049879940428],["República",-9.159095877287374],["ofrece",-9.159978501147387],["defensa",-9.161936219689792],["político",-9.162298235937577],["mantiene",-9.16278160040937],["ánche",-9.163059127472744],["necesita",-9.163532711623173],["localidad",-9.16415775492418],["cliente",-9.164874238862733],["acto",-9.165125067827939],["central",-9.166749151229652],["movimiento",-9.167844867083458],["pasa",-9.169117292049442],["entrada",-9.169169978567762],["trabaja",-9.169569908124267],["voto",-9.170042526766832],["cont",-9.170782303314827],["auto",-9.17196311118531],["Mi",-9.17967050254271],["seguro",-9.180354598235875],["celebra",-9.181403773534475],["sur",-9.182884733238193],["ing",-9.185164051501598],["propia",-9.186191663571446],["ocho",-9.186792889611047],["interés",-9.188820371411957],["500",-9.189476057299693],["titular",-9.1913117057515],["oferta",-9.19282696929937],["gobernador",-9.192994524462488],["cabeza",-9.193770777679871],["kilómetro",-9.194771619322054],["esfuerzo",-9.197811002192761],["éxito",-9.197812205019822],["vuelta",-9.200573548264282],["libertad",-9.200861932826081],["orden",-9.20328081874581],["contrato",-9.203751305558606],["título",-9.203942193030437],["Colombia",-9.2039766413938],["teng",-9.204668015871846],["saber",-9.205585850899531],["Consejo",-9.206985602443636],["ocurri",-9.20997082054643],["mejorar",-9.210937498590978],["argentino",-9.213187889242441],["responsabilidad",-9.213337153558111],["bueno",-9.215135183941834],["escuela",-9.216587864856464],["marco",-9.216663648849833],["di",-9.218641509696162],["tecnología",-9.219350727819865],["vista",-9.220394188081976],["eguridad",-9.222388369920509],["iniciativa",-9.222470019698635],["favor",-9.222606845579058],["interior",-9.22267881587349],["fuego",-9.224175010782215],["década",-9.225606841003366],["29",-9.226221873606669],["actor",-9.231600600702095],["debería",-9.232249094464589],["Manuel",-9.23545032834834],["ninguna",-9.238501007674671],["positivo",-9.246294669080461],["guien",-9.246779233922815],["Comisi",-9.246950806680925],["Bueno",-9.2495575563304],["América",-9.249610532589355],["sitio",-9.25057209587411],["fácil",-9.25094869102189],["clase",-9.251719330807486],["edi",-9.252919386051472],["tasa",-9.254062831214613],["llamado",-9.255707058174117],["70",-9.256731957621131],["lluvia",-9.257389655935693],["temperatura",-9.257390119130644],["hacen",-9.257950233198514],["color",-9.259264528016933],["vacuna",-9.259822982920227],["añadi",-9.262926909785655],["Ya",-9.262974983490146],["ncia",-9.265621830330296],["termin",-9.265874567870547],["detalle",-9.266209639457003],["entrevista",-9.26733755548429],["barrio",-9.267704380237461],["Que",-9.270817307046062],["genes",-9.271010084562658],["candidato",-9.271951272255212],["contacto",-9.275705186146475],["contar",-9.275770932606306],["marcha",-9.276229210496647],["sexual",-9.276861055676813],["conocido",-9.27731556733378],["80",-9.278329087731649],["disponible",-9.280266421788522],["mexicano",-9.280355349864799],["salida",-9.280510373714554],["representante",-9.281195081936131],["op",-9.283413153635724],["golpe",-9.283847849889705],["incluye",-9.283876434768828],["dura",-9.283893981747564],["hechos",-9.28502685964224],["queda",-9.285299646197764],["detenido",-9.285394385996845],["declar",-9.288162342448054],["directa",-9.290138741145162],["fundamental",-9.29072709077544],["deja",-9.290762562052976],["vi",-9.29335475982999],["ti",-9.293817111305128],["iba",-9.29502676132537],["confirm",-9.295159316378777],["imagen",-9.296936238433133],["31",-9.297171818494263],["hija",-9.298639995658913],["coment",-9.299765463884043],["ar",-9.299803010952576],["distinta",-9.301302316404641],["Copa",-9.301566158996554],["agente",-9.30167937488834],["estudiante",-9.30212623896914],["alcalde",-9.302421708613494],["presentar",-9.30457096563385],["militar",-9.305211733240895],["estrategia",-9.30706867259974],["China",-9.3079914164878],["par",-9.308402245090141],["participar",-9.309999196575603],["pued",-9.310227513173686],["categoría",-9.31048409956645],["realiza",-9.310693188355849],["etapa",-9.311194255954016],["considera",-9.312589694002298],["90",-9.313032408952587],["Real",-9.313104188291888],["Casa",-9.313144708695061],["papel",-9.313306269696634],["eran",-9.313454657470336],["Pedro",-9.314146278293514],["comercial",-9.316641674282693],["industria",-9.316695939247875],["completa",-9.317957953565138],["material",-9.318157816117438],["plaza",-9.319473239444088],["allá",-9.320088447331862],["toma",-9.321376159553727],["fiesta",-9.321497060813268],["ez",-9.321699922842576],["ayudar",-9.322000788838055],["documento",-9.322724639698421],["diario",-9.323884572387268],["emergencia",-9.324266755535739],["cre",-9.325474104926899],["diputado",-9.326014258171806],["construc",-9.32663554139182],["conflicto",-9.327652570659207],["quiera",-9.330296558952833],["adelant",-9.330354995687037],["materia",-9.330544503281034],["ido",-9.331189408824475],["cita",-9.331936335681188],["pasada",-9.334986689886623],["llegada",-9.334986867651242],["Garc",-9.335043381656572],["mandatario",-9.33509506823424],["Más",-9.335345024524884],["destino",-9.335391765442912],["torneo",-9.338117134573586],["K",-9.340016116148202],["deberá",-9.340591312481521],["habla",-9.342099551588047],["Instituto",-9.342218142327951],["obst",-9.343578094173262],["ado",-9.343607715725792],["Fiscalía",-9.345270405713883],["libro",-9.345885675417367],["gesti",-9.345953072139661],["quedar",-9.346262124857518],["hicier",-9.346540581235093],["presión",-9.347753405678668],["recibir",-9.348216746235137],["funciona",-9.34902998643987],["decidi",-9.351279577605986],["mediante",-9.352127954250186],["digital",-9.353428922374263],["ría",-9.355490080203555],["pidi",-9.356398142374937],["calles",-9.3577439803962],["pagar",-9.358176202050334],["estatal",-9.3583967787391],["mitad",-9.359016423851319],["pus",-9.361776787715598],["rusa",-9.361813225481896],["encontraba",-9.363602158068195],["Ángel",-9.366527219821768],["web",-9.366529663489686],["federal",-9.367635767120694],["tierra",-9.370224172399464],["realizado",-9.372137174415208],["justicia",-9.377080848339634],["probable",-9.37729028195018],["rápida",-9.37740062254206],["policial",-9.37751808047404],["Villa",-9.377753856013399],["Cu",-9.378853974735073],["x",-9.37922492594696],["PP",-9.380857838964584],["impuesto",-9.381112402478976],["continúa",-9.38171452161332],["reforma",-9.382257963881111],["consumo",-9.382533272221607],["Hast",-9.382788471642566],["opera",-9.385143474862279],["Final",-9.38816426729943],["conductor",-9.389949236457717],["Civil",-9.392465161211032],["compra",-9.39285294773935],["empleo",-9.39286708503544],["contenido",-9.393494270971617],["buscar",-9.393541412224213],["aspecto",-9.39577925726125],["Nueva",-9.396257730428644],["opin",-9.396866630505038],["natural",-9.39780369306343],["vivir",-9.398587998771664],["tarea",-9.398776340683659],["Rodríguez",-9.399496662637503],["amenaza",-9.400285806996145],["ro",-9.40048716348588],["35",-9.401622869820365],["denuncia",-9.402241191703087],["superior",-9.403228552287551],["cámara",-9.403440278554722],["cumplir",-9.404050361551988],["dirigente",-9.404296673024449],["crear",-9.405315381697857],["Chile",-9.405535369650604],["habl",-9.406495135863068],["organismo",-9.40695553699208],["Miguel",-9.407064357010732],["perdi",-9.407200177158362],["verdad",-9.407281342173683],["mostr",-9.408597878076868],["incremento",-9.408649553330186],["asegura",-9.408785381495779],["hacerlo",-9.409133089511164],["administra",-9.409453368586373],["regional",-9.412381267047952],["disfrutar",-9.41260908444944],["tercera",-9.414122550357522],["Río",-9.414782127969932],["legal",-9.41485081585207],["Cruz",-9.41614689428156],["imá",-9.41654329519279],["—",-9.417110428075267],["volvi",-9.418212292759696],["Secretaría",-9.418297065658857],["sean",-9.418383880988692],["Ley",-9.418521013067497],["empez",-9.41865192378259],["menores",-9.421336921449758],["Aire",-9.424227874290429],["Justicia",-9.425914298481235],["peor",-9.425977986688446],["cambiar",-9.426095358828151],["electoral",-9.4262189007594],["ruta",-9.426542019647155],["transporte",-9.427417051686508],["artículo",-9.429744730465899],["existe",-9.43009665817585],["podía",-9.43126883898926],["ducación",-9.43214752475891],["similar",-9.432711159678988],["pena",-9.435650694579216],["vo",-9.435767275167638],["Ayuntamiento",-9.437451839107998],["COVID",-9.437451999282015],["cuarto",-9.437667669951942],["incendio",-9.438158696521672],["Presidente",-9.439530001244977],["pod",-9.442429596479746],["tra",-9.443054168154177],["Uno",-9.443497107765024],["Brasil",-9.445025999313406],["cantante",-9.445291216675926],["avance",-9.445440270217714],["aquello",-9.448919645924967],["Cámara",-9.449127155852823],["conocimiento",-9.449973971410422],["entro",-9.451717302516158],["Putin",-9.45304799146485],["armas",-9.454845987344251],["animal",-9.458536752344989],["norte",-9.459529082053862],["aire",-9.46031858327554],["interven",-9.460977643155795],["creo",-9.461896003551459],["encontr",-9.46318295129523],["sostuv",-9.464326658669844],["Ejecutivo",-9.465584119008124],["atrás",-9.46662865443177],["periodo",-9.466708534836094],["niña",-9.46679688346056],["arte",-9.467228013245055],["suficiente",-9.468533595984539],["edificio",-9.468888865128196],["herramienta",-9.46889133329975],["45",-9.47265746911815],["juicio",-9.472813788520112],["bastante",-9.472933554238658],["significa",-9.473416645428504],["gusta",-9.473967474744441],["contexto",-9.474357631372152],["hará",-9.474752281640388],["paz",-9.474791840901904],["operativo",-9.475568371399405],["ucraniano",-9.477003143259825],["ocasione",-9.47709660179494],["judicial",-9.477210003960323],["Francisc",-9.478199544194446],["amplia",-9.479522006607228],["or",-9.479623727372893],["Internacional",-9.481157874830533],["esas",-9.482126247157744],["generar",-9.483550466618667],["gasto",-9.48422890506679],["Ten",-9.486399871451582],["verano",-9.48984856846651],["Social",-9.493012939246203],["protec",-9.493571134599332],["Barcel",-9.493573358229991],["oficina",-9.49731384762011],["fuentes",-9.497373769360788],["figura",-9.497383648443147],["sali",-9.500057017481272],["manos",-9.500462906541141],["término",-9.501345736126318],["frontera",-9.501366952437998],["máxima",-9.501893248184459],["ejercicio",-9.501984102652434],["declaraciones",-9.502506205183488],["go",-9.505235137979023],["competencia",-9.505478951886795],["hermano",-9.505788733924456],["premio",-9.50634836624578],["señala",-9.508663009743122],["preocupa",-9.509062900340208],["cultura",-9.50910797658366],["pérdida",-9.509627345632513],["Cómo",-9.509642807343498],["tercer",-9.51258774285293],["alcanzar",-9.512703920711083],["afectado",-9.513650974364868],["laboral",-9.51382325306476],["género",-9.513824424210043],["triunfo",-9.51447038110511],["apena",-9.514739274719599],["dosi",-9.515078748596267],["Albert",-9.515080015305147],["inversi",-9.515501351391322],["delante",-9.516632416707314],["Aun",-9.516735926823102],["public",-9.517133849588134],["record",-9.517683299433788],["firma",-9.518344779277715],["médico",-9.520173786084522],["integrante",-9.520214887482474],["secretario",-9.520353557558957],["°",-9.52168946937287],["diálogo",-9.522180106782665],["reducir",-9.522533104993688],["tratamiento",-9.523030084434296],["institu",-9.523430440351575],["conseguir",-9.523673664611643],["estadio",-9.526830617863055],["pedido",-9.529454725855352],["Son",-9.529917860078324],["Franci",-9.530062671955582],["Jorge",-9.53073236875758],["clara",-9.53079173735398],["estrella",-9.530845589197913],["juez",-9.532602244835076],["direc",-9.532741300667244],["Cabe",-9.532943206439969],["ma",-9.53490493862088],["curso",-9.536404175520154],["mesa",-9.53807584644396],["peso",-9.539472546368211],["pensar",-9.540787789720868],["Banco",-9.540795856396235],["continuar",-9.540837403949421],["tratar",-9.541838710490133],["escribi",-9.542742694423298],["ventaja",-9.54290526122412],["caída",-9.543227216515689],["fase",-9.54407378194147],["confianza",-9.544158763144132],["banda",-9.547499269411023],["The",-9.549998826422566],["Otro",-9.55221988889333],["cierre",-9.55307402077457],["perder",-9.553123337598503],["sueño",-9.553342817276912],["sacar",-9.553818034015436],["labor",-9.555686471965668],["amarilla",-9.556043897983226],["Pablo",-9.556444954081122],["Qatar",-9.556445384960409],["institucion",-9.557093300462057],["Martín",-9.557393945793216],["responsable",-9.558458132237497],["referencia",-9.560283124012969],["alimentos",-9.5608021123244],["teléfono",-9.560847697333983],["pequeña",-9.561019475725711],["uando",-9.563914766426691],["supuesto",-9.563932609063468],["fun",-9.564444948801555],["particular",-9.56592057443551],["coche",-9.565945495716772],["funcionarios",-9.566148902628495],["mis",-9.56619180180282],["instala",-9.567507279797443],["reg",-9.567772727734528],["quería",-9.568177123505102],["completo",-9.568736443317007],["carga",-9.569411239654908],["razó",-9.569697784652202],["registro",-9.569854793666146],["abogado",-9.569979944151068],["banco",-9.570025476937932],["llegado",-9.572837096163195],["Biden",-9.574233499041997],["quién",-9.578514339928805],["llamada",-9.57855790415167],["diez",-9.578612118714602],["recupera",-9.57898490215514],["indica",-9.579341312073332],["ándose",-9.579787420127545],["registr",-9.580965857816846],["Ram",-9.582322807030604],["común",-9.582978084223404],["covid",-9.583042882287607],["cuál",-9.583089089331832],["abierta",-9.584147538175216],["terminar",-9.586080775767206],["encima",-9.586093632723843],["entorno",-9.58655421437863],["penal",-9.58725839838253],["González",-9.58742930999536],["muerto",-9.587450923582388],["personaje",-9.587519452569646],["Antoni",-9.587651551761414],["arma",-9.587826226368644],["André",-9.589545806715972],["debate",-9.58996234565783],["deuda",-9.591391837595571],["cumple",-9.591773120367595],["Covid",-9.592047293834389],["error",-9.594869253714855],["empleado",-9.595803582287168],["página",-9.59646493493129],["discurso",-9.596493758587226],["obtener",-9.596547899470576],["pese",-9.599832056589847],["global",-9.600678932385105],["normal",-9.601234748430594],["ocurrido",-9.601286870676656],["esión",-9.602129275606513],["dolor",-9.603495873039897],["física",-9.605206695615848],["tráfico",-9.605618536321808],["Perú",-9.605655297207452],["haga",-9.605759091584414],["man",-9.60594713903801],["entrar",-9.607102232672961],["presupuesto",-9.61030294074514],["realizará",-9.612047615407459],["cultural",-9.613605209252093],["usar",-9.614575475624907],["ambiente",-9.614621559752951],["Hospital",-9.614766736405041],["entrenador",-9.614964901289518],["Mar",-9.61611877789985],["mostrar",-9.616639684437416],["abierto",-9.616681437767237],["afecta",-9.61764762889461],["requiere",-9.620165749182258],["disposición",-9.620199819121897],["cadena",-9.621129125403185],["tendencia",-9.62379771468784],["Alemania",-9.624038779418218],["departamento",-9.624182721749241],["ré",-9.625328861590601],["convertir",-9.625386562755804],["espacios",-9.626085436445308],["diferente",-9.62647051619315],["productor",-9.630082392461937],["planta",-9.63212044763716],["usted",-9.632919067185306],["comprar",-9.634112736599011],["altura",-9.634968002131885],["Alejandr",-9.635791636571962],["necesaria",-9.637872544179187],["móvil",-9.63801381919498],["Obrador",-9.638170458443092],["34",-9.638219503827742],["promedio",-9.638860829069499],["factor",-9.639151812702595],["cuidado",-9.640404535960815],["ministra",-9.641811015458444],["Municipal",-9.642339975573904],["rival",-9.642358778882574],["correspondiente",-9.642864964354324],["comida",-9.642966500063277],["vuelo",-9.646480788785034],["sufri",-9.646753789076769],["Rus",-9.64757557298051],["mínimo",-9.647693919423986],["habitual",-9.647829680057777],["cuyo",-9.648063196803125],["rigen",-9.648735350608007],["virus",-9.64934175568157],["autor",-9.65014989952558],["recordar",-9.650478784123315],["vive",-9.65127346627449],["nueve",-9.651462490607797],["recibido",-9.651726315778888],["podem",-9.6533690852295],["comenzar",-9.653913130349657],["Torre",-9.65425258367943],["conoce",-9.655762494070292],["reporte",-9.656699631199178],["venezolano",-9.657215847745011],["esperar",-9.658272877674836],["cree",-9.658743447326643],["técnica",-9.66191339464494],["herido",-9.66206169703995],["enorme",-9.662377378244678],["diseño",-9.662663217541098],["tuvier",-9.663227172334906],["carretera",-9.666914813611704],["Martínez",-9.66702725413476],["empresario",-9.667242213589493],["colabora",-9.667284573492893],["políticos",-9.668939162488904],["efectivo",-9.669193610529906],["%)",-9.670708932731475],["supone",-9.671095757097824],["Puerto",-9.671791457589856],["objeto",-9.672199480635076],["relacione",-9.673088871241715],["In",-9.67363377900044],["protesta",-9.674188095881048],["Gran",-9.67490812565313],["dispositivo",-9.676693008977619],["vio",-9.676839442115826],["pobre",-9.677332077992247],["funcionario",-9.678379224711808],["trabaj",-9.679230216133202],["anual",-9.681025165187197],["pide",-9.684044642034834],["estructura",-9.68473683678835],["ubicado",-9.685286402738884],["izquierda",-9.686557747501427],["registrado",-9.68657693911895],["hacía",-9.686795107568788],["Federal",-9.6868839737098],["provincial",-9.687303456008948],["doble",-9.688164265597873],["darle",-9.688561442366675],["vaya",-9.688782826199262],["publicado",-9.689747578402258],["Sur",-9.68999543330192],["sancione",-9.690535480446428],["enfrentar",-9.691143644956423],["Santiago",-9.691534142839584],["Hace",-9.693044842824373],["española",-9.694125909207651],["publica",-9.695127554725785],["comercio",-9.696538768014626],["propiedad",-9.696565356366428],["Norte",-9.696645300001325],["privado",-9.69686396758561],["trás",-9.69696570408274],["inten",-9.69920868746167],["domicilio",-9.701838195961399],["funcione",-9.703158637699222],["reduc",-9.703556906003179],["pre",-9.705428814377575],["negocia",-9.705917411201378],["com",-9.706382792604852],["futbolista",-9.706455776617982],["derecha",-9.706503166511244],["Central",-9.70663881765342],["actualidad",-9.708659168238459],["pantalla",-9.71006954578301],["anuncio",-9.710634772394254],["fondo",-9.711224266173739],["combustible",-9.711665814262446],["terreno",-9.711685502360334],["velocidad",-9.711693955629851],["Fernand",-9.712311911805621],["agencia",-9.713002342900594],["Defens",-9.715545663475908],["Instagram",-9.716786714951628],["pronto",-9.71704332229907],["acusado",-9.717326743819122],["posterior",-9.718256212064613],["presentado",-9.718977745598686],["pa",-9.719270027278208],["asocia",-9.7197071810624],["gener",-9.719794357870745],["investigador",-9.719799574216072],["aná",-9.719945332668534],["mejore",-9.72121363414267],["siglo",-9.722211376551748],["’,",-9.72290115625084],["voy",-9.723417000560982],["garantizar",-9.724226035004907],["Leó",-9.724504751660366],["36",-9.724582533432056],["río",-9.72684541776174],["ban",-9.727346941334918],["vuelve",-9.72756691439778],["época",-9.727784182368003],["Cristi",-9.728724399337452],["prepara",-9.729388749208002],["conferencia",-9.732220115941622],["Pública",-9.73225087659338],["infraestructura",-9.732253616005403],["constante",-9.732548852978173],["derrota",-9.733023983302875],["crea",-9.73376702519779],["Educación",-9.73394901026111],["visitante",-9.734051635583508],["texto",-9.735084124438096],["histórico",-9.735390946012743],["Sobre",-9.736078315245262],["rápido",-9.737463386518314],["contrario",-9.737694093677709],["ella",-9.738554967446118],["300",-9.738679116758234],["precis",-9.74100683523567],["siente",-9.741612408224153],["consider",-9.741680579638022],["Partido",-9.7427168341565],["salario",-9.743014814268108],["75",-9.744152613463925],["solicitud",-9.744290367119472],["poca",-9.744854754344772],["Juli",-9.745262562861889],["herida",-9.747984996770144],["recuerda",-9.748454325598825],["Toda",-9.749528019867856],["bilidad",-9.749722231245572],["Dios",-9.751818686044066],["asunto",-9.753342448271033],["’.",-9.753738139760138],["asistencia",-9.754592764993458],["dejado",-9.75468036308726],["dicha",-9.754929377715651],["muri",-9.75512181623278],["ista",-9.756089529794046],["coraz",-9.75773996780991],["expertos",-9.75830678256421],["Club",-9.758570316089894],["Pérez",-9.758584032381552],["búsqueda",-9.758591022432354],["docente",-9.75861752677729],["horario",-9.758934339752233],["33",-9.759180072576253],["pase",-9.761384417490262],["dicen",-9.761668346289646],["previa",-9.762500065221872],["consecuencia",-9.76254898189174],["afectada",-9.764423482493104],["sub",-9.764693222980839],["recuperar",-9.765075094788898],["quiero",-9.766231052488719],["Costa",-9.766231375539128],["tienda",-9.767777755110831],["res",-9.768091366211177],["Ent",-9.768346790115755],["esposa",-9.768728294793664],["límite",-9.769485840959371],["síntoma",-9.769920796036175],["campe",-9.770317268061007],["presidenta",-9.771212712327461],["tus",-9.771346806904738],["comentario",-9.7749378467758],["acusa",-9.775421638740323],["aquella",-9.775738166593149],["solu",-9.776617970556416],["iniciar",-9.777146432650175],["naturale",-9.778211829461465],["lejo",-9.77966612529379],["concluy",-9.780019510393956],["aplica",-9.78008792552588],["madrugada",-9.78023929099997],["trasladado",-9.780699076017441],["pregunta",-9.782053388246824],["65",-9.783184307584436],["habitantes",-9.784686457309462],["empezar",-9.785532501003193],["privada",-9.78562057576364],["vacunación",-9.785652980237742],["miedo",-9.785962488882397],["reconocimiento",-9.786075445045535],["inició",-9.787043347691561],["pie",-9.787666225077356],["turno",-9.790341977545413],["Unió",-9.790722569256891],["justo",-9.791242862045518],["establecimiento",-9.791504505105635],["acceder",-9.792405008592993],["participante",-9.792493903104713],["seguirá",-9.793317931155027],["peligro",-9.794261708933277],["Dieg",-9.794348869780613],["respeto",-9.794917928081109],["isla",-9.795467261707437],["400",-9.795890358909872],["Grupo",-9.796617195429754],["costo",-9.797445121638498],["aumentar",-9.79761302094783],["diverso",-9.799065962937188],["Europea",-9.799180936220873],["deporte",-9.799331987583267],["suelo",-9.799877478105108],["Valencia",-9.802084618267068],["adulto",-9.802174492892059],["diversa",-9.802468840083748],["Corte",-9.802793965346481],["adolescente",-9.803003281643836],["utilizar",-9.80396908212526],["áreas",-9.804239752053157],["negro",-9.80449726236056],["compañeros",-9.804772763783316],["larga",-9.804819448729397],["ización",-9.806084178021901],["droga",-9.807337093143282],["delantero",-9.807922797603137],["ciclo",-9.809066822854575],["directo",-9.810763908875693],["compara",-9.811306442807199],["audiencia",-9.812498816754452],["especie",-9.813376584097263],["sujeto",-9.813773642317194],["democracia",-9.813779078363538],["alerta",-9.814218183815386],["precisa",-9.81428687988614],["especialista",-9.814625038921868],["hogar",-9.815608825251225],["trabajan",-9.815655611055016],["dando",-9.817293128557317],["Z",-9.819369740630934],["actri",-9.819866202416286],["Bar",-9.820137420384274],["alumno",-9.820535297491467],["32",-9.823440954682162],["estilo",-9.823807198345843],["fondos",-9.825539970022392],["seguidor",-9.826488607701682],["existen",-9.82813831399989],["coronavirus",-9.830460410167817],["Desarrollo",-9.830479399784185],["atender",-9.830603130711367],["j",-9.830617476652744],["parque",-9.831157512873265],["portavo",-9.831200681545067],["Ju",-9.832352065243704],["EE",-9.833694597945744],["entender",-9.833918359116574],["ofrecer",-9.833963933785164],["informado",-9.83401803236211],["sentir",-9.83467174564014],["ero",-9.83561286353711],["período",-9.836173969226248],["médica",-9.836191647833981],["Cad",-9.836980766059106],["cerrar",-9.837063999930368],["obliga",-9.83791951484099],["utiliza",-9.837965875382604],["rse",-9.83917686790523],["médicos",-9.839767567770153],["38",-9.840107798672355],["Está",-9.840408623307802],["ucraniana",-9.841957835937347],["previsto",-9.842047575984061],["Derecho",-9.842148211971011],["europeo",-9.8428362867417],["tendría",-9.842914988153867],["apunt",-9.843053409027956],["desarrollar",-9.845851958971572],["Asocia",-9.846307086268425],["potencial",-9.846405918044418],["result",-9.847308912655574],["Cuba",-9.847340625454912],["ámbito",-9.847767248219633],["Tribunal",-9.84798911523024],["extranjero",-9.847994324756552],["Nicol",-9.850022291369756],["pone",-9.851144943449949],["lisi",-9.852124347632811],["fines",-9.852447832176601],["intentar",-9.852576817533848],["aproximada",-9.85365106508366],["eléctrica",-9.853770541429203],["exterior",-9.853954189618939],["resolu",-9.854675404479972],["profesor",-9.855553333503892],["ilegal",-9.856742265475631],["beneficios",-9.85731138716513],["norma",-9.857474445701357],["inicial",-9.859241790775265],["fallecido",-9.859337348625477],["escolar",-9.859822733616213],["musical",-9.860198819087534],["nota",-9.860282528755429],["chico",-9.860455426001604],["ja",-9.860757762058224],["trabajos",-9.860914712557259],["intento",-9.861569819148203],["sumar",-9.86242047823816],["concierto",-9.863843340202543],["esperanza",-9.864996326803013],["resulta",-9.865083668089472],["Palacio",-9.865413422287812],["crédito",-9.865424065246692],["hubiera",-9.865551693430502],["rendimiento",-9.8656294200112],["tomó",-9.865723767702455],["consumidor",-9.86593491533576],["recorrido",-9.86598498424148],["Guardia",-9.86637782865364],["abrir",-9.866707062500016],["apertura",-9.866778395505964],["Creo",-9.868784925093784],["corto",-9.86893393458541],["mental",-9.871558061882139],["lanzamiento",-9.87179691562796],["franc",-9.872449078737503],["escuchar",-9.873391055531624],["pendiente",-9.873519349905521],["firmado",-9.873812410100228],["viento",-9.873981133346605],["perdido",-9.875188920038198],["invasi",-9.877288813321778],["porcentaje",-9.87735135455366],["característica",-9.877353507870136],["ciudadanía",-9.877357519821476],["agenda",-9.877621058426532],["cay",-9.877760140039337],["Direc",-9.877876386129984],["Unido",-9.878179261506471],["Plata",-9.878314590900114],["piloto",-9.878483305175113],["turismo",-9.878650510719627],["querido",-9.879806681231269],["razon",-9.880341588306685],["amente",-9.88043907138434],["Santo",-9.881450046937843],["estudios",-9.88161186544174],["199",-9.883121019846937],["York",-9.883381517529152],["blanco",-9.883519983945522],["Hernández",-9.883774435955726],["potencia",-9.88378889512241],["revel",-9.88425868902264],["Jes",-9.884449299410385],["original",-9.884852623986916],["particip",-9.88485472291018],["alza",-9.885924885935655],["po",-9.886417824364075],["tribunal",-9.886614976215673],["dependencia",-9.889256926275628],["distancia",-9.889408407865702],["Público",-9.889436044579583],["migrante",-9.88959917486427],["tramo",-9.889673638190082],["ús",-9.8900119974213],["plicación",-9.890557507245976],["robo",-9.890637613004536],["relacionado",-9.891168903751682],["pieza",-9.89236105590905],["ocas",-9.892678745788423],["destacado",-9.893821236050364],["deportivo",-9.894272953252539],["Del",-9.897071214449785],["OTA",-9.897419376648447],["mejora",-9.898120901217364],["señalado",-9.898371278425],["w",-9.898809780068934],["W",-9.899683606440373],["acerca",-9.902046659368736],["reuni",-9.902431701045376],["civil",-9.904097642109345],["cine",-9.904295419235954],["directora",-9.9045778464333],["dará",-9.904822330788793],["crim",-9.90560503224157],["cierta",-9.906668535918506],["activa",-9.906809759723565],["afirma",-9.90687384494555],["Solo",-9.907311600738552],["jug",-9.907656450606325],["incidente",-9.907716837653346],["esperan",-9.907798349345029],["presunto",-9.907860013936816],["procedimiento",-9.907904399014196],["pedir",-9.909584548565874],["carta",-9.911207572672161],["solucione",-9.912475707351806],["presidencial",-9.913157000780238],["televisi",-9.913202542589136],["exporta",-9.913218114287375],["permanente",-9.914052784631373],["fotografía",-9.914182332238653],["colectivo",-9.914436675440754],["activos",-9.914693021272024],["vivo",-9.914813194594572],["superar",-9.917746598047106],["nacionales",-9.91783214114262],["estima",-9.917957442119066],["comisi",-9.918227438825973],["produj",-9.918408692635413],["destaca",-9.918440846690965],["beneficio",-9.918472483178586],["interese",-9.918628695079946],["48",-9.919903795644991],["comienza",-9.920303117479794],["protagonista",-9.920308373874239],["+",-9.920791405344705],["canal",-9.92186532270009],["Departamento",-9.921977471273268],["inmediata",-9.922644963743627],["registrar",-9.924684171314889],["escena",-9.925454032366257],["homicidio",-9.926591985069242],["incluido",-9.926600409209243],["llevado",-9.926919187771771],["foto",-9.929273576214822],["conocida",-9.92929085403642],["region",-9.930150799446762],["suministro",-9.930189063016396],["interna",-9.931695951310964],["amba",-9.931922714952231],["Per",-9.93224871561133],["advirti",-9.932610525295074],["espectáculo",-9.932921016614824],["identidad",-9.932945478602232],["vídeo",-9.932953522883931],["instancia",-9.933009341538568],["perro",-9.933207285554971],["Nuevo",-9.933235310343315],["suerte",-9.933913234779112],["anunciado",-9.934000301203628],["Re",-9.936921272637726],["destacar",-9.938981698525081],["ritmo",-9.939080956115653],["comienzo",-9.939290929961524],["alternativa",-9.939294291824634],["convocatoria",-9.939302511447199],["respectiva",-9.939319644061314],["trimestre",-9.93932932405674],["independiente",-9.939364542179579],["Alguno",-9.939431019989195],["David",-9.939753996634337],["apuesta",-9.941394976576413],["corrup",-9.94316563568243],["calor",-9.943410235484127],["permitirá",-9.943644437928027],["Servicio",-9.944172478306802],["pelea",-9.944865632126945],["Castillo",-9.945549350448003],["récord",-9.945700782941469],["Tiene",-9.946593206788645],["tradicional",-9.947006612156997],["mez",-9.94703828079791],["Plan",-9.947328566986561],["múltiple",-9.947750993467377],["bloque",-9.949347873532242],["estaría",-9.94939202568301],["combate",-9.949458805947938],["avenida",-9.949596471836342],["implemente",-9.95181541556843],["operacion",-9.95207673972273],["subida",-9.953248883892726],["gimen",-9.953337745275434],["regreso",-9.95381904461053],["Go",-9.954635618319028],["Álvar",-9.954667124855082],["Otra",-9.955559909929711],["celebrar",-9.956384332349106],["continua",-9.956441138662854],["comparti",-9.956638776784777],["compartir",-9.957129360684482],["logrado",-9.957801922292347],["públicos",-9.958436913610877],["sorpresa",-9.95865579768136],["asesinato",-9.958662137516196],["Sergi",-9.95872646589082],["Federación",-9.958830748984255],["cielo",-9.959574327399366],["avanzar",-9.959682858582575],["Reino",-9.96009799341217],["zo",-9.963227514468542],["ocupa",-9.963359340592845],["implica",-9.964386032072658],["prisi",-9.965134690205138],["financiero",-9.965210219018028],["Javier",-9.96522618880249],["temporal",-9.96523711965496],["vino",-9.965301018827464],["dificultad",-9.965843241897705],["pleno",-9.966289302494918],["apoyar",-9.966560861966872],["fuente",-9.966761181823372],["duro",-9.967255169724499],["intent",-9.967362929326942],["cuesti",-9.968907492863954],["asegurar",-9.969160109130298],["demasiado",-9.97176076661906],["prevé",-9.97188002693602],["rueda",-9.972721834948683],["Moren",-9.97388918252426],["llama",-9.973972765105767],["consulta",-9.975105280362254],["provoc",-9.976252389425703],["actuar",-9.976685678476308],["histórica",-9.97720037888461],["residente",-9.977420870979762],["virtual",-9.978383688557784],["torno",-9.979035442236002],["inmediato",-9.979075308382129],["anteriores",-9.979179878770282],["realizada",-9.97944899208705],["suele",-9.982373565664101],["previo",-9.983493650106293],["declara",-9.983527518622871],["cancha",-9.985127784401232],["convirtió",-9.985426831430003],["refiri",-9.985627306682904],["actuación",-9.986307256653241],["disparo",-9.986878115008684],["absoluta",-9.98716082018273],["respondi",-9.989544991525765],["per",-9.990530125358866],["proteger",-9.991285029450797],["pens",-9.992535479364237],["opcion",-9.992857134267668],["37",-9.995727185302584],["decía",-9.99617706266475],["Constitu",-9.99733128897012],["discusi",-9.998243578608704],["petróleo",-9.998518156406961],["Fuerza",-9.998522731359113],["restaurante",-9.998703906605275],["construir",-10.001346643204236],["mencion",-10.001397519357562],["dirigido",-10.00142615422804],["mensual",-10.004758840887629],["anti",-10.004813482106393],["resolver",-10.005276567892292],["cuya",-10.007089888987926],["Di",-10.009077330731891],["sol",-10.00949744646277],["concreto",-10.009715944907578],["cerr",-10.010437517279431],["ciencia",-10.01068546128845],["plane",-10.011429771561648],["ocurre",-10.011464301062688],["complejo",-10.012171179582229],["testigo",-10.012174624170516],["asegurado",-10.012190998071045],["das",-10.012570682162387],["organizacion",-10.014937354310415],["perfil",-10.015577334934571],["consecuencias",-10.015825870208818],["Co",-10.01687356982875],["esperaba",-10.017165043852494],["km",-10.017406280201525],["parecer",-10.017956655471796],["conomía",-10.01833140664198],["gole",-10.018685939735363],["reto",-10.01871200964115],["super",-10.01873644332198],["clasifica",-10.018938028554267],["hotel",-10.019047747477519],["expectativa",-10.019068704155199],["señalar",-10.020310133336233],["condi",-10.020737485382215],["plena",-10.021158056372602],["ura",-10.021741391538491],["empate",-10.021797230243454],["reserva",-10.023246656891374],["permita",-10.024077592509169],["segui",-10.024605947397955],["feliz",-10.025722058878628],["verde",-10.025873826195461],["distrito",-10.026011262135075],["alifornia",-10.026012743367872],["episodio",-10.026017923174429],["Comunidad",-10.026081481000645],["concepto",-10.026091410679928],["pasajero",-10.02613108455552],["arriba",-10.027541515817767],["viajar",-10.02898615946475],["Daniel",-10.029645251298849],["ropa",-10.032313425860057],["colombiano",-10.033004170033205],["básico",-10.033007418051902],["cárcel",-10.033251230125758],["subray",-10.033450035813924],["Actual",-10.034195909680559],["Junto",-10.034788951581081],["contagios",-10.03547732287026],["ronda",-10.036179895748669],["erán",-10.036403764549853],["usuario",-10.038426791182689],["ganador",-10.038780235225241],["piso",-10.039569739955274],["cáncer",-10.040089913315253],["Poder",-10.040139228801618],["meta",-10.04064845821372],["asistente",-10.040980355431202],["segura",-10.041229773201646],["Mosc",-10.04139617721108],["aba",-10.044940822785957],["cercano",-10.046754834047576],["dueño",-10.047232657485818],["convertido",-10.047441619569863],["ubicada",-10.048225434102353],["señor",-10.048411268097162],["55",-10.050681559513208],["vacacion",-10.051609234965294],["sentencia",-10.052212455876331],["pretende",-10.053732747351383],["exposi",-10.053744982622607],["Unidad",-10.054217210621207],["agresi",-10.05494125557377],["Paz",-10.055343023863161],["UE",-10.056852402133384],["revis",-10.058274574872385],["ga",-10.060587546439525],["consejo",-10.061582263450056],["nuclear",-10.061701347701302],["Escuela",-10.061850563356224],["duelo",-10.06194066747251],["restric",-10.062074955784702],["Protecció",-10.06221047867027],["mandato",-10.062326614432795],["establece",-10.06236891299776],["buscan",-10.063189029928445],["Italia",-10.063320039389723],["Ni",-10.064085071038622],["órdoba",-10.064102681332493],["piel",-10.064545774025898],["confirmar",-10.064840342568322],["42",-10.064967189695182],["reconocido",-10.066172919354258],["marc",-10.066599672966834],["entr",-10.066847764433046],["solicitar",-10.067779992594447],["actitud",-10.068573494392218],["trámite",-10.06872204168491],["amonestado",-10.06878749189158],["198",-10.069153869481582],["85",-10.071065378147704],["cuarta",-10.071164259624204],["car",-10.071228145046287],["Uruguay",-10.076021342773652],["desafío",-10.076023614233492],["Messi",-10.07658689360445],["llegará",-10.077016189946615],["Ana",-10.080871239931152],["tren",-10.0810463395059],["ubica",-10.082004255342682],["encuesta",-10.082045791921454],["II",-10.082346370151951],["requisito",-10.083366482980598],["inglés",-10.08340429502549],["memoria",-10.083540132893308],["imposible",-10.083547575243987],["mexicana",-10.083848554135095],["pista",-10.08400479126708],["abuso",-10.084073493115431],["coste",-10.084206918625675],["establecer",-10.08428716361204],["EU",-10.084549426964278],["Gó",-10.084680290798955],["ña",-10.085298469283806],["600",-10.086401798593801],["Paul",-10.088183888171363],["viendo",-10.08866154786184],["observa",-10.09021691432092],["ingresar",-10.090356890108719],["Inclus",-10.090741050664025],["científico",-10.090781653238547],["educativo",-10.09078227421136],["alianza",-10.090801921954927],["Robert",-10.090884625445803],["turista",-10.090952086945451],["juega",-10.091159606065961],["identificado",-10.091763309300966],["acompañado",-10.092284694599876],["legislador",-10.092921516137611],["tanta",-10.09295640858334],["explicado",-10.093038725295568],["playa",-10.09496628659074],["ces",-10.096226213347279],["ton",-10.0963349357163],["ás",-10.097249024165771],["reconoci",-10.097915738990324],["Cultura",-10.098026107463513],["talento",-10.098144591766042],["http",-10.098244344613835],["sanitario",-10.098257923592671],["planeta",-10.098283341321473],["financiera",-10.098340421363375],["tránsito",-10.098561112069465],["cará",-10.09894705520724],["Trum",-10.100044479613791],["Gracia",-10.100914206930735],["circula",-10.100951071781026],["lesion",-10.101082520443448],["responsables",-10.101413138636929],["ven",-10.10147664052066],["44",-10.10243759209727],["US",-10.103598273240976],["39",-10.103858348382884],["criminal",-10.105213051230235],["Washington",-10.10576315320468],["invierno",-10.10578128887154],["presunta",-10.105789813183504],["colegio",-10.105826770305963],["enfrenta",-10.106255721538869],["defender",-10.106341397160218],["vigente",-10.10639793269004],["aplicar",-10.106706375353259],["necesitan",-10.106938332727923],["corte",-10.107529683624556],["elegir",-10.107857475182747],["factura",-10.108131199094336],["sangre",-10.108917511157992],["bajar",-10.109358904239173],["hayan",-10.109721424623705],["puerto",-10.111256169420464],["alcanz",-10.111949558177418],["talló",-10.112981218776927],["Mujer",-10.113388368765914],["Kie",-10.113811188285705],["Tal",-10.11410400372499],["line",-10.11516799924658],["confirmado",-10.118293281050764],["rol",-10.119608042311157],["gira",-10.119625281631233],["sanitaria",-10.119974632634289],["cuador",-10.120062706696856],["celular",-10.120974351957418],["órgano",-10.120974660760186],["Turismo",-10.121162618232198],["complicado",-10.122382570811022],["críticas",-10.123074644427454],["99",-10.124007208779648],["continuará",-10.124115246917855],["aliado",-10.124594735893291],["daño",-10.124830937301917],["PSO",-10.124929307878437],["menes",-10.125834229805179],["ganado",-10.126158627119562],["socios",-10.12625149400213],["puesta",-10.1267999608915],["tormenta",-10.128139503677534],["Gabriel",-10.12866877125574],["Tierra",-10.12866881342626],["ideal",-10.12873708554319],["recién",-10.128807669094481],["Mucho",-10.128884150176788],["capaz",-10.13029088091653],["cercana",-10.130947745367159],["promo",-10.131414232686623],["ejecutivo",-10.131488180972482],["app",-10.131532536984775],["reconoce",-10.13193608832348],["Madur",-10.132093047881469],["transmisi",-10.1336855321536],["Organiza",-10.133793679003567],["campeonato",-10.134517695138177],["subir",-10.135930292215306],["recuerdo",-10.136729994797552],["organizado",-10.136852088511016],["Igual",-10.137020697019704],["Será",-10.137352782559459],["Dos",-10.137537091974107],["mamá",-10.13780259283666],["ida",-10.138373541147999],["Plaz",-10.13848165047905],["seguido",-10.138695066457853],["lanzó",-10.138766397039236],["llevan",-10.139674343590144],["monto",-10.140559463212707],["apunta",-10.140618694604909],["caer",-10.14114983881726],["referente",-10.143680325867924],["consciente",-10.14428453089291],["tamaño",-10.144617414511766],["permitir",-10.14506322297325],["clima",-10.145164115619714],["aprob",-10.14570930799077],["vivi",-10.145829894949559],["ojos",-10.14633081895094],["cter",-10.14670196954815],["Rafael",-10.148150110695088],["fotos",-10.148578231164365],["vicepresidenta",-10.148739551278364],["Pese",-10.150037296282575],["individual",-10.15143204833792],["Suprem",-10.152114793967698],["convenio",-10.152135863928152],["marcado",-10.152150100317911],["refuerzo",-10.152178530322846],["Wi",-10.15220709656092],["Enrique",-10.152302810588397],["mínima",-10.152385710407296],["avión",-10.153033320455958],["empieza",-10.153083190154735],["Senado",-10.15432860568732],["sirve",-10.155207143632293],["concentra",-10.159201592478361],["infantil",-10.160047257990836],["mantenimiento",-10.160090805335154],["puente",-10.160164380745744],["Mundo",-10.160254314201577],["solicit",-10.160425050344632],["alcance",-10.160513341978074],["variante",-10.160754789129314],["presencial",-10.161673414685024],["sabía",-10.162204760507265],["vota",-10.16280074322135],["Val",-10.163951250268738],["tabilidad",-10.164357816212938],["militare",-10.16574406784428],["escrito",-10.166602327158568],["obtuv",-10.166616028158764],["falleci",-10.167660792690555],["fenómeno",-10.168040673903118],["aficionado",-10.168059677116549],["comportamiento",-10.168071981126165],["prioridad",-10.168074545204679],["alegría",-10.168078996611385],["novedad",-10.168153193895812],["FC",-10.168307304343255],["definitiva",-10.168646704592092],["150",-10.170039215674075],["formar",-10.171428878461878],["colonia",-10.174193106041844],["considerado",-10.175873728641672],["cuadro",-10.176097733658471],["circunstancia",-10.176104890063538],["perspectiva",-10.176106841050826],["quizá",-10.17610739151171],["Agencia",-10.176224989346908],["añade",-10.17759058585295],["llena",-10.177677789943052],["Fundació",-10.177865372791365],["Trabajo",-10.178322984468409],["baño",-10.17850927627542],["cas",-10.178767545745686],["Diputado",-10.179510932690473],["visitar",-10.179734381828032],["dispuesto",-10.180004420755534],["report",-10.18020280167558],["supuesta",-10.180488974786869],["52",-10.180607766223861],["46",-10.180965882389613],["llevará",-10.181303649744642],["motor",-10.181311038504541],["Porque",-10.181346989291571],["físico",-10.181944943480005],["cerrado",-10.182787056490254],["adecuada",-10.184010374762606],["pudier",-10.184201595233109],["árbol",-10.184359310604364],["Dominican",-10.184677038970538],["deportiva",-10.184679071165444],["invitado",-10.184927165035056],["43",-10.18546962140909],["raí",-10.185625770621751],["parcial",-10.18622457627606],["vuelto",-10.187402727156964],["Rica",-10.188226470583704],["evolu",-10.188576323684256],["Selección",-10.189007700291514],["John",-10.190880871730785],["chica",-10.191438820930333],["aeropuerto",-10.191713076601168],["rural",-10.19207551990865],["sostenible",-10.192207599451358],["recibe",-10.192482660960428],["piensa",-10.19249871296002],["interesante",-10.193221896145825],["show",-10.19364326360053],["continu",-10.194056150575703],["Puede",-10.194472252621345],["Latina",-10.19501607066206],["cuestione",-10.195426088796875],["evidencia",-10.197893767027328],["inversion",-10.19792169619064],["américa",-10.20069590890385],["Regional",-10.200699399134239],["Isabel",-10.200715935546485],["Ricardo",-10.20088510591625],["Roja",-10.201169965504809],["ún",-10.202559218996818],["pelota",-10.203226244648597],["regular",-10.20343286326029],["cambi",-10.203456086732206],["800",-10.204335604486246],["simple",-10.204539279733911],["lleno",-10.206446110694264],["siga",-10.206769467382575],["esencial",-10.208738315189105],["aument",-10.208905453688514],["signo",-10.208917648792461],["sospechoso",-10.209040289005621],["elegido",-10.209052440763836],["Gustav",-10.209103918620404],["automóvil",-10.209210057409297],["Sistema",-10.209237248774967],["bebé",-10.209293069429144],["debía",-10.209509854719045],["insisti",-10.210774692296837],["PS",-10.211775464100356],["industrial",-10.212151981009672],["ito",-10.21270786809162],["descuento",-10.212844715226154],["Junta",-10.214099567159806],["Lu",-10.21415679543138],["expresidente",-10.214741197130309],["PC",-10.21605066268685],["Ejército",-10.217432226774072],["ejército",-10.21743222682178],["cuota",-10.217434533206172],["increíble",-10.217457840086656],["conciencia",-10.21776852434613],["transforma",-10.218744307783066],["acaba",-10.220367643723055],["formato",-10.220486357579478],["llamó",-10.220727493676009],["oro",-10.221144084829554],["cero",-10.22139968874822],["celebr",-10.221439234177181],["propósito",-10.221796817307077],["identificar",-10.221989058170593],["trat",-10.22202617349641],["viven",-10.222103847425297],["fallo",-10.22218434671569],["permiti",-10.222316320277361],["estuv",-10.222357652631775],["ira",-10.222422391635163],["institucional",-10.222461986542296],["firme",-10.223577995876763],["rán",-10.22467455256639],["defini",-10.224843228247767],["Zaragoza",-10.225907496751079],["argentina",-10.226165120685828],["plato",-10.226778491127678],["deseo",-10.227030757849395],["Pro",-10.227829739208673],["nivele",-10.228651560075281],["ejecu",-10.228845434119492],["arse",-10.230470100223997],["intendente",-10.230500491560448],["quis",-10.23057302194005],["reina",-10.231379621276904],["realizan",-10.233740251679095],["instalación",-10.2341721275625],["específica",-10.234453855412964],["voluntad",-10.234453912669828],["turístico",-10.234454194405322],["Facebook",-10.234455941435371],["positiva",-10.234644858731212],["candidatura",-10.234763900486222],["57",-10.235077469854117],["senador",-10.235145937248445],["invita",-10.235427135432987],["Blanca",-10.236012567426995],["Rosari",-10.237323286235945],["homenaje",-10.237412166021679],["decidido",-10.238462418160115],["49",-10.238945241313155],["ambiental",-10.239746741874917],["denunci",-10.240545619484795],["integral",-10.242404835783656],["honor",-10.24281649993759],["mecanismo",-10.243077696583768],["diaria",-10.243141997872343],["Él",-10.24419822493157],["humana",-10.244524691288106],["brindar",-10.244541779699633],["iones",-10.24684615486847],["interno",-10.248149131987853],["distribu",-10.248212079102949],["tarifa",-10.250794035064345],["protocolo",-10.251791725976595],["Aquí",-10.251989384865123],["disco",-10.25225174399663],["frío",-10.252290735171854],["termina",-10.25332883263826],["mirada",-10.253925395753155],["resalt",-10.254071418897087],["leyes",-10.254422104595818],["Valle",-10.255614274032784],["dejan",-10.257530926243321],["marg",-10.257948092059799],["Canad",-10.258061873803236],["Petro",-10.258710525222686],["Nada",-10.258719892595028],["decena",-10.260370020250962],["infec",-10.26045059376739],["garantía",-10.260542123683184],["ceremonia",-10.260548626406727],["bolsa",-10.261870049220821],["encontrado",-10.261953338790605],["Parque",-10.26214649299921],["mala",-10.264265838713511],["feria",-10.2656631601484],["Rosa",-10.26587019492711],["Joe",-10.267326640643729],["analizar",-10.267867724189497],["contará",-10.268223190863566],["perfecta",-10.268316227458687],["Kirchner",-10.269391659350813],["propietario",-10.26939444681698],["trayectoria",-10.269395444893803],["Comité",-10.26940418213157],["preparado",-10.269413338235287],["gana",-10.26980205820801],["extremo",-10.269841010320095],["Marco",-10.269956055284467],["fuga",-10.270076145590606],["índice",-10.270128178588035],["aprobació",-10.27028603944649],["th",-10.2705268777619],["sencillo",-10.270952933607237],["exclusiva",-10.272081711936867],["bienes",-10.27247968458241],["extra",-10.272912298559458],["venir",-10.272914537262375],["interesado",-10.273713336645171],["41",-10.274251911349664],["ología",-10.27474729136172],["reclamo",-10.275683851841924],["Medio",-10.275882778990397],["aprovechar",-10.276710857109252],["Hemo",-10.277215426771246],["Era",-10.278084842539425],["Iglesia",-10.278320216668272],["Popular",-10.27832044073041],["Judicial",-10.278321213192022],["rostro",-10.278340130769843],["Haciend",-10.278554435357247],["negativa",-10.2789094358555],["soldado",-10.27905110355845],["mantuv",-10.279505795626456],["europea",-10.28196903324558],["App",-10.281985910619829],["escala",-10.283505189964496],["cocina",-10.283754449057213],["llamar",-10.285013508656021],["Monte",-10.286076516011839],["Sí",-10.286957863741847],["batería",-10.287392831672822],["establecido",-10.288106063995844],["firm",-10.289338059304544],["toneladas",-10.29066560044396],["interne",-10.29068981192836],["mir",-10.290806611529579],["tropa",-10.291243322577099],["acá",-10.291691151084207],["impulsar",-10.2917634153901],["pregunt",-10.291841480244582],["aprender",-10.292912667894466],["encargado",-10.293160227718811],["tomado",-10.293369498416524],["listo",-10.29392387406997],["acercar",-10.295627452815264],["alcohol",-10.296413773923145],["volverá",-10.29645070135884],["litro",-10.296457843160582],["pic",-10.296822646846998],["inteligencia",-10.297066861600944],["bar",-10.297866990198532],["controlar",-10.297995141963895],["quedan",-10.298155571063583],["compañero",-10.29847279473572],["considerar",-10.300101356344445],["Cuál",-10.300365578049268],["excep",-10.301109145734525],["votar",-10.301442409737255],["Primera",-10.303397431602392],["aprobado",-10.30353217944936],["suman",-10.303604463745085],["incluyen",-10.305005239360213],["rá",-10.305089255738546],["viola",-10.305476361457703],["Asamblea",-10.305594442438352],["aniversario",-10.305594446496432],["climático",-10.305595979039376],["cartera",-10.305620894357517],["sentimiento",-10.305754987098389],["relacionada",-10.30576101468274],["Red",-10.305771519813078],["Juego",-10.307024637110482],["comenzará",-10.307053648891626],["responder",-10.307109173313394],["importan",-10.307328113527895],["Exteriores",-10.308331112097171],["luce",-10.310736383732944],["est",-10.311647466370193],["multa",-10.312847628046098],["Á",-10.314026475824328],["ina",-10.314246839012926],["actos",-10.314280014734969],["energética",-10.314856074215282],["gratuita",-10.314858560374246],["analista",-10.314902583539798],["ahorro",-10.315624820298076],["destinado",-10.31593690030467],["batalla",-10.315963873326357],["ada",-10.316277444312842],["postura",-10.316306253440647],["nació",-10.316829695667026],["sucedi",-10.317345511388371],["aparece",-10.317671276737858],["Sala",-10.318248605629655],["convierte",-10.31932270192743],["aporte",-10.319448345566329],["Inter",-10.320027109434069],["igualdad",-10.321373477504457],["58",-10.321392000342593],["empresarial",-10.321837351246117],["decreto",-10.321885445618797],["Unida",-10.322097910749164],["Marcel",-10.322567408212016],["partida",-10.32315500262111],["constitucional",-10.32395766459068],["entregar",-10.324007732307614],["liga",-10.324014101880493],["Victoria",-10.324206202070878],["Guerra",-10.324363518182317],["diversidad",-10.324411043793386],["descanso",-10.325103151256783],["Premio",-10.32619812947139],["Administra",-10.32675311489648],["juec",-10.326956281524492],["produce",-10.327156016160199],["tercero",-10.327559065316471],["Provincia",-10.328556395663988],["misiones",-10.329242835320912],["bió",-10.329526291830817],["llevaba",-10.330172535029504],["costa",-10.331963116253807],["lin",-10.332149212607254],["cuesta",-10.332149352064572],["aprovech",-10.332837619120795],["electrónico",-10.333633484951939],["condena",-10.33363925495779],["famoso",-10.333667849222518],["urbano",-10.333822963851752],["fallecimiento",-10.333912021140009],["habido",-10.334081589930953],["festival",-10.334415714567076],["parecía",-10.334744587275132],["maestro",-10.334828702340573],["conoci",-10.335356496509196],["debut",-10.335886903497265],["eléctrico",-10.337458073625047],["Fin",-10.338068620226899],["inicia",-10.340215392583072],["básica",-10.34315817279113],["permiso",-10.34316270344079],["inmueble",-10.343246511255032],["Guti",-10.343269975136142],["Jalisc",-10.343322124236808],["bombero",-10.343492899596445],["Ambo",-10.343589591790586],["superficie",-10.343590157729995],["aporta",-10.343632435383533],["Jim",-10.344441021864812],["marcador",-10.345477966462067],["definir",-10.346133577149345],["Mari",-10.347140931861201],["rojo",-10.347274697629281],["llegan",-10.347615035364388],["modifica",-10.348282413888684],["pan",-10.349051598980878],["acabar",-10.351246389208436],["integra",-10.351381113815542],["ama",-10.351910720804433],["fan",-10.352452053857618],["correcta",-10.35253878520073],["Nuestro",-10.352772660029629],["educativa",-10.352773513744644],["polémica",-10.352780743588841],["concurso",-10.352898284547473],["desconoce",-10.353065287309093],["detectar",-10.353416348526547],["mas",-10.355884984527219],["enviar",-10.35595785807299],["ri",-10.356998332868496],["sufrido",-10.357183663118494],["Col",-10.359596422485993],["moviliza",-10.361201243980817],["radio",-10.362223229530706],["Atlético",-10.36248149033289],["energético",-10.362483747337219],["País",-10.362511806297935],["urgencia",-10.362512695681758],["electric",-10.36262782704253],["efectiva",-10.362630571387403],["paquete",-10.362720270571138],["enfrentamiento",-10.362807485149457],["TV",-10.362833575253664],["aga",-10.363657959758157],["imos",-10.365562170147324],["recomienda",-10.365574089169435],["determinar",-10.367123772567027],["Provincial",-10.367734117774617],["modelos",-10.368386880600998],["vender",-10.36842409505536],["perfecto",-10.368679428684178],["doctor",-10.369505618465162],["integr",-10.369981504157444],["preven",-10.370771067454882],["antiguo",-10.372285391022398],["Respect",-10.37228585150292],["Salvador",-10.372288580500207],["cobertura",-10.372289027799127],["Eduard",-10.372298872392557],["modalidad",-10.372315922655437],["entrenamiento",-10.372796234866586],["corta",-10.373104981047327],["aclar",-10.37356668752344],["charla",-10.37374354249944],["Boca",-10.374563865723808],["actuacion",-10.374756799439982],["47",-10.375597823020913],["conversa",-10.375657932267975],["añadido",-10.376062513509657],["breve",-10.376378694308746],["residencia",-10.3776754266759],["indicado",-10.380383283747289],["MI",-10.381533411111906],["Guatemal",-10.382171792441353],["clásico",-10.382179351562337],["británico",-10.382186302590585],["Musk",-10.382188523298264],["criterio",-10.382189358218064],["Felip",-10.382295414266192],["inscrip",-10.382305829803727],["prevenir",-10.382434246013222],["pudiera",-10.383270777773022],["fu",-10.383699069646601],["Navarra",-10.383746456097718],["presidencia",-10.384380002586862],["Jap",-10.384566156066839],["sucedido",-10.384796059113476],["completar",-10.384859478289675],["sostiene",-10.385053155598511],["Moreno",-10.385071658769899],["reforzar",-10.385426279777175],["consigui",-10.38591925200016],["preparar",-10.387265073248651],["Dr",-10.387753917776845],["promover",-10.38784328817335],["conexi",-10.38847430189362],["ONU",-10.388841512339539],["700",-10.389871656089362],["gasolina",-10.392089991135148],["medicamento",-10.392186354614516],["innova",-10.392255276526368],["recibirá",-10.39231904001815],["mill",-10.392445804347766],["Sol",-10.392478172450385],["diagnóstico",-10.39251933897177],["Ingl",-10.392619834346302],["Humano",-10.394380607692664],["ogle",-10.394526040706062],["of",-10.39455041818239],["pasará",-10.39584887359296],["eliminar",-10.400066495468256],["etc",-10.400584365158593],["lanzar",-10.400630708503689],["estable",-10.401191961725704],["regalo",-10.402001168137398],["semifinal",-10.402252064085594],["&",-10.402287311910957],["ausencia",-10.402289560561265],["método",-10.402408353118611],["Deporte",-10.402435657772973],["limpieza",-10.402460418594089],["Ciencia",-10.402839388014595],["normativa",-10.403891751884455],["érre",-10.407623732509858],["aventura",-10.408210983198051],["creado",-10.408216633740059],["cubrir",-10.408638908420425],["jo",-10.408742462886778],["apareci",-10.408871277108883],["situ",-10.409178422266418],["trasladar",-10.410208401269177],["aviso",-10.410772991886684],["66",-10.411837808200241],["serio",-10.412479479504423],["Tamaulipas",-10.412491393548713],["relevante",-10.412603983443631],["Man",-10.41269085161067],["vínculo",-10.41270683529627],["umó",-10.412713968910513],["contento",-10.412737774642608],["baló",-10.41275991372573],["reac",-10.41367872977921],["misil",-10.414378931147237],["dispone",-10.414944894833006],["Presidencia",-10.415238006589494],["logía",-10.415569276028652],["vital",-10.416582334908416],["brazo",-10.417424130427797],["ajuste",-10.422160288618269],["anunciar",-10.422503554750007],["ganas",-10.422621935041558],["Posterior",-10.422800673495363],["teatro",-10.422812367926316],["camioneta",-10.422906111551853],["Armada",-10.422975146145198],["negativo",-10.423062262372326],["sucede",-10.4237353792473],["aseguran",-10.42413568651943],["vuelva",-10.424159683806304],["revista",-10.424215483178202],["76",-10.425954305435704],["octavo",-10.42614972187908],["hermana",-10.426214543642104],["visi",-10.42675780434232],["aumenta",-10.42706471691166],["regla",-10.427637423239133],["azul",-10.428900983729608],["silencio",-10.429293827810364],["rescate",-10.429801702266044],["conjunta",-10.430360334649357],["espalda",-10.431478626880086],["ble",-10.431767883288952],["pro",-10.432007697773413],["conseguido",-10.432561594925346],["competi",-10.432842586430413],["Sebasti",-10.432873088576375],["clínica",-10.432915054888241],["Guillerm",-10.433230763649703],["preventiva",-10.433234303361038],["rumbo",-10.433459529972065],["justa",-10.434157383389103],["Bajo",-10.434304100061734],["verdadera",-10.434628915154184],["mostrado",-10.434709044644466],["brió",-10.435211859494542],["caja",-10.43584459852411],["hectáreas",-10.436930932299191],["ça",-10.43828272036725],["altas",-10.439501206397935],["gest",-10.443160726731929],["indígena",-10.44374366159845],["fanático",-10.443745624695683],["Domingo",-10.443746481679412],["dirigida",-10.444006880819979],["resistencia",-10.44401427056696],["blanca",-10.444283608539628],["Amazon",-10.444434388030958],["Fuente",-10.444573167769455],["68",-10.44468193555009],["Ministro",-10.44585127579697],["desaparecido",-10.446687743451639],["Mario",-10.446798439282144],["presentada",-10.446860956089274],["Investiga",-10.44827311899592],["plantas",-10.448350368555484],["leer",-10.448521983864907],["declarado",-10.448608583468712],["aceptar",-10.449444992208331],["250",-10.449505303750238],["evalua",-10.450731834603987],["Grande",-10.45219913247766],["mando",-10.45383459006668],["Whats",-10.454385680118424],["sorteo",-10.454387606286339],["cuánto",-10.45440046709136],["vulnerable",-10.454406384245026],["solidar",-10.454508268873887],["Andaluc",-10.454573628101661],["merece",-10.454627689486454],["lesionado",-10.454647362718351],["placa",-10.45502065392514],["Programa",-10.455095176759738],["asever",-10.455917490287312],["Debe",-10.456999450377118],["advierte",-10.457122562351127],["kilo",-10.457462928573175],["esquema",-10.458448536308758],["personalidad",-10.458643834210875],["facilitar",-10.459352074346231],["carne",-10.459951792234127],["secretaria",-10.460335763757026],["54",-10.460574961605209],["Rey",-10.460681292974787],["Appl",-10.460805466530925],["sigui",-10.460966270357988],["boca",-10.461263259898349],["95",-10.461825369593562],["diputada",-10.462080833566876],["istas",-10.46250064796861],["preguntas",-10.463625975837298],["dispar",-10.463692897918927],["posee",-10.464248390680616],["moto",-10.465010066452214],["Panam",-10.4653467168761],["urgente",-10.46534840048083],["renuncia",-10.465441112676372],["aúl",-10.465465862209067],["evidente",-10.465687029454013],["enviado",-10.465811665085152],["fortalecer",-10.465858346504653],["Fondo",-10.465865508605177],["estuvier",-10.466328903169138],["Estatal",-10.46720558167156],["recomenda",-10.467370235862026],["viral",-10.469507791740057],["vial",-10.470043173171735],["regres",-10.470669425347912],["presentará",-10.470906300161833],["producir",-10.471066722611472],["87",-10.471094290166647],["crecer",-10.471732931250806],["retirar",-10.47185361089465],["prima",-10.471956628904532],["agradeci",-10.472501619546126],["ofreci",-10.47303095597622],["ías",-10.473481263855664],["capacita",-10.475158538176043],["corresponde",-10.475673317509237],["Podem",-10.475679188593723],["hallazgo",-10.476005858878498],["código",-10.47600849538616],["delincuente",-10.476018290709659],["primaria",-10.476019690206304],["proveedor",-10.476026421299045],["Navidad",-10.476033358290087],["componente",-10.476152898383505],["discapacidad",-10.476432833806122],["existencia",-10.476761330529417],["desarroll",-10.477013245887349],["moral",-10.477464435373893],["sufrir",-10.47817978649034],["che",-10.479068406851185],["regresar",-10.47961323120246],["audio",-10.48003525835372],["Isla",-10.480151232296826],["calific",-10.480504982517527],["tú",-10.481258680598366],["racha",-10.481461084419578],["im",-10.48292269352733],["Tex",-10.48359613566634],["sexo",-10.48371718557961],["cabe",-10.483745332638225],["comer",-10.484140103460705],["narco",-10.484994132108717],["incorpora",-10.48532090967745],["Mon",-10.48537142050943],["explicar",-10.485559712446836],["defensor",-10.485703354066905],["informar",-10.485905462946086],["delega",-10.486939887763707],["brasileño",-10.48699321663495],["máquina",-10.486995346911034],["caliente",-10.486999456343474],["matrimonio",-10.487000443561804],["incertidumbre",-10.4870106896985],["salarial",-10.487028159512903],["sindicato",-10.487135324231666],["nacido",-10.487255824349074],["conversacion",-10.487552606698987],["frase",-10.487669227428382],["abre",-10.48774342567928],["79",-10.488159033733567],["Aragó",-10.488239956120333],["radical",-10.488366707836107],["finalizar",-10.490165517791102],["envió",-10.491206524755748],["odido",-10.491528889972361],["luchar",-10.492309305800621],["tesis",-10.492417235680811],["habilidad",-10.492491957178302],["hincha",-10.494123033843193],["tono",-10.495247479420598],["intenta",-10.49630702310536],["89",-10.496885903179297],["piedra",-10.498126917960253],["útbol",-10.498213648836161],["Tanto",-10.49829375090052],["mortal",-10.498872040884418],["mencionar",-10.49934819381696],["jugará",-10.499518577498778],["descenso",-10.49981227716644],["divisi",-10.499817698412059],["Medi",-10.500166984075621],["utilizado",-10.500804513787486],["pertenece",-10.500957689584983],["Carmen",-10.50118846610432],["egó",-10.501938859190425],["Baja",-10.502419126848206],["hí",-10.50323818848345],["avanza",-10.503271162482587],["remarc",-10.50343049188179],["nez",-10.5039090555684],["alcanza",-10.504473401951344],["deten",-10.504792894074779],["Super",-10.504947932046747],["llegue",-10.505582505780435],["cuidar",-10.505959698684055],["embajador",-10.507130069535329],["apari",-10.507643031627559],["Mend",-10.507888642859328],["cumplimiento",-10.509321170734356],["bonaerense",-10.50934028335008],["Municipio",-10.509340454740624],["Interior",-10.509340528231249],["camiseta",-10.509340804302889],["incluida",-10.509342333030757],["plantilla",-10.509353730263818],["inferior",-10.509366099588334],["préstamo",-10.509428181912025],["individuo",-10.509437300724105],["falsa",-10.50955581968904],["cruce",-10.509593470173032],["adecuado",-10.509682459711374],["independencia",-10.509792198890059],["esquina",-10.50999517531592],["foco",-10.510038076200686],["Castro",-10.510180970149882],["Granada",-10.510218413322823],["extrema",-10.510292958841491],["coali",-10.511443761180464],["valore",-10.51160315310285],["digo",-10.512346784707717],["portal",-10.51248867382059],["parecen",-10.513133805405296],["197",-10.51315608169557],["entreg",-10.513520845691424],["sonido",-10.513756464791959],["exacta",-10.514021119337745],["bio",-10.514250559300027],["Car",-10.514399837055368],["subraya",-10.514554932048984],["falla",-10.51475933099779],["69",-10.515393227848145],["civile",-10.515776165278707],["aparente",-10.516198585032381],["solar",-10.517556157004304],["levantar",-10.517615600920863],["aterra",-10.517851806549462],["limita",-10.518059019940353],["paro",-10.518361916093356],["crítico",-10.518403814062522],["argumento",-10.519296666002838],["micro",-10.520272761614141],["concejal",-10.520569174833621],["estadística",-10.520704723503243],["mascarilla",-10.520706383159334],["antecedente",-10.520709714675027],["capítulo",-10.520712419652586],["profunda",-10.520727172568353],["déficit",-10.520732273341693],["fui",-10.520745703889999],["Festival",-10.520793648692727],["cubano",-10.520882373091045],["árbitro",-10.521106909254414],["Bombero",-10.521272244936782],["Pi",-10.521869058490294],["micron",-10.522552059888216],["dic",-10.522716045719989],["choque",-10.52310677360339],["New",-10.523205567799174],["Ver",-10.52337758294993],["reconocer",-10.523593100210949],["reiter",-10.524592198781052],["junta",-10.525449607334206],["hogare",-10.526138511586028],["acudir",-10.526626359054859],["crítica",-10.52668223637001],["bi",-10.526924526540373],["Debid",-10.527147922777196],["Po",-10.52759354558009],["situacion",-10.528221635704973],["eficiente",-10.528605635247864],["enfatiz",-10.529119326911328],["nte",-10.529855178015229],["estudiar",-10.529994755928325],["demostrar",-10.530021650069976],["conclusi",-10.530163579150658],["denuncias",-10.530204196821106],["elevado",-10.530231611629134],["toca",-10.531939331694812],["Nuestra",-10.532207018400118],["FIFA",-10.532236280508922],["Nadi",-10.532404548936892],["guardia",-10.532556737497327],["Comercio",-10.532915479430958],["oz",-10.53380506199286],["ita",-10.53416161072738],["traslado",-10.534463558572604],["emocional",-10.535278149921355],["observar",-10.536579736303914],["moda",-10.537614091324924],["Romer",-10.538022737908603],["dej",-10.538589863919578],["ampliar",-10.538853811526144],["vale",-10.539277389842912],["temor",-10.541388471598406],["olonia",-10.541981962686876],["51",-10.54198630477114],["bandera",-10.54259758220978],["volum",-10.543519302788525],["parlamentario",-10.543691381266923],["territorial",-10.543780929049952],["combatir",-10.543905186126253],["mán",-10.543971149193391],["rechazo",-10.544557855630966],["nacimiento",-10.544638055935897],["Radio",-10.545023252543132],["acus",-10.545141852868658],["Parlamento",-10.546001150260022],["respaldo",-10.546096248742518],["diga",-10.546400439854308],["costos",-10.546754843227175],["test",-10.546956854435745],["consejero",-10.547125127734468],["producido",-10.547387812088921],["recuper",-10.547430809935301],["asumir",-10.5483043323237],["Señor",-10.548658541244983],["Flori",-10.548664826262971],["socialista",-10.549177349753986],["condenado",-10.549537783004581],["FP",-10.549581858550793],["ministerio",-10.551186590976023],["He",-10.551587682757146],["culpa",-10.551849829313312],["rama",-10.552695323361645],["captura",-10.554206519067396],["peti",-10.554963314960677],["INE",-10.55503795843882],["armado",-10.555150855531537],["Mucha",-10.555251261685502],["Netflix",-10.555590785635566],["excelente",-10.555590795331495],["Colegio",-10.555591142720438],["ambulancia",-10.555592979258115],["asesinado",-10.55566021821432],["Vox",-10.555706667606671],["músico",-10.555740124787047],["variedad",-10.555744353300511],["liderazgo",-10.556018191867434],["vecina",-10.556275527606822],["celebrará",-10.557206286670727],["terror",-10.557801193285556],["confes",-10.558039117812047],["chino",-10.560192747548044],["alimentación",-10.560253909149573],["Cambio",-10.560750998452068],["tranquil",-10.562870272622794],["entiende",-10.563196455639249],["depende",-10.563311939352419],["Reye",-10.563631172819743],["citado",-10.564649349809656],["adquirir",-10.565479684064616],["autoriza",-10.565825340170292],["cumpli",-10.565890314987827],["influencia",-10.566838397878502],["tecnológica",-10.567497504645713],["activista",-10.567604105985502],["recinto",-10.567693997011947],["Caraca",-10.567699281335605],["plantea",-10.567711468719764],["verdadero",-10.567849975353631],["PRI",-10.568271195710768],["ciudadana",-10.56830073241213],["amiga",-10.568689211886273],["Intern",-10.569776145371774],["roja",-10.569853142602229],["mencionado",-10.570177498651539],["Penal",-10.570957603400942],["Transporte",-10.571363750635498],["lógica",-10.572135153607434],["86",-10.57270251683108],["Rico",-10.572856511646924],["trataba",-10.575272483120326],["Luna",-10.57551271226151],["funda",-10.576606684336479],["coordina",-10.577225178071298],["Aten",-10.577497551580372],["terapia",-10.578075679007355],["IB",-10.578602932194773],["RD",-10.579191453830681],["cerebro",-10.57954227333984],["Champions",-10.579575573419142],["bebida",-10.579761614378022],["chileno",-10.579840579938235],["experto",-10.580138018278712],["presentan",-10.580143821922551],["Australia",-10.580567048494508],["verá",-10.580688746235658],["mediado",-10.581038958314984],["Punta",-10.581136639848793],["Barrio",-10.581999845164686],["toque",-10.58205476524372],["Canaria",-10.58261454723676],["detall",-10.583102749693282],["tabla",-10.583262042836296],["67",-10.58393883549717],["acumula",-10.584758400375769],["licencia",-10.58517495947418],["Peña",-10.585274256177733],["plantel",-10.585640315768174],["Ma",-10.585778643004062],["eague",-10.585782925658638],["colocar",-10.586219396898402],["Record",-10.58633754587457],["Tres",-10.587109783855997],["gerente",-10.587480135580666],["conducir",-10.587615083160651],["78",-10.588037743471562],["aprobar",-10.588298624256154],["Sus",-10.588389298373393],["acab",-10.588588793008682],["amplio",-10.589023043572183],["sesione",-10.589629017612143],["resultar",-10.589671486463917],["cambiado",-10.59013205225697],["frica",-10.59077122248271],["ur",-10.590846203153667],["garantiza",-10.591112555268372],["tuvi",-10.591124288284004],["occidental",-10.591738861524872],["cadáver",-10.59173886887185],["probabilidad",-10.591747357774247],["maniobra",-10.591769708667682],["significativa",-10.591777009888819],["vigilancia",-10.591799562729111],["famosa",-10.591845000294397],["agresor",-10.591983494151332],["viejo",-10.591984306435524],["Vega",-10.591996746771756],["Bolivia",-10.592048002951508],["barco",-10.59211670385047],["flujo",-10.59220919302715],["adicional",-10.59223905189696],["saludable",-10.592329048190555],["prevista",-10.592632393463958],["finaliz",-10.592911346493064],["eléctricos",-10.59351403766225],["afuera",-10.593676024159087],["53",-10.593993109739436],["sueldo",-10.594250028840083],["64",-10.594278161935833],["96",-10.594353066629118],["balance",-10.59441935324033],["nube",-10.595204945322363],["pos",-10.595724227086778],["Corea",-10.596053439918084],["activo",-10.596161837984003],["contempla",-10.59627551461384],["impus",-10.596692926072237],["arís",-10.597999186328254],["rente",-10.59888098889793],["escribir",-10.599675010106173],["escritor",-10.600362985561299],["61",-10.600520777917485],["Tu",-10.600952214715775],["supera",-10.601552422764694],["seleccionado",-10.602475127351688],["consideran",-10.602772092024729],["útil",-10.603921045761442],["Israel",-10.604086818787279],["Museo",-10.604091774891826],["papá",-10.60409952517293],["lamentable",-10.604138869463448],["renovación",-10.604402493460597],["cultivo",-10.604433346493543],["Claudi",-10.604456459588981],["fruta",-10.604653527143327],["72",-10.604994203201064],["actualiza",-10.605207288285026],["Municipalidad",-10.605449825139443],["venía",-10.605503350159395],["intercambio",-10.605573788160385],["Va",-10.605868035850616],["solicitado",-10.606046748027294],["plata",-10.606281587916628],["venida",-10.60662999258532],["suceso",-10.60729682853826],["alcanzado",-10.608175031354302],["Ar",-10.608366787149016],["habita",-10.608449375399159],["logro",-10.608748000561409],["permanece",-10.6089647433798],["salvar",-10.6090796134853],["acó",-10.609422817599341],["estándar",-10.6094392448095],["bordo",-10.609644268839787],["lateral",-10.609773725370724],["abandonar",-10.610226522338474],["Vi",-10.610401332788015],["demostrado",-10.610978192444536],["firmar",-10.611866409253865],["regula",-10.613048805048],["elimina",-10.613640843017292],["Martin",-10.613885372166276],["eres",-10.614583575722179],["extensi",-10.615212164012206],["Agreg",-10.615245780807445],["acudi",-10.615477434349824],["visible",-10.616398495717641],["comerciante",-10.616585036221508],["café",-10.616589349426944],["profundo",-10.616634553443994],["intensidad",-10.616677545650939],["pensamiento",-10.61679990973801],["alquiler",-10.616820781380833],["Londr",-10.616828816113266],["violento",-10.617017464842462],["corriente",-10.617137581265698],["expediente",-10.617240356558105],["bo",-10.617403876997571],["dijer",-10.617531974816808],["desaparici",-10.61760564649622],["mira",-10.617889147086485],["'.",-10.618345555172677],["abri",-10.61835000556124],["posicione",-10.619095989886194],["inseguridad",-10.619425666580243],["hecha",-10.61977429599502],["enfoque",-10.619842923785878],["tranquilo",-10.620505497069393],["Quier",-10.62051495231166],["salido",-10.620626766360594],["tradi",-10.621238295002552],["Gar",-10.621923410741672],["cumpla",-10.621956982568566],["revisar",-10.62208250319938],["revela",-10.622143275235214],["intensa",-10.62272697075709],["subi",-10.623105043891204],["emán",-10.62360600568378],["indicador",-10.624109721656799],["Mayor",-10.62438520047921],["comune",-10.624992833376101],["talleres",-10.625120477741419],["je",-10.625500447885452],["esposo",-10.627232288674742],["Regi",-10.628060785766323],["representan",-10.628972545084803],["directivo",-10.629111673972742],["femenino",-10.629242807853247],["residuo",-10.629243532666656],["transferencia",-10.629243737296683],["promesa",-10.629507857970353],["bicicleta",-10.629512522495123],["Feria",-10.629640124416925],["Cultural",-10.629881110679435],["registrada",-10.630023936775046],["malo",-10.632106168240568],["fi",-10.633480710849906],["moneda",-10.633576634791337],["eje",-10.633672711362394],["cuestion",-10.635319794189819],["cerrada",-10.636554713587106],["creen",-10.636959535355619],["acompañar",-10.63732703288355],["tura",-10.63771889866649],["afectar",-10.637874639914047],["repara",-10.63803423899579],["vicepresidente",-10.638253014957273],["responde",-10.639046252338483],["Nunc",-10.640229372338204],["eros",-10.640605259219651],["impulso",-10.641302409481291],["abordar",-10.641622746802561],["trato",-10.64186963885589],["ería",-10.642066176271374],["frecuencia",-10.642066765950752],["Feijóo",-10.642070834635042],["lectura",-10.642071859443346],["Gobernador",-10.642079257888238],["Gerard",-10.642153069233942],["Semana",-10.642233705373371],["supermercado",-10.642492940750774],["instrumento",-10.642596216695031],["recordado",-10.642643828469506],["Lorenzo",-10.642676394984324],["pasan",-10.642702527817079],["sacado",-10.642706393785526],["fila",-10.643132120829236],["imputado",-10.6436945884946],["asesor",-10.643850508231772],["techo",-10.644619413629862],["éste",-10.644686583978949],["Palma",-10.644711592709434],["cambia",-10.64484009811681],["humor",-10.645094522477892],["viviend",-10.645320648757018],["logra",-10.646279211416637],["reunir",-10.646300819884512],["asistir",-10.646652952898613],["63",-10.646839739266142],["avanzado",-10.647123206228976],["seguida",-10.648563018162427],["Krem",-10.649081876468667],["hoja",-10.651579819935169],["documenta",-10.6521107239953],["matar",-10.652130654148188],["lujo",-10.652274591665584],["relato",-10.652675529614074],["guía",-10.653383178883153],["combina",-10.653867642273326],["ofensiva",-10.654352801392406],["Guzm",-10.654526271016866],["Don",-10.654645691706417],["incidencia",-10.65481731518041],["interpreta",-10.654820603559923],["circuito",-10.654992588291528],["inteligente",-10.655050296588136],["republicano",-10.655055009726528],["envío",-10.655076074974222],["jugada",-10.6552348120691],["pierna",-10.6552912960418],["obligado",-10.655310676565918],["conducta",-10.655544989181763],["visit",-10.65583352395171],["mantendrá",-10.655905634374323],["74",-10.656416198084608],["socio",-10.657047157244083],["Du",-10.658733904640957],["graba",-10.658931083339686],["rechaz",-10.659656858625564],["Par",-10.6598403883846],["plante",-10.660706896474757],["trabajado",-10.661228251722996],["comparte",-10.661386965604185],["rdene",-10.661451156383164],["desarrollado",-10.66205045101959],["entregado",-10.663446915846393],["rey",-10.663620326273517],["rio",-10.663725920041596],["Mat",-10.66433250077097],["proyec",-10.664351134833412],["gama",-10.664353228651429],["expresar",-10.664730958370528],["orgullo",-10.664758008035246],["62",-10.665962565680184],["respetar",-10.66608332116849],["dirigi",-10.66690893471214],["financia",-10.66704768788318],["Mart",-10.667641102411253],["utilizan",-10.667812439218146],["explosi",-10.667939675836191],["triste",-10.668088193733237],["cirugía",-10.66820820485928],["56",-10.66846230830695],["secreto",-10.668533934976566],["enemigo",-10.66866227290878],["admiti",-10.668782826858365],["Fiscal",-10.669004611035923],["declarar",-10.66910442332944],["vestido",-10.669187176335022],["reconocida",-10.669211461808626],["subsidio",-10.669264315031036],["cotiza",-10.669727760070993],["expus",-10.67003895058412],["ingres",-10.670305771924438],["alcaldesa",-10.670336715917937],["cama",-10.670707010581195],["pierde",-10.67124292270806],["Mal",-10.672498573029188],["Air",-10.673627969306116],["River",-10.67421134217999],["Marian",-10.67616823925044],["disciplina",-10.677632635620313],["ponen",-10.677824874737365],["coopera",-10.679717158450103],["escuch",-10.68028751034872],["77",-10.681293760057395],["dinámica",-10.681470004473923],["venezolana",-10.681541522313822],["Guadalajara",-10.681541522593854],["tecnológico",-10.681542323726433],["consecutivo",-10.681542958306812],["patrimonio",-10.681545841803167],["pronóstico",-10.681552746267418],["Sociedad",-10.68155532115981],["antigua",-10.681570720535575],["testimonio",-10.681691571484308],["73",-10.68169419171288],["Boric",-10.68211418804528],["recibiero",-10.682401635479678],["existente",-10.68303842373351],["Catalu",-10.683050029911094],["cumplido",-10.68397671523093],["cometido",-10.684154623398431],["violenta",-10.68432627281042],["propone",-10.686291436970823],["quedará",-10.68676391891345],["ordenó",-10.687080561678812],["recoge",-10.687358841266684],["ñez",-10.687389767187355],["Lima",-10.687589145554483],["implementa",-10.687726888500114],["asociado",-10.688217974617597],["denunciar",-10.688797531063708],["sustancia",-10.690001485815017],["Quien",-10.690088121479327],["marcar",-10.690241009201497],["trans",-10.69086318765523],["pondrá",-10.690863629348621],["espacial",-10.69135128411422],["Vicent",-10.691662016418599],["capit",-10.692196268737298],["canciller",-10.694356421678423],["aje",-10.694861391708312],["quinto",-10.695005687221752],["periódico",-10.695055037535976],["Zelenski",-10.695055210708226],["Deportivo",-10.695056507717045],["gratuito",-10.695064070348351],["tragedia",-10.695069822707769],["Constitucional",-10.695091940147552],["Energía",-10.695164754249339],["ninguno",-10.695187542799514],["detenida",-10.695192768457122],["dictadura",-10.695223976917282],["colega",-10.695384738272267],["provoca",-10.695682958203385],["sitúa",-10.695696170149205],["realice",-10.695765495269978],["espectacular",-10.696221364212143],["comprometido",-10.69775154492098],["Massa",-10.697858019818064],["Servicios",-10.698298347142117],["ayud",-10.698565225365801],["creciente",-10.698636541679331],["Estadio",-10.69899256228926],["organizar",-10.699228397538025],["fundador",-10.699632869923661],["Pas",-10.700970075643017],["Cor",-10.701051224964395],["pies",-10.701333274070908],["operador",-10.70215402484356],["vot",-10.70258450837856],["provincias",-10.70281610860889],["siento",-10.703633799317034],["Ambient",-10.704066931427873],["demuestra",-10.704104613203747],["iban",-10.70536520209215],["enfrentará",-10.705565050834323],["Rodrig",-10.706686862048006],["conserva",-10.706740598955012],["indicar",-10.70701029819886],["Campo",-10.707281163935594],["Relacion",-10.708488133873567],["mover",-10.708724780997724],["secundaria",-10.708754394126377],["semestre",-10.708765011495771],["encuentre",-10.708769859362818],["sibilidad",-10.70877608060556],["idioma",-10.708812633990608],["contundente",-10.708819321321403],["numeroso",-10.70906633997251],["triple",-10.709108775590195],["compuesto",-10.709403913272038],["medalla",-10.70949833071677],["especializado",-10.709755407964575],["caus",-10.709787159039045],["trastorno",-10.71003320190143],["Ciudadano",-10.710229636461495],["leyenda",-10.710666756433817],["Cés",-10.71068348908852],["agrupa",-10.710990003510537],["aceite",-10.711021302113572],["Han",-10.711391985547227],["afrontar",-10.7114058292351],["Año",-10.711675551903273],["amistad",-10.711781929399574],["aportar",-10.712128751680815],["deje",-10.713292143297327],["riesgos",-10.71390882607066],["olvidar",-10.715041394548678],["version",-10.715308909347186],["asumi",-10.71577961430905],["grito",-10.716475224522283],["120",-10.71653526315987],["copa",-10.716813962635161],["cuadrado",-10.717299095496214],["probar",-10.718575207939445],["favorable",-10.719086453061358],["Existe",-10.719136921405754],["inter",-10.719474687785656],["bloqueo",-10.719678961703547],["Castill",-10.720682197039036],["universidad",-10.721454930356764],["decidir",-10.7218624019286],["amiento",-10.722319930150647],["problemática",-10.722642555237805],["tiroteo",-10.72264929095719],["obtenido",-10.722764171783002],["Teatro",-10.722937904411118],["consenso",-10.723070636684056],["queja",-10.723595102542838],["marido",-10.723929183997468],["basada",-10.724050014807949],["post",-10.724116913887826],["sufre",-10.724209872493272],["publicidad",-10.724657773594457],["afi",-10.725303828175544],["dedicado",-10.725526328091185],["señalan",-10.725638221504155],["certificado",-10.72612783011404],["complica",-10.726204533276192],["involucrado",-10.726287568465604],["mono",-10.72644527907341],["refleja",-10.726719323376487],["Ro",-10.727021018344903],["soporte",-10.727367523728947],["invit",-10.728454767711995],["59",-10.728929745099308],["mentira",-10.729901628872643],["oza",-10.730239981911065],["suyo",-10.730458583818008],["ch",-10.730751849900026],["sale",-10.731246350141848],["ponga",-10.733419000447526],["bono",-10.734535181427031],["cuándo",-10.73479397827385],["disputa",-10.735603972801295],["Núñez",-10.736727107491543],["aprendizaje",-10.736727713720505],["lengua",-10.736756869522697],["Oscar",-10.736764789167928],["Caribe",-10.736951381387918],["comunicó",-10.737028483047926],["cumbre",-10.737043790369547],["dominicano",-10.73705352182695],["Sub",-10.737086614031604],["correcto",-10.737309777114552],["bomba",-10.7376682332011],["Zona",-10.737744634185345],["terminado",-10.738171657126333],["defendi",-10.738399772632816],["conduc",-10.738484148328011],["viajero",-10.738676626239954],["contamina",-10.738676749541632],["notó",-10.738818911837846],["decide",-10.739185982249076],["once",-10.739320747808327],["pid",-10.739510083478667],["City",-10.739665154605714],["dirigir",-10.739675536845525],["Algo",-10.741032892279136],["generado",-10.741862907949836],["!”",-10.741978341417337],["fabrica",-10.74208934554501],["III",-10.742261681361226],["irá",-10.742642055161753],["qui",-10.742875079846517],["ter",-10.74329829600327],["emiti",-10.744035497538349],["acept",-10.744745643982167],["refiere",-10.744792351485355],["opositor",-10.745458865735053],["incorporar",-10.74569443656629],["confirma",-10.745846125211756],["compartido",-10.747537293341654],["determinado",-10.748175466780346],["destacan",-10.748210407154723],["relat",-10.74821920050174],["apoy",-10.749067403930946],["Occident",-10.749589214580027],["Hub",-10.74970015338219],["Pueblo",-10.750044065658168],["venido",-10.750991052658966],["agrícola",-10.751012808120983],["continente",-10.751012852980361],["Portugal",-10.751013125876142],["aborto",-10.751027289014921],["álbum",-10.751039228606139],["autonomía",-10.751051037968068],["artificial",-10.751081865626865],["humanidad",-10.751090946535118],["ganancia",-10.751202712445696],["concreta",-10.751280724870819],["naciones",-10.751469365153909],["mantenido",-10.751569105697207],["elevada",-10.751678685512836],["archivo",-10.751923023513651],["favorito",-10.75244872618245],["divisa",-10.752570597207537],["terrorista",-10.753455060158341],["Oaxa",-10.7535334846028],["quita",-10.753711576506099],["ecosistema",-10.754601687654224],["fiscalía",-10.754618171644218],["jugado",-10.754678388207584],["superado",-10.754841208824006],["Arena",-10.754918200446955],["equilibrio",-10.75522399395767],["funcionaria",-10.756230203991414],["Jame",-10.75661367169215],["Director",-10.757930524269252],["preso",-10.758322196765684],["ic",-10.758425185698366],["contado",-10.758636471693587],["ésta",-10.759150150937261],["tiro",-10.760002378540733],["ecos",-10.760207907345396],["documental",-10.760454479148024],["notable",-10.761365854140163],["odio",-10.761390698998571],["libra",-10.761505528982955],["usado",-10.761737181184007],["Víct",-10.761898017544443],["plano",-10.761979180225204],["organizada",-10.76226118951638],["acudier",-10.762641030224385],["voce",-10.762980700053248],["ilusi",-10.76307535196901],["billete",-10.763397151167805],["tradicionales",-10.763553410641203],["descubrir",-10.763927680973744],["criptomonedas",-10.764072444095753],["denunciado",-10.764444648809029],["adicionales",-10.765079947072934],["escándalo",-10.765505541305783],["TikTok",-10.765505908388667],["uanajuat",-10.7655062838232],["fábrica",-10.765511096899854],["illa",-10.765539196620633],["italiano",-10.765547278541876],["Juzgado",-10.765618350989214],["Marru",-10.765621433247688],["procedente",-10.765671530930696],["masa",-10.766137302067424],["atractivo",-10.766256596026487],["fabricante",-10.766256739523463],["recalc",-10.766349611753858],["Puebl",-10.766490505644787],["libera",-10.766500650393052],["pris",-10.767459558636098],["defendido",-10.767547804362028],["investigar",-10.768187035192046],["manejo",-10.76824869362902],["registra",-10.768361882351698],["Flores",-10.768773813678738],["surgi",-10.768948859205508],["viaj",-10.769495911692331],["vinculado",-10.769930315010175],["evaluar",-10.770075001735542],["Primero",-10.770102656277924],["inunda",-10.77030482060563],["Rui",-10.770720915984823],["lleg",-10.771367350101979],["hi",-10.77159821243404],["ábam",-10.772348153153354],["Dij",-10.773160356613836],["conectar",-10.774365758188965],["form",-10.774920282651713],["arquero",-10.776216441501038],["iami",-10.777311935916119],["leve",-10.778244240075576],["brinda",-10.779029366094576],["circular",-10.779393008220834],["provocado",-10.779690422485846],["universitario",-10.780211412077982],["científica",-10.780211416673609],["Oficina",-10.780211420534453],["gremio",-10.780211631328736],["satisfac",-10.780266865334681],["calendario",-10.780351280331763],["fraude",-10.780495666406786],["Carolina",-10.780497499521791],["ertamen",-10.780993995799832],["Capital",-10.78123613547264],["eventual",-10.781471821914966],["videojuego",-10.78164025268094],["despacho",-10.782076816062855],["escucha",-10.78207868893409],["caído",-10.782254853115147],["inversor",-10.782367908737124],["verse",-10.782629182263705],["disputar",-10.783097597092507],["Hug",-10.783102164331876],["doce",-10.783115795006008],["Somo",-10.783247585496856],["bol",-10.78327688453219],["pension",-10.783374683908779],["dedica",-10.78397814505391],["nacionalidad",-10.784372213650855],["elenco",-10.78445456318359],["causar",-10.785383055820759],["espíritu",-10.785728544348649],["rebote",-10.78580147521999],["evita",-10.786101700626809],["98",-10.786168094431691],["euro",-10.786250657523254],["transi",-10.786313323447459],["relativa",-10.786542826198417],["ctor",-10.787708250054372],["basado",-10.787792357920594],["basura",-10.787842942687421],["guarda",-10.78796726071813],["caro",-10.788022710217465],["Alon",-10.78934578885168],["adapta",-10.789379870551],["carbon",-10.789525585682837],["presentaba",-10.78971729905475],["eficiencia",-10.790549082197376],["consultar",-10.791223615191536],["Bull",-10.791548841550037],["llegaba",-10.79162287915426],["creer",-10.791688753116812],["hici",-10.792692177451318],["participan",-10.79281259810814],["Ca",-10.792833839098744],["Morale",-10.79320479372784],["daba",-10.7937114183983],["Agua",-10.794816011365281],["?”",-10.79486398629166],["autónoma",-10.79487520690926],["plástico",-10.795109855598774],["masculino",-10.795137386817771],["Universitario",-10.795138922598378],["Electoral",-10.795143603342071],["Bi",-10.795146627246105],["extraordinaria",-10.795152180084374],["numerosa",-10.795220850969454],["falso",-10.795246943113494],["aban",-10.795277150700326],["reúne",-10.79534983657614],["Ayer",-10.795550582028575],["gestionar",-10.795925782475551],["sabor",-10.79597642192391],["negra",-10.796141024673311],["MLO",-10.796337728563596],["CO",-10.797248747606481],["09",-10.797522574885733],["recib",-10.797957564699125],["intenso",-10.798066779444332],["supo",-10.799455615934455],["BA",-10.799534881822572],["colore",-10.799592782581268],["receta",-10.800239716590307],["correr",-10.8004595414606],["Divisi",-10.800655773874325],["dor",-10.800684749127445],["desempeño",-10.800849704043227],["alicia",-10.800850956877863],["acumulado",-10.80102473427057],["gusto",-10.801691245480926],["traer",-10.801747956638032],["boleto",-10.802358274387107],["pacto",-10.802688370356996],["explota",-10.80393528640541],["evilla",-10.80468212467261],["utiliz",-10.80510602292541],["papa",-10.805417338030336],["82",-10.806340463523807],["crí",-10.807817438679919],["88",-10.808217565206686],["Or",-10.808693114289637],["Especial",-10.809396044393417],["íba",-10.809750316765287],["entra",-10.809952741128182],["tapa",-10.810223916644649],["´",-10.810243269301383],["aéreo",-10.810243781078047],["académico",-10.810288300580794],["Superior",-10.810288909624873],["Distrito",-10.810289476452423],["belleza",-10.810290591909984],["exceso",-10.810308522241137],["Academia",-10.810311560337894],["alimentaria",-10.81032574798422],["consigue",-10.810325875835877],["Bogot",-10.810347811346428],["(…)",-10.81036475950517],["reducido",-10.810612788065967],["recuperado",-10.81062272262023],["OMS",-10.810647438996124],["Mál",-10.810746415594124],["Laur",-10.810772807187163],["siniestro",-10.810967136198196],["célula",-10.811152065072005],["estré",-10.811314256973013],["Merced",-10.811325199246273],["tenció",-10.81152042976123],["tratado",-10.811538283277898],["Mercado",-10.811909803473128],["determina",-10.81191990639864],["escase",-10.812066615598543],["descubierto",-10.812220334510638],["expuesto",-10.812323316136617],["invertir",-10.81263703073933],["bonos",-10.812896141743837],["permitido",-10.813333320592747],["botella",-10.813517797098818],["siones",-10.813820604998266],["cumpl",-10.81384625539396],["iniciado",-10.813984860369484],["traje",-10.814017288685898],["creador",-10.814108968111746],["esperado",-10.814514357689033],["ilidad",-10.814546560438522],["ayudará",-10.815818900664954],["Bien",-10.815999286338316],["medicina",-10.81646075323117],["sospecha",-10.81653321081573],["cena",-10.816772323944269],["estreno",-10.816827637108146],["ci",-10.817409737191824],["murier",-10.818101548823915],["Vial",-10.819353922859962],["BC",-10.819608734037025],["retiro",-10.820768166097803],["berg",-10.821072495547835],["Veracruz",-10.822080122123369],["ancho",-10.822102595462432],["defiende",-10.822182415332051],["Bo",-10.824339672323093],["viva",-10.824756636749868],["crece",-10.824822868557938],["prometi",-10.825011232714555],["bajó",-10.825105463644814],["Política",-10.82567307207781],["pintura",-10.825678134093073],["Seguro",-10.825686375548106],["Tucu",-10.825788435502837],["Rural",-10.825817021406483],["ingeniero",-10.825817680840519],["jurado",-10.82596618562721],["97",-10.826059691936985],["incrementar",-10.826139886093543],["aspirante",-10.82618376077023],["manifestado",-10.826406304026804],["provocar",-10.826563060106484],["acompañamiento",-10.826659688794258],["Azul",-10.82732562819072],["ung",-10.82738154479269],["futura",-10.827428370339362],["Latino",-10.827626289024437],["Lion",-10.827995229207822],["urbana",-10.828181429151062],["apoya",-10.82827807025084],["veía",-10.828308253599168],["vivido",-10.829134754213046],["comprador",-10.82931961275564],["Alto",-10.82960669444034],["hablado",-10.830282228745759],["quitar",-10.830650635291217],["dejará",-10.831365866267486],["disfruta",-10.831981548254213],["€",-10.832799028037059],["foro",-10.83334615015816],["peligroso",-10.833541690011357],["disputado",-10.833735177074939],["remate",-10.835416797683116],["tuv",-10.835912276059531],["Casi",-10.835966951678195],["otorga",-10.836152646040551],["Roma",-10.836842512180446],["particulares",-10.836956484802684],["importar",-10.837022759254069],["candidata",-10.83786268136833],["lanzado",-10.838743306992438],["alarma",-10.838951428732724],["vencer",-10.839337519160114],["quinta",-10.839613899961032],["Can",-10.839636339525402],["descarga",-10.839864892043083],["atacar",-10.840369084380352],["brote",-10.841117967630828],["participará",-10.841175933734085],["estratégica",-10.841297923337908],["izquierdo",-10.841297923741536],["específico",-10.841297958700668],["vacío",-10.841298497697434],["artística",-10.841299981437302],["adquisi",-10.84130168984927],["Profesional",-10.841318230291819],["corredor",-10.841333986597359],["comisaría",-10.841380870242872],["Quién",-10.841410738662319],["Había",-10.841417478420752],["destinada",-10.841429304311154],["propuesto",-10.841589305182964],["refugiado",-10.841661557375971],["consiste",-10.841803011328619],["expansión",-10.842122180366024],["Negro",-10.842545169765387],["mezcla",-10.842793091629208],["mini",-10.843117567164096],["novela",-10.843579316106172],["colectiva",-10.843778442282083],["disminu",-10.843819448100959],["prohibi",-10.844497352727359],["paga",-10.84451003467964],["corresponden",-10.845579136814877],["elabora",-10.845711097148387],["romper",-10.846801639477775],["mantenga",-10.847050952284771],["sindical",-10.848324694080233],["tación",-10.84857886078778],["comprender",-10.848724673873633],["convocado",-10.849141263291914],["emocion",-10.849202624636032],["ki",-10.84940417475573],["ño",-10.849864193634245],["menud",-10.849989566973495],["exige",-10.85060064289755],["pico",-10.851590633005586],["brind",-10.851939849870679],["escapar",-10.851954025192644],["coloca",-10.852368821693002],["competir",-10.852790329856536],["argument",-10.853800979500281],["sorprendi",-10.855212709805924],["Be",-10.855265706942657],["ligera",-10.855273481146124],["puntualiz",-10.85536151571968],["Camp",-10.856559904132192],["pelo",-10.856707101395703],["vivía",-10.857170033972071],["profundidad",-10.857170949234291],["Guerrero",-10.857171647305762],["ruptura",-10.857172957908606],["universo",-10.85717564460975],["infancia",-10.857175947175065],["Alfred",-10.857193196299274],["muchísimo",-10.857196680739834],["Control",-10.85747446964713],["masiva",-10.8580106195926],["publicada",-10.858323773883214],["dirige",-10.859028737974171],["museo",-10.859078009660301],["terminal",-10.859246426035192],["71",-10.859839912729576],["manten",-10.860172101016937],["900",-10.860880069975185],["aprobada",-10.861417378008554],["81",-10.861466282012712],["contaba",-10.861942799750585],["Teng",-10.862061622198635],["detalla",-10.862846596224891],["atentado",-10.863617875273576],["costado",-10.864292881009185],["polvo",-10.864390997528918],["sienta",-10.864477521192782],["disputará",-10.866027481703414],["recorrer",-10.866052181472519],["emoción",-10.86633757420573],["demostr",-10.86661220297548],["recomend",-10.86668865930205],["movil",-10.867344578202074],["rehabilita",-10.86843345177688],["concluir",-10.868450274374444],["aclarar",-10.869084187006834],["Oro",-10.86938382690969],["saldo",-10.870258839244064],["grati",-10.870542214238817],["dije",-10.870648591112088],["comprobar",-10.871232901996837],["Mauric",-10.871906874267228],["colaborador",-10.872088228132778],["Gali",-10.87262893636554],["fruto",-10.873214362857457],["ayuntamiento",-10.873300104257508],["juventud",-10.87330012512431],["Torneo",-10.873302539118981],["climática",-10.873305014240778],["precedente",-10.87331084777615],["culpable",-10.873378283837642],["especializada",-10.873381169359192],["transparencia",-10.873479847016933],["critic",-10.87362233172243],["coordinador",-10.87370905614195],["estableci",-10.873775162602747],["Unite",-10.873806723596946],["ormalidad",-10.873886208882727],["Cuenta",-10.874117270055898],["Digital",-10.874333072655466],["compras",-10.874433132702015],["Hondur",-10.875612256748738],["08",-10.875620970934737],["vocero",-10.87612324962154],["2000",-10.876856109938544],["ventana",-10.876966873875325],["Marina",-10.877453095581586],["renta",-10.87821920061599],["convivencia",-10.87899599287525],["risa",-10.87905017464425],["investigado",-10.879227560994266],["Hé",-10.88014668637425],["tán",-10.880912231104503],["conservador",-10.881384655622076],["correo",-10.881865932395527],["implementar",-10.881975583766675],["Mesa",-10.881992039788313],["agrega",-10.88296837148619],["salvo",-10.883229796990179],["veinte",-10.883823152544608],["Asia",-10.883889072067955],["celebrado",-10.883992180061256],["cariño",-10.88464970765543],["the",-10.884819652630007],["parecido",-10.885898255863985],["Comunica",-10.886156759050916],["presta",-10.886508948284533],["Señal",-10.88654951447287],["VI",-10.886842217777318],["sencilla",-10.887883858561327],["bal",-10.889411676453573],["diplomática",-10.889693407463358],["iglesia",-10.88969342062046],["jurídico",-10.889694093243662],["riqueza",-10.889698687758553],["motocicleta",-10.889703832692412],["comité",-10.889706783554512],["mascota",-10.889725860954385],["teoría",-10.889728369039432],["Argentino",-10.889749476615755],["iPhone",-10.889772314886415],["significativo",-10.889779593858684],["administrativa",-10.889808926806129],["Ourens",-10.889967684171273],["equipamiento",-10.88999546376807],["creció",-10.890303900032992],["manifestante",-10.89038907675744],["imponer",-10.890547263499531],["duría",-10.89077592959262],["bombardeo",-10.890856580929283],["Irá",-10.890898468972878],["Valenciana",-10.890922870164715],["conforme",-10.89095994370204],["toc",-10.891128957275452],["predio",-10.891588659424528],["francesa",-10.891731030986124],["viajaba",-10.891937207442062],["enseñanza",-10.893384579353603],["encargada",-10.893772305087591],["robar",-10.893921145395163],["lanza",-10.893954261025481],["enlace",-10.894536869266577],["almacena",-10.89475306128389],["leche",-10.895417696544612],["eta",-10.895558759143402],["mirar",-10.895845446564039],["buscará",-10.896604346287347],["MW",-10.897204783504428],["obvia",-10.897542149555942],["India",-10.897629694525985],["Rivera",-10.897913423842176],["caminar",-10.898089548247688],["operar",-10.898848003827101],["dominio",-10.900541321915227],["comuna",-10.900826078342325],["atendido",-10.901452295027532],["comunicar",-10.902116873100418],["cable",-10.902360522320743],["Local",-10.902864069047379],["tocar",-10.90301567310491],["convers",-10.903116609602433],["Fi",-10.903187241783591],["suspensi",-10.904127847597291],["edil",-10.904499298222042],["custodia",-10.904751744958752],["precipita",-10.90510373738283],["situado",-10.905144891735114],["astro",-10.905294278002422],["Obra",-10.905996201851593],["potente",-10.906312893804975],["agricultor",-10.90636017126469],["diligencia",-10.906361065977844],["delegado",-10.906369567050547],["piscina",-10.90637177355622],["huelga",-10.906383748271626],["Español",-10.90638974586027],["acontecimiento",-10.90639078847175],["renovable",-10.906391830237679],["Orteg",-10.90639192642285],["directiva",-10.906397103599573],["Herrera",-10.906407677692767],["emprendimiento",-10.906407811898273],["licita",-10.906562695219836],["dormir",-10.906589223652198],["CEO",-10.906666647501105],["embarazo",-10.906690423596228],["Alguna",-10.906921473686836],["variable",-10.907006710946884],["madera",-10.907075108020898],["restante",-10.907081227620356],["dulce",-10.907249130716291],["cruzar",-10.907293595210938],["mueve",-10.90732485748146],["querer",-10.90746688625918],["insumo",-10.90759509784841],["Blanco",-10.907689531560282],["instalar",-10.907756743058183],["brecha",-10.908474778972359],["usan",-10.908608202224745],["Europeo",-10.909654397023047],["huella",-10.909736294496984],["reportado",-10.910242180975494],["continuó",-10.91120310333669],["83",-10.911649241552473],["BB",-10.912133992552324],["92",-10.912211949991711],["financiamiento",-10.913120986052895],["Manch",-10.913318066943749],["sugiere",-10.913344847274075],["tar",-10.91400759142245],["84",-10.915516195255737],["Com",-10.919519815418951],["solucionar",-10.919731588871691],["Muñ",-10.919771817656134],["pasaba",-10.920666519912213],["programado",-10.920881733771179],["landa",-10.920975674619838],["anticip",-10.921059700857],["alma",-10.92140281162764],["tomada",-10.922935888466617],["democrática",-10.92326123760196],["jurídica",-10.923309225982493],["humanitaria",-10.92330923307257],["nublado",-10.923312800128521],["Jujuy",-10.923320016598069],["sequía",-10.92332361967366],["Campeonato",-10.923345571351902],["voluntario",-10.923529523775022],["Ruta",-10.92355000963041],["masivo",-10.923579130243718],["acompañada",-10.923620442565085],["núcleo",-10.92366116124726],["Macri",-10.923782157214088],["vieja",-10.924182907873861],["top",-10.924630074369675],["aumentado",-10.925126543277504],["Tri",-10.92631435487441],["pi",-10.926482220465717],["transacci",-10.92655882969827],["Segund",-10.926583921588561],["recurrir",-10.927348792711044],["prenda",-10.928471185057251],["descubri",-10.929061915005263],["º",-10.9298140781232],["explican",-10.93030866405556],["mentó",-10.930443336080053],["lidera",-10.930488353917053],["inaugura",-10.930768982440107],["incluir",-10.931058718584994],["91",-10.93140034143922],["constituye",-10.932028989859553],["adaptar",-10.932879375781704],["asalto",-10.933250995262393],["anteriormente",-10.933255780884412],["china",-10.933685364145779],["panor",-10.934134239701208],["Q",-10.934237805382864],["propias",-10.934327392951097],["Silva",-10.934401005517955],["aérea",-10.935547231543012],["reclama",-10.935802443139757],["Orient",-10.937165859124477],["publicar",-10.939089679749687],["levanta",-10.939289644344303],["analiza",-10.94041692158385],["cinta",-10.940500909740031],["abuelo",-10.940507897368818],["ª",-10.940550605017213],["compleja",-10.940551149760573],["Oficial",-10.940552820127566],["juvenil",-10.940553123980905],["acepta",-10.940554529619543],["Vladimir",-10.940556211949342],["columna",-10.940556965615361],["goleador",-10.940871453456602],["persecu",-10.940888721821462],["temprano",-10.940963966157451],["tejido",-10.941005930808586],["orgulloso",-10.941834739719152],["concretar",-10.941927725303783],["More",-10.942133764794715],["deterioro",-10.942193026651527],["giro",-10.942726302063301],["PAN",-10.943467377341928],["productivo",-10.94386248383244],["migo",-10.944139240614376],["cam",-10.944388100785552],["causado",-10.945107694057768],["cura",-10.945159116153587],["corre",-10.945702626791281],["Nº",-10.946177499867392],["Sport",-10.946365233131118],["cien",-10.946434652734226],["Fren",-10.946929745736846],["comenta",-10.947173876315553],["ino",-10.947413686114624],["tendr",-10.947425422170094],["venció",-10.948178767722766],["tas",-10.949036342066389],["cuest",-10.950320467886073],["atleta",-10.950328646513118],["caracteriza",-10.951175094116575],["ingresa",-10.952229954859764],["seria",-10.952506032456604],["diseñado",-10.952939095737882],["permit",-10.95409269163574],["Mayo",-10.954463274703603],["mex",-10.95659223549789],["Libertad",-10.956770190219764],["sensible",-10.957886189322533],["parada",-10.957897111410912],["instruc",-10.957943928571517],["democrático",-10.958049242330418],["bancaria",-10.95808131821611],["•",-10.958094464666337],["colombiana",-10.958094616996519],["preliminar",-10.958102208462552],["Vázque",-10.958103014739839],["extraordinario",-10.958105229067778],["intérprete",-10.958113325681104],["hurac",-10.958158211769835],["cercanía",-10.958208140608633],["espectador",-10.95843950116014],["felicidad",-10.95846122936717],["fortaleci",-10.95846233850401],["lenguaje",-10.958468049422777],["gestione",-10.958561719468891],["propus",-10.958569785668999],["Nicarag",-10.958648502387625],["avanzada",-10.958707787557241],["Poco",-10.959171957288847],["capac",-10.959451364182186],["dispus",-10.959479201854485],["exitosa",-10.959619661201634],["armada",-10.959626989435826],["borde",-10.959877850362401],["expresado",-10.960050978283228],["exigi",-10.960145508140284],["disminuir",-10.961226072957452],["Sabe",-10.961661468097818],["juzgado",-10.961694097935103],["festejo",-10.961895346923749],["visual",-10.963593334781663],["taller",-10.963912051373104],["ham",-10.964053218455337],["agradecido",-10.964199162112191],["generan",-10.964503589880023],["ment",-10.964586572208901],["asisti",-10.964632756168928],["aerolínea",-10.965626601669156],["pol",-10.966416226508432],["Sal",-10.966441454937222],["determin",-10.966959272478327],["buscaba",-10.967873489890847],["invers",-10.971488577092213],["GP",-10.971783326333258],["ofrecerá",-10.972192379656658],["cha",-10.972204825015506],["umbre",-10.972567605192252],["caballo",-10.972798140636812],["autos",-10.972830382523018],["dona",-10.973305216979053],["cartel",-10.973377837026135],["concluye",-10.975310793263521],["demócrata",-10.97546582519551],["frecuente",-10.975634517278127],["estratégico",-10.975951607561356],["magistrado",-10.97595160853518],["Autónoma",-10.975951608554183],["magnitud",-10.975952222005448],["turística",-10.975953528023378],["Código",-10.975962504148425],["vigor",-10.975976983308229],["huevo",-10.975979141851653],["Médico",-10.975980362311413],["forestal",-10.97598369706201],["cubana",-10.975989928981106],["Donald",-10.976003281753886],["asiento",-10.97612180762189],["ndroid",-10.976283626340322],["Olímpico",-10.976838743920226],["volante",-10.976971085146864],["hor",-10.977404643757614],["externo",-10.977433216202174],["barrera",-10.978045477647324],["sirvi",-10.978236541286314],["camione",-10.978427745560818],["funcionar",-10.978468910966829],["convencido",-10.978629490477125],["frenar",-10.97874434036331],["puntual",-10.979293417787797],["Personal",-10.979610359018924],["ánimo",-10.97977961496748],["elaborado",-10.979811423151965],["sepa",-10.980147596854803],["emitido",-10.980503706485123],["manual",-10.980932137513527],["Macro",-10.981084872064727],["Mexican",-10.98190155184809],["sostener",-10.982456705698937],["contiene",-10.982481227035679],["derivado",-10.982652331235382],["And",-10.982700041081092],["pudi",-10.98284964972624],["transformar",-10.982950591842608],["abandon",-10.983005090694746],["anotar",-10.98330893839625],["Verde",-10.983397000625878],["jubilado",-10.983561706967016],["iruela",-10.983654179378881],["software",-10.98375497887607],["acompaña",-10.983778487185818],["legado",-10.983923031292456],["GT",-10.984455949551897],["sext",-10.984891294703433],["electo",-10.985775598279186],["crecie",-10.985969794842923],["zar",-10.987064444116045],["vende",-10.987849596113104],["pelear",-10.989349670083397],["Ban",-10.989876209211854],["pasaje",-10.990056531094375],["Univers",-10.992525290879852],["Hid",-10.992761424697505],["93",-10.993043822181171],["moción",-10.993345031199357],["Play",-10.993656981412874],["Agust",-10.993938802605763],["rutina",-10.994088242299988],["Quizá",-10.994133925715152],["economista",-10.99413619714943],["Alianza",-10.994139533460855],["Área",-10.99415256410051],["Black",-10.994153667275611],["Monterre",-10.994174662785285],["fórmula",-10.994181883348581],["asesinada",-10.994186128622573],["equivalente",-10.994199615723943],["ww",-10.994210318168834],["compart",-10.994278399242704],["complicada",-10.994510775531243],["Arabia",-10.994816915996251],["ección",-10.994921534028345],["entretenimiento",-10.995081110090883],["comenzado",-10.995133695568695],["mari",-10.995219252690395],["esper",-10.995249398315465],["mina",-10.99529322319691],["bancada",-10.995851306481399],["comodidad",-10.996356874181586],["observ",-10.996639988652513],["secuestro",-10.997166251843321],["cursos",-10.997242571857967],["Bolson",-10.997516961558585],["Estaba",-10.997597700954314],["To",-10.997642655511232],["obligatorio",-10.998779149103719],["encanta",-10.999051648329361],["absoluto",-10.999070498928967],["Ki",-10.999152178499003],["facilita",-10.9993437048115],["gesto",-10.999814191500095],["Jon",-11.000120856862052],["OS",-11.000159638691171],["trabajadora",-11.000440959108587],["sta",-11.00157661910309],["cost",-11.00180667822702],["morir",-11.001921439976694],["alert",-11.002210927054865],["ester",-11.002534985564564],["bala",-11.002780992485224],["acompañ",-11.002977824518673],["necesitaba",-11.002998159107639],["indican",-11.00346918979007],["repetir",-11.00349617138955],["jefa",-11.003846052743262],["arco",-11.003986814224163],["Sanidad",-11.004343752975272],["ML",-11.004654914552317],["rebaja",-11.00493677121743],["flore",-11.005555794131038],["cobrar",-11.00589746568166],["eleva",-11.006148062144636],["multi",-11.006346560417434],["posesi",-11.006727238500662],["instal",-11.007168716337105],["meter",-11.009711237494704],["ejecutar",-11.010094998833335],["ines",-11.011566981433074],["futbol",-11.012112999705167],["iza",-11.01216608001157],["héroe",-11.01260521224108],["automática",-11.012650082384429],["británica",-11.012651960130274],["monetaria",-11.01265281925967],["YouTube",-11.012653620130834],["perteneciente",-11.012659950616923],["Reserva",-11.01266024854322],["comunitario",-11.012664121256758],["laboratorio",-11.012665672892851],["Balear",-11.012709862595615],["beneficiario",-11.012735779616223],["Asunto",-11.012867806489206],["Industria",-11.01289256579396],["Alfons",-11.012972186750002],["Historia",-11.013041468993581],["seguía",-11.013042864389497],["exigencia",-11.013078012459518],["dedicada",-11.013249997647891],["bienvenida",-11.013324482442332],["compartida",-11.01346525684485],["temprana",-11.0137778850464],["Libertador",-11.01407431094886],["fo",-11.014290733940966],["extranjera",-11.014432124993224],["suba",-11.015298632711756],["comentado",-11.01575767633003],["kovic",-11.01579551145472],["sosteni",-11.016327235341208],["EL",-11.01653107819915],["gigante",-11.016638791568514],["manejar",-11.017010104970826],["desarrolla",-11.017303628088106],["Patrici",-11.017703880327158],["ascenso",-11.01807350794189],["sumado",-11.019992092948394],["unta",-11.020247872017425],["excusa",-11.021036917122935],["tercio",-11.021264642206642],["Federic",-11.022764072592183],["dur",-11.023075695985689],["bús",-11.02380232179654],["GB",-11.02450009283932],["panel",-11.024756046358288],["estimado",-11.025166213386674],["comisiones",-11.025898966866695],["discrimina",-11.026148037119881],["separado",-11.028197855478055],["quedaba",-11.028926012459666],["integrado",-11.02918944040629],["ica",-11.029315531391527],["Chica",-11.030013246060822],["beca",-11.031001017658356],["patria",-11.031494665398409],["helicóptero",-11.031519868752122],["amistoso",-11.03151994894746],["Generalitat",-11.031520068096041],["Emergencia",-11.031521263188328],["certeza",-11.03152239353535],["legislativa",-11.031543447271263],["vestuario",-11.031544856196994],["reemplazado",-11.031545071721627],["integrar",-11.032497702909899],["palo",-11.032524480839307],["Hotel",-11.03285707017054],["Soy",-11.033122437640785],["atraviesa",-11.033128554991949],["Star",-11.033178087334697],["gnacio",-11.033182692861738],["calificado",-11.033251794651001],["Park",-11.033557233949793],["atacado",-11.03413721344415],["echar",-11.03429090494941],["retorno",-11.034450428789764],["nave",-11.034487979778724],["destacada",-11.034719250645006],["mapa",-11.035108887342862],["ilumina",-11.035517677909764],["ruido",-11.035600721964602],["villa",-11.035811504544423],["débil",-11.036078940175909],["sigla",-11.036188502435902],["amparo",-11.036579497985489],["escaño",-11.03664524596342],["Tele",-11.03722578665636],["ocupar",-11.039613340638475],["amante",-11.039792534797764],["estrecha",-11.040239314728364],["localizar",-11.040413307378682],["explicación",-11.04075462822866],["hablan",-11.041295933384404],["Pa",-11.041490088655983],["cancela",-11.04151537376583],["cómodo",-11.041634893681941],["dependien",-11.041635847725514],["rumore",-11.04268682622982],["fija",-11.042695747871859],["ford",-11.043594965554346],["ónica",-11.044352291085822],["Foto",-11.044947331705625],["implicado",-11.045137363682793],["avanz",-11.045149587591457],["exhibi",-11.045703685794328],["estancia",-11.046235819802185],["tri",-11.046317743602485],["05",-11.04655402175677],["Mejor",-11.046582821147926],["AP",-11.047015908207753],["patrulla",-11.047242751984744],["condado",-11.04790195742648],["aro",-11.04795989647135],["BI",-11.047974294400712],["humo",-11.048172311911465],["traslad",-11.04873832790226],["otable",-11.048821794928697],["alcaldía",-11.048893594398649],["cri",-11.049734967667463],["precau",-11.050298831917258],["temática",-11.050324101610649],["jueza",-11.050451699501021],["irregular",-11.05064966220035],["ingrediente",-11.050750661132614],["hábito",-11.050752478828326],["Secretario",-11.050752678102386],["trayecto",-11.050753085141205],["Vera",-11.050796328710852],["Movimiento",-11.050846089186342],["carro",-11.05085981187441],["Pilar",-11.050873926546888],["Leonard",-11.050892922629837],["Proyecto",-11.050901096613636],["peruano",-11.050915126329627],["apartado",-11.050931075381925],["atacante",-11.051199346726387],["amarillo",-11.051336337396307],["dieta",-11.05148636587242],["patio",-11.05153534478475],["impresionante",-11.051550635754957],["pared",-11.051657748975055],["pool",-11.051755593266956],["aña",-11.05180113099668],["fiscale",-11.051819459524193],["Añadi",-11.051996232882972],["niega",-11.052379878245397],["Bal",-11.052548644863489],["atiende",-11.053090265066768],["Vél",-11.053915368211282],["saldrá",-11.054042352114726],["escuchado",-11.054099609262765],["agregado",-11.054141180708044],["desfile",-11.055461194044634],["Franco",-11.05585284442756],["IA",-11.056348029174373],["Claro",-11.05635838090802],["94",-11.057276542999695],["06",-11.05777304904278],["renovar",-11.057883908654553],["Mo",-11.057922610487854],["importe",-11.057994195129883],["estuviera",-11.058198918637267],["desigualdad",-11.058281733069212],["desarrollará",-11.05986955609918],["reaccion",-11.060227340126682],["bosque",-11.060443614511856],["anuncia",-11.06120077665677],["votante",-11.061871891072133],["Ó",-11.061885876089924],["considerando",-11.062933457746427],["Ber",-11.06339454600241],["preocupado",-11.063397313825975],["atriz",-11.06348818025026],["CC",-11.063548807736517],["proporcionar",-11.064136754302494],["Press",-11.064191828377279],["contribuir",-11.064289024800297],["Goberna",-11.064431667001363],["yendo",-11.065319788402485],["laborale",-11.065428710961301],["ván",-11.065587090553537],["complet",-11.065776656294702],["incluy",-11.06623884648128],["acordar",-11.066850142604935],["Lara",-11.068248020882752],["inas",-11.068292791885783],["Av",-11.06837530601309],["Max",-11.06847107584041],["igencia",-11.068787774788818],["sinti",-11.069251087223885],["poderoso",-11.069411978466484],["autónomo",-11.06974470832512],["oblig",-11.069788512331893],["optar",-11.069837689890537],["congresista",-11.070126838521377],["referido",-11.070165504011985],["imón",-11.070216360309704],["iraní",-11.070339650873352],["académica",-11.070358481406469],["Facultad",-11.070358619275526],["delictivo",-11.07035897689798],["pulgadas",-11.070359018140639],["fortuna",-11.070380948893412],["módulo",-11.070392685017595],["cintur",-11.070394505702867],["interanual",-11.070441886622973],["Representante",-11.070443351215541],["Ciudadana",-11.070457414938696],["escalada",-11.071088175203393],["Estudiante",-11.07125303426023],["ènci",-11.071410177379278],["nieve",-11.071548073342889],["Camino",-11.071679141976015],["Patria",-11.071725522518681],["valenciano",-11.07230824303073],["productiva",-11.073015872974485],["argas",-11.073144679289516],["abinete",-11.073303436839739],["desarrollando",-11.073569358975794],["film",-11.073972255877305],["Ben",-11.075120107217405],["salga",-11.07559615109585],["inst",-11.076411688142812],["chef",-11.076542757460064],["abajo",-11.076916593459641],["limitado",-11.077338925743998],["inmedia",-11.078429800412497],["especialidad",-11.078571337765561],["levant",-11.0796279722544],["fomentar",-11.08025911990769],["éndose",-11.080455720104858],["estructural",-11.080528953134177],["rompi",-11.080851855286138],["arranc",-11.080995299142975],["itas",-11.081001201623623],["cor",-11.081680566571531],["Ri",-11.082216504459884],["destruc",-11.08292420586164],["represent",-11.083236203029008],["Conven",-11.083296115186986],["Virg",-11.08362776217913],["determinada",-11.083669938075499],["apié",-11.084067382713872],["fijo",-11.084325622501467],["finalidad",-11.084581476667307],["maestra",-11.08539448211631],["botó",-11.085956568566477],["cuidados",-11.086488045453091],["gris",-11.086601387695318],["revoluci",-11.086945537051918],["Cree",-11.086959502318225],["negociar",-11.087573779639897],["huan",-11.087624340846958],["ocupado",-11.087691462731756],["decirle",-11.087711106213558],["fría",-11.088233991093055],["q",-11.089084598420134],["iedad",-11.089835741526736],["esperada",-11.089982021202001],["Sams",-11.090068002148183],["compatible",-11.090095759590737],["naranja",-11.090327935241925],["gubernamental",-11.09035848112195],["Chihuahua",-11.090358481157605],["ejemplar",-11.09035848147359],["artístico",-11.0903589559908],["Disney",-11.090360088746383],["Trabajador",-11.090377108927864],["pertenencia",-11.090381485962395],["aislamiento",-11.090387439271332],["Micro",-11.09038910433364],["facilidad",-11.09039829985122],["Presupuesto",-11.09054376419075],["rango",-11.090550271504782],["Jaime",-11.090616570121103],["telefónica",-11.090662819068902],["2007",-11.090744279790421],["interesada",-11.090859631453732],["retirada",-11.090911393607723],["irregularidad",-11.090951741899769],["buque",-11.091268047119849],["pensado",-11.091513261183666],["Alex",-11.091848771797558],["Aguilar",-11.092062165175358],["actúa",-11.092201940997041],["sometido",-11.092647372309091],["montaña",-11.092759196853446],["arresto",-11.092774526979372],["Persona",-11.092923083601114],["gimnasio",-11.093288180297211],["ber",-11.09337844162733],["Xi",-11.093417376215061],["difundido",-11.093467112958018],["cierra",-11.094033916973274],["apuntado",-11.094197154110681],["favorita",-11.094453002047878],["meti",-11.094455260969251],["afectan",-11.094513319848902],["Explic",-11.095442540278231],["extraña",-11.09562771056608],["pareci",-11.09569954735749],["registran",-11.09572002936374],["sentado",-11.095746622598423],["motiva",-11.095984154499428],["cobro",-11.097032063778519],["asesino",-11.097048082947918],["cordó",-11.097213945657915],["preguntar",-11.097575581909584],["Muy",-11.097817062342004],["unir",-11.098788888879644],["Sandr",-11.099718563788823],["otorg",-11.09977467286421],["silla",-11.099870598338427],["Pen",-11.100313646059472],["llave",-11.100395810135995],["Precisa",-11.100459291484315],["Cár",-11.100689019472854],["porteño",-11.100768989059072],["avione",-11.101520266962618],["compensa",-11.101604100778154],["esencia",-11.102505062198782],["contrat",-11.102649302044936],["voca",-11.102720341952857],["paseo",-11.102928599455215],["cuadra",-11.103376287712546],["Nosotr",-11.10337987410822],["ardín",-11.103943008463645],["servir",-11.10396755397283],["val",-11.104066391018298],["legisla",-11.105569097502201],["saca",-11.105728003547071],["identificación",-11.106158019696988],["vivencia",-11.10731334087921],["cortes",-11.107674277120164],["Aguas",-11.107723176853483],["gua",-11.108603223303467],["Smi",-11.109695783604135],["oral",-11.110263857338538],["Gu",-11.110264868195344],["accesible",-11.110494595795691],["uruguayo",-11.110766644416536],["privilegio",-11.110766644422132],["imprescindible",-11.11076696434535],["Global",-11.110767677469319],["bolsillo",-11.110769227691684],["catálogo",-11.110772115937896],["Taiw",-11.110774424375437],["rubro",-11.11077848625393],["molestia",-11.110784846963437],["arrestado",-11.110792806358166],["Autoridad",-11.110803866741447],["vehicular",-11.110807464755734],["asciende",-11.110896446637991],["identificada",-11.111037101098425],["excepcional",-11.111182457132289],["militante",-11.11127601420805],["ocio",-11.111287737430406],["prefiere",-11.111297292695749],["ard",-11.11138180358465],["Michael",-11.111520991755265],["arranque",-11.11154376501029],["refugio",-11.111609539416289],["Jefe",-11.111781356245801],["Joaqu",-11.111877864139075],["able",-11.112052599109703],["broma",-11.112285139158537],["utilizada",-11.11229691010327],["Arte",-11.112340104440205],["confía",-11.11244480330016],["ocasion",-11.11275204080409],["hinc",-11.113227382742565],["extraño",-11.11334263738703],["hallado",-11.113702703591823],["lector",-11.113714469963758],["retraso",-11.113796255456396],["Ferrar",-11.114033592746196],["actu",-11.114450140021734],["suicidio",-11.114739324544535],["interac",-11.115238412344212],["adas",-11.11524014393436],["pyme",-11.115578193436102],["retir",-11.117046620411061],["planifica",-11.11798355707827],["interpretar",-11.118116978533482],["migra",-11.11873271831902],["110",-11.118795315684611],["reloj",-11.119323906121831],["cruz",-11.120384810596441],["orienta",-11.120818698113855],["reclam",-11.121368456638628],["negar",-11.121654682392915],["ubic",-11.121770344133134],["rescatar",-11.121800836148482],["Orti",-11.122117837620577],["Padre",-11.122307546885931],["aves",-11.122605542026868],["podi",-11.122804368088497],["cosecha",-11.123036199674873],["dign",-11.123431235970155],["Forma",-11.124896570826781],["rock",-11.125671442583913],["denominado",-11.126431658028043],["PRO",-11.127067229685867],["barra",-11.127809700719224],["letra",-11.12804528637713],["Camil",-11.128508124866174],["cantar",-11.128757877926232],["anota",-11.12910642932933],["cal",-11.129706263616153],["empat",-11.130480217817777],["Cort",-11.130801502802793],["rodilla",-11.130875619656727],["llamas",-11.130923784159577],["punta",-11.131273606191257],["Mbapp",-11.131600129715707],["consecutiva",-11.131602120000563],["legislativo",-11.131616264493582],["Abina",-11.131639098664667],["originario",-11.131640420560007],["despliegue",-11.131642220672399],["abogada",-11.131673412774449],["soft",-11.131691829851775],["Usted",-11.131737663868256],["cuello",-11.132197177408242],["exigir",-11.132801057752022],["guardar",-11.13339366834262],["izo",-11.13344484302473],["NI",-11.13358042206488],["enfermo",-11.13371048899445],["suspendido",-11.133821619995901],["considerada",-11.133974675147655],["acerc",-11.134191534451514],["califica",-11.13425246896925],["deceso",-11.134506869799747],["configura",-11.134592988804966],["subsecretario",-11.134625667459687],["tacó",-11.134636779358779],["corpora",-11.13476735812048],["sostenido",-11.135408290463092],["rector",-11.136011384867373],["retomar",-11.13604002500644],["moderno",-11.136557768994718],["ingresado",-11.136724614242768],["paralelo",-11.137175430901278],["mand",-11.137654607970923],["evit",-11.137732329091854],["Indic",-11.137922540451038],["iniciará",-11.137993670797208],["permanecerá",-11.13932417774639],["ampli",-11.139797421174524],["gastar",-11.139895097627907],["prestar",-11.14049221248656],["hospitalizado",-11.140703571786153],["Rom",-11.140991793049746],["previ",-11.141126180130371],["describi",-11.141328057110188],["01",-11.141345383079166],["fic",-11.141739785814162],["reportar",-11.144452808601086],["representar",-11.144494615655596],["dichos",-11.144584578115131],["lix",-11.144800297883286],["toman",-11.144977159027835],["exista",-11.145598243931628],["tom",-11.146735063639742],["señora",-11.146760802932768],["recauda",-11.147132680713703],["natal",-11.147383866184853],["haría",-11.148987368960656],["baile",-11.149056097482088],["agradable",-11.149602526091357],["land",-11.149756277442261],["detec",-11.150510852545402],["compañera",-11.151447122302551],["difus",-11.151542332620734],["gustar",-11.152245491357638],["etti",-11.152575249516612],["sigu",-11.15269700708373],["israelí",-11.15287658473798],["embarazada",-11.152876592240956],["Económico",-11.152876664458798],["ingeniería",-11.152884580189104],["feminista",-11.152887977200066],["canadiense",-11.152890632576915],["Cualquier",-11.152901818836742],["administrativo",-11.153001476342558],["rentabilidad",-11.153029171114767],["inconveniente",-11.153047342732128],["auxilio",-11.153056503759176],["valioso",-11.153066067528865],["auxiliar",-11.153101955294396],["trasladada",-11.153149326914182],["Eugeni",-11.153154879247172],["impulsada",-11.153210491605392],["gala",-11.15327503258798],["alojamiento",-11.15329945118684],["Alta",-11.15349614230578],["obtiene",-11.153590533324225],["símbolo",-11.1537636272046],["gobernante",-11.153823435823764],["paisaje",-11.154187790442656],["veterano",-11.154218362094799],["acta",-11.154310405919018],["grasa",-11.154550597406878],["Habr",-11.154610829890606],["experimentado",-11.154660940928105],["Hora",-11.154694527475511],["pierda",-11.15495472919129],["consultado",-11.155175752960089],["data",-11.155245652462119],["DC",-11.155335741165711],["reglamento",-11.155589249888472],["Campeon",-11.15562737850894],["acostumbrado",-11.155863961696742],["olívar",-11.156207053577885],["vendido",-11.156285244053205],["subido",-11.157657844100957],["tenista",-11.158646353548082],["deber",-11.158832354666757],["tor",-11.158902167178027],["barril",-11.159364878698383],["130",-11.160057389309712],["presione",-11.160250100623665],["cotidiana",-11.16047588654364],["finaliza",-11.160728855467854],["pusier",-11.163083376225362],["tomaron",-11.163640536687563],["Jo",-11.163654192285778],["franquicia",-11.164459281502129],["irán",-11.165146633288662],["centra",-11.16533611140033],["XXI",-11.165955758708641],["Ru",-11.166300596089984],["bajada",-11.166983314519921],["Belgra",-11.168330120170072],["costas",-11.168501813668724],["Dep",-11.168787251374383],["Yu",-11.169214414231519],["alumna",-11.169253835789982],["met",-11.169537208995473],["dict",-11.169731964910488],["pensaba",-11.17039977550291],["gar",-11.17111040775359],["conmemora",-11.171639799391198],["corporal",-11.171714607888596],["Michoac",-11.171750025612663],["disparar",-11.172427710272405],["arena",-11.172991141414567],["crónica",-11.174404545654703],["vendedor",-11.174436303511072],["universitaria",-11.174615703898883],["italiana",-11.1746197752569],["virtud",-11.17462009905501],["cálculo",-11.1746217218832],["mercancía",-11.174629518829777],["pertinente",-11.174633623888264],["Shak",-11.17464066776967],["Independiente",-11.174676617345261],["crecido",-11.174798930657987],["advertencia",-11.175034397519841],["acordado",-11.17506625580815],["agradecimiento",-11.175103934018601],["incumplimiento",-11.175142444605155],["mencionada",-11.175309186804657],["barato",-11.175329590909824],["nómina",-11.175424645725824],["terrestre",-11.175498328319364],["descubrimiento",-11.175510149797876],["criticado",-11.175602579098966],["Bravo",-11.175710084443054],["certifica",-11.175804624602028],["religiosa",-11.17587947473569],["CV",-11.175967995226436],["Rock",-11.176198276654056],["NASA",-11.176570361152658],["Gonzal",-11.176835616626423],["comunal",-11.177118329957034],["ab",-11.17735531340961],["fracaso",-11.177607190042597],["gradual",-11.177798053177309],["soberanía",-11.177980921121108],["patronal",-11.17815879744975],["uperó",-11.178203150536183],["Li",-11.178291898360325],["Esper",-11.1785941259012],["Belar",-11.178738322109147],["progreso",-11.1791965685952],["copia",-11.179925619562901],["financiar",-11.180208960961185],["Van",-11.180227149765543],["impide",-11.180234083644809],["prohibido",-11.18036204295581],["Misione",-11.18044050400976],["maneja",-11.18098367533202],["Williams",-11.181585594871855],["contribuye",-11.181866046864656],["lazo",-11.182366636693274],["analiz",-11.182690260343934],["CD",-11.182855138180823],["tuit",-11.183707281442306],["donado",-11.183852376431027],["sombra",-11.183946146674838],["creía",-11.184173056395249],["venes",-11.184449169464981],["bloquear",-11.184569922818444],["Caja",-11.185817405207077],["plantear",-11.18592995427595],["explora",-11.185990825571361],["acorde",-11.185993839275207],["American",-11.187447736762596],["reproduc",-11.187562863539876],["salía",-11.187669058468568],["novia",-11.187761308753874],["discutir",-11.188021276297768],["podio",-11.188171232211705],["define",-11.18880125252008],["ejercer",-11.188867789981703],["insiste",-11.189270110774459],["modificar",-11.19015262281703],["Puente",-11.190229170873941],["Familia",-11.19091923835065],["Juventud",-11.19171617996364],["reunirá",-11.192498133310615],["rece",-11.192680101652204],["ndows",-11.193116715967665],["enfrentan",-11.19329915454902],["hacerle",-11.193390399827322],["especula",-11.194154212134375],["organizador",-11.194186973989911],["deportes",-11.19452090697884],["íz",-11.194842756288015],["pensa",-11.195471766272613],["market",-11.19612185758364],["abrirá",-11.196625440988434],["Sara",-11.196639755874545],["Tour",-11.196739205838394],["vacunar",-11.19674238401432],["tramita",-11.196806791697918],["diplomático",-11.196837926599766],["femenina",-11.196837927263449],["terrible",-11.196838454296461],["percep",-11.196853177863678],["bonito",-11.196862720498183],["promueve",-11.196881481477716],["Monument",-11.196917864247041],["limpia",-11.196918325817228],["Murcia",-11.196933084318264],["reflexi",-11.196979543539811],["respectivo",-11.196980962109203],["impact",-11.197006126220124],["líquido",-11.19701783761109],["proviene",-11.197177073018624],["canasta",-11.19720072894255],["indicio",-11.197211654750848],["Haba",-11.197276157149885],["pozo",-11.197300645862617],["Soto",-11.19757629113642],["Mallor",-11.197854198512879],["Liver",-11.197866358126692],["Paraguay",-11.19793274558683],["minero",-11.198029425077316],["procedi",-11.198629955411166],["retirado",-11.19863747010079],["asociada",-11.198698132384866],["disparado",-11.198712138752747],["programada",-11.199576248321446],["mer",-11.199664267808242],["preferencia",-11.199679471222817],["efectuar",-11.200308877608993],["DT",-11.20051389693891],["limpiar",-11.20052119101519],["Catar",-11.200534699468914],["cubierta",-11.200782667108165],["Mark",-11.200784927508849],["localizado",-11.200993866631597],["aspira",-11.201193407330896],["combinado",-11.201729671417889],["Preven",-11.201778422429573],["gobernar",-11.202396794432007],["zco",-11.202731099265343],["acabado",-11.203279953120063],["proporciona",-11.203310266488767],["computadora",-11.203392208313058],["crecien",-11.203780702329134],["poli",-11.204001047136101],["Tomá",-11.204227484251144],["hablaba",-11.20432063810631],["rico",-11.204741554225048],["Fé",-11.205656919136395],["let",-11.205925296104784],["primavera",-11.206996768732798],["aragon",-11.207112919104144],["apuntan",-11.207177213752317],["peligrosa",-11.207309178827177],["emprendedor",-11.20782116571236],["obten",-11.20809492585963],["hiciera",-11.208446810552763],["pesa",-11.208621895894291],["protege",-11.208865445634435],["cometer",-11.209076859882801],["acing",-11.209584179030115],["hit",-11.209635915307352],["Euro",-11.209902251924959],["inaugur",-11.21003291141785],["tion",-11.210083991979946],["PJ",-11.210221053255594],["diente",-11.210623433580729],["arquitect",-11.210735348602924],["Tan",-11.210831570538478],["liberar",-11.210848672371531],["entero",-11.211730528895792],["internado",-11.212627215526718],["entrenar",-11.213607081189211],["XX",-11.215109403573509],["vacunado",-11.215379243418885],["atento",-11.215481061202988],["for",-11.216122739039921],["Már",-11.216291311404293],["gastr",-11.216602583154394],["trig",-11.216919259463564],["ioja",-11.217364193359742],["nguez",-11.217446058337337],["Salta",-11.2175475017998],["Cristo",-11.218141803124425],["Oeste",-11.218274314303834],["ránsito",-11.218601901152944],["gato",-11.218662417762335],["millonario",-11.219030158027133],["voluntaria",-11.219186196582342],["verificar",-11.219275285045324],["sentar",-11.219486819811413],["Sputnik",-11.219565199113225],["asamblea",-11.219565208344997],["cerebral",-11.219571503712146],["Zamora",-11.219578720659765],["patología",-11.219585355941426],["estacionamiento",-11.219614336516774],["Guadalup",-11.219627804543894],["polaco",-11.219637894675918],["ilícito",-11.21967534953034],["crudo",-11.219675885068806],["recomendable",-11.219684953318957],["tubería",-11.219740605817808],["ética",-11.21980435905272],["pague",-11.219947913690007],["considerable",-11.21998377937788],["adop",-11.220408403977252],["instituto",-11.220503891493607],["sentimental",-11.22051998206759],["Djo",-11.2205941656894],["Luca",-11.22072675519874],["Alba",-11.220961728737],["sonrisa",-11.221006542713953],["desastre",-11.221066529850841],["inmigrante",-11.221089514325078],["comici",-11.221367777082373],["Agricultur",-11.221460703373447],["cu",-11.221585297008378],["instante",-11.221957022974932],["ficha",-11.222123274813859],["varado",-11.222504951454912],["detectado",-11.222691464339512],["Fiesta",-11.222696249235263],["intentado",-11.222824266847036],["viero",-11.223606348724703],["planteado",-11.224288407910008],["elevar",-11.225047860979643],["alega",-11.225142884398855],["colaborar",-11.225270749206672],["field",-11.225561980464466],["vol",-11.225753223639625],["expuls",-11.226498308753374],["editorial",-11.227826170936755],["ordenar",-11.228103319212998],["var",-11.228163685449438],["cupo",-11.2283499644609],["moderna",-11.22887716269233],["disfrut",-11.228995845366468],["reparto",-11.228997060162328],["Bank",-11.22939808545296],["descarta",-11.229420783875849],["rosa",-11.229925729523389],["facultad",-11.230112161100335],["TC",-11.230413719707073],["Nació",-11.230434123671046],["Cristian",-11.230943259955477],["necesit",-11.23121019261526],["experimentar",-11.23160335306456],["ésto",-11.232075971937746],["Cerca",-11.232248078984012],["Dom",-11.23266731826022],["reporta",-11.232756057963261],["pistola",-11.233053383779092],["Emili",-11.233358129066174],["censo",-11.233542867178407],["deriva",-11.233605887312125],["valorar",-11.234245772137815],["tro",-11.234745997684248],["Open",-11.235515786396808],["Lago",-11.23565109536654],["transmitir",-11.23623548612472],["suceder",-11.236953416968571],["escrita",-11.237856312315255],["americano",-11.238258745085542],["etiqueta",-11.23828729127815],["delincuencia",-11.238508466549701],["realizaba",-11.238813296691122],["sentía",-11.238964036422288],["enfrent",-11.239167458869288],["ahorrar",-11.239671989556198],["deportistas",-11.239725507515569],["onomía",-11.239928904492658],["jubila",-11.240003798052403],["metal",-11.240251935054383],["Canal",-11.240333706760207],["compr",-11.240987103411848],["hambr",-11.241067313037426],["existir",-11.241133534368286],["adelantar",-11.241211617354217],["recoger",-11.241353065520075],["ka",-11.241381715281333],["FM",-11.241777793742141],["apela",-11.241794802704549],["neutral",-11.242767422548956],["mecánica",-11.242819382198952],["círculo",-11.242821013843331],["indispensable",-11.242821018098088],["segmento",-11.242821295387134],["maquinaria",-11.242822257411106],["poblacion",-11.242824280290742],["enmienda",-11.242827080644602],["migratorio",-11.24282896222946],["proveniente",-11.242835697178565],["sacerdote",-11.24284020536994],["Segura",-11.242861776588601],["hubiese",-11.242861827647364],["Colorado",-11.242873864253939],["Madre",-11.242926994642975],["Christian",-11.24296446037528],["gabinete",-11.242996443654413],["comandante",-11.243011175477056],["dirigencia",-11.243013646168766],["maltrato",-11.243088895672155],["balazo",-11.243180257256343],["jurisdicci",-11.243358728383743],["definitivo",-11.24335994415312],["acífico",-11.243383915579379],["Golf",-11.243394205957593],["Stree",-11.2434314059701],["brillante",-11.243479339696924],["Marvel",-11.243547456673314],["disculpa",-11.24381123506339],["Bruse",-11.243871419166085],["acercamiento",-11.243889890841144],["investig",-11.244158957402433],["Gil",-11.24427473909897],["interesa",-11.244767627368901],["USD",-11.245072131169087],["brutal",-11.24538624287243],["canale",-11.245981663847555],["república",-11.246000396089851],["verdura",-11.246208012829655],["Castelló",-11.246290700668652],["Mirand",-11.24634033423349],["embarca",-11.246841079777472],["exam",-11.246864878060565],["hito",-11.248491990115015],["estim",-11.24854812948319],["dedicar",-11.248987938518614],["asesora",-11.249034896387121],["comercializa",-11.249102453909892],["designa",-11.250406833876067],["hospitaliza",-11.250520445582817],["antander",-11.251259693121545],["huir",-11.252086316066691],["vincula",-11.25215367194773],["LA",-11.252364460850831],["hice",-11.2524495007663],["pagan",-11.253164763357075],["reactiva",-11.253215157381277],["iento",-11.253309282044306],["séptimo",-11.253478186887445],["Ari",-11.253636582134957],["impulsa",-11.254291967128339],["beneficia",-11.254464555004558],["reaccionar",-11.254501198449056],["contener",-11.257101605342015],["centrado",-11.258153786149617],["Destac",-11.25831716370714],["cometi",-11.258417854357306],["extender",-11.258626251069732],["preservar",-11.258877146153354],["canta",-11.259571744524752],["alemana",-11.259634620191807],["Amba",-11.259636879004207],["Adam",-11.260182405871369],["reduj",-11.260381346058917],["resolvi",-11.260477576712077],["rato",-11.261952728553513],["instalado",-11.262114886061369],["agregar",-11.262220222165185],["Mac",-11.262524310578783],["macho",-11.262582323095764],["Fuero",-11.263349574361733],["box",-11.263637993552027],["basta",-11.263747425774751],["roto",-11.264241179385305],["consta",-11.264398098735823],["carpeta",-11.264648120366138],["descart",-11.264852895664713],["formado",-11.265241432032997],["basa",-11.2655827452089],["ores",-11.265777523621585],["participad",-11.265903021601678],["dirigía",-11.266630543035618],["Concejo",-11.266631684075287],["adquisitivo",-11.266642145035622],["Parece",-11.266674628804282],["desplazamiento",-11.266691085415209],["nombramiento",-11.266692895629806],["montaje",-11.266693027897567],["sólido",-11.266715172483824],["ocurrir",-11.266724110130525],["construido",-11.266727261474472],["WWE",-11.267033265399068],["boda",-11.267043777818866],["preciso",-11.267047706738003],["hermosa",-11.267208637134694],["convencional",-11.267359900451394],["constitu",-11.267469437583937],["pretemporada",-11.267516472067927],["ware",-11.26774554925498],["armamento",-11.267848301743246],["mu",-11.268144880778218],["Tigres",-11.268218099794005],["creada",-11.26831455793554],["Zacate",-11.26838485607322],["exclusivo",-11.268522160913394],["añadir",-11.268860162316743],["Estudio",-11.269234893748092],["Mora",-11.26942338488634],["complemento",-11.26957597723121],["ensayo",-11.269586336027443],["castigo",-11.269795003023164],["advertid",-11.270662879102293],["cuento",-11.270705971472944],["solicita",-11.271040005716008],["sentí",-11.272498884273691],["ox",-11.273287770561673],["ambi",-11.27336786610438],["Eva",-11.27431152425721],["detallado",-11.27431522745046],["inspec",-11.274400163426675],["oscuro",-11.27440877998701],["Calder",-11.274555963553647],["calma",-11.274985783625244],["interpret",-11.275071618755959],["filtro",-11.27592041830254],["iro",-11.27599663084231],["impuls",-11.276018676967656],["litera",-11.276747512368509],["danza",-11.276912187282633],["accedi",-11.277144602047294],["privaci",-11.277246286019823],["suspender",-11.277292680064958],["entrado",-11.277311434351617],["tenis",-11.277688408732683],["extin",-11.277917484638152],["denominada",-11.278322613381281],["elli",-11.278792877551128],["coincidi",-11.278812519366944],["Grand",-11.279528223696113],["Roc",-11.279536994096722],["Silvi",-11.279540708445387],["Están",-11.2796098934308],["marcada",-11.279750852558669],["afirman",-11.280025625226301],["suave",-11.28024056839866],["reparar",-11.280911080806383],["campeona",-11.281247021641336],["portero",-11.28138442858369],["iéndose",-11.28151880477623],["semi",-11.281683757447151],["culmin",-11.282615077390894],["azo",-11.283130967740998],["04",-11.283494918609609],["mont",-11.28437059338353],["mineral",-11.284428297782766],["convoc",-11.284502188555445],["sexto",-11.284506695610702],["ED",-11.284719511056966],["ubicar",-11.285100956597788],["cio",-11.285336657850365],["inspira",-11.28541805537947],["Ser",-11.28565043001896],["rota",-11.286317658715461],["permanecer",-11.28650236861015],["alia",-11.286704995440571],["CG",-11.287190282747687],["reces",-11.287382723167891],["Concep",-11.28850164570261],["Gesti",-11.289006772429577],["Produc",-11.289576016406706],["vocal",-11.28960735266004],["tope",-11.290308708557244],["stream",-11.290828767635546],["Empresa",-11.290873800315822],["electrónica",-11.29102123576024],["eficaz",-11.291024269440335],["progresiva",-11.291037678186974],["vergüenza",-11.291098716054357],["intelectual",-11.29115123480966],["azulgrana",-11.29118742613285],["Militar",-11.29123041698747],["maí",-11.291247883006255],["curioso",-11.2912595787097],["ió",-11.291281273977166],["peronismo",-11.291282223794122],["tristeza",-11.291282364057203],["nieto",-11.291371757993641],["divertido",-11.291392642221924],["Vivienda",-11.291487900624167],["Montero",-11.291619482159788],["carece",-11.291858573454657],["recogido",-11.292267262555592],["preocupante",-11.292774903531994],["reportero",-11.292783362684252],["anima",-11.292830425943267],["pecho",-11.292945148029],["Ja",-11.29332099581709],["residencial",-11.293611484988986],["Infantil",-11.293691936133676],["funcion",-11.294058762404605],["Necesita",-11.294312639286849],["colec",-11.29496558249891],["golpeado",-11.295100823355812],["afiliado",-11.295210916170037],["reivindica",-11.29536587951831],["conquista",-11.295695864108632],["pop",-11.295734904600042],["Contr",-11.295748260040682],["colocado",-11.295909086344016],["Valor",-11.296223726211133],["prestacion",-11.29641807804094],["menciona",-11.296866970086894],["07",-11.297003988116941],["procede",-11.297221217022523],["corri",-11.297888727158476],["Fed",-11.29799242295637],["ciber",-11.2985276458643],["sorprendido",-11.298997237890609],["servirá",-11.2990268914948],["depósito",-11.299223351246921],["cos",-11.299277308259972],["predic",-11.299535367698965],["justificar",-11.29988912746965],["Malv",-11.300281563140361],["aprecia",-11.300469760443834],["Tom",-11.300725289943216],["trabajaba",-11.300851919776143],["Ken",-11.300910084180025],["sorprende",-11.301647704567706],["concret",-11.301890144079131],["recorte",-11.302028612075967],["Cabo",-11.302357705586918],["350",-11.302467370066845],["campeon",-11.3026145534844],["Quit",-11.30265547319068],["West",-11.302924618018642],["carril",-11.30359948853445],["perdier",-11.30439154602164],["isis",-11.304760616116603],["anzas",-11.30558090197139],["vaso",-11.30625238552632],["desat",-11.306255209975795],["Cristiano",-11.30631226633151],["tividad",-11.308226387690507],["Lucian",-11.308832277651923],["Marc",-11.309228274193144],["televis",-11.310086093998162],["160",-11.31016406926086],["monte",-11.310636803304686],["montó",-11.31083614133839],["Mexicano",-11.310896819611298],["ganadora",-11.31148365807838],["diera",-11.311636507526195],["linda",-11.312373598262274],["composi",-11.312769552544282],["otti",-11.313545374226841],["ocupada",-11.313717398007693],["doméstico",-11.313948446902856],["encontrará",-11.314040967532073],["comprometi",-11.314791087889123],["abilidad",-11.315062467909257],["felic",-11.31520959712022],["revelar",-11.315603680764394],["fronterizo",-11.315992371281824],["disponibilidad",-11.316020781094355],["víspera",-11.316020888370653],["tropical",-11.316021160986843],["inocente",-11.31602145989397],["secundario",-11.316023487880326],["requerimiento",-11.316024779663623],["Lamentable",-11.31602831275347],["psicológica",-11.316029627367657],["obstáculo",-11.316041298806034],["cerveza",-11.316042753154294],["manifiesta",-11.316045507920897],["petrolera",-11.316055996043168],["denomina",-11.316066101241386],["Tercer",-11.31607010370665],["muerta",-11.316076055102219],["World",-11.316089758219531],["ciclista",-11.316102327107801],["rapid",-11.31611314892958],["Rubé",-11.316141465761511],["conozca",-11.3161493959223],["malas",-11.316160034126273],["Gallardo",-11.316223408249005],["Dicho",-11.316283532143554],["peronista",-11.316306171023811],["Medicin",-11.316338814360908],["Junior",-11.316343885491774],["cuarentena",-11.316421497196647],["Fox",-11.316444442711118],["vinculada",-11.316603008393297],["agujero",-11.316892517298285],["menú",-11.3170716448006],["aeronave",-11.317258950158497],["obligada",-11.317308582598713],["Ayu",-11.317436488869008],["Pues",-11.317451501850375],["erife",-11.317523728159662],["transparente",-11.317816451124544],["contenedor",-11.317935493644486],["paradero",-11.31797577635529],["desconocido",-11.31819508640848],["manda",-11.318338196985422],["decidier",-11.318570435935142],["mandar",-11.31861077221184],["Serie",-11.318710336930195],["Luz",-11.318786065455686],["servidor",-11.319167144859621],["cabello",-11.319306210749794],["Campe",-11.319414272540225],["deportista",-11.319426740908321],["gricultur",-11.319595560390848],["Quintana",-11.319772408941848],["Primaria",-11.319872334991466],["Meta",-11.320000711691009],["Procura",-11.320040111733498],["locura",-11.320215839968075],["it",-11.320428863145395],["bus",-11.32113983467886],["elaborar",-11.321160864404373],["tome",-11.321198729432723],["Arce",-11.321299079507474],["tío",-11.321615905969274],["aparecer",-11.32180524501273],["fama",-11.32199021819816],["consolidar",-11.322420632964853],["consigna",-11.322590947216993],["restaura",-11.323032434016547],["anticipa",-11.323097035469933],["Canel",-11.323328196535574],["externa",-11.323340257607533],["cismo",-11.323820550887788],["coca",-11.323918919057748],["relata",-11.324065884445236],["azar",-11.324161292961936],["metas",-11.324401994441413],["negoci",-11.324795477803445],["calcula",-11.325068931521312],["Dal",-11.325105882391144],["desplazar",-11.325666719201655],["ázar",-11.326382728192408],["ojo",-11.326500196806013],["rendir",-11.326951427635969],["Cabr",-11.32798279748268],["Turqu",-11.328125765015212],["listado",-11.328612988601636],["men",-11.328793289009793],["ini",-11.329063670015193],["permaneci",-11.329299544154537],["Bet",-11.32936666578101],["audita",-11.32948332349764],["Angel",-11.329628338273393],["pu",-11.329936087276234],["ratific",-11.331072282164882],["promete",-11.331838849187218],["reunido",-11.332394991338687],["Ze",-11.333823534066873],["regidor",-11.333896277506327],["Leo",-11.334027521102627],["universal",-11.334532046324178],["hijas",-11.334675053065599],["ordenado",-11.334749499568888],["afirmar",-11.334919158316278],["Media",-11.33533338266753],["gráfico",-11.335415662262458],["DE",-11.335624184515869],["integran",-11.335662646052047],["encuestado",-11.335806420887351],["acelerar",-11.335933110982669],["coinciden",-11.336613586431909],["viaja",-11.339193212828087],["sufr",-11.339488620387387],["apostar",-11.339746750820694],["Artes",-11.340672050172438],["continuo",-11.340820849134001],["consumir",-11.340872941732584],["interrup",-11.341474602205592],["Tijuana",-11.341661807678916],["trofeo",-11.341661935643174],["proteína",-11.34167028696853],["latinoamericano",-11.341670514402697],["revertir",-11.341679968638498],["costumbre",-11.341682749009841],["Govern",-11.341687457068272],["influencer",-11.341689652752436],["Quintero",-11.341707198794081],["creatividad",-11.341711045894318],["concluido",-11.341714026006084],["belga",-11.341733601131432],["pienso",-11.341752268479546],["inmobiliario",-11.341811278586972],["vacante",-11.341856027478787],["masacre",-11.341954728123575],["Web",-11.342153826989017],["pasaporte",-11.342176345370387],["desarrollador",-11.342304684923201],["ésped",-11.342332161728926],["banca",-11.342355681180614],["centenario",-11.342606775508202],["accionista",-11.342654402234619],["rechazado",-11.342777652807978],["Hous",-11.342865186583273],["fallecida",-11.342874997400738],["Dicha",-11.34292033685891],["Molina",-11.343248034633037],["instalada",-11.343477084989129],["conduce",-11.343486958515877],["cortar",-11.34385303079751],["mueble",-11.344193250695055],["comedia",-11.344318081197976],["ficaci",-11.344351854607865],["sorprendente",-11.344391053002774],["aparatos",-11.344636728851277],["Andrea",-11.344925375731682],["oído",-11.344945934687566],["Sam",-11.345545410254395],["funcionan",-11.34626065746734],["pon",-11.346532401225488],["mostraba",-11.346561399937332],["Buen",-11.34665757728343],["situada",-11.346783434142864],["apoyado",-11.347087429143603],["mediana",-11.347090832061117],["XI",-11.34740661823909],["corona",-11.347532024579998],["representado",-11.347902294471691],["ho",-11.348828537848878],["competitivo",-11.348975289437604],["empresaria",-11.349092405856492],["alimento",-11.349894004116521],["extenderá",-11.349957571208595],["azúcar",-11.35003540894899],["pesado",-11.350437246863544],["ndez",-11.350801941749534],["02",-11.35123394657499],["resume",-11.351358573371417],["ring",-11.351370285316111],["ibilidad",-11.351551016989752],["sube",-11.352217534095251],["marina",-11.35229247343857],["Emilia",-11.352884185734947],["aplicará",-11.353169392906196],["lleguen",-11.353295722197757],["Rodol",-11.353631425920472],["180",-11.354065535656973],["consolida",-11.354785864044183],["respira",-11.354820132103338],["severa",-11.35520181647089],["Art",-11.355275413217587],["imagin",-11.355628675015062],["camas",-11.355832494671567],["barata",-11.356160250020125],["hueco",-11.35621763025857],["detect",-11.356487503196346],["crema",-11.356502581756525],["Agente",-11.356889249791033],["enterar",-11.357038958452005],["proceder",-11.357090171366597],["Robles",-11.357219039834296],["atrac",-11.35762144054407],["ectividad",-11.35778929682165],["agallane",-11.358003800013412],["dimension",-11.35860253161645],["profesora",-11.35949050434741],["contratar",-11.359504832881207],["dependiente",-11.359696767057082],["ricos",-11.359862900839094],["rayo",-11.35989189042506],["gica",-11.360814164266518],["décima",-11.361614364513215],["tira",-11.362276604760547],["habitacion",-11.362284680309735],["conectado",-11.36230249511852],["cort",-11.36265457277057],["Calle",-11.363011385854929],["ponien",-11.363282915467465],["bate",-11.364040660904578],["arroz",-11.364319821868449],["trama",-11.364610293046297],["Tar",-11.364811596356308],["mega",-11.365438096064267],["Green",-11.365964228467007],["poste",-11.36673434778683],["asiático",-11.366772140240693],["Cata",-11.366949209946679],["tumor",-11.367505011064596],["Emple",-11.367538879560314],["dispuesta",-11.367923725798265],["intersec",-11.367937737268031],["humanitario",-11.36797759677075],["tremenda",-11.367977608374076],["solitario",-11.367977863417345],["logística",-11.367978072142574],["muchísima",-11.367978685195403],["autonómico",-11.367979122519708],["Neymar",-11.36798660200352],["psicológico",-11.36798868268761],["madrileño",-11.367994450404703],["inminente",-11.367995469325441],["Cuerpo",-11.367997182681863],["fertilizante",-11.367999110088377],["centímetro",-11.368018098438974],["Innova",-11.368031251182042],["Ojal",-11.368048549941003],["impuesta",-11.368082087442819],["matemática",-11.36813084440582],["Bad",-11.368163244326059],["extiende",-11.36818011631864],["ranking",-11.368194813706744],["Encuentro",-11.368214259671046],["abuela",-11.368246428688535],["lavado",-11.36832827110718],["extensa",-11.368442104943085],["Revolu",-11.368443139672952],["Informa",-11.368466930310882],["Niño",-11.368477036202432],["Artur",-11.368578855648844],["contribuyente",-11.368707027316832],["Berl",-11.368781675595672],["premisa",-11.368982672962382],["Industrial",-11.369090277816593],["emitir",-11.369224146977093],["intermedio",-11.369246468453355],["cautelar",-11.369365974788373],["ollywood",-11.369489440865319],["fractura",-11.369703913364013],["abandonado",-11.36971378353536],["NBA",-11.369845029784598],["inscribir",-11.370193965067333],["mantenía",-11.370344919218798],["nteligencia",-11.370387624667377],["Bayer",-11.370635602558515],["Reforma",-11.371468603368722],["túnel",-11.371711317946234],["Rojo",-11.372475718985235],["contribu",-11.372685528928828],["impulsado",-11.372777871622446],["IVA",-11.373016616530052],["lema",-11.373177039405316],["producen",-11.373705190672652],["Cine",-11.374340466448965],["exponer",-11.374667523951764],["empatar",-11.374742743043743],["ente",-11.375055518737922],["Duran",-11.375096982500871],["elev",-11.375358980102366],["oficio",-11.375645591987812],["capa",-11.375646574981932],["extremad",-11.375810100575993],["Dice",-11.375845627519611],["clasificado",-11.37631368401443],["tti",-11.377284762630397],["pen",-11.377329528417668],["finca",-11.377331453887717],["joya",-11.377680204797219],["abrazo",-11.377886413297748],["()",-11.379993463515355],["andar",-11.38038832534941],["intervin",-11.380401121982812],["contagio",-11.38057992902802],["falt",-11.381466860645215],["ajustar",-11.381784385119666],["lenta",-11.381904087635867],["reseña",-11.382240755889478],["marino",-11.382983003879916],["definido",-11.383050141843693],["implement",-11.383235551976416],["transform",-11.383244767994636],["tuviera",-11.383673508630697],["dedic",-11.383677971260703],["Chel",-11.383716691887663],["Marte",-11.383819447928675],["Voy",-11.383896068195753],["centrar",-11.384383084881495],["Fuego",-11.384670489892589],["expresion",-11.385539017641301],["incrementad",-11.385630777478774],["asigna",-11.386277839767242],["contest",-11.386630385997396],["Zapat",-11.386926238180315],["convic",-11.38747781368086],["Atlántic",-11.388260619540814],["flota",-11.388550211843569],["legale",-11.388701631825251],["busc",-11.388928163015601],["notar",-11.3893495903745],["stán",-11.389460280493516],["Salón",-11.389585936401152],["controlada",-11.389664140335482],["uesca",-11.390115423353809],["Asegur",-11.390767908136635],["busque",-11.39097396510717],["Salto",-11.391129798342414],["seleccione",-11.391298037595789],["off",-11.391360527727212],["desempeña",-11.391894568927757],["Contra",-11.392203984277696],["salt",-11.392583356417143],["Bah",-11.392867783010924],["Orl",-11.393853355953654],["Comunita",-11.394962459676117],["ofensivo",-11.395004639333598],["garantice",-11.395004642412005],["ilícita",-11.395004700040781],["Brown",-11.395005744995835],["monarca",-11.39501137757906],["compatriota",-11.39501189867202],["banquillo",-11.395011912560573],["exitoso",-11.395012662930295],["chofer",-11.395019409275662],["gallego",-11.395023539402358],["Scalon",-11.395025712365467],["generalizada",-11.395074424814418],["hospitalaria",-11.39507871864387],["moderada",-11.395084950405433],["forense",-11.395111016150933],["encabezada",-11.39522592531747],["accesorio",-11.39549722077144],["despedida",-11.395546923635413],["Registro",-11.395551004641337],["August",-11.395552083027862],["desaparecida",-11.395600876841693],["entendimiento",-11.395639647716994],["look",-11.395760920584921],["frontal",-11.395768610331926],["atólica",-11.39577027996117],["gráfica",-11.396020127835142],["cuestionado",-11.396106519738549],["sólida",-11.396135807961926],["Sports",-11.396136766631283],["supervis",-11.396278553168779],["inversionista",-11.396399015173847],["Colonia",-11.39675472048113],["lamenta",-11.396957190960741],["Cá",-11.397585428065529],["despido",-11.397726643711046],["construyendo",-11.39811271661655],["conforman",-11.398121180682084],["Laguna",-11.398180009000916],["doctora",-11.398317675819538],["circulaba",-11.398372707328019],["Telegra",-11.398408723512933],["rich",-11.398466550472602],["orígen",-11.398524814845164],["finanza",-11.398904085198595],["alón",-11.399006558383553],["ejecut",-11.400098658992249],["reemplazar",-11.400462722760576],["hab",-11.400875777048249],["Rosad",-11.402141403900643],["clasificar",-11.402203117584373],["armados",-11.402235883113844],["Charl",-11.402860676969743],["estudi",-11.40341984787645],["Gaz",-11.405740991899215],["identific",-11.405877339447146],["Músic",-11.406001637343612],["grit",-11.406500885012365],["arroj",-11.406867535070372],["tiros",-11.407246962806893],["típica",-11.408420005741554],["anda",-11.409054032249793],["transportistas",-11.409180862477465],["verifica",-11.409512089468606],["acot",-11.409681427325372],["separar",-11.41020508643994],["abasteci",-11.41028505174885],["muro",-11.410489994271678],["Ramo",-11.410785116876655],["golpear",-11.412540349475707],["poblador",-11.412673895585698],["conquistar",-11.412800030861487],["Reina",-11.412830867533689],["bajado",-11.413259544375396],["itos",-11.413395586517515],["chi",-11.414123031546135],["visualiza",-11.414680819645428],["transcur",-11.41474728078604],["conocía",-11.415469308509733],["derrot",-11.415759419661313],["Calv",-11.417223873605469],["faro",-11.417287878256936],["pertura",-11.417382165162607],["ofrec",-11.417754384586752],["pronunci",-11.418092889609705],["tension",-11.41810591525682],["Navarr",-11.418449981614993],["Mor",-11.4184528382309],["cubierto",-11.419227634844813],["Mej",-11.419734196298037],["activ",-11.419977018725621],["recep",-11.420996567813273],["establecida",-11.421734034824553],["comarca",-11.422101518295058],["mago",-11.422307991927772],["lausura",-11.422463586888988],["produzca",-11.422525576550242],["percibe",-11.422574006838536],["ocup",-11.422711695933561],["auténtica",-11.422782400504598],["atmósfera",-11.422782401915866],["permanencia",-11.422782406030628],["monumento",-11.422782982040575],["aprehen",-11.422784783501946],["Sierra",-11.422800563880415],["maravillosa",-11.422800864608806],["allanamiento",-11.422804504821904],["Gimnasi",-11.422812726016915],["Género",-11.422823256098964],["audiovisual",-11.422826304204733],["Taller",-11.422851265756508],["apellido",-11.422853427489825],["Adrian",-11.422923429304928],["Premier",-11.422938735539116],["placer",-11.422956957916703],["Coahu",-11.423220778715384],["escritura",-11.423222870236888],["pesada",-11.423250206044553],["Zulia",-11.423328936149012],["penalti",-11.423329494477942],["Estadística",-11.4233680143933],["uniformado",-11.42343366460036],["atrapado",-11.423631338746382],["kirchneris",-11.42383701769656],["zapato",-11.423944419777053],["provisional",-11.42406040335132],["acude",-11.424320387719696],["cima",-11.424486874929256],["intentan",-11.42464233991581],["Noche",-11.424829194752872],["consultada",-11.424895463194904],["tiende",-11.425068298357036],["atraer",-11.426069612048943],["Expres",-11.42616856533518],["referir",-11.426667012576488],["habilitado",-11.42690617360428],["malestar",-11.426929411303568],["recibida",-11.427168711850484],["diése",-11.427337779758489],["recorri",-11.427337995555202],["ador",-11.427359562601922],["Tenía",-11.427418695483091],["Juventu",-11.42749621791069],["justifica",-11.427553744939441],["raro",-11.42773729620535],["Ira",-11.427940961346167],["estrecho",-11.429682708227727],["echa",-11.43008675078871],["bau",-11.430188048643853],["humeda",-11.430556348669832],["eliminado",-11.431032271579125],["diseñador",-11.431297838297276],["Bost",-11.431370905242334],["exá",-11.431519251270704],["derrumbe",-11.431722179412079],["Correa",-11.432527775436247],["clar",-11.43269463810231],["abarca",-11.433114179560445],["apuntar",-11.433228563934358],["comprende",-11.433609069157566],["uña",-11.43383351602265],["poblado",-11.434043276719855],["sustancial",-11.435035481692715],["prepar",-11.435449506035408],["SG",-11.435464397248156],["unido",-11.435993082008446],["Foro",-11.436056427815116],["landi",-11.43616095935656],["visa",-11.436429927543763],["vegetal",-11.436439133445583],["sabiend",-11.436536976295566],["eciente",-11.436981145112977],["bamo",-11.437213704555232],["ger",-11.438493316985921],["parti",-11.43860860974073],["Cinc",-11.438628139834295],["comprado",-11.438920142327522],["Donets",-11.438980829632477],["productora",-11.439241219467592],["varone",-11.439407745693227],["Pren",-11.439495258158713],["confiar",-11.439858458035012],["practicar",-11.439922778659513],["convencer",-11.44004370140593],["detuvier",-11.440140056612004],["140",-11.440271420995634],["qu",-11.44061179750797],["vice",-11.44086824631869],["soles",-11.44130616230796],["Ger",-11.44151440253854],["toro",-11.441586328397642],["competitiva",-11.441783742045061],["armar",-11.443205134929396],["Cant",-11.443280515975784],["salva",-11.443567726085766],["padece",-11.44370983852182],["parado",-11.443902538407688],["nsk",-11.444462191306622],["confi",-11.444732084731998],["potenciar",-11.445067584210616],["profundizar",-11.445631530426446],["Kev",-11.445993519661783],["Ós",-11.446020906232004],["parroquia",-11.446456173366567],["Ch",-11.44749498644645],["adilla",-11.447605360159958],["Patrimoni",-11.447765389078743],["claras",-11.44847273671163],["atendida",-11.44866497752248],["fasi",-11.448951625810022],["CN",-11.449170329370808],["AM",-11.4494405749781],["caín",-11.449597795337306],["Dan",-11.450016093178018],["112",-11.45011236074871],["limitada",-11.450165611812846],["unanimi",-11.450470376922325],["SD",-11.450645114827905],["campista",-11.451039533865568],["defensiva",-11.451353843770871],["estricta",-11.451353996834435],["aplique",-11.451354786880787],["Puig",-11.451360740596211],["baloncest",-11.451368178012238],["confinamiento",-11.451369300133358],["matrícula",-11.451370842317077],["sucursal",-11.451373145869942],["optimista",-11.451378873090217],["fganis",-11.451382436707354],["fortaleza",-11.451392918687503],["embajada",-11.451401015929093],["recogida",-11.451483529288687],["tripulante",-11.451490422486568],["corregir",-11.45153461019057],["ONG",-11.451566943079815],["convocada",-11.45161713738646],["Pleno",-11.45162077466918],["Metro",-11.451623678111618],["hermoso",-11.451627831555731],["pronunciado",-11.451696939864304],["Thomas",-11.451920044644249],["Gold",-11.451924383808592],["Estrella",-11.451985747566694],["lágrima",-11.451991991818268],["parlamentaria",-11.451992207081132],["religioso",-11.452034649299861],["Mira",-11.452215332817925],["Arroyo",-11.452367766147555],["gripe",-11.452406412485532],["pilar",-11.452592187152392],["smartphone",-11.452621745298684],["acusada",-11.452633321601907],["diría",-11.452749533042184],["perdón",-11.452874934673494],["agravado",-11.453048463446269],["insuficiente",-11.453136711528423],["ejecutado",-11.453268695049815],["hipoteca",-11.453307594511612],["portería",-11.453557543043376],["exigen",-11.453800521339268],["universidade",-11.453852535190542],["orilla",-11.453857789518608],["extendi",-11.453865127965365],["volv",-11.453910973363325],["cencia",-11.453916365190835],["limitar",-11.454319103620135],["Arsen",-11.454582053625092],["decora",-11.454791620360073],["aterriz",-11.45490869748058],["adquirido",-11.4551769246624],["revelado",-11.455243859845165],["valorado",-11.455546836861881],["dejaro",-11.455689267035975],["alejado",-11.455718521673914],["bolet",-11.456068377183948],["surge",-11.456880970714217],["urnas",-11.456941686829616],["grabar",-11.45701296175351],["cargar",-11.457967743887114],["mata",-11.458244585142804],["“¡",-11.458606297230117],["pura",-11.45892510592888],["extrac",-11.458933229911816],["reclamar",-11.45914810677815],["Andre",-11.459387789381804],["azón",-11.459996910085465],["organiz",-11.460185645227451],["drama",-11.460471788549954],["Colim",-11.460597879809825],["Defensor",-11.460858172352824],["faltan",-11.461098474562856],["vendi",-11.461619290898247],["eliminatoria",-11.461851904688254],["medi",-11.461874398910613],["One",-11.462207166356375],["ictamen",-11.462751570065214],["dañar",-11.46316493777428],["digna",-11.463198082942906],["Sant",-11.463276551904059],["pidier",-11.463690226677118],["autorizado",-11.46372810977688],["deriv",-11.463845046989183],["iz",-11.463920741210597],["ville",-11.463936883945136],["recicla",-11.463955547405],["sab",-11.464408302809886],["consola",-11.464412587657485],["intencion",-11.464504156523684],["procesado",-11.464802906673508],["consume",-11.465003931738918],["Tél",-11.4654069583556],["tía",-11.465794456274358],["cancelar",-11.466011413144521],["renunciar",-11.466355713261578],["desapareci",-11.466415016353762],["period",-11.467024150246296],["anidad",-11.467350389774765],["alejar",-11.46785459425898],["IP",-11.468430646730479],["196",-11.469679400373982],["secuestrado",-11.469919353299288],["afectará",-11.46992721881052],["gestor",-11.469952772894736],["elimin",-11.470169990814107],["campos",-11.470423334457028],["detener",-11.470475666404555],["recorr",-11.470975615766495],["diz",-11.471577818859448],["favorece",-11.47185990131317],["eiro",-11.472243926019166],["Ford",-11.472641889440492],["IPC",-11.473576189451116],["Ra",-11.473661649406754],["visitado",-11.474008309763668],["pronunciar",-11.474470447997772],["gustos",-11.47447798986588],["costar",-11.47548367074333],["mediano",-11.476096330557809],["Eco",-11.47633881555425],["oportuna",-11.4779613936958],["pauta",-11.478229570557584],["hotele",-11.478456149961815],["décimo",-11.478588293828304],["cho",-11.478922848773973],["quince",-11.480307351998805],["flexible",-11.480477750123967],["bonita",-11.480517131315693],["príncipe",-11.480765593710183],["protagonismo",-11.480765593833706],["trágico",-11.480765595448633],["Zelensky",-11.480765699451954],["diabet",-11.480766550092634],["Comisaría",-11.48077457498752],["multitud",-11.480777605333687],["adversario",-11.480779224456626],["bélico",-11.480780530056695],["adulta",-11.480783029683419],["amplon",-11.480785683116679],["Ernest",-11.480826516477139],["bilateral",-11.480830554839557],["terraza",-11.480844112789502],["curva",-11.480944474718571],["relevamiento",-11.480945107081496],["Libre",-11.480961827457389],["Diario",-11.481057280621974],["utilidad",-11.481155575020294],["perjuicio",-11.481181522982101],["catán",-11.481226309481167],["inesperado",-11.481267178699564],["ros",-11.481284635899407],["Conferencia",-11.48136328247653],["Jair",-11.48144414109554],["Sindicato",-11.48151215811837],["sancionado",-11.481610295766439],["Amor",-11.48168205561277],["nace",-11.4817942141381],["poderosa",-11.481801235465834],["Cartag",-11.481811013820698],["Bolsa",-11.481873529968572],["ayudan",-11.481995108365071],["hielo",-11.482057507488108],["congreso",-11.482202900554025],["Mañana",-11.482307688565893],["News",-11.482385112309222],["Facu",-11.482406668976964],["avia",-11.482461163928884],["docena",-11.482869831637759],["oficialista",-11.483266544026636],["juguete",-11.483361614424751],["pesca",-11.483592796910964],["cruzado",-11.483655092169723],["guion",-11.483664226148374],["Rubi",-11.483680321346025],["Ga",-11.483834777740107],["Ba",-11.484077920218228],["Tú",-11.484458094532231],["ofrecido",-11.484914700381335],["Ronaldo",-11.485122534234579],["Justo",-11.485320146715681],["llevada",-11.485765005775237],["pronta",-11.485772098393376],["positiv",-11.485779750531712],["encabezado",-11.485835621731894],["ordenador",-11.486083901314068],["Cro",-11.48611260343764],["labore",-11.48672786969685],["aclara",-11.486929715809358],["fijado",-11.4870006876289],["pausa",-11.487466206431392],["DI",-11.487954774594499],["intentaba",-11.488007096637181],["repite",-11.488308853661504],["horno",-11.488327764831151],["tocado",-11.488942660811732],["pedía",-11.489303905242254],["bles",-11.489429754540609],["Papa",-11.489459212034646],["oculta",-11.489569482719068],["escoger",-11.49012421548564],["delegada",-11.490207470080563],["saltar",-11.490321976815078],["iebre",-11.490893586108095],["Vlad",-11.491197932958642],["War",-11.491632933520545],["Vidal",-11.491999174006583],["traj",-11.492243785668979],["entusiasm",-11.492617386991064],["llenar",-11.492984818458693],["toño",-11.493435364126162],["Jean",-11.494088426083595],["anim",-11.49424237100766],["Toro",-11.494403666722608],["Joan",-11.494529299352244],["contact",-11.495162962082201],["ango",-11.495908638754985],["gobernadora",-11.495981430749755],["chance",-11.496716428511027],["Roo",-11.496954497896024],["igan",-11.497020267514959],["Maya",-11.497277143779417],["séptim",-11.497307635670749],["Do",-11.497356179824235],["feriado",-11.497591256921925],["cualidad",-11.497912856749366],["march",-11.498560276820635],["suya",-11.500634925405986],["típico",-11.501266452224282],["MP",-11.501433131931279],["ándole",-11.501515197603798],["sumará",-11.501876857099035],["pagado",-11.502680542090678],["derrotar",-11.50345076193021],["disput",-11.505088598876014],["extradi",-11.50512812132307],["daría",-11.505375014297359],["televisor",-11.505483707743583],["ang",-11.506259663181808],["ping",-11.506273349631998],["anillo",-11.506405958372206],["secuencia",-11.506492326746741],["GM",-11.507375886378275],["mento",-11.507495418246258],["estatu",-11.508060971000647],["efectiv",-11.5087257117993],["UCR",-11.508982650225052],["profesi",-11.509083067910407],["revé",-11.510141450379917],["respiratoria",-11.51027599114662],["ocurrier",-11.51035731823809],["avis",-11.510413512099436],["concesi",-11.510502856043056],["experta",-11.510780321416362],["conveniente",-11.51082470912553],["compar",-11.51094506181094],["quirúrgica",-11.511068624013165],["híbrido",-11.511068738310385],["clásica",-11.511068740002349],["sexenio",-11.511069920370339],["gasoducto",-11.511071603942053],["farmacia",-11.511075642998213],["aplauso",-11.511076563919307],["porcentual",-11.511078933916945],["complejidad",-11.511094706723675],["semejante",-11.511099136290756],["elegante",-11.511104347841552],["valiente",-11.511106301643565],["inevitable",-11.511122785597205],["informático",-11.511139376258152],["progresista",-11.51118331025831],["pretendía",-11.511234058817582],["Obvi",-11.511245205626652],["Minuto",-11.51130893505447],["Noticia",-11.511336250631361],["existía",-11.511348525166047],["Josep",-11.511364832037419],["reclaman",-11.511393629647612],["delicado",-11.511437781575584],["inesperada",-11.511440894461181],["aislada",-11.511576829525845],["Caballero",-11.511584800510231],["imagina",-11.511628353931359],["peruana",-11.51168802576499],["Chiapa",-11.511706320470742],["apartamento",-11.511709812315647],["convocar",-11.511752257214177],["suspendida",-11.512157153977117],["vendrá",-11.512165409635628],["desarrollada",-11.512183010105089],["nocturno",-11.512225983335416],["crucial",-11.512234743472954],["noro",-11.512236987206157],["lapso",-11.512242200190071],["integrada",-11.512384666498418],["mama",-11.512411526742978],["intervenir",-11.512559680672195],["Niet",-11.512669960412314],["rodado",-11.512961699202258],["Vigo",-11.513184976222112],["fresco",-11.513672895236763],["aforo",-11.513851684459691],["analizado",-11.514009794793239],["celebrada",-11.51429936296422],["Cerro",-11.514758084330325],["ran",-11.51510166051108],["Cuánto",-11.515137297222775],["hipó",-11.515165930533815],["Integral",-11.515404167096124],["fiz",-11.515916596069761],["illo",-11.516233597626636],["acompañante",-11.516506475462927],["Henr",-11.516852399515566],["montar",-11.517200950382955],["Var",-11.518068475936452],["ocupante",-11.51810632092532],["aprendido",-11.51811069300322],["Chris",-11.518217228182365],["inmensa",-11.518562104024328],["uniforme",-11.518775668493603],["confronta",-11.518980981962592],["Hond",-11.519094675768144],["Bio",-11.51910988331119],["llorar",-11.519257030126314],["localiza",-11.519386329936511],["Familiar",-11.519811869359337],["arreglar",-11.519937394853049],["dialog",-11.520306969948987],["difundi",-11.521367571579418],["reten",-11.521457508430258],["Ambiental",-11.521616376548142],["buscado",-11.522601650339343],["beneficiado",-11.52265598353582],["Bél",-11.522714485487102],["Gal",-11.522879243563967],["cuenten",-11.524168890922809],["preparan",-11.5242230419057],["Habla",-11.524274907412101],["Cal",-11.52436166803943],["explotar",-11.5244891911881],["cayer",-11.52465351844864],["Mé",-11.524682365316103],["estrena",-11.525149226172143],["legislatura",-11.525373845330336],["Ton",-11.525427943521054],["Isid",-11.525630280109084],["lote",-11.525972539940248],["Che",-11.526066720233386],["foment",-11.526803700700553],["angustia",-11.526989984298218],["ERC",-11.527244975983091],["tributo",-11.528346959714987],["entera",-11.528890029888403],["360",-11.529017622463654],["coloc",-11.530104226083397],["cito",-11.530265711127974],["taxi",-11.531134211367968],["pud",-11.5314639461611],["fichaje",-11.531522659678904],["alertado",-11.531597861579451],["mecánico",-11.531946469775646],["controlado",-11.532231417699583],["resaltar",-11.532345938323843],["William",-11.532348255616652],["billon",-11.532820008703283],["impedir",-11.53283784969588],["humilde",-11.532886571454846],["Hu",-11.53296021597031],["ígeno",-11.533568912612326],["egislatura",-11.5336426868019],["motore",-11.534322910167742],["Eric",-11.534562217272704],["relaciona",-11.534902385785646],["tero",-11.534912533220911],["Abu",-11.535343658541752],["torre",-11.535345891590275],["Alcar",-11.535492771222536],["Kim",-11.535568660968734],["Tuv",-11.535774503369893],["rov",-11.535786277555072],["neto",-11.536308567013398],["bola",-11.536597318001618],["sobrevivir",-11.536676540498032],["Destaca",-11.536730858722885],["amenaz",-11.537092523172415],["trasera",-11.537109327875013],["relevan",-11.537127482160585],["terminan",-11.537519682977777],["Clara",-11.53769381954719],["dialogar",-11.537867995183532],["St",-11.538173362978693],["Guaya",-11.53821761083688],["exclusi",-11.53845489783378],["inaugural",-11.538725701367767],["amo",-11.538777100963216],["frances",-11.538853808012604],["pronostica",-11.538854138682686],["Pase",-11.53908326703904],["accionar",-11.53913811484568],["Mara",-11.539404737952538],["Cambi",-11.539636144411622],["increment",-11.53975312195529],["parezca",-11.54006250696828],["reciba",-11.540718247035477],["químico",-11.540780699878857],["debida",-11.54218457976241],["*",-11.54229595685171],["automático",-11.542310264287481],["tráiler",-11.542318624292141],["pacífica",-11.542318627978338],["navideño",-11.542318635286925],["emblemático",-11.5423186369919],["romántica",-11.5423186690208],["satisfecho",-11.542318822839544],["olímpica",-11.54231882527257],["hombro",-11.542319913759012],["Secretaria",-11.542323943171532],["comience",-11.542324920913021],["mochila",-11.542326150435006],["comunitaria",-11.54232713544715],["autonómica",-11.54232941039755],["cohete",-11.542329431322297],["inquietud",-11.542334642489827],["Corriente",-11.542342986733956],["́n",-11.542357970524051],["chilena",-11.542369955843858],["súper",-11.542375860625423],["ocurra",-11.542382796231749],["solidario",-11.54239556975387],["Galax",-11.542408727521213],["diseñada",-11.542410325894842],["llamativo",-11.54241409480386],["Frank",-11.542430936914423],["reportaje",-11.542432379605433],["poeta",-11.542484896977953],["estética",-11.542547491547586],["Migra",-11.542559161481165],["Lugo",-11.542578960297986],["Velá",
[...]
