{"version":"1.0","truncation":null,"padding":null,"added_tokens":[{"id":0,"special":true,"content":"<UNK>","single_word":false,"lstrip":false,"rstrip":false,"normalized":false},{"id":1,"special":true,"content":"<SEP>","single_word":false,"lstrip":false,"rstrip":false,"normalized":false},{"id":2,"special":true,"content":"<MASK>","single_word":false,"lstrip":false,"rstrip":false,"normalized":false},{"id":3,"special":true,"content":"<CLS>","single_word":false,"lstrip":false,"rstrip":false,"normalized":false}],"normalizer":null,"pre_tokenizer":{"type":"Whitespace"},"post_processor":null,"decoder":null,"model":{"type":"BPE","dropout":null,"unk_token":"<UNK>","continuing_subword_prefix":null,"end_of_word_suffix":null,"fuse_unk":false,"vocab":{"<UNK>":0,"<SEP>":1,"<MASK>":2,"<CLS>":3,"!":4,"\"":5,"$":6,"%":7,"&":8,"'":9,"(":10,")":11,"*":12,"+":13,",":14,"-":15,".":16,"/":17,"0":18,"1":19,"2":20,"3":21,"4":22,"5":23,"6":24,"7":25,"8":26,"9":27,":":28,";":29,"<":30,"?":31,"A":32,"B":33,"C":34,"D":35,"E":36,"F":37,"G":38,"H":39,"I":40,"J":41,"K":42,"L":43,"M":44,"N":45,"O":46,"P":47,"Q":48,"R":49,"S":50,"T":51,"U":52,"V":53,"W":54,"X":55,"Y":56,"Z":57,"`":58,"a":59,"b":60,"c":61,"d":62,"e":63,"f":64,"g":65,"h":66,"i":67,"j":68,"k":69,"l":70,"m":71,"n":72,"o":73,"p":74,"q":75,"r":76,"s":77,"t":78,"u":79,"v":80,"w":81,"x":82,"y":83,"z":84,"~":85,"¡":86,"¢":87,"£":88,"¦":89,"§":90,"¨":91,"ª":92,"«":93,"®":94,"¯":95,"°":96,"²":97,"³":98,"´":99,"·":100,"º":101,"»":102,"¼":103,"½":104,"¾":105,"¿":106,"À":107,"Á":108,"Ä":109,"Å":110,"Ç":111,"É":112,"Í":113,"Î":114,"Ñ":115,"Ò":116,"Ó":117,"Ö":118,"×":119,"Ú":120,"Ü":121,"ß":122,"à":123,"á":124,"â":125,"ã":126,"ä":127,"å":128,"ç":129,"è":130,"é":131,"ê":132,"ë":133,"ì":134,"í":135,"î":136,"ï":137,"ð":138,"ñ":139,"ò":140,"ó":141,"ô":142,"õ":143,"ö":144,"ø":145,"ú":146,"û":147,"ü":148,"ā":149,"ă":150,"ć":151,"ē":152,"ę":153,"ğ":154,"İ":155,"ı":156,"ł":157,"ń":158,"ō":159,"ś":160,"ş":161,"Š":162,"Ÿ":163,"˜":164,"˝":165,"̀":166,"́":167,"̃":168,"μ":169,"н":170,"у":171,"ᵃ":172,"ễ":173,"ỗ":174,"‎":175,"–":176,"—":177,"―":178,"‘":179,"’":180,"“":181,"”":182,"†":183,"‡":184,"•":185,"…":186,"′":187,"″":188,"₂":189,"₡":190,"€":191,"℃":192,"™":193,"−":194,"⏩":195,"⏰":196,"⏱":197,"─":198,"▌":199,"▶":200,"◆":201,"☀":202,"★":203,"☕":204,"☝":205,"⚠":206,"⚽":207,"✅":208,"✊":209,"✓":210,"✔":211,"✨":212,"❉":213,"❗":214,"❣":215,"❤":216,"➡":217,"➤":218,"⬇":219,"⭐":220,"【":221,"】":222,"帽":223,"煤":224,"脕":225,"茅":226,"谩":227,"贸":228,"铆":229,"":230,"ﬁ":231,"️":232,"＊":233,"de":234,"en":235,"es":236,"os":237,"la":238,"er":239,"ar":240,"on":241,"ci":242,"ue":243,"an":244,"or":245,"al":246,"as":247,"ad":248,"el":249,"que":250,"un":251,"in":252,"re":253,"ent":254,"ti":255,"con":256,"se":257,"ta":258,"tr":259,"di":260,"co":261,"te":262,"ón":263,"do":264,"pr":265,"to":266,"los":267,"par":268,"mi":269,"ca":270,"cu":271,"su":272,"ción":273,"por":274,"si":275,"vi":276,"le":277,"del":278,"lo":279,"ha":280,"li":281,"ado":282,"mo":283,"las":284,"da":285,"no":286,"bi":287,"per":288,"ma":289,"ri":290,"ra":291,"para":292,"des":293,"tu":294,"una":295,"ía":296,"mp":297,"ment":298,"ec":299,"pro":300,"dad":301,"cion":302,"so":303,"ui":304,"est":305,"tra":306,"po":307,"ter":308,"me":309,"is":310,"má":311,"ro":312,"ac":313,"go":314,"res":315,"ba":316,"ten":317,"fi":318,"pa":319,"mos":320,"cia":321,"ari":322,"ada":323,"más":324,"vo":325,"El":326,"den":327,"ali":328,"ch":329,"tor":330,"man":331,"dos":332,"pu":333,"mu":334,"ran":335,"pres":336,"gu":337,"ex":338,"Es":339,"ni":340,"qui":341,"du":342,"La":343,"tos":344,"esta":345,"tar":346,"ales":347,"añ":348,"ciones":349,"pi":350,"án":351,"tan":352,"era":353,"mente":354,"va":355,"mb":356,"cas":357,"como":358,"ce":359,"lu":360,"im":361,"car":362,"ados":363,"tes":364,"son":365,"ver":366,"ab":367,"min":368,"ser":369,"En":370,"mbi":371,"ando":372,"za":373,"for":374,"tro":375,"jo":376,"20":377,"ente":378,"mient":379,"uni":380,"com":381,"ve":382,"este":383,"us":384,"cer":385,"gi":386,"les":387,"pe":388,"mar":389,"na":390,"can":391,"pre":392,"én":393,"ero":394,"sus":395,"lan":396,"ga":397,"tas":398,"lar":399,"ador":400,"der":401,"cos":402,"je":403,"dis":404,"gar":405,"pos":406,"fu":407,"ru":408,"ia":409,"ho":410,"ene":411,"ones":412,"men":413,"sa":414,"gen":415,"tal":416,"ble":417,"au":418,"pas":419,"ya":420,"bre":421,"eron":422,"ras":423,"emp":424,"és":425,"fue":426,"00":427,"lle":428,"das":429,"miento":430,"mbién":431,"rec":432,"hab":433,"parti":434,"pue":435,"mas":436,"cio":437,"cial":438,"entre":439,"medi":440,"qu":441,"”,":442,"ol":443,"zar":444,"hor":445,"ob":446,"seg":447,"cre":448,"ven":449,"hi":450,"person":451,"gra":452,"ación":453,"ario":454,"tin":455,"pero":456,"gan":457,"có":458,"entes":459,"fin":460,"comp":461,"ún":462,"io":463,"años":464,"ís":465,"xi":466,"sión":467,"pon":468,"mis":469,"ces":470,"cal":471,"adas":472,"tras":473,"encia":474,"iden":475,"lí":476,"dades":477,"sin":478,"endo":479,"Se":480,"tros":481,"inter":482,"ne":483,"dr":484,"nos":485,"prim":486,"fer":487,"también":488,"dar":489,"está":490,"fa":491,"han":492,"traba":493,"tri":494,"enta":495,"mento":496,"Co":497,"ores":498,"zo":499,"tado":500,"cor":501,"esti":502,"emb":503,"sobre":504,"tó":505,"Con":506,"ll":507,"forma":508,"desde":509,"ur":510,"cono":511,"nue":512,"cional":513,"ja":514,"tivo":515,"bli":516,"”.":517,"ina":518,"lla":519,"Los":520,"ante":521,"posi":522,"ju":523,"bo":524,"don":525,"ele":526,"cho":527,"ag":528,"asta":529,"ías":530,"cado":531,"fec":532,"gran":533,"De":534,"aron":535,"bier":536,"ul":537,"tiene":538,"ber":539,"sta":540,"lti":541,"pen":542,"ay":543,"In":544,"cen":545,"202":546,"Al":547,"cias":548,"Por":549,"todo":550,"arios":551,"contra":552,"muy":553,"ña":554,"nu":555,"mer":556,"país":557,"tiv":558,"cur":559,"be":560,"imp":561,"cri":562,"ctor":563,"parte":564,"reali":565,"antes":566,"ir":567,"Re":568,"may":569,"demás":570,"esto":571,"hasta":572,"hay":573,"tica":574,"mes":575,"últi":576,"ing":577,"cios":578,"ana":579,"fun":580,"eces":581,"gr":582,"bu":583,"jor":584,"deci":585,"reg":586,"ido":587,"rante":588,"mó":589,"fr":590,"alg":591,"año":592,"pec":593,"acu":594,"personas":595,"jer":596,"tura":597,"cada":598,"19":599,"ara":600,"ban":601,"donde":602,"ño":603,"reci":604,"presiden":605,"tiva":606,"clu":607,"día":608,"cuando":609,"entr":610,"No":611,"mili":612,"tran":613,"udad":614,"em":615,"hora":616,"tados":617,"titu":618,"cip":619,"cla":620,"emos":621,"lación":622,"sig":623,"produ":624,"pla":625,"bili":626,"ona":627,"ese":628,"hu":629,"pli":630,"teri":631,"alu":632,"equi":633,"fir":634,"ían":635,"bierno":636,"porque":637,"ini":638,"cha":639,"úbli":640,"br":641,"ase":642,"cción":643,"quien":644,"\",":645,"dijo":646,"tante":647,"otros":648,"hacer":649,"tori":650,"pun":651,"uno":652,"cación":653,"quier":654,"present":655,"tener":656,"sis":657,"dio":658,"adores":659,"todos":660,"undo":661,"Uni":662,"nues":663,"mill":664,"Mar":665,"mismo":666,"ano":667,"uel":668,"ará":669,"rá":670,"puede":671,"San":672,"adi":673,"van":674,"unos":675,"durante":676,"aria":677,"tiemp":678,"elec":679,"mejor":680,"Las":681,"estos":682,"cuent":683,"almente":684,"impor":685,"sos":686,"jue":687,"fe":688,"alidad":689,"val":690,"dó":691,"hec":692,"il":693,"ciales":694,"trabaj":695,"pués":696,"zó":697,"tien":698,"ciudad":699,"millones":700,"tico":701,"están":702,"pera":703,"neces":704,"An":705,"minis":706,"públi":707,"sí":708,"primer":709,"\".":710,"lado":711,"mayor":712,"gas":713,"solo":714,"comuni":715,"am":716,"eso":717,"ern":718,"Ar":719,"estado":720,"segui":721,"vez":722,"sab":723,"ión":724,"fal":725,"tur":726,"che":727,"plan":728,"Na":729,"tiempo":730,"ins":731,"fuer":732,"estu":733,"lugar":734,"indi":735,"presidente":736,"lab":737,"sido":738,"actu":739,"cons":740,"ció":741,"ento":742,"vel":743,"cambi":744,"Si":745,"ás":746,"tres":747,"cía":748,"famili":749,"ér":750,"Mi":751,"podr":752,"ena":753,"polí":754,"seman":755,"esa":756,"empres":757,"yec":758,"var":759,"hace":760,"gos":761,"momento":762,"estar":763,"ori":764,"ino":765,"Di":766,"cul":767,"vir":768,"infor":769,"vida":770,"bien":771,"segu":772,"gener":773,"pan":774,"tí":775,"tivos":776,"respon":777,"direc":778,"tir":779,"zación":780,"así":781,"jun":782,"dió":783,"pren":784,"much":785,"días":786,"yo":787,"arro":788,"llo":789,"después":790,"eli":791,"tru":792,"Ca":793,"10":794,"había":795,"Go":796,"cual":797,"via":798,"fo":799,"ridad":800,"embre":801,"espe":802,"cin":803,"estas":804,"Le":805,"ños":806,"inv":807,"tem":808,"Ta":809,"mentos":810,"pasado":811,"her":812,"zado":813,"sent":814,"camp":815,"primera":816,"ton":817,"Su":818,"trans":819,"dor":820,").":821,"dido":822,"caso":823,"mon":824,"Además":825,"espa":826,"it":827,"muni":828,"Cu":829,"cuenta":830,"),":831,"ista":832,"vin":833,"mujer":834,"vis":835,"eno":836,"compañ":837,"nacional":838,"mbre":839,"Ju":840,"edad":841,"dado":842,"Des":843,"menos":844,"dej":845,"proyec":846,"horas":847,"tienen":848,"Pero":849,"pes":850,"tanto":851,"lares":852,"uego":853,"tema":854,"propi":855,"his":856,"bilidad":857,"2022":858,"vol":859,"encuent":860,"unque":861,"prin":862,"To":863,"bar":864,"Po":865,"situ":866,"Ro":867,"fen":868,"uro":869,"tación":870,"Car":871,"medio":872,"ahora":873,"ge":874,"trabajo":875,"hos":876,"hí":877,"Lo":878,"000":879,"hecho":880,"Vi":881,"equipo":882,"pri":883,"termin":884,"tre":885,"erdo":886,"peri":887,"din":888,"mpli":889,"ceso":890,"resul":891,"Me":892,"pró":893,"toria":894,"ale":895,"bas":896,"asegu":897,"Esta":898,"éxi":899,"ris":900,"cran":901,"otro":902,"nada":903,"señ":904,"anti":905,"tivi":906,"bus":907,"conoci":908,"gua":909,"toda":910,"servi":911,"fueron":912,"visi":913,"inf":914,"ves":915,"Este":916,"embar":917,"ion":918,"So":919,"abri":920,"según":921,"Para":922,"san":923,"tuvo":924,"partido":925,"éc":926,"unas":927,"mado":928,"mundo":929,"mil":930,"tel":931,"difer":932,"organ":933,"30":934,"mucho":935,"expli":936,"autori":937,"qué":938,"alud":939,"manera":940,"permi":941,"gente":942,"contin":943,"lleg":944,"mé":945,"he":946,"ticas":947,"arias":948,"dan":949,"gía":950,"nuevo":951,"ener":952,"cier":953,"Ci":954,"leg":955,"Gobierno":956,"gru":957,"jos":958,"será":959,"embargo":960,"semana":961,"gent":962,"arse":963,"inclu":964,"formación":965,"labor":966,"15":967,"Gu":968,"investi":969,"Sin":970,"cent":971,"contr":972,"ofi":973,"sali":974,"idad":975,"zas":976,"bles":977,"tad":978,"ómi":979,"Seg":980,"ie":981,"»,":982,"mientos":983,"Pro":984,"cipi":985,"comi":986,"col":987,"18":988,"empre":989,"ví":990,"int":991,"hoy":992,"vas":993,"versi":994,"eje":995,"Pa":996,"puesta":997,"acuerdo":998,"ros":999,"12":1000,"junto":1001,"atro":1002,"paci":1003,"recibi":1004,"nivel":1005,"algo":1006,"pare":1007,"comen":1008,"fes":1009,"cir":1010,"poder":1011,"vos":1012,"vés":1013,"recu":1014,"mientras":1015,"tifi":1016,"pel":1017,"desarro":1018,"terior":1019,"comple":1020,"sal":1021,"ayu":1022,"ata":1023,"regi":1024,"dera":1025,"parec":1026,"op":1027,"of":1028,"proble":1029,"jug":1030,"progra":1031,"nor":1032,"nueva":1033,"teni":1034,"Un":1035,"erra":1036,"desta":1037,"gobierno":1038,"pital":1039,"apro":1040,"próxi":1041,"tario":1042,"través":1043,"Li":1044,"poli":1045,"puesto":1046,"casi":1047,"Nacional":1048,"consi":1049,"trata":1050,"apo":1051,"sea":1052,"cr":1053,"Espa":1054,"ade":1055,"mor":1056,"publi":1057,"obje":1058,"regis":1059,"además":1060,"ello":1061,"Ru":1062,"tención":1063,"soli":1064,"ella":1065,"pueden":1066,"domin":1067,"bri":1068,"tenido":1069,"sector":1070,"siempre":1071,"Una":1072,"recor":1073,"dro":1074,"También":1075,"consu":1076,"fí":1077,"debe":1078,"anun":1079,"fica":1080,"funcion":1081,"tió":1082,"situación":1083,"ellos":1084,"importante":1085,"activi":1086,"fici":1087,"tendr":1088,"port":1089,"haber":1090,"cómo":1091,"esper":1092,"seguridad":1093,"bajo":1094,"final":1095,"bra":1096,"mal":1097,"éxico":1098,"Según":1099,"afec":1100,"México":1101,"luego":1102,"aunque":1103,"cto":1104,"otras":1105,"vent":1106,"seguir":1107,"llegar":1108,"jus":1109,"meses":1110,"cel":1111,"dida":1112,"persona":1113,"ticos":1114,"todas":1115,"reso":1116,"bol":1117,"casa":1118,"eros":1119,"loc":1120,"tá":1121,"conómi":1122,"Par":1123,"estra":1124,"tivas":1125,"otra":1126,"».":1127,"sia":1128,"él":1129,"organi":1130,"evi":1131,"tido":1132,"ocu":1133,"edi":1134,"conta":1135,"nico":1136,"et":1137,"ez":1138,"minu":1139,"algunos":1140,"España":1141,"tipo":1142,"tec":1143,"logr":1144,"bado":1145,"Cas":1146,"ló":1147,"lio":1148,"undi":1149,"princip":1150,"ín":1151,"estaba":1152,"taron":1153,"rió":1154,"dente":1155,"gencia":1156,"unda":1157,"realizar":1158,"tempor":1159,"quer":1160,"dere":1161,"rela":1162,"total":1163,"14":1164,"sen":1165,"porte":1166,"muer":1167,"Estados":1168,"só":1169,"2021":1170,"bido":1171,"ley":1172,"tili":1173,"uros":1174,"unes":1175,"casos":1176,"cli":1177,"ace":1178,"Pe":1179,"dores":1180,"mero":1181,"11":1182,"ocur":1183,"culo":1184,"económi":1185,"cuatro":1186,"hizo":1187,"posición":1188,"ró":1189,"unta":1190,"dieron":1191,"Unidos":1192,"50":1193,"ctu":1194,"ismo":1195,"nú":1196,"diri":1197,"muchos":1198,"mia":1199,"partici":1200,"zona":1201,"tera":1202,"at":1203,"anos":1204,"sor":1205,"demos":1206,"uela":1207,"encontr":1208,"poco":1209,"istas":1210,"Estado":1211,"super":1212,"gación":1213,"pecto":1214,"vuel":1215,"tis":1216,"vía":1217,"Ucran":1218,"avi":1219,"ning":1220,"inte":1221,"tantes":1222,"especial":1223,"Min":1224,"blo":1225,"encias":1226,"17":1227,"afir":1228,"ide":1229,"auto":1230,"Ucrania":1231,"16":1232,"centr":1233,"Ri":1234,"sociales":1235,"último":1236,"necesi":1237,"proyecto":1238,"gado":1239,"cele":1240,"manda":1241,"autoridades":1242,"amb":1243,"mad":1244,"cimiento":1245,"familia":1246,"ren":1247,"mano":1248,"defen":1249,"movi":1250,"decir":1251,"ío":1252,"desa":1253,"tando":1254,"undial":1255,"provin":1256,"cido":1257,"cti":1258,"efec":1259,"tamente":1260,"vivi":1261,"baj":1262,"euros":1263,"mani":1264,"frente":1265,"13":1266,"partir":1267,"áre":1268,"Ch":1269,"contro":1270,"pública":1271,"salud":1272,"seña":1273,"tada":1274,"Cor":1275,"torio":1276,"estable":1277,"caus":1278,"nica":1279,"profes":1280,"ticia":1281,"tencia":1282,"expres":1283,"dia":1284,"Esto":1285,"sino":1286,"Ser":1287,"eta":1288,"vac":1289,"política":1290,"Val":1291,"quienes":1292,"grupo":1293,"cionales":1294,"iscal":1295,"cl":1296,"bal":1297,"información":1298,"fra":1299,"zada":1300,"alcan":1301,"llev":1302,"demia":1303,"gol":1304,"cil":1305,"Mu":1306,"conse":1307,"exis":1308,"dez":1309,"utili":1310,"ora":1311,"podría":1312,"proceso":1313,"Fe":1314,"depen":1315,"siones":1316,"agua":1317,"ernes":1318,"unidad":1319,"pob":1320,"programa":1321,"sá":1322,"reuni":1323,"rica":1324,"chi":1325,"aban":1326,"Per":1327,"uso":1328,"ciendo":1329,"redes":1330,"fon":1331,"historia":1332,"gentina":1333,"Así":1334,"Euro":1335,"Bar":1336,"comer":1337,"Man":1338,"Pu":1339,"lunes":1340,"nuestro":1341,"Bo":1342,"distin":1343,"ican":1344,"hacia":1345,"mañ":1346,"acto":1347,"tores":1348,"países":1349,"Qu":1350,"Rusia":1351,"viernes":1352,"puntos":1353,"manos":1354,"Mad":1355,"condi":1356,"avan":1357,"vehí":1358,"sica":1359,"últimos":1360,"ses":1361,"conver":1362,"datos":1363,"adora":1364,"conocer":1365,"200":1366,"cinco":1367,"igu":1368,"terio":1369,"cados":1370,"dentro":1371,"cep":1372,"ministra":1373,"chos":1374,"mujeres":1375,"nuestra":1376,"visión":1377,"compro":1378,"escri":1379,"cuer":1380,"tenía":1381,"mí":1382,"rar":1383,"az":1384,"capaci":1385,"social":1386,"usu":1387,"anza":1388,"dice":1389,"Mon":1390,"vista":1391,"perio":1392,"ger":1393,"confir":1394,"compr":1395,"general":1396,"ev":1397,"cualquier":1398,"rera":1399,"cumpli":1400,"dencia":1401,"cambio":1402,"centro":1403,"mañana":1404,"ben":1405,"jes":1406,"continu":1407,"metros":1408,"porta":1409,"posible":1410,"ministro":1411,"vil":1412,"Minis":1413,"oport":1414,"registr":1415,"ck":1416,"vícti":1417,"aún":1418,"veces":1419,"espera":1420,"apli":1421,"condu":1422,"cipio":1423,"pación":1424,"Du":1425,"denun":1426,"nego":1427,"señal":1428,"gue":1429,"dese":1430,"residen":1431,"número":1432,"varios":1433,"experi":1434,"tancia":1435,"aca":1436,"sábado":1437,"empresa":1438,"deli":1439,"tenemos":1440,"jó":1441,"misión":1442,"ár":1443,"dir":1444,"solu":1445,"público":1446,"habi":1447,"puer":1448,"ración":1449,"cosas":1450,"produc":1451,"recur":1452,"sentido":1453,"Fran":1454,"represent":1455,"dios":1456,"Desde":1457,"cerca":1458,"fuera":1459,"estr":1460,"dólares":1461,"pandemia":1462,"deber":1463,"coment":1464,"buen":1465,"Ho":1466,"óni":1467,"segundo":1468,"Ti":1469,"yó":1470,"poner":1471,"domingo":1472,"aque":1473,"redu":1474,"misma":1475,"asis":1476,"mía":1477,"cole":1478,"sigui":1479,"Argentina":1480,"solici":1481,"hombre":1482,"temporada":1483,"institu":1484,"deo":1485,"ine":1486,"noche":1487,"quí":1488,"Ma":1489,"culos":1490,"24":1491,"enfr":1492,"volu":1493,"sistema":1494,"detal":1495,"camin":1496,"ubi":1497,"unca":1498,"isla":1499,"fav":1500,"enda":1501,"Ale":1502,"líne":1503,"director":1504,"martes":1505,"empresas":1506,"prue":1507,"prote":1508,"uir":1509,"personal":1510,"sigue":1511,"pti":1512,"zan":1513,"oficial":1514,"ciar":1515,"coles":1516,"informó":1517,"diferentes":1518,"25":1519,"fru":1520,"cula":1521,"pad":1522,"tarde":1523,"ércoles":1524,"ami":1525,"vieron":1526,"oni":1527,"servicio":1528,"muchas":1529,"jueves":1530,"Bu":1531,"Ex":1532,"tales":1533,"orden":1534,"peque":1535,"Jos":1536,"ries":1537,"mercado":1538,"miércoles":1539,"valor":1540,"colo":1541,"viol":1542,"vio":1543,"punto":1544,"pl":1545,"respecto":1546,"objetivo":1547,"lante":1548,"oper":1549,"médi":1550,"estamos":1551,"quiere":1552,"ejemp":1553,"inten":1554,"alizar":1555,"niños":1556,"estión":1557,"segunda":1558,"fac":1559,"sue":1560,"jar":1561,"all":1562,"incre":1563,"próximo":1564,"tomar":1565,"media":1566,"pasa":1567,"ciento":1568,"cabe":1569,"ida":1570,"ingres":1571,"recuper":1572,"mir":1573,"sac":1574,"grandes":1575,"bro":1576,"dici":1577,"bene":1578,"alo":1579,"invi":1580,"minutos":1581,"joven":1582,"opera":1583,"lari":1584,"arán":1585,"sur":1586,"mostr":1587,"mensa":1588,"caciones":1589,"zos":1590,"defin":1591,"suf":1592,"insta":1593,"enero":1594,"siendo":1595,"destin":1596,"emple":1597,"edu":1598,"elección":1599,"señaló":1600,"cidad":1601,"finan":1602,"gro":1603,"onces":1604,"sex":1605,"última":1606,"Asi":1607,"onal":1608,"acciones":1609,"Chi":1610,"stitu":1611,"ases":1612,"gober":1613,"Como":1614,"gin":1615,"téc":1616,"sar":1617,"22":1618,"población":1619,"paso":1620,"Ministerio":1621,"Fern":1622,"jas":1623,"ea":1624,"Ha":1625,"venta":1626,"zon":1627,"máxi":1628,"Juan":1629,"ús":1630,"rid":1631,"parece":1632,"ye":1633,"debido":1634,"enfer":1635,"Can":1636,"Ni":1637,"nunca":1638,"acer":1639,"presenta":1640,"largo":1641,"40":1642,"terri":1643,"mental":1644,"Poli":1645,"sub":1646,"Lu":1647,"Mo":1648,"versión":1649,"igual":1650,"tbol":1651,"Asimismo":1652,"cuar":1653,"Hay":1654,"ác":1655,"mple":1656,"pues":1657,"compe":1658,"juego":1659,"encuentro":1660,"problemas":1661,"acompañ":1662,"atención":1663,"logía":1664,"dus":1665,"partidos":1666,"falta":1667,"volver":1668,"exi":1669,"empe":1670,"tex":1671,"cular":1672,"precios":1673,"relación":1674,"extra":1675,"mbres":1676,"precio":1677,"pesos":1678,"err":1679,"caron":1680,"osa":1681,"oso":1682,"secre":1683,"servicios":1684,"decisión":1685,"clar":1686,"mayoría":1687,"Hu":1688,"Or":1689,"recha":1690,"tribu":1691,"curso":1692,"seis":1693,"rido":1694,"able":1695,"llos":1696,"anto":1697,"alto":1698,"guerra":1699,"unio":1700,"fron":1701,"sólo":1702,"eran":1703,"entonces":1704,"ández":1705,"Sa":1706,"cali":1707,"ctubre":1708,"zando":1709,"refer":1710,"Do":1711,"rus":1712,"preg":1713,"fecha":1714,"incluso":1715,"apoyo":1716,"gobern":1717,"ámar":1718,"escen":1719,"nuevos":1720,"versidad":1721,"Mor":1722,"elo":1723,"profesion":1724,"Jo":1725,"ordin":1726,"cargo":1727,"gio":1728,"capital":1729,"té":1730,"queda":1731,"llegó":1732,"junio":1733,"inci":1734,"aument":1735,"región":1736,"manif":1737,"José":1738,"dé":1739,"tidad":1740,"funda":1741,"candida":1742,"gada":1743,"algunas":1744,"visto":1745,"dinero":1746,"ofre":1747,"tina":1748,"pone":1749,"lleva":1750,"ejemplo":1751,"ani":1752,"fico":1753,"2020":1754,"club":1755,"Madrid":1756,"favor":1757,"octubre":1758,"escu":1759,"pron":1760,"buena":1761,"Yo":1762,"local":1763,"ptiembre":1764,"ampli":1765,"uis":1766,"ambi":1767,"carrera":1768,"veci":1769,"regó":1770,"alta":1771,"char":1772,"medidas":1773,"turo":1774,"espacio":1775,"gor":1776,"varias":1777,"marzo":1778,"diciembre":1779,"CO":1780,"ellas":1781,"ciación":1782,"preci":1783,"temas":1784,"intent":1785,"gó":1786,"docu":1787,"tará":1788,"serie":1789,"calle":1790,"aseguró":1791,"estru":1792,"liber":1793,"tero":1794,"enci":1795,"investigación":1796,"cate":1797,"21":1798,"septiembre":1799,"signi":1800,"sas":1801,"interes":1802,"impu":1803,"espec":1804,"confi":1805,"mena":1806,"indicó":1807,"desarrollo":1808,"guar":1809,"obli":1810,"Ciudad":1811,"provincia":1812,"hemos":1813,"novi":1814,"amiento":1815,"ki":1816,"ual":1817,"vid":1818,"haya":1819,"tendrá":1820,"rado":1821,"soci":1822,"encuentra":1823,"tecno":1824,"diente":1825,"Inter":1826,"plata":1827,"constru":1828,"Policía":1829,"ór":1830,"decla":1831,"taciones":1832,"llevar":1833,"capacidad":1834,"Ra":1835,"mada":1836,"evitar":1837,"ares":1838,"dose":1839,"medios":1840,"conomía":1841,"actividad":1842,"cuerpo":1843,"60":1844,"iones":1845,"tural":1846,"Pla":1847,"Tras":1848,"esca":1849,"ejecu":1850,"esos":1851,"anterior":1852,"Entre":1853,"Cuando":1854,"tele":1855,"alcal":1856,"medida":1857,"municip":1858,"noviembre":1859,"depor":1860,"100":1861,"Gar":1862,"Mundial":1863,"dedor":1864,"realidad":1865,"gui":1866,"lor":1867,"aso":1868,"ech":1869,"parta":1870,"mici":1871,"taría":1872,"falle":1873,"estudi":1874,"entro":1875,"cabo":1876,"agos":1877,"producción":1878,"comunidad":1879,"consecu":1880,"bió":1881,"rápi":1882,"uniden":1883,"ques":1884,"laciones":1885,"quedar":1886,"lista":1887,"trasla":1888,"línea":1889,"atra":1890,"fle":1891,"gica":1892,"marca":1893,"vención":1894,"mexi":1895,"comunicado":1896,"actividades":1897,"aciones":1898,"obra":1899,"julio":1900,"campañ":1901,"esc":1902,"viene":1903,"apun":1904,"explicó":1905,"riesgo":1906,"Ahora":1907,"calidad":1908,"len":1909,"gus":1910,"prensa":1911,"oportunidad":1912,"Fu":1913,"determin":1914,"Gener":1915,"rez":1916,"mej":1917,"problema":1918,"agosto":1919,"vari":1920,"difí":1921,"consider":1922,"cieron":1923,"lando":1924,"nosotros":1925,"2023":1926,"Nue":1927,"tali":1928,"Martí":1929,"estadouniden":1930,"Europa":1931,"Gran":1932,"pal":1933,"dicho":1934,"jugar":1935,"Tu":1936,"cando":1937,"útbol":1938,"pez":1939,"Ne":1940,"Pi":1941,"greso":1942,"mú":1943,"wit":1944,"comb":1945,"miemb":1946,"perman":1947,"disfru":1948,"condiciones":1949,"ai":1950,"ima":1951,"trás":1952,"terr":1953,"acción":1954,"puso":1955,"Carlos":1956,"resultado":1957,"genera":1958,"tán":1959,"tria":1960,"diver":1961,"futuro":1962,"Luis":1963,"abier":1964,"diendo":1965,"video":1966,"correspon":1967,"brero":1968,"poni":1969,"ctoria":1970,"especi":1971,"muerte":1972,"23":1973,"ría":1974,"ense":1975,"trá":1976,"pasar":1977,"Sec":1978,"VI":1979,"jornada":1980,"productos":1981,"Ay":1982,"Fin":1983,"ñas":1984,"palab":1985,"identifi":1986,"mexican":1987,"reconoci":1988,"ura":1989,"indus":1990,"mpe":1991,"mayo":1992,"abril":1993,"pp":1994,"pie":1995,"sería":1996,"ig":1997,"entos":1998,"Ban":1999,"cru":2000,"ler":2001,"pción":2002,"enten":2003,"adie":2004,"Fue":2005,"gri":2006,"Ló":2007,"zados":2008,"hon":2009,"declar":2010,"cap":2011,"nombre":2012,"nuevas":2013,"agra":2014,"pueblo":2015,"agregó":2016,"todavía":2017,"control":2018,"equipos":2019,"Vene":2020,"ucran":2021,"lis":2022,"respe":2023,"aumento":2024,"particip":2025,"ayuda":2026,"principal":2027,"Salud":2028,"adio":2029,"gel":2030,"suce":2031,"busca":2032,"Qui":2033,"Te":2034,"dra":2035,"tadas":2036,"cui":2037,"logo":2038,"mantener":2039,"claro":2040,"ambos":2041,"López":2042,"fá":2043,"ts":2044,"provo":2045,"unidades":2046,"judi":2047,"militar":2048,"amor":2049,"ucrani":2050,"febrero":2051,"trabajar":2052,"pesar":2053,"preocu":2054,"trabajadores":2055,"actual":2056,"cierto":2057,"lin":2058,"enti":2059,"campe":2060,"fiscal":2061,"merican":2062,"crisis":2063,"nuestros":2064,"semanas":2065,"nacionales":2066,"derecho":2067,"mando":2068,"lament":2069,"conven":2070,"vió":2071,"violencia":2072,"ctura":2073,"turas":2074,"sol":2075,"dirigi":2076,"27":2077,"bor":2078,"encu":2079,"cis":2080,"celebr":2081,"ete":2082,"ron":2083,"alre":2084,"dipu":2085,"cionar":2086,"Durante":2087,"enfrent":2088,"enferme":2089,"Tor":2090,"eras":2091,"éctri":2092,"Qué":2093,"mejores":2094,"raz":2095,"Segu":2096,"trib":2097,"pareja":2098,"recursos":2099,"maron":2100,"venes":2101,"inicio":2102,"necesario":2103,"real":2104,"trim":2105,"cara":2106,"deral":2107,"dejar":2108,"Día":2109,"Twit":2110,"cle":2111,"inos":2112,"fli":2113,"taria":2114,"texto":2115,"ré":2116,"deben":2117,"enos":2118,"lada":2119,"regu":2120,"mpi":2121,"vamos":2122,"inicia":2123,"usuarios":2124,"ciado":2125,"elecciones":2126,"compañía":2127,"salir":2128,"materi":2129,"rio":2130,"resultados":2131,"vado":2132,"red":2133,"estre":2134,"hechos":2135,"energía":2136,"28":2137,"Cab":2138,"ior":2139,"convo":2140,"resto":2141,"gracias":2142,"camino":2143,"Muni":2144,"gico":2145,"derechos":2146,"sociedad":2147,"aten":2148,"encar":2149,"ficación":2150,"zaron":2151,"corpor":2152,"colabor":2153,"habían":2154,"afirmó":2155,"conjunto":2156,"cau":2157,"inflación":2158,"experiencia":2159,"menor":2160,"mayores":2161,"ejer":2162,"mpo":2163,"impul":2164,"Twitter":2165,"Centro":2166,"respuesta":2167,"guen":2168,"virus":2169,"aquí":2170,"zuela":2171,"moc":2172,"popu":2173,"ayudar":2174,"mán":2175,"fuerte":2176,"participar":2177,"tista":2178,"familias":2179,"periodis":2180,"evento":2181,"sito":2182,"haciendo":2183,"primeros":2184,"pó":2185,"área":2186,"jóvenes":2187,"Ya":2188,"gre":2189,"jan":2190,"pá":2191,"osi":2192,"proce":2193,"pelí":2194,"campaña":2195,"difícil":2196,"esas":2197,"elim":2198,"dic":2199,"dispu":2200,"mensaje":2201,"Aunque":2202,"2019":2203,"primero":2204,"municipio":2205,"ningún":2206,"emi":2207,"prác":2208,"rico":2209,"baja":2210,"internacional":2211,"Santa":2212,"ámara":2213,"Tra":2214,"cuanto":2215,"dentes":2216,"garanti":2217,"neo":2218,"grantes":2219,"responsab":2220,"26":2221,"bir":2222,"jugadores":2223,"alrededor":2224,"Cris":2225,"estará":2226,"locales":2227,"vehículos":2228,"benefi":2229,"fran":2230,"úa":2231,"ería":2232,"cina":2233,"tag":2234,"eléctri":2235,"presencia":2236,"hubo":2237,"ahí":2238,"tón":2239,"hijos":2240,"estuvo":2241,"consul":2242,"único":2243,"administra":2244,"chas":2245,"policía":2246,"crí":2247,"brin":2248,"Au":2249,"incl":2250,"madre":2251,"iz":2252,"ner":2253,"nadie":2254,"proba":2255,"mucha":2256,"hombres":2257,"hablar":2258,"comien":2259,"económica":2260,"anim":2261,"repor":2262,"ece":2263,"paz":2264,"voz":2265,"gia":2266,"obs":2267,"significa":2268,"emo":2269,"rea":2270,"acci":2271,"tivamente":2272,"erte":2273,"delo":2274,"cionado":2275,"Colo":2276,"últimas":2277,"destacó":2278,"Venezuela":2279,"%.":2280,"AN":2281,"Ba":2282,"Presiden":2283,"erto":2284,"Pri":2285,"pueda":2286,"ganar":2287,"plante":2288,"euro":2289,"llas":2290,"tradi":2291,"obser":2292,"Fernández":2293,"xim":2294,"concre":2295,"caí":2296,"chez":2297,"foto":2298,"eb":2299,"cili":2300,"proces":2301,"prepar":2302,"participación":2303,"expresó":2304,"Secre":2305,"idos":2306,"onia":2307,"momentos":2308,"ayer":2309,"General":2310,"80":2311,"cami":2312,"propuesta":2313,"bate":2314,"fil":2315,"alización":2316,"hijo":2317,"algún":2318,"propio":2319,"anunció":2320,"necesita":2321,"cito":2322,"quedó":2323,"acceso":2324,"fútbol":2325,"ál":2326,"dientes":2327,"vación":2328,"María":2329,"reunión":2330,"Pre":2331,"modelo":2332,"tercer":2333,"tarje":2334,"serán":2335,"premi":2336,"obras":2337,"alguna":2338,"cipios":2339,"zonas":2340,"Públi":2341,"cera":2342,"pagar":2343,"luz":2344,"líder":2345,"adió":2346,"inas":2347,"entras":2348,"conclu":2349,"plazo":2350,"Después":2351,"considera":2352,"víctimas":2353,"base":2354,"siete":2355,"pudo":2356,"informe":2357,"dí":2358,"gestión":2359,"tio":2360,"Conse":2361,"dimiento":2362,"estó":2363,"Mientras":2364,"comenzó":2365,"Fiscal":2366,"dispar":2367,"29":2368,"Sán":2369,"fan":2370,"th":2371,"miso":2372,"vehículo":2373,"pregun":2374,"vecinos":2375,"Sánchez":2376,"Que":2377,"dando":2378,"podemos":2379,"abo":2380,"zaciones":2381,"cantidad":2382,"jeros":2383,"ofer":2384,"PS":2385,"nar":2386,"crecimiento":2387,"entren":2388,"jugador":2389,"Nor":2390,"Res":2391,"plo":2392,"arma":2393,"constitu":2394,"ago":2395,"zadas":2396,"promo":2397,"apoy":2398,"vacuna":2399,"mpoco":2400,"Jus":2401,"argent":2402,"paración":2403,"recla":2404,"causa":2405,"Congreso":2406,"ctores":2407,"teriores":2408,"cambios":2409,"campo":2410,"histó":2411,"permite":2412,"ataque":2413,"dón":2414,"tual":2415,"conoce":2416,"celebra":2417,"míni":2418,"amena":2419,"economía":2420,"mundial":2421,"única":2422,"cuesti":2423,"pul":2424,"muestra":2425,"jefe":2426,"disponi":2427,"genes":2428,"proyectos":2429,"música":2430,"Nos":2431,"emer":2432,"uido":2433,"mática":2434,"adamente":2435,"70":2436,"due":2437,"gres":2438,"ruz":2439,"partamento":2440,"tud":2441,"entemente":2442,"República":2443,"Liga":2444,"Edu":2445,"cubri":2446,"victoria":2447,"recibir":2448,"idea":2449,"acep":2450,"Eso":2451,"refle":2452,"puestas":2453,"presidenta":2454,"responsa":2455,"Ros":2456,"esfuer":2457,"Universidad":2458,"iló":2459,"Hoy":2460,"blan":2461,"ko":2462,"ono":2463,"sico":2464,"mbia":2465,"posibilidad":2466,"estudio":2467,"encontrar":2468,"Luego":2469,"cciones":2470,"hacen":2471,"cercan":2472,"Amé":2473,"peli":2474,"contar":2475,"tuvieron":2476,"Institu":2477,"vice":2478,"formas":2479,"interés":2480,"víctima":2481,"500":2482,"Ja":2483,"cán":2484,"kiló":2485,"exten":2486,"cabeza":2487,"dero":2488,"incen":2489,"cuales":2490,"tenga":2491,"grave":2492,"quieren":2493,"aler":2494,"digi":2495,"político":2496,"compromiso":2497,"difi":2498,"modo":2499,"masi":2500,"saber":2501,"títu":2502,"amos":2503,"dedi":2504,"cionados":2505,"rando":2506,"estaban":2507,"ruso":2508,"elegi":2509,"aprov":2510,"principales":2511,"padre":2512,"elimin":2513,"90":2514,"nas":2515,"unal":2516,"mejorar":2517,"golpe":2518,"Bi":2519,"presente":2520,"españo":2521,"buscar":2522,"guez":2523,"mana":2524,"habrá":2525,"puedan":2526,"apar":2527,"llu":2528,"sado":2529,"reo":2530,"puestos":2531,"trabajando":2532,"Consejo":2533,"As":2534,"jui":2535,"ocas":2536,"sé":2537,"grupos":2538,"eo":2539,"tengo":2540,"quiera":2541,"cultura":2542,"miembros":2543,"Colombia":2544,"alla":2545,"presu":2546,"fuerza":2547,"tistas":2548,"defensa":2549,"gados":2550,"descar":2551,"mentación":2552,"tarse":2553,"estructura":2554,"democ":2555,"mica":2556,"raciones":2557,"calles":2558,"tempera":2559,"explica":2560,"Ver":2561,"agu":2562,"zá":2563,"cont":2564,"positivo":2565,"penas":2566,"recibió":2567,"estrate":2568,"feli":2569,"rismo":2570,"ninguna":2571,"%,":2572,"For":2573,"Jor":2574,"Sal":2575,"yendo":2576,"resta":2577,"ciudadanos":2578,"arte":2579,"compli":2580,"organización":2581,"Tri":2582,"ocho":2583,"esco":2584,"sufici":2585,"siva":2586,"marco":2587,"graf":2588,"adelante":2589,"gal":2590,"come":2591,"dejó":2592,"afi":2593,"vivir":2594,"protag":2595,"exper":2596,"sación":2597,"políticas":2598,"norte":2599,"aría":2600,"confli":2601,"dena":2602,"nación":2603,"Manuel":2604,"Ad":2605,"apren":2606,"ñol":2607,"unto":2608,"cuad":2609,"suma":2610,"sola":2611,"35":2612,"gé":2613,"impacto":2614,"encuentran":2615,"Todos":2616,"integr":2617,"Có":2618,"II":2619,"cun":2620,"áli":2621,"libre":2622,"rir":2623,"tus":2624,"mediante":2625,"Comisión":2626,"propia":2627,"defini":2628,"pin":2629,"tró":2630,"virtió":2631,"vuelta":2632,"demanda":2633,"papel":2634,"pea":2635,"importantes":2636,"Ai":2637,"PP":2638,"llega":2639,"lograr":2640,"rei":2641,"esté":2642,"derro":2643,"habría":2644,"desarrol":2645,"Fi":2646,"envi":2647,"gios":2648,"audi":2649,"ferencia":2650,"regres":2651,"podrán":2652,"color":2653,"construcción":2654,"palabras":2655,"alter":2656,"toma":2657,"dados":2658,"finales":2659,"estadounidense":2660,"tarjeta":2661,"ela":2662,"mados":2663,"perfec":2664,"presión":2665,"quisi":2666,"prueba":2667,"Seguridad":2668,"bá":2669,"vene":2670,"habili":2671,"laron":2672,"imagen":2673,"31":2674,"mag":2675,"ecer":2676,"comunicación":2677,"legisla":2678,"territorio":2679,"bó":2680,"cadas":2681,"entidad":2682,"habla":2683,"ística":2684,"necesidad":2685,"señala":2686,"allá":2687,"libertad":2688,"EE":2689,"fuego":2690,"amari":2691,"categor":2692,"glo":2693,"gencias":2694,"justicia":2695,"Pedro":2696,"colec":2697,"gobernador":2698,"plataforma":2699,"Son":2700,"gentes":2701,"lé":2702,"mue":2703,"cidos":2704,"anas":2705,"sion":2706,"elector":2707,"asegura":2708,"China":2709,"amigos":2710,"Municip":2711,"ell":2712,"agres":2713,"inversión":2714,"reco":2715,"lucha":2716,"Copa":2717,"untamiento":2718,"mandatario":2719,"operación":2720,"has":2721,"tino":2722,"triun":2723,"meros":2724,"Todo":2725,"enfermedad":2726,"ende":2727,"máximo":2728,"fácil":2729,"Más":2730,"ego":2731,"ke":2732,"grande":2733,"español":2734,"édi":2735,"carac":2736,"Comuni":2737,"Ley":2738,"visita":2739,"alcalde":2740,"kilómetros":2741,"Gon":2742,"guay":2743,"discu":2744,"interior":2745,"García":2746,"Pue":2747,"Án":2748,"talla":2749,"fuerzas":2750,"pruebas":2751,"izquier":2752,"atar":2753,"oc":2754,"vesti":2755,"uien":2756,"figu":2757,"salari":2758,"entrega":2759,"ísticas":2760,"realizó":2761,"alguien":2762,"cumplir":2763,"venezo":2764,"Eje":2765,"tér":2766,"abor":2767,"hicieron":2768,"legal":2769,"mático":2770,"Direc":2771,"Villa":2772,"Instituto":2773,"iba":2774,"asi":2775,"titular":2776,"Estamos":2777,"económico":2778,"especialmente":2779,"bloque":2780,"Is":2781,"lados":2782,"mitad":2783,"lez":2784,"extre":2785,"clasi":2786,"distintos":2787,"técnico":2788,"secretario":2789,"VID":2790,"obstante":2791,"Fiscalía":2792,"AM":2793,"madas":2794,"selección":2795,"web":2796,"indepen":2797,"éxito":2798,"edición":2799,"allí":2800,"sede":2801,"hija":2802,"IN":2803,"pac":2804,"estro":2805,"untos":2806,"mbo":2807,"estoy":2808,"45":2809,"Del":2810,"alidades":2811,"elementos":2812,"Mig":2813,"origin":2814,"probable":2815,"asu":2816,"suspen":2817,"elev":2818,"consumo":2819,"espos":2820,"artí":2821,"marcha":2822,"gaciones":2823,"podrá":2824,"movili":2825,"escenario":2826,"Cha":2827,"Hasta":2828,"aba":2829,"incorpor":2830,"familiares":2831,"Buenos":2832,"Ejecu":2833,"arri":2834,"tampoco":2835,"lica":2836,"mater":2837,"mágenes":2838,"hogar":2839,"bomb":2840,"clave":2841,"Rodr":2842,"salida":2843,"juicio":2844,"uda":2845,"íguez":2846,"indica":2847,"logró":2848,"ocurrió":2849,"Rodríguez":2850,"cente":2851,"armas":2852,"cifra":2853,"superi":2854,"mez":2855,"acor":2856,"añadió":2857,"menores":2858,"presentó":2859,"tividad":2860,"diá":2861,"limi":2862,"acce":2863,"piso":2864,"pasó":2865,"hacerlo":2866,"importancia":2867,"sabe":2868,"hospital":2869,"llevó":2870,"Bras":2871,"apor":2872,"reno":2873,"triz":2874,"viaje":2875,"conocido":2876,"municipal":2877,"ejerci":2878,"práctica":2879,"Aires":2880,"Miguel":2881,"Cos":2882,"fras":2883,"representa":2884,"convi":2885,"partes":2886,"pago":2887,"entrevista":2888,"facili":2889,"Alber":2890,"Be":2891,"cro":2892,"pele":2893,"conte":2894,"poten":2895,"oló":2896,"constr":2897,"llegada":2898,"profesional":2899,"tecnología":2900,"América":2901,"simi":2902,"cionó":2903,"mane":2904,"duda":2905,"venida":2906,"trabajos":2907,"sanit":2908,"niveles":2909,"siguiente":2910,"Secretaría":2911,"Cruz":2912,"tía":2913,"dosis":2914,"hospi":2915,"infra":2916,"ónica":2917,"accidente":2918,"ocasi":2919,"memor":2920,"verdad":2921,"formar":2922,"seguro":2923,"investig":2924,"educación":2925,"responsabilidad":2926,"centes":2927,"tercera":2928,"imple":2929,"Civil":2930,"yen":2931,"conec":2932,"coordin":2933,"pidió":2934,"torias":2935,"cambiar":2936,"priv":2937,"tendrán":2938,"Chile":2939,"COVID":2940,"Nueva":2941,"atrás":2942,"ple":2943,"ral":2944,"quin":2945,"creo":2946,"llamado":2947,"Real":2948,"actualmente":2949,"comentó":2950,"disfrutar":2951,"Ángel":2952,"Ara":2953,"fuentes":2954,"venir":2955,"abandon":2956,"distintas":2957,"aprovech":2958,"ocasiones":2959,"UU":2960,"bras":2961,"cales":2962,"ándo":2963,"producto":2964,"existe":2965,"Francis":2966,"industria":2967,"Justicia":2968,"Vo":2969,"gén":2970,"ilu":2971,"rue":2972,"deja":2973,"cita":2974,"torneo":2975,"natur":2976,"edifi":2977,"central":2978,"película":2979,"cari":2980,"imágenes":2981,"remos":2982,"sean":2983,"secu":2984,"perder":2985,"rique":2986,"mentar":2987,"alizado":2988,"mesa":2989,"espacios":2990,"localidad":2991,"Presidente":2992,"tieron":2993,"conseguir":2994,"mite":2995,"rieron":2996,"comenzar":2997,"Putin":2998,"iniciativa":2999,"pér":3000,"reducir":3001,"rápida":3002,"Ayuntamiento":3003,"Cámara":3004,"Nu":3005,"subra":3006,"siguen":3007,"ramient":3008,"comparti":3009,"acumu":3010,"herramient":3011,"pacientes":3012,"padres":3013,"educa":3014,"ofrece":3015,"endas":3016,"mantiene":3017,"plaza":3018,"instituciones":3019,"Brasil":3020,"At":3021,"SA":3022,"jeron":3023,"motivo":3024,"ficar":3025,"pasada":3026,"ller":3027,"contrato":3028,"Anton":3029,"transporte":3030,"opción":3031,"tenidos":3032,"vivienda":3033,"protección":3034,"detec":3035,"table":3036,"multi":3037,"crear":3038,"lugares":3039,"podrían":3040,"cepción":3041,"Ejecutivo":3042,"Pen":3043,"pis":3044,"conce":3045,"mues":3046,"crimin":3047,"recuer":3048,"ofrecer":3049,"Cla":3050,"Dis":3051,"american":3052,"apenas":3053,"tt":3054,"inver":3055,"perten":3056,"torno":3057,"2018":3058,"lanza":3059,"alcanzar":3060,"Hab":3061,"nto":3062,"refi":3063,"retir":3064,"domici":3065,"parecer":3066,"funcionarios":3067,"Barcel":3068,"detalles":3069,"manifestó":3070,"Cabe":3071,"34":3072,"Pab":3073,"sostuvo":3074,"diferencia":3075,"Hos":3076,"entí":3077,"alizó":3078,"humanos":3079,"Ante":3080,"etapa":3081,"declaraciones":3082,"términ":3083,"dal":3084,"jero":3085,"testi":3086,"agre":3087,"agentes":3088,"Unión":3089,"sectores":3090,"centros":3091,"tarios":3092,"recomen":3093,"entor":3094,"subi":3095,"preten":3096,"adelan":3097,"Servi":3098,"incremento":3099,"Cómo":3100,"CE":3101,"bús":3102,"ka":3103,"nó":3104,"vul":3105,"deres":3106,"later":3107,"sitio":3108,"poca":3109,"fortal":3110,"grados":3111,"’,":3112,"vidu":3113,"respec":3114,"ándose":3115,"verano":3116,"gram":3117,"Defen":3118,"bastante":3119,"Francisco":3120,"Ali":3121,"jér":3122,"alma":3123,"vias":3124,"cantante":3125,"próxima":3126,"Casti":3127,"sorpren":3128,"compra":3129,"Finalmente":3130,"Col":3131,"Ram":3132,"propor":3133,"mania":3134,"realizado":3135,"entrada":3136,"nuestras":3137,"Andr":3138,"volun":3139,"denuncia":3140,"profesionales":3141,"Barcelona":3142,"Fa":3143,"Uno":3144,"edo":3145,"event":3146,"gim":3147,"adu":3148,"taba":3149,"tamos":3150,"Constitu":3151,"Casa":3152,"oferta":3153,"rada":3154,"vue":3155,"contexto":3156,"dolor":3157,"somos":3158,"cosa":3159,"saciones":3160,"velo":3161,"ingresos":3162,"PR":3163,"Rob":3164,"ps":3165,"tbo":3166,"artista":3167,"contó":3168,"individu":3169,"adecu":3170,"Domin":3171,"razón":3172,"36":3173,"Hi":3174,"Mari":3175,"bel":3176,"iva":3177,"mera":3178,"anía":3179,"miles":3180,"sir":3181,"alimentos":3182,"usti":3183,"bilidades":3184,"políticos":3185,"Social":3186,"próximos":3187,"contacto":3188,"periodo":3189,"delito":3190,"conflicto":3191,"Cul":3192,"Centr":3193,"insis":3194,"viles":3195,"levan":3196,"prot":3197,"reser":3198,"decidió":3199,"telé":3200,"evalu":3201,"volución":3202,"confianza":3203,"Jorge":3204,"Mac":3205,"arlo":3206,"cida":3207,"adul":3208,"mul":3209,"pide":3210,"geni":3211,"intervención":3212,"móvil":3213,"And":3214,"confirmó":3215,"Mer":3216,"Qatar":3217,"pocos":3218,"extran":3219,"alum":3220,"Santi":3221,"tiempos":3222,"juez":3223,"Internacional":3224,"Martín":3225,"periodista":3226,"teléfon":3227,"aco":3228,"idas":3229,"enor":3230,"didos":3231,"diario":3232,"noticia":3233,"uste":3234,"sospec":3235,"clientes":3236,"convertir":3237,"estudiantes":3238,"responsable":3239,"administración":3240,"argentino":3241,"título":3242,"Pablo":3243,"jército":3244,"The":3245,"ok":3246,"ens":3247,"simple":3248,"pedir":3249,"sosteni":3250,"generar":3251,"recordar":3252,"negocio":3253,"ocasión":3254,"bes":3255,"tente":3256,"realmente":3257,"nomin":3258,"barrio":3259,"Francia":3260,"Biden":3261,"Obr":3262,"bio":3263,"profun":3264,"Estos":3265,"ables":3266,"correc":3267,"función":3268,"torios":3269,"opini":3270,"Gonzá":3271,"Tran":3272,"mec":3273,"ardo":3274,"ental":3275,"conser":3276,"diez":3277,"quién":3278,"carse":3279,"particular":3280,"internacionales":3281,"dirección":3282,"demostr":3283,"competi":3284,"aus":3285,"fas":3286,"oposición":3287,"suje":3288,"tui":3289,"común":3290,"adoras":3291,"nega":3292,"199":3293,"primeras":3294,"aire":3295,"Ga":3296,"tería":3297,"pedido":3298,"ganó":3299,"debería":3300,"aquellos":3301,"médico":3302,"encima":3303,"Banco":3304,"González":3305,"radi":3306,"carre":3307,"tasa":3308,"drá":3309,"Covid":3310,"Alg":3311,"Guar":3312,"puerto":3313,"estrategia":3314,"género":3315,"Cal":3316,"pese":3317,"teo":3318,"mación":3319,"estados":3320,"carga":3321,"obtener":3322,"institución":3323,"combusti":3324,"Her":3325,"peso":3326,"’.":3327,"estadio":3328,"futbo":3329,"enfrenta":3330,"Em":3331,"Ten":3332,"uales":3333,"absolu":3334,"llama":3335,"pensar":3336,"Perú":3337,"emergencia":3338,"materia":3339,"diálogo":3340,"FA":3341,"Gra":3342,"delan":3343,"enen":3344,"dise":3345,"digo":3346,"moto":3347,"resol":3348,"exclu":3349,"augu":3350,"tranqui":3351,"volvió":3352,"versiones":3353,"tráfico":3354,"amarilla":3355,"confor":3356,"covid":3357,"nove":3358,"adap":3359,"mone":3360,"prisión":3361,"cierre":3362,"75":3363,"ahor":3364,"bur":3365,"encon":3366,"ard":3367,"inmedia":3368,"tengan":3369,"aliza":3370,"disposición":3371,"rupción":3372,"Rey":3373,"human":3374,"principio":3375,"terminó":3376,"desarrolla":3377,"teniendo":3378,"máxima":3379,"Ben":3380,"Der":3381,"cé":3382,"suel":3383,"encial":3384,"informa":3385,"reve":3386,"cero":3387,"empa":3388,"net":3389,"priori":3390,"continuar":3391,"Alemania":3392,"destino":3393,"financi":3394,"europe":3395,"US":3396,"jur":3397,"otor":3398,"deos":3399,"moder":3400,"actor":3401,"conoció":3402,"juegos":3403,"Alejan":3404,"ambiente":3405,"Alberto":3406,"Hern":3407,"Sur":3408,"fase":3409,"selec":3410,"nueve":3411,"completo":3412,"comprome":3413,"Ve":3414,"ere":3415,"tiro":3416,"tirá":3417,"trabaja":3418,"Regi":3419,"firma":3420,"energé":3421,"quería":3422,"áreas":3423,"instalaciones":3424,"Hospital":3425,"Obrador":3426,"bé":3427,"inscri":3428,"salió":3429,"pelo":3430,"relaciones":3431,"pequeño":3432,"médicos":3433,"Fer":3434,"fabri":3435,"conden":3436,"dica":3437,"didas":3438,"fiesta":3439,"natural":3440,"deración":3441,"caída":3442,"Andrés":3443,"Ber":3444,"ON":3445,"Pol":3446,"argu":3447,"admi":3448,"vive":3449,"votos":3450,"interpre":3451,"nez":3452,"onato":3453,"Provin":3454,"Pala":3455,"movimiento":3456,"esfuerzo":3457,"categoría":3458,"33":3459,"Sen":3460,"rí":3461,"tentes":3462,"cine":3463,"tancias":3464,"peor":3465,"marcó":3466,"federal":3467,"consumi":3468,"declaró":3469,"lon":3470,"rán":3471,"tari":3472,"vera":3473,"tierra":3474,"log":3475,"menta":3476,"promedio":3477,"mismos":3478,"Insta":3479,"grá":3480,"laboral":3481,"azón":3482,"encontraba":3483,"ciu":3484,"daños":3485,"gusta":3486,"hotel":3487,"inici":3488,"llegado":3489,"sacar":3490,"Martínez":3491,"generación":3492,"Mas":3493,"agen":3494,"gesti":3495,"oro":3496,"capi":3497,"descubri":3498,"positivos":3499,"bueno":3500,"públicos":3501,"influ":3502,"oficiales":3503,"Antonio":3504,"cador":3505,"jado":3506,"derecha":3507,"reforma":3508,"cola":3509,"adoles":3510,"usar":3511,"León":3512,"sanciones":3513,"escribió":3514,"recuperación":3515,"Jes":3516,"Ter":3517,"cientí":3518,"til":3519,"tenían":3520,"Estas":3521,"clara":3522,"seguido":3523,"esperan":3524,"árez":3525,"fundamental":3526,"garantizar":3527,"elabor":3528,"doble":3529,"sicos":3530,"leo":3531,"tratar":3532,"acerca":3533,"agradeci":3534,"desarrollar":3535,"App":3536,"clo":3537,"detenido":3538,"ciencia":3539,"reac":3540,"tiendo":3541,"racia":3542,"podía":3543,"gió":3544,"pase":3545,"puedes":3546,"corona":3547,"198":3548,"álisis":3549,"Municipal":3550,"superior":3551,"Santiago":3552,"38":3553,"cés":3554,"fis":3555,"ensa":3556,"ches":3557,"Com":3558,"empren":3559,"incluye":3560,"teriormente":3561,"Puerto":3562,"colombi":3563,"Norte":3564,"ctos":3565,"ciente":3566,"uelas":3567,"infec":3568,"rey":3569,"ticias":3570,"dicen":3571,"diferente":3572,"norma":3573,"Federal":3574,"electoral":3575,"ciudades":3576,"aero":3577,"ajus":3578,"debate":3579,"sumar":3580,"voy":3581,"estatal":3582,"realiza":3583,"origen":3584,"referencia":3585,"televisión":3586,"Cer":3587,"bos":3588,"centa":3589,"ira":3590,"incu":3591,"inaugu":3592,"finalmente":3593,"ístico":3594,"dará":3595,"daron":3596,"impac":3597,"funciones":3598,"actualidad":3599,"juntos":3600,"cinas":3601,"judicial":3602,"campeón":3603,"dónde":3604,"Central":3605,"Blan":3606,"Ger":3607,"Mos":3608,"cú":3609,"gina":3610,"uli":3611,"ork":3612,"nicos":3613,"Sobre":3614,"continúa":3615,"utilizar":3616,"puerta":3617,"benefici":3618,"cuidado":3619,"65":3620,"He":3621,"Sus":3622,"fri":3623,"vali":3624,"enfo":3625,"cuestión":3626,"supuesto":3627,"libro":3628,"pertura":3629,"teras":3630,"resis":3631,"pilo":3632,"olina":3633,"presentación":3634,"solución":3635,"candidato":3636,"pronto":3637,"suficiente":3638,"triunfo":3639,"Instagram":3640,"AR":3641,"mari":3642,"cimientos":3643,"diag":3644,"metro":3645,"peti":3646,"compañeros":3647,"empezó":3648,"mexicano":3649,"beneficios":3650,"protagon":3651,"expertos":3652,"OT":3653,"eas":3654,"psi":3655,"adá":3656,"rios":3657,"vers":3658,"ruta":3659,"olvi":3660,"darle":3661,"urban":3662,"penal":3663,"imposi":3664,"hubi":3665,"instru":3666,"aproxim":3667,"icana":3668,"conductor":3669,"delitos":3670,"Educación":3671,"Defensa":3672,"Pé":3673,"hin":3674,"quez":3675,"coti":3676,"tora":3677,"niño":3678,"estación":3679,"decisiones":3680,"estudios":3681,"existen":3682,"grafía":3683,"entorno":3684,"48":3685,"Cali":3686,"aspi":3687,"contenido":3688,"dada":3689,"alizada":3690,"familiar":3691,"funcionario":3692,"mostró":3693,"300":3694,"Ele":3695,"deri":3696,"refor":3697,"consis":3698,"migrantes":3699,"estan":3700,"discurso":3701,"rump":3702,"ruguay":3703,"entrar":3704,"ieza":3705,"recordó":3706,"física":3707,"afirma":3708,"fondos":3709,"',":3710,"Clu":3711,"Gru":3712,"cías":3713,"dri":3714,"robo":3715,"creación":3716,"famos":3717,"sentir":3718,"inteli":3719,"comprar":3720,"aplicación":3721,"sexual":3722,"Aso":3723,"Da":3724,"onio":3725,"lejos":3726,"gración":3727,"estival":3728,"públicas":3729,"contrario":3730,"Partido":3731,"sesión":3732,"atender":3733,"Cristina":3734,"inclui":3735,"digital":3736,"dificul":3737,"Pérez":3738,"ES":3739,"FI":3740,"asión":3741,"contribu":3742,"tección":3743,"tomó":3744,"pier":3745,"mercados":3746,"banda":3747,"comunidades":3748,"planes":3749,"Dios":3750,"dejado":3751,"conocimiento":3752,"recibido":3753,"norm":3754,"queremos":3755,"ventaja":3756,"trimonio":3757,"colaboración":3758,"restau":3759,"deman":3760,"rit":3761,"nia":3762,"quiero":3763,"comba":3764,"compren":3765,"garon":3766,"tenimiento":3767,"madru":3768,"popular":3769,"izquierda":3770,"ejercicio":3771,"PC":3772,"Tene":3773,"vador":3774,"altura":3775,"supone":3776,"ciona":3777,"samente":3778,"inició":3779,"ofreci":3780,"esperar":3781,"justo":3782,"Díaz":3783,"vacunación":3784,"acceder":3785,"400":3786,"um":3787,"descri":3788,"goles":3789,"compar":3790,"presentar":3791,"abrir":3792,"organismo":3793,"opciones":3794,"sorpres":3795,"habitantes":3796,"asesin":3797,"cuarto":3798,"especí":3799,"diputado":3800,"Tenemos":3801,"UE":3802,"pto":3803,"demasi":3804,"arran":3805,"perdió":3806,"fines":3807,"compu":3808,"trito":3809,"corazón":3810,"fondo":3811,"industri":3812,"tóno":3813,"presupuesto":3814,"32":3815,"Amb":3816,"bla":3817,"ash":3818,"viven":3819,"prome":3820,"bación":3821,"nie":3822,"lución":3823,"gratui":3824,"Desarro":3825,"objetivos":3826,"ocurrido":3827,"ambas":3828,"frontera":3829,"rusos":3830,"declaración":3831,"ws":3832,"zca":3833,"one":3834,"mico":3835,"dura":3836,"verda":3837,"torial":3838,"turno":3839,"Diego":3840,"municipios":3841,"écadas":3842,"organizaciones":3843,"desapare":3844,"efectos":3845,"directora":3846,"operaciones":3847,"competencia":3848,"entender":3849,"alterna":3850,"esposa":3851,"madrugada":3852,"Plan":3853,"Ur":3854,"décadas":3855,"jal":3856,"rados":3857,"semi":3858,"pudi":3859,"reciente":3860,"permitir":3861,"regional":3862,"municipales":3863,"respeto":3864,"domicilio":3865,"Ig":3866,"gadas":3867,"ry":3868,"coinci":3869,"cump":3870,"lea":3871,"destaca":3872,"tratamiento":3873,"integrantes":3874,"efecto":3875,"viviendas":3876,"operativo":3877,"lluvias":3878,"caracter":3879,"Costa":3880,"búsqueda":3881,"decre":3882,"detrás":3883,"adqui":3884,"culas":3885,"libr":3886,"Enton":3887,"homici":3888,"hibi":3889,"ingreso":3890,"valores":3891,"Europea":3892,"comercial":3893,"oportunidades":3894,"entrenador":3895,"opinión":3896,"Club":3897,"Entonces":3898,"blos":3899,"clas":3900,"ud":3901,"miedo":3902,"cree":3903,"vistas":3904,"velocidad":3905,"cár":3906,"hará":3907,"ola":3908,"intención":3909,"ficos":3910,"Porque":3911,"transi":3912,"califi":3913,"escuch":3914,"convoca":3915,"procesos":3916,"Trib":3917,"Derec":3918,"Bel":3919,"Cada":3920,"OE":3921,"Rec":3922,"ile":3923,"tades":3924,"cumple":3925,"iste":3926,"máticas":3927,"corrupción":3928,"fuertes":3929,"minuto":3930,"Valencia":3931,"líneas":3932,"escuela":3933,"listas":3934,"teléfono":3935,"coronavirus":3936,"Fl":3937,"fé":3938,"rer":3939,"lano":3940,"mode":3941,"perío":3942,"soy":3943,"aclar":3944,"activos":3945,"puedo":3946,"censo":3947,"cuentas":3948,"coló":3949,"portavoz":3950,"consecuencia":3951,"disponible":3952,"artículo":3953,"muestran":3954,"Desarrollo":3955,"MI":3956,"Río":3957,"edades":3958,"hue":3959,"damos":3960,"musi":3961,"cante":3962,"pena":3963,"pequeños":3964,"rápido":3965,"diseño":3966,"Don":3967,"Fo":3968,"May":3969,"ámbi":3970,"época":3971,"diseñ":3972,"éndose":3973,"comisión":3974,"policial":3975,"militares":3976,"construir":3977,"Grupo":3978,"CI":3979,"Hace":3980,"gón":3981,"ias":3982,"ición":3983,"ty":3984,"deuda":3985,"análisis":3986,"impres":3987,"ponen":3988,"líderes":3989,"cord":3990,"Depor":3991,"principios":3992,"diversos":3993,"Ese":3994,"tú":3995,"vino":3996,"zgo":3997,"alco":3998,"actriz":3999,"ciaciones":4000,"cere":4001,"land":4002,"hua":4003,"sínto":4004,"seguidores":4005,"ataques":4006,"llegaron":4007,"necesidades":4008,"representantes":4009,"empleo":4010,"pregunta":4011,"talia":4012,"cuestion":4013,"peligro":4014,"temperatura":4015,"síntomas":4016,"Creo":4017,"Pos":4018,"Pas":4019,"dario":4020,"deporte":4021,"lamento":4022,"conferencia":4023,"culación":4024,"limp":4025,"cionada":4026,"ismos":4027,"respal":4028,"costo":4029,"empla":4030,"siglo":4031,"Camp":4032,"moni":4033,"crédi":4034,"deberá":4035,"ubicado":4036,"empleados":4037,"global":4038,"gimen":4039,"Alejandro":4040,"Ce":4041,"FC":4042,"erno":4043,"involu":4044,"tida":4045,"dijeron":4046,"eración":4047,"quina":4048,"impli":4049,"presentado":4050,"planta":4051,"autoridad":4052,"comida":4053,"realizará":4054,"documento":4055,"abierto":4056,"Asociación":4057,"flu":4058,"lá":4059,"ers":4060,"tren":4061,"cadena":4062,"porcenta":4063,"murió":4064,"tienes":4065,"Cuba":4066,"programas":4067,"Plata":4068,"española":4069,"edificio":4070,"eventos":4071,"enorme":4072,"Trans":4073,"Guardia":4074,"delantero":4075,"44":4076,"anal":4077,"bia":4078,"resal":4079,"criti":4080,"irch":4081,"ciudadanía":4082,"Dipu":4083,"principalmente":4084,"intensi":4085,"Fernando":4086,"material":4087,"recuerda":4088,"Hernández":4089,"Javi":4090,"Mes":4091,"York":4092,"apre":4093,"encontra":4094,"concep":4095,"descan":4096,"trayec":4097,"gobier":4098,"2017":4099,"gicos":4100,"tono":4101,"clá":4102,"aquel":4103,"celebración":4104,"mínimo":4105,"clases":4106,"37":4107,"NA":4108,"departamento":4109,"artistas":4110,"cifras":4111,"anual":4112,"difun":4113,"bis":4114,"podido":4115,"tana":4116,"mediata":4117,"corto":4118,"estilo":4119,"crimen":4120,"publicado":4121,"avance":4122,"puertas":4123,"terror":4124,"participantes":4125,"democracia":4126,"resolver":4127,"CA":4128,"ER":4129,"Sil":4130,"apare":4131,"ísi":4132,"mio":4133,"vimos":4134,"vienen":4135,"mentales":4136,"propuestas":4137,"satis":4138,"amon":4139,"sabemos":4140,"Solo":4141,"regiones":4142,"totalmente":4143,"senci":4144,"Corte":4145,"Organ":4146,"solamente":4147,"figura":4148,"Davi":4149,"ji":4150,"ples":4151,"meta":4152,"tendencia":4153,"aliment":4154,"Esa":4155,"estarán":4156,"invasión":4157,"senti":4158,"transmi":4159,"anunci":4160,"comerci":4161,"empezar":4162,"amplia":4163,"Dirección":4164,"Tribunal":4165,"irchner":4166,"Dani":4167,"lvar":4168,"orgu":4169,"trán":4170,"riendo":4171,"gicas":4172,"tín":4173,"propios":4174,"suelo":4175,"55":4176,"Bor":4177,"Je":4178,"Pres":4179,"sho":4180,"aro":4181,"insu":4182,"dicha":4183,"coche":4184,"turismo":4185,"añad":4186,"cargos":4187,"compartir":4188,"darse":4189,"desempe":4190,"siguió":4191,"amigo":4192,"diversas":4193,"animales":4194,"pérdida":4195,"período":4196,"Bol":4197,"viendo":4198,"dación":4199,"expec":4200,"universi":4201,"veló":4202,"directamente":4203,"dora":4204,"circun":4205,"publicó":4206,"asistencia":4207,"detalló":4208,"sufrió":4209,"tecnoló":4210,"consecuencias":4211,"reconocimiento":4212,"aproximadamente":4213,"Az":4214,"dy":4215,"múlti":4216,"íz":4217,"esión":4218,"undos":4219,"dol":4220,"cuyo":4221,"noticias":4222,"restri":4223,"nicas":4224,"cará":4225,"distribu":4226,"Departamento":4227,"puntu":4228,"cuentan":4229,"resolución":4230,"espectá":4231,"blanco":4232,"contemp":4233,"Jesús":4234,"Gal":4235,"Os":4236,"Álvar":4237,"revis":4238,"bamos":4239,"verde":4240,"habló":4241,"Inclu":4242,"acuer":4243,"pantalla":4244,"ciertos":4245,"renun":4246,"provincial":4247,"soluciones":4248,"concluyó":4249,"Castillo":4250,"Actu":4251,"Cór":4252,"Nación":4253,"cra":4254,"salu":4255,"yos":4256,"anteriores":4257,"vie":4258,"estad":4259,"Está":4260,"autor":4261,"Comi":4262,"cursos":4263,"publicación":4264,"señalado":4265,"asesina":4266,"razones":4267,"récord":4268,"pósito":4269,"ximas":4270,"tróleo":4271,"Algunos":4272,"OTAN":4273,"39":4274,"BA":4275,"lés":4276,"rin":4277,"reras":4278,"cubier":4279,"suerte":4280,"mol":4281,"mala":4282,"chil":4283,"previa":4284,"distancia":4285,"menes":4286,"calor":4287,"Unido":4288,"heridos":4289,"situaciones":4290,"completamente":4291,"britá":4292,"sueño":4293,"intereses":4294,"impuestos":4295,"Rafa":4296,"estadounidenses":4297,"responsables":4298,"agenda":4299,"Hon":4300,"Mag":4301,"Pau":4302,"gando":4303,"rente":4304,"encan":4305,"are":4306,"art":4307,"tama":4308,"nota":4309,"acel":4310,"mensu":4311,"cialmente":4312,"llamada":4313,"regreso":4314,"titud":4315,"humano":4316,"informado":4317,"terminar":4318,"Federación":4319,"proteger":4320,"terreno":4321,"ucraniano":4322,"régimen":4323,"tradicional":4324,"similar":4325,"David":4326,"DE":4327,"Mal":4328,"stico":4329,"yas":4330,"ciclo":4331,"refu":4332,"mites":4333,"despe":4334,"lesiones":4335,"cance":4336,"lancia":4337,"Reino":4338,"recientemente":4339,"actuar":4340,"avanzar":4341,"audiencia":4342,"agencia":4343,"hn":4344,"ly":4345,"vó":4346,"ñez":4347,"denomin":4348,"eres":4349,"paro":4350,"lib":4351,"estén":4352,"fort":4353,"prev":4354,"pasos":4355,"nucle":4356,"dirigente":4357,"recuperar":4358,"Córdo":4359,"efici":4360,"tti":4361,"cano":4362,"previsto":4363,"sistemas":4364,"culpa":4365,"propiedad":4366,"tendría":4367,"comercio":4368,"registró":4369,"ónico":4370,"obliga":4371,"Fuer":4372,"combin":4373,"Aus":4374,"ati":4375,"cencia":4376,"áles":4377,"ladas":4378,"and":4379,"reto":4380,"convirtió":4381,"tavo":4382,"delincu":4383,"rival":4384,"dencias":4385,"duras":4386,"usa":4387,"actuación":4388,"cultural":4389,"ristas":4390,"ocup":4391,"vuelve":4392,"Morena":4393,"adultos":4394,"carretera":4395,"Palacio":4396,"Javier":4397,"46":4398,"Otro":4399,"SS":4400,"decen":4401,"inmediata":4402,"sivo":4403,"hacía":4404,"pers":4405,"acces":4406,"resi":4407,"cerrar":4408,"disminu":4409,"pensa":4410,"grado":4411,"fren":4412,"acusado":4413,"recorrido":4414,"vuelto":4415,"establecer":4416,"negocios":4417,"preocupación":4418,"beneficio":4419,"gü":4420,"ización":4421,"inno":4422,"divi":4423,"visu":4424,"pol":4425,"mina":4426,"gido":4427,"pueblos":4428,"identidad":4429,"clase":4430,"electr":4431,"segura":4432,"aleza":4433,"colás":4434,"escuelas":4435,"trimestre":4436,"incendio":4437,"Ama":4438,"Feli":4439,"MA":4440,"Tele":4441,"cón":4442,"yeron":4443,"osos":4444,"tipos":4445,"consoli":4446,"lidad":4447,"perdido":4448,"resca":4449,"verso":4450,"petróleo":4451,"quía":4452,"197":4453,"produjo":4454,"constante":4455,"hermano":4456,"logrado":4457,"rendimiento":4458,"causas":4459,"Nicolás":4460,"Nuevo":4461,"premio":4462,"peligr":4463,"derrota":4464,"futbolista":4465,"km":4466,"tilla":4467,"haga":4468,"pia":4469,"certifi":4470,"gana":4471,"necesaria":4472,"policías":4473,"Sergio":4474,"mensajes":4475,"herramientas":4476,"lanzamiento":4477,"85":4478,"reli":4479,"río":4480,"debajo":4481,"lidera":4482,"istema":4483,"posibles":4484,"iniciar":4485,"hacerse":4486,"Gua":4487,"buenas":4488,"pleno":4489,"rusa":4490,"John":4491,"aumentar":4492,"escuchar":4493,"Pública":4494,"Servicio":4495,"Constitución":4496,"expecta":4497,"Fon":4498,"episo":4499,"gh":4500,"yan":4501,"tidos":4502,"tareas":4503,"piel":4504,"mini":4505,"fornia":4506,"rup":4507,"entregar":4508,"bole":4509,"gría":4510,"oficina":4511,"anunciado":4512,"ocurre":4513,"comentarios":4514,"abogado":4515,"feliz":4516,"California":4517,"porcentaje":4518,"42":4519,"Ana":4520,"ofen":4521,"cidas":4522,"cicle":4523,"reporte":4524,"vigi":4525,"some":4526,"socios":4527,"pocas":4528,"pobre":4529,"ach":4530,"acre":4531,"bala":4532,"casas":4533,"ington":4534,"pectos":4535,"dólar":4536,"afectados":4537,"llevado":4538,"cuerpos":4539,"registrado":4540,"plena":4541,"técnica":4542,"rusas":4543,"ámaras":4544,"trasladado":4545,"inmediato":4546,"demasiado":4547,"cárcel":4548,"Gó":4549,"Lor":4550,"cuela":4551,"dían":4552,"sando":4553,"arre":4554,"refuer":4555,"requiere":4556,"reempla":4557,"cayó":4558,"vivo":4559,"mentó":4560,"teros":4561,"niñas":4562,"lanos":4563,"fuente":4564,"hayan":4565,"Antes":4566,"antil":4567,"registro":4568,"condición":4569,"pronun":4570,"entidades":4571,"regular":4572,"francés":4573,"cáncer":4574,"alumnos":4575,"circuns":4576,"Economía":4577,"concent":4578,"dico":4579,"diplo":4580,"teor":4581,"culares":4582,"villa":4583,"patr":4584,"rantes":4585,"lesion":4586,"mismas":4587,"cuento":4588,"anuncio":4589,"tismo":4590,"vacun":4591,"azul":4592,"estrella":4593,"palabra":4594,"Actualmente":4595,"Córdoba":4596,"Ab":4597,"Gi":4598,"Gui":4599,"Gali":4600,"Jue":4601,"apertura":4602,"seo":4603,"parque":4604,"nomb":4605,"ricos":4606,"acos":4607,"exterior":4608,"explo":4609,"2016":4610,"Señ":4611,"productor":4612,"fotos":4613,"heridas":4614,"conocida":4615,"investigaciones":4616,"destacar":4617,"superar":4618,"registraron":4619,"habitual":4620,"escena":4621,"década":4622,"temperaturas":4623,"ritmo":4624,"acuerdos":4625,"Gómez":4626,"Funda":4627,"talidad":4628,"encabe":4629,"advirtió":4630,"goza":4631,"abas":4632,"sustitu":4633,"gasto":4634,"Poder":4635,"ventas":4636,"Sala":4637,"infraestructura":4638,"investigadores":4639,"hubiera":4640,"//":4641,"Gob":4642,"Italia":4643,"id":4644,"line":4645,"rele":4646,"sel":4647,"aspectos":4648,"subir":4649,"vidad":4650,"proto":4651,"ropa":4652,"dudas":4653,"recen":4654,"quen":4655,"seguirá":4656,"Navar":4657,"Siempre":4658,"Protección":4659,"debemos":4660,"encontró":4661,"bajar":4662,"pequeña":4663,"apuntó":4664,"página":4665,"alerta":4666,"reiter":4667,"combustible":4668,"ámbito":4669,"'.":4670,"99":4671,"pí":4672,"enseñ":4673,"reas":4674,"cuán":4675,"hol":4676,"crea":4677,"mejora":4678,"conside":4679,"clima":4680,"necesitan":4681,"desafí":4682,"convertido":4683,"mostrar":4684,"críticas":4685,"amonestado":4686,"múltiples":4687,"aé":4688,"bara":4689,"cámaras":4690,"halla":4691,"pista":4692,"arti":4693,"alza":4694,"adver":4695,"reveló":4696,"caer":4697,"ecen":4698,"echa":4699,"bai":4700,"exp":4701,"pira":4702,"vaya":4703,"vacaciones":4704,"veri":4705,"canal":4706,"taller":4707,"llen":4708,"inglés":4709,"embaj":4710,"femen":4711,"monta":4712,"iev":4713,"Paz":4714,"justifi":4715,"contagios":4716,"bajas":4717,"reflexi":4718,"características":4719,"Messi":4720,"Gus":4721,"Wil":4722,"íos":4723,"lana":4724,"onar":4725,"civil":4726,"anu":4727,"activa":4728,"Estu":4729,"comporta":4730,"interna":4731,"corri":4732,"posiciones":4733,"produce":4734,"asegurado":4735,"esperanza":4736,"afecta":4737,"Estoy":4738,"reducción":4739,"médica":4740,"apoyar":4741,"histórica":4742,"eliminar":4743,"vuln":4744,"profundi":4745,"://":4746,"PA":4747,"Tal":4748,"Uruguay":4749,"Wash":4750,"apos":4751,"ff":4752,"frecu":4753,"har":4754,"htt":4755,"nadas":4756,"ancia":4757,"tat":4758,"trado":4759,"actos":4760,"presentes":4761,"estima":4762,"Campe":4763,"explicado":4764,"cuarta":4765,"cuestiones":4766,"elegir":4767,"sospechos":4768,"convocatoria":4769,"gobiernos":4770,".,":4771,"Dos":4772,"PI":4773,"amis":4774,"ctivo":4775,"gni":4776,"enso":4777,"separ":4778,"tral":4779,"máticos":4780,"rol":4781,"chu":4782,"expan":4783,"2015":4784,"2014":4785,"comparación":4786,"larga":4787,"pose":4788,"homena":4789,"turales":4790,"Catal":4791,"sangre":4792,"normal":4793,"celu":4794,"querido":4795,"candidatos":4796,"intentar":4797,"deportivo":4798,"prácticamente":4799,"términos":4800,"versario":4801,"tránsito":4802,"Washington":4803,"600":4804,"Kiev":4805,"Pana":4806,"Sab":4807,"Trump":4808,"cámara":4809,"nado":4810,"tent":4811,"debu":4812,"decía":4813,"cielo":4814,"altas":4815,"aspecto":4816,"ingeni":4817,"trali":4818,"doctor":4819,"logra":4820,"perci":4821,"mate":4822,"mentado":4823,"tarán":4824,"minación":4825,"llevan":4826,"negro":4827,"numeros":4828,"viajar":4829,"resulta":4830,"cturas":4831,"defender":4832,"Mujer":4833,"usuario":4834,"representante":4835,"factores":4836,"invierno":4837,"apunta":4838,"películas":4839,"Público":4840,"histórico":4841,"Comunidad":4842,"simplemente":4843,"Moscú":4844,"Cre":4845,"Frente":4846,"Jal":4847,"apa":4848,"archi":4849,"cuador":4850,"lido":4851,"trato":4852,"voto":4853,"gir":4854,"viajes":4855,"nuevamente":4856,"vacunas":4857,"suele":4858,"órgan":4859,"Turismo":4860,"abierta":4861,"comienzo":4862,"amenaza":4863,"lluvia":4864,"democrá":4865,"BC":4866,"Gabri":4867,"dina":4868,"detención":4869,"tion":4870,"capaz":4871,"progres":4872,"polé":4873,"dul":4874,"lesia":4875,"éndo":4876,"recién":4877,"Julio":4878,"privado":4879,"permitirá":4880,"movimientos":4881,"solicitud":4882,"error":4883,"miembro":4884,"periodistas":4885,"naturaleza":4886,"modelos":4887,"SE":4888,"Tur":4889,"bon":4890,"clí":4891,"deb":4892,"delante":4893,"enca":4894,"repar":4895,"teca":4896,"cuál":4897,"acti":4898,"pudieron":4899,"Escuela":4900,"casti":4901,"carta":4902,"lanzó":4903,"horario":4904,"compon":4905,"neu":4906,"corte":4907,"2024":4908,"bienes":4909,"directo":4910,"próximas":4911,"aprobación":4912,"Liber":4913,"funcionamiento":4914,"realizaron":4915,"Valle":4916,"quedaron":4917,"honor":4918,"eléctrica":4919,"disponibles":4920,"refirió":4921,"DI":4922,"Pese":4923,"TV":4924,"avenida":4925,"hal":4926,"cientes":4927,"analizar":4928,"adé":4929,"cuo":4930,"sui":4931,"motivos":4932,"rael":4933,"Unidad":4934,"antigu":4935,"destacado":4936,"objeto":4937,"solid":4938,"dependencia":4939,"Maduro":4940,"pasajeros":4941,"PSOE":4942,"convertirse":4943,"involucr":4944,"Ac":4945,"Igu":4946,"ojos":4947,"cobr":4948,"cab":4949,"motor":4950,"potencia":4951,"isco":4952,"estaciones":4953,"Enrique":4954,"segundos":4955,"graves":4956,"orient":4957,"Supre":4958,"transmisión":4959,"buscan":4960,"150":4961,"números":4962,"definir":4963,"clasificación":4964,"Cultura":4965,"piloto":4966,"Fundación":4967,"49":4968,"Bri":4969,"Mundo":4970,"TE":4971,"Zara":4972,"ape":4973,"by":4974,"tadores":4975,"inversiones":4976,"enter":4977,"pusi":4978,"pular":4979,"usk":4980,"cancha":4981,"book":4982,"presidencial":4983,"junta":4984,"itali":4985,"intento":4986,"Petro":4987,"avión":4988,"mandato":4989,"Tierra":4990,"Alex":4991,"asociación":4992,"consideró":4993,"materiales":4994,"Gracias":4995,"Senado":4996,"Incluso":4997,"CN":4998,"alar":4999},"merges":["d e","e n","e s","o s","l a","e r","a r","o n","c i","u e","a n","o r","a l","a s","a d","e l","q ue","u n","i n","r e","en t","t i","c on","s e","t a","t r","d i","c o","t e","ó n","d o","p r","t o","l os","p ar","m i","c a","c u","s u","ci ón","p or","s i","v i","l e","de l","l o","h a","l i","ad o","m o","la s","d a","n o","b i","p er","m a","r i","r a","par a","de s","t u","un a","í a","m p","m ent","e c","pr o","d ad","ci on","s o","u i","es t","tr a","p o","t er","m e","i s","m á","r o","a c","g o","r es","b a","t en","f i","p a","m os","ci a","ar i","ad a","má s","v o","E l","de n","al i","c h","t or","m an","d os","p u","m u","r an","pr es","g u","e x","E s","n i","q ui","d u","L a","t os","es ta","t ar","al es","a ñ","cion es","p i","á n","t an","er a","ment e","v a","m b","c as","co mo","c e","l u","i m","c ar","ad os","t es","s on","v er","a b","m in","s er","E n","m bi","an do","z a","f or","tr o","j o","2 0","ent e","mi ent","un i","co m","v e","es te","u s","c er","g i","l es","p e","m ar","n a","c an","p re","é n","er o","su s","la n","g a","t as","la r","ad or","de r","c os","j e","di s","g ar","p os","f u","r u","i a","h o","en e","on es","m en","s a","g en","t al","b le","a u","p as","y a","b re","er on","r as","e mp","é s","f ue","0 0","l le","d as","mient o","mbi én","re c","ha b","par ti","p ue","m as","ci o","ci al","ent re","me di","q u","” ,","o l","z ar","h or","o b","se g","c re","v en","h i","per son","g ra","a ción","ari o","t in","per o","g an","c ó","ent es","f in","co mp","ú n","i o","añ os","í s","x i","si ón","p on","mi s","c es","c al","ad as","tr as","en cia","i den","l í","da des","s in","en do","S e","tr os","in ter","n e","d r","n os","pr im","f er","ta mbién","d ar","est á","f a","h an","tra ba","tr i","ent a","ment o","C o","or es","z o","t ado","c or","es ti","e mb","so bre","t ó","C on","l l","for ma","des de","u r","con o","n ue","cion al","j a","ti vo","b li","” .","in a","l la","L os","an te","pos i","j u","b o","d on","el e","ch o","a g","as ta","í as","c ado","f ec","g ran","D e","ar on","bi er","u l","ti ene","b er","s ta","l ti","p en","a y","I n","c en","20 2","A l","ci as","P or","to do","ari os","con tra","mu y","ñ a","n u","m er","pa ís","ti v","cu r","b e","i mp","c ri","c tor","par te","re ali","an tes","i r","R e","ma y","de más","es to","h asta","ha y","ti ca","m es","ú lti","in g","ci os","an a","f un","ec es","g r","b u","j or","de ci","re g","i do","ran te","m ó","f r","al g","añ o","p ec","a cu","person as","j er","tu ra","c ada","1 9","ar a","b an","don de","ñ o","re ci","pres iden","ti va","c lu","d ía","cu ando","ent r","N o","mi li","tr an","u dad","e m","hor a","t ados","ti tu","ci p","c la","e mos","la ción","si g","pro du","p la","bi li","on a","es e","h u","p li","ter i","al u","e qui","fi r","í an","bier no","por que","in i","c ha","ú bli","b r","as e","c ción","qui en","\" ,","di jo","tan te","o tros","ha cer","tor i","p un","un o","ca ción","qui er","pres ent","ten er","si s","di o","ador es","to dos","un do","U ni","nu es","mi ll","M ar","mis mo","an o","ue l","ar á","r á","pue de","S an","ad i","v an","un os","du rante","ari a","ti emp","el ec","me jor","L as","est os","cu ent","al mente","im por","s os","j ue","f e","ali dad","v al","d ó","h ec","i l","ci ales","traba j","pu és","z ó","ti en","ci udad","mill ones","ti co","est án","per a","n eces","A n","min is","p úbli","s í","prim er","\" .","la do","may or","g as","so lo","com uni","a m","es o","er n","A r","est ado","seg ui","ve z","s ab","i ón","f al","tu r","ch e","p lan","N a","tiemp o","in s","fu er","es tu","lu gar","in di","presiden te","la b","si do","ac tu","con s","ci ó","ent o","v el","ca mbi","S i","á s","tr es","c ía","fa mili","é r","M i","po dr","en a","po lí","se man","es a","em pres","y ec","v ar","ha ce","g os","mo mento","est ar","or i","in o","D i","cu l","vi r","in for","vi da","bi en","se gu","gen er","p an","t í","tiv os","res pon","di rec","ti r","za ción","as í","j un","di ó","pr en","mu ch","d ías","y o","ar ro","l lo","des pués","el i","tr u","C a","1 0","hab ía","G o","cu al","vi a","f o","ri dad","emb re","es pe","ci n","est as","L e","ñ os","in v","te m","T a","ment os","pas ado","h er","z ado","s ent","ca mp","prim era","t on","S u","tran s","d or",") .","di do","cas o","m on","A demás","es pa","i t","m uni","C u","cu enta",") ,","is ta","v in","mu jer","vi s","en o","comp añ","na cional","mb re","J u","e dad","d ado","D es","men os","de j","pro yec","hor as","tien en","P ero","p es","tan to","la res","ue go","te ma","pro pi","h is","bili dad","202 2","vo l","en cuent","un que","pr in","T o","b ar","P o","si tu","R o","f en","u ro","ta ción","C ar","medi o","a hora","g e","traba jo","h os","h í","L o","00 0","hec ho","V i","equi po","pr i","ter min","t re","er do","per i","d in","mp li","ces o","res ul","M e","pr ó","tor ia","al e","b as","ase gu","Es ta","é xi","ri s","c ran","o tro","n ada","se ñ","an ti","ti vi","b us","cono ci","gu a","to da","ser vi","fu eron","vi si","in f","v es","Es te","emb ar","i on","S o","ab ri","seg ún","P ara","s an","tu vo","parti do","é c","un as","m ado","m undo","mi l","t el","di fer","or gan","3 0","mu cho","ex pli","au tori","qu é","alu d","man era","per mi","g ente","con tin","lle g","m é","h e","ti cas","ari as","d an","g ía","nue vo","en er","ci er","C i","le g","Go bierno","g ru","j os","ser á","embar go","seman a","g ent","ar se","in clu","forma ción","lab or","1 5","G u","inv esti","S in","c ent","con tr","o fi","s ali","i dad","z as","b les","t ad","ó mi","Se g","i e","» ,","mient os","P ro","ci pi","co mi","co l","1 8","emp re","v í","in t","ho y","v as","ver si","e je","P a","pu esta","acu erdo","r os","1 2","jun to","a tro","pa ci","reci bi","ni vel","al go","par e","com en","f es","ci r","po der","v os","v és","re cu","mient ras","ti fi","p el","des arro","teri or","comp le","s al","ay u","a ta","re gi","de ra","par ec","o p","o f","pro ble","ju g","pro gra","n or","nue va","ten i","U n","er ra","des ta","go bierno","pi tal","a pro","pró xi","t ario","tra vés","L i","po li","pu esto","cas i","Na cional","con si","tra ta","a po","se a","c r","Es pa","a de","m or","pu bli","ob je","reg is","a demás","el lo","R u","ten ción","so li","el la","pue den","do min","b ri","ten ido","se ctor","si empre","U na","rec or","d ro","Ta mbién","con su","f í","de be","an un","fi ca","fun cion","ti ó","situ ación","el los","impor tante","ac tivi","fi ci","ten dr","por t","hab er","có mo","es per","segu ridad","ba jo","fin al","b ra","m al","éxi co","Seg ún","a fec","M éxico","l uego","a unque","c to","o tras","v ent","segui r","lle gar","j us","mes es","c el","di da","person a","ti cos","to das","res o","b ol","cas a","er os","lo c","t á","con ómi","P ar","es tra","tiv as","o tra","» .","si a","é l","organ i","e vi","ti do","o cu","e di","con ta","ni co","e t","e z","min u","alg unos","Espa ña","ti po","te c","lo gr","b ado","C as","l ó","li o","un di","prin cip","í n","esta ba","tar on","ri ó","den te","gen cia","un da","reali zar","tem por","qu er","de re","re la","to tal","1 4","s en","por te","mu er","Es tados","s ó","202 1","bi do","le y","ti li","ur os","un es","cas os","c li","ac e","P e","d ores","m ero","1 1","o cur","cu lo","e conómi","cu atro","hi zo","posi ción","r ó","un ta","di eron","Uni dos","5 0","c tu","is mo","n ú","di ri","much os","mi a","parti ci","z ona","ter a","a t","an os","s or","de mos","ue la","en contr","po co","is tas","Es tado","su per","ga ción","pec to","v uel","ti s","v ía","U cran","a vi","n ing","in te","tan tes","espe cial","M in","b lo","en cias","1 7","a fir","i de","au to","Ucran ia","1 6","c entr","R i","so ciales","últi mo","neces i","proyec to","g ado","c ele","man da","autori dades","a mb","m ad","ci miento","famili a","r en","man o","de fen","mo vi","deci r","í o","des a","tan do","undi al","pro vin","ci do","c ti","e fec","ta mente","vi vi","ba j","e uros","man i","fr ente","1 3","parti r","á re","C h","con tro","públi ca","s alud","se ña","t ada","C or","tor io","esta ble","ca us","ni ca","pro fes","ti cia","ten cia","ex pres","di a","Es to","sin o","S er","e ta","v ac","polí tica","V al","quien es","gru po","cion ales","is cal","c l","b al","in formación","f ra","z ada","al can","lle v","de mia","go l","ci l","M u","con se","ex is","de z","u tili","or a","podr ía","pro ceso","F e","de pen","si ones","a gua","ern es","uni dad","po b","progra ma","s á","re uni","ri ca","ch i","ab an","P er","u so","ci endo","re des","f on","his toria","gent ina","A sí","E uro","B ar","com er","M an","P u","l unes","nues tro","B o","dis tin","i can","ha cia","ma ñ","ac to","tor es","país es","Q u","Ru sia","vi ernes","pun tos","man os","M ad","con di","a van","ve hí","si ca","últi mos","s es","con ver","da tos","ador a","cono cer","20 0","cin co","i gu","ter io","c ados","den tro","ce p","minis tra","ch os","mujer es","nues tra","vi sión","com pro","es cri","cu er","ten ía","m í","r ar","a z","ca paci","so cial","u su","an za","di ce","M on","vi sta","per io","g er","con fir","com pr","gener al","e v","cual quier","r era","cu mpli","den cia","cambi o","cent ro","mañ ana","b en","j es","contin u","me tros","por ta","posi ble","minis tro","vi l","Min is","o port","regis tr","c k","ví cti","a ún","v eces","es pera","a pli","con du","cipi o","pa ción","D u","den un","ne go","señ al","g ue","de se","res iden","nú mero","v arios","ex peri","tan cia","a ca","sá bado","empres a","del i","ten emos","j ó","mi sión","á r","di r","so lu","públi co","ha bi","pu er","ra ción","cos as","produ c","re cur","sent ido","F ran","re present","di os","Des de","cer ca","fu era","es tr","dó lares","pan demia","de ber","co ment","bu en","H o","ón i","seg undo","T i","y ó","pon er","domin go","a que","re du","mis ma","as is","m ía","co le","sig ui","Ar gentina","soli ci","ho mbre","tempor ada","ins titu","de o","in e","no che","qu í","M a","cu los","2 4","en fr","vo lu","sis tema","de tal","ca min","u bi","un ca","is la","fa v","en da","A le","lí ne","direc tor","mar tes","empres as","pr ue","pro te","ui r","person al","sig ue","p ti","z an","ofi cial","ci ar","co les","infor mó","difer entes","2 5","f ru","cu la","p ad","tar de","ér coles","a mi","vi eron","on i","servi cio","much as","jue ves","B u","E x","t ales","or den","pe que","J os","ri es","mer cado","mi ércoles","val or","co lo","vi ol","vi o","pun to","p l","res pecto","obje tivo","lan te","o per","mé di","esta mos","quier e","eje mp","in ten","ali zar","ni ños","esti ón","seg unda","f ac","s ue","j ar","al l","in cre","próxi mo","to mar","medi a","pas a","ci ento","ca be","i da","ing res","recu per","mi r","s ac","gran des","b ro","di ci","b ene","al o","in vi","minu tos","jo ven","o pera","la ri","ar án","su r","mos tr","men sa","ca ciones","z os","de fin","su f","in sta","en ero","si endo","des tin","emp le","e du","elec ción","señal ó","ci dad","fin an","g ro","on ces","se x","últi ma","A si","on al","ac ciones","C hi","s titu","as es","go ber","Co mo","g in","t éc","s ar","2 2","pob lación","pas o","Minis terio","F ern","j as","e a","H a","v enta","z on","má xi","Ju an","ú s","ri d","parec e","y e","de bido","en fer","C an","N i","n unca","ac er","pres enta","lar go","4 0","ter ri","ment al","Po li","su b","L u","M o","ver sión","igu al","t bol","Asi mismo","cu ar","H ay","á c","mp le","pu es","comp e","jue go","encuent ro","proble mas","a compañ","a tención","lo gía","du s","parti dos","fal ta","vol ver","ex i","emp e","te x","cu lar","pre cios","re lación","ex tra","mb res","pre cio","pes os","er r","car on","os a","os o","se cre","servi cios","deci sión","c lar","mayor ía","H u","O r","rec ha","tri bu","cur so","se is","ri do","ab le","l los","an to","al to","gu erra","uni o","fr on","só lo","er an","ent onces","án dez","S a","c ali","ctu bre","z ando","re fer","D o","r us","pre g","fec ha","inclu so","apo yo","gober n","á mar","es cen","nue vos","versi dad","M or","el o","profes ion","J o","or din","car go","gi o","ca pital","t é","que da","lleg ó","j unio","in ci","au ment","regi ón","mani f","Jos é","d é","ti dad","fun da","can dida","g ada","alg unas","vis to","din ero","of re","tin a","pon e","lle va","ejemp lo","an i","fi co","20 20","clu b","Mad rid","fav or","o ctubre","es cu","pr on","bu ena","Y o","lo cal","pti embre","a mpli","ui s","a mbi","car rera","ve ci","reg ó","al ta","ch ar","medi das","tu ro","espa cio","g or","v arias","mar zo","dici embre","C O","el las","cia ción","pre ci","te mas","int ent","g ó","do cu","tar á","ser ie","cal le","asegu ró","es tru","li ber","ter o","en ci","investi gación","ca te","2 1","se ptiembre","sig ni","s as","inter es","imp u","es pec","con fi","men a","indi có","desarro llo","gu ar","ob li","Ci udad","provin cia","h emos","no vi","a miento","k i","u al","vi d","ha ya","tendr á","r ado","so ci","encuent ra","tec no","di ente","In ter","pla ta","cons tru","Poli cía","ó r","de cla","ta ciones","lle var","capaci dad","R a","m ada","evi tar","ar es","dos e","medi os","cono mía","activi dad","cuer po","6 0","i ones","tur al","P la","T ras","es ca","eje cu","es os","an terior","En tre","Cu ando","t ele","al cal","medi da","muni cip","novi embre","de por","1 00","G ar","M undial","de dor","reali dad","g ui","l or","as o","ec h","par ta","mi ci","tar ía","fal le","estu di","ent ro","ca bo","ag os","produ cción","comuni dad","conse cu","bi ó","rá pi","uni den","qu es","la ciones","que dar","li sta","tras la","líne a","a tra","f le","gi ca","mar ca","ven ción","me xi","comuni cado","activi dades","a ciones","ob ra","ju lio","camp añ","es c","vi ene","a pun","expli có","ries go","A hora","c alidad","l en","gu s","pren sa","oport unidad","F u","de termin","G ener","re z","me j","proble ma","agos to","v ari","di fí","consi der","ci eron","lan do","nos otros","202 3","N ue","t ali","Mar tí","estado uniden","Euro pa","G ran","p al","di cho","ju gar","T u","c ando","ú tbol","pe z","N e","P i","g reso","m ú","w it","co mb","mi emb","per man","dis fru","condi ciones","a i","i ma","tr ás","ter r","ac ción","pu so","Car los","resul tado","gen era","t án","tr ia","di ver","fu turo","L uis","a bier","di endo","vi deo","cor respon","br ero","pon i","ctor ia","espe ci","muer te","2 3","r ía","en se","tr á","pas ar","S ec","V I","jor nada","produc tos","A y","F in","ñ as","pa lab","iden tifi","mexi can","re conoci","u ra","in dus","mp e","may o","abri l","p p","pi e","ser ía","i g","ent os","B an","c ru","l er","p ción","ent en","adi e","F ue","g ri","L ó","z ados","h on","de clar","ca p","no mbre","nue vas","a gra","pue blo","ag regó","toda vía","contro l","equi pos","V ene","u cran","li s","res pe","au mento","parti cip","ayu da","princip al","S alud","ad io","g el","su ce","bus ca","Q ui","T e","d ra","t adas","cu i","lo go","man tener","cla ro","amb os","Ló pez","f á","t s","pro vo","uni dades","ju di","mili tar","am or","ucran i","fe brero","trabaj ar","pes ar","pre ocu","trabaj adores","actu al","cier to","l in","ent i","camp e","f iscal","mer ican","cri sis","nues tros","seman as","na cionales","dere cho","man do","la ment","con ven","vi ó","viol encia","c tura","tu ras","so l","diri gi","2 7","b or","en cu","ci s","cele br","e te","r on","al re","di pu","cion ar","Du rante","enfr ent","enfer me","T or","er as","éc tri","Qu é","mej ores","ra z","Se gu","tri b","pare ja","recur sos","mar on","ven es","ini cio","neces ario","re al","tr im","car a","der al","dej ar","D ía","T wit","c le","in os","f li","t aria","tex to","r é","de ben","en os","la da","re gu","mp i","va mos","ini cia","usu arios","ci ado","elec ciones","compañ ía","sali r","ma teri","ri o","resul tados","v ado","re d","est re","hec hos","ener gía","2 8","C ab","i or","con vo","res to","gra cias","camin o","M uni","gi co","dere chos","soci edad","a ten","en car","fi cación","zar on","cor por","co labor","hab ían","afir mó","con junto","ca u","inf lación","experi encia","men or","may ores","e jer","mp o","imp ul","Twit ter","C entro","res puesta","gu en","vir us","a quí","z uela","mo c","po pu","ayu dar","má n","fuer te","partici par","ti sta","famili as","perio dis","ev ento","si to","ha ciendo","primer os","p ó","áre a","jó venes","Y a","g re","j an","p á","os i","pro ce","pel í","campañ a","difí cil","es as","el im","di c","dis pu","mensa je","A unque","20 19","prim ero","muni cipio","ning ún","e mi","pr ác","ri co","ba ja","inter nacional","San ta","ámar a","T ra","cu anto","den tes","gar anti","ne o","gran tes","respon sab","2 6","bi r","jug adores","alre dedor","C ris","est ará","loc ales","vehí culos","bene fi","f ran","ú a","er ía","ci na","ta g","el éctri","pres encia","hu bo","a hí","t ón","hi jos","estu vo","consu l","ú nico","ad ministra","ch as","poli cía","cr í","br in","A u","in cl","mad re","i z","n er","n adie","pro ba","mu cha","ho mbres","hab lar","comi en","económi ca","an im","re por","ec e","pa z","vo z","gi a","ob s","signi fica","e mo","re a","ac ci","tiva mente","er te","del o","cion ado","Co lo","últi mas","desta có","Vene zuela","% .","A N","B a","P residen","er to","P ri","pue da","gan ar","plan te","e uro","l las","tr adi","ob ser","Fern ández","x im","con cre","ca í","che z","fo to","e b","ci li","pro ces","pre par","partici pación","expres ó","Sec re","i dos","on ia","mo mentos","ay er","Gener al","8 0","ca mi","pro puesta","ba te","fi l","ali zación","hi jo","alg ún","propi o","anun ció","necesi ta","ci to","que dó","ac ceso","f útbol","á l","di entes","va ción","Mar ía","reuni ón","P re","mo delo","ter cer","tar je","ser án","pre mi","ob ras","alg una","cipi os","zon as","P úbli","c era","pa gar","lu z","lí der","adi ó","in as","ent ras","con clu","pla zo","Des pués","consi dera","vícti mas","b ase","si ete","pu do","infor me","d í","g estión","ti o","Con se","di miento","est ó","Mi entras","comen zó","F iscal","dis par","2 9","S án","f an","t h","mi so","vehí culo","preg un","veci nos","Sán chez","Q ue","d ando","po demos","ab o","za ciones","can tidad","jer os","o fer","P S","n ar","cre cimiento","entr en","jug ador","N or","R es","p lo","ar ma","cons titu","a go","z adas","pro mo","apo y","vac una","mpo co","J us","ar gent","para ción","rec la","caus a","Con greso","ctor es","teri ores","cambi os","camp o","his tó","permi te","ata que","d ón","tu al","cono ce","cele bra","mí ni","a mena","e conomía","m undial","ú nica","cu esti","pu l","mu estra","je fe","dis poni","gen es","proyec tos","mú sica","N os","e mer","ui do","má tica","ada mente","7 0","d ue","g res","ru z","parta mento","tu d","ente mente","Re pública","Li ga","E du","cu bri","vi ctoria","recibi r","ide a","ace p","E so","re fle","pu estas","presiden ta","respon sa","R os","es fuer","Uni versidad","il ó","Ho y","b lan","k o","on o","si co","mbi a","posi bilidad","estu dio","encontr ar","L uego","c ciones","ha cen","cer can","A mé","p eli","con tar","tu vieron","In stitu","vi ce","for mas","inter és","vícti ma","5 00","J a","c án","k iló","ex ten","cabe za","de ro","in cen","cu ales","ten ga","gra ve","quier en","al er","di gi","polí tico","compro miso","di fi","mo do","mas i","sab er","tí tu","a mos","de di","cion ados","ran do","esta ban","ru so","ele gi","apro v","princip ales","pad re","elim in","9 0","n as","un al","mejor ar","gol pe","B i","pres ente","espa ño","bus car","gue z","man a","hab rá","pue dan","a par","l lu","s ado","re o","pu estos","trabaj ando","Conse jo","A s","j ui","o cas","s é","gru pos","e o","ten go","qui era","cul tura","miemb ros","Colo mbia","al la","pres u","fuer za","tis tas","defen sa","g ados","des car","ment ación","tar se","estru ctura","de moc","mi ca","ra ciones","cal les","tem pera","expli ca","V er","a gu","z á","con t","posi tivo","pen as","recibi ó","estra te","f eli","ris mo","ning una","% ,","F or","J or","S al","y endo","res ta","ciudad anos","ar te","comp li","organi zación","T ri","o cho","es co","su fici","si va","mar co","gra f","ade lante","g al","co me","dej ó","a fi","vi vir","pro tag","ex per","sa ción","polí ticas","nor te","ar ía","con fli","den a","na ción","Man uel","A d","a pren","ñ ol","un to","cu ad","su ma","so la","3 5","g é","imp acto","encuent ran","To dos","inte gr","C ó","I I","c un","á li","li bre","ri r","tu s","medi ante","Co misión","propi a","defin i","p in","tr ó","vir tió","vuel ta","de manda","pa pel","pe a","impor tantes","A i","P P","lle ga","logr ar","re i","est é","der ro","hab ría","desarro l","F i","en vi","gi os","au di","fer encia","reg res","podr án","col or","constru cción","palab ras","al ter","to ma","dad os","fin ales","estadouniden se","tarje ta","e la","m ados","per fec","pres ión","qui si","prue ba","Segu ridad","b á","v ene","ha bili","lar on","ima gen","3 1","ma g","ec er","comuni cación","leg isla","terri torio","b ó","c adas","ent idad","hab la","ís tica","neces idad","seña la","all á","liber tad","E E","fue go","am ari","cate gor","g lo","gen cias","jus ticia","Pe dro","cole c","gobern ador","plata forma","S on","g entes","l é","m ue","ci dos","an as","si on","elec tor","asegu ra","Ch ina","ami gos","Muni cip","el l","ag res","in versión","re co","lu cha","Co pa","unta miento","manda tario","oper ación","h as","tin o","tri un","mer os","To do","enferme dad","en de","máxi mo","fá cil","M ás","e go","k e","gran de","espa ñol","é di","car ac","Co muni","Le y","visi ta","alcal de","kiló metros","G on","gu ay","dis cu","inter ior","Gar cía","P ue","Á n","tal la","fuer zas","prue bas","iz quier","a tar","o c","v esti","ui en","fi gu","sa lari","entre ga","ís ticas","reali zó","alg uien","cumpli r","vene zo","E je","t ér","ab or","hi cieron","leg al","má tico","Di rec","Vi lla","Institu to","i ba","as i","titu lar","Esta mos","económi co","especial mente","blo que","I s","la dos","mi tad","le z","ex tre","cla si","distin tos","téc nico","secre tario","VI D","obs tante","Fiscal ía","A M","m adas","s elección","w eb","in depen","éxi to","edi ción","al lí","se de","hi ja","I N","p ac","es tro","un tos","mb o","esto y","4 5","D el","ali dades","ele mentos","Mi g","ori gin","proba ble","as u","sus pen","ele v","consu mo","es pos","ar tí","mar cha","ga ciones","podr á","movi li","escen ario","C ha","H asta","a ba","in corpor","famili ares","Bu enos","Eje cu","ar ri","ta mpoco","li ca","ma ter","má genes","ho gar","bo mb","cla ve","Ro dr","sali da","jui cio","u da","í guez","indi ca","logr ó","ocur rió","Rodr íguez","c ente","ar mas","ci fra","su peri","me z","ac or","añ adió","men ores","present ó","tivi dad","di á","li mi","ac ce","pi so","pas ó","hacer lo","impor tancia","sab e","hos pital","llev ó","B ras","a por","r eno","tri z","via je","conoci do","municip al","ejer ci","prác tica","Ai res","Mig uel","C os","f ras","re presenta","con vi","par tes","pa go","entre vista","fa cili","Al ber","B e","c ro","p ele","con te","po ten","ol ó","cons tr","lleg ada","profesion al","tecno logía","Amé rica","si mi","cion ó","man e","du da","ven ida","trabaj os","san it","nivel es","sigui ente","Secre taría","C ruz","t ía","dos is","hos pi","inf ra","óni ca","acci dente","o casi","me mor","ver dad","for mar","segu ro","investi g","edu cación","responsa bilidad","c entes","ter cera","imp le","Ci vil","y en","con ec","co ordin","pi dió","tori as","cambi ar","pri v","tendr án","Chi le","CO VID","Nue va","a trás","p le","r al","qu in","cre o","lla mado","Re al","actu almente","coment ó","disfru tar","Án gel","A ra","fu entes","ven ir","aban don","distin tas","aprov ech","ocasi ones","U U","b ras","c ales","án do","produ cto","exis te","Fran cis","indus tria","Jus ticia","V o","g én","i lu","r ue","de ja","ci ta","tor neo","na tur","edi fi","centr al","pelí cula","c ari","i mágenes","re mos","se an","se cu","per der","ri que","ment ar","ali zado","mes a","espa cios","loc alidad","Presiden te","ti eron","con seguir","mi te","ri eron","comen zar","Pu tin","inicia tiva","p ér","redu cir","rápi da","Ay untamiento","C ámara","N u","su bra","si guen","ra mient","com parti","acu mu","her ramient","paci entes","pad res","edu ca","ofre ce","en das","man tiene","pla za","institu ciones","Bras il","A t","S A","j eron","mo tivo","fi car","pas ada","ll er","contra to","An ton","trans porte","op ción","teni dos","vivi enda","prote cción","de tec","ta ble","mu lti","cre ar","lugar es","podr ían","cep ción","Ejecu tivo","P en","p is","con ce","mu es","cri min","recu er","ofre cer","C la","D is","a merican","a penas","t t","in ver","per ten","tor no","20 18","lan za","alcan zar","H ab","n to","re fi","re tir","do mici","parec er","funcion arios","Bar cel","detal les","manif estó","Cab e","3 4","P ab","sos tuvo","difer encia","H os","ent í","ali zó","hu manos","An te","eta pa","decla raciones","tér min","d al","j ero","tes ti","ag re","ag entes","Uni ón","sector es","centr os","t arios","re comen","ent or","su bi","pre ten","ade lan","Ser vi","incre mento","Có mo","C E","b ús","k a","n ó","v ul","de res","la ter","si tio","po ca","for tal","gr ados","’ ,","vi du","res pec","án dose","ver ano","gra m","De fen","bas tante","Francis co","A li","j ér","al ma","vi as","can tante","próxi ma","Cas ti","sor pren","compr a","Fin almente","C ol","R am","pro por","man ia","reali zado","entr ada","nues tras","An dr","vol un","denun cia","profesion ales","Barcel ona","F a","U no","e do","e vent","g im","ad u","ta ba","ta mos","Con stitu","Cas a","ofer ta","r ada","v ue","con texto","do lor","so mos","cos a","sa ciones","vel o","ingres os","P R","R ob","p s","t bo","ar tista","con tó","indi vidu","ade cu","Do min","raz ón","3 6","H i","M ari","b el","i va","m era","an ía","mi les","si r","ali mentos","us ti","bili dades","polí ticos","So cial","próxi mos","conta cto","perio do","deli to","confli cto","C ul","C entr","in sis","vi les","le van","pro t","res er","deci dió","tel é","ev alu","volu ción","confi anza","Jor ge","M ac","ar lo","ci da","ad ul","mu l","pi de","gen i","inter vención","mó vil","An d","confir mó","M er","Q atar","po cos","ex tran","alu m","San ti","tiemp os","jue z","Inter nacional","Martí n","periodis ta","telé fon","a co","i das","en or","di dos","di ario","no ticia","us te","sos pec","cli entes","conver tir","estudi antes","responsab le","administra ción","argent ino","títu lo","Pab lo","jér cito","T he","o k","en s","si mple","pe dir","sos teni","gener ar","recor dar","nego cio","ocas ión","b es","t ente","re almente","no min","bar rio","Fran cia","B iden","O br","bi o","pro fun","Es tos","ab les","cor rec","fun ción","tori os","op ini","Gon zá","T ran","m ec","ar do","ent al","con ser","di ez","qui én","car se","parti cular","inter nacionales","direc ción","demos tr","compe ti","a us","f as","o posición","su je","tu i","com ún","ador as","ne ga","19 9","primer as","ai re","G a","ter ía","pe dido","gan ó","deber ía","aque llos","médi co","enci ma","Ban co","Gonzá lez","r adi","car re","tas a","dr á","Co vid","Al g","Gu ar","puer to","estrate gia","gén ero","C al","p ese","te o","ma ción","est ados","car ga","ob tener","institu ción","comb usti","H er","p eso","’ .","est adio","fu tbo","enfr enta","E m","T en","u ales","ab solu","lla ma","pen sar","Per ú","emer gencia","mater ia","diá logo","F A","G ra","de lan","en en","di se","di go","mo to","res ol","ex clu","au gu","tran qui","vol vió","versi ones","trá fico","amari lla","con for","co vid","no ve","ada p","mon e","pri sión","cier re","7 5","a hor","b ur","en con","ar d","in media","ten gan","ali za","dis posición","ru pción","Re y","hu man","prin cipio","termin ó","desarro lla","teni endo","máxi ma","B en","D er","c é","s uel","en cial","in forma","re ve","cer o","emp a","ne t","pri ori","continu ar","Ale mania","destin o","finan ci","euro pe","U S","j ur","o tor","de os","mo der","ac tor","cono ció","jue gos","Ale jan","ambi ente","Alber to","H ern","S ur","f ase","s elec","nue ve","comple to","compro me","V e","er e","ti ro","ti rá","traba ja","Re gi","fir ma","ener gé","quer ía","áre as","insta laciones","Hos pital","Obr ador","b é","ins cri","sali ó","pel o","rela ciones","peque ño","médi cos","F er","f abri","con den","di ca","di das","fi esta","na tural","dera ción","caí da","Andr és","B er","O N","P ol","ar gu","ad mi","vi ve","vo tos","inter pre","ne z","ona to","Pro vin","Pa la","movi miento","esfuer zo","categor ía","3 3","S en","r í","t entes","ci ne","tan cias","pe or","mar có","fe deral","consu mi","declar ó","l on","r án","t ari","v era","ti erra","lo g","ment a","pro medio","mis mos","In sta","gr á","labor al","az ón","encon traba","ci u","da ños","gu sta","ho tel","ini ci","lleg ado","sac ar","Martí nez","genera ción","M as","a gen","g esti","or o","ca pi","des cubri","posi tivos","bu eno","públi cos","inf lu","ofi ciales","Anton io","c ador","j ado","de recha","re forma","co la","ado les","us ar","Le ón","san ciones","escri bió","recuper ación","J es","T er","ci entí","ti l","ten ían","Es tas","cla ra","segui do","esper an","áre z","funda mental","garanti zar","e labor","do ble","si cos","le o","tra tar","acer ca","agra deci","desarrol lar","A pp","c lo","de tenido","ci encia","re ac","ti endo","ra cia","po día","gi ó","pas e","pue des","cor ona","19 8","áli sis","Municip al","superi or","Santi ago","3 8","c és","f is","en sa","ch es","Co m","em pren","inclu ye","terior mente","Pu erto","colo mbi","Nor te","c tos","ci ente","ue las","in fec","re y","ti cias","di cen","difer ente","nor ma","Fe deral","elector al","ciu dades","a ero","a jus","de bate","su mar","vo y","esta tal","reali za","ori gen","refer encia","tele visión","C er","b os","c enta","i ra","in cu","in augu","fin almente","ís tico","dar á","dar on","imp ac","fun ciones","actu alidad","jun tos","cin as","judi cial","campe ón","dón de","Centr al","B lan","G er","M os","c ú","g ina","u li","or k","ni cos","So bre","contin úa","utili zar","puer ta","bene fici","cui dado","6 5","H e","S us","f ri","v ali","en fo","cu estión","su puesto","li bro","per tura","ter as","res is","pi lo","ol ina","present ación","solu ción","candida to","pron to","sufici ente","triun fo","Insta gram","A R","m ari","ci mientos","di ag","me tro","pe ti","compañ eros","empe zó","mexican o","benefi cios","protag on","exper tos","O T","e as","p si","ad á","ri os","ver s","ru ta","ol vi","dar le","ur ban","pen al","imp osi","hu bi","ins tru","apro xim","ican a","condu ctor","deli tos","Edu cación","Defen sa","P é","h in","que z","co ti","tor a","ni ño","esta ción","deci siones","estu dios","exis ten","graf ía","entor no","4 8","C ali","as pi","con tenido","dad a","ali zada","famili ar","funcion ario","mostr ó","3 00","E le","de ri","re for","con sis","mi grantes","est an","dis curso","ru mp","ru guay","entr ar","ie za","recor dó","fí sica","afir ma","fon dos","' ,","C lu","G ru","c ías","d ri","ro bo","cre ación","fa mos","sent ir","int eli","compr ar","apli cación","sex ual","A so","D a","on io","le jos","gra ción","esti val","públi cas","contr ario","Par tido","ses ión","aten der","Cris tina","incl ui","digi tal","difi cul","Pé rez","E S","F I","as ión","con tribu","te cción","to mó","pi er","mer cados","ban da","comuni dades","plan es","Di os","dej ado","conoci miento","recibi do","nor m","quer emos","venta ja","trim onio","colabor ación","resta u","de man","ri t","ni a","qui ero","com ba","com pren","gar on","teni miento","mad ru","popu lar","izquier da","ejerci cio","P C","T ene","v ador","al tura","su pone","cion a","sa mente","ini ció","of reci","esper ar","jus to","Día z","vacuna ción","acce der","4 00","u m","des cri","go les","com par","present ar","abri r","organ ismo","op ciones","sor pres","habi tantes","ases in","cuar to","espec í","dipu tado","Tene mos","U E","p to","de masi","ar ran","per dió","fin es","comp u","tri to","cor azón","fon do","indus tri","tón o","presu puesto","3 2","A mb","b la","as h","vi ven","pro me","ba ción","ni e","lu ción","gra tui","Des arro","obje tivos","ocur rido","amb as","fron tera","rus os","decla ración","w s","z ca","on e","mi co","du ra","ver da","tori al","tur no","Di ego","muni cipios","éc adas","organi zaciones","desa pare","efec tos","director a","opera ciones","compe tencia","enten der","alter na","espos a","madru gada","P lan","U r","d écadas","j al","r ados","se mi","pu di","reci ente","permi tir","regi onal","municip ales","respe to","domici lio","I g","g adas","r y","co inci","cu mp","le a","desta ca","trata miento","inte grantes","efec to","vivi endas","opera tivo","llu vias","carac ter","Cos ta","bús queda","de cre","de trás","ad qui","cu las","li br","En ton","ho mici","hi bi","ing reso","val ores","Euro pea","comer cial","oport unidades","entren ador","opini ón","Clu b","Enton ces","b los","c las","u d","mi edo","cre e","vis tas","velo cidad","c ár","h ará","o la","in tención","fi cos","Por que","tran si","cali fi","escu ch","convo ca","proces os","Tri b","Der ec","B el","C ada","O E","R ec","i le","ta des","cu mple","is te","má ticas","cor rupción","fuer tes","minu to","Val encia","líne as","esc uela","lis tas","teléfon o","corona virus","F l","f é","r er","la no","mo de","per ío","so y","ac lar","ac tivos","pue do","cen so","cuent as","col ó","porta voz","consecu encia","disponi ble","artí culo","mues tran","Desarro llo","M I","R ío","e dades","h ue","da mos","mu si","can te","pen a","peque ños","rápi do","dise ño","D on","F o","M ay","á mbi","é poca","di señ","én dose","comi sión","poli cial","militar es","constr uir","Gru po","C I","H ace","g ón","i as","i ción","t y","de uda","an álisis","im pres","pon en","lí deres","cor d","De por","prin cipios","diver sos","E se","t ú","v ino","z go","al co","ac triz","cia ciones","cer e","lan d","hu a","sí nto","segui dores","ata ques","llegar on","necesi dades","represent antes","emple o","preg unta","tali a","cuesti on","peli gro","tempera tura","sínto mas","C reo","P os","P as","d ario","de porte","la mento","con ferencia","cu lación","li mp","cion ada","is mos","res pal","cos to","emp la","sig lo","Ca mp","mon i","cr édi","deber á","ubi cado","emple ados","glo bal","gim en","Alejan dro","C e","F C","er no","in volu","ti da","di jeron","era ción","qu ina","imp li","present ado","plan ta","autori dad","comi da","realizar á","docu mento","abier to","Aso ciación","f lu","l á","er s","tr en","ca dena","por centa","mu rió","tien es","Cu ba","progra mas","Pla ta","españo la","edifi cio","event os","enor me","Tran s","Guar dia","delan tero","4 4","an al","bi a","res al","cri ti","ir ch","ciudad anía","Di pu","princip almente","inten si","Fern ando","materi al","recuer da","Hern ández","J avi","M es","Y ork","a pre","en contra","con cep","des can","tra yec","go bier","20 17","gi cos","ton o","cl á","aque l","celebra ción","míni mo","clas es","3 7","N A","de partamento","ar tistas","ci fras","an ual","di fun","bi s","po dido","tan a","medi ata","cor to","esti lo","cri men","publi cado","avan ce","puer tas","terr or","particip antes","democ racia","resol ver","C A","E R","S il","a pare","í si","mi o","vi mos","vi enen","ment ales","pro puestas","sa tis","am on","sab emos","So lo","regi ones","total mente","sen ci","Cor te","Or gan","sola mente","figu ra","D avi","j i","p les","me ta","ten dencia","ali ment","Es a","estar án","inv asión","sent i","trans mi","anun ci","comer ci","empe zar","ampli a","Direc ción","Trib unal","irch ner","D ani","l var","or gu","tr án","ri endo","gi cas","tí n","propi os","sue lo","5 5","B or","J e","P res","s ho","ar o","in su","di cha","co che","tu rismo","añ ad","car gos","com partir","dar se","dese mpe","sigui ó","ami go","diver sas","anim ales","pér dida","perío do","B ol","vi endo","da ción","ex pec","uni versi","vel ó","direc tamente","dor a","cir cun","publi có","asis tencia","detal ló","suf rió","tecno ló","consecu encias","reconoci miento","aproxim adamente","A z","d y","m últi","í z","es ión","un dos","do l","cu yo","no ticias","res tri","ni cas","car á","dis tribu","De partamento","pun tu","cuent an","reso lución","espec tá","blan co","conte mp","Jes ús","G al","O s","Á lvar","re vis","ba mos","ver de","hab ló","In clu","acu er","pan talla","cier tos","ren un","provin cial","solu ciones","conclu yó","Casti llo","A ctu","C ór","N ación","c ra","s alu","y os","an teriores","vi e","est ad","Es tá","au tor","Co mi","cur sos","publi cación","seña lado","ases ina","raz ones","ré cord","pó sito","xim as","tró leo","Alg unos","OT AN","3 9","B A","l és","r in","r eras","cu bier","su erte","mo l","ma la","ch il","pre via","dis tancia","men es","cal or","Uni do","her idos","situ aciones","comple tamente","bri tá","sue ño","interes es","impu estos","Ra fa","estadouniden ses","responsab les","agen da","H on","M ag","P au","g ando","r ente","en can","ar e","ar t","ta ma","no ta","ac el","men su","cial mente","lla mada","reg reso","titu d","hu mano","infor mado","termin ar","Fe deración","prote ger","terr eno","ucrani ano","ré gimen","tradi cional","simi lar","Davi d","D E","M al","s tico","y as","ci clo","re fu","mi tes","des pe","les iones","can ce","lan cia","Re ino","reci entemente","actu ar","avan zar","audi encia","a gencia","h n","l y","v ó","ñ ez","de nomin","er es","par o","li b","est én","for t","pre v","pas os","nu cle","diri gente","recuper ar","Cór do","e fici","t ti","can o","pre visto","sis temas","cul pa","propi edad","tendr ía","comer cio","registr ó","óni co","obli ga","Fu er","comb in","A us","a ti","c encia","á les","la das","an d","re to","con virtió","ta vo","del incu","ri val","den cias","du ras","us a","actu ación","cul tural","ris tas","ocu p","vuel ve","Mor ena","adul tos","carre tera","Pala cio","Javi er","4 6","O tro","S S","de cen","in mediata","si vo","ha cía","per s","ac ces","res i","cer rar","dis minu","pen sa","gr ado","fr en","acu sado","recor rido","vuel to","estable cer","nego cios","preocu pación","benefi cio","g ü","i zación","in no","di vi","vi su","po l","min a","gi do","pue blos","iden tidad","cla se","elec tr","segu ra","ale za","col ás","esc uelas","trim estre","incen dio","A ma","F eli","M A","T ele","c ón","y eron","os os","ti pos","con soli","li dad","per dido","res ca","ver so","pe tróleo","qu ía","19 7","produ jo","cons tante","her mano","logr ado","ren dimiento","caus as","Ni colás","Nue vo","premi o","peli gr","derro ta","futbo lista","k m","ti lla","ha ga","pi a","cer tifi","gan a","neces aria","poli cías","Ser gio","mensa jes","herramient as","lanza miento","8 5","r eli","r ío","de bajo","li dera","is tema","posi bles","ini ciar","hacer se","Gu a","buen as","pl eno","rus a","Jo hn","aument ar","escu char","Públi ca","Servi cio","Constitu ción","expec ta","F on","e piso","g h","y an","ti dos","tar eas","pi el","min i","for nia","ru p","entre gar","bo le","gr ía","ofi cina","anun ciado","ocur re","coment arios","abo gado","feli z","Cali fornia","porcenta je","4 2","A na","o fen","ci das","ci cle","re porte","vi gi","so me","so cios","po cas","po bre","ac h","ac re","ba la","cas as","ing ton","pec tos","dó lar","afec tados","llev ado","cuer pos","registr ado","pl ena","téc nica","rus as","ámar as","trasla dado","inmedia to","demasi ado","cár cel","G ó","L or","c uela","d ían","s ando","ar re","re fuer","re quiere","re empla","ca yó","vi vo","ment ó","ter os","ni ñas","lan os","fu ente","hay an","An tes","anti l","regis tro","condi ción","pron un","enti dades","regu lar","fran cés","cán cer","alum nos","circun s","E conomía","con cent","di co","di plo","te or","cu lares","vi lla","pa tr","ran tes","les ion","mis mas","cuent o","anun cio","tis mo","vac un","az ul","estr ella","palab ra","Actu almente","Córdo ba","A b","G i","G ui","G ali","J ue","a pertura","se o","par que","no mb","ri cos","ac os","ex terior","ex plo","20 16","Se ñ","produ ctor","fo tos","her idas","conoci da","investi gaciones","desta car","super ar","registr aron","habi tual","escen a","dé cada","tempera turas","rit mo","acuer dos","Gó mez","F unda","t alidad","en cabe","ad virtió","go za","ab as","sus titu","gas to","Po der","vent as","Sa la","infra estructura","investig adores","hubi era","/ /","G ob","I talia","i d","l ine","r ele","s el","as pectos","su bir","vi dad","pro to","ro pa","du das","rec en","qu en","segui rá","Na var","Si empre","Pro tección","debe mos","encontr ó","baj ar","peque ña","apun tó","pá gina","aler ta","rei ter","combusti ble","ámbi to","' .","9 9","p í","en señ","re as","cu án","ho l","cre a","mejor a","consi de","cli ma","necesi tan","desa fí","conver tido","mostr ar","crí ticas","amon estado","múlti ples","a é","b ara","c ámaras","h alla","p ista","ar ti","al za","ad ver","re veló","ca er","ec en","ec ha","ba i","ex p","pi ra","va ya","va caciones","ver i","can al","tal ler","ll en","ing lés","em baj","fe men","mon ta","ie v","Pa z","jus tifi","conta gios","baj as","refle xi","caracter ísticas","Mes si","G us","W il","í os","la na","on ar","ci vil","an u","ac tiva","Es tu","com porta","inter na","cor ri","posi ciones","produ ce","asegu rado","esper anza","afec ta","Esto y","redu cción","médi ca","apoy ar","histó rica","elimin ar","vul n","profun di",": //","P A","T al","U ruguay","W ash","a pos","f f","f recu","h ar","h tt","n adas","an cia","ta t","tr ado","ac tos","pres entes","esti ma","Ca mpe","expli cado","cuar ta","cuesti ones","elegi r","sospec hos","convoca toria","gobier nos",". ,","D os","P I","a mis","c tivo","g ni","en so","se par","tr al","má ticos","ro l","ch u","ex pan","20 15","20 14","com paración","lar ga","pos e","ho mena","tur ales","Ca tal","san gre","nor mal","cel u","quer ido","candida tos","intent ar","depor tivo","práctica mente","términ os","vers ario","trán sito","Wash ington","6 00","K iev","P ana","S ab","T rump","c ámara","n ado","t ent","de bu","de cía","ci elo","al tas","as pecto","in geni","tr ali","do ctor","lo gra","per ci","ma te","ment ado","tar án","min ación","lle van","ne gro","nu meros","via jar","resul ta","ctu ras","defen der","Mu jer","usu ario","represent ante","fac tores","invi erno","apun ta","pelí culas","Públi co","histó rico","Comuni dad","simple mente","Mos cú","C re","F rente","J al","a pa","ar chi","cu ador","li do","tra to","vo to","gi r","via jes","nueva mente","vac unas","sue le","ór gan","Tu rismo","abier ta","comien zo","amena za","llu via","democ rá","B C","G abri","d ina","de tención","ti on","ca paz","pro gres","po lé","du l","les ia","én do","reci én","Ju lio","pri vado","permi tirá","movi mientos","solici tud","err or","miemb ro","periodis tas","natur aleza","mode los","S E","T ur","b on","c lí","de b","de lante","en ca","re par","te ca","cu ál","ac ti","pu dieron","Es cuela","cas ti","car ta","lan zó","hor ario","comp on","ne u","cor te","202 4","bien es","direc to","pró ximas","apro bación","Li ber","funcion amiento","realizar on","Val le","quedar on","hon or","eléctri ca","disponi bles","refi rió","D I","P ese","T V","a venida","h al","ci entes","an alizar","ad é","cu o","su i","mo tivos","ra el","Uni dad","anti gu","desta cado","obje to","soli d","depen dencia","Mad uro","pasa jeros","PS OE","convertir se","involu cr","A c","I gu","o jos","co br","ca b","mo tor","po tencia","is co","esta ciones","En rique","seg undos","gra ves","ori ent","Su pre","trans misión","bus can","15 0","nú meros","defin ir","clasi ficación","Cul tura","pilo to","Funda ción","4 9","B ri","M undo","T E","Z ara","a pe","b y","t adores","in versiones","ent er","pu si","pu lar","us k","can cha","bo ok","presiden cial","jun ta","it ali","int ento","Pe tro","avi ón","manda to","Ti erra","Ale x","aso ciación","consider ó","materi ales","Gra cias","Sen ado","Inclu so","C N","a lar"]}}