{"version":"1.0","truncation":null,"padding":null,"added_tokens":[{"id":0,"special":true,"content":"<UNK>","single_word":false,"lstrip":false,"rstrip":false,"normalized":false},{"id":1,"special":true,"content":"<SEP>","single_word":false,"lstrip":false,"rstrip":false,"normalized":false},{"id":2,"special":true,"content":"<MASK>","single_word":false,"lstrip":false,"rstrip":false,"normalized":false},{"id":3,"special":true,"content":"<CLS>","single_word":false,"lstrip":false,"rstrip":false,"normalized":false}],"normalizer":null,"pre_tokenizer":{"type":"Whitespace"},"post_processor":null,"decoder":null,"model":{"type":"Unigram","unk_id":0,"vocab":[["<UNK>",0.0],["<SEP>",0.0],["<MASK>",0.0],["<CLS>",0.0],[".",-3.1292208848079763],["de",-3.2292975643208752],["en",-3.337503624841178],[",",-3.7820543921810454],["van",-3.993607041794233],["een",-4.050197643820912],["s",-4.055710461338862],["het",-4.084167623207684],["in",-4.135719522664491],["e",-4.194577156769325],["t",-4.3156861107203905],["is",-4.508334484281393],["dat",-4.557822794447517],["op",-4.558424370086895],["te",-4.725249300662261],["n",-4.790622783040378],["er",-4.865963961777492],["voor",-4.870605823105066],["met",-4.975443547745293],["zijn",-4.989949100740878],["niet",-5.04499611174392],["die",-5.0480426210174],["je",-5.097668577965376],["-",-5.134554121891911],["De",-5.135993567717419],["om",-5.141122619385877],["aan",-5.213528340953971],["ook",-5.478030021325711],["als",-5.495184985427056],["al",-5.542516952147041],["bij",-5.544121379160764],["maar",-5.565548454317909],["uit",-5.60207541755792],["ze",-5.621378178257002],["Het",-5.726137739093529],["nog",-5.738038693825855],["’",-5.756637398642743],["zo",-5.769975386244349],["dan",-5.800894758589678],["ik",-5.806822171020375],["over",-5.81710276486991],["ge",-5.846714218558015],["door",-5.888413852298015],["wel",-5.895468225023629],["d",-5.9099363326626655],["naar",-5.9107670078354175],[":",-5.931358578102101],["heeft",-5.950937233608501],["of",-5.988375414367972],["'",-5.996771433059699],["was",-6.036640499443177],["\"",-6.088656480565987],["(",-6.091138289988956],["meer",-6.097765890196664],["hij",-6.115013082847218],["?",-6.120433273090905],["“",-6.139558662762436],["hebben",-6.145141287515573],["moet",-6.161083481569639],["jaar",-6.196899240407728],["we",-6.209788349745626],["worden",-6.22302322404987],["wat",-6.280283272494881],["word",-6.287987120639954],[")",-6.29879262143073],["waar",-6.302513084750805],["na",-6.303838810567207],["kan",-6.310138621699464],["‘",-6.31730446216676],["a",-6.363259799749054],["Dat",-6.368211071467812],["Ik",-6.3834257390429485],["In",-6.387591767524611],["dit",-6.403241140402681],["daar",-6.4467814217504085],["geen",-6.4494451994842645],["zich",-6.472261941048007],["werd",-6.489278914924773],["tot",-6.505489384187582],["nu",-6.523260964169493],["kunnen",-6.527209686890881],["veel",-6.534265096884074],["gaan",-6.586236150995718],["i",-6.616553922777687],["Maar",-6.619175822203437],["gaat",-6.6204904529319935],["had",-6.626671195827933],["mensen",-6.6302534232713315],["hun",-6.631178667325903],["onder",-6.641981426414912],["af",-6.651044012511111],["En",-6.6620093384425925],["mee",-6.674725876629339],["o",-6.681964425714825],["zou",-6.684737251725584],["weer",-6.696729809419905],["tegen",-6.699963450070878],["deze",-6.710722970467364],["dus",-6.736076418263601],["Een",-6.771740100769072],["m",-6.8037490870001305],["haar",-6.813541037006305],["1",-6.821234106146818],["alle",-6.822769869362079],["r",-6.842207384378964],[".”",-6.86296842290037],["z",-6.864986241105627],["k",-6.887989380581171],["goed",-6.89425362691666],["heb",-6.8964417639115725],["komen",-6.905773404659672],["g",-6.915451591992896],["zelf",-6.915787012609478],["twee",-6.9422352381838595],["l",-6.948328494655795],["f",-6.9487162586050655],["andere",-6.956255007670754],["ing",-6.9652959503222425],["be",-6.968327340720982],["doen",-6.982370598034439],["kom",-6.984320338140338],["ver",-7.015002597990272],["maken",-7.01607488947205],["land",-7.039349745921518],["2",-7.045122197107889],["krijg",-7.045489892210583],["nieuwe",-7.046286856572509],["tijd",-7.0637577718681905],["me",-7.073318515092017],["wil",-7.076928086926552],["toch",-7.082634941789028],["maal",-7.083040089066533],["Daar",-7.087884124042878],["zal",-7.091908198671965],["staat",-7.092097871460069],["Als",-7.102067370331538],["on",-7.104282687376412],["man",-7.108096338388916],["hier",-7.111984691656287],["weg",-7.119241074812735],["”",-7.126307558632543],["volgen",-7.135423585082395],["vind",-7.140811685597857],["mijn",-7.141624534988285],["u",-7.176036791479625],["heel",-7.1766699617268435],["20",-7.186926806466042],["zegt",-7.198302836510359],["Er",-7.203794980358738],["We",-7.204229733890604],["hoe",-7.205201187442999],["toe",-7.2081590352874265],["Van",-7.211924524085114],["A",-7.211958659047504],["Ook",-7.212598908705959],["eerste",-7.213884762493143],["lopen",-7.219177815372145],["hele",-7.221268803201062],["Hij",-7.2342449632985115],["Ze",-7.239022336220327],["Op",-7.251207718396588],["iets",-7.262429646648179],["zien",-7.2669468915688435],["tussen",-7.302531863990937],["even",-7.303941954539945],["h",-7.308267561998699],["S",-7.313654539156843],["heid",-7.316237396400295],["Nederland",-7.317951301370474],["ons",-7.327061012120854],["grote",-7.328158780991796],["alleen",-7.332351519950651],["auto",-7.346035708221686],["Die",-7.354405811936109],["Zo",-7.359223235016409],["procent",-7.366775380506082],["K",-7.371473057951306],["”,",-7.377569201380993],["ooit",-7.377859364220457],["hem",-7.3896495530178905],["B",-7.397104051693431],["v",-7.409313833923334],["euro",-7.419108169414466],["le",-7.4237637479794865],["dag",-7.426284273042083],["y",-7.42668512900037],["houden",-7.4336629400161796],["D",-7.441759679274015],["kun",-7.443475291945301],["Je",-7.443916911034904],["3",-7.446916939729325],["kwam",-7.458008778513518],["leven",-7.461300897731254],["echt",-7.47232546486926],["keer",-7.475662206666692],["altijd",-7.476285661758222],["Dit",-7.486634381932791],["p",-7.489760658277309],["laten",-7.493452010989994],["gewoon",-7.498342263982895],["waren",-7.498843036881019],["eigen",-7.51280755146534],["el",-7.517149346908048],["uur",-7.52054593739882],["terug",-7.522989492305237],["zij",-7.5283389553474125],["!",-7.530454178722848],["E",-7.5362265620940505],["binnen",-7.536244054743206],["mogelijk",-7.5380105660642425],["b",-7.54297646255429],["per",-7.543012094500275],["ben",-7.568122558580672],["week",-7.575231977190937],["5",-7.581906585284436],["staan",-7.582111793444509],["willen",-7.588385531754018],["mij",-7.599576277984491],["onze",-7.600659525129927],["V",-7.605003538228066],["net",-7.609849035521538],["minder",-7.610636473090022],["steed",-7.617660637486238],["politie",-7.621825357142359],["Voor",-7.62255721909924],["tijden",-7.6232723798665765],["werk",-7.633099241170781],["geld",-7.637026994355121],["toen",-7.652582080343994],["drie",-7.662368075622314],["afge",-7.6625310863245595],["jaren",-7.67509746108028],["lang",-7.684316693812435],["achter",-7.6855645949084215],["I",-7.686590079506027],["want",-7.691443358851928],["P",-7.691760058623537],["Met",-7.692457645326527],["moment",-7.700576547868245],["huis",-7.70093657086326],["rond",-7.702403791126883],["Oekraïne",-7.7094109972832285],["4",-7.710628137941266],["Wat",-7.7174008049807075],["laatste",-7.720244458575223],["één",-7.723170254118316],["eens",-7.724603480703184],["Bij",-7.7271740428072455],["wereld",-7.728446770486374],["O",-7.728609819955828],["Rusland",-7.737162632387031],["plaats",-7.7519109099709596],["Na",-7.758277223982489],["G",-7.764157135485486],["Russisch",-7.7655913293348195],["verder",-7.776946436539568],["zit",-7.784508821173459],["Volgen",-7.78561466658775],["W",-7.788429730087174],["kinder",-7.794097312301364],["gebruik",-7.797439277051],["ren",-7.798963720172999],["voorbeeld",-7.8002984260750905],["/",-7.8046447737802715],[".\"",-7.80564713908739],["mag",-7.807240512196961],["deel",-7.810852258322795],["weten",-7.811246243316907],["nodig",-7.8132500743851265],["gemaakt",-7.816206972988533],["zonder",-7.826844254272573],["onderzoek",-7.8295749401620185],["Nederlands",-7.830825799257149],["blijven",-7.831990382552169],["snel",-7.837402661610001],["T",-7.839240263379599],["202",-7.849212372288989],["maakt",-7.855019630333254],["C",-7.856001802992987],["aantal",-7.862654345475192],["jarige",-7.87348947296957],["nieuw",-7.874617852641194],["geven",-7.875648339894814],["ging",-7.8889309797395715],["vooral",-7.889253978962825],["000",-7.903299396043357],["6",-7.907275565110532],["beter",-7.9078869964726435],["laat",-7.907893755941098],["ullen",-7.908171252742059],["Hoe",-7.913815940796302],["Dan",-7.917215787630207],["elkaar",-7.917829407480393],["M",-7.918858940432769],["weet",-7.91987770925722],["miljoen",-7.9229592223587595],["zitten",-7.923146172215136],["bedrijf",-7.929534280533513],["19",-7.930748619025904],["stad",-7.934327532405806],["alles",-7.934401201558994],["gemeente",-7.936725188569717],["N",-7.94223793884266],["us",-7.942603406729638],["anders",-7.945905781735996],["zeggen",-7.947411287487708],["zeker",-7.947578071625938],["nemen",-7.9520270207110935],["groot",-7.952991110878047],["werken",-7.953017057046011],[").",-7.9549118878976826],["avond",-7.956566521720709],["zelfs",-7.959797650710576],["bekend",-7.965661035792672],["10",-7.969490242843727],["eerder",-7.970510048379044],["w",-7.98786346046297],["Zij",-7.991080715277201],["samen",-7.994719878043731],["via",-7.999073183594736],["doet",-8.003786980025255],["vol",-8.007083150951564],["blijft",-8.007344977494622],["–",-8.008318970435365],["kon",-8.012132934329045],["energie",-8.012258749415127],["oorlog",-8.018966660343821],["F",-8.023494427437232],["naast",-8.032950931698132],["vrij",-8.037882973471664],["vaak",-8.038766990853155],["boven",-8.03969513277264],["lijkt",-8.042057822497679],["0",-8.07165032501575],["zetten",-8.072600821605882],["8",-8.075364853561272],["ie",-8.075377590222448],["vier",-8.082147867082497],["moest",-8.083230601069683],["wij",-8.088043806681805],["Om",-8.089040425050282],["natuurlijk",-8.098482440760176],["ken",-8.100384925007955],["vraag",-8.110413930667544],["der",-8.110858952792858],["R",-8.111785295860253],["vrouw",-8.123210773179947],["j",-8.127264374816507],["iemand",-8.127387216621697],["sinds",-8.130372299732837],["soort",-8.135792893671475],["iedere",-8.141310726906495],["erg",-8.147240125096172],["later",-8.14728467138891],["blijk",-8.148024103489536],["zei",-8.149122564156402],["water",-8.157071304939368],["Deze",-8.164825284859802],["ter",-8.16774645099375],["hoofd",-8.17431923440627],["juist",-8.177657250910247],["vast",-8.177774789653418],["geef",-8.183272933301858],["duidelijk",-8.184770311154674],["licht",-8.190290611736064],["genomen",-8.193154007568655],["kijken",-8.196746404633018],["eerst",-8.197716455501785],["wie",-8.19846095798133],["woning",-8.20025397764039],["dagen",-8.2021683436843],["leden",-8.204855490240728],["paar",-8.206722294469898],["landen",-8.206856171323349],["ga",-8.208494919766256],["tweede",-8.21149739080283],["goede",-8.211902257001832],["genoeg",-8.216690548242806],["Nu",-8.21727302341005],["7",-8.21732636761578],["neer",-8.218679775807008],["H",-8.220816712587169],["buiten",-8.226415198804887],["manier",-8.227442640058745],["wedstrijd",-8.229315246084532],["denk",-8.233295000572198],["verschillen",-8.233539869032352],["Al",-8.233777170306958],["gezien",-8.238263098152533],["enkele",-8.244139207466517],["Amerikaans",-8.244811034808828],["ja",-8.245049313838212],["bijna",-8.250105181135028],["c",-8.255930726030336],["breng",-8.257318233360994],["maanden",-8.261692656524865],["extra",-8.261919332046336],["hand",-8.263962961454851],["stond",-8.272205846371026],["gas",-8.274779104270081],["lig",-8.276546443459491],["weinig",-8.276836124845861],["vond",-8.280494919134602],["gedaan",-8.28122569785619],["Europe",-8.281956697779776],["30",-8.291019936271548],["pas",-8.294233791702911],["bedrijven",-8.29773401152886],["corona",-8.297993068031502],["minister",-8.299600944666611],["amelijk",-8.299950268321204],["baar",-8.301702818647783],["partij",-8.30708957947002],["Waar",-8.313826857370907],["prijs",-8.31451685023698],["straat",-8.31855907291034],["ers",-8.320638278721358],["beetje",-8.321180821580306],["kree",-8.32314252170936],["eigenlijk",-8.325054335026874],["vijf",-8.3271234896287],["rijden",-8.329775655495027],["gek",-8.335285116331098],["Of",-8.33719827243319],["verwacht",-8.339484656515255],["geval",-8.348985078765665],["markt",-8.351173185374819],["U",-8.351717735818717],["ander",-8.355930678419492],["15",-8.356681730315822],["weest",-8.358465694756193],["halen",-8.358514204325036],["weken",-8.36513341442054],["wege",-8.366510099105227],["eind",-8.369130811002488],["groep",-8.370577796550316],["seizoen",-8.375481353374173],["Europa",-8.381648758007707],["ziet",-8.38262592859294],["Door",-8.383969088626728],["Ja",-8.384947362400592],["prijzen",-8.387093068183493],["media",-8.38935624630325],["maakte",-8.391364600811212],["9",-8.39498682284195],["vanaf",-8.402529123269812],["stellen",-8.403598897935614],["probleem",-8.404850562214627],["vandaag",-8.40913469208973],["reden",-8.409950328666111],["…",-8.41066711660497],["Dus",-8.413522049564346],["thuis",-8.417868287394512],["recht",-8.419067182064648],["gebied",-8.419360993912772],["mogen",-8.419603057157026],["EU",-8.420008980986456],["hoor",-8.420543231258524],["vragen",-8.421891371287806],["maand",-8.423248915331646],["ruim",-8.425915790602804],["zie",-8.431666622597943],["an",-8.434737460115034],["heden",-8.434903502279013],["at",-8.435056091237813],["Niet",-8.437739413193352],["kans",-8.437864165610543],["vrouwen",-8.444808867293993],["niets",-8.444960424479524],["zoude",-8.44682797403065],["basis",-8.449150664450709],["men",-8.451929765772505],["foto",-8.452089965961308],["zorgen",-8.45518376868488],["middels",-8.455520031474965],["problem",-8.457439761078671],["meest",-8.461270830442182],["18",-8.464289697166809],["ieder",-8.46611250576391],["zaterdag",-8.466480692679042],["president",-8.46648489626049],["neem",-8.46698254140076],["%",-8.468585574011435],["rol",-8.470887534885495],["L",-8.470909079077398],["enige",-8.472930960963943],["denken",-8.475234824622838],["best",-8.478515182095922],["kant",-8.479351738559766],["team",-8.482225728393406],["vorig",-8.486256623263799],["kosten",-8.487030296614046],["woensdag",-8.487119143386941],["hard",-8.487450689596272],["Poetin",-8.492048595382034],["druk",-8.492544856360759],["echter",-8.494632150203751],["zaak",-8.497623781889219],["gelede",-8.50042278653475],["mannen",-8.50624151046313],["hoog",-8.509367665722007],["wan",-8.509908875392773],["maandag",-8.510631916918495],["„",-8.51532308686995],["regen",-8.51771088901897],["werkt",-8.517938169612233],["bent",-8.518256647711137],["terwij",-8.520624493301373],["isschie",-8.520726690688079],["langs",-8.522121104199435],["hoger",-8.523526132499768],["vrijdag",-8.525550043278571],["club",-8.526019821335478],["zat",-8.527763679444703],["ton",-8.527866863406766],["tien",-8.53075826668379],["app",-8.534118629707706],["grootste",-8.54314384193707],["regering",-8.543897482485786],["kabinet",-8.545174945504556],["spelen",-8.54576290767395],["betalen",-8.548885802780784],["nieuws",-8.55266253408751],["gelijk",-8.553505808512206],["graag",-8.55430355359253],["beste",-8.556238417061476],["overheid",-8.556797489267101],["begin",-8.557105625792396],["kort",-8.560303760399663],["he",-8.562633375731739],["naam",-8.56945224032731],["elke",-8.57577944095566],["idee",-8.58191436564453],["da",-8.58668133963285],["17",-8.58678796037438],["totaal",-8.587273218741888],["ma",-8.587395538547929],["valt",-8.588450650706339],["um",-8.58920389639412],["dienst",-8.592378056495464],["dinsdag",-8.59467317343734],[";",-8.594707824664056],["plan",-8.598520550761071],["Apple",-8.599901745170147],["hoge",-8.599986499479675],["12",-8.60171975435924],["gevolg",-8.603560635296857],["langer",-8.604548213937623],["zorg",-8.613710030146727],["familie",-8.619190160472629],["gegeven",-8.620180255121436],["stuk",-8.624673532734286],["zondag",-8.625709732566825],["heen",-8.62763934162816],["volledig",-8.6288125755223],["Wij",-8.630280765768006],["gekomen",-8.631173178406536],["plek",-8.634719720359449],["ruimte",-8.636379866730888],["donderdag",-8.636849512622007],["verhaal",-8.637287266859895],["Oekraïens",-8.642546010741341],["16",-8.645747894147146],["school",-8.647793010718347],["Is",-8.650838184651608],["uiteindelijk",-8.652732828665018],["Be",-8.656295229346537],["houdt",-8.65646428483604],["dood",-8.656779275296124],["gebruikt",-8.658673150518144],["oud",-8.660230587143873],["liggen",-8.660791239882368],["ongeveer",-8.661478061896213],["jij",-8.661572212432914],["Rutte",-8.664138611869674],["ploeg",-8.666236073141118],["welke",-8.672116041220164],["programma",-8.672489563315091],["situatie",-8.674546110822714],["leggen",-8.675208590178347],["miljard",-8.67577042629378],["Hier",-8.676017707721549],["vallen",-8.678197894814286],["start",-8.680762253098234],["ste",-8.68334831899339],["regel",-8.684026143612062],["25",-8.687369334967732],["derde",-8.687436851854532],["punten",-8.687882330553439],["periode",-8.692177039582134],["200",-8.694359521833604],["mooi",-8.696793911645704],["waardoor",-8.696888065690015],["bied",-8.699519917233788],["richting",-8.713282473495546],["belangrijk",-8.71370663203939],["ar",-8.714432372885542],["loopt",-8.71547733961333],["Aan",-8.715967551804557],["zaken",-8.716393974490256],["100",-8.71655652242606],["wilde",-8.71731415736661],["boeren",-8.718981997788195],["21",-8.72013367164859],["niks",-8.720793813463917],["50",-8.721768291736954],["waarom",-8.72244906857204],["zoveel",-8.72252241429894],["ve",-8.724201564076575],["beleid",-8.727350184068268],["kleine",-8.731644272666674],["vorige",-8.733935798098546],["helpen",-8.734380268476956],["beteken",-8.735244058460918],["organisatie",-8.736140476683396],["eten",-8.736507883527295],["zomer",-8.74021297442302],["einde",-8.744812259836209],["veld",-8.746488936379457],["grond",-8.747634965499888],["moeder",-8.748258870538727],["eel",-8.749603967812625],["22",-8.751481082184657],["hoop",-8.754779094573683],["zeer",-8.756624498195098],["00",-8.759085820618417],["acht",-8.7593405298546],["lekker",-8.75964311596698],["én",-8.76010750302168],["kopen",-8.7608222614423],["bezig",-8.765944144932284],["rechts",-8.7697697847138],["Wel",-8.770224111206627],["beeld",-8.770827017694756],["actie",-8.773647853837222],["&",-8.778283312693866],["groter",-8.779774941945767],["rij",-8.779841403367667],["Toen",-8.780651670183085],["systeem",-8.78108525535874],["middag",-8.781256171661658],["Wie",-8.782174907811122],["centrum",-8.782560785913475],["Uit",-8.78277054280179],["bare",-8.785233800508198],["maatregelen",-8.78632913389037],["Mijn",-8.788291198188324],["slag",-8.79280092476434],["daad",-8.795907857653075],["klimaat",-8.796275429063748],["vak",-8.798799825976687],["brand",-8.798888514397149],["Amsterdam",-8.79961391851059],["pen",-8.799828825359384],["meeste",-8.80083338732822],["flink",-8.803644968719565],["Want",-8.803793794366921],["huidig",-8.804185509517186],["’,",-8.806087835160099],["precie",-8.808307715883572],["cijfer",-8.808714222243076],["hulp",-8.809036407803607],["vertelt",-8.810666096629765],["doel",-8.812355518776604],["rest",-8.813801076751975],["Duitsland",-8.816282709067748],["honderd",-8.821834559752716],["stand",-8.822187122906126],["gedrag",-8.822657096807795],["direct",-8.823409802408314],["Z",-8.82530535885305],["Russen",-8.826067284065978],["ouders",-8.826466226373189],["ochtend",-8.827833614339221],["klaar",-8.8284692990675],["leuk",-8.829452685827853],["daarom",-8.830684342705553],["dollar",-8.832436667129425],["relatie",-8.832871721811287],["bank",-8.833614513681493],["wind",-8.83403448474734],["delen",-8.834717735586263],["rechter",-8.836822529845847],["sector",-8.837133776407484],["uw",-8.837210695981925],["zelfde",-8.842321020942158],["rgens",-8.842403419732815],["sociale",-8.843618996020908],["halve",-8.845794646097083],["nacht",-8.846870248478663],["China",-8.849020854778328],["meerdere",-8.849433129806453],["punt",-8.849476183840189],["ari",-8.851708493501306],["finale",-8.852227214617635],["regio",-8.852985893042838],["hoeveel",-8.853181723340768],["mis",-8.853367268812564],["daarna",-8.855202709621349],["trekken",-8.855856832506415],["olie",-8.86050463036382],["dicht",-8.861666089531683],["partijen",-8.863582273706157],["Ver",-8.867861100012997],["oplossing",-8.869107549676425],["gebracht",-8.870838491675656],["liet",-8.873793511610222],["soms",-8.87478896565747],["2020",-8.876203861001082],["vorm",-8.876524526074181],["gevallen",-8.876762117116735],["meter",-8.881182327757713],["The",-8.8813581464721],["half",-8.88195733373315],["huizen",-8.882802977888204],["rekening",-8.883399203296033],["meld",-8.883996323665567],["inflatie",-8.88607758230451],["boek",-8.889535546448208],["vader",-8.889740770785627],["strijd",-8.890808452788448],["24",-8.895180742685701],["politiek",-8.895249304131609],["waarschijnlijk",-8.89588978043695],["kilometer",-8.89708186556658],["voel",-8.897793179672842],["Toch",-8.900159717676754],["zag",-8.901767374319803],["voorzitter",-8.904950836428856],["grens",-8.906403652906858],["11",-8.909134941493445],["lange",-8.911257905706984],["stelt",-8.911588510826284],["aange",-8.915882154017218],["horen",-8.916557724940073],["ogen",-8.917198410845984],["len",-8.921883474602996],["dingen",-8.924781166726113],["muziek",-8.924968565095256],["VS",-8.92616326826472],["ziekenhuis",-8.928086112656842],["beide",-8.928951567858853],["gesloten",-8.930812029139785],["nou",-8.931720610458267],["niemand",-8.932871913156529],["Over",-8.933710097841569],["sport",-8.935564324693203],["Groningen",-8.935798718331743],["gezet",-8.938131094187748],["Ge",-8.939127573428838],["minuten",-8.939544244643226],["deur",-8.939594024616],["reactie",-8.939629515994534],["jonge",-8.943716348283068],["blij",-8.946272216388689],["duizend",-8.947088303347376],["zoek",-8.947591742387978],["aard",-8.947996278891821],["moeilijk",-8.950898357290507],["Verenigd",-8.95415931727154],["mooie",-8.957781899732876],["niveau",-8.957812223896097],["Duitse",-8.9579168822611],["vervolgen",-8.959518990002007],["belasting",-8.962164112940746],["lucht",-8.962232954481724],["gevoel",-8.962376919538297],["buurt",-8.962602265231997],["ont",-8.963023797736826],["toekomst",-8.963373763523073],["nummer",-8.964017605124502],["vroeg",-8.965425257359637],["slechts",-8.965996382389939],["dezelfde",-8.966385070663518],["elk",-8.967394016944905],["gemiddeld",-8.967594392734679],["lezen",-8.968471977697433],["Kamer",-8.969050549734185],["betrokken",-8.973589725966063],["bleek",-8.974034314022795],["Jan",-8.974333448089006],["lijn",-8.97526736677963],["pakken",-8.976168031163631],["bijzonder",-8.977616894816457],["klein",-8.978123167204984],["anderen",-8.978777468004292],["inder",-8.979267683409768],["helft",-8.980531056826205],["lever",-8.982379578392031],["medewerker",-8.982845141596453],["Ter",-8.98292202398513],["won",-8.985421493294055],["40",-8.985446173687667],["project",-8.985642961647095],["kind",-8.98639272451721],["vakantie",-8.988576576669507],["gesprok",-8.988843424442504],["voetbal",-8.990081891249808],["lid",-8.991357579268577],["€",-8.991781686317067],["weekend",-8.992205025779024],["ra",-8.99717301519107],["ut",-8.997976103820484],["14",-8.999023489553863],["spel",-8.999487930278699],["sommige",-8.999490830763968],["mocht",-8.999629519620129],["wachten",-9.00534681098054],["Onder",-9.006787490376983],["ij",-9.007642599668127],["schade",-9.008136202629517],["tjes",-9.008634235823841],["functie",-9.01507884585823],["gezegd",-9.016395980501535],["oude",-9.017907393791415],["kond",-9.020586116877901],["België",-9.022987420265482],["planne",-9.024605173975552],["aanwezig",-9.024884408537275],["13",-9.024898977883822],["januari",-9.026943668855058],["gebeurt",-9.0272788834666],["vlucht",-9.030757447470215],["woordvoerder",-9.030963114467262],["aandacht",-9.031057993812652],["On",-9.032879124383141],["grad",-9.033390647763518],["23",-9.035004969171975],["ulli",-9.037125012516299],["terecht",-9.038166683710745],["leef",-9.040256819321389],["handen",-9.043830398047275],["enkel",-9.045960132660067],["denkt",-9.046400935329025],["begon",-9.046828031549097],["FC",-9.047483265226447],["gang",-9.049759547170595],["winst",-9.050230553039274],["winnen",-9.055124562660835],["fiets",-9.056024360460455],["ën",-9.05630275879711],["viel",-9.057851545479474],["Geen",-9.063366750414495],["lijst",-9.06504493849294],["verschil",-9.067460465417234],["zin",-9.068053180799113],["Tot",-9.068252513585778],["wegen",-9.06918323575605],["risico",-9.069837764698319],["gesprek",-9.07020024011399],["film",-9.070662049046813],["beginnen",-9.076335106145091],["leger",-9.076920135435751],["dacht",-9.07702500441808],["dank",-9.077321203520944],["informatie",-9.07741599019306],["voorbij",-9.078871628064997],["sterk",-9.07893113989033],["Zuid",-9.08002037481678],["begint",-9.081632990857145],["ster",-9.084368112368804],["Noord",-9.084534162416931],["speelt",-9.085172540449278],["strak",-9.089188539557924],["natuur",-9.089848804869762],["beelden",-9.092796223975192],["steun",-9.093064473606972],["liep",-9.09318899259713],["wonen",-9.094028593785318],["slecht",-9.095146855273068],["los",-9.09556761560286],["stroom",-9.09566643893385],["crisis",-9.097463309121613],["trokken",-9.101278963505079],["voldoende",-9.102793815697398],["ële",-9.105257362970683],["slachtoffer",-9.105692603488258],["Veel",-9.106304577556042],["verantwoordelijk",-9.106318187936601],["eindelijk",-9.107501812163713],["rust",-9.107780216017904],["wijl",-9.108724475873494],["Vlaams",-9.109806268221785],["verkiezing",-9.110439365746789],["baan",-9.110538276712003],["zoeken",-9.113157558592441],["Franse",-9.114055134216727],["Britse",-9.115688719248354],["é",-9.116594330966237],["juni",-9.118050086282008],["500",-9.118803900117157],["la",-9.120612144754563],["zwaar",-9.120613437715141],["Ben",-9.120614145248663],["verdachte",-9.12206204303025],["gaf",-9.123111193158001],["kost",-9.126413760514497],["lager",-9.126606903585195],["voorkomen",-9.126628341948054],["aar",-9.127755232101075],["VVD",-9.129254188169712],["mens",-9.129775064806973],["spraak",-9.13283281680011],["begrijp",-9.133786902050321],["winkel",-9.134978132126236],["vertrouwen",-9.135342143536347],["oog",-9.136108685158778],["korte",-9.137299757163412],["gebeur",-9.13884381403701],["personeel",-9.140164823398065],["personen",-9.1418658331916],["zeg",-9.142669967487294],["slot",-9.143965908046201],["macht",-9.144733480895948],["ë",-9.14502141926432],["mei",-9.145396267936835],["He",-9.14590825362072],["Belgisch",-9.146883748597372],["uren",-9.147631279430218],["legt",-9.14818511718888],["D66",-9.148240409055157],["loos",-9.150098368735508],["x",-9.151939804321493],["woord",-9.151975629967406],["locatie",-9.152384475255444],["CO",-9.15239187890045],["lijk",-9.152599682839355],["politieke",-9.152620438695347],["noem",-9.152767862256782],["bouw",-9.153326479352106],["september",-9.15396341080287],["Net",-9.156265056707063],["wijk",-9.157130894879135],["contract",-9.158096913922797],["hart",-9.158397930610441],["echte",-9.159141303630722],["hoeft",-9.159259470419865],["wet",-9.160294266348245],["elektrisch",-9.163098507436011],["online",-9.163195150640233],["kamer",-9.164261141889066],["video",-9.16736629613185],["bedrag",-9.16817315461093],["vluchtelingen",-9.16972815226723],["zware",-9.171712346266489],["Sinds",-9.172192089327625],["stemmen",-9.172378556965395],["belangrijke",-9.174161563509484],["studenten",-9.175364158011936],["kracht",-9.175943796319949],["Alleen",-9.176948011905385],["premier",-9.177089811974806],["klanten",-9.17836752547321],["stappen",-9.178395283465393],["ebru",-9.178427898217315],["afstand",-9.178587771993298],["voormalig",-9.181429484226303],["ronde",-9.18182212233455],["verbod",-9.182153807101646],["80",-9.183682880764389],["international",-9.186053999772184],["belang",-9.187835347427686],["positie",-9.188635090523263],["ex",-9.190330074404972],["sche",-9.19094339885546],["antwoord",-9.192863317208136],["Alle",-9.194255910945666],["Boven",-9.195639537982737],["ven",-9.196029149215587],["schrijft",-9.19726528018025],["bezoek",-9.19835985053476],["prima",-9.199667312814018],["hoogte",-9.200723510645009],["opge",-9.201204801598013],["kieze",-9.203221835778901],["publiek",-9.20461684018769],["normaal",-9.204919976001811],["voeren",-9.205542578664442],["bepaalde",-9.2059693007097],["Haag",-9.20652242228882],["vlak",-9.206691830098244],["contact",-9.206899118491666],["wist",-9.207960775560641],["geweld",-9.208913924916768],["vele",-9.20925198321169],["rechtbank",-9.211145254349383],["volk",-9.211718343009705],["trein",-9.211957218568276],["zes",-9.214463809719254],["enorm",-9.21484485666414],["ministerie",-9.215751166324118],["di",-9.218483482899977],["Frankrijk",-9.219272944644077],["stoppen",-9.220283256771637],["klink",-9.221901590840611],["economisch",-9.224086934527547],["liefst",-9.224383822954632],["band",-9.227664613550454],["keuze",-9.23112189393872],["gen",-9.232449475309737],["inwoners",-9.235678747479785],["links",-9.237060761057712],["J",-9.238064424824103],["bal",-9.239944736356357],["race",-9.240432884830568],["jongeren",-9.240584843654556],["serie",-9.240917985660698],["omgeving",-9.242075742428156],["bevolking",-9.242354111344072],["productie",-9.24284098325257],["Heb",-9.243621415468056],["League",-9.243645948240683],["termijn",-9.24368796615742],["directeur",-9.243801343163003],["persoonlijk",-9.244082998542003],["spreken",-9.244625196672686],["Ajax",-9.248596679766578],["35",-9.24892823272441],["jouw",-9.249480238595574],["val",-9.250164324249543],["ktober",-9.253572171666159],["collega",-9.25358120324838],["schrijven",-9.255984083873251],["groei",-9.256792961106939],["Nederlanders",-9.25822327256212],["betref",-9.25877288239736],["zoon",-9.259705682546503],["ontwikkeling",-9.2609693084727],["rapport",-9.262668123166762],["besluit",-9.262980981778124],["koers",-9.263514760760053],["ch",-9.263895320293186],["Misschie",-9.26437345491496],["melding",-9.26493869049047],["dorp",-9.265609628870468],["Twee",-9.266649571560405],["Twitter",-9.268527963859224],["liever",-9.268552500529816],["spelers",-9.270237546729405],["sprake",-9.270859251709819],["her",-9.271343731326485],["kerk",-9.275239464345074],["politic",-9.278235325910344],["maatschappij",-9.278707792194023],["wagen",-9.280280530922429],["Tijden",-9.280817678676602],["nam",-9.280819677601635],["dochter",-9.283904149958229],["juli",-9.28395390508104],["Nog",-9.284287854113886],["producten",-9.285158520934674],["atie",-9.28613149590886],["doe",-9.2876215490522],["persoon",-9.287667617816442],["camera",-9.288473595048238],["diensten",-9.288653009033506],["gratis",-9.289124408412228],["stikstof",-9.290379586743033],["leider",-9.291388510371387],["proces",-9.292138515668244],["last",-9.29329806474382],["woon",-9.293738991342368],["bericht",-9.294619832329087],["Staten",-9.29601680124356],["lokale",-9.296537586946751],["provincie",-9.29768613713723],["economie",-9.299498100796788],["artikel",-9.299646895613538],["ou",-9.300876309161993],["twintig",-9.301773200493955],["bouwen",-9.301861818234467],["enorme",-9.30562888735658],["kijkt",-9.306564366626805],["to",-9.30794867403354],["dragen",-9.30880342536417],["zorgt",-9.309823355540287],["hield",-9.310163562977605],["X",-9.311030766300782],["succes",-9.311802983178719],["tafel",-9.312657451493376],["prob",-9.314130302801127],["cultuur",-9.315358665571189],["november",-9.315445587593555],["kennen",-9.3180581570822],["NAV",-9.320107158271501],["kop",-9.3202531363725],["PS",-9.321010346446794],["verlies",-9.321095020465577],["post",-9.321473075546056],["test",-9.3220288030233],["geschr",-9.322263428573738],["Mark",-9.324385744092032],["reed",-9.324451789738855],["trainer",-9.325376831307612],["draaien",-9.32672607493723],["namen",-9.32766919505572],["leren",-9.328288735382838],["advies",-9.328909184634178],["rs",-9.329267693734618],["plaatsen",-9.329339137395674],["ig",-9.330087676077472],["va",-9.331145019415985],["motor",-9.331341972316007],["voorlopig",-9.331401763343553],["Verder",-9.331917360535762],["zeven",-9.333504839988748],["rente",-9.336322829244885],["woorden",-9.336419321107112],["sloot",-9.33693851885193],["co",-9.337390614090125],["scherm",-9.337627325459987],["geldt",-9.339480349253009],["sturen",-9.339728896701612],["speelde",-9.34091724077926],["morgen",-9.34259913772436],["park",-9.34437520997066],["winter",-9.345302703402488],["Nee",-9.345580160783044],["voertuig",-9.347110611869613],["Trump",-9.347635499064115],["financië",-9.347842904249113],["model",-9.348480014325125],["sprak",-9.34988416103407],["jou",-9.350181825459138],["geschiedenis",-9.351645048278161],["Brussel",-9.351841233950857],["verlo",-9.353234842686831],["Chine",-9.353279415292828],["verandering",-9.353599527298659],["Kan",-9.354181947273872],["raad",-9.354709833582461],["mening",-9.355484374251471],["platform",-9.357889568871034],["geraakt",-9.357902593140548],["versie",-9.358254441744203],["middel",-9.358854231060889],["geloof",-9.359331667091059],["lastig",-9.359606891082933],["kozen",-9.360737062676318],["leiden",-9.363177470652428],["schuld",-9.363835058656687],["toernooi",-9.363956830725247],["loop",-9.367850715120216],["verwachting",-9.36807423919525],["gesteld",-9.368776024789808],["burgers",-9.371069610155555],["kaart",-9.372414402035512],["gingen",-9.372541943667047],["militaire",-9.375285780849541],["90",-9.376661509943943],["Oost",-9.377365443386834],["overigen",-9.377706924578192],["sprong",-9.377935823533052],["duur",-9.378527281636508],["volle",-9.378768186935421],["60",-9.379021480621098],["70",-9.379171470451148],["tekort",-9.379958514841853],["stap",-9.383364103835609],["sneller",-9.383564567582264],["opvang",-9.38376347773448],["Mensen",-9.385791388909258],["or",-9.386813764108041],["dak",-9.38752785019732],["gehaald",-9.389069333550093],["verdacht",-9.390353422894002],["april",-9.392508008695945],["dagelijks",-9.392612993032095],["name",-9.393268344428504],["vrienden",-9.394845374935123],["tegenover",-9.396499865627423],["leiding",-9.397372006612187],["27",-9.39760794412695],["iPhone",-9.398207874973545],["leeftijd",-9.39890145585651],["Antwerpen",-9.399058974705138],["laag",-9.40181490444623],["ervaring",-9.401823670888998],["burgemeester",-9.40385048418262],["slachtoffers",-9.403927509283045],["website",-9.403999126411584],["december",-9.404012220337624],["praten",-9.404094739510029],["noemen",-9.405113850775916],["fout",-9.405308826510637],["volgend",-9.40546155862726],["reis",-9.405655178277545],["Ga",-9.406455898596592],["sloten",-9.410397012023612],["bestaan",-9.411521287213741],["201",-9.412528097643444],["straf",-9.414275975604731],["26",-9.41594176689448],["nood",-9.416578079579017],["kwaliteit",-9.420976638340854],["kwartaal",-9.421553560220183],["feit",-9.423314681758463],["verkeer",-9.42586485512658],["stil",-9.431361697095458],["orde",-9.431569534339296],["verkoop",-9.437068974791426],["Verstappen",-9.439576257165932],["OS",-9.440377986473148],["sta",-9.443171146824284],["lichaam",-9.443615047513326],["controle",-9.443891133900447],["agent",-9.444305658517505],["sanctie",-9.445414329906903],["gevraagd",-9.446347375764354],["sluiten",-9.44683129447952],["gewon",-9.447960377890485],["getroffen",-9.448107517182947],["ugust",-9.45069082752922],["pandemie",-9.451477894200284],["NL",-9.452899267552784],["verleden",-9.4532326691046],["tuin",-9.453452536704525],["sch",-9.455389462100438],["feest",-9.455676119990178],["Tweede",-9.455717936261617],["koop",-9.457080739868104],["Pro",-9.457104156779678],["titel",-9.457419817870468],["kijk",-9.457670694109344],["veiligheid",-9.458320861979663],["28",-9.459060603419449],["waarde",-9.459735553087773],["Open",-9.459921694899364],["Re",-9.462670956730287],["overleden",-9.462853408296201],["El",-9.463517862669988],["â",-9.463707269877364],["veilig",-9.464232069503518],["onderzoeker",-9.464623763595014],["Rotterdam",-9.465842825816932],["tijdelijk",-9.466938327434072],["schap",-9.468654425699622],["vrije",-9.470813382862382],["45",-9.470838229007866],["Nou",-9.471244869920366],["ding",-9.471313476533009],["verkopen",-9.471416868066559],["ho",-9.475179672683957],["eken",-9.475208669619779],["mond",-9.475515288742997],["bestuur",-9.475780367347443],["wijzen",-9.476064540752573],["samenleving",-9.476111583883954],["kennis",-9.476814585578857],["burger",-9.47684907531361],["Co",-9.478241239531936],["ka",-9.479175517947002],["roepen",-9.479747867987111],["Max",-9.48230120814186],["beslissing",-9.482342072634216],["stijgen",-9.48275340998575],["ha",-9.484452379134787],["vliegtuig",-9.484526415204385],["eerd",-9.485379110762224],["taal",-9.485807649273802],["mo",-9.486092122473735],["actief",-9.487336762105755],["voelen",-9.487651118878206],["dieren",-9.488217747574542],["Onze",-9.488326998234552],["Utrecht",-9.488438403659034],["expert",-9.488481354314114],["gegevens",-9.488496700081646],["ce",-9.488629888213115],["midden",-9.489187471521316],["telefoon",-9.490689975576412],["industrie",-9.491339735025594],["ieso",-9.491779002902248],["dra",-9.491883775160169],["stem",-9.493217595304264],["merk",-9.493229605494937],["hof",-9.493257493839373],["vertelle",-9.493491015320942],["keren",-9.493608787218458],["milieu",-9.49425196150331],["jeugd",-9.494573982469031],["akkoord",-9.494956000799794],["samenwerking",-9.49639394836236],["ondank",-9.497090633211474],["belangrijkst",-9.4977417501699],["bewoners",-9.498175229385627],["begonnen",-9.50180079906592],["allerle",-9.501925154318807],["La",-9.503196049276127],["volgt",-9.503531075800474],["él",-9.505589961267049],["ische",-9.50736973351546],["tegenwoordig",-9.507692808371942],["coach",-9.507696409959689],["invloed",-9.508086523603083],["it",-9.508929340117053],["makkelijk",-9.508964596019482],["onge",-9.509137756278797],["wapens",-9.511639260278402],["immers",-9.511937032050348],["West",-9.512793617340664],["vriend",-9.513201162630526],["beschikbaar",-9.513554262585995],["draagt",-9.514432171827549],["duel",-9.514679708645927],["am",-9.515052648274857],["krant",-9.516904831406794],["plekke",-9.520032438944842],["virus",-9.520518623263907],["gelukkig",-9.520635162664348],["asielzoekers",-9.522683266787446],["lag",-9.523339612713777],["waard",-9.524057336552271],["brief",-9.52649966719833],["generatie",-9.52734059156581],["kunst",-9.528076268172317],["Eerder",-9.52828698317904],["omzet",-9.52933161372713],["gebeurde",-9.530163799873868],["werknemers",-9.53091424421832],["bak",-9.53145085088098],["maxima",-9.53166525741213],["uitge",-9.532663837271839],["slaan",-9.532722736652449],["trouwens",-9.532961469705132],["Naast",-9.533862336504363],["verklaring",-9.534248004895293],["patiënten",-9.53450085341608],["vroeger",-9.53450459330315],["bewust",-9.53849884600493],["bus",-9.538605125520329],["hout",-9.539168513221078],["gebouw",-9.539511649326816],["heet",-9.540403474042279],["Vorig",-9.54042630513921],["Vlaanderen",-9.540433740662394],["kritiek",-9.5404798263383],["gevon",-9.541246119336698],["hangen",-9.541304058439657],["pers",-9.541416692354431],["poging",-9.543213709366524],["verkocht",-9.54366506109942],["OM",-9.544462569163995],["Oranje",-9.547089140597475],["duurder",-9.548507605330052],["merken",-9.548689381196368],["wereldwijd",-9.548997381717252],["brandweer",-9.550537199883637],["aanval",-9.551753318737099],["duren",-9.553336671396307],["commissie",-9.553812370131684],["schoten",-9.553908062674555],["gewond",-9.554499037047611],["vierde",-9.554534021036826],["positief",-9.555188060076654],["Tour",-9.555848664482621],["+",-9.558447679880768],["kwijt",-9.558657620214646],["drugs",-9.558764085742315],["fans",-9.559430772294617],["aandeel",-9.55980852957039],["fijn",-9.560736258438286],["rode",-9.56095325675123],["tekst",-9.561206491428948],["hoogste",-9.561877064203689],["berg",-9.563872638050032],["qua",-9.56607013966346],["vraagt",-9.566074794805132],["overwinning",-9.568372745503083],["kamp",-9.569474754221744],["probeer",-9.569482304517257],["raakte",-9.57069035179106],["organisaties",-9.572429989868695],["Iedereen",-9.573092411120268],["maak",-9.576065855654722],["for",-9.577725996847164],["genoot",-9.579957815511342],["incident",-9.580638622901883],["kwestie",-9.58115145879255],["boete",-9.582411150884623],["Le",-9.584234498268696],["29",-9.584702103900842],["berichten",-9.584861948277304],["vertelde",-9.584864701657143],["pijn",-9.586545923263678],["overal",-9.586750997164504],["kent",-9.587054951922978],["stel",-9.588054079987678],["bloed",-9.589532259959174],["gewone",-9.590891849955256],["leek",-9.591034456670503],["cel",-9.591811776479837],["massa",-9.593129606515255],["pensioen",-9.594862712194463],["sow",-9.595133751117682],["pro",-9.595382396561202],["netwerk",-9.595871166263908],["gewerkt",-9.596511876743637],["omstandighe",-9.596711907167226],["angst",-9.596853019519902],["groeien",-9.59825476031709],["vermogen",-9.600385276327643],["ziekte",-9.602397926205011],["gebeurd",-9.60277375986194],["bracht",-9.603493429113975],["treden",-9.60371985692321],["les",-9.605132046486135],["eigenaar",-9.605410499454432],["TV",-9.605883941653586],["leed",-9.606835373527595],["wapen",-9.607584000214402],["gezicht",-9.607962968623077],["mede",-9.608250751997593],["wijze",-9.608255323270537],["interview",-9.608462395810381],["Ho",-9.608993848326854],["kleur",-9.609160950926908],["Frans",-9.609335685948448],["vergeten",-9.609427150049257],["simpel",-9.609583291109105],["onderwijs",-9.60977557789284],["Nederlander",-9.609930071506266],["vuur",-9.6114355609688],["Zaken",-9.611645478427267],["stijging",-9.611786126571271],["levert",-9.612917139344473],["Unie",-9.61417847541237],["gelegd",-9.614820292923469],["Biden",-9.616443771895831],["centrale",-9.61670852143692],["show",-9.61774006132875],["plein",-9.617877529875347],["bezoekers",-9.618900239409058],["Vooral",-9.620559758479068],["schree",-9.620641641556066],["betaald",-9.622951263684353],["raken",-9.623544502909086],["behoorlijk",-9.623589040194094],["Berg",-9.623866205471654],["Suriname",-9.62535690499778],["maat",-9.625903044563607],["optie",-9.627033626759545],["bewijs",-9.628370798127058],["veranderen",-9.628655168445619],["trekt",-9.629009931389135],["komst",-9.629321608097918],["national",-9.630039466906915],["vrijheid",-9.630615254428811],["spreekt",-9.633851209518514],["Daarna",-9.634655591546519],["bang",-9.63576414447651],["variant",-9.637713017771532],["Kaag",-9.638095696428982],["definitie",-9.638136614408669],["selectie",-9.638147984414246],["groen",-9.638524652211554],["eeuw",-9.638952906311026],["bestaa",-9.639762607295108],["gisteren",-9.641539080076301],["code",-9.642316322543353],["gezin",-9.645088871361365],["moeite",-9.64541655470164],["snelheid",-9.64637533906378],["liefde",-9.646770449429672],["negen",-9.648336568262327],["doden",-9.648717641731153],["populair",-9.65015025485439],["Zelfs",-9.65047578053333],["beurs",-9.65106208071594],["krege",-9.651934377771884],["meerderheid",-9.652833001129366],["algemeen",-9.65338809508848],["hopen",-9.653706352564155],["Sint",-9.65512780751225],["eisen",-9.659479707545353],["Red",-9.664244207596104],["werkelijk",-9.664794221249672],["Pas",-9.666814321934343],["steden",-9.667095240093815],["witte",-9.667217109587419],["boom",-9.66728321550657],["wacht",-9.66811538298942],["gevaar",-9.668178322346167],["ov",-9.668533654900749],["lijken",-9.668717113619397],["vo",-9.668776933903478],["ca",-9.668947745867023],["75",-9.670095666243746],["ny",-9.670236286461556],["deels",-9.671618400162528],["speler",-9.671889768805375],["record",-9.67214697615967],["dergelijk",-9.673609738732715],["bestuurder",-9.674106344332586],["jaarlijks",-9.674381292206215],["Feyenoord",-9.675377620842937],["afhankelijk",-9.676999662622588],["anti",-9.677727258480438],["Ro",-9.6778528620269],["voren",-9.680138950885205],["moord",-9.681622382555734],["lo",-9.681653960540412],["advoca",-9.682447112819755],["bureau",-9.682810668845981],["as",-9.683189813937744],["operatie",-9.683315903842415],["Zou",-9.683723140151336],["genoemd",-9.683774427400351],["up",-9.684500943880218],["fase",-9.684661626875616],["leid",-9.68532439055258],["Wil",-9.68707128076606],["Q",-9.687758347949291],["diverse",-9.68942677633352],["goud",-9.690235385782312],["uwelijks",-9.690279121423979],["terrein",-9.690346286644454],["vaccin",-9.690354332725317],["Google",-9.69070415085168],["verliezen",-9.690844281214115],["hoeven",-9.693992041983696],["gericht",-9.694331103195996],["ontstaan",-9.694719911588436],["wijst",-9.695855870976668],["gebruikers",-9.696180423519468],["verhalen",-9.697240670253027],["haalt",-9.6973918066279],["reeks",-9.698188402228801],["Air",-9.698351108725777],["podium",-9.698466573456997],["militair",-9.698635122602905],["baas",-9.699055610216172],["Wanne",-9.70053466353984],["Even",-9.700671178345921],["daarvan",-9.700951001647715],["go",-9.701974335799147],["leeg",-9.703141846090592],["rug",-9.703239765429265],["type",-9.70344809954372],["temperatuur",-9.703681075667731],["studie",-9.703684657721427],["tegelijk",-9.703736928464807],["training",-9.70466254760419],["passen",-9.704917180230876],["regelmatig",-9.705709097878321],["Me",-9.706555644455506],["ontvangen",-9.706729422738128],["helpt",-9.707802553790682],["bepaald",-9.708676665996563],["offici",-9.711278763999498],["zette",-9.711524613077874],["zwart",-9.711535599225332],["ongeluk",-9.712936740014147],["raden",-9.714174092939144],["brug",-9.714215536174098],["Lat",-9.71470193723508],["haven",-9.716352261591837],["beroep",-9.717378849206915],["omhoog",-9.717727520272199],["optreden",-9.718525167057882],["betere",-9.719193797679836],["ige",-9.72027964536771],["Te",-9.72097141787832],["blauw",-9.721893192673267],["technologie",-9.722088514231256],["dader",-9.722669806802148],["internet",-9.723600231932933],["Vandaa",-9.724212331633012],["vormen",-9.724777856342726],["Jong",-9.727358220466876],["ic",-9.727370683986123],["boeken",-9.727732051369513],["elukkig",-9.729070394466817],["voedsel",-9.729612586132994],["stelde",-9.730625086058588],["vlees",-9.730635976862978],["rijdt",-9.730671692112242],["Meer",-9.731233824822352],["pand",-9.734073612797939],["festival",-9.73420479919432],["vereniging",-9.734540083130975],["voet",-9.734691841657831],["aandelen",-9.734930784661916],["tank",-9.736572381932646],["verbruik",-9.737018941813258],["stemming",-9.737213951944852],["Qatar",-9.738145935371422],["geloven",-9.738562592888155],["Europees",-9.739274605029347],["jongen",-9.740869423712539],["Som",-9.741644529248635],["effect",-9.742437672504597],["tip",-9.742629180021545],["gelaten",-9.743016703233721],["Denk",-9.743098263209863],["kern",-9.74517190215803],["prachtig",-9.746596042403745],["standaard",-9.746605736537024],["buitenland",-9.746797500262677],["zagen",-9.748606656282679],["geleverd",-9.74946358064285],["betaal",-9.750926440010105],["ko",-9.75328494331206],["zege",-9.753676147305814],["Schiphol",-9.754469770023126],["Musk",-9.754640708403748],["Spanj",-9.754932039688804],["verdienen",-9.755675440283477],["voordeel",-9.75576422278095],["John",-9.75663810236486],["wijn",-9.757229860929769],["regeling",-9.75766106937813],["troepen",-9.759330515922008],["geheel",-9.75956957439482],["debat",-9.760410122635207],["bed",-9.760732104649735],["Afrika",-9.76096749726305],["carrière",-9.762735383204237],["scholen",-9.76283991777695],["meisje",-9.763115776951047],["gebrek",-9.76421155273082],["geplaatst",-9.765606903730689],["Bo",-9.765722729801956],["helaa",-9.765782880869152],["kampioen",-9.766312848013904],["wezen",-9.768062726626068],["steken",-9.7697508049431],["pad",-9.76979284300803],["bekijk",-9.770424795560574],["twaalf",-9.770452271535229],["museum",-9.771067875030056],["papier",-9.771075505527866],["hoopt",-9.771386227983594],["Zeker",-9.771572123354462],["klachten",-9.773409214151346],["ry",-9.774052636418283],["zwarte",-9.774069739300788],["product",-9.777078950170466],["site",-9.779239001441322],["Sport",-9.779423801601988],["resultaa",-9.779470922411317],["Ma",-9.779475218241462],["afdeling",-9.779614787378417],["college",-9.779814003826072],["New",-9.780594310973267],["jongens",-9.781451899606765],["schieten",-9.781469942943174],["rit",-9.78160849422075],["geweldig",-9.782504952680425],["Haar",-9.783676130550063],["bedoeld",-9.78409824049813],["minste",-9.784201013959521],["Kom",-9.784927167350455],["melden",-9.785551203401273],["comple",-9.786085151093397],["red",-9.786625266865824],["apps",-9.787733041835875],["hotel",-9.78773563810093],["ingezet",-9.78779383179343],["raakt",-9.7879206485424],["Polen",-9.78843043706777],["serieus",-9.78858629801494],["past",-9.788705137586605],["discussie",-9.788706034723363],["uitstoot",-9.788846732570143],["hangt",-9.788962142316446],["geluid",-9.789132911990137],["diep",-9.789190078400033],["bekende",-9.791298028286114],["update",-9.791373528819065],["gespeeld",-9.794112562551973],["bestaande",-9.795422268667885],["twijfel",-9.795802255693799],["fabriek",-9.795870488159473],["autoriteit",-9.79674922132364],["pak",-9.797690093175166],["modellen",-9.79974534226037],["handel",-9.79980735225089],["bier",-9.800259270631194],["middelen",-9.800620635785123],["stijds",-9.800826976457337],["vliegen",-9.800981041936435],["veiligheids",-9.801622457569536],["warm",-9.80261804015953],["33",-9.803511517423637],["lees",-9.804414595807039],["Sommige",-9.80511357141576],["onderwerp",-9.805120879033566],["baby",-9.805186812729406],["opdracht",-9.807469619655862],["VV",-9.807551423352866],["beweging",-9.812456587109978],["waarvan",-9.812679315794501],["geboren",-9.813452568274146],["Tesl",-9.813474865621647],["sterke",-9.81355202968373],["kantoor",-9.813581016930113],["Parijs",-9.813828742890642],["ijs",-9.814340795836692],["zone",-9.814479817068982],["hoek",-9.814672170592935],["gebouwd",-9.814885260243049],["landse",-9.815024708357702],["activiteiten",-9.815271565205697],["broer",-9.81532027262164],["trots",-9.815699307639354],["Ka",-9.815846842260644],["gehoord",-9.81759367042983],["talië",-9.818106128504844],["slapen",-9.819429915293483],["horeca",-9.820146346246393],["zak",-9.820885061433525],["groene",-9.822231916965833],["resultaten",-9.822580778246321],["grenzen",-9.822583190132976],["concert",-9.82258759843944],["super",-9.823008512140525],["Laat",-9.823008591620965],["voorzien",-9.823880335979709],["Kie",-9.826016529495769],["schoon",-9.827527568458908],["Ju",-9.828712014090156],["etc",-9.830222569228498],["verband",-9.830924257307286],["praktijk",-9.831430372565682],["invasie",-9.83143052032889],["Mercedes",-9.83143104149709],["impact",-9.831496468389698],["kapot",-9.83155435514112],["speciale",-9.831591025642393],["kleding",-9.832381216095609],["brandstof",-9.833467787173227],["aarde",-9.837010355777455],["Kijk",-9.839276807275112],["sfeer",-9.840315215617963],["PvdA",-9.840422298726224],["eventue",-9.841748232681837],["aanbod",-9.843371113959286],["genieten",-9.843863913662792],["sluit",-9.844452762559134],["32",-9.846629656307854],["kerst",-9.846770874495244],["asiel",-9.849298590093523],["minuut",-9.849368108630378],["spits",-9.849504416993696],["supermarkt",-9.849577824167286],["Grote",-9.850536097209492],["opzichte",-9.850661123307248],["deelnemers",-9.851148664243201],["Peter",-9.852242708761569],["il",-9.853977274679249],["winnaar",-9.854712839126346],["consumenten",-9.854924260550332],["ester",-9.855002547569256],["broek",-9.85502184779063],["ur",-9.855891920034136],["bos",-9.855922450123739],["toont",-9.856099746085116],["banken",-9.856361841654476],["trok",-9.856824978522344],["ck",-9.856961188979941],["plezier",-9.85731431082247],["protest",-9.857382460498592],["liter",-9.85763536107038],["schepen",-9.858434796208332],["filmpje",-9.858634991597997],["campagne",-9.85881101256311],["doorgaan",-9.859024844941978],["goedkoper",-9.85917042642046],["mogelijke",-9.859709389465312],["CDA",-9.860335022788187],["herstel",-9.860419609392874],["minima",-9.860524005728074],["2014",-9.861047465797032],["verzoek",-9.861828832893774],["budget",-9.861901599197763],["gesteg",-9.862173804581468],["verschijn",-9.86250778857294],["Willem",-9.864352020988935],["ijn",-9.864664866542872],["jarenlang",-9.864871197550448],["letter",-9.865782556642426],["duurt",-9.866599249208043],["Amerika",-9.866608354669527],["bomen",-9.867507274680865],["conflict",-9.867633137280784],["tegenstander",-9.867712677236668],["ervoor",-9.869134125677434],["wetenschapper",-9.86917796824699],["loon",-9.869716963240526],["criminele",-9.87012533005202],["total",-9.871342519290678],["veroorzaakt",-9.872497494487288],["digital",-9.875414657054115],["ul",-9.875511683732586],["wild",-9.875968230257044],["kwart",-9.876705670361286],["Bank",-9.877148757698569],["vriendin",-9.880965681535145],["gooien",-9.88160407795864],["ba",-9.882272204626497],["game",-9.882476056287892],["laas",-9.883085123136086],["Mo",-9.883238655791828],["roept",-9.884939173774473],["route",-9.885758467165491],["combinatie",-9.88624988685848],["partner",-9.887874233398982],["gereden",-9.88836835446488],["lage",-9.888832647762419],["31",-9.888850034849744],["stukje",-9.890058523948149],["geslag",-9.890329297557955],["droom",-9.890881789472171],["Mar",-9.892195799252459],["stoken",-9.892992856120987],["aller",-9.893857998419318],["400",-9.894193951070008],["eert",-9.894294089170405],["gesprekken",-9.895014500009415],["daadwerkelijk",-9.896084712693288],["toegang",-9.896252021973314],["reizen",-9.89643683470104],["westers",-9.896550162529564],["Was",-9.896994286333182],["Putin",-9.897028804359742],["eeft",-9.897423179569339],["bereid",-9.89780070563274],["og",-9.898327356198873],["live",-9.900643339582103],["Rond",-9.900885341570632],["Paul",-9.901454747535027],["ondernemers",-9.902130369874945],["hi",-9.902257037386939],["gestuurd",-9.902478071737022],["EC",-9.90319189224779],["elf",-9.90417663037372],["Leiden",-9.905659306955851],["aangekondigd",-9.905953764844412],["tientallen",-9.90664981461023],["Oekraïner",-9.906727947315076],["Doe",-9.907174479377382],["draait",-9.90845558464452],["loze",-9.909451154350723],["openbaar",-9.909910255791399],["koffie",-9.911679364701051],["vervangen",-9.911745835102082],["aanvallen",-9.911818995900234],["levens",-9.912822016192125],["vergunning",-9.913237991822974],["Mosk",-9.913549933982491],["vergelijking",-9.91385000872864],["beurt",-9.915784738001896],["vertrekken",-9.917765424598503],["pelijk",-9.91779143866167],["danks",-9.918216402776007],["gezondheid",-9.918898710869822],["hond",-9.919804291504844],["rustig",-9.919901748980024],["waarden",-9.919975658402402],["blessure",-9.9205406992747],["Alles",-9.922058805968852],["reageren",-9.924520092201885],["Wereld",-9.924579557119163],["?”",-9.924911309914185],["editie",-9.924915298610655],["geb",-9.926537767207053],["haalde",-9.927821848961587],["US",-9.928723721316558],["overleg",-9.929014949111487],["stuur",-9.929249147883304],["werkte",-9.93030591442175],["eerlijk",-9.930490946292295],["300",-9.9309937723237],["Kort",-9.931669834911627],["opvallend",-9.933417613911216],["afscheid",-9.933915241252615],["spoor",-9.93410536476236],["historisch",-9.934306381298317],["Instagram",-9.93433478448523],["City",-9.934360756637322],["behandeling",-9.934821583296554],["miljoenen",-9.935005646693028],["verbeter",-9.93501321810017],["erd",-9.935245244753897],["ernstig",-9.935736530109518],["Moet",-9.935771803033841],["competitie",-9.935921225003376],["ziek",-9.9363182150799],["Ha",-9.93762479887832],["lui",-9.938021250106523],["westen",-9.939832613592895],["geluk",-9.940059363193797],["versch",-9.940077329615061],["dertig",-9.941311792051632],["oor",-9.941393006240418],["indruk",-9.942174941945815],["199",-9.943159596217136],["conclusie",-9.944224997518688],["dossier",-9.944228667506135],["Spaans",-9.94471258274495],["nieuwd",-9.944895429071988],["mail",-9.945123486371008],["greep",-9.945267467659475],["feiten",-9.945282484204043],["Dank",-9.947225086945325],["EK",-9.94781442617088],["beperkt",-9.948662847227915],["Ten",-9.951662953549974],["hoef",-9.951893397046295],["drinken",-9.95263261118749],["techniek",-9.95421884915061],["instantie",-9.954225308639126],["BMW",-9.954309311539664],["Go",-9.954771945852809],["rijk",-9.955466415733124],["bord",-9.955820791992508],["Italiaanse",-9.956320793451228],["rekenen",-9.957460307237938],["ongeval",-9.958348476613681],["schip",-9.959349383573878],["handig",-9.960054093238956],["acties",-9.963853775885436],["besmetting",-9.964090867661874],["Formule",-9.964326007323105],["eiland",-9.964413687560091],["aangifte",-9.964503423507413],["testen",-9.964658040691575],["ertijd",-9.964927415831648],["Spel",-9.965085914240518],["aflevering",-9.96528075349411],["Overige",-9.966019552987428],["Buiten",-9.966066935664145],["Eindhoven",-9.966157885233766],["speel",-9.966337153695239],["spulle",-9.966419977043538],["voorstel",-9.966508990426233],["koning",-9.968213168750793],["kansen",-9.970221041869374],["klopt",-9.971237764707519],["extreem",-9.971773318631254],["democratie",-9.973680374265616],["televisie",-9.974513148268255],["perfect",-9.974529506833182],["Facebook",-9.974538683780914],["dikke",-9.974607204631251],["gerekend",-9.975047293035129],["Gent",-9.975149166216312],["Samen",-9.975242436739244],["Naar",-9.97701405172786],["bescherming",-9.977073599028188],["Zelf",-9.977946550814918],["uitkering",-9.978043243179563],["vuurwerk",-9.979377858221401],["boer",-9.980938516084738],["36",-9.982654095314318],["klap",-9.984389344272113],["prestatie",-9.984842284571963],["37",-9.984916060557527],["vechten",-9.985129106897897],["luchthaven",-9.985290806074184],["vaste",-9.985876944779216],["Sch",-9.986989084993178],["huishouden",-9.98792113940608],["wens",-9.989094487869387],["voorstellen",-9.989877833426139],["bar",-9.99021269708376],["clusief",-9.990499302378822],["geschikt",-9.991638051094853],["vijftien",-9.993460761499858],["hou",-9.993740039619404],["inzet",-9.99484163305867],["leuke",-9.99513475442243],["huur",-9.995264293667404],["bodem",-9.995460579866112],["excuse",-9.995498236955157],["Watch",-9.996220729696244],["slechte",-9.998315276564355],["ouder",-9.99835462518643],["leidde",-9.999625452436305],["bron",-10.000648298287528],["Had",-10.003453645882946],["landelijk",-10.003515031933986],["herinner",-10.00414548221948],["station",-10.004485709084916],["sprint",-10.004663463824066],["interessant",-10.00489479441027],["dalen",-10.005098034092365],["Johan",-10.00577767426638],["Groot",-10.005923651140698],["verplicht",-10.005988847940497],["Beide",-10.0060062575279],["Man",-10.007309457703464],["ring",-10.008077059099191],["out",-10.009173372489487],["lukt",-10.009267803086784],["Euro",-10.009825114131901],["beslag",-10.009924345769132],["wisten",-10.011213531721296],["noemde",-10.012522060743034],["klant",-10.012573397824916],["Li",-10.012640628915195],["Mol",-10.012863236987194],["vertrek",-10.013141025250714],["staats",-10.013325837941345],["gekocht",-10.0133270552713],["pk",-10.015512615644743],["bereikt",-10.015811651320286],["Minister",-10.016106699583803],["Raad",-10.016425316281936],["Ra",-10.01646772779107],["bereiken",-10.016481409151766],["gelegenheid",-10.016966272976251],["nek",-10.017188909380888],["bedoeling",-10.0173565246714],["index",-10.01757219228152],["behoefte",-10.018380189135133],["55",-10.018602530874894],["fractie",-10.01884485603168],["stelling",-10.01891942811253],["beleggers",-10.019168544808807],["golf",-10.019776925596114],["gebrok",-10.020479076982738],["inkomsten",-10.020579142560475],["praat",-10.02112928603982],["38",-10.021364329613025],["afval",-10.022241251130101],["linkse",-10.024343534357733],["boot",-10.024577507199577],["koppel",-10.02619465939198],["daling",-10.02629933258666],["buitenlands",-10.026554941621292],["bondscoach",-10.027247804576396],["steeg",-10.027306832902761],["stadion",-10.027339853771739],["Tom",-10.027576958657486],["beschermen",-10.028036000081574],["soldat",-10.02854248915093],["Bart",-10.029631622090136],["Binnen",-10.029633498942133],["stop",-10.03188487030094],["cent",-10.03231955632489],["loog",-10.032815162526713],["investering",-10.032948717384652],["breken",-10.034408369079985],["logisch",-10.034714743822821],["jong",-10.035342949244441],["errari",-10.035880823472972],["rood",-10.036814005017462],["zieken",-10.036872842793787],["amper",-10.036941519852714],["leeft",-10.036987154961587],["Groen",-10.0381012847079],["Rijks",-10.038120830653309],["focus",-10.038125632472905],["uitdaging",-10.038149536663024],["vel",-10.038256348894475],["zichtbaar",-10.03851157844382],["apart",-10.039578128438825],["mir",-10.04102672822479],["gemakkelijk",-10.04224078319773],["AD",-10.042401416281947],["zekerheid",-10.042924126845392],["fietsen",-10.043225074739496],["stof",-10.043741021908396],["second",-10.0447923408747],["veroordeeld",-10.045683266615825],["jammer",-10.048702441836845],["scenario",-10.049031978837677],["maatschappelijk",-10.049036565023881],["dwong",-10.049063647871428],["vertegenwoordig",-10.049470863157367],["strand",-10.049881230179526],["Da",-10.050209072070338],["opleiding",-10.050810200842664],["zorgde",-10.05162836523147],["positieve",-10.052763069129675],["snap",-10.054845538920304],["zetel",-10.054968773877787],["welkom",-10.05519163644717],["99",-10.056806885270378],["vakbond",-10.058896747863347],["universiteit",-10.059131435753487],["Bull",-10.05917590837662],["gedacht",-10.059381989927555],["aanslag",-10.05986583833997],["Defensie",-10.060143837663546],["vrachtwagen",-10.060170785152263],["Oekraine",-10.06046068556519],["stijl",-10.060650731095722],["schot",-10.061379419721145],["minsten",-10.06286101982558],["pakket",-10.062868410748939],["hal",-10.06511302276865],["centra",-10.065250920200368],["elijk",-10.06570295110246],["eerdere",-10.066288214560842],["gevangenis",-10.06650176903313],["coalitie",-10.06705590096977],["erger",-10.067811400359087],["winkels",-10.068034750120269],["spanning",-10.068088088016903],["Joe",-10.070662461869519],["$",-10.071378977766276],["Koninkrijk",-10.071378977945166],["NPO",-10.071431966358718],["verdw",-10.071510052167142],["boel",-10.072163170985728],["Commissie",-10.072338687708655],["pot",-10.072968698842649],["groepen",-10.073051068211718],["achtergrond",-10.07312535848467],["afloop",-10.074063771246356],["bedrijfs",-10.074841869728978],["arm",-10.074988401416462],["po",-10.075006439898223],["vervoer",-10.076429752787092],["ak",-10.07644473353284],["banden",-10.077844963306429],["oproep",-10.078831926602085],["St",-10.078888641313435],["Nieuw",-10.079943805947707],["ham",-10.079991346979963],["Elke",-10.081478629484568],["wit",-10.081556159107855],["fabrikant",-10.082059249162784],["privé",-10.08256694331762],["Club",-10.082742618118074],["lockdown",-10.082744104524412],["vijftig",-10.082862419780602],["Dijk",-10.082903503765976],["uniek",-10.083111762295388],["software",-10.083860423591231],["legde",-10.083993075997029],["fonds",-10.084370015814171],["uitgevoerd",-10.086356477476421],["volgde",-10.087210395434948],["Echt",-10.087458027468731],["150",-10.088121937361645],["aanpak",-10.088580591588283],["34",-10.089033954967311],["za",-10.089065571222811],["proef",-10.08936604690382],["dijk",-10.08982120205376],["ineens",-10.090032020893105],["honden",-10.09011294889831],["boos",-10.091860386615588],["Anders",-10.092047399009473],["ag",-10.092720944897254],["voelde",-10.09332887091219],["tevreden",-10.093485795164717],["God",-10.09379817835704],["negatieve",-10.094236884663715],["woke",-10.09424914215149],["Natuurlijk",-10.09429957357061],["principe",-10.09486335414984],["Afge",-10.094952978054092],["Holland",-10.095069401823356],["vlag",-10.095586825182687],["bijdrage",-10.096587759520666],["voorkeur",-10.09767949673208],["elders",-10.097741110171725],["leerlingen",-10.098373699182048],["Londen",-10.098756441761601],["alternatie",-10.099175004657464],["medische",-10.09935974017104],["café",-10.099370402239206],["wethouder",-10.10009106294449],["verkeers",-10.10156046881479],["alcohol",-10.101956152118328],["schaal",-10.101968065595205],["uk",-10.103189998659602],["richten",-10.103857517602929],["gedragen",-10.104665101591426],["verspreid",-10.105009628125835],["VA",-10.105363616437483],["capaciteit",-10.105864774192568],["beperking",-10.105865209306199],["verzet",-10.106730184421227],["bevestig",-10.10784858632655],["onduidelijk",-10.111560293094502],["verloo",-10.111907570864783],["zuiden",-10.112867070544048],["stukken",-10.112976805987726],["verre",-10.113335069036113],["Rob",-10.113990441912211],["redelijk",-10.114505787063521],["LM",-10.114749467408707],["geleid",-10.115048288621168],["vrees",-10.115095282710403],["bond",-10.11562714870461],["crypto",-10.115741821977826],["mate",-10.115960961222644],["Mag",-10.116179979343256],["zulk",-10.116184164365485],["opgepakt",-10.116380899790304],["aangepast",-10.116673642763267],["gewicht",-10.117531789156157],["gebaseerd",-10.117691930721406],["zolang",-10.11790977936331],["maker",-10.118198272995256],["Manch",-10.118591764730395],["Heel",-10.120232396106164],["leraar",-10.120749369153248],["voldoen",-10.120947564691757],["vergelijk",-10.121620765214978],["leiders",-10.123155178229496],["woont",-10.12410576585045],["du",-10.124701370584019],["tellen",-10.125051878129142],["gat",-10.126067286219937],["gemeenschap",-10.126146916001987],["Jo",-10.127898726362918],["Westen",-10.128257047734774],["burg",-10.128270964397895],["seks",-10.129278637477057],["defensie",-10.129352022543975],["Jumbo",-10.129556555056237],["play",-10.129679642174686],["slagen",-10.129845051958291],["Ministerie",-10.129936757747668],["vermoedelijk",-10.129939455449698],["ingen",-10.130472153220394],["Antwerpse",-10.131285827202177],["thema",-10.131340259148669],["kanker",-10.132249963504465],["gepakt",-10.132673334328533],["vrijwilligers",-10.133168468604316],["iteit",-10.133197608485592],["ling",-10.133353236682183],["geland",-10.133891612275036],["oosten",-10.135035156297205],["verdwijnen",-10.13515258488302],["respect",-10.135980107372138],["subsidie",-10.136158842391149],["and",-10.136165582422748],["bezit",-10.136970550606414],["probeerd",-10.139179862883537],["bedoel",-10.141095977279118],["trap",-10.141229219397513],["account",-10.141579284706111],["coureur",-10.141582479451108],["materiaal",-10.141582491827664],["automatisch",-10.141610845744594],["Baudet",-10.141662856086873],["kilo",-10.141731794660256],["begrip",-10.141843378912032],["kust",-10.141992383094886],["Mac",-10.142465715686264],["onderzocht",-10.142685056027183],["zakken",-10.144173548083879],["vaccinatie",-10.14443290694194],["ot",-10.14443752412311],["Du",-10.145100480085066],["telt",-10.145327716222129],["harde",-10.146258985922557],["gepland",-10.146834797310031],["NS",-10.147122059540589],["plaatsvind",-10.150329889356962],["system",-10.150903724005094],["beschikk",-10.151552843642566],["riep",-10.151739036219027],["sloeg",-10.152048168709122],["gemeld",-10.152340147922978],["Y",-10.152607290510986],["Arnhem",-10.153161456412063],["boodschap",-10.153517667802365],["stichting",-10.153777597591587],["York",-10.153778220995182],["keuken",-10.15377829138907],["armoede",-10.153782391895112],["€™",-10.153782951917478],["verhogen",-10.153815701985884],["financieel",-10.153816461632985],["luxe",-10.153850061784905],["vloer",-10.153869317636486],["kleuren",-10.154222695634498],["Live",-10.154282066341835],["hersen",-10.154489352281693],["mini",-10.154900044681144],["gevoerd",-10.156286675600377],["oudere",-10.156534915862187],["verkeerde",-10.157080422704642],["wend",-10.157165843355614],["Hoog",-10.15741692844163],["ervaren",-10.157866818921784],["lachen",-10.15873839711767],["culture",-10.158774806470728],["rand",-10.159202892031974],["teams",-10.159955466225714],["neus",-10.16151275453458],["Drie",-10.16228091063053],["plaatse",-10.163025954568022],["gezondheids",-10.163203750936049],["gezond",-10.16463239968335],["laden",-10.164826474299122],["Bos",-10.165137948690841],["front",-10.166133899145779],["écht",-10.166156419810134],["Hamil",-10.166157514490045],["Gelderland",-10.166292056773596],["Sa",-10.166405464888568],["status",-10.166431738325166],["piek",-10.166631570489571],["diesel",-10.16743146938428],["openbare",-10.167691343536074],["65",-10.167798187973993],["reizigers",-10.167995045099303],["Ander",-10.168611216238533],["vis",-10.168958874007286],["snelweg",-10.16937801582004],["landbouw",-10.171464369260448],["starten",-10.173310134053198],["manager",-10.173468615290123],["zul",-10.174920253433287],["rie",-10.175840972994479],["ontdekt",-10.177072371279596],["gedeeld",-10.177165526836912],["meldde",-10.177493190129066],["Frank",-10.178678681346781],["link",-10.179275405554442],["publieke",-10.180936071798923],["nië",-10.183085623920537],["daalde",-10.183622566826156],["lijden",-10.184432998143466],["complex",-10.1850389255256],["Huis",-10.185076161362787],["snelle",-10.185138997744453],["gemeenteraad",-10.185723801718122],["Fi",-10.186332857280902],["NA",-10.186553021188793],["rechten",-10.187402283532807],["ci",-10.187951382171907],["duurzame",-10.189948295058588],["2000",-10.190050096436474],["georganiseerd",-10.190088243355751],["pakt",-10.190596812161884],["argument",-10.190976852829673],["strategie",-10.191281509294107],["kandidaat",-10.191281509721275],["Tegen",-10.191521510343748],["oorzaak",-10.1915243737111],["coronacrisis",-10.192030648029561],["BS",-10.192637768215544],["stijg",-10.192840191884036],["Turki",-10.193256915653134],["blijf",-10.193570168545794],["stads",-10.193670577313494],["gaten",-10.194065599059801],["ambitie",-10.194327996197883],["rem",-10.19482962653199],["absolu",-10.194845061561061],["bepalen",-10.195114649362436],["Limburg",-10.196078510477307],["car",-10.196147498515609],["66",-10.197296869150817],["air",-10.197534362197992],["brood",-10.197823360503076],["vrede",-10.198418289290903],["bronnen",-10.198766299382013],["onmogelijk",-10.199356974593798],["pleit",-10.199362106598025],["eenvoudig",-10.199432663635708],["gevangen",-10.199696261596522],["richt",-10.199703669615074],["Zie",-10.200131518132986],["bel",-10.200303806435384],["benzine",-10.200721582628745],["buren",-10.20142214583572],["term",-10.201759708964094],["uiter",-10.202684361578147],["blad",-10.202848571141695],["decennia",-10.203353088790749],["aanleiding",-10.203516786247429],["journalist",-10.203713197653101],["communicatie",-10.20380320944253],["zonnepanelen",-10.204115531086078],["eentje",-10.204399297026757],["gezellig",-10.204517795663925],["Brugge",-10.204844985297155],["ro",-10.20525299742328],["zogenaamd",-10.205589491108995],["officie",-10.205645025009161],["achterstand",-10.205983309952185],["herinnering",-10.206104611894688],["noord",-10.206209758594962],["wa",-10.207694685400973],["supporters",-10.208129256156298],["wiel",-10.208407154277161],["IS",-10.209650940609453],["dichter",-10.209975592249172],["werking",-10.210548259740792],["volks",-10.210821780310422],["off",-10.211355164611488],["overlast",-10.211627620696916],["betaalt",-10.21186380589959],["acteur",-10.212303632229194],["belangen",-10.212589671568313],["geroep",-10.212797001842905],["raak",-10.213107340627847],["verbinding",-10.213224137599767],["koningin",-10.213558849001366],["droeg",-10.213744753753758],["knop",-10.213810617161247],["boord",-10.214316494225738],["zaal",-10.2143426652638],["teken",-10.214699173462508],["eindigde",-10.214828351600833],["Eerst",-10.214884307109301],["waarna",-10.214938426382652],["mi",-10.21573301208828],["slaap",-10.216326693410842],["procedure",-10.21703017354427],["speciaal",-10.217089009622718],["Zelensky",-10.217089020316177],["veertig",-10.217099132513145],["United",-10.21710298778719],["aanzienlijk",-10.217261540233235],["aak",-10.217315840084153],["luid",-10.217316678772832],["gast",-10.21792410227528],["ontstond",-10.218038658229002],["stoffen",-10.218308321123224],["sterren",-10.21895683572503],["reclame",-10.219286567094798],["Via",-10.219642213275135],["bedacht",-10.22075112009317],["ies",-10.221235117609812],["verzekering",-10.22138560660462],["ley",-10.223248634714329],["Zorg",-10.223593542365688],["Car",-10.223615091103254],["misbruik",-10.225325318839918],["films",-10.22542121679152],["twijfeld",-10.227059615138444],["paard",-10.227602781289988],["velen",-10.228194526389595],["Hug",-10.228502764805846],["wakker",-10.229254291406521],["gevaarlijk",-10.229709365208276],["verkeerd",-10.229712620103845],["Champions",-10.230247022898524],["Premi",-10.230260388437152],["Michael",-10.230268355638609],["schoot",-10.230277432543867],["ontzettend",-10.230291457795564],["Johnson",-10.230402422448773],["coronavirus",-10.230756754663538],["redden",-10.2309080707411],["geboden",-10.230920345497921],["glas",-10.231021375577505],["factor",-10.231307498718094],["match",-10.231386889975967],["uitgebreid",-10.231592674486965],["storm",-10.232292665441202],["elft",-10.233710355537978],["veranderd",-10.233830741002286],["Weet",-10.234478764692017],["probeerde",-10.235923231808327],["Hun",-10.23652893614413],["roep",-10.236660322072598],["gestart",-10.237039216424089],["wereldkampioen",-10.23894146969915],["ontwikkelen",-10.238952679420985],["39",-10.238955535624665],["fan",-10.239012820834205],["detail",-10.239158364479163],["achtste",-10.239237050822993],["parlement",-10.239344285377125],["Japan",-10.239534117904848],["onderhandeling",-10.240523874774127],["ernstige",-10.241700859933065],["600",-10.242403977469339],["Amerikan",-10.242462445384717],["schakel",-10.242712668110252],["talent",-10.24289030942888],["planten",-10.243285789285856],["*",-10.243580217227787],["plastic",-10.243606941378737],["iPad",-10.243710533645409],["ff",-10.244200319649053],["ontwerp",-10.244689391650866],["stress",-10.244736425432285],["CB",-10.244815119196867],["kiest",-10.24491404857649],["straten",-10.245163216286027],["clubs",-10.24597294852318],["benadrukt",-10.247216024446313],["analyse",-10.247752691303436],["AZ",-10.249568618513047],["Jonge",-10.249855993207422],["trek",-10.252327134949482],["lossen",-10.252371886250621],["reageer",-10.252842108102918],["oorlogs",-10.253113326428966],["Si",-10.25313953621012],["werkgever",-10.253868081297245],["ski",-10.254946799199306],["rijke",-10.255492851112695],["normale",-10.255909421806404],["Fin",-10.256519384555997],["geboorte",-10.256927998060144],["chauffeur",-10.256995567767113],["Zweden",-10.257097326793065],["jury",-10.257123675942275],["Vroeger",-10.257146353058822],["goal",-10.258250425549972],["betaling",-10.258881744317112],["vermoord",-10.260548017742542],["verdient",-10.2608920148081],["aardig",-10.26089466673604],["Kinder",-10.260939861922797],["Belg",-10.261967018890147],["nazi",-10.262337435793523],["Centra",-10.262515200493315],["42",-10.26303981659784],["Nieuwe",-10.26380076613215],["arts",-10.264145625739575],["vic",-10.264573314383773],["vangen",-10.26476149022145],["traject",-10.264982822149644],["II",-10.264995873242778],["reken",-10.265265001265647],["adem",-10.267446148130283],["recente",-10.267471333251084],["federal",-10.267683668704759],["heren",-10.267766766353848],["slaat",-10.268987843035042],["categorie",-10.269001967197713],["Iet",-10.26929983267797],["F1",-10.26942273669582],["Welke",-10.26952755100787],["collectie",-10.269826321029745],["juridisch",-10.270792360885455],["creër",-10.27079514861407],["treffer",-10.270799246207574],["realiteit",-10.270813180728233],["beneden",-10.270894588356525],["uitzending",-10.271051686520682],["initiatief",-10.27105856681635],["Tegelijk",-10.271161770108755],["moslim",-10.271234361335953],["Henk",-10.27131509635819],["justitie",-10.271608592636174],["ly",-10.271834050306046],["voetballer",-10.272090068722253],["Ne",-10.27243154155172],["opgelost",-10.272699005758254],["sporen",-10.273205296623498],["verbonden",-10.273910450793217],["wint",-10.27552567055122],["Charles",-10.276062885716335],["drama",-10.27636884733132],["verzamel",-10.27683887189678],["maatregel",-10.277091646306346],["Vervolg",-10.277646963179254],["lief",-10.278796118896778],["Eind",-10.279590136768245],["las",-10.279765106264666],["beker",-10.28002359801426],["Ali",-10.280352461401556],["Goed",-10.280520083985783],["leg",-10.280605369339831],["theater",-10.28107619152586],["Do",-10.281137980675318],["machine",-10.282001871597291],["weiger",-10.282582014910481],["onafhankelijk",-10.28281358030527],["agina",-10.284300174682784],["geregeld",-10.28434784033037],["gelegen",-10.284487307079676],["Vitesse",-10.28468127591566],["Aert",-10.284698366842226],["Team",-10.284826155993823],["Robert",-10.284863840288587],["onderzoeken",-10.28506013601546],["sleutel",-10.285775119698721],["overschrijdend",-10.285840889791704],["chef",-10.286344608244951],["kader",-10.287103013381348],["beslist",-10.288492670267887],["port",-10.288783203374694],["Andr",-10.29071865690862],["leverde",-10.290749065074918],["lkens",-10.290756888134874],["produceren",-10.291200590836183],["rakette",-10.291241361800635],["stra",-10.291685354528848],["Mi",-10.292109248216704],["San",-10.292437242614954],["bellen",-10.293774556024857],["sociaal",-10.294839775567434],["gaven",-10.295124725392709],["huwelijk",-10.297020014473656],["keihard",-10.298766275486933],["Thomas",-10.298768688071672],["opmerking",-10.298800579555863],["ambulance",-10.298803705683088],["uitzondering",-10.298829772716399],["emotione",-10.299121829347959],["Apel",-10.299445521010377],["vlieg",-10.300219479184015],["zanger",-10.30206359009249],["makkelijker",-10.302689208692945],["vreemd",-10.303344086030094],["EV",-10.303472741248822],["ramp",-10.30362968666121],["kijker",-10.304224961725701],["kaarten",-10.304749937631644],["chip",-10.305133315251837],["slim",-10.305226735953934],["doelman",-10.306009649847956],["46",-10.307013912832556],["inzicht",-10.307062675237528],["GS",-10.30717937325717],["fors",-10.307550480643648],["avonds",-10.309176412563978],["?’",-10.309859524411959],["Gewo",-10.31072113077759],["smartphone",-10.313051471104398],["gezamenlijk",-10.313051517457849],["Universiteit",-10.31305575080074],["GroenLinks",-10.313062177009375],["voorzichtig",-10.313078317716593],["aanvaller",-10.313188031739207],["durf",-10.313468969144942],["Nijmegen",-10.313537641471232],["ondersteuning",-10.313545767673588],["welk",-10.313795228160311],["technisch",-10.314013087565916],["zoekt",-10.315118508604108],["verdediger",-10.315309573589143],["verwijder",-10.315417015118388],["apparaten",-10.316046842427973],["zocht",-10.3164843790075],["li",-10.317525216921192],["voer",-10.317945082998332],["Hans",-10.317950179587694],["AM",-10.318091874892936],["raads",-10.31852257416178],["Zonder",-10.319032760359978],["Rome",-10.319231521526312],["iek",-10.319655319884276],["lening",-10.320138468925336],["opvolger",-10.320567216031176],["hoorde",-10.321214366122163],["ruil",-10.322891371559981],["SP",-10.323829758968522],["bad",-10.3239314373069],["gele",-10.323961471176549],["verminder",-10.32477100534846],["dronken",-10.325108103991994],["export",-10.325812221343398],["drijven",-10.325850589626082],["daarop",-10.326100226156814],["kleiner",-10.326553932194237],["mars",-10.326773395564878],["à",-10.327544224718332],["feestje",-10.327600929554976],["radio",-10.32803907086619],["draag",-10.328253842406603],["behouden",-10.32837617441878],["stoel",-10.328549078712388],["verander",-10.328851100742387],["boodschappen",-10.329527842917184],["Gaa",-10.32977102012168],["recent",-10.330866829328688],["Ca",-10.331682446831177],["blik",-10.332514926702281],["plus",-10.332728881254617],["stal",-10.332814490098936],["bevind",-10.333389674261912],["helder",-10.334137774470559],["stak",-10.33435921547883],["tallen",-10.334593786531364],["sneeuw",-10.33504212277218],["overname",-10.335689720272795],["waarheid",-10.33588576916324],["breed",-10.336752219159786],["schijn",-10.337562706966043],["ontslag",-10.337958748277536],["interesse",-10.338838797427936],["verdrag",-10.339205734050449],["Australië",-10.339920186748923],["klasse",-10.340433679245097],["schuldig",-10.340785080256175],["250",-10.340867100396766],["keten",-10.341206392648461],["technische",-10.341261685535933],["gevuld",-10.341303499866637],["43",-10.341640548535251],["pop",-10.341670682655767],["transport",-10.342154344146387],["etappe",-10.342189636806042],["temperatu",-10.342191199553117],["Porsche",-10.34225031533724],["vertraging",-10.342250438682752],["Sovjet",-10.34228537098666],["vullen",-10.342302488936483],["overtuigd",-10.342785728046861],["pakte",-10.342800475921825],["NV",-10.343733022845118],["specialist",-10.344039227978325],["exact",-10.34439415099582],["muur",-10.344697221038066],["drukken",-10.34517658899904],["dreig",-10.345220477444634],["toestand",-10.345732992718911],["44",-10.34603120658943],["Di",-10.346216176109966],["bi",-10.346617409590209],["instellingen",-10.347059583151378],["ok",-10.34767474113644],["netto",-10.34808607379432],["gedachte",-10.348470904069817],["Dam",-10.348639981113335],["aat",-10.348723665257133],["geest",-10.350340000804385],["line",-10.350522461507293],["fietser",-10.351162753688076],["opties",-10.352037564655731],["Grand",-10.353502871686832],["gok",-10.354690547046411],["fraude",-10.355000830459906],["inkomen",-10.356767900651743],["Netflix",-10.357175480282432],["fantastisch",-10.357175535483305],["olympisch",-10.35722373938242],["Alexander",-10.357270577084684],["kraan",-10.357428145670514],["Energie",-10.359246918183095],["Gaal",-10.359523711425144],["vermoed",-10.359563910369854],["grondstoffen",-10.359833646359863],["onzin",-10.360616343458474],["staten",-10.362538855686044],["RS",-10.362841509152405],["korting",-10.363779726682761],["harder",-10.363794595184347],["stopt",-10.36442905719322],["verdeeld",-10.365070706423094],["onderhoud",-10.36510905122518],["gestopt",-10.36553328302352],["knie",-10.365991058330163],["95",-10.366085134810774],["Lu",-10.366157887948384],["allen",-10.367314001896965],["198",-10.367953103111567],["zitting",-10.367960044167884],["ney",-10.368074961827208],["dubbele",-10.369161027030298],["bo",-10.370196754044326],["comment",-10.371061281967476],["organiseren",-10.37232786412829],["accu",-10.372329903571584],["Iran",-10.37233684533794],["Mocht",-10.372414191756791],["box",-10.37253206088327],["Morgen",-10.372609656627393],["France",-10.37298586991562],["Word",-10.372994912533645],["meisjes",-10.373193032405524],["gasten",-10.37325444105733],["plaat",-10.373401645732862],["verbetering",-10.374565586140763],["makers",-10.374959827660419],["beloof",-10.375061683913547],["dubbel",-10.375181470940834],["verbied",-10.376016737384873],["National",-10.377346138980268],["rook",-10.37821320901087],["GP",-10.378492774405498],["ware",-10.378737483738362],["Let",-10.380069694182467],["ri",-10.380497167767393],["fa",-10.381303193570306],["Martin",-10.382200653902279],["stevig",-10.382349943656598],["bevestigd",-10.382432741655075],["houding",-10.383136321063223],["journalisten",-10.385518380959184],["schatting",-10.386601302150627],["koopkracht",-10.387978021708246],["urven",-10.387986744855336],["overeenkomst",-10.388201627177065],["trui",-10.388229814784912],["haat",-10.388577001600709],["ontmoeting",-10.388756324935954],["controleren",-10.388919768020141],["overheids",-10.389388635215795],["levering",-10.389999028142865],["Kerk",-10.390012593439572],["tie",-10.390036698202476],["veertien",-10.390136894202376],["seksueel",-10.391078913642115],["So",-10.391554670554877],["BB",-10.392126844730097],["melk",-10.392364115364899],["haal",-10.392671757623688],["plicht",-10.393205650969762],["overlijden",-10.394010633136332],["onderdelen",-10.394251515154288],["file",-10.394952082150887],["vet",-10.395730165872298],["VN",-10.395812725598597],["ermee",-10.39630131484965],["Wout",-10.397528746195071],["Engels",-10.398323207672806],["aanpassen",-10.398651459058707],["Hoge",-10.398947220151875],["gan",-10.399330995961034],["bedreiging",-10.399503189508923],["luisteren",-10.400365008145194],["goedkoop",-10.400550445011199],["Land",-10.400876029405868],["Men",-10.40214253031908],["pa",-10.402215047063113],["privacy",-10.403336610839801],["William",-10.403346564593786],["theorie",-10.403416849855972],["bedenk",-10.403697716651969],["vergadering",-10.403708681370647],["leer",-10.403847245221497],["missie",-10.404144830642519],["Mogelijk",-10.404422264042836],["voorbereiding",-10.404621353941488],["toestel",-10.40474441290647],["plots",-10.405149971195495],["matige",-10.406620910601664],["nul",-10.4066622117171],["blaze",-10.406776598313066],["rijbewij",-10.406974012003369],["werkgevers",-10.407125702753294],["Enkele",-10.407664516314266],["minst",-10.407681209190667],["kondigde",-10.407895338885375],["48",-10.408440995225657],["geopend",-10.408815724352639],["openings",-10.40907811290632],["verrassend",-10.410484240434721],["inval",-10.411284336995237],["ontwikkeld",-10.411627719183043],["geving",-10.413913924237182],["onbekende",-10.414198859312506],["design",-10.414764481970337],["57",-10.41539307661975],["Engelse",-10.416684126005308],["advocaten",-10.417314627008093],["goederen",-10.417314632710852],["Canad",-10.417400509102604],["invester",-10.41757934059956],["restaurant",-10.417617510977596],["agenda",-10.418893652109627],["verstandig",-10.41911486758811],["album",-10.419204397711527],["»",-10.419209626614748],["commerci",-10.41920962780235],["abortus",-10.419323600466239],["streep",-10.419327716145693],["langzaam",-10.419385090676066],["bewolkt",-10.419408095033951],["concurrentie",-10.419469849860548],["schappen",-10.4197481258619],["Olympisch",-10.419860503204635],["kandidaten",-10.41997116814955],["schiet",-10.420154302431797],["visie",-10.420222376472474],["braak",-10.420291189451008],["Amsterdamse",-10.420540386448323],["ach",-10.420888868184397],["vergoeding",-10.421086630814257],["Ar",-10.42292506132189],["ontmoet",-10.423840913038626],["eek",-10.423938104336452],["Rode",-10.424300403669395],["spannend",-10.424840098652616],["schoenen",-10.425169102038655],["lagen",-10.425684273885963],["handels",-10.42633938389681],["ment",-10.426542386388453],["laatst",-10.427691874940782],["Ba",-10.427946190974222],["raket",-10.429161974936713],["Qua",-10.429286050955831],["bestuurders",-10.42953691585509],["verblijf",-10.43071626133905],["warme",-10.430955021362195],["Har",-10.430970416221914],["scherp",-10.431172891622145],["zwakke",-10.431292879228055],["inch",-10.431647307128792],["pan",-10.431713714084758],["bod",-10.432359979465183],["beland",-10.432885187331184],["CD",-10.433079929714527],["onderneming",-10.433426336185114],["gevecht",-10.433619672568758],["Cup",-10.433922942496558],["huid",-10.434008625870096],["verhoging",-10.434994493368048],["houd",-10.435075901351544],["slimme",-10.435202208023174],["gevolgd",-10.43522447370647],["interieur",-10.435338704159886],["advertentie",-10.4353395859737],["wetenschappelijk",-10.435418814605804],["49",-10.435559775087231],["bizar",-10.435566325006262],["Poel",-10.435917674413627],["Michel",-10.436060583626698],["Angel",-10.43608967806404],["Wit",-10.436151601672314],["tische",-10.437002699210694],["betekenen",-10.437253959031548],["igenlijk",-10.437284880358963],["Mon",-10.437416875205479],["ol",-10.43771371065899],["Louis",-10.4385014618904],["missen",-10.439206315809258],["mist",-10.439297753031525],["Post",-10.43932068573454],["officier",-10.439321766650469],["kast",-10.439758871813375],["mobiele",-10.44002635091054],["schat",-10.440162828318353],["fouten",-10.44062019465323],["brak",-10.440952312531195],["Lees",-10.443770414529872],["weder",-10.44405085130538],["bloemen",-10.44420737231993],["Noor",-10.445630369018058],["put",-10.445903239830553],["vaart",-10.446535280346065],["kocht",-10.44696727430379],["Antwerp",-10.447134604377123],["oppositie",-10.447796570160536],["graven",-10.448533872946236],["blok",-10.448611142349929],["uitsprak",-10.44896545142689],["son",-10.449660920008936],["podcast",-10.450466754364841],["tachtig",-10.45068902044172],["agressie",-10.450950138623512],["toekomstig",-10.45115486941034],["homo",-10.45145877953986],["cliënt",-10.45173323445928],["ontwikkelaar",-10.451765523289682],["Begin",-10.451836094029012],["plafond",-10.451841804483262],["Vladi",-10.451883677666252],["traditionele",-10.451989847203826],["Vrijdag",-10.452283667646597],["verhouding",-10.452683226261746],["realis",-10.453077058547319],["zestien",-10.453197654847873],["extreme",-10.453329091183384],["arcelo",-10.453627925391352],["tegenstelling",-10.453667628262945],["zus",-10.453726911023288],["prik",-10.454233222471839],["oefening",-10.454846029492977],["fysiek",-10.45499120223497],["ellende",-10.456674387239008],["topman",-10.456844997061074],["Vier",-10.457335351969519],["International",-10.459064005719286],["ion",-10.459430886728063],["lor",-10.459751813861867],["onzeker",-10.460921830128058],["Andere",-10.46304665576114],["merkt",-10.463547627795192],["52",-10.463729148675345],["beheer",-10.463787555619902],["evenement",-10.464276959575992],["abonnement",-10.464808909310658],["opslag",-10.464988036891285],["jacht",-10.466094315329526],["rollen",-10.466808054605977],["premie",-10.467257616746522],["Brabant",-10.467674222419197],["schilder",-10.467961598064925],["wer",-10.468185810722591],["adviseur",-10.468398769039645],["negatief",-10.468398793607712],["apparaat",-10.468402706438798],["Leclerc",-10.468407667417186],["rendement",-10.468420132190804],["vinger",-10.468504713282242],["springen",-10.468530971968207],["presentator",-10.46853942796114],["bijeenkomst",-10.468563137738396],["kwartfinale",-10.468659513423916],["Maak",-10.469083121788776],["197",-10.46928557841025],["klagen",-10.469714509765783],["buur",-10.46980228712028],["Herman",-10.470387402987381],["dient",-10.470516014407618],["kanaal",-10.470536621416397],["nederla",-10.470569629366587],["David",-10.471091569232637],["aankoop",-10.471694112411704],["Bar",-10.47268116554758],["stevige",-10.473162701695781],["Audi",-10.473375825373012],["lot",-10.474029630614481],["Turks",-10.475067218793107],["96",-10.475298799579956],["uitvoeren",-10.477034528202315],["lijke",-10.477551914528672],["Wal",-10.478407535803633],["vi",-10.478414187807232],["adres",-10.478698532259957],["41",-10.47892136688207],["banen",-10.479247153428084],["terugkeer",-10.479442504842858],["long",-10.479866506066573],["wijken",-10.480595711286703],["dam",-10.480900834240238],["matig",-10.480923407937656],["aanbied",-10.481945396617677],["miljarden",-10.481949283376647],["bergen",-10.482009147997825],["kies",-10.482110043009975],["lichte",-10.482751218797047],["Duitser",-10.482796073388066],["Ri",-10.484669137709439],["kabel",-10.484787634824905],["reageerde",-10.484909589390627],["besparen",-10.485002760906166],["automobilist",-10.485363294478425],["Wilders",-10.48551748123436],["salaris",-10.486085503466256],["vrouwelijk",-10.486681593529458],["geleerd",-10.48706011290554],["Hebben",-10.487251599183791],["klok",-10.487252200538784],["verantwoord",-10.488078210650633],["ambtenaren",-10.488312017317238],["zonne",-10.488744577309351],["hu",-10.48900157567433],["roze",-10.48921577819737],["degelijk",-10.491432648720032],["laan",-10.492817477085982],["raam",-10.493148543822617],["dames",-10.494780179840062],["Wi",-10.495253618371066],["1000",-10.495818301668287],["verdedigen",-10.495858378124469],["toeslagen",-10.496445969701169],["explosie",-10.499363788764398],["India",-10.499702568553841],["omroep",-10.499915104486789],["profit",-10.49992082656685],["Gi",-10.500195902470896],["motie",-10.50053496147851],["institu",-10.500609756841971],["batterij",-10.500737540349741],["najaar",-10.500984490603933],["erbij",-10.501094429712502],["lat",-10.501159405636901],["Mechel",-10.502193989964415],["stelsel",-10.502356460033134],["Maas",-10.502501332899683],["belangrijker",-10.50252164921627],["ium",-10.502542652096322],["succesvol",-10.502575438883973],["anoniem",-10.50258938033334],["haupt",-10.502591655608375],["regime",-10.502594363107626],["aantrekkelijk",-10.502607325135088],["Ronald",-10.502610134645744],["Harry",-10.50265990200398],["toren",-10.502663082034779],["pauze",-10.502694857244794],["toegevoegd",-10.502716012374163],["AS",-10.502883745391184],["tech",-10.503041700463811],["vocht",-10.503085900011934],["Jette",-10.503220903203157],["con",-10.503398174311904],["zestig",-10.503907781991701],["achttien",-10.504060503062558],["noodzakelijk",-10.50407393818103],["leert",-10.504693650369699],["borst",-10.505222030284425],["MI",-10.50533165173859],["ministers",-10.50539351751517],["Achter",-10.505520051587581],["gevoelig",-10.505768700956299],["Weer",-10.505908063842103],["Anne",-10.505976711686037],["aardgas",-10.506270760589825],["haast",-10.506271466629311],["800",-10.506588780690656],["staatssecretaris",-10.507843705091972],["Mooi",-10.507872894857325],["geel",-10.50850494574405],["zins",-10.50892691134027],["rpool",-10.509959616467318],["IT",-10.510091940163793],["toon",-10.512307734634739],["ontvang",-10.512460925618264],["bu",-10.512523252727407],["nummers",-10.513230146542796],["behandeld",-10.513317930242492],["kleinere",-10.513416512606717],["gezinne",-10.513730328075008],["opgelegd",-10.513742301178926],["eieren",-10.513932739369977],["Bol",-10.514831431719637],["Israël",-10.515469183485838],["drong",-10.51624112944598],["getuigen",-10.516310655817325],["nauw",-10.519477809357715],["Krim",-10.519946433246252],["verjaardag",-10.520111617684657],["kwetsbaar",-10.520133288820274],["transitie",-10.520140537515363],["kennelijk",-10.520141278058915],["garantie",-10.520186821261296],["traditie",-10.52021234496689],["beperken",-10.52032618623355],["trend",-10.52118384672585],["Justitie",-10.521416742369604],["Rijk",-10.521662528083715],["geheim",-10.52206008341468],["internationa",-10.523368706326874],["com",-10.523661328824309],["Pools",-10.52439339034748],["IC",-10.525260547671524],["lul",-10.525700398483366],["moois",-10.527092551416006],["Marokk",-10.527965456437094],["Ni",-10.529861210170438],["toenemen",-10.530006299587873],["bon",-10.530419722924309],["munt",-10.530700448311833],["taak",-10.531217683651416],["bereik",-10.531800723770367],["moderne",-10.531920677208497],["Kun",-10.532738570016276],["stromen",-10.53391214985285],["pre",-10.53454388255926],["vergele",-10.534867491582855],["documenten",-10.535073758879832],["aankomen",-10.535687930086734],["schouder",-10.53571630417807],["liefhebber",-10.537362644665201],["beur",-10.53745757130429],["85",-10.53750700613049],["besteed",-10.537681569499934],["prioriteit",-10.537990326424477],["World",-10.537990672700776],["concern",-10.53799716096328],["kloppen",-10.538008183001303],["persconferentie",-10.538028594153701],["drone",-10.538032748308563],["propaganda",-10.538135900327735],["Macron",-10.538150846489856],["Shell",-10.538356865037196],["hybride",-10.538415901242976],["ouderen",-10.539288947660548],["Vrij",-10.539742780876596],["oordeel",-10.53994242326613],["Lo",-10.540114060386825],["tas",-10.54073889433148],["circuit",-10.540863613828648],["volwassen",-10.540868941709164],["zingen",-10.54198087846013],["Boris",-10.542588553595046],["Ach",-10.543841738185943],["uitstekend",-10.544668774629837],["mans",-10.544872755630434],["vermoeden",-10.544923725321526],["rot",-10.544949063315649],["vervolg",-10.545107338484186],["kring",-10.54525749407468],["ram",-10.54650120239701],["werkzaamhe",-10.547115558964748],["gerecht",-10.547400880793194],["uitkomst",-10.547439753514944],["schrik",-10.547502497583356],["aal",-10.547578750454875],["sluiting",-10.547682261387969],["Uiter",-10.548192013813303],["alternatieve",-10.54838774709523],["ekt",-10.54856217257193],["Hongar",-10.548739744365967],["kap",-10.550113896092686],["bek",-10.550326921788898],["voeg",-10.550757578077492],["grap",-10.551347091847767],["Ko",-10.551536772315558],["vogels",-10.552178015521571],["Oh",-10.552402448038979],["fysieke",-10.552566654772347],["scoorde",-10.554463233619543],["onderzoeks",-10.554812839025226],["serieuze",-10.554994919610376],["kwaad",-10.55575680788982],["demonstratie",-10.556172125790969],["nucleair",-10.55617266134029],["verlaging",-10.556176181198262],["oranje",-10.55617703595814],["job",-10.556180056046337],["effectief",-10.556188475957192],["paniek",-10.556216738803169],["personeelstekort",-10.556228766621478],["vóór",-10.556233848810436],["Jammer",-10.556250023545738],["actrice",-10.556250267096308],["balans",-10.556272061166563],["Albert",-10.556278696744563],["fruit",-10.556282093599528],["luchtvaart",-10.556317014064637],["persbureau",-10.556364196685088],["kwalificatie",-10.556404901688435],["zangeres",-10.556513136077715],["verwonding",-10.556527532767564],["medaille",-10.556713198889517],["toenmalig",-10.55704338030808],["computer",-10.557306150767765],["ondernemer",-10.557311985376124],["time",-10.557370320976714],["stier",-10.557518314493848],["biliteit",-10.557597885704844],["overzicht",-10.557762257792984],["doelpunt",-10.559003224613322],["toevallig",-10.559046366045873],["branden",-10.560577566594885],["zand",-10.561915312469353],["lek",-10.5621016696693],["73",-10.562348928784827],["elijke",-10.562404013679474],["god",-10.56263925542584],["Politie",-10.56267558897029],["dreigen",-10.562864491956043],["Brit",-10.564653961985272],["Tim",-10.565584213230421],["grep",-10.567263681766665],["VD",-10.567642315405415],["kut",-10.567894473247225],["Geef",-10.56814526559237],["plat",-10.56816316032075],["waarschuw",-10.568396329014913],["mar",-10.568999665894356],["drank",-10.56940024744256],["unnen",-10.569926811335371],["opening",-10.571232139346913],["dividend",-10.571596267374588],["Or",-10.572699007983328],["gestemd",-10.572828538352498],["Lind",-10.572842096833556],["zilver",-10.573698949832508],["sterker",-10.57437957679129],["prins",-10.574551937987291],["Groninger",-10.574690698990288],["Eredivisie",-10.574696899158647],["branche",-10.574698666745071],["Radio",-10.574709458698292],["afkomstig",-10.574895428061637],["Bosch",-10.575014404097837],["Tussen",-10.575064517930723],["verwarming",-10.575350197372334],["algemene",-10.575601472355997],["Gold",-10.575607306810786],["behoud",-10.5756879796219],["elektriciteit",-10.57617478144066],["verteld",-10.576809540890162],["bestemming",-10.577419885610393],["alarm",-10.577423989452464],["gestelde",-10.577805005970303],["grappig",-10.5780693062498],["lecht",-10.57817882952872],["getekend",-10.578689769290385],["oren",-10.578953799770416],["stok",-10.579753836742869],["malen",-10.579810262945628],["bestand",-10.580553078451056],["voert",-10.58073079856549],["dienen",-10.58148893951323],["Col",-10.58238745930965],["klappen",-10.58241488438744],["bio",-10.582579245515253],["specifiek",-10.582927268907309],["bezorgd",-10.583310214054876],["Rus",-10.585326840360917],["puur",-10.586568910535814],["Ol",-10.586586060144516],["gouden",-10.587216204218395],["Bu",-10.587667117010035],["veilige",-10.588413680604177],["trouw",-10.588659118749419],["ique",-10.58886032898473],["bespro",-10.588932904142045],["58",-10.589633530403473],["voorwaarde",-10.58972236771818],["hitte",-10.589737796268295],["aanhouden",-10.589907313076097],["verwijderd",-10.590453426464915],["54",-10.590823998515203],["claim",-10.590840205676669],["Mel",-10.59104507918827],["dode",-10.591089214399137],["geslaagd",-10.591624801540465],["parke",-10.592044483601462],["gebouwen",-10.592965243302087],["correct",-10.593006642289364],["Donald",-10.593552029707556],["Portugal",-10.59355856465815],["slavernij",-10.593558564977178],["Covid",-10.593559015767001],["perspectie",-10.593559245747755],["Maandag",-10.593611054248568],["vul",-10.593612338790528],["Lijk",-10.59362971303803],["management",-10.593650528541122],["ruzie",-10.593669311126206],["oorspronkelijk",-10.593692418525483],["infrastructuur",-10.593878448862096],["veroorzake",-10.594330368056287],["paspoort",-10.594353316062591],["grid",-10.594653976568214],["gigantisch",-10.59466293346767],["ballen",-10.594730157439168],["eigenaren",-10.594934920817746],["gegooid",-10.595207409614638],["beveiliging",-10.595460720236087],["verloop",-10.596141683947954],["kende",-10.596653175429392],["oplopen",-10.596836771903606],["Hag",-10.596970058613895],["gesto",-10.597366842877966],["seksuele",-10.597485052175056],["genot",-10.597553592169305],["ID",-10.597802596256406],["Ron",-10.598003561458446],["nep",-10.59949872952844],["varen",-10.599537191389198],["scheiden",-10.599899136175456],["GT",-10.60025851939912],["Mario",-10.601348125570425],["vervelend",-10.60170727388242],["Steven",-10.601865067244669],["scoren",-10.602245772960888],["kampen",-10.602442715927324],["wensen",-10.602875001595445],["gevaarlijke",-10.603600504117226],["specifieke",-10.60430409518475],["keuzes",-10.60435132943254],["getoond",-10.604746128850522],["Su",-10.60478493921589],["igheid",-10.605861923237956],["tuig",-10.606035913293335],["rouw",-10.606278923518532],["gedaald",-10.606508342386388],["pomp",-10.606838237927912],["raar",-10.607135707481646],["aanloop",-10.607295278047829],["jarig",-10.6075257765841],["voorstelling",-10.607811774161775],["verklaarde",-10.608479652602528],["overwegen",-10.608692577793581],["kampioenschap",-10.609507974431876],["score",-10.610004950712868],["democratisch",-10.610032892623146],["doelen",-10.610386124247409],["mensenrechten",-10.611337077119552],["tekenen",-10.61202163825666],["wijziging",-10.612762976431352],["verrassing",-10.612789350823672],["Kremlin",-10.612789355538041],["recessie",-10.612790066391792],["ify",-10.612820887573209],["individuele",-10.612832029275268],["Patric",-10.612836021747427],["schilderij",-10.612936843134197],["verluid",-10.61296162039041],["hè",-10.612974799846668],["Fortu",-10.613079342813146],["gearresteerd",-10.6131088766374],["directe",-10.61324705823467],["vijfde",-10.61331707688204],["RIV",-10.613327886070767],["koud",-10.614333292618218],["zwaarder",-10.614467994651097],["arbeids",-10.614687417154421],["Staat",-10.614965246931744],["anse",-10.615431702938828],["steek",-10.615495004937507],["droog",-10.61584168642155],["percentage",-10.616293910557761],["Jeroen",-10.616445126812266],["wonder",-10.616968069231175],["gebeurtenis",-10.617181841007408],["Po",-10.617658279984374],["wees",-10.619752533223707],["seconde",-10.62038260217331],["Tja",-10.62042481633317],["gehol",-10.620666432317954],["Bre",-10.620780823695497],["schaats",-10.623541735638806],["gerust",-10.623601900848822],["lokaa",-10.62378245027795],["ban",-10.62391904223863],["gelukt",-10.624659737396723],["Belgen",-10.625061771055151],["dure",-10.625577646999583],["knal",-10.625631630997795],["72",-10.62605769401824],["getest",-10.62633810653535],["droge",-10.62706477316115],["oplossen",-10.628128417840115],["Af",-10.628187045609645],["stapt",-10.628468409370566],["overleven",-10.628831297893832],["aanwijzing",-10.629792321791335],["spannen",-10.629900859653356],["Los",-10.63001910105805],["brede",-10.631223310038063],["tref",-10.631867584328884],["figur",-10.63217193962486],["˜",-10.632397176113532],["Financië",-10.632397177005867],["kwetsbare",-10.632397194298935],["inspectie",-10.632397684573538],["medicijn",-10.632405816983683],["über",-10.632416256255977],["zwembad",-10.63241801169998],["diefstal",-10.632443810633713],["Waarschijnlijk",-10.63247333717763],["check",-10.63257628338858],["Breda",-10.632592731616548],["typisch",-10.632635779164701],["arbeidsmarkt",-10.63264247398993],["rechtstreeks",-10.632761238299626],["toezicht",-10.632852459087896],["opgezet",-10.632923757180002],["Jij",-10.633062467296334],["woonde",-10.633118589132785],["War",-10.633407011379374],["ET",-10.633958145406348],["hoogst",-10.634033896410745],["netjes",-10.634265632864306],["duo",-10.635234899645027],["vrijdagavond",-10.635316642360081],["waarschuwing",-10.635330274626627],["Ruim",-10.635515785373771],["dertien",-10.636067311978913],["Witte",-10.636432297980097],["toeristen",-10.63649258066724],["complete",-10.63693997989376],["53",-10.637092091699495],["ingediend",-10.637815666343094],["betaalde",-10.637981657828496],["Japans",-10.638472791641062],["afspraak",-10.638499001354141],["Jam",-10.638907195232926],["reageerd",-10.639128976798553],["voeten",-10.63959961808263],["afspra",-10.640190185379206],["NO",-10.640340471813285],["voetballen",-10.640757085756572],["Kuiper",-10.640767262941651],["bom",-10.640896843378249],["bestuurs",-10.641444054375214],["stuurde",-10.64147435525193],["uitslag",-10.64208204916871],["Markt",-10.642785247445426],["Djoko",-10.644557802268611],["bonus",-10.645192684783893],["Jans",-10.645224573721691],["terras",-10.645562002862771],["handelen",-10.645713944998587],["afgerond",-10.646123559277084],["linker",-10.64685690869038],["hypotheek",-10.647122794585966],["ING",-10.647170613108917],["FA",-10.647439040457858],["eur",-10.64801012341771],["wi",-10.648335472187632],["FI",-10.648569716401289],["drukte",-10.649011260825263],["winning",-10.649406342483005],["by",-10.649805022944449],["jongst",-10.650127099137817],["deelt",-10.650144592515433],["BN",-10.650358932198513],["koos",-10.651323038786668],["domme",-10.651351472173397],["gecontroleerd",-10.651843351878707],["Prins",-10.652269075390524],["favoriete",-10.652321755697605],["portemonnee",-10.652397176118754],["beïnvloed",-10.6523971761291],["Elizabeth",-10.65239717768562],["tunnel",-10.652397215840603],["Barneveld",-10.652397266504693],["toepassing",-10.65239735153736],["gevestigd",-10.652397465698218],["lidmaatschap",-10.65240096670523],["racisme",-10.652410355874803],["nemark",-10.652444788702974],["opbrengst",-10.652446944325135],["wolf",-10.652452268118097],["kerncentrale",-10.652564650917213],["Corona",-10.652630454544544],["Leuk",-10.652668497099533],["vervuil",-10.653252446562808],["spiegel",-10.653263236938018],["verlichting",-10.653281551644763],["schietpartij",-10.653319227616095],["herstellen",-10.653705972937281],["klonk",-10.653839085867368],["moeilijke",-10.653898591729426],["istan",-10.654326645182538],["schrijver",-10.654497240123234],["vastgesteld",-10.65478046286928],["Zwitser",-10.655116962856646],["doelstelling",-10.655894043428438],["draai",-10.657256806431361],["plant",-10.657271989351958],["51",-10.65761277350676],["hé",-10.657859191422862],["finish",-10.657934700993051],["onderweg",-10.657989057457915],["oost",-10.65833601142558],["han",-10.658358323740599],["Water",-10.659057763073488],["steunen",-10.659370262999014],["gedrukt",-10.660303255256956],["werkzaam",-10.661942839136636],["lukken",-10.664059233017214],["lieden",-10.664175146038753],["overstap",-10.664321361756906],["uiterst",-10.665441668754777],["gras",-10.665492725135442],["64",-10.665599928946257],["groeit",-10.666543867408851],["ipv",-10.666716853399711],["Vl",-10.666930874119831],["Erik",-10.667471759131361],["AI",-10.66781736132345],["47",-10.668919339580551],["experiment",-10.66981123154828],["Boe",-10.671116737124787],["onafhankelijke",-10.671260816677094],["trainen",-10.671573983072157],["lijf",-10.671648117182922],["aren",-10.671654867004698],["grijpen",-10.671670834880604],["Bouw",-10.672000430793926],["concurrent",-10.672470116480975],["kwartier",-10.672569492631863],["wisselen",-10.672662576854844],["regulier",-10.672805339827347],["Surinaams",-10.672805340804368],["profiel",-10.672806344819104],["signaal",-10.672816882326709],["Sticht",-10.672817193473419],["Madri",-10.672823336125917],["tempo",-10.672824797748781],["Vries",-10.672836526363792],["vrezen",-10.672848241637084],["Lekker",-10.67285451124647],["compensatie",-10.672871911668555],["doelpunten",-10.672963230653545],["noodzaak",-10.673526311594703],["ontdekk",-10.673536207390747],["Sterk",-10.673784590217355],["schuive",-10.673892131367735],["wijs",-10.674139864740232],["res",-10.674577953272458],["sten",-10.674624406539309],["graan",-10.67467839620871],["drome",-10.675373447320245],["kruis",-10.675599737280027],["allebe",-10.675610472956638],["Sp",-10.67569426079768],["verplichting",-10.67579426928434],["67",-10.675897443112333],["hoogtepunt",-10.676039735729095],["genodigd",-10.676237321241747],["BO",-10.676302518667706],["verstand",-10.676421274510355],["tarief",-10.676851643098543],["Sy",-10.676961113434846],["way",-10.677041175689165],["nest",-10.67706672759109],["!’",-10.677120527551853],["Grieken",-10.677143459576273],["lege",-10.678210856401897],["all",-10.678341937654807],["Real",-10.678412856521817],["wetgeving",-10.679337226026725],["Marc",-10.679492009167571],["uitgaven",-10.67976909193065],["lichting",-10.680137883637675],["Wim",-10.680929030025435],["effecten",-10.681337232703305],["zeventien",-10.681494911903762],["partners",-10.681942411881646],["ontslagen",-10.682100207652441],["eking",-10.68248922845724],["Kim",-10.68285630159864],["que",-10.682888906988751],["lon",-10.684470833647588],["lessen",-10.684856381347727],["Fed",-10.685761019583364],["import",-10.685791094958876],["69",-10.685843937399099],["kstra",-10.686085942419371],["tor",-10.686571988389126],["63",-10.686892950737118],["dringen",-10.688864652898229],["Lew",-10.689370214913609],["degene",-10.68982929928766],["ruime",-10.690242233458044],["verklaar",-10.691337980805965],["Luc",-10.692363297969086],["Vijf",-10.692727210975395],["spijt",-10.693171118480663],["toegankelijk",-10.693638971635686],["Zaterdag",-10.693639814489238],["Partij",-10.693640019955073],["TikTok",-10.693640371565321],["Amazon",-10.693642285461703],["toilet",-10.69366923904885],["beroemd",-10.693673492393767],["generaal",-10.69367576272646],["ontving",-10.693726696800928],["Smith",-10.693924651295406],["Vraag",-10.69393943724637],["Play",-10.694062623559772],["ussen",-10.694171124251248],["topic",-10.69424356135909],["GL",-10.694244502783418],["bruin",-10.6942462187774],["Kees",-10.69430176826136],["dreiging",-10.694320102536906],["uitbreiding",-10.694424684121389],["staking",-10.695450793132345],["Ford",-10.695477799881582],["lieten",-10.696602328985433],["buik",-10.696962288983674],["uitvoering",-10.698264721689172],["trof",-10.698424613975385],["migratie",-10.698447869396599],["normen",-10.698639288023815],["bol",-10.698762031288034],["gewezen",-10.699369969917733],["schulden",-10.69958770370555],["uitgesteld",-10.700527138022782],["gedreven",-10.700659443417111],["bevat",-10.701135755498996],["oudste",-10.701492261216977],["Neem",-10.701803736695872],["donker",-10.702101838818738],["Ons",-10.703085519200648],["AN",-10.703361988925089],["vieren",-10.703863689752732],["beschermd",-10.703984700596376],["iet",-10.704032740809868],["reserve",-10.704253124758699],["tennis",-10.704583244882553],["meneer",-10.705447490763238],["standpunt",-10.706130134355643],["suiker",-10.70682614168568],["celstraf",-10.707056863199162],["Werk",-10.707450186299589],["EX",-10.707629465643901],["gezonde",-10.708131716111993],["Brazili",-10.70823639487121],["CE",-10.708248520000758],["ation",-10.709160397100606],["schijnt",-10.709691796814754],["mat",-10.710637643004134],["heer",-10.711585420970469],["inhoud",-10.712037457647488],["taken",-10.712367967902955],["vriendelijk",-10.712738915532466],["breek",-10.712916822115643],["emotie",-10.71319482178526],["verklar",-10.713720727823684],["stuurt",-10.713921482889363],["waterstof",-10.714127191357711],["lidsta",-10.7144873473651],["humor",-10.71467768646384],["Burgemeester",-10.714915567412076],["Precie",-10.714915859092514],["Leidse",-10.71491614456169],["herfst",-10.714916922747543],["tentoonstelling",-10.714920657665424],["gezelschap",-10.71492127244694],["innovatie",-10.71492952682411],["Leuven",-10.714946395067273],["ranglijst",-10.714977961235075],["laptop",-10.715020806605999],["Midden",-10.715112070367102],["RTL",-10.715163339215504],["gar",-10.715199638309134],["botsing",-10.715205963413885],["Media",-10.71525789579293],["social",-10.715285978206586],["onbekend",-10.715345522214772],["elite",-10.715452097363201],["katten",-10.71623615694818],["bezocht",-10.71632021068777],["held",-10.716723365116597],["duik",-10.717432020523344],["che",-10.717438050979798],["transfer",-10.717492573107478],["Normaal",-10.717679345477245],["passagiers",-10.71778939792268],["heus",-10.718323894850942],["Boer",-10.718395461270918],["nabij",-10.718960276472487],["graad",-10.719437230458027],["q",-10.719465343176303],["actieve",-10.719647512350335],["gezocht",-10.720229319061595],["%.",-10.720744512670054],["verklaard",-10.720883270127164],["Goud",-10.720897516852274],["verenigingen",-10.720909284665058],["Afrikaans",-10.720970303467396],["Stra",-10.721166483652937],["Gra",-10.721189851260744],["Stel",-10.721499187939052],["afwachten",-10.722305710158976],["zakt",-10.722382403748474],["provincies",-10.722411149345824],["Per",-10.722412527778458],["Inter",-10.723467754498605],["dy",-10.723522719663883],["herkenn",-10.724901170642877],["lacht",-10.725376349237315],["kritisch",-10.726294354116375],["Hof",-10.7264663310869],["vooraf",-10.727248554034338],["bedreigd",-10.72770069303742],["bussen",-10.728375761628365],["noteerde",-10.729573686412156],["groeide",-10.729938127666038],["Dag",-10.730383627567843],["Pri",-10.730500058579695],["Oud",-10.73102954650772],["ü",-10.731375722350977],["zoge",-10.731472958069212],["wissel",-10.731955211159473],["Bas",-10.7323613032817],["treffen",-10.732503900873665],["Sta",-10.732568507233292],["warmte",-10.73382100003767],["toenam",-10.734391037716255],["trad",-10.734804968298079],["peil",-10.735654030799758],["gevaccineerd",-10.735803592299058],["ans",-10.736023841381826],["jongere",-10.73649543726907],["spoed",-10.736523725693653],["studio",-10.736654409319701],["Gronings",-10.736654460499894],["onmiddellijk",-10.736655821749176],["aanpassing",-10.736656356545268],["docent",-10.736675585777997],["wekelijks",-10.73668023523431],["cursus",-10.736681169359176],["Berlijn",-10.736683640193883],["Mart",-10.73668928712183],["beslissen",-10.736733239959381],["Maria",-10.736734491239439],["Momente",-10.736749997008973],["discriminatie",-10.736925510022669],["Zeg",-10.736973548284432],["wetenschap",-10.737153965139676],["Jezus",-10.737454414637062],["mentale",-10.737635261220209],["ophef",-10.737997173490447],["duw",-10.73826151737235],["ontbre",-10.738553880748297],["idiote",-10.739152594737101],["genoemde",-10.739327039504243],["middenvelder",-10.739917328636356],["methode",-10.740101145431774],["zogenoemd",-10.740624427526367],["Koning",-10.740772329731348],["okken",-10.740808077971412],["menselijke",-10.740923128473364],["scheel",-10.74139674925558],["migranten",-10.741416984829534],["chao",-10.741611534880393],["omvang",-10.74169708961637],["kar",-10.741734765818713],["digita",-10.742216390167247],["bewegen",-10.743005415862498],["uitgang",-10.74312089539685],["pest",-10.743732589467033],["ideale",-10.74375667374492],["maximal",-10.74424201523592],["meester",-10.745099154083885],["consument",-10.745212060013031],["wandelen",-10.745589411897454],["Spot",-10.745889483351842],["Scha",-10.746200266456494],["Pieter",-10.746363746531518],["toevoegen",-10.74674255464264],["voorzieningen",-10.746813938599487],["stapel",-10.74732652426685],["76",-10.747338305294164],["bevatte",-10.747701035733328],["Tu",-10.748305073352077],["terugge",-10.748810802229242],["eindig",-10.74898529622737],["gegroeid",-10.749061021613105],["verhoogd",-10.749497752798726],["Ta",-10.749813395267994],["To",-10.750039343597116],["cher",-10.750458799590053],["gedachten",-10.750748424787902],["verleng",-10.751262360526674],["graf",-10.751633607882066],["enthousiast",-10.752821016043917],["stort",-10.75312843118857],["ior",-10.753507638162644],["more",-10.754048934593888],["tegel",-10.754437083560315],["achteruit",-10.754473791867131],["afsluiten",-10.755139809797525],["honger",-10.755651837952074],["forse",-10.755830387818193],["toonde",-10.75653504054264],["kou",-10.756574786896984],["woede",-10.757454535127987],["blanke",-10.7576539303958],["Green",-10.757934353199301],["Gemeente",-10.758041045025017],["sma",-10.75849164243711],["Dinsdag",-10.758881359969681],["Donderdag",-10.75889844549932],["zoektocht",-10.758948180300075],["overige",-10.75918114563939],["gram",-10.759368647145525],["omlaag",-10.759370054393685],["gedeeltelijk",-10.759388796719165],["assistent",-10.759606119619267],["ix",-10.760138421944406],["verlagen",-10.760273338116303],["Meta",-10.760552997001408],["stemt",-10.760849788237955],["liberale",-10.761031093920513],["Her",-10.762483026359526],["ung",-10.76249972547933],["moeilijker",-10.762539509284466],["rapper",-10.763161614797944],["leveranciers",-10.763918466486889],["achteraf",-10.764764542708793],["Bert",-10.765225413686842],["straffen",-10.765331767376551],["behulp",-10.76547513127304],["ö",-10.76852902653739],["conservatieve",-10.769334100301805],["gelden",-10.769755893451972],["schermen",-10.769998605545734],["paal",-10.7702994436589],["voorganger",-10.771243329251682],["isch",-10.771822245181644],["koude",-10.772309723938138],["kindje",-10.772916813220085],["Bal",-10.7734441280955],["GB",-10.773760483782366],["toeslag",-10.773770578001457],["staf",-10.774018269665557],["Pa",-10.775271051209842],["potentie",-10.775422302989814],["bleke",-10.775518125425315],["achtige",-10.776526096700419],["run",-10.77733576931066],["cadeau",-10.777708499774462],["AC",-10.778510130767282],["lied",-10.778598710022884],["Wh",-10.778985599068244],["Geert",-10.779462599754474],["kers",-10.779930572697864],["zelfstandig",-10.780045714981028],["gemak",-10.780821048252655],["figuur",-10.781344698166855],["Black",-10.781604065247016],["Twente",-10.781609095686443],["content",-10.781614796108606],["thans",-10.781710930411741],["Onderwijs",-10.781773752069952],["Kleine",-10.781874142321053],["mishandeling",-10.78199876355876],["Mathi",-10.782075244044936],["wettelijk",-10.782205704383452],["Kamerlid",-10.782375349263003],["gedeelte",-10.782482725813335],["vingers",-10.782778766480988],["vestiging",-10.783042719151029],["Marokkaans",-10.783177122913429],["Uni",-10.783293398140204],["oo",-10.783356207140576],["uiterlijk",-10.783538021983679],["jagen",-10.783546946600385],["smaak",-10.783718871002957],["toegangs",-10.784403019057777],["artiesten",-10.784792517928715],["schrap",-10.784851473106814],["huren",-10.784852874742276],["ME",-10.785181365551315],["deug",-10.785313066162187],["ku",-10.785579762541659],["aanvraag",-10.78584711526203],["rez",-10.785995659125414],["ervaringen",-10.786241993201678],["trappen",-10.786540889430716],["Oostenrijk",-10.787092013106095],["Will",-10.788256723555278],["breuk",-10.788335294436141],["berekening",-10.78871043788343],["aansluiting",-10.788815385479982],["deelnemen",-10.788968982458458],["knap",-10.791467134425687],["inspanning",-10.791649127329055],["appartement",-10.791878995104074],["ó",-10.791908129667918],["merkte",-10.79222618678423],["behandelen",-10.793854083927744],["Bel",-10.794110363776138],["Giro",-10.794303196610091],["vers",-10.794505896197409],["vereist",-10.795032296648614],["stapte",-10.795958544055669],["62",-10.796020330631066],["crash",-10.796402403415643],["klas",-10.797044331508804],["games",-10.79780347452667],["beschadigd",-10.797904605394674],["gevangenisstraf",-10.797918663548444],["aanmeld",-10.797923974451308],["artsen",-10.79826924192418],["circ",-10.7987680593946],["overtuigen",-10.799722919178965],["verricht",-10.799960854915161],["vermeld",-10.79998406189403],["Wa",-10.800149002958246],["Zand",-10.800832398892467],["verdiend",-10.80087610249476],["activisten",-10.801425157965317],["Mu",-10.801571443259562],["war",-10.801783138969771],["opeens",-10.802554598591065],["booster",-10.802632021759857],["geheime",-10.803421878274499],["ance",-10.803642098240836],["ger",-10.803845106767346],["betrouwbaar",-10.804085576520162],["element",-10.804093946490415],["preventie",-10.804860508228366],["confronteer",-10.804861203038733],["Parlement",-10.804861433080447],["Vlaming",-10.80486820117933],["aanrijding",-10.804880114053123],["Group",-10.804891107699255],["organisator",-10.804905593845383],["Zwolle",-10.804910654622473],["Plus",-10.80508621640222],["demonstrant",-10.805253381953522],["evenementen",-10.80529496118755],["aanvoerder",-10.805364851940267],["vergelijken",-10.805851963248216],["redactie",-10.805855541853237],["kenmerken",-10.806117262265555],["reeds",-10.806214713845785],["scheidsrechter",-10.806333371789245],["lost",-10.807351919422382],["koste",-10.807372051806025],["eigendom",-10.808892391179072],["wereldtitel",-10.810171870443732],["Matt",-10.810204934609791],["Ham",-10.810217313465124],["lam",-10.810359554912756],["!”",-10.810695358871616],["samenwerken",-10.811088598299172],["buurland",-10.811174424916837],["hing",-10.81135469405472],["Ger",-10.811887741788151],["Britt",-10.81191781515063],["Rijn",-10.812040890075846],["dol",-10.812199803440992],["Dor",-10.812528175238118],["kroon",-10.812961412349658],["label",-10.813004412602776],["):",-10.813227950668193],["ontstaa",-10.813332437222323],["hit",-10.813425082285042],["verwachte",-10.814413095732476],["stoelen",-10.814647617447237],["scooter",-10.815425718857904],["bocht",-10.815775144328477],["droogte",-10.816054774318864],["lijnen",-10.816718824214176],["Jean",-10.816725084919483],["eemt",-10.817196822352477],["Kroati",-10.817300544321897],["signal",-10.817448446440801],["Ku",-10.818527449811057],["ras",-10.818601188605],["mega",-10.818617802131383],["vastgoed",-10.819146572932278],["68",-10.819576135504583],["deelname",-10.820349162387165],["loper",-10.820430481698105],["accepte",-10.820465112305515],["hevige",-10.821518362184651],["leest",-10.822810187549898],["NB",-10.82324220152777],["gister",-10.823585137869468],["enigs",-10.82429880718937],["diende",-10.824638364611424],["rondje",-10.82480540789153],["EN",-10.825161303522751],["Ye",-10.826303931595177],["Rij",-10.826353492289535],["fijne",-10.826919823817692],["wegge",-10.82740340492774],["nader",-10.82746038669532],["drang",-10.82768295406178],["herken",-10.827865827437648],["duurzaam",-10.828041589577035],["flat",-10.828530335975742],["Belasting",-10.82866795032021],["commissaris",-10.82866923181858],["affaire",-10.828670478463788],["George",-10.828670907824208],["negentig",-10.82873296945735],["goedgekeurd",-10.828757370883341],["Zondag",-10.828835154761583],["goeie",-10.828878934539494],["bot",-10.828907873953684],["vermijd",-10.82896875754847],["arbeiders",-10.828984577523833],["concept",-10.82910071617066],["journalistiek",-10.82932412853074],["goedkope",-10.829519169743689],["Slecht",-10.829588465338652],["Nick",-10.829776041987248],["rel",-10.83026791977088],["Afghan",-10.831679965858886],["Kev",-10.831821087408695],["Korea",-10.831830265579471],["pijnlijk",-10.831975315544472],["Tien",-10.832772273029223],["situaties",-10.832886151412794],["Oisterwijk",-10.83453572461132],["ubai",-10.834546412282837],["kanten",-10.835004850248524],["bezwaar",-10.835062619602576],["betaalbaar",-10.835157064173512],["meent",-10.835297611905467],["tienduizend",-10.835326963565606],["Mil",-10.835944698502907],["Lang",-10.83623259080163],["130",-10.83655812563562],["GG",-10.837964725098786],["ota",-10.838683132438709],["relevant",-10.838708142961806],["kritische",-10.840157210251053],["rechters",-10.840566320673643],["verdwijn",-10.840649176702117],["emand",-10.840921969098737],["á",-10.841233554840569],["mevrouw",-10.842392159058274],["hersteld",-10.842482856558489],["epoel",-10.843079231651298],["luister",-10.843327395624101],["beveiligings",-10.843373945541604],["soortgelijk",-10.844238983461024],["verkrijg",-10.844433373170292],["groeps",-10.844625415222758],["handelaar",-10.845683776483146],["ap",-10.84573654430706],["regelen",-10.846296262566671],["aankomst",-10.847173487281742],["wal",-10.84726979562454],["kelder",-10.848446102966989],["criminaliteit",-10.848582354148599],["gooide",-10.850006677797865],["wassen",-10.850050215298069],["kilometers",-10.850417840455155],["Hu",-10.8505077977269],["Australi",-10.85058551500221],["plank",-10.851003583083351],["eeuwig",-10.851439023109371],["Beste",-10.851494319375131],["ezorgd",-10.851524660186515],["sponsor",-10.851527131881028],["Sc",-10.852007790754447],["leverancier",-10.852135034794056],["Mexic",-10.852190756189117],["gedur",-10.852342221287007],["aliteit",-10.852738090542768],["boerderij",-10.852883875821089],["klus",-10.852885230699169],["Institu",-10.852987493768065],["covid",-10.853056108576524],["WhatsApp",-10.853063327642683],["documentaire",-10.853070156837417],["Schouten",-10.853076625899247],["Apeldoorn",-10.853100415082327],["Argenti",-10.853136319485685],["marketing",-10.853191901292705],["vlogen",-10.853235197255657],["straling",-10.853264349453106],["sensor",-10.853308467734216],["laagste",-10.853434791392534],["taxi",-10.853463469863623],["kippen",-10.85349829446274],["beschuldiging",-10.85363043342456],["wou",-10.854033016244358],["religie",-10.854263035340772],["Pere",-10.85444960868127],["rix",-10.854820813907843],["graaf",-10.855412428972938],["lan",-10.855794555156532],["halver",-10.855825084914022],["vice",-10.855944959676899],["succesvolle",-10.856273145220795],["zondagavond",-10.856358393954828],["Zweeds",-10.856806342090746],["Joris",-10.856855767658544],["menselijk",-10.856996201157733],["renners",-10.85709756946231],["overtreding",-10.85726060104636],["ier",-10.858101104133846],["Oude",-10.85852084731467],["slechter",-10.8588852354667],["Serie",-10.859636969812323],["gun",-10.859724464179642],["nachts",-10.859963871542446],["Brusselse",-10.859974340603193],["vorming",-10.860541518925228],["Wester",-10.860657113764427],["ingevoerd",-10.86144539754095],["neger",-10.861513532224265],["kaartje",-10.861709830742063],["dwingen",-10.861871104863972],["oplever",-10.862460872061682],["server",-10.862822712103458],["adviseer",-10.862963390604891],["Chris",-10.8637864411149],["likken",-10.863865423159396],["armen",-10.864077498478434],["kampt",-10.864689028827568],["praktisch",-10.865385097880655],["kat",-10.865825748486007],["Nieuws",-10.866144102193077],["verblijven",-10.86628344400582],["tro",-10.867434371024977],["brugge",-10.86748170771926],["?\"",-10.867540189069524],["hel",-10.867602728644949],["ich",-10.86782958544433],["Iedere",-10.868541507605963],["slaven",-10.869613237776175],["Cor",-10.869985405542177],["aanleg",-10.871838279885704],["waarschuwd",-10.872677921808886],["dia",-10.872716369914292],["120",-10.872841065467947],["Auto",-10.87447910548789],["feesten",-10.874901285962483],["ingrijpen",-10.875274864954246],["Top",-10.876370185734148],["tikken",-10.87750390385638],["pet",-10.877645240302273],["material",-10.877801989639721],["Plan",-10.87797019518433],["debuut",-10.87803141676869],["vacature",-10.878059477669494],["context",-10.87805967190757],["illegale",-10.87807537240408],["knuffel",-10.878078950614366],["illegaal",-10.87808705423069],["maandelijks",-10.878139822490411],["houder",-10.878148082636748],["corruptie",-10.87827687874972],["promotie",-10.878382992664893],["verbazen",-10.878392963819818],["professionele",-10.878561183579901],["huisvesting",-10.87856401632946],["uitgeschakeld",-10.878693902305],["biologisch",-10.878815085382623],["wandeling",-10.878839278175334],["sterven",-10.878863515182536],["Thijs",-10.878899107434181],["getuige",-10.878995473489697],["gel",-10.879000677907833],["richtlijn",-10.879066095456494],["fel",-10.87912794038288],["klassieke",-10.879181697091564],["instelling",-10.87940869679272],["statushouder",-10.879500104909349],["volwassenen",-10.879585675072187],["lukte",-10.87993210860749],["econo",-10.880313924214379],["gemist",-10.880343064980828],["energierekening",-10.880529467182072],["Bekijk",-10.880544838816915],["Jos",-10.880601303812222],["onrust",-10.8819619487124],["Eerste",-10.882621842003353],["bedien",-10.882756834533556],["ontdekte",-10.883305807700514],["ders",-10.88488964701775],["voorbereiden",-10.884979451690075],["enig",-10.885073126921965],["organiseer",-10.886568444872948],["Hele",-10.886840349036646],["Zwarte",-10.887134513780172],["knoppen",-10.887371723259063],["besmet",-10.887514121257865],["sportieve",-10.88802751926577],["reedt",-10.88847358192297],["filter",-10.888638799843616],["zwak",-10.888640230454579],["Super",-10.889042244158102],["opkomst",-10.889737121142137],["88",-10.889887950726571],["ius",-10.890350211676925],["pu",-10.890502679195608],["geï",-10.890842513763168],["pit",-10.891429192115872],["oven",-10.8919853651595],["Bi",-10.892623723212804],["Tor",-10.893147014716003],["zender",-10.893239311884983],["Rotterdams",-10.893247639826258],["roer",-10.893359918849171],["Vos",-10.893498672598128],["huisarts",-10.893604961171842],["aai",-10.894951749150275],["71",-10.89496344690511],["Tijd",-10.895510285672463],["lieve",-10.898277164965874],["%)",-10.898558531856986],["olksgezondheid",-10.898766074651254],["analisten",-10.899010795199185],["staal",-10.899362680174603],["vroege",-10.899612171947616],["vijand",-10.89994624565551],["belde",-10.900040832794298],["koel",-10.901099504134319],["munitie",-10.901204503245095],["bestrijding",-10.901681623417543],["tegemoet",-10.901841321204154],["behoren",-10.901876579679525],["keur",-10.90193500067269],["dé",-10.902223052636437],["beschikt",-10.902703482413278],["storing",-10.902813484007703],["ploegen",-10.903123751880841],["verdriet",-10.903573013857269],["cocaïne",-10.903700501512917],["druppel",-10.903700531185933],["gestorven",-10.90370081008521],["continu",-10.903700823836958],["verschrikkelijk",-10.903700834868122],["peloton",-10.903700940971234],["Museum",-10.903702019647843],["immigratie",-10.903702363306557],["bruto",-10.903744452160986],["Visser",-10.903761126024655],["dwars",-10.90377589115789],["zeventig",-10.903810496893625],["Derksen",-10.903886576467121],["aankondiging",-10.903942308128084],["SUV",-10.903951604601398],["Gister",-10.90401199993222],["Spanjaard",-10.904127492870016],["gespecialiseerd",-10.904198091130702],["700",-10.904308120565572],["begeleiding",-10.904364611854081],["éér",-10.904370869151698],["prijsstijging",-10.904605431329815],["KV",-10.905294030162644],["ontken",-10.905498624685784],["Hond",-10.905676334580079],["pleegd",-10.90583477804019],["geluids",-10.905954458853234],["vonnis",-10.906876267107242],["Emma",-10.90734098540064],["beantwoord",-10.908051522748522],["vogel",-10.908665262338147],["griep",-10.909173694188723],["service",-10.909242183332982],["teller",-10.909923354141174],["fenome",-10.910017704417553],["ieke",-10.910080300135117],["Mal",-10.910879816380612],["breid",-10.91121941914075],["volgers",-10.911448610974467],["installatie",-10.911912841163367],["77",-10.912010555141904],["té",-10.912073006375937],["beperkte",-10.912255297903762],["ondersteunen",-10.912695271942045],["Carlo",-10.912988246627467],["drukke",-10.914071125488144],["aanhouding",-10.914420400322765],["heerlijk",-10.915416685656886],["kernwapen",-10.915688042096416],["thee",-10.9158905336263],["nota",-10.916215449603781],["overval",-10.916368340803299],["ticket",-10.916552999163637],["klacht",-10.917401629963173],["lading",-10.918397873916922],["Vol",-10.918841506585512],["krachtig",-10.91890560638061],["hinder",-10.918993194902754],["onderhandel",-10.919026446993866],["Best",-10.919046135318588],["klassement",-10.919429475452443],["tanks",-10.919594551682835],["producent",-10.919673270787442],["knip",-10.91985050517517],["Dieren",-10.92021395809139],["opmerkelijk",-10.920423850845435],["handeling",-10.920765417562224],["Geld",-10.921465229371435],["tig",-10.921563788104928],["DP",-10.922530908534677],["Park",-10.923037187199494],["constructie",-10.923646262621366],["gids",-10.923827494506813],["Son",-10.924153059508143],["mix",-10.924268427757674],["Wouter",-10.924829752405316],["voegen",-10.925020336506686],["pel",-10.925586090306396],["landschap",-10.927078001913614],["aire",-10.928293266452634],["Par",-10.928314057698007],["und",-10.928685896191991],["München",-10.930016290657989],["Chelsea",-10.930016301822642],["satelliet",-10.930016359417321],["karakter",-10.930016388537116],["Microsoft",-10.930017528956387],["arrestatie",-10.930028504320843],["afbeelding",-10.930033302532193],["plotseling",-10.930055946846242],["Sparta",-10.930121560338979],["limiet",-10.93016686575379],["geregistreerd",-10.930193572069417],["tranen",-10.93026214566553],["gestapt",-10.93038697971285],["remmen",-10.930565315838706],["Voic",-10.930636870181218],["betrekking",-10.930707232008857],["toezichthouder",-10.930744072842707],["Union",-10.930991498526065],["transactie",-10.931055467999833],["toneel",-10.931503574073428],["ritten",-10.931734707476716],["peiling",-10.93190457998922],["gebruikte",-10.932205788569847],["Eric",-10.932207874151784],["brein",-10.932315248704146],["factuur",-10.932346953614045],["terugkeren",-10.93235032452603],["uitgebracht",-10.932983790708938],["enberg",-10.9338732603614],["vervolgd",-10.933919682331544],["Vind",-10.934187558232823],["Tilburg",-10.934445512300856],["blokkeren",-10.934636621656356],["directie",-10.934758195103925],["NU",-10.934778760790339],["beroeps",-10.935562385355784],["mor",-10.935572742326075],["vervanger",-10.935970784075895],["ongekend",-10.936346124345585],["gelijke",-10.936765197964842],["Philips",-10.937420695911259],["laad",-10.937671764866064],["potenti",-10.937788592010804],["Vergee",-10.93788475346798],["streek",-10.937967528218426],["beveiliger",-10.938873029971942],["gewenste",-10.938995967349424],["Simon",-10.939370198576098],["Marco",-10.939970008230915],["Ton",-10.940069453929262],["draad",-10.940428553249431],["roken",-10.94094045605015],["hemel",-10.941093738622735],["panelen",-10.941532728062477],["subsidies",-10.942029115053002],["bevoegd",-10.942344668889906],["bit",-10.942676673667213],["norm",-10.943176803201913],["doodge",-10.94325899798918],["diens",-10.94395114333511],["liedjes",-10.944137343356399],["voorspel",-10.944505993668486],["operatione",-10.944809447426163],["begroting",-10.945004556641877],["Vel",-10.946209137208896],["uitleg",-10.94686590004553],["crucia",-10.94692247170428],["dringend",-10.947052881426064],["rat",-10.94823648116703],["belofte",-10.94826070123661],["concrete",-10.94860342229229],["prof",-10.949134142701451],["Am",-10.949336601343767],["Lei",-10.949338549331157],["ru",-10.950085558715674],["drijf",-10.95012018403613],["getraind",-10.95055689341448],["shit",-10.951292070761786],["nadenk",-10.95172892845791],["gens",-10.951893735513547],["Kar",-10.952269282843787],["moedig",-10.953269271763238],["waai",-10.953714935230167],["Wall",-10.953758378712099],["ramen",-10.9537867375603],["Stee",-10.953963152514666],["slaagde",-10.954636483705603],["raans",-10.954843835895732],["bakke",-10.955122653632138],["ijzer",-10.955325842618596],["column",-10.955974778640826],["MA",-10.956390625033386],["cellen",-10.956542734195937],["hobby",-10.95654566217112],["koken",-10.95657765337113],["creëer",-10.95663619360935],["helikopter",-10.957028221936318],["portefeuille",-10.95704331765287],["quarantaine",-10.957043317667056],["psychisch",-10.957043317783722],["tribune",-10.957043320261135],["Visma",-10.957114011674381],["verslaggever",-10.957121802240664],["koploper",-10.95716146734629],["grijs",-10.957280455659893],["verdediging",-10.957355877717367],["presentatie",-10.95738981212461],["vlaggen",-10.957471210487794],["Winter",-10.957515942423312],["loopbaan",-10.957622536060114],["betrapt",-10.957639526806002],["plaatsge",-10.957893121129919],["ure",-10.958230864193055],["aanvankelijk",-10.958256099899824],["inhoudelijk",-10.958344504832223],["Opvallend",-10.958537646724388],["racistisch",-10.958575647956291],["Cent",-10.959031567703512],["windmolen",-10.959217634153276],["Blue",-10.95923527075127],["gelijkheid",-10.959570947538019],["geruchten",-10.959627884934912],["uitbreid",-10.959935832356331],["ira",-10.960081071017017],["State",-10.960115999778004],["spreek",-10.960361364003568],["Canade",-10.960746506584575],["kie",-10.961220306350727],["parkeer",-10.96184716334282],["koopt",-10.962333666322449],["worstel",-10.962350376629649],["gender",-10.962752309220445],["logo",-10.962774653547433],["begre",-10.9628010837718],["lippen",-10.963247547477385],["Nord",-10.963784191161482],["Taiwan",-10.96410782066103],["bekek",-10.964179923565029],["Emmen",-10.96435331857271],["vrijwillig",-10.964426876544785],["star",-10.964623643753091],["Elk",-10.964788967929357],["tweehonderd",-10.965367898026965],["gepubliceerd",-10.966380684311403],["Gas",-10.966660389948327],["Zeeland",-10.96710593115071],["voorraad",-10.96759676593918],["belegging",-10.967980387858642],["strenge",-10.968221618476012],["rap",-10.968236938031207],["uiting",-10.968708477521773],["verbaasd",-10.968929054090367],["offs",-10.969376029260944],["valse",-10.969615288433594],["komend",-10.969638647347644],["bepaal",-10.971237149439578],["fi",-10.971354926247677],["puntje",-10.971773865777367],["atten",-10.971961052741445],["prettig",-10.972944830180662],["nationaal",-10.974091310715918],["drink",-10.975848338547914],["vloei",-10.97674558443374],["visse",-10.977315378939307],["lust",-10.977504657028867],["schr",-10.977827297562866],["Lam",-10.978442109924163],["schadelijk",-10.978589757782256],["illa",-10.979904827295595],["lastige",-10.979981956475859],["rek",-10.980460431773613],["Time",-10.980492120908691],["HO",-10.98080865612284],["sters",-10.981187013141495],["Burg",-10.98140165309542],["vervolgt",-10.981680479701687],["fossiele",-10.981870539659235],["materie",-10.981929189833789],["voorgaande",-10.981990290286017],["brons",-10.982360192423986],["busje",-10.982779253530747],["sporten",-10.98281239948533],["islam",-10.982991377314377],["rey",-10.983834219390511],["rommel",-10.98422412757893],["garage",-10.9847954158324],["Sinterklaas",-10.984821097028057],["district",-10.98482109902693],["Erdogan",-10.98482110331582],["Pogacar",-10.984821110252913],["gewelddadig",-10.984821141347402],["penalty",-10.984821419855647],["bitcoin",-10.984822601825895],["isolatie",-10.984823102553092],["Dirk",-10.984823254215437],["toeschouwer",-10.98482474979895],["omikron",-10.984838038108538],["aanmerking",-10.984845417161095],["Natuur",-10.984859116428138],["Volkskrant",-10.984859837393717],["segment",-10.984861653774868],["cilinder",-10.984881297163334],["administratie",-10.984887028339479],["neef",-10.984930928507008],["voortdurend",-10.985044396326172],["drager",-10.985051867444922],["permanent",-10.98515409300447],["verkoopt",-10.985245662552037],["volg",-10.98563056595257],["Brabants",-10.986036923381674],["betreffen",-10.986228836087573],["KNV",-10.986534605133432],["dig",-10.986645485555064],["heffing",-10.98665449266066],["instroom",-10.986858068554092],["meermaals",-10.986887331769243],["Fa",-10.987189400121366],["aert",-10.987692981607804],["BC",-10.987909326070387],["onderling",-10.988023682988254],["Economisch",-10.988344375819898],["Sun",-10.988374839429934],["Tag",-10.988452307897445],["opgericht",-10.988481289036354],["vuurwapen",-10.988879008459591],["tevens",-10.989454366797135],["vierkante",-10.989493709738312],["student",-10.989531058819964],["zuur",-10.989769195192292],["Jack",-10.989923722196858],["verliefd",-10.990055218805587],["parlements",-10.990104530898307],["Christian",-10.990655394390714],["indien",-10.990902010102666],["onterecht",-10.990972890635243],["aandeelhouders",-10.992264948618885],["ondersteun",-10.992602843927301],["Zal",-10.992633488896244],["Nik",-10.99286303311672],["achtig",-10.993130647832137],["steekt",-10.993700798631458],["lift",-10.99376447278005],["beëindig",-10.9939849060662],["beschuldigd",-10.994046565254413],["uitsluiten",-10.994353232748932],["toegest",-10.994419086874196],["zong",-10.994925602704141],["aanhanger",-10.995004753048327],["mode",-10.995125786291446],["auteur",-10.995139739860853],["Queen",-10.996360589149338],["boze",-10.997757427488146],["Sh",-10.99813808813067],["verzameld",-10.998527885346423],["lap",-10.998705569610049],["verrast",-10.999359424149095],["Cha",-10.999365614052268],["verhuis",-11.000053699356435],["lasten",-11.000055604841293],["hoven",-11.000127692255555],["jongetje",-11.00036104386013],["pech",-11.00058480007782],["gekend",-11.000761867630196],["Gu",-11.00090998515702],["stations",-11.001089407167902],["kaas",-11.001515394065777],["gepast",-11.001727198008222],["optima",-11.002080209612398],["lingen",-11.00214819709303],["900",-11.002439497335686],["opzet",-11.002551234595467],["mbo",-11.003845058574402],["Las",-11.003862605112456],["stoten",-11.004251057042307],["donkere",-11.005423297192069],["gedoe",-11.005503887049038],["Boeren",-11.005750231909492],["patiënt",-11.006440127294496],["stream",-11.006512762972259],["AB",-11.006629466752313],["behoor",-11.007318628197755],["reikt",-11.007339827649067],["inkomens",-11.007516539086474],["Syrië",-11.00824651774785],["Hollandse",-11.008687134329993],["diversiteit",-11.009202891308362],["56",-11.009580628138249],["zacht",-11.009612354650786],["vergroot",-11.009704480387898],["bewuste",-11.010017326747091],["winnaars",-11.01022796697434],["fles",-11.011047565237408],["lak",-11.011079473089518],["eredivisie",-11.011909134967986],["afnemen",-11.012441400319238],["schuil",-11.012537934378464],["Bra",-11.012619077540466],["interne",-11.012699172649898],["KN",-11.012854291584478],["planeet",-11.013074923860012],["slepen",-11.013085490112255],["fit",-11.013094560380843],["compens",-11.013109216047754],["spectaculair",-11.01339252400212],["President",-11.01339252690141],["verpakking",-11.013392564579174],["rabië",-11.013392660623772],["Woensdag",-11.013392785712536],["centimeter",-11.01339364361537],["valuta",-11.013393937266269],["stunt",-11.013395817152656],["jurk",-11.013395969263676],["vergeet",-11.013402905729107],["Verschillen",-11.013405100955987],["hectare",-11.013405300039802],["Disney",-11.013406170282916],["Croo",-11.013424570840236],["Volkswagen",-11.013447696508099],["volume",-11.013463978971942],["uitgeven",-11.013492588714346],["Gelderse",-11.013525674062016],["Aziatisch",-11.01359127644601],["zwemmen",-11.013633522841067],["doos",-11.013871092028104],["poep",-11.013873066188943],["VRT",-11.013888801154701],["mooier",-11.014031366341557],["negentien",-11.014220413912279],["waardering",-11.01424725156234],["kenteken",-11.014601679040062],["Utrechtse",-11.014614319631384],["kruising",-11.014812377920254],["zó",-11.015504721335443],["interessante",-11.015827546497663],["papa",-11.015853368934911],["bevestigen",-11.016154536360919],["spier",-11.016600020167349],["zië",-11.016682692985293],["staakt",-11.016766711446078],["doelgroep",-11.017066272819108],["plaatste",-11.017837657166517],["kens",-11.0182481007709],["investeerders",-11.018332918391463],["baat",-11.01846645694682],["tand",-11.019206260190442],["ang",-11.019818920005786],["HEM",-11.020048184519625],["lezing",-11.020052260193491],["vergrot",-11.020431681198],["61",-11.022351424932728],["formatie",-11.022415095862417],["varkens",-11.023755453965153],["verlopen",-11.02478277694302],["kiezers",-11.025673946762835],["aangeven",-11.026010897176755],["AP",-11.026035803359967],["paarden",-11.026859534922913],["planning",-11.027090858260308],["gepresenteerd",-11.02715869447127],["isten",-11.027405967974037],["ongelijk",-11.028120130037372],["Ru",-11.028265867614504],["verkoper",-11.028839340424218],["App",-11.028984149326],["contacten",-11.029771526315113],["vastge",-11.029913023236618],["Stads",-11.030239789675448],["verkiezings",-11.030526442654711],["Lan",-11.031390721473294],["voerde",-11.031561619678097],["ariev",-11.031597826354576],["ard",-11.031636774602076],["hielp",-11.031775424749725],["realistisch",-11.032437345960986],["aangevallen",-11.032976857457582],["wond",-11.03306866876805],["Haags",-11.033265943367311],["richtte",-11.033943516991],["bestrijd",-11.03408623025965],["emco",-11.034124313530521],["bagage",-11.034634098551575],["Xi",-11.035236048705208],["lach",-11.035338211688595],["Nation",-11.035539366774067],["gezeten",-11.035561641223948],["erkennen",-11.03599385264711],["regiona",-11.036511478621378],["apparat",-11.036624554668622],["moe",-11.037399442600158],["lonen",-11.03743636179173],["akken",-11.038187019980708],["Zwitsers",-11.03879929962981],["OC",-11.038815657047417],["AA",-11.038854699662007],["ight",-11.038933735668337],["nuttig",-11.039503413972435],["oordelen",-11.0396611534539],["onverwacht",-11.039741374097886],["tour",-11.039820121391331],["voeding",-11.04030989185096],["Con",-11.040317795432163],["zuinig",-11.041511034083136],["bezorg",-11.041757490850665],["initiatie",-11.041878105638467],["Turnhout",-11.042546916292572],["bewolk",-11.042558875399795],["lobby",-11.042609774193783],["verzekeraar",-11.042694889719728],["puzzel",-11.04280434795354],["horloge",-11.042804664912888],["Heerenveen",-11.042804816136675],["terreur",-11.042804937335344],["Portuge",-11.042805262465675],["langzamer",-11.042805599676223],["ultiem",-11.04280950293872],["statement",-11.042818536545033],["kroeg",-11.042824515443442],["School",-11.04283593637381],["FIFA",-11.042840820628538],["nauwkeurig",-11.042876005019785],["Forum",-11.04297608143679],["wolven",-11.04297731840767],["schadevergoeding",-11.043036298288987],["trekkers",-11.043044199097244],["vreten",-11.043085472127792],["nieuwkomer",-11.043116958807845],["infectie",-11.043508582248231],["gekoppeld",-11.043519082566393],["betekenis",-11.044069791497257],["Joods",-11.044146193800852],["elektriciteits",-11.044230948537574],["bescheiden",-11.044290457333432],["Remk",-11.045348428083017],["sporters",-11.045683171492731],["meiden",-11.045735835478732],["stiekem",-11.045743797589616],["lelijk",-11.046320205773446],["verwoest",-11.046686132848139],["poort",-11.04688467172523],["vooruitzicht",-11.047382401157254],["Est",-11.047384595633126],["razend",-11.048163432499711],["84",-11.048209099457873],["vreemde",-11.048571594812584],["78",-11.049489441771621],["verg",-11.049532540425796],["trainings",-11.049770264278008],["koek",-11.049855069877253],["Pi",-11.051030268744036],["aangewezen",-11.051160942683786],["NEC",-11.052789655727045],["SV",-11.05318813755335],["versterkt",-11.05362574251555],["schaars",-11.05368208701047],["rice",-11.053933315465923],["oefenen",-11.054240278914062],["vest",-11.054316299110319],["ber",-11.054566006563302],["identiteit",-11.055010681581033],["Ros",-11.05518371962549],["krachten",-11.05570761918469],["Genk",-11.056186193853714],["oid",-11.056412548197303],["opgesteld",-11.056552651780963],["NC",-11.057352131978233],["renner",-11.057411013841339],["bevond",-11.057493814910714],["agentschap",-11.05770988307248],["stemmer",-11.057906750532414],["beschouwd",-11.05803965587722],["Bern",-11.058074668195161],["Mede",-11.058118623568461],["Meest",-11.058633632353382],["BA",-11.059652798027006],["vreselijk",-11.059957279707824],["verlaagd",-11.060354313011345],["tallo",-11.061041066126094],["snapp",-11.061069840699128],["tenzij",-11.061655399588126],["stabiel",-11.062081692350876],["Sal",-11.062253123069052],["scheiding",-11.062359973282092],["meren",-11.062567043820703],["streeks",-11.062842550698294],["ya",-11.062967406890513],["nomen",-11.063154639345452],["ië",-11.063227579998804],["rijtje",-11.065363808066145],["vee",-11.066067199693755],["letten",-11.066078293659878],["Piet",-11.066178920793662],["issen",-11.066518410562526],["moed",-11.066895770245516],["Intussen",-11.067515724234408],["activiteit",-11.067979026521],["ongewenst",-11.068210385389005],["zeik",-11.068512697825398],["Ah",-11.070227220934548],["personeels",-11.072214672841605],["dansen",-11.072379439670605],["Bon",-11.072598491940568],["tijdrit",-11.072637909716764],["individu",-11.07283471264304],["rechtse",-11.072948496831048],["audio",-11.073040476939594],["intimidatie",-11.07310731927809],["ceremonie",-11.073107319569562],["Arabisch",-11.073107338420638],["Oorlog",-11.073107356910858],["koninklijk",-11.073107893137504],["Hitler",-11.073108263194095],["afwezig",-11.073112530974747],["letsel",-11.073112589289842],["Donbas",-11.073115425533153],["Telegram",-11.073117992339798],["verplaats",-11.073124760341695],["Messi",-11.073132567789765],["Stijl",-11.073137345749426],["beseffen",-11.073144233794139],["vanzelfsprekend",-11.07316437162534],["teleurgesteld",-11.073202458380264],["Laatst",-11.07320762922241],["Wetenschap",-11.073212095444756],["ideaal",-11.073222798331997],["Model",-11.07327486576955],["Milan",-11.073449358713352],["hervorming",-11.07353883433435],["….",-11.073548399619515],["geïnteresseerd",-11.073584987313616],["originele",-11.073656994603445],["geweten",-11.073661290823765],["Ooi",-11.07367266846338],["ingang",-11.073707373418916],["NIET",-11.07373866330878],["stekker",-11.073777601050024],["symptom",-11.073939501218192],["Tay",-11.07417705450002],["maag",-11.074235067010207],["Klein",-11.074393688312647],["voorstander",-11.074532353067998],["versoepeling",-11.07470906571995],["Vincen",-11.074754408863036],["zondagmiddag",-11.074911706696735],["beschik",-11.0749981554102],["Koreaans",-11.075110355981035],["startte",-11.07513122426219],["kinderopvang",-11.075389434511699],["drinkwater",-11.075482028836408],["Tr",-11.07593035204273],["bestorm",-11.076629924841114],["ux",-11.076634678354688],["Che",-11.076796509420516],["Koen",-11.077195220084569],["log",-11.077485760033605],["cu",-11.077865986970703],["worp",-11.077898882051857],["titels",-11.07810408861797],["geboekt",-11.078268120581711],["helm",-11.078322690071396],["ST",-11.078329111232748],["head",-11.07839324515513],["rock",-11.07847297296844],["lol",-11.078773628884342],["oppervlakte",-11.078993732203665],["tanden",-11.07916378965825],["douche",-11.079453284083199],["SE",-11.079629411469025],["uth",-11.080591194957591],["Mor",-11.080864005193861],["pond",-11.08226499423781],["vermeend",-11.08358274132002],["dodelijke",-11.083737455475733],["opnames",-11.084178722958871],["opmerkelijke",-11.084294440419846],["mmers",-11.084437818575264],["geble",-11.084627403518237],["79",-11.084906612877754],["gehakt",-11.084979119578085],["beek",-11.08538082446637],["98",-11.085542491854438],["bommen",-11.085860307028534],["dokter",-11.08626347381407],["Republikein",-11.086308237136066],["arbeid",-11.08634226379861],["buigen",-11.086638479328881],["mondkapjes",-11.086665100950007],["werknemer",-11.087016034189357],["single",-11.08712434556843],["shirt",-11.087172890657094],["Sain",-11.088516501611295],["kamers",-11.088643557969165],["can",-11.08868802183658],["ontkenne",-11.088860945967244],["maximum",-11.089616817868379],["appartementen",-11.09033980331935],["OV",-11.091679624246872],["Ring",-11.092298753729048],["mon",-11.093591541648061],["verplaatst",-11.094018206706531],["grijp",-11.095150638234275],["onnodig",-11.095192609876282],["absolute",-11.095532089205893],["afgezet",-11.096494644522853],["Alf",-11.098655983742189],["opgehaald",-11.099014252796845],["Saint",-11.099138445892164],["geldig",-11.099713836673807],["Ch",-11.099757098420124],["artiest",-11.099976213710285],["weigerde",-11.100737209577687],["YouTube",-11.100827363275538],["stukjes",-11.10130143601079],["liegen",-11.101521148436172],["chips",-11.102007833656081],["ong",-11.102539973195238],["Belang",-11.103079375513587],["zwem",-11.103184646617148],["schaduw",-11.103196306920498],["emissie",-11.103401360893606],["communic",-11.103775883757143],["object",-11.103928801181823],["Rog",-11.104195121864997],["mobilis",-11.104328280392716],["Filip",-11.104333299492552],["verlenen",-11.104340806691091],["respectievelijk",-11.104357319167272],["break",-11.104357344341338],["Omtzigt",-11.104357366520846],["Vereniging",-11.104357782665488],["koeien",-11.104360330525772],["Krijg",-11.104370634385841],["gemerkt",-11.10437864289455],["MC",-11.104390267989125],["patroon",-11.104403765477631],["regenboog",-11.104475870639902],["Window",-11.10454417950768],["versterken",-11.104642817538435],["stapje",-11.10464288090191],["vliegveld",-11.104719547849328],["monster",-11.104785872663811],["Award",-11.104832199541697],["velgen",-11.10489015828311],["cryptomunt",-11.104942949927372],["burgemeesters",-11.105112804601001],["coronabesmetting",-11.105148859035776],["Racin",-11.105303974202126],["leerkracht",-11.105327526599613],["59",-11.105350546886722],["Toy",-11.105497411104853],["Mont",-11.105553286034132],["potje",-11.105671457005213],["strafbaar",-11.105720523330586],["Kamp",-11.105786609859951],["óg",-11.105884114403395],["tiener",-11.10606611931039],["uitkomen",-11.106126216354033],["buit",-11.106174376599446],["ontbijt",-11.106284299904496],["uurtje",-11.106362091009402],["snapt",-11.106609200461596],["geteld",-11.106956303082606],["hip",-11.107197447721948],["Donets",-11.107849479507363],["krap",-11.108241993566539],["sterkst",-11.108275316857545],["bevinding",-11.10911472076943],["cao",-11.109646037876539],["Camb",-11.110546934335897],["Not",-11.110729928895982],["Toe",-11.111011377105113],["Vooruit",-11.111455335197359],["plaatsvond",-11.111586752052329],["Cel",-11.111764097287693],["stro",-11.112238915538013],["Ley",-11.11298663945919],["lei",-11.113253193231891],["tak",-11.113593138090074],["Vo",-11.113930285942267],["klassieker",-11.114002770124111],["zwijgen",-11.11444753906738],["Kruis",-11.114940158350478],["vernietigen",-11.115391236870877],["daalt",-11.115861916934303],["lichtingendienst",-11.116143936922896],["exemplar",-11.11620754829306],["ngeveer",-11.116357395153745],["getrouwd",-11.11635968418985],["vertrekt",-11.117097863936266],["Rechts",-11.117720174857109],["wo",-11.118196950546455],["verton",-11.118338489928956],["robot",-11.118610013439888],["wijd",-11.118832035281578],["Thuis",-11.118899915972872],["ouwe",-11.119234251994751],["idd",-11.11944760131395],["est",-11.11982078521137],["lijstje",-11.120363361575928],["bestond",-11.120543915971357],["Stad",-11.120617288059087],["Loe",-11.121140935694973],["vrolijk",-11.121850110962816],["teelt",-11.122182435836002],["troffen",-11.122182995688828],["Maarten",-11.122296847744346],["Ont",-11.122668731903186],["veer",-11.12306246128139],["verschillend",-11.123170174930078],["constant",-11.123249768743188],["vaardig",-11.123428693444968],["kranten",-11.123605911637272],["shop",-11.124043621247983],["families",-11.12404849274211],["modu",-11.124081986252328],["Central",-11.12416831151468],["horst",-11.124326728949923],["voorbereid",-11.12450394654676],["plaatje",-11.124773511279596],["llong",-11.125286723331671],["dodelijk",-11.125645313624517],["prinses",-11.126829573900217],["huilen",-11.12689164400764],["Zeven",-11.126907047995381],["rare",-11.12691160158714],["Egypte",-11.127619647517243],["kunstwerk",-11.127754313204377],["monument",-11.128194669702715],["gaaf",-11.128480273136047],["container",-11.12864483253148],["web",-11.128717553763284],["ingewikkeld",-11.128739046232397],["maaltijd",-11.128948238094548],["wieler",-11.129069575096736],["assen",-11.129601368411931],["hor",-11.13109870636617],["vertrok",-11.131614542510768],["marge",-11.131893776568873],["án",-11.131991137701823],["yr",-11.133685972321011],["hol",-11.133831862371931],["verwerkt",-11.133885312421306],["Star",-11.134146018709542],["trauma",-11.134561060293032],["simpele",-11.134759432388082],["gevel",-11.135044604577935],["MO",-11.135378681558786],["schuif",-11.135488039723532],["grijze",-11.136366388093801],["strafschop",-11.136513798942257],["comfort",-11.136609096245962],["handhaving",-11.136615403277682],["Sophie",-11.136615969416557],["Klimaat",-11.136620189318677],["Klaver",-11.136620333841904],["MacBook",-11.136622527723489],["versterking",-11.136624140831952],["Hasselt",-11.136625845710856],["aspect",-11.136626521491785],["virtue",-11.13662839871225],["introductie",-11.13663186606342],["verdeling",-11.136632983442619],["presteren",-11.136666515543421],["installer",-11.136724449292204],["achtervolging",-11.136733808640447],["dingetje",-11.136803245265213],["warmtepomp",-11.136808114914576],["IV",-11.136891854567976],["hekel",-11.136912033583817],["sier",-11.136918797752639],["Anna",-11.137068772923019],["atlete",-11.137078331329864],["vriendjes",-11.137159105804438],["verzin",-11.137181801318654],["consequentie",-11.13722429224039],["assist",-11.137255684693987],["bewer",-11.137353333050484],["achterban",-11.137474772846465],["ontbreken",-11.137608371848497],["ontvlucht",-11.137742134586823],["verkrachting",-11.137771662889575],["koppen",-11.137880274829321],["ASM",-11.138200644603128],["breder",-11.138474189243786],["buis",-11.1386294458835],["Noors",-11.138890837318314],["extreemrechts",-11.13896976776798],["opbouwen",-11.138981499212559],["cha",-11.139081012533389],["geur",-11.139150805794209],["schaamte",-11.139427356139981],["omgekeerd",-11.139836323032057],["ansk",-11.139942390996346],["Grieks",-11.139971298958011],["rijders",-11.139976016515575],["Ub",-11.140064158023304],["west",-11.140186893309414],["info",-11.140564424982035],["sleep",-11.140847376212413],["350",-11.141021896982819],["day",-11.14106311602448],["biertje",-11.141280278625976],["Klop",-11.141915482369397],["Store",-11.142263972413057],["Big",-11.142453065974031],["verplichte",-11.142465329575218],["overgang",-11.142515573947112],["Steen",-11.143293836341641],["Za",-11.143538698493764],["toeval",-11.14401026210744],["Roos",-11.144428538698254],["ova",-11.144817848082818],["strategische",-11.144860873211487],["geschikte",-11.145306859974077],["bemoeien",-11.145327179069284],["1500",-11.145411459389127],["zwangerschap",-11.145421421247725],["ergste",-11.145749808731994],["raag",-11.145969436080644],["bijstand",-11.145976132766037],["Staats",-11.146236374582006],["besef",-11.146657240181733],["uitgedeeld",-11.146680020265443],["Bak",-11.147154562246627],["gered",-11.1471707881062],["steen",-11.147425383777957],["dame",-11.148212374123705],["cruciaal",-11.14886510482205],["leugens",-11.149302850999453],["steunt",-11.149450006518776],["Ok",-11.150514423059242],["Dia",-11.151145673958364],["oprichter",-11.151657780833888],["ambte",-11.151956331230743],["koper",-11.152225971215334],["lezers",-11.15229255363139],["gew",-11.152381331759543],["trekker",-11.152570251160972],["verslaan",-11.15290573937955],["wethouders",-11.153268964220347],["kunstenaar",-11.153344079023714],["Amerikaan",-11.153349119507975],["behaald",-11.15349638908416],["Mat",-11.153790330188981],["Mer",-11.154716969185994],["afgelegd",-11.155144454826702],["ator",-11.155167204388935],["verliet",-11.155369893828738],["noch",-11.156184850692924],["Koop",-11.156274834682907],["egenwoordig",-11.156513670603282],["Beet",-11.156665303838462],["versneld",-11.156825433897104],["verk",-11.157129514226956],["Schu",-11.157353096366965],["triest",-11.157378483778025],["exempla",-11.157448352187291],["voorgesteld",-11.157566357219174],["tool",-11.157569924298116],["leuker",-11.157816672101852],["Hou",-11.158016846926419],["Hart",-11.15811477560293],["Prima",-11.159283130591334],["Boom",-11.160212242329479],["Vrouwen",-11.160907212270086],["ui",-11.161107802936595],["versnelle",-11.16133034713645],["liedje",-11.161371422598977],["leken",-11.16264349232991],["baal",-11.162689720046892],["worst",-11.163255951773566],["dankbaar",-11.163278305421738],["zesde",-11.163896860447597],["opgebouwd",-11.163943216212248],["schreeuwen",-11.164158737631338],["complexe",-11.164380824049866],["blind",-11.164449706331528],["MG",-11.164804980066235],["Anton",-11.164893844962936],["ruimtes",-11.165054727298601],["Christ",-11.165334125065492],["450",-11.165493902184075],["brieven",-11.165513401686496],["mits",-11.165654255802616],["plege",-11.166408820431844],["onderscheid",-11.16656371378252],["instrument",-11.166953337231998],["rechtvaardig",-11.16709771848298],["orry",-11.168851090398729],["ondernemen",-11.16917965259173],["zucht",-11.16948505686593],["óó",-11.169548006468247],["Amersfoort",-11.169670254491711],["kapitaal",-11.16969711530735],["verbinden",-11.169780913940418],["immuun",-11.169948716861034],["Beleggers",-11.169948720292552],["zorgvuldig",-11.169948726614386],["Koninklijk",-11.169948727905005],["kliniek",-11.16995024301492],["problematiek",-11.169951085558587],["commandant",-11.169954299712195],["fusie",-11.169960778401672],["AOW",-11.16998269816213],["Nationaal",-11.169987259753569],["release",-11.1699909873737],["Space",-11.169997730495115],["geheugen",-11.170006910947325],["dictator",-11.170014824888042],["fragment",-11.170027236774258],["divisie",-11.170035455766051],["tweedehands",-11.17004821896276],["medium",-11.170073842646254],["Cherson",-11.17012838492655],["renteverhoging",-11.170144671110174],["camping",-11.170256856843528],["ambassadeur",-11.170262594303598],["Zit",-11.170277573981156],["islamitisch",-11.170294309740347],["bitter",-11.170468206531257],["gebruiker",-11.170605936777843],["zwaargewond",-11.170631780625591],["huurwoning",-11.17085867298621],["protesteren",-11.171008788250875],["geopolitiek",-11.171025600727818],["mest",-11.171123506240129],["polder",-11.17115833606309],["For",-11.17117647640476],["voorspelling",-11.171310282843757],["Terug",-11.171746679156563],["aanbieder",-11.171819062421424],["ontdekking",-11.171970041749493],["Drenth",-11.172010939068993],["ingericht",-11.172275644718239],["benoem",-11.172699517010484],["geestelijk",-11.172801327342167],["restaurants",-11.173330678956587],["gemeentelijk",-11.17370962060579],["Amsterdammer",-11.173768209723503],["AT",-11.17381325074194],["leerde",-11.173874567421823],["ron",-11.174345385598063],["kogel",-11.17453812945444],["har",-11.174569038571706],["regenbui",-11.174944304576874],["verslag",-11.175359272199042],["duurde",-11.175595369408889],["enquête",-11.175702637833524],["ros",-11.175831482321144],["Mike",-11.175917044143535],["voorspeld",-11.176232902683608],["ving",-11.177666674342195],["Mah",-11.177693720505438],["Kempen",-11.177795215313498],["studies",-11.178024063192762],["opname",-11.178045877072268],["reaguurders",-11.178784901152063],["uel",-11.179873786394733],["groenten",-11.179968691298876],["streng",-11.180275568871561],["platen",-11.180834266611372],["big",-11.18099814551533],["zelde",-11.181144962980238],["eck",-11.18115613348488],["cho",-11.181366078011017],["mac",-11.181676874904962],["ping",-11.18222203440859],["Valt",-11.182556689071786],["rado",-11.182816490895549],["rellen",-11.182977632587896],["kopje",-11.183327656831223],["spuit",-11.183918732674847],["stopte",-11.183947625404894],["strip",-11.183961364122842],["creatieve",-11.18426936043378],["Meerder",-11.184566602091305],["My",-11.184651949350465],["erachter",-11.184941320931191],["erland",-11.185267817620687],["woningbouw",-11.18677867273312],["kunstenaars",-11.18713248287134],["verdiende",-11.18716027382294],["bespreek",-11.187396931937476],["beheers",-11.187399197611883],["gemeenteraads",-11.187999903908464],["natie",-11.188648103909852],["motoren",-11.188753035898467],["medisch",-11.189178407817824],["plaatselijk",-11.189383044284934],["concre",-11.190504462179907],["handeld",-11.19069590674917],["Ya",-11.19105649646185],["bescherm",-11.191154305216083],["welvaart",-11.191940930354537],["belandde",-11.192033161608926],["epol",-11.192419563429597],["geten",-11.192783673812828],["tickets",-11.192846746510115],["buitenspel",-11.193084297539905],["prikk",-11.19374381795493],["dreven",-11.193893345023124],["Stop",-11.194215642684586],["rukt",-11.1948977188747],["Engel",-11.195481884256541],["excu",-11.195511916598285],["offer",-11.195886194038742],["viert",-11.196179813299263],["openlijk",-11.19621467025591],["boekje",-11.196523005087833],["ym",-11.197485781316452],["kuu",-11.197768194847582],["diepe",-11.19780157145437],["externe",-11.198602289811605],["besmette",-11.19945512777258],["pompen",-11.19989260810712],["present",-11.20053460049457],["back",-11.200716799191053],["kel",-11.20107933237006],["Marie",-11.201492631628668],["machts",-11.202578523067313],["stoot",-11.202784717755023],["schop",-11.202937852984773],["ëren",-11.203126236308256],["leraren",-11.203160005264811],["Dome",-11.203730398289],["Von",-11.203782069031117],["ER",-11.203995794203122],["koepel",-11.204179241260242],["bril",-11.204231698704348],["bood",-11.204336797857822],["verbazing",-11.204421557867356],["glazen",-11.204431219407603],["faillissement",-11.204431475481167],["symbool",-11.204431475922593],["Ecuador",-11.204431480675046],["frustratie",-11.20443150739512],["Ziggo",-11.204431535011732],["logistiek",-11.204431593453783],["cirkel",-11.20443162779487],["avontuur",-11.204431689589054],["Excels",-11.20443252889942],["attractie",-11.204433174974856],["NASA",-11.204436501312367],["Senegal",-11.204438770957173],["stimuleren",-11.204460448710812],["humanitair",-11.20446804689898],["chemisch",-11.204502326478265],["regisseur",-11.204536249552962],["examen",-11.204556274015125],["Prijs",-11.204565010047808],["comité",-11.204566195400155],["lengte",-11.20457128552562],["Golf",-11.204619832329925],["professor",-11.204620643568198],["gouverneur",-11.204628266031524],["strafrechtelijk",-11.20465525346025],["NFT",-11.204702924461618],["genaamd",-11.204740433442904],["McLa",-11.204860855873006],["Heijn",-11.204864297435904],["hardware",-11.204914015312266],["structureel",-11.204937649427869],["Vuel",-11.204972275682763],["Rabo",-11.205038073656507],["Sam",-11.205132341352474],["bezetting",-11.205137352079507],["bevestigde",-11.205181933459983],["groepje",-11.20529687490661],["plusser",-11.205312170627995],["gold",-11.20535666210499],["financiering",-11.20538395742133],["blokken",-11.205443865132574],["mbledo",-11.205879629470253],["nationaliteit",-11.205903527561949],["Eva",-11.205922821522506],["WO",-11.205944432013244],["Ji",-11.205976944767196],["midde",-11.206168918955832],["gracht",-11.2062085041269],["verlenging",-11.206238926219863],["bedden",-11.206366852842113],["doelwit",-11.206740655620434],["flessen",-11.206854779234382],["dwang",-11.206918634726488],["Sara",-11.20702192231817],["versloeg",-11.207045343517947],["ima",-11.20724107964708],["warming",-11.207508891660256],["mama",-11.207866843967814],["straal",-11.207954172822248],["zitter",-11.208077606797547],["gewisseld",-11.208247209926224],["intens",-11.208252597420211],["krediet",-11.208593272398769],["voorspellen",-11.208661700323448],["strooi",-11.208799152175018],["ire",-11.20889824781057],["Stree",-11.209401717868037],["chema",-11.209493800627879],["Beter",-11.209655684583225],["Tri",-11.20968424462407],["deskundigen",-11.210131808358987],["Minder",-11.210432923455116],["Sven",-11.210670006720061],["Duits",-11.210698162444846],["180",-11.210928421102064],["zaamheid",-11.211185543016754],["poets",-11.21143508652864],["besprek",-11.21147816949039],["Luik",-11.211760585426845],["ips",-11.211903378146118],["micro",-11.212943131898653],["ziel",-11.21324224854067],["Camp",-11.213311387957187],["plas",-11.213345182156026],["strijden",-11.213482478710802],["sticker",-11.213550151234104],["weeg",-11.213947277581745],["geschat",-11.215092542375869],["schijt",-11.21576349412989],["tijdig",-11.215998201425002],["geliefde",-11.216244655104267],["ering",-11.216287941340543],["handje",-11.21665700724946],["opgemerkt",-11.217060187512526],["levend",-11.2171813954248],["geklaag",-11.21723667658288],["process",-11.217452408344478],["bested",-11.218260422722139],["rnacht",-11.219110933453837],["bas",-11.219550988059385],["gescho",-11.219818818427473],["moeders",-11.21982131206172],["BV",-11.22025578742905],["Fries",-11.220807160859605],["verbeterd",-11.221415257139325],["ingesteld",-11.221944797002017],["82",-11.222694000951085],["duurzaamheid",-11.223086946738917],["sorry",-11.223095148008923],["Bob",-11.223726185420354],["favoriet",-11.223999182935943],["onverwachte",-11.224235209998938],["zevende",-11.22433497618712],["menig",-11.224613668320439],["gaard",-11.224632563506264],["Tel",-11.224839842557595],["stemde",-11.224880682050056],["kist",-11.224974687481389],["loods",-11.225281414864321],["!\"",-11.225547488489816],["SC",-11.22555482075666],["86",-11.225734340883292],["inzittende",-11.225933154781318],["uitzonderlijk",-11.226045587962723],["eindigen",-11.226759240482096],["RB",-11.226953899616442],["spring",-11.227347658351205],["mislukte",-11.227580025481391],["Nij",-11.227626245672115],["particuliere",-11.22795490587972],["Hal",-11.228308034266657],["verbaas",-11.228789541470167],["Kor",-11.22908221136958],["keel",-11.229918769076576],["handhave",-11.229999255760536],["voetbalclub",-11.23007559800955],["inter",-11.230239678404285],["talenten",-11.230620428347752],["91",-11.231205424237313],["doek",-11.231806197076988],["bloot",-11.231945993111012],["buien",-11.232151888538132],["low",-11.232385065522907],["tion",-11.232535943475474],["hub",-11.234298883433308],["vulling",-11.23458355532339],["schandaal",-11.235088378564711],["ker",-11.23591075372096],["ria",-11.236287716740781],["Lil",-11.236330418263607],["wolde",-11.236468307595239],["uitgebreide",-11.23657803958439],["cross",-11.23707241217811],["nadeel",-11.237596938361381],["waarschuwen",-11.23830573622047],["vorst",-11.23894794842582],["Thier",-11.23931757866855],["besparing",-11.239410598233995],["isering",-11.23943943037845],["krachtige",-11.239454713826008],["87",-11.239478046834057],["trekking",-11.23950989843964],["erkenning",-11.239653815119258],["muzika",-11.240021333206942],["stam",-11.240099532553556],["criminee",-11.240130337731921],["sessie",-11.24013213776518],["onference",-11.24014122707876],["therapie",-11.24014576326151],["verzuim",-11.24014576328507],["congres",-11.240145818910651],["business",-11.240146252960573],["Stream",-11.240147647125351],["reality",-11.240148817913774],["speech",-11.240149056466985],["versnelling",-11.240149353480849],["aanbeveling",-11.240153989597985],["bibliotheek",-11.24015559403185],["lunch",-11.240155955836695],["VTM",-11.240156824692157],["talkshow",-11.240158361415723],["Winterswijk",-11.24015900198409],["verdenking",-11.240166605837166],["evaluatie",-11.24017208856566],["publicatie",-11.240192567485744],["volstrekt",-11.240208085546056],["veiling",-11.240226568387714],["Familie",-11.24022922936795],["aardbeving",-11.240234917811634],["tests",-11.240295346754303],["radar",-11.240309995928824],["AL",-11.24031907781378],["Alpin",-11.240332972323099],["financier",-11.240356285539985],["Peet",-11.240367653864553],["Ryan",-11.24041606250881],["Richard",-11.240455666752332],["Ziekenhui",-11.240457841483282],["kostte",-11.240470454463146],["Rock",-11.240524292180808],["schorsing",-11.240536174388325],["werven",-11.240624618800588],["rivier",-11.24066960759746],["gezondheidszorg",-11.24069943999595],["expositie",-11.24098768681231],["gevierd",-11.241033890808582],["geproduceerd",-11.241119576984952],["revolutie",-11.241237024952904],["vervanging",-11.241277788493292],["Bakker",-11.241343816364743],["Janssen",-11.241390065833087],["automaa",-11.241628175447627],["VID",-11.241646131443897],["solidariteit",-11.241785957128045],["Meijer",-11.242153273554996],["lijsttrekker",-11.242359865502904],["zonde",-11.242575068307703],["paleis",-11.242716985429311],["Test",-11.242929128242556],["hernieuw",-11.243020799311783],["vlot",-11.243137709381688],["prikkel",-11.243231328482988],["Christen",-11.243631542943955],["ingeschakeld",-11.243704575107095],["badkamer",-11.243748159658233],["schaffe",-11.243826385620578],["Pé",-11.244006931568634],["bestur",-11.244162408489318],["genre",-11.244189507400625],["benoemd",-11.24434152341748],["jas",-11.244494999343637],["Bayer",-11.245145421304008],["Federal",-11.245365055697043],["Ur",-11.245392940836194],["feestelijk",-11.245517394186937],["MR",-11.24558505877373],["pure",-11.245715494707703],["col",-11.24630863462909],["rooster",-11.24756313802131],["racle",-11.247915474352244],["langdurige",-11.248271598118919],["weekeinde",-11.24838227204575],["schadelijke",-11.24956584376555],["verlengd",-11.250767279179081],["opstand",-11.25089630312602],["Haas",-11.251033922732647],["Hout",-11.251696766638727],["Hei",-11.251945471568904],["feite",-11.252413275622853],["kassa",-11.25248460147272],["TA",-11.252537511748788],["schakeling",-11.25268770110404],["bereikte",-11.25270441203248],["stoer",-11.252898702432296],["zakelijke",-11.25321353242597],["Limburgs",-11.253795094216198],["nagedacht",-11.255099287268582],["Vi",-11.255413352387366],["bouwt",-11.25560018078731],["kleed",-11.255735286997743],["download",-11.255988531035234],["''",-11.25602421159775],["gooit",-11.256385704277328],["gelanceerd",-11.256505832047985],["beloofd",-11.25766963068181],["Sams",-11.258114330449503],["amateur",-11.258348820113461],["tering",-11.258423580762134],["Gerrit",-11.258639917872618],["our",-11.259335983896358],["evolutie",-11.259363676228428],["haak",-11.259958222399181],["zwanger",-11.259972098914641],["arme",-11.260448989011682],["lezer",-11.260598636332592],["AH",-11.260963601239236],["Volt",-11.26115967774342],["miljardair",-11.261740139328857],["Just",-11.261768644129655],["eilanden",-11.262367943813542],["keeper",-11.262760121394727],["Natie",-11.262790890764414],["mé",-11.263350574359762],["stoom",-11.263432798256932],["aanvoer",-11.264044952464484],["89",-11.264214777576765],["verse",-11.264294688030313],["grootschalige",-11.264388178245527],["gebruikelijk",-11.264554434158525],["passie",-11.264573007052029],["Pol",-11.264967520699404],["verzekerd",-11.265032617159756],["03",-11.265349364331634],["roman",-11.26690046825468],["MH",-11.267147115172532],["kondig",-11.268030338805941],["Internationa",-11.268510514802795],["gekke",-11.268754371718947],["gif",-11.268911518695745],["bovenstaand",-11.269123735827128],["lampen",-11.26965462510915],["Peters",-11.269738158252853],["aannemer",-11.270163625043224],["belangstell",-11.270791807556932],["onschuldig",-11.271252745390846],["wachting",-11.271901157019405],["gedicht",-11.272200945795344],["voorziening",-11.27388736307081],["vliegt",-11.27478427294404],["koffer",-11.274846320694806],["verbrand",-11.274895856177144],["klem",-11.274901043084066],["Groene",-11.275702167113216],["zuiver",-11.27578965942395],["versoepel",-11.276031649909411],["zinnig",-11.27617760629715],["geslacht",-11.276414254415922],["Moeder",-11.27657629872901],["cash",-11.276637900145623],["depressie",-11.27697812125794],["conferentie",-11.277130596697102],["streven",-11.277175685747087],["—",-11.277182798232456],["Festival",-11.277182798600474],["Studio",-11.277182859415792],["Hongkong",-11.27718295460161],["personage",-11.27718295769665],["Milieu",-11.277183292674708],["boycot",-11.277183851511014],["glimlach",-11.277183895163365],["continent",-11.2771847254797],["comfortabel",-11.27719212486028],["privat",-11.277192696022924],["verdieping",-11.27719566113749],["Centrum",-11.277196742217738],["snoep",-11.277203932713007],["Oscar",-11.277206163398056],["moraal",-11.277231913106208],["eenmalig",-11.277264914890768],["vracht",-11.277273694820597],["hausse",-11.277356741876645],["ARN",-11.277484463281251],["geëist",-11.277523400467132],["geschrapt",-11.277573793014858],["Alex",-11.277617696000197],["haalbaar",-11.27763039187308],["Blind",-11.277642670407094],["uniform",-11.277723923912308],["borgh",-11.277731886951653],["Dick",-11.277801825045625],["Gerard",-11.27784966568246],["beoordeling",-11.277850855418741],["Gir",-11.278001048973262],["storten",-11.278110907312152],["kok",-11.278499289344389],["tra",-11.278676198259706],["HR",-11.27883381238545],["appel",-11.278891954786516],["blog",-11.278937646877742],["vastgelegd",-11.27898194782504],["bro",-11.279044591374728],["Kies",-11.27906533811313],["kool",-11.279075294656149],["Slot",-11.27908819945992],["Ouder",-11.279099124299044],["ghan",-11.279103083155649],["natuurgebied",-11.279191763382064],["dachten",-11.279251202189576],["CP",-11.279297230921166],["begrijpelijk",-11.279364811050034],["Rotterdammer",-11.279370304056725],["wielrenner",-11.279401021228036],["gedood",-11.279720947459333],["oordeelde",-11.280087493304915],["basisschool",-11.280214060102224],["fuck",-11.28035831521112],["Heer",-11.280504136821659],["PF",-11.280516096031239],["feitelijk",-11.280901157943246],["voudig",-11.281021642753618],["uitgezet",-11.281111445822871],["bla",-11.281516432230413],["lies",-11.281885200888873],["massale",-11.28189645419025],["European",-11.281910498346408],["kantoren",-11.281917274356479],["zig",-11.281969848570991],["zi",-11.28272207352064],["bestuurlijk",-11.283064135752584],["ondervind",-11.284905454905898],["vermist",-11.285100460274544],["eco",-11.285220559888433],["ezen",-11.285429699047244],["omring",-11.285616642748343],["Houd",-11.285843583148358],["torenho",-11.286521878339935],["wisseling",-11.287140813569465],["deeltjes",-11.287163893039677],["vernieuw",-11.287339997734634],["blond",-11.28742102928524],["Wijn",-11.28797560913117],["tekende",-11.288064925837013],["muts",-11.288327603001285],["Kost",-11.288741755271252],["mmy",-11.28898508085695],["plekje",-11.289105228831717],["cy",-11.289129408117272],["Ly",-11.289352940360157],["vecht",-11.289784073662375],["lenen",-11.290111304673484],["sparen",-11.29016999276736],["Marine",-11.290781158158888],["Theo",-11.29091801846607],["pikke",-11.29099861339513],["AF",-11.291074885980771],["verstopt",-11.29162048997375],["97",-11.291663950074696],["hoefde",-11.291680197626395],["act",-11.291733911387151],["ara",-11.292019491748741],["ddy",-11.292295333930777],["Ferr",-11.294528063355907],["grondig",-11.295026943990026],["kler",-11.295425596751791],["nier",-11.295497143620665],["secretaris",-11.295928140141573],["ä",-11.29674712513288],["Delft",-11.297001331160361],["uitstel",-11.297106844954307],["kleuter",-11.297717490322093],["Lee",-11.298008292469357],["wappie",-11.298093397589637],["oontje",-11.298179320521802],["Francisc",-11.298192545787186],["bewoner",-11.298218168139053],["inspiratie",-11.298387219741874],["Weg",-11.298879524258833],["invoering",-11.299163875916035],["opbouw",-11.299460208782165],["bedank",-11.300645228566],["Zu",-11.300953575824025],["train",-11.301079082028707],["klim",-11.301975229089255],["explosief",-11.302275528684056],["haken",-11.302436236150315],["dracht",-11.302873935563863],["vuil",-11.303864019087328],["bra",-11.303871487643327],["verplaatsing",-11.304128297250799],["ami",-11.304707338761073],["stom",-11.30477600198655],["zielig",-11.305279486893985],["Waal",-11.30532868952588],["Democrati",-11.305341934301214],["erkend",-11.305493835923512],["voorkom",-11.305551495214484],["Take",-11.305771284535354],["strategisch",-11.305871827301104],["wandel",-11.305926965487783],["Roy",-11.305966844512533],["bott",-11.306319486032958],["Westers",-11.30744457463888],["verf",-11.307459731757994],["begeleid",-11.30753299899245],["Burger",-11.308385162091033],["structuur",-11.308388875423447],["Mars",-11.308772934233183],["ill",-11.308929825842782],["regelgev",-11.309252726491497],["Laur",-11.309319755314599],["Wees",-11.309767106633355],["Ab",-11.310640952739593],["Hear",-11.310793247813086],["Hoek",-11.310804464853371],["opinie",-11.311702681829642],["beest",-11.31206147507493],["fris",-11.312131603889423],["May",-11.312512243248896],["minimum",-11.313954734180598],["kussen",-11.314158493346248],["schone",-11.314169060721005],["neutra",-11.314453762222795],["bui",-11.314466582350512],["heldere",-11.314618473664186],["laf",-11.314626683178124],["intensieve",-11.31462789514657],["VAR",-11.314772001006117],["structure",-11.315052105354729],["bezuinig",-11.315103001386747],["concentratie",-11.315140104101939],["corrupt",-11.315505919855564],["expliciet",-11.315644336696295],["Curaçao",-11.315644336697716],["parcours",-11.315644336801066],["artillerie",-11.315644337110042],["reputatie",-11.315644340412712],["populariteit",-11.31564434092886],["resulteer",-11.315644352639467],["Californi",-11.315644358025276],["waanzin",-11.315644657883484],["Zelenski",-11.315644703236792],["adviser",-11.315644743699986],["begraafplaats",-11.315645428184908],["Tokio",-11.315651891035213],["elektronisch",-11.315655480085221],["donatie",-11.315665896075728],["eenzijdig",-11.31566599059397],["Wageningen",-11.31567534033249],["sentiment",-11.315688917410963],["mentaliteit",-11.31569908759678],["renovatie",-11.315707380654635],["dialoog",-11.315714911760981],["Quick",-11.31571755679835],["display",-11.315749417158438],["functioneren",-11.315773640392502],["Russell",-11.315782975003616],["Depp",-11.315797397707339],["gemengd",-11.315799810766958],["Jones",-11.315810840101882],["regie",-11.315814889219574],["individueel",-11.315860344677851],["NRC",-11.315885477338107],["beleving",-11.316002617154746],["grappen",-11.3160349222696],["importeren",-11.316181784609022],["visum",-11.316353469392713],["talige",-11.316395356276423],["akpo",-11.31646604884338],["stilstand",-11.316559693635895],["vieze",-11.316569336645342],["paus",-11.316586764018638],["hypocriet",-11.316658508541245],["Walter",-11.316727023108102],["grafiek",-11.316811837803158],["item",-11.31687567077428],["groente",-11.316911966709178],["bezighoud",-11.31698787629931],["Blijf",-11.317385886808758],["persbericht",-11.317540727762463],["tablet",-11.317542285743738],["werf",-11.317792845586549],["Els",-11.317813466270854],["wachtwoord",-11.318207716249582],["Colleg",-11.318335713661284],["woestijn",-11.318440548328956],["overstroming",-11.31859256134569],["Duivels",-11.318867554230655],["anno",-11.319012515248014],["woonwijk",-11.31904001588576],["verspreiding",-11.31913399386063],["poten",-11.319296914612977],["truck",-11.319628856706911],["staart",-11.320093013387426],["Niels",-11.320300621756559],["Roemeni",-11.320491445188424],["beleids",-11.320611592453435],["Ex",-11.320813549266637],["perk",-11.320852454170302],["verbruikt",-11.321166671687592],["wetsvoorstel",-11.321545122980318],["pr",-11.321758726386353],["snijd",-11.32180807189717],["boks",-11.322101355960758],["Brand",-11.322230554380713],["benadrukte",-11.322233566604169],["rennen",-11.322283834169172],["verliep",-11.322365048286942],["eerde",-11.322439578308309],["OK",-11.322520823388837],["vriendelijke",-11.323406800299768],["wille",-11.323481762877243],["spin",-11.324003732442241],["rang",-11.3245022633084],["Volod",-11.324552119947043],["onderuit",-11.324878693761326],["meters",-11.325008182444739],["ondersteund",-11.325670186407859],["beweer",-11.326259611304542],["RO",-11.326582648038874],["letje",-11.327463901800993],["Val",-11.327686144919943],["weergave",-11.328002586303228],["bezet",-11.328214242280106],["stokje",-11.328545322169413],["fiscal",-11.32906151441349],["verdienmodel",-11.329843126617275],["VW",-11.329849887611829],["roet",-11.330047657405503],["stikke",-11.330130795857558],["houders",-11.330945256322273],["Light",-11.331484081709714],["semi",-11.331528872691946],["efficiënt",-11.331585992229353],["balk",-11.331959336546547],["nvesteerd",-11.332666771468283],["maten",-11.332853705135502],["ologie",-11.333485505318619],["ago",-11.333585025904599],["Hi",-11.334410213422888],["levenslang",-11.334740681838296],["uiterste",-11.334809338209226],["gemeenschappe",-11.335102445129333],["wekken",-11.335542310144577],["sluitend",-11.33591077633968],["grootte",-11.336057915581353],["Fra",-11.336108719307619],["dorps",-11.336133485584064],["Demir",-11.3374024784499],["chat",-11.337718540380344],["mondkapje",-11.33794066189173],["Veiligheid",-11.338008654025032],["Bor",-11.338703528853385],["knappe",-11.33884629140146],["innen",-11.33896600200501],["Va",-11.339788125845002],["sub",-11.339835000380573],["hype",-11.341055203593491],["Sander",-11.341268605072035],["Arm",-11.342103167744606],["JA",-11.343415707445969],["helden",-11.343457515758809],["Plas",-11.343485059885952],["verwerken",-11.343558662753544],["Bro",-11.344231817697624],["klik",-11.344680650649106],["heilig",-11.345322128956594],["hecht",-11.345360710636939],["schapen",-11.345760434943122],["EO",-11.346797780902097],["hack",-11.347201552551503],["lente",-11.34731390395056],["bb",-11.34738843080386],["stroming",-11.347530232195627],["boss",-11.347878674826179],["fietspad",-11.348243655956171],["beta",-11.34826889769715],["ashing",-11.348468273754863],["83",-11.348686836767595],["ego",-11.349255347289928],["lie",-11.349554669298],["rad",-11.349982940969237],["molen",-11.350226724842916],["Pal",-11.350269936080911],["inlever",-11.350327627617457],["deugen",-11.350335030540835],["reet",-11.351204014495458],["katholieke",-11.351495017125089],["í",-11.3516005664336],["spaar",-11.351861462913726],["zuidelijke",-11.351886654529874],["puin",-11.352746183154174],["Conn",-11.35303178522286],["briefje",-11.35369238950194],["Wale",-11.354033052556607],["09",-11.354047994027818],["verkracht",-11.354118277195797],["01",-11.354201084454111],["offensie",-11.354290595744024],["drempel",-11.354475591338733],["gewaardeerd",-11.354557340506169],["ola",-11.354687524558186],["geduld",-11.354920479668829],["Voetbal",-11.355097642409863],["poll",-11.355470514370099],["Haarlem",-11.355563996094666],["masker",-11.355630336688726],["É",-11.355644336692889],["Kardashian",-11.3556443366941],["demonstreren",-11.355644336708304],["motivatie",-11.35564433676859],["suggestie",-11.355644356570838],["vreugde",-11.355644365773939],["geblesseerd",-11.355644472316255],["America",-11.355644496174513],["asfalt",-11.355644750235104],["herhaling",-11.355644760852602],["Bitcoin",-11.355644832401605],["criteri",-11.355645009592203],["scène",-11.35565113304497],["cannabis",-11.35566087832024],["Belarus",-11.355676614266343],["Hoofd",-11.355683239289071],["Leeuwarde",-11.355713827382566],["Randstad",-11.355771216786726],["imago",-11.35578043098984],["02",-11.35579416649679],["macro",-11.355811266836538],["mobiliteit",-11.355811931940643],["Stijn",-11.355869876868411],["Lely",-11.355870372483768],["handtekening",-11.355884269479725],["Sky",-11.355891422202507],["platteland",-11.355917307198247],["kermis",-11.35591745413182],["willekeurig",-11.356002216876885],["hypotheekrente",-11.356064330960278],["hang",-11.356146600467532],["Bedrijven",-11.356156140937495],["Tiel",-11.356187098343119],["brandstoffen",-11.35625343048248],["tactiek",-11.356272952174054],["veroordeling",-11.356334781960147],["technologisch",-11.356438923851863],["regerings",-11.35675906347409],["full",-11.356934516671137],["symbolisch",-11.356987002206642],["mannelijk",-11.357201048784312],["tankstation",-11.357260245500424],["honderdduizend",-11.35731878989391],["kernenergie",-11.357343338250246],["Veiligheids",-11.35744816611948],["stempel",-11.357676027830363],["blank",-11.357899816937131],["Pay",-11.358101598562705],["bankier",-11.358105865954217],["rus",-11.35853722530938],["omwonende",-11.358609251623651],["parlementair",-11.359129754644702],["intern",-11.359983376783694],["Flori",-11.360096662831042],["bloem",-11.360132881239668],["haren",-11.360615536491643],["No",-11.361278782158452],["stelen",-11.361441883181726],["Haze",-11.361512645879507],["zwaai",-11.36155093978208],["oogst",-11.3619885163541],["FB",-11.36214228190289],["part",-11.363214253012138],["Ligt",-11.36354535278485],["Brun",-11.363778720249822],["erkende",-11.363856349781484],["getuig",-11.364255942550013],["gor",-11.36436472085397],["aanvang",-11.364431795812255],["miste",-11.364773883595674],["erzijds",-11.365137805955547],["aftrap",-11.365233317092718],["houdbaar",-11.366111707356438],["bezette",-11.366169919989062],["aflopen",-11.366628374228334],["kwa",-11.367343814609894],["waaien",-11.368209196655354],["eenvoudige",-11.368903251635041],["PN",-11.369123104543373],["age",-11.369668902870206],["tri",-11.3697064734603],["Leef",-11.370021460045502],["verwarmen",-11.37033642753751],["onbe",-11.370358783073744],["toeren",-11.370760421761567],["Home",-11.371156990892334],["schrijf",-11.37152912591089],["nieuwbouw",-11.372418915357814],["invoer",-11.372803362740084],["betrouwba",-11.37364598721615],["bez",-11.373683793745892],["tisch",-11.374120128344131],["Game",-11.37428449846386],["Agent",-11.37444257093505],["cyber",-11.375232237312128],["strijk",-11.375585755451834],["You",-11.37574368798005],["my",-11.375906612619618],["lamp",-11.376263404263604],["juichen",-11.376691481702437],["verover",-11.376696757445904],["IND",-11.376743842479874],["diploma",-11.376834585150366],["recreatie",-11.378043747525663],["toets",-11.378077362189094],["verrassen",-11.379240978234524],["Luka",-11.379383736620275],["rac",-11.37941170905586],["tassen",-11.379433420513985],["immer",-11.379537098419581],["Jaren",-11.379565242038186],["plaatjes",-11.379570667064527],["praatje",-11.37964395472329],["ES",-11.379736442841406],["herdenking",-11.379896055698332],["schudd",-11.380226444559693],["clubje",-11.380490054717074],["schatte",-11.381343024260168],["schutter",-11.38137200886414],["besteld",-11.381400896242237],["Zoek",-11.382554309254818],["huurders",-11.38271973631658],["activist",-11.383148763692644],["OP",-11.383170761612297],["deskundige",-11.383283116209853],["schuur",-11.383906720480073],["Lange",-11.385440850790154],["cast",-11.385658348601504],["DC",-11.386006323138213],["Lier",-11.386103354119147],["Surinamer",-11.386521815813373],["Pat",-11.387142821124185],["lader",-11.387251880787343],["jonger",-11.387323321695117],["mails",-11.387390703098475],["overduidelijk",-11.387758052053115],["langdurig",-11.387885879911353],["oorlogsmisdad",-11.388372609472443],["ric",-11.388411482742757],["kas",-11.388640532225114],["Nova",-11.388844672525476],["allereerst",-11.390162172182103],["gevoeld",-11.390362298547647],["schoen",-11.390374554517255],["zang",-11.390438204421535],["Saoedi",-11.390687444773679],["Ram",-11.390789664384359],["Recht",-11.39090175323341],["Vera",-11.391305878367815],["gooi",-11.391534635040083],["schal",-11.392658801039522],["zaam",-11.393341187166097],["talen",-11.393400872319674],["zonnige",-11.393486511270627],["vergoed",-11.395259352398112],["Lie",-11.395259588696979],["besliste",-11.395530632523421],["bevel",-11.395662443380536],["EA",-11.39654829117092],["danig",-11.396626583581988],["soep",-11.396661827626748],["klets",-11.396735421050858],["presentat",-11.396962702999968],["soepel",-11.397067949015497],["discipline",-11.397311003369522],["Gündo",-11.39731100338976],["Mohammed",-11.397311003866704],["concurreren",-11.397311004959011],["arrogant",-11.39731101060971],["confrontatie",-11.397311012604689],["Rafael",-11.397311130088369],["oligarch",-11.397311463326112],["professional",-11.397311486535607],["bubbel",-11.397311806692382],["apenpokken",-11.397313065888552],["werkloosheid",-11.39731411422672],["Dutch",-11.397315146980667],["Argentijn",-11.39731535497361],["hekken",-11.397320166579986],["down",-11.397321361302797],["tractor",-11.397321621428711],["Management",-11.3973218768746],["blunder",-11.397322561690896],["flexibel",-11.397332896952326],["referendum",-11.397339697511798],["verschijnsel",-11.397359155401823],["registratie",-11.39736553678312],["mondmasker",-11.397392965231125],["federatie",-11.397426843460302],["Jonas",-11.397475573234464],["ketting",-11.39751423314961],["intentie",-11.397532388019153],["TB",-11.397542975319217],["beloning",-11.397596736343427],["afschaff",-11.397600938714092],["gem",-11.397634302901817],["UMC",-11.397637917368282],["ruimtevaart",-11.397651644681096],["schommel",-11.397656165295018],["smerig",-11.397666858244955],["Ukraine",-11.397691383386835],["exclusief",-11.397743022931866],["schijf",-11.397768183620304],["verslagen",-11.397785662048717],["beweeg",-11.397831910441345],["lancering",-11.397891013836942],["Aalsmeer",-11.397958877060839],["Volgend",-11.39818631143432],["wachtrij",-11.398202187656425],["cruise",-11.398353449822803],["rig",-11.398559646402285],["steekpartij",-11.39859215498385],["aardappel",-11.398789799687462],["wand",-11.39896886308676],["Gerw",-11.399024205697968],["natte",-11.399049948781407],["parkeerplaats",-11.39916239991662],["át",-11.399251498311884],["rolstoel",-11.39927355565765],["kip",-11.399301309388928],["Strak",-11.39939154683807],["(!)",-11.399696485477502],["riskeer",-11.399768016777795],["misdaad",-11.399800517868483],["campus",-11.399917387908463],["woordvoer",-11.399978986334768],["bonden",-11.400180315795769],["twitter",-11.400213876714238],["tijdstip",-11.400466178411095],["psycho",-11.401117386109378],["93",-11.401141030670585],["mund",-11.401751452578038],["ritme",-11.401848265712257],["ac",-11.402038658474213],["voornaam",-11.40207681640872],["Bond",-11.402091883377349],["verzeker",-11.402409877359686],["verhoogde",-11.402427394252278],["schreeuw",-11.402705138317405],["legende",-11.402740231019152],["menu",-11.402827469269294],["74",-11.402969325081502],["strook",-11.403159106147285],["Braziliaans",-11.403357140468946],["werkers",-11.403646432212405],["sukkel",-11.403671407159928],["landgenote",-11.403863645300365],["analist",-11.40387344181519],["document",-11.404121000025107],["bewegingen",-11.404183420145284],["Blijk",-11.404194639197884],["afkomst",-11.404623428195984],["Heist",-11.404692683074927],["Dekker",-11.405068324551822],["modern",-11.405237289308143],["binnenlands",-11.405331147437863],["anne",-11.405342662444852],["intensie",-11.405457317563148],["camper",-11.405503610482294],["uitkom",-11.405625911173193],["boei",-11.405722566109867],["mid",-11.405995111849151],["koor",-11.406366579437762],["master",-11.407105373318032],["uitbrak",-11.40729228417609],["Pelo",-11.407546710809974],["egers",-11.40791541875117],["boy",-11.408340542577905],["Hey",-11.408354104104665],["Israëlisch",-11.408612796818849],["iloot",-11.408925098091604],["ness",-11.408975727152141],["Oss",-11.409440228084168],["Nor",-11.40947997228866],["Kat",-11.410035887073878],["falen",-11.410048056230188],["betalings",-11.410526825212802],["zakelijk",-11.410731543081134],["trainers",-11.410926035474644],["ON",-11.411086830056702],["ici",-11.411139692051469],["Pap",-11.411627058079985],["particulier",-11.411767597242463],["EL",-11.411786753765671],["IA",-11.412090515913773],["ierre",-11.41224725614428],["musical",-11.41267293152378],["Consumenten",-11.412678466152133],["Pan",-11.412726628812836],["kerel",-11.413740026373311],["Bram",-11.413762525924907],["binden",-11.413950282936165],["VO",-11.414141100878972],["NM",-11.414557744193374],["troost",-11.41458211916232],["Mc",-11.414765837257749],["Roma",-11.414790861546386],["All",-11.414804574474674],["gebel",-11.415287721518599],["presenteerde",-11.415500060255503],["klopte",-11.416643422479694],["wolken",-11.416854307401989],["oefen",-11.417878026494327],["sius",-11.41788027968414],["uijs",-11.41801622500877],["behal",-11.418535204926464],["pol",-11.418815368993496],["SD",-11.419071540432824],["pijl",-11.419692646015992],["voegde",-11.420418156856062],["05",-11.420602949431267],["cup",-11.420649722225395],["races",-11.420816616876065],["Ieder",-11.420845846871183],["opletten",-11.421028134982729],["boten",-11.421189462333468],["Wever",-11.421793342861429],["bootje",-11.422936282217876],["HP",-11.42346906285874],["cancel",-11.423657735549437],["oever",-11.424113821583745],["ell",-11.424305597628795],["interactie",-11.424916132386379],["kraam",-11.425113965285162],["draaide",-11.425841581183118],["pap",-11.426022159129124],["sterf",-11.426095339830683],["ngo",-11.42662313541025],["Tan",-11.427220613816168],["enburg",-11.42808533754437],["kwalijk",-11.428671230094999],["Nada",-11.42871700109488],["Maz",-11.430009171664201],["trip",-11.430810449420894],["dramatisch",-11.43099667103495],["jongeman",-11.431563397495019],["lease",-11.431778598145593],["order",-11.432370030743279],["ica",-11.432741680010487],["bereken",-11.432823490127937],["nipt",-11.432846382469137],["tekent",-11.43315677230348],["minderjarige",-11.433396717977146],["kiezer",-11.433472681269304],["WA",-11.43450702909928],["Out",-11.435363907041571],["Kenne",-11.435390410121416],["gewenst",-11.43542712330504],["Kerst",-11.435907404267036],["bor",-11.437755872981137],["begeleiden",-11.438039322131493],["gigant",-11.438243449247746],["slechtste",-11.438313133128466],["gehoor",-11.438406660827239],["noten",-11.438454706737472],["racist",-11.438876247328121],["friet",-11.439437746827924],["Hein",-11.439754800875095],["smokkel",-11.440612702553386],["dictat",-11.440702662391454],["Heuvel",-11.440753580850464],["complot",-11.440761324230238],["jubileum",-11.440789264248172],["Luxemburg",-11.440789264428536],["diagnose",-11.440789264766922],["marathon",-11.44078939064135],["provider",-11.440789446550847],["impuls",-11.44078978356395],["absurd",-11.44078994284354],["licentie",-11.4407932906783],["toetreding",-11.440793698706303],["overtuiging",-11.440797477281079],["korps",-11.440798429917463],["kloof",-11.440804950165587],["bombardement",-11.440808363395007],["Autoblog",-11.440814386946606],["Theater",-11.440822452707039],["protocol",-11.44082794747083],["mededeling",-11.440829316339322],["Probeer",-11.440842547952416],["aanklager",-11.440847523979885],["applaus",-11.440853972929514],["correspondent",-11.44085435176539],["zuurstof",-11.440861840467852],["ay",-11.44086466820831],["musea",-11.440881615258496],["Gelre",-11.440882222871956],["Broek",-11.440896204596598],["Nijkerk",-11.440908876547436],["Station",-11.44092150148625],["kolonial",-11.440937943710896],["insecten",-11.440945694902748],["Suzan",-11.440956707754534],["ongelooflijk",-11.440974003847982],["Music",-11.441039077812443],["louter",-11.441059549722297],["gewijzigd",-11.441092625727594],["loterij",-11.441093701820982],["Kortrijk",-11.44120142859914],["leefde",-11.441229382687201],["tennisser",-11.441322875181918],["onacceptabel",-11.441334749629144],["schepp",-11.441379224725827],["Noordzee",-11.441381260036255],["Bommel",-11.441438375567234],["billen",-11.4414767257205],["voorafgaand",-11.441484137812697],["Mechelse",-11.441505641376008],["tijdschrift",-11.441557637481726],["verborg",-11.441629310663952],["merendeel",-11.441700056451175],["webwinkel",-11.441749055444081],["machtig",-11.442040978349898],["benoeming",-11.442306864541324],["wereldbeker",-11.442330610187016],["kolen",-11.442436995780309],["fluit",-11.442541529236903],["Direct",-11.442649294287996],["fraaie",-11.442692687946163],["Kok",-11.443131520562607],["07",-11.443193211991218],["communistisch",-11.443286917619279],["gestoord",-11.443338873861657],["able",-11.443454140236462],["Klaas",-11.443886973011828],["anderhalve",-11.443997258924757],["gewapend",-11.444091870482463],["geë",-11.44436127064369],["soldaat",-11.444362444427362],["genez",-11.444604897357719],["overweeg",-11.444721163577949],["Landelijk",-11.44485855641095],["Australia",-11.445053384738573],["schijnen",-11.445419358916938],["Reken",-11.44557044045008],["Snap",-11.445813478898117],["ooth",-11.445881163131011],["zoet",-11.446093955951895],["thermo",-11.446278127364598],["oot",-11.446750963142657],["Wacht",-11.447014315941978],["CR",-11.447051704558397],["vuren",-11.447112010811967],["Lucas",-11.447518553483674],["burn",-11.447663714691965],["ties",-11.44769289453512],["uff",-11.448038043773693],["kunstmatig",-11.44883736803658],["Thai",-11.448911545707464],["roe",-11.448929474819217],["havens",-11.448965685658033],["menings",-11.44979200541914],["efficiënter",-11.450059936469957],["duct",-11.450169906205046],["heftig",-11.450188708442909],["veiliger",-11.450335413757252],["onveilige",-11.451010225831313],["zelfmoord",-11.45106984324186],["Stalin",-11.451375613213283],["piloten",-11.451763301540929],["Vega",-11.451783176016441],["asso",-11.451793029536702],["aanklacht",-11.45180265582821],["tekening",-11.451831343598663],["getal",-11.452574547798607],["rijder",-11.452652483639229],["Snel",-11.452820615684711],["overschot",-11.453101255618206],["bert",-11.45323774426951],["iteiten",-11.453406394788718],["Leg",-11.453738171400149],["ick",-11.454188548662966],["ongelukk",-11.454921282152965],["eeuwen",-11.455299541887038],["CU",-11.455302109572486],["drankje",-11.45581862592765],["bijbehorend",-11.455819154508962],["beloofde",-11.456190505708035],["ovic",-11.4564685349652],["vasthouden",-11.456724114360075],["Ci",-11.45679293201175],["TP",-11.456965771108202],["Pim",-11.457039862773911],["controleer",-11.457077163911675],["mislukt",-11.457325421728852],["ontwor",-11.457339791638471],["Gre",-11.457927401335997],["UW",-11.45811378513265],["korter",-11.458178253160234],["reus",-11.459703618056187],["Uw",-11.45975585087975],["Paris",-11.45998146221845],["Sea",-11.46057514189382],["brok",-11.460727509561153],["studeren",-11.460927875845035],["pols",-11.461176923083519],["pool",-11.461328238729855],["zakte",-11.461406346017716],["bevrijd",-11.461451653518516],["essentie",-11.462625651988706],["luik",-11.462844892545434],["VU",
[...]
