{"version":"1.0","truncation":null,"padding":null,"added_tokens":[{"id":0,"special":true,"content":"<UNK>","single_word":false,"lstrip":false,"rstrip":false,"normalized":false},{"id":1,"special":true,"content":"<SEP>","single_word":false,"lstrip":false,"rstrip":false,"normalized":false},{"id":2,"special":true,"content":"<MASK>","single_word":false,"lstrip":false,"rstrip":false,"normalized":false},{"id":3,"special":true,"content":"<CLS>","single_word":false,"lstrip":false,"rstrip":false,"normalized":false}],"normalizer":null,"pre_tokenizer":{"type":"Whitespace"},"post_processor":null,"decoder":null,"model":{"type":"Unigram","unk_id":0,"vocab":[["<UNK>",0.0],["<SEP>",0.0],["<MASK>",0.0],["<CLS>",0.0],["s",-2.6906708402447794],["de",-3.3649632809738677],[".",-3.402114813008284],[",",-3.438440365920407],["e",-3.562550007368463],["a",-3.8831842211108896],["en",-4.129773383326352],["t",-4.192973925845209],["la",-4.280827135479871],["d",-4.4731244712888145],["’",-4.626221364686801],["the",-4.691741680127768],["y",-4.716499814625571],["n",-4.807705410217528],["que",-4.82767204937859],["in",-4.919279819484327],["el",-5.073075406839944],["l",-5.095068109266506],["to",-5.114180021773489],["-",-5.170628478268405],["le",-5.295926669845539],["un",-5.302130326750804],["o",-5.306772728279579],["of",-5.331131616520905],["and",-5.396172205366518],["on",-5.3963972046937325],["'",-5.403794322078749],["is",-5.529384114974443],["à",-5.583579074757067],["van",-5.6787639249071695],["u",-5.730113216215928],["het",-5.790381825947408],["les",-5.80916968329301],["los",-5.825146958732416],["een",-5.827863228664228],["ing",-5.839106949379424],["\"",-5.852413040029852],["i",-5.920801803827278],["“",-5.939513233495372],["al",-6.000061614461957],["ó",-6.0196234664517],["est",-6.035223238224713],["du",-6.0442893758841905],["er",-6.065764838473546],["del",-6.117286945003251],["con",-6.1288635424297215],["dat",-6.179269551811949],["ción",-6.20334251429021],["(",-6.245555108788125],["op",-6.254107677845482],["no",-6.264724649516548],["por",-6.286557998879207],["for",-6.294237080261359],["that",-6.302211477631829],["para",-6.3446469918125015],["be",-6.345498486730149],["A",-6.353152539065551],[":",-6.355920166140855],["ly",-6.383037389262819],["De",-6.385575776738179],["une",-6.38657253454415],["pour",-6.391593493468928],["La",-6.404596835740383],["r",-6.4078007510852775],["una",-6.443972832019526],["The",-6.457252170796865],["was",-6.475378750006852],["it",-6.507025336759963],["qui",-6.549855662778251],["I",-6.582978423443624],["dans",-6.588695425947643],["with",-6.595345663813918],["je",-6.602978507320991],["voor",-6.616921258273372],["met",-6.619914677079606],["au",-6.626474397050602],["«",-6.6351584784120305],["sur",-6.664758479355248],["zijn",-6.698569332424986],["die",-6.703912956018897],["ce",-6.704560824558582],["niet",-6.7162765622891385],["lo",-6.723552100195599],["par",-6.7242790652772],["pas",-6.743694347519977],["il",-6.747149139753413],["las",-6.74898209966849],["En",-6.755508716451274],[")",-6.766647764696366],["C",-6.789690918603553],["El",-6.807704527492721],["om",-6.815306347562419],["ment",-6.837932924339151],["an",-6.856344771274895],["re",-6.893972896810354],["Le",-6.899436894403875],["ha",-6.906745565765965],["é",-6.919078285106462],["m",-6.930315289328611],["más",-6.93727323221443],["we",-6.947797215956266],["are",-6.953291554591017],["he",-6.981822012990161],["aan",-6.984813142774312],["c",-6.9882382585710605],["?",-6.988310590263994],["have",-7.011905515024081],["said",-7.054233783553395],["ont",-7.071010585179327],["plus",-7.0764164612830545],["over",-7.107441116874529],["son",-7.115991819506441],["ook",-7.149005566076994],["L",-7.151307174082788],["S",-7.155206867574648],["como",-7.174290699858766],["from",-7.186868703370678],["me",-7.18902795093558],["qu",-7.191206567999187],["by",-7.198575105306707],["19",-7.200538129201146],["has",-7.200596516851762],["aux",-7.215502024115972],["1",-7.218765965832938],["f",-7.222558701730733],["z",-7.2262122245656],["”",-7.230748397594443],["will",-7.251481244996709],["avec",-7.251546774999149],["or",-7.266509055911044],["bij",-7.26798651948128],["mente",-7.269944823719278],["maar",-7.2714990753449555],["20",-7.284684551989351],["ze",-7.298793654382893],["not",-7.305212447053954],["uit",-7.3235244902007555],["été",-7.3306912829195205],["p",-7.335623434368646],["dan",-7.374559974837016],["In",-7.376692601094467],["had",-7.378526754474223],["this",-7.395413604161391],["2",-7.41252306687292],["%",-7.4140613450055834],["Het",-7.438161596810064],["ik",-7.440452577459254],["his",-7.443611785461165],["nog",-7.444043385386783],["E",-7.448532580275927],["‘",-7.455724058489279],["este",-7.485410443031149],["h",-7.4932864375824515],["but",-7.4993077733025135],["you",-7.499878744571554],[".”",-7.500775903432167],["ent",-7.518145138104154],["”,",-7.522356006080862],["sus",-7.529409702757379],["entre",-7.548954036173173],["their",-7.551956025092128],["door",-7.563157244605618],["out",-7.56361615205938],["zo",-7.586495615261677],["als",-7.590658454882455],["can",-7.59160888085497],["»",-7.592774594366018],["her",-7.611616922709462],["wel",-7.618656270792231],["naar",-7.623496055677499],["who",-7.639780836688111],["ión",-7.6440830252031855],["»,",-7.646467562017188],["sont",-7.646689580444628],["3",-7.649099581569443],["Il",-7.655977078786057],["heeft",-7.656959410356206],["g",-7.671396043252084],["ou",-7.67428372261787],["mi",-7.678981442604451],["T",-7.680453283605125],["5",-7.688183665991307],["x",-7.7123674873394545],["ciones",-7.714762142173484],["Les",-7.714790357781299],["ge",-7.718064723347531],["up",-7.720721979200549],["been",-7.733720204130101],["D",-7.736484441231076],["M",-7.739255208515283],["We",-7.73956262301861],["000",-7.739908300315715],["all",-7.746540121557304],["they",-7.75477156953192],["dit",-7.7571254964603416],["4",-7.760214296803092],["fue",-7.7612042721868395],["more",-7.771474164997221],["were",-7.776943403376716],["hij",-7.791866044729062],["ver",-7.7934718472358036],["cette",-7.798697959396897],["meer",-7.804398153702298],["mais",-7.812841229055213],["fait",-7.814662737601552],[",”",-7.827044590486862],["mos",-7.83075476243668],["k",-7.832244152815255],["étai",-7.841701442179177],["hebben",-7.850957266666681],[").",-7.852921988016215],["one",-7.855743111634148],["moet",-7.866158152758922],["kan",-7.882966839016063],["about",-7.883676158721762],["pero",-7.88373972802585],["people",-7.884424127577283],["also",-7.888373459605571],["man",-7.899580887900962],["word",-7.905451439061823],["tout",-7.908933523444633],["bien",-7.910725767735684],["worden",-7.9125869226916254],["It",-7.913824270743724],["time",-7.921308704596591],["jaar",-7.921325447095914],["años",-7.922847227433726],["$",-7.931585494142437],["dos",-7.938399271573315],["6",-7.943588344483189],["10",-7.956673038339705],["esta",-7.9637833176953645],["puis",-7.97110191192543],["”.",-7.9729428397071676],["être",-7.978480253301894],["han",-7.980714179227727],["which",-7.983115206333659],["wat",-7.98365007834912],["nous",-7.993773413254193],["P",-8.003674948699233],["He",-8.00396235029594],["también",-8.008208322220936],["elle",-8.008509438505202],["On",-8.012180646193045],["\",",-8.01371526070383],["está",-8.014355945097975],["leur",-8.016483002998037],["B",-8.017648774731576],["No",-8.019130345980155],["Un",-8.032465612881492],["tiene",-8.035632273717898],["Dat",-8.039366716455703],["va",-8.042045960639909],["like",-8.043353289168316],["–",-8.043635267428586],["waar",-8.044693327825575],["year",-8.049782093808524],["deux",-8.051509529398547],["even",-8.05641567903778],["Je",-8.066759919210117],["),",-8.072247997608493],["Ik",-8.076932960688174],["would",-8.08118736555339],["sobre",-8.083402205218826],["ndo",-8.084969393010145],["j",-8.089054801290276],["Los",-8.090977084013675],["/",-8.094000746011877],["…",-8.096576900177087],["2022",-8.097423713478502],["día",-8.097601493972515],["ón",-8.103643567155563],["autre",-8.108623518030265],["même",-8.108923731358828],["geen",-8.111313025983366],["new",-8.11194957266343],["our",-8.112002811849914],["avait",-8.125558047247967],["ve",-8.131031738384179],["8",-8.136186717619674],["comme",-8.142422619834067],["lui",-8.144585263759577],["F",-8.158371167399947],[";",-8.15881134676156],["O",-8.159505575881191],["7",-8.168003220219397],["aussi",-8.172510205086608],["vous",-8.173076474543931],["N",-8.173129082756619],["when",-8.178153086217796],["v",-8.178619945216877],["zich",-8.183958858603745],["other",-8.18450740286911],["ies",-8.187425432460657],["after",-8.188539956167872],["fin",-8.192047432820459],["werd",-8.194773083850414],["—",-8.213369262972844],["cause",-8.217031697076177],["ant",-8.222422557597724],["day",-8.222580812662658],["kunnen",-8.233140209105397],["place",-8.234936470011448],["todo",-8.235001069764726],["puede",-8.237894403998125],["30",-8.242289990393964],["ans",-8.244273359189624],["9",-8.246794169151745],["week",-8.247232841787675],["if",-8.248938795946788],["there",-8.249982094052182],["per",-8.24999510405865],["faire",-8.251442872093413],["Si",-8.259907377905972],["what",-8.260975531795578],["Y",-8.264156167733692],["just",-8.265160211443366],["2020",-8.267387236574063],["veel",-8.26787107276401],["daar",-8.269556444227467],["parte",-8.26998001488321],["she",-8.27251341780835],["après",-8.275423869594183],["muy",-8.280325238250876],["some",-8.291175704646243],["hun",-8.29392153140374],["!",-8.29741615679557],["part",-8.299693987943575],["than",-8.300362124675274],["0",-8.301529864212943],["país",-8.30269736639185],["».",-8.309924938665358],["Al",-8.31519900794326],["Maar",-8.324150170350592],["año",-8.324295758857321],["année",-8.327905793190498],["gaat",-8.329502439998441],["gaan",-8.331310250016084],["G",-8.334422297296742],["point",-8.335825991006551],["eux",-8.337166193561279],["avoir",-8.339312775461028],["mensen",-8.34014035571681],["now",-8.342337094631695],["ando",-8.343970682788605],["U",-8.351002994118236],["hasta",-8.356150275943659],["them",-8.357818691373446],["rès",-8.360939847672437],["Por",-8.361379230224504],["get",-8.365100407896069],["first",-8.366640892126902],["b",-8.372612881809859],["onder",-8.372799443354054],["R",-8.37732390889878],["zou",-8.377977233143476],["two",-8.381948857323117],["15",-8.382002990462137],["its",-8.38218475129889],["fois",-8.39190663287815],["plan",-8.39253980620332],["public",-8.397729295359788],["2021",-8.399620143780805],["weer",-8.401608202990898],["deze",-8.407953608951281],["hay",-8.408924569749196],["want",-8.40899810878189],["how",-8.409502396892723],["desde",-8.413138687420856],["million",-8.414353588802463],["my",-8.414904493881453],["tegen",-8.41964553063883],["J",-8.421402730016585],["oit",-8.424410654600091],["ux",-8.425505157746631],["Se",-8.427229430914986],["17",-8.429907292499708],["moment",-8.436120182349393],["12",-8.442859755927193],["personas",-8.44390471555916],["16",-8.455401536447475],["cuando",-8.45695326962202],["him",-8.459358480710094],["back",-8.461370359130193],["donde",-8.469675366738041],["11",-8.473496018466587],["durant",-8.474970495269243],["go",-8.477881070900315],["contre",-8.507560835043773],["Een",-8.507765401872938],["This",-8.510749098211603],["lors",-8.51153157605971],["pays",-8.515136505866856],["haar",-8.51864240873731],["Pour",-8.519616717440492],["state",-8.520046694915354],["long",-8.521749513462584],["most",-8.522936571445234],["your",-8.525175714444941],["ía",-8.526950382619448],["But",-8.527948500246342],["nos",-8.529499637486502],["caso",-8.529928839748486],["24",-8.536367033400815],["contra",-8.538400877061878],["peu",-8.540243473940519],["toda",-8.54060527314505],["w",-8.541554127258696],["could",-8.54437357737674],["jour",-8.548365911463515],["co",-8.550831289100454],["dijo",-8.564153410786831],["COVID",-8.566233794873137],["land",-8.567295402677514],["18",-8.571111990557087],["egún",-8.575631837094091],["ser",-8.580438000219964],["ces",-8.58167924481458],["coup",-8.583685199730853],["personne",-8.588618615493582],["any",-8.588922738781676],["car",-8.590698109007143],["près",-8.595189431895108],["heb",-8.598015531422753],["goed",-8.603342875400944],["total",-8.60418331489492],["13",-8.604935244645311],["zelf",-8.605089764386278],["tot",-8.605425302565974],["work",-8.606257116463171],["vez",-8.615346364614439],["Mais",-8.616268998932052],["porque",-8.617238954553109],["ación",-8.620392797836598],["into",-8.620625755364625],["avant",-8.622919689143043],["peut",-8.624984203611122],["premier",-8.63087649606421],["mee",-8.634344303429021],["being",-8.638881782653973],["komen",-8.63928068546556],["through",-8.64778898044296],["real",-8.648575096316172],["Trump",-8.650293468705346],["momento",-8.651327335854214],["last",-8.652270270713792],["dernier",-8.652278075196879],["final",-8.652916831188673],["take",-8.65502632424552],["temp",-8.65632313224793],["¿",-8.658746627776328],["staat",-8.659222216224041],["toute",-8.664343359208807],["andere",-8.664806955274463],["tiempo",-8.665059781944409],["twee",-8.6664963849691],["hier",-8.667134324074365],["police",-8.667316747513985],["during",-8.673791896506438],["face",-8.674585339958675],["V",-8.675686151472753],["solo",-8.676688041261976],["25",-8.68226096187643],["había",-8.684561671909636],["forma",-8.684780857395364],["social",-8.684859097901617],["50",-8.686749048550379],["make",-8.688537632482491],["ù",-8.689182656384432],["quien",-8.692317296899944],["where",-8.700433599587473],["14",-8.701130371102437],["ir",-8.703360872394615],["coronavirus",-8.704795139979494],["millones",-8.708438185272497],["nombre",-8.708751791634333],["able",-8.711626676635868],["doen",-8.716260565699635],["way",-8.717574679642542],["home",-8.722377456856643],["ante",-8.72287212741489],["Et",-8.727810082851413],["todos",-8.729263953556416],["Une",-8.730865117843999],["kom",-8.731230830243856],["Van",-8.733428892742776],["maken",-8.738984849151926],["hacer",-8.739062858018936],["auto",-8.74389108860371],["monde",-8.747807904684922],["encor",-8.74790594467116],["iendo",-8.749191396194469],["every",-8.74941300111179],["sera",-8.749734455637146],["nieuwe",-8.750174096936487],["well",-8.75181328588549],["high",-8.752168857238093],["krijg",-8.753891942154757],["many",-8.755184661902966],["government",-8.756353556553142],["base",-8.757047007369886],["K",-8.757649358505113],["team",-8.758255052051371],["going",-8.759391379017124],["ar",-8.765807057577405],["off",-8.76617414536892],["président",-8.76795287572135],["án",-8.768378484014502],["Er",-8.777915578664318],["están",-8.778306811518028],["whil",-8.77833303989613],["zal",-8.783502020340212],["moin",-8.784195787219272],["cuenta",-8.785542350971017],["sans",-8.786127940357419],["New",-8.786196350046481],["before",-8.787650858855136],["equipo",-8.787694664234177],["ma",-8.788211180174292],["San",-8.789186322203872],["Estado",-8.791511227102271],["première",-8.792742073476706],["mayor",-8.795008857621266],["tijd",-8.795250245705468],["nuevo",-8.795603359291864],["100",-8.798087526217437],["sido",-8.80884618065378],["galement",-8.812109366704522],["And",-8.813749987338017],["help",-8.8150918972199],["ville",-8.815212509492651],["France",-8.815236822184868],["thos",-8.815607304955396],["toch",-8.817897987742011],["club",-8.82089769476059],["need",-8.821101845167481],["tous",-8.821118692159432],["hace",-8.822050541635935],["mismo",-8.822311929089949],["partido",-8.82336932833827],["vida",-8.827666969967666],["years",-8.827841573102631],["primera",-8.828315925132685],["cada",-8.829112539706202],["down",-8.832188934208684],["emos",-8.833451369985411],["semana",-8.835492786972406],["mis",-8.837049238919597],["health",-8.838931138909238],["tres",-8.841476823573789],["vind",-8.841740429882272],["film",-8.843961510592505],["wil",-8.847953728728848],["Con",-8.851086218275109],["euros",-8.851318148673652],["mijn",-8.852179547928955],["should",-8.854609133051756],["alle",-8.860566661195891],["gran",-8.861405481048374],["ex",-8.861495313576647],["dont",-8.864232937624635],["question",-8.865306265343758],["importante",-8.868089749082884],["embre",-8.86860279527065],["media",-8.869582254399779],["weg",-8.87380308369876],["ministre",-8.874109396090311],["Ze",-8.874382405688701],["know",-8.875747271272411],["mois",-8.876559171167106],["H",-8.879222175466358],["otros",-8.881371976016869],["continue",-8.882855682975649],["volgen",-8.883277715804276],["presidente",-8.885726331066287],["thing",-8.886995322151023],["agains",-8.888774052151767],["así",-8.892166396510648],["Nous",-8.893532226572095],["Op",-8.895633313739832],["hoe",-8.901612073208417],["después",-8.901886516655077],["Als",-8.90234303823529],["zegt",-8.904601708812546],["último",-8.905665878549687],["déjà",-8.906356514836464],["idad",-8.90806407809663],["nueva",-8.910218075171318],["nouveau",-8.910793503534848],["heel",-8.912368957149585],["lugar",-8.91379865424854],["Dans",-8.913841041506352],["era",-8.916695629830137],["local",-8.91686341323113],["still",-8.917526400738614],["tras",-8.918056225831842],["Ook",-8.918618162961732],["pasado",-8.921724902812631],["Hij",-8.923865990682279],["nouvelle",-8.924317765069318],["eerste",-8.92710053164576],["cas",-8.927443021284313],["mal",-8.928547238143924],["euro",-8.929071565622394],["21",-8.93162984729159],["será",-8.931704903891792],["ujour",-8.934908114004445],["quelque",-8.935947376786162],["Lo",-8.937647333423179],["trois",-8.94330193276188],["made",-8.943506106752162],["certain",-8.946251915270881],["three",-8.946894988392657],["th",-8.949933549473426],["tanto",-8.95163403840554],["start",-8.951738237282926],["200",-8.952366466030398],["leurs",-8.956077932266108],["40",-8.958776480009394],["medio",-8.960209159010088],["vie",-8.961367759650733],["force",-8.963247179282249],["donc",-8.964402514060087],["ju",-8.968990537320806],["22",-8.971187550395321],["Nederland",-8.972867899814702],["game",-8.973888170257599],["may",-8.975919169388671],["Daar",-8.976600756381082],["Ademá",-8.976624740257463],["iets",-8.977199908846531],["Die",-8.979360540821784],["á",-8.980930250986493],["second",-8.98099055503803],["support",-8.981234899717744],["She",-8.981692613239538],["sector",-8.985195995770084],["lopen",-8.986526503727454],["plusieur",-8.98686937469027],["don",-8.986876352892985],["very",-8.987589074127094],["entras",-8.990074111818792],["mejor",-8.991186823432738],["ça",-8.99233978667262],["hecho",-8.992633446404097],["sous",-8.992927437031623],["hem",-8.993578711996213],["hele",-8.993788436972356],["00",-8.994585810525098],["virus",-8.997956836148207],["ever",-8.999192542705565],["ils",-9.000165122026864],["zien",-9.002951620874338],["semaine",-9.003087018232591],["trabajo",-9.003096261961547],["Elle",-9.00386225348635],["best",-9.00403412071661],["otro",-9.00425956680072],["dernière",-9.00728385836435],["ainsi",-9.007507562013199],["situation",-9.007726623787512],["tussen",-9.009998476883847],["match",-9.01199569703132],["Zo",-9.012526949994502],["alleen",-9.012768354347658],["grote",-9.01720681605962],["sociale",-9.017941837201914],["alors",-9.021222319454196],["school",-9.021725588126312],["country",-9.022177106189627],["much",-9.024987725047712],["heure",-9.026167190876967],["good",-9.026678607041738],["À",-9.027304452261838],["suite",-9.028330190782228],["Pero",-9.030396929783294],["menos",-9.037041857319107],["ci",-9.039310388004292],["Esta",-9.0404699744288],["voir",-9.042386700402844],["pandemic",-9.043322479038338],["tant",-9.046913151312932],["issue",-9.047189934749774],["under",-9.051862385414303],["punto",-9.052151258978498],["via",-9.052389673705092],["selon",-9.05523787049989],["number",-9.055891313580613],["open",-9.058832457966467],["horas",-9.058971130317746],["homme",-9.061367931452779],["cases",-9.064297880775024],["important",-9.064784741505504],["change",-9.065175983638476],["antes",-9.066165230107169],["projet",-9.066335625890062],["business",-9.06633938823942],["chez",-9.068215835270474],["Na",-9.069922676051778],["There",-9.070932051409368],["use",-9.07117766524153],["Au",-9.07181365811868],["ahora",-9.07263059871079],["procent",-9.073368781614057],["mucho",-9.073859806145794],["service",-9.074165744897646],["information",-9.075674981210728],["think",-9.075974140525059],["Covid",-9.076223735741507],["empresa",-9.076611344674028],["says",-9.079454054622339],["tener",-9.07953060300245],["around",-9.079914039158616],["ation",-9.080953613654291],["China",-9.081785619390747],["test",-9.08616850468534],["équipe",-9.08656318396848],["Europe",-9.087235666178932],["ciudad",-9.090947956595864],["primer",-9.091568025492187],["these",-9.091763239347912],["calle",-9.092449592560612],["Este",-9.094562803247804],["right",-9.098432070897392],["So",-9.098557328711744],["Ukraine",-9.099165653239972],["If",-9.101875633763846],["ca",-9.103035898969269],["heid",-9.103145053197041],["finale",-9.103146766733627],["actual",-9.105594230362478],["familia",-9.106049459363913],["politique",-9.108505865870438],["come",-9.11049386263687],["fuero",-9.110582873060881],["manera",-9.110719048157689],["world",-9.11088220348389],["Para",-9.110891038065686],["beau",-9.111702840562462],["old",-9.115110948645851],["acuerdo",-9.117941015003698],["season",-9.120097342184291],["such",-9.120595105390406],["mundo",-9.122119458239219],["look",-9.122439803286888],["Sin",-9.122737217556956],["&",-9.127501957090677],["Cett",-9.128755316004138],["close",-9.12971809061126],["estado",-9.130314692750364],["qué",-9.131072482241365],["water",-9.132641911764402],["23",-9.133138785920696],["dag",-9.134823171417953],["gouvernement",-9.136418872788155],["leven",-9.13718469211656],["general",-9.13775122296293],["grand",-9.13957404294802],["site",-9.141008916363369],["later",-9.14193825971379],["estaba",-9.143817018988747],["jusqu",-9.143992704980548],["embargo",-9.144410594513502],["estos",-9.146334507101356],["kun",-9.147658954159077],["vers",-9.147810090455856],["life",-9.148838511856898],["did",-9.150317003640911],["ico",-9.151214442971835],["hard",-9.152537741941662],["possible",-9.15742683895139],["echt",-9.157665451454378],["since",-9.158620208050161],["lieu",-9.162121275291792],["début",-9.162957897812635],["mil",-9.163096898324518],["gobierno",-9.164919962775858],["communit",-9.165811647357405],["Me",-9.166798703606823],["video",-9.167677917315402],["Gobierno",-9.168240797254235],["W",-9.168428621042342],["US",-9.173356238313666],["self",-9.174016548216981],["lot",-9.176373359260468],["company",-9.17660653538793],["show",-9.179701535415454],["altijd",-9.180223942547672],["zona",-9.18055991815859],["gas",-9.181034319408974],["especial",-9.181954198987917],["That",-9.187214099269145],["For",-9.187221849713321],["keer",-9.189011124906841],["proyecto",-9.189713297251732],["femme",-9.190099864280217],["État",-9.190951350532814],["play",-9.192184966491443],["situa",-9.193471971056127],["family",-9.193505978037294],["Dit",-9.193833576115825],["empre",-9.193910566933052],["26",-9.19397625759921],["servicio",-9.194396821941378],["hoy",-9.19650335560732],["afge",-9.199217987737779],["nuestro",-9.199493384617217],["came",-9.201462298559068],["algo",-9.20187372146108],["eigen",-9.202091456462309],["kwam",-9.203593888543622],["ben",-9.204806298908789],["president",-9.208366002795758],["tuvo",-9.209773765235166],["niveau",-9.21274350641082],["500",-9.212938916533648],["gewoon",-9.213059357727861],["waren",-9.215573382366255],["uego",-9.216592515285665],["including",-9.216813028845449],["nada",-9.2195477073749],["Be",-9.2199972850017],["national",-9.223721581279879],["faut",-9.224565872875779],["next",-9.22576398374109],["estar",-9.226298301082053],["60",-9.228681515878375],["mogelijk",-9.230079032164236],["hui",-9.230860644987473],["partir",-9.23168947821414],["result",-9.232296887029145],["men",-9.232474619074925],["Su",-9.232594385716602],["2023",-9.234296809852662],["Twitter",-9.234399078011236],["hand",-9.237728115106279],["report",-9.238081379751835],["vol",-9.238254255453135],["personal",-9.238332271907547],["27",-9.23840184264061],["cours",-9.243341302423985],["venir",-9.24750934236696],["grupo",-9.247834640652012],["28",-9.248763480067124],["main",-9.251909929596232],["entreprise",-9.252459667979409],["notamment",-9.253357842818279],["Dan",-9.255392071473697],["avai",-9.255825861013939],["groupe",-9.259014085559404],["grande",-9.261331019693781],["ready",-9.262338928331282],["recent",-9.262854035700013],["crisis",-9.263357805856973],["poco",-9.268494049335093],["2018",-9.269234676980442],["record",-9.270738600964249],["Nacional",-9.271576704262987],["zoal",-9.27258486400346],["política",-9.273057637510972],["ur",-9.27333275938654],["ba",-9.273673383278247],["Mr",-9.274820874185053],["partie",-9.277544424413772],["onze",-9.281352461557828],["say",-9.28264744096861],["travé",-9.282979127705257],["head",-9.283912667742847],["student",-9.284279231371652],["casa",-9.28495388441602],["person",-9.285039776651505],["binnen",-9.289128784469938],["terug",-9.2894628197695],["rapport",-9.292590863985996],["told",-9.29352489970321],["laten",-9.294800269651724],["between",-9.29487820449161],["own",-9.296491986036395],["poder",-9.296574413921256],["same",-9.297381855110109],["uur",-9.297405534754331],["care",-9.298625418748943],["Biden",-9.300835274339105],["both",-9.301351500049293],["centre",-9.302964986302717],["Met",-9.30357080921036],["mij",-9.303590238010457],["You",-9.303910943189624],["tijden",-9.305614029974926],["tipo",-9.307748099274066],["impact",-9.307790742134877],["group",-9.308285957244115],["cual",-9.308610885766392],["houden",-9.309529941679106],["rix",-9.309883645641765],["podría",-9.311986643139491],["President",-9.313498055962354],["nother",-9.315071486229936],["minder",-9.317171257132362],["lang",-9.317218276296607],["steed",-9.322065031261722],["notr",-9.322285471352941],["age",-9.322335335788459],["hombre",-9.324589719798063],["services",-9.325051669847602],["six",-9.325449964796437],["hospital",-9.325946393202901],["politie",-9.328840049416593],["ambién",-9.328946609396471],["otra",-9.330676336286137],["él",-9.332580682036753],["control",-9.332896133752026],["Esto",-9.334588515890424],["put",-9.334826347581448],["great",-9.33736328358577],["vent",-9.340402118228461],["Ma",-9.342118151513308],["rond",-9.344563702338998],["vote",-9.34565801088258],["got",-9.346288373585196],["droit",-9.34708646626716],["amos",-9.347531215881407],["chose",-9.34929215888657],["ado",-9.349470218668504],["autoridad",-9.35216800730714],["problem",-9.352498397746015],["drie",-9.352708072234918],["top",-9.35300821550209],["déclaré",-9.353143648479668],["maal",-9.354779626528192],["jeu",-9.355400779654758],["problema",-9.357107188502301],["won",-9.360041314153374],["côté",-9.36017268436227],["Wat",-9.360186512870001],["ja",-9.360745049290838],["alguno",-9.361198057519648],["four",-9.36384250962855],["29",-9.363847987973744],["staan",-9.365127776080165],["medida",-9.36628412781726],["effet",-9.36660131386175],["mes",-9.367901226482376],["keep",-9.367959147221086],["ôt",-9.368930765367878],["court",-9.370441194203014],["saison",-9.370637505223964],["Una",-9.370727667646642],["current",-9.372021224613441],["avon",-9.37240710731373],["pris",-9.37425398342304],["large",-9.37436861020684],["travail",-9.37454631390965],["ello",-9.374745158283957],["compte",-9.376999918296205],["haber",-9.377212355412649],["Voor",-9.37734614703723],["few",-9.377564869533773],["Méx",-9.379335794972182],["jaren",-9.382611587851692],["Europa",-9.3846624205903],["€",-9.38528701567678],["low",-9.38757127764757],["geld",-9.38803218096602],["ait",-9.388463280211575],["contact",-9.3894460680761],["coming",-9.39142871061783],["York",-9.39179244362471],["Friday",-9.392023700591748],["meses",-9.393039106393765],["pendant",-9.394232938788504],["post",-9.396928880207314],["nuestra",-9.397118397626055],["director",-9.397808044159742],["action",-9.39875303652433],["cambio",-9.3998218208632],["line",-9.404264720066351],["actividad",-9.406803031745353],["ging",-9.408233473589492],["ooit",-9.409092565961492],["call",-9.410630300318541],["proceso",-9.41179614857485],["live",-9.412363385878074],["dar",-9.41250711653582],["mucha",-9.413813071280284],["Par",-9.414130904036533],["extra",-9.414594128384397],["werk",-9.417701165028333],["mon",-9.418650442029676],["X",-9.419005765814976],["Oekraïne",-9.41911496823008],["España",-9.419318181280978],["última",-9.420082557374775],["far",-9.42097456827138],["mo",-9.421357695265502],["famille",-9.421460204753238],["provide",-9.423981434086613],["American",-9.424527531257821],["35",-9.425283958101836],["laatste",-9.4258387954157],["ailleur",-9.42893629307199],["pourrai",-9.42899375052168],["één",-9.429088119188457],["case",-9.429180107883257],["air",-9.429195115205559],["31",-9.429822039614352],["jamai",-9.430490843653814],["achter",-9.431105557349927],["though",-9.433365659793987],["election",-9.434022163928766],["willen",-9.43413285615166],["aurai",-9.437112339790643],["State",-9.437399101286605],["région",-9.437852541734404],["70",-9.438025483311787],["programa",-9.439454942000488],["To",-9.442432485793542],["Rusland",-9.44313285085028],["chef",-9.443801240250949],["night",-9.44472108999593],["Saint",-9.445005251979717],["seguridad",-9.446132873459277],["different",-9.44663688576636],["nivel",-9.446925119534352],["direct",-9.449426790384596],["jeudi",-9.449746772961383],["pouvoir",-9.449750821550605],["wereld",-9.449862869349115],["condition",-9.451468652811421],["ici",-9.452162396850552],["tan",-9.453267979338808],["month",-9.454131629233311],["mag",-9.458834832050714],["pu",-9.461193270183662],["Z",-9.461773336341205],["Mi",-9.463175392881945],["Selo",-9.463368435990253],["centro",-9.463674370659927],["cent",-9.465503852020664],["plaats",-9.466624462720333],["mercredi",-9.46755252246015],["Russisch",-9.467977006804077],["joueur",-9.468648336587606],["junto",-9.469725397327867],["online",-9.470147181882016],["historia",-9.470242834523695],["love",-9.47088484315205],["cosa",-9.471182544749535],["unos",-9.471569539001912],["annoncé",-9.472022521066807],["otras",-9.472244419188712],["dimanche",-9.472705701725202],["80",-9.472712385407888],["found",-9.474126227755594],["esto",-9.474400354372449],["bajo",-9.476513774944616],["cuatro",-9.476541771071691],["ès",-9.477313974929999],["include",-9.477425206431665],["mardi",-9.477695438945439],["lundi",-9.478836479727388],["zij",-9.480203638866268],["hizo",-9.480777470223412],["principal",-9.481956980920774],["verder",-9.482064987674605],["Volgen",-9.48289553229615],["system",-9.482910906459264],["alguna",-9.483360981889977],["city",-9.483570761643922],["each",-9.484924318623593],["near",-9.48528433277087],["decision",-9.485601484425679],["vendredi",-9.485607575529809],["produit",-9.485616285042791],["cómo",-9.488480953750878],["Russi",-9.49069438116463],["bon",-9.490939921869039],["russe",-9.491497517178939],["term",-9.49375113285254],["win",-9.493891520639384],["persona",-9.49407738330419],["tien",-9.495043054894916],["Bij",-9.495298395770071],["Unidos",-9.496316460556091],["eront",-9.500124223732286],["dire",-9.50103320518839],["course",-9.50157089359488],["voorbeeld",-9.502188637876074],["Sur",-9.502407772272637],["huis",-9.502486698550653],["population",-9.505215963762689],["zit",-9.505354805382268],["kinder",-9.505479823911298],["reported",-9.505801699702783],["ga",-9.506573578954347],["informa",-9.509859866502936],["salud",-9.509918740646803],["mesure",-9.510067356223558],["agua",-9.510309226901914],["across",-9.510419193715288],["weten",-9.510684259062927],["half",-9.511085994749177],["fans",-9.511375860327504],["resultado",-9.511582625012226],["onderzoek",-9.512398292056071],["unque",-9.513299915513965],["quand",-9.514301583006834],["used",-9.514654474608808],["vrai",-9.515006077099095],["série",-9.515039732213381],["tenía",-9.516143008982372],["Ucrania",-9.516928675042745],["When",-9.518956892002155],["gebruik",-9.518969859526404],["celle",-9.520469541260265],["nodig",-9.520778325910918],["weet",-9.521523567897162],["porte",-9.523556001785046],["app",-9.524571396271512],["gente",-9.524657815640836],["raison",-9.527844459582283],["inform",-9.52799204652],["posible",-9.528782755301286],["vooral",-9.529440823489374],["vía",-9.529846678280329],["bedrijf",-9.530128965902346],["aantal",-9.53035556106705],["adde",-9.530798280783774],["blijven",-9.531000676417435],["cet",-9.533888774971565],["remain",-9.534949569369257],["vient",-9.535004556297888],["Dr",-9.539076801000125],["give",-9.539128862149353],["próximo",-9.53957564772681],["full",-9.539612418093611],["frente",-9.540074308135985],["cela",-9.541995689338144],["reste",-9.542442994362478],["zonder",-9.543039825781044],["quatre",-9.544443640193915],["mettre",-9.545010136132886],["90",-9.545564608616822],["vier",-9.546326204473282],["minister",-9.547145589796859],["source",-9.5474837947698],["samedi",-9.547797297158864],["45",-9.549804359421621],["sigue",-9.550371938372141],["trata",-9.55079519095045],["tour",-9.552049966500352],["gemaakt",-9.552729656477425],["concern",-9.552737884179113],["derecho",-9.552935160944386],["working",-9.55312887049111],["charge",-9.553327974036648],["event",-9.553517422801661],["suis",-9.555305327875157],["miento",-9.5576908708389],["hour",-9.558488543287684],["stad",-9.55868814904703],["area",-9.5623389805917],["guerre",-9.562556681184212],["número",-9.56274742537961],["encuentra",-9.565218187557864],["side",-9.565772273989394],["lado",-9.565830238101372],["zone",-9.566496427847495],["endo",-9.566556713829952],["dólar",-9.566692969429232],["Apple",-9.56720930588714],["señal",-9.567500202479351],["capital",-9.567792566684595],["big",-9.57148164747803],["militaire",-9.571529013549156],["maakt",-9.572313276082276],["March",-9.572538601429613],["grandes",-9.574700296992077],["anti",-9.574960798113942],["misma",-9.575421966831964],["position",-9.575631146694331],["í",-9.575966053744445],["kind",-9.577126282410326],["mort",-9.577923143372862],["level",-9.57865926347306],["sistema",-9.579599252951313],["ter",-9.580889684093542],["ullen",-9.581823752794612],["niño",-9.581903512740936],["parent",-9.582197176509146],["never",-9.58242646094159],["sino",-9.582723300720655],["nacional",-9.583774450307267],["llegar",-9.583851696932275],["objetivo",-9.58394542017018],["price",-9.583968488481663],["prendre",-9.584051897931918],["according",-9.584820652504046],["histoire",-9.585216590553408],["oficial",-9.585663832658172],["market",-9.585782913169307],["City",-9.585796916390532],["jarige",-9.587585603686453],["cualquier",-9.587852197344123],["entro",-9.587856939786302],["aient",-9.58799106509055],["sí",-9.58822128308105],["segundo",-9.58899942895998],["devant",-9.589009207306901],["United",-9.589260841625176],["body",-9.590085890520644],["image",-9.590118433442461],["casi",-9.59035189352049],["left",-9.591593667808981],["dio",-9.592418877215103],["Son",-9.592666342233274],["decir",-9.5934331872417],["production",-9.594323265600433],["té",-9.594693731579875],["comment",-9.594897087137573],["effort",-9.59512181948331],["laat",-9.595396768318638],["red",-9.595484045790739],["ancien",-9.598628439439473],["hit",-9.60103846500462],["beter",-9.602471278329075],["muchos",-9.602993037228497],["bonne",-9.604838315321695],["return",-9.605065594044309],["present",-9.607322454600137],["avond",-9.608049628035346],["positive",-9.608069453926763],["mean",-9.608446980308305],["something",-9.6087079264572],["devrai",-9.609463203454261],["Québec",-9.609474064552444],["share",-9.61021420752459],["statement",-9.610318891650381],["Monday",-9.610968351971069],["Jean",-9.611293789481769],["nationale",-9.612088059911807],["jeune",-9.612721239147701],["Of",-9.613264831239007],["hora",-9.614772014763052],["primero",-9.615324466992833],["geven",-9.615993627730614],["project",-9.616448238792806],["rien",-9.617833940581223],["deuxième",-9.619899013062579],["Re",-9.620308840581188],["receive",-9.622216411665718],["votr",-9.622594094442487],["TV",-9.622667290987376],["snel",-9.622832532959627],["elkaar",-9.623199703064905],["oorlog",-9.623758107317087],["occasion",-9.624758317268274],["enfants",-9.625188489804895],["minuto",-9.62561196951714],["investiga",-9.627189116007393],["West",-9.627857924015448],["zitten",-9.629021919753399],["better",-9.629105949681046],["feel",-9.630813582010157],["Nederlands",-9.631526644699042],["until",-9.63683345364332],["Chine",-9.637116518763527],["believe",-9.637675983215434],["noche",-9.63885691763178],["Así",-9.638956047008694],["vu",-9.64209775680406],["quiere",-9.642734377597584],["seule",-9.64333636967272],["What",-9.645048914810253],["must",-9.645918683925057],["South",-9.647163989616633],["miljoen",-9.648799869057733],["lunes",-9.651466922943513],["gemeente",-9.651540454997033],["zeggen",-9.652973518797003],["Rusia",-9.653078670130459],["directeur",-9.653159519819646],["zeker",-9.653452746128753],["kon",-9.654101256238626],["eerder",-9.656258554412268],["haci",-9.656453427321718],["wij",-9.656667008558689],["chance",-9.656974552456806],["children",-9.657243931135515],["vario",-9.657686244040667],["nemen",-9.658748428838965],["groot",-9.660616670551732],["soir",-9.660794548749791],["quarter",-9.662326028975002],["viern",-9.662559808393052],["might",-9.66259521818655],["mise",-9.663175132132185],["afin",-9.663718907008157],["vehículo",-9.663935398137568],["bekend",-9.665317689533993],["expert",-9.665680963290104],["former",-9.665717121541377],["does",-9.66663988211873],["didn",-9.666814927016357],["begin",-9.668670395868388],["redes",-9.668866118990415],["anders",-9.66960843347664],["petit",-9.670185121037985],["Hoe",-9.670327053399376],["future",-9.670459068496566],["mercado",-9.67074011862028],["cinco",-9.670809196397524],["wh",-9.672195081617716],["cargo",-9.672893229861618],["order",-9.673988506411073],["months",-9.6752307281877],["five",-9.675487084082407],["público",-9.676227205848722],["things",-9.676344513164246],["arly",-9.676931494788857],["iedere",-9.677022400471738],["away",-9.677602148813438],["alles",-9.677623877680857],["pro",-9.677907935747383],["increase",-9.680458385533422],["aujourd",-9.681751494117858],["serie",-9.682221599187184],["mujeres",-9.682379326592166],["National",-9.682602090590871],["mujer",-9.682695614244995],["sécurité",-9.683143684401958],["County",-9.684883149492906],["hijo",-9.687173211118322],["réseau",-9.688795110940115],["Canada",-9.68966051409546],["alway",-9.691197020417205],["somme",-9.691831435890027],["ciento",-9.692143527871773],["Zij",-9.69354137517066],["trop",-9.694189709528995],["sentido",-9.6945694055619],["werken",-9.695117249880528],["Plus",-9.69584569000941],["nation",-9.698069604557851],["power",-9.69876304184234],["demande",-9.69882551488444],["affaire",-9.700719476592768],["mañana",-9.701495286113413],["za",-9.703323481558266],["route",-9.70388246390853],["tendrá",-9.704152388321955],["here",-9.704828177660632],["producto",-9.705186420782919],["David",-9.705790960199533],["ellos",-9.706296093433298],["sábado",-9.707177863497218],["making",-9.708178609813583],["pay",-9.708474419265464],["Health",-9.708606356285284],["officer",-9.708815413475254],["stock",-9.70951924523413],["ally",-9.7096322502064],["Whil",-9.710085111879863],["dice",-9.711113128766819],["minutes",-9.711737585183986],["Du",-9.712460855749278],["members",-9.713137872524836],["juego",-9.713306699916627],["jugador",-9.713937080675668],["risk",-9.714376891620011],["All",-9.71485314517609],["stay",-9.71592545968801],["Thursday",-9.717207014885721],["process",-9.71741238687178],["idea",-9.718418132589917],["bank",-9.718449025114612],["vast",-9.718835397095148],["blijft",-9.718968823667463],["With",-9.719425495043419],["pueda",-9.720089517435287],["become",-9.72080870886599],["cerca",-9.721442450851722],["front",-9.721727501058101],["aún",-9.7220611002181],["spread",-9.723429143749751],["realizar",-9.725261572760001],["Etat",-9.725322487354717],["allemaa",-9.725811664087123],["Black",-9.725836736034168],["víctima",-9.725883410548164],["global",-9.72873660516208],["food",-9.729248682980074],["veces",-9.730162310561461],["energie",-9.731681799593751],["Argentina",-9.731890399404453],["international",-9.732204741422501],["staff",-9.732308423308353],["went",-9.73441326997406],["again",-9.735609593059198],["EU",-9.736184086749008],["office",-9.738879669236654],["name",-9.739210138791385],["mar",-9.739471884829372],["Sunday",-9.740588960029182],["domingo",-9.74200547435232],["vaak",-9.742802639312298],["General",-9.742825406774797],["doet",-9.745766975025292],["Madrid",-9.746427517665548],["Ces",-9.747596673376403],["espera",-9.747608538180472],["One",-9.74762052833278],["Tuesday",-9.74791095560308],["boven",-9.748454429476503],["vrij",-9.748812871007514],["ken",-9.749811475465808],["aura",-9.751873401743136],["pandemia",-9.7523752131792],["money",-9.75281028318292],["gens",-9.754196876311543],["produc",-9.75443551928885],["parti",-9.755735894252759],["May",-9.756821996793358],["chaque",-9.756840509406521],["Om",-9.757741259366654],["dollar",-9.758099887213252],["Saturday",-9.75835858536066],["crime",-9.76074230587274],["experience",-9.761158155163436],["janvier",-9.761371953808196],["onces",-9.76226922483241],["seguir",-9.762561054754034],["quoi",-9.762937109564803],["fuera",-9.762993729548244],["Hay",-9.766539231783494],["women",-9.767408537710018],["juli",-9.767442736132303],["temporada",-9.768859523036314],["lijkt",-9.76909556449364],["ité",-9.771118707933516],["Ja",-9.77143815662981],["John",-9.77177561764422],["buena",-9.772091726845737],["taking",-9.77285180149656],["Entre",-9.773307053154618],["eves",-9.774889987061805],["law",-9.776127861976809],["%.",-9.778665481203987],["Pro",-9.778683722773422],["locale",-9.778955627839096],["mars",-9.77952375221006],["little",-9.779613096155357],["encuentro",-9.780043307023936],["crise",-9.780228000659815],["incident",-9.781517700901805],["death",-9.78164153292904],["français",-9.781769643468419],["titre",-9.782087299980201],["ligne",-9.782087495999821],["free",-9.782820196512262],["ín",-9.783118602597435],["samen",-9.783213226995777],["anté",-9.783430970569373],["light",-9.783806892230675],["risque",-9.784053067164141],["comunidad",-9.784185524840664],["message",-9.784333272268885],["pre",-9.784412798110175],["find",-9.78447601530987],["sport",-9.785245438577714],["field",-9.785327659023],["fecha",-9.785729281845637],["foto",-9.787579998278648],["together",-9.78975064724725],["disponible",-9.7903735063392],["marché",-9.790895195003515],["uso",-9.791730384517752],["series",-9.791757457128142],["décision",-9.791784387841998],["agit",-9.792176314247405],["moest",-9.793016334438057],["300",-9.793916750378406],["train",-9.794948430094781],["wide",-9.794991666936689],["martes",-9.795819761573588],["move",-9.796947897259162],["programme",-9.798953380811607],["victime",-9.799537345746803],["retour",-9.799697659303428],["cinq",-9.799699866899196],["League",-9.799740153739268],["normal",-9.80029712989268],["podrá",-9.801643308254764],["basis",-9.802284173870037],["activité",-9.802365534679982],["fall",-9.802827234124283],["oportunidad",-9.80284456362557],["besoin",-9.803061090809143],["inclus",-9.803378665271847],["rol",-9.804134068258248],["tête",-9.804284326328062],["natuurlijk",-9.8044271449948],["allow",-9.804941432536117],["rest",-9.804985053212622],["Or",-9.806847584453228],["job",-9.807410650116228],["Paris",-9.807535452247134],["past",-9.809242210147065],["sol",-9.810682200880672],["Nu",-9.810884931678],["iércol",-9.813898027564694],["tarde",-9.81442998800594],["75",-9.815126099618205],["jeunes",-9.81530830819836],["zetten",-9.816256078247841],["Deze",-9.817004667812803],["aske",-9.81705020378297],["carrera",-9.817191777243945],["paso",-9.817283118190513],["erg",-9.817549003797383],["cost",-9.81806660926648],["puesto",-9.818151525499765],["cadre",-9.818274982691163],["Ben",-9.819270941555086],["simple",-9.819448578827691],["zelfs",-9.821521844494367],["popular",-9.821796169826483],["km",-9.822824647524081],["edad",-9.824438943125422],["Wednesday",-9.82504994470617],["segunda",-9.825050109105256],["indic",-9.825063744739364],["happen",-9.82510735823386],["Juan",-9.826107310101637],["diferentes",-9.827088865033218],["period",-9.828378716488718],["aten",-9.828764072684535],["principale",-9.82928901600081],["semble",-9.82935090340617],["worker",-9.829867246134743],["federal",-9.830946304210787],["couple",-9.831267384496831],["ban",-9.831595193363],["dici",-9.832682367747694],["vraag",-9.833625891323736],["taken",-9.833639944115776],["having",-9.833660240953748],["shares",-9.833866112282895],["poste",-9.835585355494041],["société",-9.836803919622117],["jó",-9.83701748552783],["corona",-9.837699056189205],["aciones",-9.838400343351303],["ré",-9.83956035380745],["note",-9.841109764372831],["program",-9.84172197893973],["several",-9.842116244146975],["complete",-9.842284111354573],["Facebook",-9.842864067489199],["soort",-9.842879786157377],["ensemble",-9.843066158591817],["Joe",-9.844229201172329],["cuerpo",-9.84441243370348],["trade",-9.84453617482393],["How",-9.845391153357829],["dad",-9.84541347015874],["respecto",-9.845785329403888],["veu",-9.845901628008683],["internacional",-9.846014591864279],["décembre",-9.846128738676903],["kijken",-9.848790711642602],["patients",-9.8490212571953],["pública",-9.849917608784217],["version",-9.84994130301705],["pai",-9.85025257360277],["conocer",-9.852776781471348],["vrouw",-9.852815734242357],["Ha",-9.85288037778868],["lockdown",-9.854374858301586],["stand",-9.85489106899294],["mask",-9.856806819989208],["appel",-9.85848841005988],["mai",-9.858828832727344],["announced",-9.860960159072022],["star",-9.8612569971873],["solution",-9.86150867995133],["particular",-9.862170476098077],["ministro",-9.86326320923601],["explique",-9.864413199819053],["today",-9.864561564216594],["along",-9.865449260583633],["clear",-9.865505827099078],["landen",-9.866099113490485],["St",-9.866592562734763],["create",-9.866762146402074],["India",-9.866946527057472],["général",-9.867076279045856],["rate",-9.867336301099549],["enquête",-9.867636005060803],["nieuw",-9.868846807556984],["32",-9.86940705109842],["Union",-9.869596787978466],["dagen",-9.870169362018],["zei",-9.870281868162598],["milliard",-9.87095850570364],["indiqué",-9.87099778655313],["passé",-9.872535906897026],["run",-9.87274526927775],["paar",-9.873132908831089],["Todo",-9.873789672695022],["organisation",-9.873990727715555],["least",-9.874296284659032],["using",-9.87432632458672],["etting",-9.87440906966371],["Man",-9.87441693424677],["passe",-9.87468920898443],["annonce",-9.87499940348524],["autorité",-9.876063588396043],["secteur",-9.876354359432245],["mission",-9.877142264002586],["took",-9.877280675272718],["matin",-9.87764320020109],["Premier",-9.87773799156659],["young",-9.878044541922891],["Police",-9.878406078370439],["aide",-9.878890069310494],["sinds",-9.879512338852255],["prueba",-9.880100420784721],["juist",-9.880187094681753],["responsable",-9.881051525860048],["fil",-9.88122367897591],["journée",-9.881334878215803],["Car",-9.882506143370616],["fuerza",-9.88346168516466],["verschillen",-9.884647593465104],["miss",-9.885482982286632],["house",-9.88568069102186],["document",-9.88598698190506],["tard",-9.886762535126916],["simismo",-9.886974893552724],["weekend",-9.888286456157944],["duidelijk",-9.889353575363748],["Paul",-9.890101338781857],["gelede",-9.890405192872697],["client",-9.891250456229177],["individual",-9.891683386831392],["varia",-9.89188120425201],["accord",-9.892877448311793],["système",-9.892987888441347],["After",-9.893034496555938],["Washington",-9.893069883598326],["période",-9.89307593215001],["wie",-9.893368968906941],["marca",-9.894053540546581],["political",-9.89446483586868],["aller",-9.89451266966817],["presse",-9.894883268800925],["Minister",-9.89537086410693],["similar",-9.896263582226606],["eerst",-9.896395781482873],["campagne",-9.896509201484339],["hope",-9.898341214812687],["padre",-9.899242935543676],["given",-9.89946207466669],["officials",-9.89953406913419],["Carlo",-9.899662586116726],["pueblo",-9.89997353248052],["enero",-9.899999979508856],["José",-9.900083476501365],["largo",-9.900253100325617],["militar",-9.900268130539128],["legó",-9.90041325861926],["dado",-9.900803534121327],["art",-9.901473532997954],["joven",-9.901751466195378],["falta",-9.902230777208267],["rencontre",-9.902771812568323],["administration",-9.903440481330975],["Unis",-9.903556263101963],["gan",-9.904649315964587],["fire",-9.905096994617402],["informe",-9.905630183304146],["tweede",-9.9057408833569],["hoofd",-9.905947385895253],["+",-9.906293345602897],["libre",-9.906503656891822],["Ils",-9.908298328585733],["doesn",-9.908537663602596],["Ministerio",-9.908734661141732],["dollars",-9.908948747469857],["iemand",-9.909045931410487],["posición",-9.909182346425844],["valor",-9.910208708419436],["violence",-9.910394375099512],["membres",-9.91040257636467],["maison",-9.910689269271865],["provincia",-9.911992121674269],["permet",-9.912381089156852],["línea",-9.912494947673576],["apoyo",-9.912617322451545],["muerte",-9.913902264625186],["race",-9.913937340807815],["Como",-9.915163211239301],["novemb",-9.915198161590851],["precio",-9.915723919931903],["meeting",-9.9160658653655],["ólo",-9.916751601011033],["campaign",-9.917398903889977],["budget",-9.917466221922009],["población",-9.919157942184679],["prochain",-9.91988057634521],["ley",-9.920120106870082],["désor",-9.92029677446908],["woning",-9.920367640892987],["geef",-9.92091170335865],["municipio",-9.920922286560227],["fuerte",-9.920928169565222],["problème",-9.920938377167369],["debido",-9.920969984625186],["option",-9.921324419668796],["uillet",-9.92180256102634],["Macron",-9.92187015260895],["Co",-9.922199823502291],["genoeg",-9.92269484518176],["Red",-9.923460098824059],["Cela",-9.923515840031694],["party",-9.92363635860148],["Sa",-9.924792054078491],["talk",-9.924916991590397],["2014",-9.925149756883975],["North",-9.925823917644358],["guerra",-9.926233449809413],["among",-9.92628328172923],["nunc",-9.926345863049061],["Jan",-9.926707888012817],["presente",-9.927036862244272],["manier",-9.92710423625945],["genomen",-9.928225053424265],["brand",-9.928353499326272],["held",-9.92940383082329],["justice",-9.929593031374775],["actuelle",-9.92960433369205],["familiar",-9.929614563485647],["players",-9.930280929307802],["34",-9.93049537430899],["bijna",-9.930704103147658],["33",-9.931459639690043],["small",-9.93193464848534],["école",-9.931964297829506],["ch",-9.932853128986906],["third",-9.933376665886954],["Howe",-9.933522839305766],["House",-9.93356227054086],["seul",-9.934181965477517],["moi",-9.934504901251465],["lead",-9.934869890719199],["super",-9.935834295142275],["ejemplo",-9.936936185557668],["mayoría",-9.937578021988706],["400",-9.937707209428098],["bar",-9.938706242237476],["further",-9.938739532611244],["jornada",-9.942332324725315],["gezien",-9.942390022874747],["certaine",-9.942438744344031],["publique",-9.942587112499638],["major",-9.943385408791421],["pues",-9.943465374914792],["sión",-9.943907342358122],["arrive",-9.944198349121049],["asegur",-9.94633675617103],["évrier",-9.94640871765979],["My",-9.94700985327383],["wedstrijd",-9.947732462907013],["vec",-9.947849844438958],["ness",-9.948236147608789],["interview",-9.948633579623314],["bus",-9.948739679174738],["élection",-9.948935694597171],["short",-9.949068527920875],["souven",-9.952711448387111],["availab",-9.95271650295103],["espacio",-9.95282241218695],["direction",-9.953112099667699],["milieu",-9.953489382398152],["Amerikaans",-9.953528360441462],["maanden",-9.95352963682161],["strong",-9.953990250744665],["enkele",-9.955182210584907],["estas",-9.955311783010494],["Ya",-9.955385674949685],["board",-9.955682479755858],["claim",-9.956785731329713],["buiten",-9.95694005423631],["2015",-9.958489985347537],["Instagram",-9.95869614165624],["rue",-9.959563597996432],["mer",-9.963673106394516],["chien",-9.963943537335316],["estamo",-9.964198988071267],["rapide",-9.964402175092804],["expres",-9.965390176575923],["legal",-9.966123470491201],["rez",-9.966545409234566],["festival",-9.96663124110497],["â",-9.96906402842511],["Go",-9.96944300696388],["grave",-9.969774955423725],["Universit",-9.970168742944372],["model",-9.971323882587596],["ron",-9.972171673311045],["goede",-9.973028352451786],["mensaje",-9.973459793250424],["soutien",-9.973469007742777],["serai",-9.97390333981498],["igual",-9.974273521107126],["nough",-9.974331952646533],["fact",-9.976304816650908],["causa",-9.976514782163257],["objectif",-9.97723738199831],["exemple",-9.977722543064802],["internationale",-9.978141181546377],["recurso",-9.9788633567617],["tema",-9.980260500308084],["Luis",-9.98027099149693],["figure",-9.980322023245108],["stond",-9.980372694758135],["decisi",-9.980981234644794],["evento",-9.98112650311841],["offre",-9.98181487467037],["turn",-9.982709603904546],["weinig",-9.982820794069294],["denk",-9.982896409613188],["ard",-9.983025798840929],["octob",-9.983046779096384],["buy",-9.983600534983376],["ayuda",-9.983940157235384],["breng",-9.9842925145307],["zie",-9.985439735173184],["reg",-9.987461262061057],["football",-9.98987632370105],["líder",-9.99036035439243],["genera",-9.991242716533824],["ago",-9.99172564479618],["vice",-9.99180170861019],["World",-9.992256665535981],["état",-9.992334621770897],["following",-9.992431259251951],["pesos",-9.995242634616204],["attack",-9.995669519749637],["coach",-9.995920314689641],["Pas",-9.996228787949347],["armée",-9.996381426011741],["fund",-9.996960184192595],["gedaan",-9.997395628316994],["Grand",-9.997644771338084],["propuesta",-9.99796968358865],["combat",-9.99809829306568],["profesional",-9.998469539791742],["continu",-9.998648248014714],["consider",-9.998800459392458],["llevar",-9.998960717817162],["late",-9.99912156228196],["importanc",-9.999248027521546],["measure",-10.000135588793388],["junio",-10.000355632478765],["amelijk",-10.000815163884479],["interest",-10.001032356835193],["stop",-10.001288512434083],["policía",-10.001787660104668],["hausse",-10.002279130501698],["done",-10.002898372647525],["estará",-10.003753012258853],["starte",-10.003992245397509],["bedrijven",-10.004991057722478],["font",-10.006259245686241],["fiscal",-10.00693731446989],["aire",-10.007143938905674],["attend",-10.007270285916325],["%)",-10.007519789786581],["bit",-10.007785955181916],["vanaf",-10.008676307821998],["passer",-10.00875517342664],["value",-10.009186575353088],["Que",-10.009861156981184],["propio",-10.011387521066315],["fight",-10.011829904560269],["try",-10.0130966519952],["dinero",-10.013273467812432],["Ver",-10.013282960688207],["36",-10.013322766936145],["communiqué",-10.01333261713204],["Final",-10.01410521887478],["avance",-10.014486858094454],["Waar",-10.01656220031121],["viene",-10.01703271768162],["septemb",-10.017665203774698],["central",-10.017859751852928],["fille",-10.018990553758876],["octubr",-10.019148638551153],["percent",-10.01948271072742],["straat",-10.020131868581684],["utant",-10.022801780434959],["hold",-10.023310674659076],["challenge",-10.023705304993747],["pez",-10.02403280983134],["halen",-10.024132248938145],["com",-10.02464742492048],["Qatar",-10.024687197789241],["Donald",-10.025010949073547],["muestra",-10.025206677355193],["demand",-10.025564660730453],["grow",-10.026885379804902],["economic",-10.027014606916016],["beetje",-10.027146896007377],["blijk",-10.027370949593475],["meilleur",-10.027952986945195],["expected",-10.028051310087164],["Durant",-10.028211155037312],["avril",-10.028354895409766],["rijden",-10.028536437788784],["groep",-10.028741209549608],["Do",-10.028893553052033],["appear",-10.029526327510078],["type",-10.029750928284333],["novi",-10.030267985523864],["scène",-10.030616744250858],["trabajador",-10.030843542314052],["forme",-10.031496172724411],["once",-10.031591017343715],["require",-10.03182729694477],["parole",-10.032145094335164],["eigenlijk",-10.032717770958676],["woman",-10.03277255704902],["kree",-10.032818630337893],["événement",-10.032857551562667],["travel",-10.033785493391065],["confirmed",-10.033792569729023],["bi",-10.033805475548736],["prochaine",-10.034067531794932],["precios",-10.034117167593564],["bring",-10.034131616476792],["terme",-10.034213664979509],["spite",-10.035446907774158],["visit",-10.035466491535088],["security",-10.035598169702872],["ataque",-10.035819190682115],["tra",-10.03583270045365],["Yo",-10.037295902925022],["sería",-10.038479124299334],["Q",-10.038510540707787],["meter",-10.038582844319235],["desarrollo",-10.039682429272382],["quelle",-10.040323660614726],["plein",-10.040905610137186],["previous",-10.040979653959223],["wear",-10.042188590436268],["sujet",-10.043069713512645],["FC",-10.043309483289212],["terwij",-10.044791934005495],["April",-10.044822736991287],["difficile",-10.045426607300548],["environ",-10.045527424936747],["septi",-10.045627413757675],["américain",-10.046139881490294],["civil",-10.046374730200085],["commune",-10.047037913482948],["score",-10.04718375479729],["geval",-10.048275844103925],["loi",-10.048345028810786],["Mundial",-10.048795163815003],["partij",-10.049496735154552],["official",-10.049625151051032],["seem",-10.049648770339282],["gewe",-10.049922732924593],["verwacht",-10.05002615733513],["Kie",-10.050350800052515],["compañía",-10.050803091685136],["comes",-10.051457497124757],["Sam",-10.051729562911778],["Real",-10.051940657197786],["respect",-10.052005590162535],["known",-10.052209810687769],["futuro",-10.05248178530246],["économique",-10.052852578433022],["propose",-10.054101997083126],["Policía",-10.0548364391226],["opportunit",-10.05489603875909],["leader",-10.056021362879282],["sexual",-10.056654356852544],["abord",-10.057275590215495],["realidad",-10.057492469021486],["riesgo",-10.057785068933287],["ruso",-10.05786517352524],["experiencia",-10.058883781648582],["release",-10.059353626739952],["poner",-10.060726671351468],["attaque",-10.061129726516434],["gek",-10.061541630388053],["candidat",-10.062018841137046],["space",-10.062163849905751],["troisième",-10.062954940017324],["existe",-10.063211272770417],["busca",-10.06397429310472],["rating",-10.064187223973722],["dejar",-10.064297688273127],["watch",-10.065080242286923],["tell",-10.065927352261141],["candidate",-10.06645117598042],["matter",-10.067497538109947],["PC",-10.068058376332292],["weken",-10.068439379278725],["box",-10.06916152412304],["licht",-10.06933723232929],["vijf",-10.069339842404174],["vont",-10.069441850244454],["safe",-10.069710704713602],["whe",-10.06982092134321],["Tout",-10.069957387903408],["ij",-10.070551952720432],["platform",-10.070660487423034],["training",-10.070891411739245],["potential",-10.071113597168189],["dicho",-10.071131844664867],["June",-10.07155095685058],["berg",-10.071689582367949],["necesario",-10.073794129198415],["hi",-10.073909602637379],["unique",-10.074259807858823],["Door",-10.07479724565372],["According",-10.07535461831791],["dossier",-10.075370412925448],["forward",-10.075763845522753],["Niet",-10.075818120647796],["Even",-10.077107465432901],["seizoen",-10.077216336019738],["hotel",-10.077827458469397],["mano",-10.077840772683775],["alta",-10.07907876831817],["companies",-10.079327437192259],["Some",-10.079570906172584],["culture",-10.079610273658291],["performance",-10.079785543743794],["transport",-10.08095929152762],["comunicado",-10.081305973121909],["story",-10.081367379942595],["billion",-10.081388403187438],["aumento",-10.082308602146956],["cabo",-10.083195919303083],["thought",-10.08341783703407],["application",-10.08351735299837],["Bank",-10.084115497861525],["obra",-10.084303719162742],["account",-10.08433820039324],["evitar",-10.08449491820009],["unidad",-10.08466536328902],["cción",-10.08514847904378],["développement",-10.085656489314264],["effect",-10.086482910826529],["centrale",-10.087583184366629],["°",-10.087654741064402],["natural",-10.087870707666813],["hub",-10.088126268977115],["cut",-10.088170490222272],["games",-10.088504048899296],["internet",-10.089275962082418],["œuvre",-10.089367734056808],["victoire",-10.089742998253353],["worth",-10.089755363190843],["outside",-10.091057487841347],["formation",-10.091088095954122],["vue",-10.091151742119022],["parce",-10.092108280186217],["jeux",-10.092120202001347],["Not",-10.092798712168591],["recherche",-10.093061986882876],["weeks",-10.093738262143523],["ziet",-10.093927938067175],["prijzen",-10.094183152580287],["accione",-10.094969617623779],["petite",-10.095643779149109],["province",-10.09604808091115],["wege",-10.096140094602838],["original",-10.096590804293935],["tenido",-10.09671602260769],["Robert",-10.097020763872559],["ligt",-10.09811846883156],["énergie",-10.098137025081986],["Over",-10.098493831536754],["average",-10.099239424977611],["Santa",-10.099498882556716],["shot",-10.099506668819764],["actor",-10.099908827644523],["resto",-10.099918198808748],["quick",-10.100037852885123],["Google",-10.100247580092635],["ido",-10.100705835439928],["markt",-10.102976903049631],["99",-10.104435048845966],["core",-10.104777371122044],["ajouté",-10.104783710996614],["encontrar",-10.104985429512299],["ier",-10.104989202168113],["aucun",-10.10499701601723],["râce",-10.106377465723364],["ministère",-10.106614240335677],["48",-10.10809863497686],["feu",-10.108132577046028],["vis",-10.108732066397488],["Comme",-10.108893601174376],["38",-10.109732739716888],["ic",-10.10990229413429],["maakte",-10.110690160994402],["probleem",-10.110862882929124],["firm",-10.111107113352125],["août",-10.11151209468295],["posibilidad",-10.111517642336324],["residents",-10.111834444158301],["Tras",-10.111970591666907],["saying",-10.112007530323837],["opération",-10.112804949585659],["respuesta",-10.113052471372894],["news",-10.113057587762004],["37",-10.11339414590049],["fun",-10.113404329507153],["présent",-10.113560684611961],["material",-10.114291332306644],["député",-10.11500475379772],["vandaag",-10.11514102197171],["Club",-10.115142854747582],["uando",-10.115336088033875],["denken",-10.11604333301014],["Dus",-10.116863004435906],["prison",-10.117007969681072],["199",-10.117574555208893],["autour",-10.118580622261042],["limite",-10.118884743003932],["maintenan",-10.119205952905123],["necesidad",-10.119437297143477],["restriction",-10.119471050275726],["mogen",-10.120788759218257],["zorgen",-10.12090034309837],["inicio",-10.121412915142702],["war",-10.12256913417073],["recht",-10.122766108216426],["Jul",-10.122879024910088],["reden",-10.122962599714125],["campaña",-10.123755664242987],["vrouwen",-10.124143569947485],["Tour",-10.12418388398202],["conseil",-10.124704154038522],["prensa",-10.125988663722465],["manière",-10.12602716817872],["voiture",-10.126082456958356],["America",-10.126225232091846],["avantage",-10.126488355040017],["page",-10.127906748643097],["explicó",-10.128152678254475],["pri",-10.128953623582476],["rôle",-10.128988519571607],["vi",-10.129860938520078],["contract",-10.13029297446834],["hoor",-10.130308938123871],["construction",-10.130696616994294],["gosto",-10.131623243974726],["Johnson",-10.131874317609316],["económica",-10.132415907624157],["prise",-10.132486160535182],["gebied",-10.132687176226003],["research",-10.132768820559413],["asse",-10.133246587786179],["haut",-10.133277194451633],["Fue",-10.1339259766524],["agreg",-10.135912203713723],["donné",-10.136264913697293],["rying",-10.136476277882503],["stellen",-10.136942891767191],["aldu",-10.138870490348769],["infection",-10.138979782966056],["difícil",-10.139002899262751],["association",-10.139008020834538],["terrain",-10.13956056440526],["response",-10.139928059680813],["human",-10.141246221283883],["regard",-10.141836479467942],["Di",-10.141946601443998],["nosotros",-10.142445742923151],["naast",-10.142574570209161],["estadounidense",-10.143403344491308],["eind",-10.143671002371029],["haya",-10.144451753907324],["parece",-10.144754998399486],["elección",-10.145791914599808],["résultat",-10.147824750591761],["target",-10.147898505716416],["amigo",-10.148284219988003],["organiza",-10.149811847446903],["vecino",-10.150106943744987],["condicione",-10.150422416607498],["calidad",-10.150751709028105],["esos",-10.1517218840075],["miembro",-10.152262885311996],["reçu",-10.152263235866474],["Center",-10.152777216772408],["medical",-10.15312062071116],["seis",-10.153845468941768],["claro",-10.155371811776387],["color",-10.15576478004084],["store",-10.155784643034504],["financial",-10.155785778724606],["industr",-10.15593946087466],["trabajar",-10.156058451151555],["California",-10.15647280787842],["energía",-10.156726734065703],["ruim",-10.156922531254112],["stage",-10.158040841695804],["morning",-10.158964452304389],["carrière",-10.159785754110567],["55",-10.159863087264949],["protest",-10.160755799871843],["donner",-10.160764942261695],["Hospital",-10.16107499789452],["drive",-10.16108773993333],["„",-10.161201359760229],["gaz",-10.161368763447204],["Afrique",-10.16138333026115],["personnel",-10.161388976710283],["reason",-10.161675502921103],["jouer",-10.161993342888197],["gest",-10.16207359402509],["digital",-10.162443328709019],["Mark",-10.162455676607108],["mayo",-10.162589139652294],["65",-10.162678102874683],["trouver",-10.163250791069848],["Emmanuel",-10.163448699611568],["behind",-10.163458378952333],["remos",-10.16373147298946],["voter",-10.164632175532493],["form",-10.165030464066408],["prijs",-10.165159049731159],["website",-10.165809515041534],["nom",-10.166931298624434],["Centre",-10.167693782867566],["bureau",-10.167724752408239],["Conseil",-10.167774617781953],["palabra",-10.167962317849895],["Día",-10.168459968445791],["Vou",-10.168487428702866],["deaths",-10.168498016706124],["Day",-10.169848685349447],["maand",-10.16986474196366],["Air",-10.169877955268088],["countries",-10.17025407201256],["sociedad",-10.170284162127711],["idée",-10.171641620974043],["enige",-10.171769798471034],["participa",-10.172000475353768],["pareja",-10.172416553867336],["pandémie",-10.172488318637878],["zaterdag",-10.172488432397811],["tomar",-10.174679097298872],["entidad",-10.175412042144675],["single",-10.176141736914804],["arrivée",-10.176422998012697],["permis",-10.176883754188333],["Department",-10.17705142999019],["middels",-10.178070574381053],["marz",-10.178771979592895],["Amazon",-10.17881001039955],["list",-10.178844704616445],["vorig",-10.178898896898534],["neem",-10.17953035643011],["madre",-10.179808401087397],["econom",-10.17991409977205],["Iran",-10.180693225970955],["départ",-10.18086602409007],["cifra",-10.181377720407898],["alto",-10.181885569308877],["capacidad",-10.182170302676555],["echter",-10.182650294542093],["bent",-10.183376504269315],["soci",-10.183448114615633],["table",-10.18349548765023],["feature",-10.183569585136953],["Central",-10.183816825875555],["town",-10.1840875466111],["double",-10.184616243244417],["web",-10.185921544546922],["abril",-10.186091196847375],["gún",-10.18646874001673],["ayant",-10.186922567821725],["thuis",-10.18855026275624],["presencia",-10.188681477645474],["Salud",-10.188768351040373],["entire",-10.188951481674518],["choi",-10.190168978568435],["gracia",-10.190503797746494],["violencia",-10.190816533106695],["accident",-10.191216295024747],["ambos",-10.191221419034132],["kosten",-10.19133746071196],["special",-10.191353036551583],["zoude",-10.191692734006814],["focus",-10.192810882321659],["regering",-10.192982963547305],["connu",-10.194926628073002],["camino",-10.194993576452383],["wind",-10.196045580008398],["pasar",-10.197598734278674],["Poetin",-10.198028858063715],["building",-10.19900927538235],["Now",-10.199447656249639],["Venezuela",-10.20010794617111],["édition",-10.200108226041419],["42",-10.200484172411823],["act",-10.20108031747285],["overheid",-10.20173326480023],["Centro",-10.202193383554771],["pa",-10.20250374035279],["released",-10.203722605901046],["municipal",-10.20383168419843],["conjunto",-10.204751334658573],["history",-10.204871838239455],["ven",-10.205151119889504],["pesar",-10.206000274946403],["vivienda",-10.206083153261066],["woensdag",-10.20644116631344],["vragen",-10.206465086160412],["additional",-10.206795233995003],["territoire",-10.207133638592211],["moyen",-10.207231831609821],["pued",-10.208053671551138],["pen",-10.209897110199442],["gevolg",-10.210897504671834],["update",-10.211119885692472],["relate",-10.211159005851588],["involve",-10.21120594578974],["febrero",-10.211864262741706],["kabinet",-10.21190004851955],["décidé",-10.211947773163626],["anterior",-10.211947972441926],["role",-10.212810358977038],["plut",-10.214685407531693],["surprise",-10.215427464288263],["ander",-10.216409528863263],["maandag",-10.216605443614329],["delito",-10.217126221936446],["Nord",-10.21732367081359],["God",-10.217339963752657],["ganar",-10.217341415619913],["succès",-10.218962133177229],["James",-10.219326406263857],["book",-10.219694820093109],["Park",-10.219772778862989],["père",-10.219865153390494],["venta",-10.220088069814654],["mannen",-10.22100635580988],["virtual",-10.221335122071343],["check",-10.22158358970703],["proche",-10.221628729635313],["reunió",-10.221770333325106],["employee",-10.221945805688513],["bad",-10.222129509650266],["Ten",-10.222179401463453],["planne",-10.222970495724883],["lives",-10.224537571160802],["leave",-10.225743410451614],["Ló",-10.226223906284023],["visite",-10.226878177199243],["Qué",-10.226893758304207],["habitant",-10.227513376917033],["único",-10.228746094213257],["sortie",-10.228957693895016],["Bar",-10.229516756031167],["reciente",-10.229976199527819],["travers",-10.230517785633117],["Michael",-10.230914167247896],["vrijdag",-10.231033847321987],["region",-10.231967818222486],["meest",-10.232193191231246],["mí",-10.232439726216079],["Street",-10.233344740880156],["senior",-10.23341021699967],["tion",-10.23469489401288],["ismo",-10.235154062119197],["?”",-10.235707170060522],["attention",-10.235756116183104],["room",-10.235943422715545],["dû",-10.236436513054361],["Mo",-10.236563507210157],["favor",-10.236601311014407],["ish",-10.23761750775494],["park",-10.237655518259157],["manifest",-10.237832735046508],["werkt",-10.238726962999515],["alrededor",-10.239465632862169],["ingreso",-10.239520499313148],["band",-10.23970771472652],["43",-10.239765506572297],["recover",-10.239859730726963],["debate",-10.240097838595815],["afirm",-10.240100605604926],["doctor",-10.240501318782156],["enfermedad",-10.240590670722273],["development",-10.24176418507259],["lleva",-10.242156148032628],["salir",-10.242755529077893],["hoger",-10.242766430715317],["zat",-10.243588633314003],["radio",-10.243651768957367],["druk",-10.243874693654432],["safety",-10.244487881211082],["área",-10.244823086755204],["often",-10.245080565711906],["intérêt",-10.245471754900748],["donnée",-10.246182898200331],["gré",-10.246974842071149],["Putin",-10.247119801766424],["mantener",-10.24787119824251],["customer",-10.248211337300294],["August",-10.2482237016395],["goal",-10.248350828998163],["village",-10.248721187188272],["vidéo",-10.248728791302728],["grootste",-10.249067784040838],["cuanto",-10.250368269681445],["plataforma",-10.250392081499456],["Service",-10.250441746794529],["White",-10.251289863002876],["character",-10.253280258416094],["propos",-10.253409867907344],["español",-10.254334644529102],["design",-10.254880303755712],["nuit",-10.2552505121579],["benefit",-10.255470666746623],["UK",-10.255925293220002],["produce",-10.255986115004111],["station",-10.256131959057836],["ruimte",-10.256515844479265],["vond",-10.25676638965516],["photo",-10.257485671776442],["ukrainien",-10.257512955186082],["Suisse",-10.25763294009784],["zaak",-10.257777728043893],["150",-10.258398453248436],["significant",-10.258907673008896],["operation",-10.25915572906134],["phone",-10.25960369432216],["600",-10.260014392969724],["realiz",-10.260021332094041],["cantidad",-10.260253784159735],["graag",-10.260276436501975],["iPhone",-10.260359651359588],["façon",-10.261007194046837],["Our",-10.26111531426686],["sabe",-10.261319338277092],["demanda",-10.261555526347646],["ú",-10.26156219973511],["emment",-10.261761990382588],["Open",-10.262418268258639],["vehicle",-10.262703682944128],["began",-10.262779339696113],["AFP",-10.262976687742103],["raise",-10.263739783611065],["detail",-10.264065925977869],["expect",-10.26435824502347],["Ju",-10.265048065020924],["betalen",-10.265424453437625],["menor",-10.26575588003951],["http",-10.266788477709966],["Ante",-10.26752827994643],["franc",-10.267627363368426],["Martin",-10.267826485347154],["Dur",-10.268591125557615],["langer",-10.269104886622156],["spelen",-10.270017376004294],["belle",-10.270068923566619],["situatie",-10.270314619881889],["Liga",-10.270449905350404],["motivo",-10.270461889907898],["regular",-10.270583322791289],["victoria",-10.270790561184157],["familie",-10.270969290770243],["profit",-10.271383704484132],["Ahor",-10.271674763404253],["etc",-10.271967739417862],["saw",-10.272201947852075],["vaccine",-10.272730450324442],["elke",-10.272932068926863],["aquí",-10.273183536155981],["trouve",-10.273894062952047],["liste",-10.27438198526637],["inflación",-10.27528598276392],["plazo",-10.275336790981445],["friends",-10.276220099336026],["confirm",-10.277496957078075],["suspect",-10.278011283300925],[":/",-10.278027974848222],["ciudadano",-10.278029810776527],["II",-10.27828149034767],["presenta",-10.278649787995437],["content",-10.279147300194216],["usuarios",-10.279150391237454],["Francisc",-10.279651597584909],["comenz",-10.280174019669222],["naam",-10.280667569758933],["ither",-10.281071140645304],["midi",-10.282009202186323],["Super",-10.282167308403324],["viaje",-10.28256438987114],["Hier",-10.282634781013659],["qualité",-10.282837124099085],["carte",-10.283347480274397],["44",-10.283431155031483],["meet",-10.283979392283154],["key",-10.28460617026576],["ement",-10.28524530504574],["effective",-10.285415151440416],["avion",-10.285873184228388],["animal",-10.286092484234986],["buen",-10.286307927964497],["esté",-10.28640428644692],["anunci",-10.286525269793959],["gave",-10.286576065504267],["reduce",-10.286872943777809],["access",-10.287160556332147],["artista",-10.287389028910876],["iving",-10.287641041226715],["pago",-10.287715538609913],["hôpita",-10.287862009651423],["étude",-10.28790150418008],["George",-10.28803929706101],["39",-10.288095586520761],["outbreak",-10.288330762697694],["hoge",-10.289208062993797],["fan",-10.289292022023135],["humano",-10.289306604833993],["article",-10.289912311242894],["cher",-10.29005737524983],["Court",-10.290142720868296],["letter",-10.291214107414746],["enorme",-10.291291128492297],["tribunal",-10.291318366014712],["His",-10.292455085795297],["européenne",-10.293166283099753],["member",-10.293305718657049],["haciendo",-10.293327415847898],["factor",-10.29351627420239],["times",-10.294209188199678],["permite",-10.295067272438313],["savoir",-10.295223357837163],["recibi",-10.295242858896529],["totaal",-10.295557287092329],["families",-10.295622772162325],["diferencia",-10.295670239776143],["proces",-10.296025107161611],["gegeven",-10.296113518567806],["vos",-10.297671331824462],["jefe",-10.298788024366399],["ahí",-10.299078396026026],["donne",-10.299264882057447],["kant",-10.300225981942951],["technique",-10.30035803279196],["Belgi",-10.300511596294125],["Netflix",-10.300682690392762],["dinsdag",-10.300700942198752],["noticia",-10.300718976445186],["shows",-10.301713200125485],["económico",-10.303244575417192],["película",-10.303266914653786],["principio",-10.303350349108404],["concert",-10.303699316995527],["ham",-10.304145673717827],["compromiso",-10.304157194035842],["trabaja",-10.304259383889576],["corps",-10.305164923839708],["camera",-10.30518233609589],["duda",-10.30545064939582],["lograr",-10.305464515508561],["spend",-10.305486326261551],["mejore",-10.305495160929159],["round",-10.305521582248105],["private",-10.305876167804222],["child",-10.305957451750476],["ningún",-10.306227162776107],["acceso",-10.306317062409413],["sub",-10.306572097669573],["stead",-10.306635994483543],["orden",-10.307493189790396],["indique",-10.308847609293906],["baja",-10.309453740227593],["visto",-10.309515402022459],["gelijk",-10.310464177318234],["Ciudad",-10.310949585175564],["pequeño",-10.311058943120207],["peine",-10.313371174017396],["dood",-10.313915710333845],["coût",-10.31403146481868],["beste",-10.31409131010021],["opposition",-10.315575570708834],["valeur",-10.315588686683437],["sept",-10.31571425648707],["85",-10.315965825421138],["initiative",-10.31633262269905],["prend",-10.316345069328353],["investigation",-10.316375270172367],["46",-10.317269837206844],["offer",-10.31774646138702],["générale",-10.31782276766581],["volver",-10.318244799014927],["ayer",-10.319459709285072],["black",-10.320060724843671],["modelo",-10.320279867392566],["Januar",-10.32155799528233],["Michel",-10.321794980696133],["track",-10.321854201173263],["zeer",-10.322500750425958],["cœur",-10.32346163459389],["gros",-10.324107968549079],["protection",-10.324364124088152],["Eso",-10.324935788608258],["institu",-10.325353480086015],["wa",-10.325378031797916],["nombreuse",-10.325397241479166],["val",-10.325546683755594],["abilit",-10.325931178631224],["valt",-10.325940851332682],["Green",-10.326581830599665],["kort",-10.326680120510826],["habría",-10.326853600968601],["arme",-10.326947917004105],["negocio",-10.327043829577285],["¡",-10.327645952888838],["ensure",-10.32882477366115],["llí",-10.328852268989994],["directe",-10.328931874659983],["follow",-10.329117534865503],["heden",-10.329415908600206],["States",-10.3303042243836],["unning",-10.330565697465714],["interior",-10.330934840840095],["rendre",-10.330954175356887],["gekomen",-10.331449708114882],["aucune",-10.331757668419208],["52",-10.3320945265193],["zondag",-10.33210807629412],["lancé",-10.332161692081222],["wait",-10.332675272877879],["Wij",-10.334326273481944],["volledig",-10.334811531768104],["earlie",-10.335267816385027],["41",-10.335439962277349],["nadie",-10.335772530583998],["someone",-10.336122553586234],["pied",-10.33670076334843],["UE",-10.33689548160614],["mundial",-10.33744761574777],["comunica",-10.337578273425287],["800",-10.337808525275964],["active",-10.338561711358292],["playing",-10.33975982912374],["Pierre",-10.340293700325299],["sort",-10.34044899240157],["verhaal",-10.341911440486125],["Daniel",-10.3426199364098],["argent",-10.342701859091141],["nécessaire",-10.342849650821925],["donderdag",-10.342859754760187],["Smith",-10.342894028338534],["Barcelon",-10.342966141293509],["propre",-10.343128863437485],["ball",-10.34421866926817],["difficult",-10.344549468929706],["Commission",-10.344968755762036],["serious",-10.345628964109721],["contrôle",-10.345899017579235],["danger",-10.346096582491587],["activit",-10.34698261782517],["miles",-10.347370827605221],["Oekraïens",-10.348247771094075],["emergenc",-10.348249247811353],["André",-10.348498575250119],["modo",-10.348976758908412],["toward",-10.349179636621688],["livre",-10.349326873123776],["luz",-10.349879625772857],["authorit",-10.35002356717113],["efecto",-10.350149366289386],["communication",-10.35060413527508],["School",-10.350657368593904],["economía",-10.350975758905587],["music",-10.351139670364201],["genre",-10.351939395857732],["dienst",-10.352359203007454],["Group",-10.352674095483245],["ernández",-10.353534344161371],["próxima",-10.35367518962829],["Rutte",-10.353680086813476],["iba",-10.353869375273767],["eleccione",-10.3542216043491],["pense",-10.355028579476045],["PS",-10.355032966772388],["mother",-10.355177116149235],["mooi",-10.35530942814229],["signe",-10.355762631445174],["jij",-10.355944850363374],["uiteindelijk",-10.357454693045183],["leden",-10.357505041230828],["vak",-10.35773024364994],["pic",-10.358033646327803],["regen",-10.358194962802214],["nature",-10.358510124580096],["grado",-10.359688515987383],["stuk",-10.359906504183776],["gebruikt",-10.360069945891137],["49",-10.360487469996539],["précisé",-10.36050540931339],["llev",-10.36080338228077],["juste",-10.360895158493312],["bout",-10.36101024950053],["fundamental",-10.361570665039862],["mère",-10.362038926264148],["hablar",-10.362139915560569],["beleid",-10.362214724779612],["soi",-10.362988854582326],["María",-10.363714195368317],["matière",-10.36462455770926],["territorio",-10.364891459922312],["press",-10.364990449197904],["Federal",-10.365100437891902],["protect",-10.365761481558138],["fase",-10.366436735631506],["ther",-10.36732122487102],["chief",-10.367429342323238],["ongeveer",-10.367809679709707],["média",-10.367860220863093],["suggest",-10.368286230138848],["Colombia",-10.368996331190903],["winter",-10.369187838002762],["jugar",-10.369202034625552],["International",-10.369600537201684],["playe",-10.370081778653173],["covid",-10.370327686575086],["Bo",-10.370406946016836],["Max",-10.37110585440003],["fútbol",-10.371938139001173],["lista",-10.371941231710874],["Tom",-10.371950854075202],["ster",-10.371972208440472],["Hoy",-10.372575498796643],["programma",-10.372865475497363],["executive",-10.372907525328154],["sanction",-10.373152513160562],["pudo",-10.373217715185135],["voi",-10.373299621142504],["Manuel",-10.373619985326677],["sanitaire",-10.373850571323533],["changement",-10.374085114716117],["plek",-10.374351516717681],["trav",-10.37480186841229],["ran",-10.375066020312177],["puerta",-10.375635232000402],["periodista",-10.375809577191347],["waarom",-10.37590601164339],["mov",-10.376436073113638],["lucha",-10.376476154849223],["langs",-10.376667228168625],["única",-10.377066863233896],["nord",-10.377259931606837],["Charles",-10.377600278070084],["waardoor",-10.378279881055423],["95",-10.37875106361197],["deben",-10.379906444107501],["siete",-10.380034717527643],["welke",-10.380104869907576],["rappel",-10.380196833300094],["district",-10.380267549896367],["elemento",-10.380720318844222],["assure",-10.380803025166163],["Después",-10.381263148409108],["communauté",-10.381263216561244],["tarjeta",-10.381263278746465],["É",-10.381423713599947],["moeder",-10.381719252387981],["speak",-10.381976277313772],["gauche",-10.382279691066117],["liggen",-10.382549797275665],["compare",-10.383776370861106],["immediate",-10.384069522548259],["transition",-10.384086536142542],["punten",-10.384863460227574],["espace",-10.384888669737416],["ordre",-10.385831244270284],["phase",-10.386305607004868],["vamo",-10.386662622473246],["cierto",-10.386826336799249],["expérience",-10.386873237933319],["rente",-10.387202211301325],["Amsterdam",-10.38775542868349],["loin",-10.388638935251738],["clave",-10.388664214574856],["organisatie",-10.388826053082042],["explica",-10.38890937742892],["práctica",-10.389690141374967],["People",-10.38969396962296],["quartier",-10.389740841939535],["needs",-10.389755607099211],["cliente",-10.389867645272377],["économie",-10.389988448980976],["baar",-10.39011888892706],["llega",-10.390641885021143],["reach",-10.3913645891381],["career",-10.39151071570372],["Want",-10.391735249731102],["heart",-10.392252694320938],["leggen",-10.39243390215298],["particulière",-10.392515146148437],["paciente",-10.392516805358746],["pratique",-10.392524751044727],["maire",-10.392577555096201],["ploeg",-10.392932158794325],["More",-10.393493742204676],["agente",-10.394185127678137],["concerne",-10.394495400276224],["zorg",-10.394585578106089],["Mon",-10.395080580816789],["modèle",-10.395348110540688],["September",-10.395348183150933],["crecimiento",-10.395374314588171],["wrot",-10.395441525630222],["Nigeria",-10.395743493177912],["visita",-10.396139888635414],["terre",-10.396376310671089],["player",-10.396454881045866],["Texa",-10.396458244176188],["wante",-10.396693693767276],["objet",-10.396746977045062],["campo",-10.397077590486905],["motor",-10.397273490039836],["road",-10.39732334362057],["escenario",-10.39799513308034],["walk",-10.398029337999905],["estudio",-10.398871459771813],["agenda",-10.399279758971495],["wilde",-10.40053308371187],["journaliste",-10.40054234568397],["técnico",-10.40071212711587],["girl",-10.401276246933747],["seconde",-10.401481334713745],["nothing",-10.40149545161831],["miljard",-10.401654313749269],["soon",-10.40257070943506],["ves",-10.403383639063234],["derde",-10.403634589274152],["Novemb",-10.40367380320774],["count",-10.40390403341244],["Congreso",-10.404134283303446],["llowed",-10.404908564446732],["opera",-10.405074281520243],["break",-10.40522957796747],["zoveel",-10.405396127796918],["47",-10.405447981559181],["mode",-10.406472261251743],["cara",-10.40648714719422],["institution",-10.406627190707585],["houdt",-10.406645028916433],["Octob",-10.406774115767004],["Pedro",-10.40688128794917],["agent",-10.407178183573308],["Star",-10.407901124002422],["movie",-10.4080833038192],["camp",-10.408652645566342],["Mar",-10.408810437446668],["amount",-10.410214665134585],["dieron",-10.410519338219862],["ring",-10.41132077430073],["capacit",-10.41163814605899],["address",-10.412435177488018],["Chief",-10.412541743250095],["criminal",-10.413052157701472],["zomer",-10.413515593896264],["parler",-10.414701426619917],["friend",-10.414902869815677],["hoog",-10.41531508040543],["industrie",-10.415318839951151],["discussion",-10.415454737836454],["study",-10.415734112649872],["prévu",-10.415892195773731],["Peter",-10.416171384465827],["celebra",-10.416178693478244],["acto",-10.416666760696849],["Toda",-10.416919795796264],["fast",-10.417591989796321],["seguro",-10.417631562573746],["bied",-10.41778541673824],["boeren",-10.417985262137048],["estime",-10.418164913312411],["ocho",-10.41820351534789],["música",-10.418304379366973],["élu",-10.41843834852315],["Nation",-10.419145178049359],["ampoco",-10.41933531971126],["Australia",-10.42044480897302],["bas",-10.420521319172096],["2010",-10.420646356635583],["République",-10.42122072252896],["Universidad",-10.421228897821603],["pool",-10.421572372108146],["War",-10.421734519742182],["siguiente",-10.421868309006568],["bord",-10.423151901732613],["máximo",-10.424179406082558],["habrá",-10.424238994436305],["college",-10.424244125595944],["distinto",-10.424587018727413],["victim",-10.424836782939103],["deliver",-10.426499720932714],["Japan",-10.4265342800722],["Coupe",-10.426629484789984],["eeded",-10.42665529797906],["República",-10.427178395304146],["quedar",-10.42766534961629],["permettr",-10.428109246464977],["belangrijk",-10.428604179649698],["Ram",-10.428664925269173],["responsables",-10.429256186584134],["localidad",-10.429324412573392],["2000",-10.429681664239585],["defensa",-10.430003009464048],["partner",-10.430242190540515],["Ali",-10.4304230041895],["Est",-10.43063522843053],["perfect",-10.431272384349715],["accè",-10.431433182379381],["Villa",-10.431495151378101],["richting",-10.431584506130363],["niks",-10.432187416057989],["présence",-10.432925802683375],["titular",-10.432974542842956],["location",-10.432994325476463],["político",-10.433477659911997],["bo",-10.43378781426117],["leaders",-10.433903017871808],["57",-10.434024147615522],["dix",-10.43433429883104],["structure",-10.434397721295001],["ouvert",-10.43451023994095],["mantiene",-10.43462222128591],["mondiale",-10.435040448201793],["entrada",-10.435408028529757],["movimiento",-10.435881951916919],["white",-10.436046707688178],["zaken",-10.436067059995587],["rare",-10.437671372936073],["artiste",-10.437728554998525],["voto",-10.438216682030504],["ieder",-10.438278633387135],["2012",-10.438288208769086],["Civil",-10.438895326843127],["gang",-10.438928436067181],["amor",-10.43903325884395],["impacto",-10.439518957249422],["garde",-10.439923974312801],["presentar",-10.439996745966688],["pan",-10.440034727943019],["others",-10.440612221038698],["montre",-10.440917050106346],["necesita",-10.441351873991252],["marque",-10.441527994494939],["Thomas",-10.441863300967722],["daily",-10.44192289835689],["parties",-10.4420148015297],["kleine",-10.443101703207622],["accidente",-10.443742675013118],["bal",-10.444578444507858],["disease",-10.445186963860472],["esas",-10.445286061417654],["Pen",-10.44580007895338],["vuelta",-10.44664962671828],["ki",-10.446808369014907],["rrière",-10.447278141496385],["beteken",-10.447315770891683],["citoyen",-10.44754297081165],["attempt",-10.447789860598686],["entrée",-10.448086104880844],["bigge",-10.44829842154736],["Sud",-10.449162426983747],["gol",-10.449524092808257],["russes",-10.449923647867113],["Brit",-10.450073076100495],["Israël",-10.450137428163119],["oud",-10.45194114941733],["regel",-10.452217205556524],["cabeza",-10.452341208828432],["différente",-10.452372796273416],["contrat",-10.453437022932782],["Her",-10.453900120938027],["growth",-10.453970131385187],["250",-10.454183912269567],["lijk",-10.454697316529966],["ive",-10.454826155133052],["read",-10.45490776183545],["exist",-10.455498390596546],["scene",-10.455558932599896],["loopt",-10.456288396463744],["réussi",-10.456291488132699],["ko",-10.456362563028671],["kopen",-10.456408255488967],["forte",-10.456733958916773],["interés",-10.456831828875416],["bill",-10.456928989565972],["Democrat",-10.457060683752676],["Wie",-10.45708899062998],["vorige",-10.457339684898296],["album",-10.457813572020871],["propia",-10.457840643107893],["vallen",-10.457945701922998],["song",-10.45844681622769],["Just",-10.458739903238143],["longer",-10.459013792610731],["actie",-10.459041457226352],["punt",-10.45918400388253],["hoop",-10.459471637129361],["kille",-10.459477722150071],["ergens",-10.459592568000204],["époque",-10.459799919223107],["juge",-10.460442688215736],["totale",-10.460513896363324],["Social",-10.460619750831231],["tenga",-10.461443598148911],["élève",-10.461553198736343],["kilómetro",-10.462822098928736],["suma",-10.463000561180499],["gestion",-10.46329555267608],["multiple",-10.463339501181432],["lekker",-10.46366302283371],["oferta",-10.463756332734476],["centrum",-10.463948019546741],["vista",-10.463979477941319],["saber",-10.464637653673064],["défense",-10.465608514468585],["esfuerzo",-10.465861618409843],["éxito",-10.4658620648211],["fonction",-10.466572919609524],["Plan",-10.466809273126568],["Louis",-10.467969215634705],["PP",-10.468830700744844],["Vladimir",-10.468912900922763],["emploi",-10.468922941312432],["libertad",-10.469208880327567],["minute",-10.469259795994136],["capacité",-10.469978114570019],["rendu",-10.470016776982472],["manager",-10.470334420147287],["participar",-10.470580124715443],["reprise",-10.470774551915072],["ending",-10.470826060428745],["marco",-10.47096486515737],["rij",-10.47100007470263],["prêt",-10.471347915710334],["lorsqu",-10.47137659056839],["mejorar",-10.471530903060732],["européen",-10.471734527112584],["understand",-10.471816865093846],["bueno",-10.471947705229512],["título",-10.47196850307929],["gobernador",-10.472458121780118],["Consejo",-10.475035980713322],["Musk",-10.475112180003817],["enfant",-10.47534284611088],["origine",-10.475429797562382],["vente",-10.475456412803712],["capitale",-10.475469096838996],["actions",-10.475685620743569],["Bueno",-10.475692520973784],["différents",-10.47578029661749],["periode",-10.475909139630753],["wanne",-10.475951545608734],["66",-10.476597620416836],["contar",-10.47664214701916],["demandé",-10.47681499883751],["veld",-10.477163031921155],["droite",-10.477737479506674],["Government",-10.47829606100225],["Africa",-10.478546812291327],["industria",-10.479019433379284],["decade",-10.480272194501456],["Maroc",-10.481234943488875],["responsabilidad",-10.481339459077118],["ochtend",-10.481477796239199],["argentino",-10.481516329171123],["plu",-10.481731373572334],["practice",-10.482334996291524],["essential",-10.482372515671356],["mail",-10.482763437258473],["bezig",-10.483607445274792],["escuela",-10.484334709356006],["seek",-10.484655583727186],["daarom",-10.485101280627383],["management",-10.485292488696508],["rechter",-10.485339046615731],["ecember",-10.485895521843082],["58",-10.486283459919104],["interven",-10.486478072898763],["detalle",-10.486607252190538],["tecnología",-10.487400917094604],["smartphone",-10.487417537990268],["ofrece",-10.487742886864533],["maatregelen",-10.487927979924484],["incluye",-10.488102672416783],["54",-10.488267902820775],["grond",-10.488272574219575],["lever",-10.488819709196935],["representa",-10.489500746410657],["iniciativa",-10.490518015349458],["audience",-10.490518237666233],["relationship",-10.490539880601457],["regional",-10.490554156452028],["driver",-10.490576820887973],["Februar",-10.490706315055416],["sign",-10.491533993358528],["systeem",-10.491555507888098],["avez",-10.492932610684193],["appelé",-10.493077238187313],["inside",-10.493339654466805],["schedule",-10.493447910672128],["voie",-10.493600653890166],["década",-10.493717772782716],["father",-10.494005643221737],["revenue",-10.494043962665474],["hacen",-10.49458719660663],["aider",-10.494660232583293],["eguridad",-10.494815426301454],["Marc",-10.495030993822601],["longue",-10.495104338807193],["meilleure",-10.495233651667954],["propert",-10.495399461916932],["fuego",-10.496334494155137],["volume",-10.49683248677787],["Poutin",-10.49683276998787],["metros",-10.497366849211812],["vive",-10.497485169862859],["plaza",-10.497642805086713],["bio",-10.499213093571829],["extrême",-10.499920585048965],["debería",-10.499998843137638],["América",-10.500018533170543],["écran",-10.50003221916862],["Mario",-10.500241253782406],["hulp",-10.500601346097227],["Per",-10.500614064338286],["ayudar",-10.502318249043064],["echnology",-10.502688785603425],["quality",-10.502916653808697],["doute",-10.5030016245388],["example",-10.50309241754351],["tengo",-10.503461779487537],["positivo",-10.503549475743508],["quarantine",-10.50423366141522],["Many",-10.504288208729744],["precie",-10.505123764209998],["Bay",-10.505758151268001],["prima",-10.506028456581568],["infrastructure",-10.506242124759929],["CEO",-10.506284837621786],["accusé",-10.506358088018944],["rester",-10.50637739900219],["Bien",-10.506760121107074],["américaine",-10.507109235182202],["Mijn",-10.50713899408634],["Sport",-10.507293920262558],["Ça",-10.507333526059636],["grands",-10.50755010184205],["ninguna",-10.507721865747651],["ground",-10.50782557372243],["beeld",-10.508741601299],["states",-10.509038533810276],["française",-10.509234558528552],["atteint",-10.509312695337456],["huidig",-10.50952637711817],["talent",-10.509745439299316],["flink",-10.509905158235973],["doive",-10.51069989797093],["serve",-10.511302443708466],["cita",-10.511311794989405],["Ains",-10.512409451678135],["perdu",-10.512562615573895],["wife",-10.512577004083735],["établissement",-10.5126091204777],["entrega",-10.512688579277842],["majorité",-10.513291505026483],["lutte",-10.513371067411068],["policier",-10.513484432860704],["précise",-10.513553207922039],["conclu",-10.5140877143293],["vertelt",-10.514389182749753],["distanc",-10.51445729081556],["contrato",-10.514787415037787],["tests",-10.514982555449677],["makes",-10.51544953305616],["lluvia",-10.515810420749352],["plateforme",-10.515859877798125],["guien",-10.51587253136545],["sait",-10.516771970716636],["armes",-10.516792869232688],["lower",-10.51758235067097],["écrit",-10.517729592452692],["clase",-10.51788963483242],["klimaat",-10.518016827146692],["cijfer",-10.518290977718985],["fácil",-10.51900549322275],["revenu",-10.519516797684815],["étant",-10.519784845499395],["guy",-10.519831973786154],["policy",-10.520001737851498],["Casa",-10.520417668275847],["Comis",-10.521166565812376],["añadi",-10.521446543789512],["hors",-10.521630193873637],["describe",-10.521870478662716],["tension",-10.521951875044596],["Alle",-10.522175818575406],["presión",-10.522210166524626],["Duitsland",-10.522234351631102],["Association",-10.522237120919737],["sitio",-10.522254448898007],["Florida",-10.522268188326812],["llamado",-10.522661095406018],["72",-10.522891701891071],["créer",-10.523480560404625],["mètre",-10.524283484594115],["tasa",-10.524996792670626],["Toen",-10.525173974328121],["inflation",-10.525264156140064],["temperatura",-10.525440321882424],["organization",-10.525510313046055],["zag",-10.525515508132827],["vaccin",-10.525614727193796],["Christian",-10.525621324710848],["Ville",-10.525842939534376],["fond",-10.526161687660462],["zelfde",-10.526471829648347],["telle",-10.527331158575766],["Luc",-10.52765178661711],["tax",-10.527797234275937],["peuple",-10.527944552907634],["nieuws",-10.52795294907284],["films",-10.528742195665838],["daarna",-10.528937158201721],["arrêt",-10.528984764477292],["barrio",-10.529032402030296],["nacht",-10.529047637801845],["Net",-10.529113566067783],["vader",-10.529395149004973],["Cha",-10.529474887853155],["restaurant",-10.529600996211624],["commission",-10.529650887284536],["helpen",-10.529874989879797],["News",-10.52987587426801],["product",-10.529996900947474],["Antoni",-10.53059082332943],["voit",-10.530697826767927],["mouvement",-10.530850437695044],["honderd",-10.531648989053604],["sûr",-10.53189000558756],["compagnie",-10.531923524740812],["acht",-10.531963059604799],["Copa",-10.532361754672628],["VS",-10.532720394877362],["detenido",-10.533895496443964],["aange",-10.534690110707633],["64",-10.535460215836682],["halve",-10.535703017985643],["pré",-10.53578453827588],["user",-10.537287608792244],["invers",-10.537830461761544],["Russen",-10.538180846281502],["hechos",-10.538524474748982],["rang",-10.53864496793475],["populaire",-10.539286389845353],["meeste",-10.53944432576838],["relatie",-10.539804145743293],["Don",-10.539906142144194],["Lors",-10.540113661607018],["education",-10.540579845661156],["mental",-10.541005453966259],["candidato",-10.541034599980176],["jou",-10.541345291303426],["vot",-10.541488203482029],["manque",-10.541588937195343],["Disney",-10.54172763123371],["conocido",-10.542199361275124],["groter",-10.542436621181432],["dirigeant",-10.542560650039945],["pick",-10.542923096273611],["golpe",-10.54336600249263],["Même",-10.545029098983793],["expliqué",-10.54510813775028],["amente",-10.546050341826902],["retrouve",-10.54627559252899],["entrevista",-10.546508709616884],["partijen",-10.546625810746484],["kilometer",-10.54729084016858],["présente",-10.548223393913947],["mexicano",-10.548342982931093],["salida",-10.548669892644503],["request",-10.54883827730813],["Cruz",-10.54886738828243],["adelant",-10.549002805012876],["vacuna",-10.549254274892007],["representante",-10.54955721882694],["WK",-10.54957228575347],["whole",-10.551252924383569],["Justice",-10.55164177191165],["ocurri",-10.552313882930996],["âge",-10.552433535125251],["regio",-10.552516106685864],["usual",-10.553121343704467],["po",-10.553167125997946],["middag",-10.55340040847689],["construc",-10.55379433265795],["Play",-10.553889250260934],["initial",-10.554193805943278],["affirmé",-10.554336964637205],["Montréal",-10.55486281830747],["blessure",-10.554963692144947],["Aan",-10.555024660409675],["intervention",-10.555170572025087],["EE",-10.555490765167484],["meerdere",-10.555766749356302],["62",-10.555796600895793],["vivre",-10.555828635532766],["marcha",-10.555841169988874],["pop",-10.556359046615505],["Can",-10.556693902994958],["alcalde",-10.556984202226168],["contacto",-10.55775528358022],["réalité",-10.558278089131965],["leuk",-10.55857621264653],["relative",-10.558828655613404],["transporte",-10.559001300464363],["iones",-10.559291243553156],["officielle",-10.560419681251892],["materia",-10.560430422127666],["véhicule",-10.560895640305592],["enjoy",-10.561091721671914],["Garc",-10.561112408375795],["summer",-10.561656586169377],["doel",-10.56172568907295],["particulier",-10.562730612375795],["teste",-10.562731657582532],["accuse",-10.563081386512739],["particip",-10.56339300307278],["exact",-10.563971871601392],["klaar",-10.564126419860596],["eight",-10.564135690768708],["class",-10.564144336784851],["OS",-10.564470112207253],["resource",-10.56452263695435],["répond",-10.565295411292183],["gedrag",-10.565475405005248],["superior",-10.567485325159266],["76",-10.567769439404831],["distance",-10.568089221502607],["distinta",-10.568381205903158],["estudiante",-10.56854601061977],["technologie",-10.569178384234014],["manage",-10.56935345883076],["title",-10.570140626410335],["purchase",-10.570252635064167],["step",-10.570450489363097],["soldat",-10.570565976922957],["funciona",-10.571784261366926],["balance",-10.57205915256174],["Bill",-10.573081629476906],["kids",-10.573107315809775],["ouders",-10.573633876127008],["rival",-10.574477308763495],["ère",-10.574617437957965],["daughter",-10.575030479613655],["estrategia",-10.575120165208126],["oplossing",-10.57516450636278],["reports",-10.575566896369565],["Prime",-10.575574485347909],["treatment",-10.575784436105186],["comercial",-10.576379606953072],["etapa",-10.576793115699228],["cap",-10.578507972530218],["réponse",-10.57852070675047],["Miguel",-10.578520973964],["categoría",-10.578605022411365],["anyon",-10.57919130417244],["jury",-10.579888228158776],["trekken",-10.579977570400622],["opening",-10.58029230882959],["genes",-10.58033223410991],["53",-10.580991721321798],["pena",-10.581009859256792],["auteur",-10.581703618328891],["dizaine",-10.581934901798373],["critique",-10.582560953825675],["Mosco",-10.582832770825544],["lack",-10.58390800887684],["error",-10.584308009267179],["gebracht",-10.584659015025267],["inter",-10.584832446285459],["capable",-10.58510970639831],["brough",-10.585437100015497],["dicht",-10.585838782330452],["baby",-10.585940568744945],["fiesta",-10.58597065657903],["liet",-10.585988302830655],["ship",-10.586123450135197],["patient",-10.586266741669766],["51",-10.586591756379669],["standard",-10.586686182507297],["represent",-10.586738217587218],["gevallen",-10.586813252324248],["diputado",-10.586830043831277],["passage",-10.587495523123039],["voyage",-10.587642366935814],["voorbij",-10.588131229002792],["center",-10.588475284758452],["allá",-10.588643265190163],["politiek",-10.588797040390666],["€™",-10.588798655657822],["imagen",-10.588929724689118],["étape",-10.589088638835944],["encourage",-10.589628562712976],["obras",-10.590378384798724],["diario",-10.591347589175019],["mini",-10.59183044936952],["Inter",-10.591851648596071],["arrêté",-10.59200283770178],["commerce",-10.592279443100502],["facile",-10.592303830907504],["emergencia",-10.59232172907885],["argument",-10.592408032714383],["cash",-10.592788570896477],["facilit",-10.593111666745926],["Israel",-10.593169296448353],["vite",-10.593333961730046],["view",-10.594427325088393],["quite",-10.59453384264918],["termin",-10.594860116615546],["East",-10.595530187713054],["completa",-10.595804778202691],["soirée",-10.595830585365146],["cultura",-10.5965893052811],["waarschijnlijk",-10.597907552051947],["felt",-10.598906629014383],["documento",-10.598940709405891],["decided",-10.599016235765127],["habla",-10.59984368471643],["Qu",-10.59989232130099],["range",-10.599907960158468],["conflicto",-10.600233468590147],["travailler",-10.600266288690978],["ho",-10.600326040118514],["alleged",-10.600485791570224],["libro",-10.60062679877484],["horen",-10.600717954197375],["67",-10.600797213959577],["700",-10.600904683612448],["schools",-10.601234366468027],["aba",-10.601273443241933],["rekening",-10.601299588196092],["Hast",-10.60146098007478],["approach",-10.601835278990656],["Chile",-10.602108902577996],["trimestre",-10.60266084777599],["mandatario",-10.602800943965587],["conflit",-10.602849153870824],["llegada",-10.602951582496136],["Toch",-10.602995478708767],["code",-10.60309897418938],["Más",-10.603135458168346],["realiza",-10.603680433109812],["above",-10.603876914895359],["destino",-10.604308707717145],["78",-10.604352887518969],["pasada",-10.604483411055774],["ización",-10.60522388019435],["winning",-10.605403967554956],["deberá",-10.605475314602495],["rise",-10.605657471259963],["inflatie",-10.605977916663711],["mind",-10.605986051794297],["worke",-10.606052220642656],["augmentation",-10.606174750191052],["torneo",-10.606175074913363],["fail",-10.60654688722666],["pression",-10.606642702454831],["Congress",-10.607026152812638],["59",-10.608399283786778],["variant",-10.608601998476924],["acte",-10.60886092002219],["analyse",-10.60887770364359],["icieron",-10.609989229858122],["card",-10.609989308928093],["eten",-10.61009510318452],["presqu",-10.610120662078469],["simplement",-10.610740775076874],["realizado",-10.611022808653296],["privé",-10.611426909038425],["69",-10.611553552984333],["probablement",-10.611701278871642],["Every",-10.612227636833744],["Instituto",-10.612770854426147],["prevent",-10.612908974995259],["Festival",-10.613223866693435],["Fiscalía",-10.613247684887991],["comité",-10.613299559700806],["ask",-10.61330362111665],["conférence",-10.613343500189696],["Democrati",-10.6133902306759],["limit",-10.614480763547132],["arm",-10.614682337480872],["eran",-10.614876908111135],["dura",-10.615700400589873],["gne",-10.615853874599944],["Français",-10.616108735170762],["thousand",-10.61676146073034],["retrouver",-10.617202505720337],["civile",-10.61844707018492],["achat",-10.618507548190035],["olie",-10.61873159077323],["relations",-10.619426972120685],["diverse",-10.619877100155115],["alcohol",-10.620022911504936],["pagar",-10.620081786801187],["mediante",-10.620106204490117],["publié",-10.62013108589452],["obstant",-10.62026657786538],["leading",-10.62132180125386],["dingen",-10.621535005124443],["deja",-10.621932007230141],["mitad",-10.621940181339697],["anderen",-10.622665271711616],["recibir",-10.622851345290716],["ouverture",-10.622958648991148],["justicia",-10.623562454058636],["buscar",-10.623794555732493],["Ángel",-10.623826430361271],["commencé",-10.623905036205514],["strijd",-10.624244023689858],["style",-10.624443127351283],["baisse",-10.624454853191523],["Force",-10.624522202115962],["ried",-10.625373472570164],["urgence",-10.625550385209628],["necessar",-10.62587368172413],["rusa",-10.626111972689351],["ajoute",-10.62682739234381],["souligne",-10.627088178269862],["estatal",-10.627166467132378],["declar",-10.627226939479984],["François",-10.62739599066158],["véritable",-10.627396014080922],["nummer",-10.627444386631776],["lange",-10.628111662420473],["moved",-10.629416355106795],["89",-10.62955055945833],["isation",-10.630858781733583],["muziek",-10.630981357208494],["empleo",-10.631210795459296],["56",-10.631460029924089],["encontraba",-10.631552828164352],["specific",-10.631685306787706],["ary",-10.63194142667398],["Public",-10.632560021957818],["huge",-10.632777898294803],["Office",-10.632887082400492],["63",-10.633332971379147],["moeilijk",-10.633986540317043],["themsel",-10.634099118738535],["commercial",-10.63420983946105],["hoeveel",-10.634461518977403],["Bruxelles",-10.634577955619902],["ballot",-10.634807831159028],["venu",-10.63497177923114],["Angeles",-10.63577210535522],["opinion",-10.635948277633345],["Aire",-10.63631882765332],["judicial",-10.636543276329949],["trial",-10.636730596607089],["fonds",-10.636914371742446],["ogen",-10.637148753884109],["niemand",-10.637180312055214],["incendie",-10.63734488538394],["crear",-10.638122567614467],["avocat",-10.638276126116315],["review",-10.638336423330813],["tierra",-10.638536457737136],["Gran",-10.638725029511413],["agree",-10.638759540268925],["Tu",-10.63891277446091],["studio",-10.638996580817903],["96",-10.63932983889529],["68",-10.639510045691253],["vorm",-10.639901082096882],["stelt",-10.64018809702246],["voorzitter",-10.640215192977418],["provincial",-10.640710094661268],["plane",-10.640951525264342],["damage",-10.640954914716138],["fair",-10.640992773475201],["domaine",-10.641106574173893],["Wel",-10.641458781206033],["Groningen",-10.641810757272665],["cre",-10.641870130013366],["beide",-10.642127094242717],["ukrainienne",-10.642154659900488],["feeling",-10.64257028965806],["considera",-10.64266827560277],["department",-10.64306599790953],["pie",-10.643387798892885],["gevoel",-10.643459240273438],["happ",-10.643552248245278],["meld",-10.643558524986545],["devenu",-10.643765198846591],["administra",-10.643845458097562],["gevon",-10.643982959501011],["sense",-10.644398968122779],["Mac",-10.64455456504762],["ziekenhuis",-10.644583869838065],["ronde",-10.64475847082904],["professionnel",-10.64480735953],["build",-10.64504361445058],["teams",-10.645158513116364],["rápida",-10.645447068241008],["policial",-10.64545812686702],["création",-10.646246639475105],["historique",-10.64649667445337],["coment",-10.647202901443688],["voy",-10.64856979188025],["Rodríguez",-10.649096637725041],["impuesto",-10.649103579430815],["estimate",-10.649327447720651],["éviter",-10.649428483482854],["étudiant",-10.649557320317939],["various",-10.649706050301024],["consumo",-10.649712445581477],["labor",-10.650453912609075],["continúa",-10.650494583865186],["réunion",-10.650554472479179],["reactie",-10.651612551662826],["Po",-10.651682090956065],["cover",-10.652617354244299],["Blue",-10.652808448702363],["answer",-10.65297994461272],["contenido",-10.653075349464086],["moyenne",-10.653158897098272],["Director",-10.6533439336381],["blij",-10.653707868112726],["affirme",-10.653863359143568],["develop",-10.653903498783876],["duizend",-10.654390538647448],["pourra",-10.655149804471376],["minuten",-10.655313816293212],["Ar",-10.656385682880575],["cámara",-10.656436193016354],["réalisé",-10.657476026021325],["hacerlo",-10.657633111794581],["jonge",-10.658123268853622],["stress",-10.658152625627379],["huizen",-10.658208977323007],["professional",-10.658345113177003],["vervolgen",-10.658375073394026],["extreme",-10.65877138374974],["Verenigd",-10.66013322707296],["temas",-10.660460099813019],["save",-10.660589402173228],["ach",-10.660645220826147],["probabl",-10.661174400821544],["cree",-10.661418987438923],["compra",-10.661446318370636],["77",-10.661720521236667],["wood",-10.661979532786185],["reforma",-10.66262732250086],["slag",-10.662777950839411],["Ni",-10.663249224370349],["foot",-10.663747879518024],["Nueva",-10.663852180167746],["eventual",-10.664147720040928],["spokes",-10.664435048720854],["prett",-10.664791402267017],["vivir",-10.664991529492134],["prime",-10.665156001434497],["dezelfde",-10.665325606927688],["tenu",-10.665877382410743],["African",-10.666066507622979],["piece",-10.666192203566787],["join",-10.6662006772502],["Ga",-10.666284360719839],["cumplir",-10.666363225569873],["vakantie",-10.666818393477094],["conversation",-10.667589838958985],["liberté",-10.667651777998922],["episode",-10.668093693371945],["Duitse",-10.66835302911786],["conséquence",-10.668417882858162],["aspecto",-10.668546788194474],["présenté",-10.669450154855369],["voel",-10.6695427522019],["cambiar",-10.66965093474897],["dirigente",-10.669918143221606],["boek",-10.670520818578751],["Council",-10.670881424778297],["tercera",-10.670913653581067],["absence",-10.671278992525448],["supplémentaire",-10.671280731786132],["frontière",-10.671335846589535],["gemiddeld",-10.67138434126278],["décè",-10.671428384189642],["print",-10.67161640215935],["Kamer",-10.671706969898288],["teacher",-10.671836701525853],["aught",-10.672021089994587],["rouge",-10.672130979438446],["addition",-10.672188034584918],["estoy",-10.672396564691073],["micro",-10.67263083933509],["organismo",-10.672734350976032],["ruta",-10.67298855454571],["bijzonder",-10.673451266954203],["instant",-10.673531065531762],["toekomst",-10.67355672299782],["verkiezing",-10.674112829911682],["verdad",-10.674250981176577],["menores",-10.674252430496868],["European",-10.674653329843093],["disfrutar",-10.674898372173967],["représentant",-10.675185441942997],["engagement",-10.675367592150728],["ición",-10.67568447613362],["incremento",-10.675758704859092],["surface",-10.675769094579703],["High",-10.675934670627278],["conference",-10.677191494972963],["pod",-10.67771762753228],["mooie",-10.677752894408314],["égale",-10.678047550867689],["che",-10.678456020115974],["ogró",-10.678531185630764],["lezen",-10.678612722314881],["Jorge",-10.678916789441718],["status",-10.679254735526644],["municipale",-10.679640725616297],["employé",-10.679967277322909],["bleek",-10.680110079766191],["betrokken",-10.68034721580371],["imá",-10.68075569179609],["directa",-10.681498507804669],["Since",-10.68153952103954],["Williams",-10.681706848519994],["easy",-10.681896309840386],["vision",-10.681992813984138],["Brasil",-10.682361608890567],["pakken",-10.682509106816017],["opge",-10.682552345027958],["massive",-10.682573383542307],["Río",-10.682724414731904],["energy",-10.682912253968432],["Chris",-10.683949728807033],["buurt",-10.684520661644335],["idió",-10.68454289588341],["Eric",-10.68529258318269],["inten",-10.68573895791928],["vroeg",-10.685820100077203],["partenaire",-10.686358421769754],["protec",-10.686359051821128],["wegen",-10.686379432904573],["Secretaría",-10.686475390557778],["helft",-10.686613619248082],["cancer",-10.687423190120509],["medewerker",-10.687672703385473],["learning",-10.688311936881838],["crea",-10.688666798629434],["asegura",-10.688940707401924],["boy",-10.689023090986666],["tier",-10.689549616582724],["belasting",-10.68988160616697],["border",-10.690049280064049],["texte",-10.69108598792468],["learn",-10.691382408520987],["dosis",-10.691477698811804],["amenaza",-10.692089006902691],["assuré",-10.692427407369967],["Geen",-10.692427679955019],["Will",-10.692920653289972],["obteni",-10.692987470196108],["maximum",-10.693359553331689],["musical",-10.693586336210497],["UU",-10.693600532131342],["queda",-10.693661080634122],["elles",-10.69366554848364],["banque",-10.693965941795634],["Justicia",-10.693966187880715],["hart",-10.694131761283451],["conductor",-10.6944838235131],["avoid",-10.694776513744193],["peor",-10.69555776633705],["compris",-10.696537000287684],["voetbal",-10.696556089528363],["Victoria",-10.696714167245016],["conflict",-10.696771599509233],["habl",-10.697055217390048],["paz",-10.697102699303013],["ducación",-10.697255736730405],["papel",-10.697642688963299],["artículo",-10.69779534171803],["Suprem",-10.697810227984544],["rechts",-10.697924714288245],["podía",-10.698381976686374],["Uni",-10.698862127626024],["drone",-10.698937863065389],["Costa",-10.699281970137282],["science",-10.699472572933708],["spot",-10.699603248795375],["King",-10.70009788568457],["rie",-10.700194608356142],["fi",-10.70044009194227],["reduc",-10.700517315373018],["cast",-10.700658878604678],["cinéma",-10.701577257708294],["élément",-10.701705525360786],["wachten",-10.702184025185797],["gesprok",-10.70231799808075],["cuarto",-10.702645462175472],["Deux",-10.703505054875516],["lijn",-10.704064025058104],["electoral",-10.704117227160939],["avis",-10.704185585644748],["Ayuntamiento",-10.705502499581675],["physique",-10.705502746483976],["sommige",-10.70550422446934],["zoek",-10.705618450867085],["evidence",-10.705672360845332],["souligné",-10.70572202072327],["symptom",-10.705722144540994],["item",-10.705733459143449],["incendio",-10.705898583503934],["ity",-10.705944027103044],["mocht",-10.706038115208052],["hile",-10.706090163935023],["creo",-10.70632118428198],["maladie",-10.706353844704704],["intention",-10.706660750480843],["elk",-10.706918145734623],["assurer",-10.706942202352646],["brief",-10.707733134908498],["klein",-10.709365005069403],["investissement",-10.709440344389542],["lucht",-10.710397834755737],["destac",-10.710954472045753],["tech",-10.711079584126336],["principe",-10.711410048765233],["Mike",-10.71177231396044],["inscrit",-10.712281574292607],["participant",-10.712509187915728],["arreste",-10.71270303037429],["tweet",-10.712762967935575],["chacun",-10.713282658811579],["fer",-10.71337269115212],["millier",-10.713431631736434],["cantante",-10.713453684343587],["physical",-10.713736626633036],["possibilité",-10.713781415391892],["investment",-10.713836432457557],["Uno",-10.713896240779697],["ocasione",-10.714276481936427],["flight",-10.715111927806868],["deep",-10.715877633216724],["Inc",-10.71605961223879],["conocimiento",-10.716425165553039],["generar",-10.716732265971675],["mobile",-10.717009235858166],["norte",-10.717016427247195],["Cámara",-10.717176183764497],["gezet",-10.717487823416732],["supporters",-10.717555208104605],["common",-10.718019465717227],["aanwezig",-10.718279206122338],["denuncia",-10.719375559241044],["hiver",-10.719516531931014],["beat",-10.719589401114257],["patron",-10.719977210427636],["host",-10.720355751119564],["true",-10.720474922962858],["armas",-10.720531552434709],["kennen",-10.720688346415209],["Carolina",-10.720729288656397],["centaine",-10.721131263228838],["gone",-10.721506751540177],["figura",-10.72193073533351],["improve",-10.721932703357597],["rock",-10.722061384252667],["tarea",-10.722199013186893],["products",-10.72333018458154],["Big",-10.723504530641176],["huit",-10.723648927875924],["café",-10.724742979262324],["functie",-10.724869965142979],["climatique",-10.725050928583844],["atrás",-10.725312854269042],["reality",-10.725323210791736],["decidi",-10.725422602631507],["speed",-10.72582287995785],["ONU",-10.725931856125428],["sports",-10.726200957244028],["Act",-10.726781342275828],["voulai",-10.72701810183688],["aspect",-10.727982665708092],["acteur",-10.728095579019744],["aquello",-10.728292249493455],["threat",-10.728469641895076],["husband",-10.728987137348462],["Chicago",-10.72899733348994],["Harry",-10.729003676043575],["België",-10.729020374529727],["Road",-10.729141257493445],["nam",-10.729145176114574],["suficiente",-10.729295245565448],["holding",-10.729556505264117],["verdachte",-10.730205561175513],["earning",-10.730239399986582],["ities",-10.730545922515919],["zin",-10.730725273786252],["Cup",-10.730740734870437],["empez",-10.730906101715103],["software",-10.730966221481431],["terecht",-10.731638617712386],["slechts",-10.73168614598136],["macht",-10.731736630266749],["nchester",-10.731783788910597],["German",-10.731930203617999],["choice",-10.732059875734546],["deur",-10.73222417927671],["mandat",-10.732596485555227],["schade",-10.732863222775457],["januari",-10.732955175481052],["Gabriel",-10.732958058073207],["Ejecutivo",-10.73320518136087],["étranger",-10.733283221679098],["aandacht",-10.733415681980869],["hará",-10.733421620702037],["personeel",-10.733504299501108],["niña",-10.73353357157223],["spent",-10.734126252147512],["1er",-10.734510619062418],["79",-10.734523814222232],["lid",-10.734764500614348],["gebeurt",-10.734776726062641],["ski",-10.734941159331438],["cour",-10.735410438884378],["gratis",-10.735463024257495],["invasion",-10.736042580433507],["recupera",-10.736484761934665],["120",-10.736928234589142],["edificio",-10.7369396042255],["Malgr",-10.736940596969369],["herramienta",-10.736942637201434],["woordvoerder",-10.736947226352722],["From",-10.737070380087884],["Onder",-10.737141255348012],["slecht",-10.737155758432227],["block",-10.73755019875773],["ette",-10.737967305163629],["Watch",-10.738095037168048],["cultural",-10.738441836816943],["circuit",-10.738648914096295],["daarme",-10.73984193071006],["environment",-10.74007582125774],["enkel",-10.740285173348315],["juicio",-10.740617575052738],["Franci",-10.740872499435138],["contexto",-10.740896149478893],["bastante",-10.740952347590575],["Internacional",-10.74162026458388],["Marie",-10.74208238521683],["email",-10.742549243584772],["aving",-10.742606711307147],["amplia",-10.743146436703029],["tandis",-10.743871571735898],["Meanw",-10.743950096212657],["operativo",-10.74403654491448],["drugs",-10.744257884011471],["84",-10.744479940619351],["collection",-10.744885626697602],["ucraniano",-10.744957094971644],["vulnerable",-10.744958173133552],["compétition",-10.74496024268078],["musique",-10.744963935545677],["Ligue",-10.745006670569293],["winnen",-10.745089792160055],["periodo",-10.74542944611057],["economie",-10.745886285560077],["drop",-10.746044878359516],["Pi",-10.74622468117593],["campus",-10.746246156620597],["Vi",-10.746859835700494],["importe",-10.74707768267989],["2008",-10.747107833514246],["session",-10.747982604998526],["humain",-10.748310966055955],["pese",-10.748747619214527],["Pablo",-10.74898802377283],["revealed",-10.749214566426414],["tren",-10.749582028807641],["médico",-10.74972942515264],["ida",-10.750222409384353],["Alex",-10.750730751381774],["tir",-10.750752175926609],["ratio",-10.750931198638137],["spel",-10.751010697879607],["sloten",-10.752041827894411],["73",-10.752080295932032],["profiter",-10.75217430133969],["Val",-10.752357686037787],["curso",-10.752533153582345],["montant",-10.752907390875395],["scolaire",-10.753005175069948],["engage",-10.753098231689215],["league",-10.753441266985647],["begon",-10.75347818967291],["size",-10.753833103354559],["coche",-10.753879421619684],["joué",-10.754323988356695],["fuentes",-10.754344609621388],["London",-10.754687931146455],["£",-10.755106505181246],["marge",-10.755140742453783],["faudra",-10.757102431448015],["Microsoft",-10.757102646728548],["épisode",-10.75712282632135],["alcanzar",-10.75712507319071],["By",-10.757172152727922],["rules",-10.75719944119151],["bâtiment",-10.757215509611552],["rich",-10.75755744904951],["!”",-10.757787722044547],["verano",-10.757833458651689],["showe",-10.758071099012604],["véhicules",-10.75818833976638],["piste",-10.758328114337989],["nez",-10.758561898628756],["reducir",-10.759144688424932],["slachtoffer",-10.759151544843064],["pose",-10.759399027687554],["pouvai",-10.759589612456598],["ría",-10.76066944354351],["tratar",-10.761758836199302],["mostr",-10.762490999086102],["gasto",-10.76250105000328],["manos",-10.762587633694913],["champion",-10.762595042759353],["difficulté",-10.762693371055436],["hear",-10.763085574341362],["absolu",-10.763114677478718],["quant",-10.763458130167631],["Municipal",-10.763895716920045],["sung",-10.764073474297582],["planning",-10.764237315836382],["souhaite",-10.764444387703215],["cité",-10.764506559267623],["oficina",-10.765285940271868],["banda",-10.765680824792966],["leadership",-10.76573757617766],["98",-10.765867525164655],["émission",-10.76599325786404],["liep",-10.766161252507718],["changer",-10.766627759186754],["frontera",-10.767329607832815],["throw",-10.767647344414403],["gezegd",-10.76866155762443],["River",-10.768987969569398],["machine",-10.769011409842047],["pompiers",-10.76932895714081],["término",-10.769396409462622],["honor",-10.769457226459997],["numérique",-10.769516512084037],["belge",-10.769667639049658],["máxima",-10.769703347702034],["declaraciones",-10.769827104182578],["fédéral",-10.76990045244414],["ejercicio",-10.7699430405637],["pensar",-10.77053558520431],["apena",-10.7706234694212],["push",-10.770714300431507],["q",-10.770917340611602],["voorkomen",-10.771040364630867],["présidentielle",-10.771206526090122],["handen",-10.771259564176756],["volvi",-10.77128443663975],["denkt",-10.771686718434058],["Kan",-10.77234254636734],["voice",-10.772586734909567],["secretario",-10.772717955979857],["winst",-10.772883910154357],["quotidien",-10.772986745709385],["ieron",-10.773140050473149],["restaurants",-10.773195870985266],["propriétaire",-10.773323474115298],["verschil",-10.773332754367116],["Zelensky",-10.773528648231078],["supply",-10.773530277657857],["premio",-10.773534857098973],["competencia",-10.773538676237465],["Toute",-10.773582471055542],["Anne",-10.77373617204383],["preocupa",-10.773738470875212],["significa",-10.77377866229965],["launch",-10.77394741767662],["conseguir",-10.773973247893618],["Radio",-10.774384670819511],["citizens",-10.774742701361829],["Fernand",-10.77499798133941],["Cour",-10.775885210799537],["gesprek",-10.775996028038989],["poor",-10.776110818741092],["lijst",-10.776225096969519],["afectado",-10.776419301138343],["gaf",-10.7764915447747],["mot",-10.776621119882847],["ways",-10.776698457821112],["risico",-10.777269247115525],["chaîne",-10.777289635489975],["depend",-10.777318106884493],["rappelle",-10.777471017176092],["hermano",-10.777506367217546],["ritten",-10.777543089904718],["einde",-10.777593198104109],["pérdida",-10.777678140584568],["annual",-10.777689350836402],["Cómo",-10.777692505999335],["papier",-10.777702486863745],["agence",-10.777812341854894],["sostuv",-10.778207675048275],["payment",-10.77848293362296],["Banco",-10.778584130111838],["Côte",-10.778819971333906],["direc",-10.778862355414127],["links",-10.778884469348],["sentir",-10.779917996837952],["imply",-10.780276884993857],["heard",-10.780927267856889],["terminar",-10.781542161766195],["género",-10.781845175547538],["pressure",-10.781879828351212],["graden",-10.781990638887548],["triunfo",-10.782191842789516],["beginnen",-10.782253148769069],["inderda",-10.78228531415132],["perdi",-10.782306907899837],["firma",-10.782648669742212],["pnieuw",-10.783189577233049],["quart",-10.783885629645479],["88",-10.784510467778077],["normale",-10.784749639150704],["trouvé",-10.785036171836255],["beelden",-10.785688211679378],["ouverte",-10.78579919257859],["financier",-10.786003764242897],["procè",-10.786041772490568],["fear",-10.786054372230872],["peso",-10.786180908131094],["carry",-10.786235595853228],["goes",-10.786276918696608],["integrante",-10.786706475979543],["soms",-10.78688456475697],["William",-10.786976266371695],["élevé",-10.787058170952367],["analyst",-10.787444647720559],["giving",-10.787500660720301],["Messi",-10.788159422601076],["cross",-10.788310665835755],["nivele",-10.788548454814864],["estrella",-10.788711998065445],["MP",-10.78900899905727],["estadio",-10.789805628129985],["tercer",-10.78990825125127],["Vlaams",-10.790230264288411],["diálogo",-10.79023073788548],["atteindr",-10.790230819162993],["continuer",-10.7904744601694],["tratamiento",-10.790475965684966],["network",-10.790596427464942],["nuclear",-10.79084268929125],["Capital",-10.791054454075693],["remember",-10.792855104905735],["zoeken",-10.793359692027508],["réc",-10.79358223924788],["sterk",-10.793830646094623],["Last",-10.79392589186434],["subi",-10.794130516308837],["Kremlin",-10.794450522836891],["faisant",-10.794630368089576],["participation",-10.794667671942278],["continuar",-10.795005808550716],["influence",-10.795019258174293],["sacar",-10.795302679642276],["arrivé",-10.796002757532115],["Face",-10.79650941516147],["acteurs",-10.796838862583245],["strak",-10.797068118441624],["leger",-10.797673381679022],["income",-10.797864911352107],["trokken",-10.798144504021801],["comenzar",-10.798458750037376],["wrong",-10.798576065712519],["appeal",-10.798599812478725],["sorte",-10.798689789009853],["señala",-10.798886986694427],["fut",-10.799184659484538],["Franse",-10.799319844099553],["Sá",-10.799350614882208],["informatie",-10.799361742611795],["pedido",-10.79987956207718],["Torre",-10.800022471278336],["mostrar",-10.800323573724539],["auron",-10.800603783212482],["hot",-10.800661971860595],["ventaja",-10.800732384872447],["gagner",-10.800876589821815],["finance",-10.801215833551232],["affiche",-10.801405953776737],["completo",-10.801935993962797],["implement",-10.80217434857877],["signé",-10.802816860677598],["trip",-10.80282585749171],["instala",-10.802851036436481],["Indian",-10.802979097438303],["venue",-10.802979847867537],["usted",-10.802991080325402],["Richard",-10.803018282486462],["Senat",-10.803029587231002],["tre",-10.803117435752522],["encontr",-10.803596501588157],["mark",-10.803848748940213],["ancienne",-10.803932060044044],["faisai",-10.803956119600038],["winkel",-10.80407247631422],["classes",-10.804348157178794],["photos",-10.804535388868246],["estructura",-10.804795194579375],["delante",-10.80513731539969],["podem",-10.805273050203134],["fiance",-10.805498050230486],["grens",-10.805951512081919],["haga",-10.806148333429618],["wild",-10.806600486594762],["AP",-10.807005779207607],["voldoende",-10.80701179455465],["vlucht",-10.807060596469878],["spectacle",-10.807216143098941],["followed",-10.807746675869094],["lager",-10.808290682080663],["instance",-10.808484491814069],["pou",-10.808729432473982],["vo",-10.809279178556697],["turne",-10.80961002776261],["perder",-10.810081042745416],["caída",-10.81040788261419],["preuve",-10.81054741656751],["ocas",-10.811015871056746],["constante",-10.811052681093969],["natuur",-10.811237735464976],["suivr",-10.811342010442027],["alternative",-10.81151122493953],["begint",-10.811527224212348],["jobs",-10.811590075957714],["manifestation",-10.811713327524973],["confianza",-10.811715829528367],["amarilla",-10.8117311490263],["quería",-10.811972873242098],["pleine",-10.812219348605659],["clara",-10.812254101728062],["agents",-10.812402424539078],["suivi",-10.812576071625816],["presidenti",-10.812592298439737],["verantwoordelijk",-10.812721499579673],["oog",-10.81332501312144],["sortir",-10.813447756648923],["success",-10.813468215488797],["74",-10.81348623854706],["Veel",-10.813625065413724],["ooking",-10.8139693754946],["fac",-10.814390430524316],["Noord",-10.814626293004789],["juni",-10.814866990648301],["vague",-10.815299261878696],["juez",-10.815353630659082],["électrique",-10.815816573925616],["toma",-10.816491866349347],["marqué",-10.816751081722671],["Quan",-10.817100054324523],["Arm",-10.817100471060577],["standing",-10.817410251099936],["sommet",-10.81815184824163],["arte",-10.818381234465672],["artist",-10.818382448512622],["Party",-10.818870980036605],["tuvier",-10.819055197342948],["rust",-10.820040242832029],["judiciaire",-10.820151498307801],["cierre",-10.820164672381843],["sueño",-10.820173077402687],["logement",-10.820212529870078],["Otro",-10.82030833979881],["ras",-10.820504597732604],["supuesto",-10.82068796397068],["Martín",-10.820771684896908],["Lake",-10.821057153234227],["Zuid",-10.821184746914058],["aid",-10.821208005276032],["Cabe",-10.821622414466667],["Qui",-10.821745283468868],["VVD",-10.821908893612072],["mondial",-10.821944476717896],["passed",-10.821993789909417],["venes",-10.822208495807347],["speelt",-10.822465572739908],["fête",-10.822912965026937],["spreken",-10.823310009547626],["Britse",-10.823666360266053],["Frank",-10.82431437107404],["eron",-10.824515826109263],["probable",-10.825132644433305],["commence",-10.825341686525075],["chemin",-10.825349695531031],["Ka",-10.825411366802285],["dacht",-10.825435947430787],["mesa",-10.825560864065269],["ieurs",-10.826127007463578],["registro",-10.826165403453935],["Nada",-10.826751768208787],["alimentos",-10.826774925362532],["sali",-10.8268162186729],["Presidente",-10.827753158922702],["rece",-10.828019900314278],["referencia",-10.828215467528166],["fiets",-10.828427700220233],["Euro",-10.828504882919919],["anim",-10.828817679443771],["teléfono",-10.828861808381273],["pequeña",-10.8288619370663],["Alejandr",-10.828862002451825],["Puerto",-10.828862548405962],["mond",-10.828871106319419],["nucléaire",-10.828953375681667],["viel",-10.829141753576156],["86",-10.829541087401688],["Ministr",-10.830101709795969],["funcionarios",-10.830505424805487],["razó",-10.830626730488103],["warm",-10.830714806938765],["Uit",-10.831061695668392],["gusta",-10.831497010987732],["colabora",-10.831849457396977],["plainte",-10.832592430019256],["sound",-10.832756295219818],["podium",-10.83342170743132],["paper",-10.83400194143838],["DC",-10.834273282910742],["parc",-10.834609389697597],["kamer",-10.834674419840832],["clair",-10.834687035105816],["Haag",-10.835052326009073],["buil",-10.835147229059057],["aron",-10.835763403811097],["banco",-10.835775715454215],["storie",-10.836335869787531],["nou",-10.836933395909597],["échange",-10.837622824473723],["Minnesota",-10.837653199988114],["England",-10.837659541652869],["First",-10.837727004425],["llegado",-10.837740961967357],["abogado",-10.837770836900692],["remporté",-10.838016498888777],["représente",-10.838176359260542],["discours",-10.838203181737986],["golf",-10.83825266941274],["gebeur",-10.838264636571697],["publiek",-10.838899900631286],["calles",-10.839151830229117],["vertrouwen",-10.840165962759698],["premiers",-10.840467778114192],["multi",-10.840608370015945],["recordar",-10.841364555405658],["escribi",-10.841946155241239],["touche",-10.84200092356798],["entrar",-10.84270465720431],["critical",-10.842718711376602],["politic",-10.842748478273323],["secret",-10.842772578763299],["carga",-10.844084996197374],["Jo",-10.844733789291539],["pull",-10.844970920483744],["adolescente",-10.845253454240932],["Bas",-10.845854411071073],["arma",-10.845936431114175],["llamada",-10.84656942074599],["brother",-10.846593723628635],["électrici",-10.846814284887916],["increasing",-10.846835733608422],["choisi",-10.847106697313595],["quién",-10.84712383531664],["Tesla",-10.847167618390769],["régime",-10.847202778415959],["collaboration",-10.847306402851427],["begrijp",-10.84741964383786],["Alberto",-10.84758542084441],["vic",-10.847908507167364],["broad",-10.848049114082034],["ándose",-10.848393467191102],["shop",-10.848536113898644],["peur",-10.84867493905959],["reache",-10.848974512597117],["Champions",-10.849686545041166],["Marine",-10.849768486831316],["empleado",-10.849845115435485],["fera",-10.850010879004255],["dorp",-10.850506137786592],["sentiment",-10.850881810856077],["combustible",-10.85096792873463],["offensive",-10.850986840257935],["abierta",-10.850991809953515],["González",-10.850994804991934],["cuál",-10.851001194374794],["común",-10.851015677399682],["credit",-10.851117767937774],["baan",-10.851206089940455],["concept",-10.851706732730964],["noir",-10.851825113325262],["Belgisch",-10.851995208161707],["Jones",-10.852205776306837],["stroom",-10.852550996422638],["marche",-10.85288820676355],["endroit",-10.853001355529791],["schrijft",-10.853475837925874],["entorno",-10.853654239309066],["encima",-10.853677073518183],["negocia",-10.854331089721981],["61",-10.854557156109735],["Fox",-10.85461184511022],["maintain",-10.854965031539397],["Port",-10.855316705245581],["Ajax",-10.855474713549892],["Martínez",-10.855494094844316],["claire",-10.855499368992588],["Obrador",-10.855523167861685],["county",-10.855938657063835],["muerto",-10.856079453430791],["Certain",-10.856128030881028],["gain",-10.856804421366501],["considere",-10.856916882036682],["rule",-10.85756044364825],["korte",-10.857847260765197],["notice",-10.858126137833775],["mid",-10.858541959780073],["Santé",-10.8585645871524],["assist",-10.858630610727607],["vons",-10.85921623738447],["Elizabeth",-10.859975554829479],["Santiago",-10.859986601088654],["hundred",-10.859987411327083],["découvrir",-10.860002938435871],["Patrick",-10.860044473830008],["tendencia",-10.860192766489028],["locatie",-10.860217971999845],["attendr",-10.860514415174062],["personaje",-10.860960322798196],["streaming",-10.861074758781854],["promo",-10.861821461437149],["volk",-10.86305316500087],["tué",-10.86356638399697],["retrouvé",-10.864156033474513],["deuda",-10.864296251280377],["steun",-10.864326778940788],["temperature",-10.864500314881177],["página",-10.864519031217174],["examen",-10.864526236512877],["discurso",-10.864577122519734],["rendez",-10.864781812045184],["Tribunal",-10.865081764017305],["D66",-10.865094445408051],["september",-10.865395155398689],["obtener",-10.865429590061748],["ujourd",-10.86552647571786],["indica",-10.865703271929295],["ocurrido",-10.866067083871398],["NL",-10.866166925202076],["moral",-10.866237935743012],["département",-10.866300896312111],["hoeft",-10.866502703967264],["convertir",-10.866645981991677],["97",-10.866675549876483],["afecta",-10.86718605870923],["parcours",-10.868054411583953],["cadena",-10.868551604763185],["spring",-10.868940741881126],["elektrisch",-10.86905669832386],["puissance",-10.86907017493854],["usar",-10.869141095952225],["déclaration",-10.869447204051603],["zeg",-10.86954052345127],["adding",-10.869719264872412],["served",-10.87012271504365],["fines",-10.870152295760676],["Daarnaa",-10.870344851917906],["tool",-10.870700758843423],["zware",-10.871116872573158],["politieke",-10.87128416364456],["Corte",-10.871369723948913],["funding",-10.871522989862596],["exchange",-10.872872432948835],["leg",-10.873204273285836],["perte",-10.873240671971004],["judge",-10.873292910940078],["física",-10.8733318275193],["search",-10.873353094169175],["Perú",-10.873664004914119],["salaire",-10.87409181296161],["tráfico",-10.87453139794767],["vluchtelingen",-10.874565465580403],["realizará",-10.874985332543073],["klanten",-10.875757723089176],["Ra",-10.875864433162874],["climate",-10.876306814119626],["wonen",-10.876501793420402],["cumple",-10.876863175317157],["tient",-10.877034702442458],["règle",-10.877132644497323],["viven",-10.877350060979307],["Mercedes",-10.878256325294062],["presupuesto",-10.878259264403036],["Royal",-10.878272415210112],["Dieg",-10.878298669947862],["stemmen",-10.878517623485951],["Station",-10.878593215638539],["noem",-10.878593411206545],["refuse",-10.8791862679188],["porté",-10.879444915925282],["entretien",-10.879797612181342],["zwaar",-10.879927974393642],["hadde",-10.88106709542085],["porter",-10.881261484364],["Alleen",-10.881372009695122],["movement",-10.88145647503679],["actuel",-10.881504103920168],["ullie",-10.88158516567462],["médecin",-10.88169359330783],["espère",-10.881939011666095],["afstand",-10.88227009013352],["Cuba",-10.882538956391283],["Two",-10.88276601103556],["section",-10.882784623170199],["britannique",-10.882807380234617],["agency",-10.882810093870674],["neuf",-10.882845760172202],["abierto",-10.88289285123891],["entrenador",-10.883287724293094],["comprar",-10.88351803161934],["Hill",-10.883644938813227],["réforme",-10.883742470818373],["espacios",-10.883793704016131],["Home",-10.883999920385374],["stem",-10.884694924957902],["utiliser",-10.884749726899528],["trainer",-10.885154460188252],["environnement",-10.885665092275211],["bedrag",-10.886295895763613],["vio",-10.887354873160728],["voormalig",-10.887439105623343],["Agenc",-10.88773442515938],["min",-10.88777186285099],["disposición",-10.887814552897515],["ische",-10.887902498577024],["médica",-10.888542542570175],["ambiente",-10.888656671585482],["hoogte",-10.888823243359255],["verbod",-10.889080905391413],["Ave",-10.889747623514438],["langue",-10.889915223190602],["Team",-10.890362488247437],["Scott",-10.890453497873958],["cuest",-10.89082713206957],["kilo",-10.890984613435677],["diferente",-10.891703945608104],["aná",-10.892021730154877],["departamento",-10.892088245341942],["Alemania",-10.892091248471598],["espoir",-10.892092080111052],["obligation",-10.892148182238843],["Post",-10.892346075100551],["assistance",-10.892352528871756],["launche",-10.892960759016441],["drug",-10.892984738437699],["ë",-10.89355305762402],["Brown",-10.893626221456056],["sell",-10.89392576124388],["Republican",-10.89417543142898],["keuze",-10.894234227457407],["konde",-10.894240966173495],["Grande",-10.894827881947649],["rose",-10.894849987850728],["reporter",-10.89486503999129],["diez",-10.895159533510672],["conoce",-10.895213349663262],["precis",-10.895287530763254],["laboral",-10.89605507240513],["successful",-10.896284146540907],["09",-10.896332891188091],["trein",-10.8967290785929],["Pérez",-10.896768417630026],["comprend",-10.8968264675912],["ontwikkeling",-10.896940183351322],["omos",-10.897217824321643],["suele",-10.89751485405701],["belangrijke",-10.897791168850329],["trust",-10.897800049591691],["confirmé",-10.897820353361363],["necesaria",-10.898562011460875],["loc",-10.898633682865384],["poll",-10.898789926844321],["82",-10.898918568470734],["personnage",-10.899281372024086],["cuidado",-10.899393974867591],["provid",-10.899407053590668],["invite",-10.900657479389723],["Da",-10.900719632087135],["rigen",-10.900723318669835],["BB",-10.900732005642151],["prévue",-10.900786690101334],["ebruar",-10.901176904265586],["négociation",-10.90145590552848],["habitual",-10.901476308376383],["Verstappen",-10.90149922644931],["río",-10.901599900782552],["favorite",-10.901640695703776],["esperar",-10.901845803129172],["cuyo",-10.90196047387876],["overall",-10.902101788722156],["touché",-10.902114944065609],["altura",-10.90214237264254],["violent",-10.902408512182536],["gen",-10.902439311453797],["permanente",-10.90255025283345],["commun",-10.902561035901682],["omgeving",-10.902615967456114],["Tot",-10.903365202501888],["screen",-10.903396691959589],["parle",-10.903472575171374],["funcione",-10.903823073586189],["Most",-10.904291834944239],["Tho",-10.904300074199991],["Jim",-10.90466221277287],["pourron",-10.904735022929412],["asking",-10.904788434157691],["naturale",-10.904828673337441],["kieze",-10.905006802203228],["chiffres",-10.905027908354263],["lancer",-10.905077352859607],["kracht",-10.905226802613534],["Juli",-10.905940422593517],["âgé",-10.905971563394216],["móvil",-10.905996490137644],["allait",-10.90606545136289],["legt",-10.90609490215918],["responsabilité",-10.906185932107594],["alimentaire",-10.90618934163543],["kilomètre",-10.906200374381271],["Comité",-10.906221666951335],["equipment",-10.906286309582129],["woord",-10.906508176508003],["promedio",-10.906843419061474],["distribution",-10.906874942648404],["journalist",-10.90693360995424],["audio",-10.90731895736207],["infecte",-10.908272654197356],["enfrentar",-10.908681726963806],["kost",-10.908798921808717],["71",-10.909130372184379],["universit",-10.909431521324262],["Mayor",-10.910245457764411],["link",-10.910376031138197],["enorm",-10.91040660741459],["estimé",-10.91053850448814],["rend",-10.910802544252977],["TikTok",-10.910912787364072],["correspondiente",-10.910913108407911],["sturen",-10.910962046407384],["Col",-10.910973045346413],["wijk",-10.910979584229601],["comida",-10.911003156231455],["persoon",-10.911008035086587],["proposition",-10.911306858203073],["televis",-10.911457523708581],["hands",-10.911495863885653],["Avant",-10.911614207870056],["absolute",-10.911751945811528],["contexte",-10.912062017327836],["relacione",-10.912364635096834],["Here",-10.912498893183523],["antwoord",-10.912570595303023],["normaal",-10.913340817963956],["Simon",-10.91353778094929],["celebrate",-10.913805971053169],["intérieur",-10.913995596820353],["primar",-10.91430937774863],["worst",-10.914371190558583],["mínimo",-10.915675247360666],["nueve",-10.915686822630686],["NFL",-10.915774111380838],["81",-10.915777865364738],["geweld",-10.915985285139584],["bepaalde",-10.916012512302746],["diseño",-10.916123369529434],["positie",-10.91622577805968],["roi",-10.916822940105018],["recibido",-10.916853840059721],["OM",-10.917486307473094],["registr",-10.917526457255317],["sometime",-10.917634930110616],["ulement",-10.917687434488226],["Bi",-10.917725458534385],["Mal",-10.918060608078584],["trabaj",-10.91818498583028],["rechtbank",-10.918521132774082],["yond",-10.918743929176689],["excuse",-10.918861224334794],["sufri",-10.91911884798206],["vin",-10.920278084583654],["Valencia",-10.920311849097839],["tournoi",-10.92055391709879],["Londr",-10.920565593528572],["Andrew",-10.920599821758447],["attente",-10.920657472351062],["voeren",-10.921728527977407],["shooting",-10.921851549335528],["Liver",-10.921852203447791],["ministerie",-10.921904938836136],["ministra",-10.92200894714134],["Ho",-10.922815908982038],["asocia",-10.923459952265244],["battle",-10.923551012735675],["aventure",-10.923714513796288],["novel",-10.923817182880533],["scale",-10.923896936755757],["finish",-10.925052469872494],["régulière",-10.925216139924036],["secrétaire",-10.925266510481352],["venezolano",-10.925266535276243],["Frankrijk",-10.925277634581967],["Sergi",-10.925280354227418],["mening",-10.925342892446626],["respective",-10.925462112056792],["raad",-10.925502125034779],["productie",-10.92550251147665],["planta",-10.925590530108181],["unité",-10.925612012468452],["explaine",-10.925640767926243],["Heb",-10.925929065777426],["situé",-10.92606591133449],["rent",-10.92630217343281],["storm",-10.926431896375037],["Mont",-10.92698224387821],["tradition",-10.929044577245758],["lance",-10.929638138517571],["stappen",-10.929850122809764],["stoppen",-10.929981928465232],["técnica",-10.93001419668082],["hija",-10.930036286287107],["graves",-10.930064365695575],["políticos",-10.930188595915231],["pobre",-10.930302387361149],["guideline",-10.930313672671556],["liefst",-10.9303913732522],["excellent",-10.930494313189978],["decline",-10.930571563852636],["utilisé",-10.930759229721806],["Adam",-10.931088305020324],["economisch",-10.931151861226311],["gesloten",-10.931298391862816],["herido",-10.931597182960509],["charges",-10.932036592859788],["schrijven",-10.932458803258701],["ig",-10.932785394131226],["répondr",-10.933163144594428],["supone",-10.934646279969826],["bezoek",-10.93471599762967],["étrangère",-10.93495179676826],["Portugal",-10.934951820316133],["carretera",-10.934951842442509],["appareil",-10.93499224084868],["géant",-10.934999818864464],["arse",-10.93500541856849],["empresario",-10.93504087640208],["Oscar",-10.935155082697577],["versie",-10.935238412490314],["Nic",-10.935256005416509],["invité",-10.93564143209922],["efectivo",-10.935669882490465],["outre",-10.935793199588055],["ance",-10.935834517532633],["adas",-10.936563236696255],["española",-10.93682383247931],["coin",-10.937192504667635],["neer",-10.937210159829203],["ista",-10.93807246947306],["membre",-10.938118940506948],["ouest",-10.938165797471907],["nforcement",-10.939750859758336],["cérémonie",-10.9398298453243],["volonté",-10.93992348555267],["offering",-10.939996831906349],["sectore",-10.940060966838136],["registrar",-10.940074282467263],["abilidad",-10.940266151432947],["fourth",-10.940499757345183],["division",-10.940806368868245],["Miam",-10.941474470391181],["registrado",-10.942058775437857],["prove",-10.94252235403148],["vlak",-10.943334024622818],["termijn",-10.943358335162042],["Defens",-10.943814030747557],["endant",-10.943853804082199],["complet",-10.944090122642027],["respond",-10.944293733836918],["visible",-10.944394786893577],["Tous",-10.944473199775732],["génération",-10.944518388758407],["siècle",-10.94473180742133],["numéro",-10.944731810192685],["dispositivo",-10.944806043792951],["accusation",-10.94503921232134],["augmenter",-10.945114471078575],["investor",-10.945146768423715],["complex",-10.94528877448121],["ubicado",-10.945390913055164],["picture",-10.945405516254823],["NH",-10.945866923144767],["anual",-10.946331964793549],["contain",-10.94643515964692],["electric",-10.946521831133627],["personen",-10.94663521232825],["1000",-10.946669977093201],["compter",-10.946866247326096],["lugare",-10.946871864081476],["inwoners",-10.947518401848349],["importa",-10.947665482488647],["discover",-10.94801032243242],["klink",-10.948592522429902],["raconte",-10.949116576698401],["bevolking",-10.949200904414377],["vuelo",-10.949475012825829],["doble",-10.949602907873755],["echte",-10.949647516896572],["vuelve",-10.949927827681528],["persoonlijk",-10.950137826982719],["tie",-10.950324654024893],["provincie",-10.95048866028951],["mari",-10.950653303536857],["funcionario",-10.95096793486217],["productor",-10.951544256997416],["Justin",-10.951836180741406],["objeto",-10.95202776558599],["198",-10.952037171971753],["vele",-10.95432812888462],["council",-10.954397029124705],["izquierda",-10.954608409191529],["championnat",-10.954611516857423],["installation",-10.954633726496084],["defense",-10.954654350271232],["beginning",-10.954695253107015],["hacía",-10.954769858431487],["craft",-10.954808051721834],["drama",-10.954835469904843],["crowd",-10.954894468691569],["balle",-10.954977630536835],["Well",-10.955001595674428],["affecte",-10.955132293835902],["entraîneur",-10.955150318872102],["jouw",-10.955209084425032],["plaatsen",-10.95547499784551],["elected",-10.955494686537044],["mur",-10.955653473538057],["Rafael",-10.95613954359266],["agreement",-10.95660247805834],["comprendre",-10.956853726666157],["Hace",-10.957194736106665],["frère",-10.957382522157467],["remise",-10.958255995724322],["vaya",-10.958901928144178],["bond",-10.958913937381446],["Nigerian",-10.959103982578835],["publicado",-10.959200604287158],["anuncio",-10.959346942137943],["Media",-10.959435437344181],["hockey",-10.959458536537351],["church",-10.959583687336547],["ktober",-10.959587114157204],["blood",-10.959604887044744],["District",-10.959613768462209],["tenue",-10.959880733119082],["collega",-10.959940682398038],["débat",-10.959972672490547],["Santo",-10.960470601331899],["belang",-10.960576127358598],["Sports",-10.960592299516493],["alone",-10.960602558384593],["hield",-10.96131247944275],["retire",-10.961582232895875],["Norte",-10.96167269950108],["wist",-10.961872511642321],["Berg",-10.962851936850546],["enir",-10.962945820251846],["gun",-10.963134521499436],["taine",-10.963319282945445],["sancione",-10.963444601603115],["Ter",-10.963476427501853],["panel",-10.963636048546583],["Bull",-10.964406258772215],["remove",-10.96447235864531],["énergétique",-10.96458633788924],["comercio",-10.964588253620509],["Management",-10.964594593039676],["Christmas",-10.964602749377729],["propiedad",-10.964607496128025],["privado",-10.96473453196391],["negative",-10.964882667561481],["winner",-10.96497444298793],["betref",-10.965001097080936],["Twee",-10.965084794805325],["Game",-10.965207114186288],["consumer",-10.965620822311294],["ful",-10.96562701499543],["épreuve",-10.965745614196354],["Esa",-10.966052784765193],["promise",-10.966638164814043],["acusado",-10.966737635499282],["Marco",-10.96678716748858],["succes",-10.966799250524256],["liever",-10.967059952392992],["revenir",-10.967832143204657],["voz",-10.96790946107085],["diensten",-10.968789613567992],["uren",-10.96896431470054],["•",-10.969608659018242],["croissance",-10.969609567737352],["consommation",-10.96961648486701],["docente",-10.969622221030473],["imos",-10.969764148000436],["generation",-10.969865839966552],["domicilio",-10.969925922111607],["couleur",-10.970198340851141],["approve",-10.970724452565502],["texto",-10.97087029709132],["2025",-10.971381862315262],["approche",-10.971720113985565],["loop",-10.971774598203432],["pad",-10.972344306353857],["street",-10.972406351750333],["sprake",-10.973221320480775],["derecha",-10.973245545056105],["Misschie",-10.973321004238068],["digitale",-10.973879762512336],["futbolista",-10.97452318217877],["quatrième",-10.974659165290383],["jongeren",-10.97490147115283],["Nee",-10.97530720825034],["erhaps",-10.97541969735291],["actualidad",-10.975545876067894],["presentado",-10.975918535905315],["Ley",-10.9760118357864],["ducation",-10.976098424581028],["pantalla",-10.976161846494687],["marketing",-10.976219963537705],["Nog",-10.976337985925232],["parking",-10.976351848992186],["bouw",-10.976849148821596],["Gu",-10.976939926283494],["foreign",-10.977339566675653],["trás",-10.977344984707262],["dolor",-10.977379969441857],["console",-10.977393193683051],["Fire",-10.978020532091165],["display",-10.978233117588555],["cine",-10.978249036953265],["courant",-10.978356595098974],["ck",-10.97868668607674],["named",-10.978722128823378],["Fund",-10.97875671737103],["Ana",-10.97938481408303],["compara",-10.97938628676577],["velocidad",-10.97973535477151],["museum",-10.97973537738878],["mate",-10.979792915455745],["leider",-10.979821650080973],["agencia",-10.979825832662998],["contrario",-10.979876862947496],["vitesse",-10.979931942473202],["bilan",-10.979968994869733],["fraude",-10.979980911399476],["missile",-10.980108330878297],["91",-10.98045077298643],["vit",-10.980481242393932],["poursuit",-10.980918316130499],["Jack",-10.9809899960763],["ña",-10.981046510602358],["requiere",-10.98115727347895],["contraire",-10.981256635031903],["Algérie",-10.981601254213391],["besluit",-10.982221650753395],["Tijden",-10.982994857719929],["declara",-10.983081714116992],["rêve",-10.98351602434495],["proper",-10.983531656524212],["ought",-10.984369756344742],["terreno",-10.984407849080753],["difference",-10.984842774923804],["maatschappij",-10.98484451052037],["pronto",-10.985042590526415],["Series",-10.985082780616773],["Cristin",-10.985129211505265],["delivery",-10.98526860077428],["conclusion",-10.985333837157004],["garantizar",-10.985428239923106],["College",-10.985723054034839],["groei",-10.986549930309964],["kzij",-10.986584379361716],["condamné",-10.986587147283043],["veille",-10.98704647279206],["pot",-10.987364731087716],["employment",-10.98736991784471],["offrir",-10.989442243629842],["impose",-10.989523787245659],["Va",-10.989850006481134],["sumar",-10.989891759478873],["célèbre",-10.989965554660284],["koers",-10.990143340251464],["dochter",-10.990215097224448],["siglo",-10.99048948590234],["explosion",-10.99070011089588],["Ferrar",-10.99083462977003],["touch",-10.99085818709375],["fondo",-10.991366989837804],["participer",-10.991697253931788],["classe",-10.991754052097512],["burger",-10.991768658573019],["trend",-10.993109750392104],["financière",-10.994062744548664],["plant",-10.994333485891806],["payer",-10.994410215427017],["progress",-10.994500834670262],["explain",-10.994775314787713],["kept",-10.994959649376252],["empezar",-10.99511198147516],["kop",-10.995173108379722],["quasi",-10.99528987728377],["Kim",-10.99536274102743],["recuperar",-10.995462704526554],["affect",-10.995540097309771],["BTC",-10.995629293263832],["época",-10.996088989984997],["fit",-10.996247995155485],["campe",-10.996334482248248],["hall",-10.996371957935274],["stations",-10.996810529685852],["durée",-10.997173469393232],["talló",-10.997298227932035],["sleep",-10.997420484546787],["unit",-10.99743144277042],["subject",-10.997497410255164],["geloof",-10.997839369628462],["Tim",-10.998666890282543],["Prince",-10.999417768018478],["guide",-10.999463876443759],["Brussel",-10.999651492502252],["Pública",-11.000301538472671],["domicile",-11.000301891366625],["infraestructura",-11.000303282631904],["conferencia",-11.000322155870517],["promotion",-11.00035656980337],["Alexander",-11.000363238696863],["ervoor",-11.000624630380933],["iniciar",-11.000635841164597],["Rock",-11.000944617908207],["2007",-11.001007788165378],["histórico",-11.001065800283278],["Educación",-11.001228158164759],["pur",-11.001524059688045],["ix",-11.002091857046047],["arned",-11.002531764423878],["ferme",-11.002774515249527],["stade",-11.00286570935179],["Any",-11.003432052463237],["visitante",-11.003629862670275],["Nederlanders",-11.003994348057745],["asistencia",-11.00415632382182],["Sobre",-11.004447567838987],["lokale",-11.004738670001814],["ën",-11.004972449216286],["shut",-11.005051397596713],["Staten",-11.00517158969749],["boom",-11.005191714504663],["tendance",-11.005417059613233],["rápido",-11.005508186810651],["perspective",-11.005509871824998],["stratégie",-11.005509878464057],["passenger",-11.005530494098181],["dialogue",-11.005558935557927],["impossible",-11.005998083632232],["franchise",-11.006159253800345],["dicen",-11.006337489563919],["puisqu",-11.006346297497704],["slow",-11.00643023373387],["2030",-11.006511169264448],["Times",-11.00664769573494],["Regional",-11.0068038268272],["darle",-11.00800514030793],["rural",-11.008148406611678],["artikel",-11.008199204269143],["investigador",-11.00941041433111],["bare",-11.010390538292482],["moitié",-11.010745649183402],["herida",-11.010862782821782],["Partido",-11.010894645691554],["salario",-11.011033975576808],["stikstof",-11.011089205939644],["Global",-11.011456882045316],["señalar",-11.01147600866869],["bestaan",-11.011594807758193],["Philippe",-11.012220758235568],["favorable",-11.012283185104087],["rán",-11.012454143255315],["taxe",-11.012465041484852],["studenten",-11.012520197663392],["spraak",-11.012971746002991],["solicitud",-11.013202876180577],["gingen",-11.013763718716408],["Nou",-11.01411183134792],["aumentar",-11.01431689444005],["900",-11.014406577399193],["siège",-11.014427825942839],["cabinet",-11.014533694064705],["ideas",-11.014620361274332],["Sinds",-11.014817647941408],["producten",-11.014854980656583],["chat",-11.015116260083843],["reconnu",-11.015324314020322],["NAVO",-11.01602224326968],["esprit",-11.016080131876285],["dicha",-11.016164167490361],["recuerda",-11.016175717346396],["burn",-11.01662028813218],["potencia",-11.016632626835406],["vital",-11.016862634193629],["laisse",-11.017399167556341],["aime",-11.017805706089547],["draw",-11.018061403518422],["laisser",-11.01828631711231],["informar",-11.018319586311916],["permett",-11.01843206390063],["couldn",-11.01879675256842],["union",-11.018943825721674],["twintig",-11.019109301529287],["woorden",-11.019311386701265],["born",-11.019712616628524],["Xi",-11.020053096882663],["spelers",-11.0200636944056],["continent",-11.020480879110828],["feet",-11.020850162003649],["leren",-11.02102708113453],["Boris",-11.02104796309131],["bouwen",-11.021076783164347],["protesta",-11.02119620419483],["Vincent",-11.021346625106919],["dejado",-11.021543273952954],["ressource",-11.02161020610253],["Dios",-11.02163779823723],["collective",-11.02205170015236],["Ford",-11.02219930045663],["tafel",-11.022245433075533],["83",-11.02233932169343],["veulen",-11.022494878982469],["rally",-11.022732487848948],["november",-11.023169956839247],["scenario",-11.023693120219995],["asunto",-11.023912763680187],["expertos",-11.024309856262164],["facility",-11.024472910654165],["previa",-11.02459514006345],["spoke",-11.024642723414917],["évolution",-11.024980899320209],["derrota",-11.025080159905126],["poca",-11.025126360563508],["reed",-11.025243921606997],["Rob",-11.026008633674369],["surance",-11.026242476246857],["búsqueda",-11.026625663007584],["horario",-11.026675802858978],["è",-11.027019980933131],["melding",-11.02738655161149],["larga",-11.02773763494304],["ió",-11.027795207411927],["intent",-11.02785842943674],["wagen",-11.027915176646214],["fiscale",-11.028169791340783],["yester",-11.028738994261984],["zorgt",-11.028878473483132],["pide",-11.029443735032698],["ww",-11.029446616677705],["ultra",-11.029695039029662],["Rotterdam",-11.030074320425754],["reporte",-11.030124132021875],["contenu",-11.030444693846595],["wall",-11.030805847821386],["liée",-11.03111441467685],["cultuur",-11.031120789105387],["défi",-11.031422474872826],["Sénégal",-11.031879754284875],["Assemblée",-11.031968042367168],["finding",-11.031969516363485],["dividend",-11.031975662410964],["eken",-11.032157408081808],["afectada",-11.032244480630713],["concluy",-11.032254877007599],["Mari",-11.032895777730893],["keren",-11.033078278214914],["quiero",-11.033118097163719],["bag",-11.03313634734081],["Hamil",-11.033139427268994],["rates",-11.03318973723178],["Han",-11.033449825179797],["hauteur",-11.033587816634466],["constant",-11.033772732247332],["Island",-11.034004213621728],["estima",-11.034085374535266],["consecuencia",-11.034325800388487],["ás",-11.034328406196817],["Marcel",-11.034667554644606],["solu",-11.034971705201794],["87",-11.035540143648578],["transfer",-11.036197531344772],["Mc",-11.036744709204399],["welcome",-11.036883948367354],["límite",-11.037343652865239],["síntoma",-11.037348634505792],["travailleur",-11.037350001584798],["voorlopig",-11.037376342482927],["obvious",-11.037389961387127],["troupe",-11.037402738134368],["Board",-11.037441337189147],["Marvel",-11.037909653329868],["arriver",-11.038101164443416],["activa",-11.03811885154646],["Olivier",-11.0381398593522],["coraz",-11.038145878308494],["majorit",-11.038318149920737],["Verder",-11.038330989758876],["gathering",-11.038393980057107],["identifie",-11.038428344146082],["dijer",-11.03860655020123],["vivo",-11.038822837056653],["siente",-11.038826408499546],["lejo",-11.038979033965404],["kijkt",-11.039354538810588],["92",-11.039969583999294],["devra",-11.040519721779987],["esposa",-11.041039344122415],["enregistré",-11.041060761358079],["habitantes",-11.041783032678168],["tacó",-11.041862360758309],["lisi",-11.042121445806563],["insiste",-11.042147275899495],["dog",-11.042410180936225],["holiday",-11.042748519699531],["instruction",-11.04276494311479],["Parlement",-11.042776915311595],["inició",-11.042788125898266],["comentario",-11.042812798083956],["tennis",-11.042820446578236],["Noël",-11.04284774839346],["victor",-11.042977912156488],["segment",-11.043123094296767],["acceder",-11.043294479018172],["détail",-11.043363989434425],["micron",-11.043712518757314],["droga",-11.043831107344452],["sales",-11.04396576337194],["cha",-11.043993452860548],["treat",-11.044142091839374],["Parti",-11.044304145497744],["namen",-11.044537394025504],["index",-11.044863609508585],["zeven",-11.045014469280972],["tank",-11.045081203263617],["crew",-11.045785926823608],["noemen",-11.045805793358664],["ofrecer",-11.04585350253619],["write",-11.045946991963971],["vacunación",-11.046052629063265],["acusa",-11.046661820008671],["barre",-11.046901177294364],["tengan",-11.04709294560885],["ambas",-11.04770159191409],["conseiller",-11.047742486858565],["kwaliteit",-11.048042159957934],["peace",-11.048071994256311],["claime",-11.048121594915237],["madrugada",-11.048182913540385],["morgen",-11.048228182334112],["trasladado",-11.048346583379974],["nomination",-11.048603274102213],["haute",-11.048630237090684],["portavo",-11.049003205954588],["Trois",-11.049275662813724],["Mali",-11.049288992013766],["financement",-11.049545405557797],["entend",-11.049572020729922],["reopen",-11.049577035823146],["uitge",-11.05112717283902],["pregunta",-11.051587629355554],["geldt",-11.051682799418902],["industrial",-11.052548909859897],["permanent",-11.052574461630662],["verlies",-11.052748780589415],["resolu",-11.052776094639665],["placé",-11.052937135150575],["Président",-11.05297750865181],["participante",-11.053095352493154],["retraite",-11.053173815691315],["quitter",-11.053311729122747],["voertuig",-11.053562259289915],["scientifique",-11.053647392582441],["lichaam",-11.053648982269824],["tentative",-11.053650063742836],["évidem",-11.053666704492993],["privada",-11.053668318235108],["competition",-11.053682074742511],["classique",-11.053682989995192],["financië",-11.053758273294843],["aquella",-11.053758461238777],["miedo",-11.053837493101781],["dak",-11.053839583680112],["dénonce",-11.054001275267492],["catégorie",-11.054270353192926],["fout",-11.0542909108817],["seguirá",-11.054994737524378],["geraakt",-11.055011527215505],["reconocimiento",-11.055165966817071],["nood",-11.055249388199261],["nouvel",-11.055343318890213],["nette",-11.05552441612717],["Ko",-11.055553817650049],["draaien",-11.055833251428613],["burgemeester",-11.056190576121306],["Why",-11.05623645035832],["peligro",-11.05643202123257],["YouTube",-11.057289342789726],["ncia",-11.057311605085221],["alert",-11.057401513309012],["joint",-11.057556511844442],["turno",-11.057749088858728],["geschiedenis",-11.058569516444448],["utiliza",-11.058662535413056],["loan",-11.058728530841014],["plicación",-11.0589483555022],["impression",-11.058967041393842],["obtenu",-11.059040808422111],["Grupo",-11.059148815875059],["téléphone",-11.059165967451477],["réduir",-11.05920218009756],["establecimiento",-11.059296119260823],["kozen",-11.05956011628869],["clean",-11.05969769330536],["respeto",-11.059784972767126],["utilizar",-11.060009791418528],["verandering",-11.06023570075365],["hurt",-11.060549690070731],["revanch",-11.060771072680605],["ús",-11.06078234014032],["ciclo",-11.061459026952445],["trans",-11.061489878132505],["arrest",-11.062117964519206],["ête",-11.06226026129126],["fell",-11.06233404991929],["IT",-11.06234741044491],["guard",-11.062425070409965],["áreas",-11.062590139057317],["pone",-11.062687560855084],["accept",-11.062714678136446],["Press",-11.062913663421973],["sloot",-11.063374375983654],["engagé",-11.063652541337081],["appelle",-11.063736691697002],["NBA",-11.06394647960753],["organisé",-11.06408513383542],["hearing",-11.064265219026213],["tomó",-11.064277303968955],["speech",-11.064667501484962],["subray",-11.064928307489605],["Like",-11.065172587256894],["île",-11.065564883916256],["revient",-11.065794378108642],["Tal",-11.066015097869688],["straight",-11.066036175361772],["robo",-11.066312373515686],["subir",-11.066470082202706],["owner",-11.066854573978219],["device",-11.068416495285748],["suelo",-11.068453475023933],["Solo",-11.068781557910167],["94",-11.068824848670012],["ng",-11.06885169412881],["diverso",-11.06899800620285],["krege",-11.0695106097076],["lien",-11.06953551088272],["menace",-11.06959335440896],["usage",-11.069923273588024],["bloque",-11.070120618564577],["toernooi",-11.0701769672211],["conduct",-11.070283953564958],["grève",-11.07028777928971],["amour",-11.070316602789937],["prévenu",-11.07035207032369],["compañeros",-11.070504222771696],["migrant",-11.070514308690674],["tegenover",-11.070732755005537],["daarvan",-11.070884920285813],["réaction",-11.070890245143728],["univers",-11.07099946821065],["advies",-11.071032884004453],["degree",-11.071304548263065],["penal",-11.071317027194],["Jackson",-11.071457596595206],["producer",-11.071752170074095],["sister",-11.07175969517064],["servir",-11.072081186850369],["truck",-11.072608990256924],["Nicol",-11.072782554031827],["animale",-11.07314551830497],["bestuur",-11.073428668960792],["verkeer",-11.074101079105185],["terroriste",-11.074137363215137],["Hug",-11.07427569063415],["declare",-11.074728692992066],["cay",-11.074790401806203],["upon",-11.07505644111272],["adulto",-11.075114305541181],["pens",-11.075214516580882],["précédent",-11.075506099287779],["forcé",-11.075556870014672],["passion",-11.07562964790079],["volunteer",-11.075808943760844],["WhatsApp",-11.075811661278848],["procédure",-11.07581188280621],["delantero",-11.075839844888144],["veiligheid",-11.075873831240411],["calls",-11.076330311794532],["gener",-11.07634526406656],["militant",-11.076351273923743],["putting",-11.07635664135419],["mix",-11.076679203620671],["prepara",-11.076695597063477],["champ",-11.07676592783611],["jug",-11.076891593952269],["intentar",-11.076953192295475],["dragen",-11.077029246929428],["society",-11.077123537748815],["terminé",-11.078162123984375],["Asocia",-11.078313262631267],["verwachting",-11.07833517377372],["Quant",-11.078615899771345],["audiencia",-11.078823921140273],["ndroid",-11.07893616702731],["stap",-11.07966956789245],["1990",-11.080019161226868],["fresh",-11.08022452254217],["opvang",-11.080324344929897],["amid",-11.080777360157956],["minimum",-11.08106300648253],["lumière",-11.081431722932328],["Hollywood",-11.08145414008268],["volgend",-11.08169229795698],["threaten",-11.08216661029755],["advance",-11.082304662536067],["democracia",-11.082409738049446],["middle",-11.082420798140305],["especialista",-11.082496454049746],["insist",-11.082649261312268],["diversa",-11.082671796602135],["classement",-11.082745036688813],["Bu",-11.08300177817367],["tekort",-11.083031860396124],["asegurar",-11.083416384584645],["bang",-11.083447435876177],["Top",-11.08348969523141],["Cada",-11.083573334383441],["overigen",-11.083655806439001],["imagine",-11.084076041551315],["crash",-11.084813836143077],["Hall",-11.085211894138],["cerrar",-11.085214177712803],["purpose",-11.085720480211794],["costo",-11.08583473182969],["ather",-11.085843290522382],["caus",-11.085982907327477],["bak",-11.086017083143089],["officiel",-11.086038885126325],["incredibl",-11.086336868280018],["titel",-11.086585835404163],["oins",-11.086815107959907],["Business",-11.087083111452344],["Toronto",-11.087115140773697],["dream",-11.087136113927711],["zoon",-11.087279113015441],["scherm",-11.087284335918746],["Governor",-11.087294972413373],["weight",-11.087382721384392],["chambre",-11.087421008667281],["alumno",-11.087571961440208],["operate",-11.087700290350751],["tough",-11.087746041119692],["introduce",-11.087811408487788],["struggle",-11.087968522067175],["tourism",-11.088655497669034],["chi",-11.088682470046065],["weather",-11.088691170666005],["vrienden",-11.088697685953163],["returne",-11.088779558511764],["fondos",-11.088811650215302],["geschr",-11.08924121843765],["posterior",-11.089647465875132],["jóv",-11.089723567845617],["schuld",-11.08994854922538],["obliga",-11.089975413744831],["roepen",-11.090181591202537],["abri",-11.090795935165477],["file",-11.091431115416533],["directo",-11.091468180849867],["Cet",-11.092012004102791],["goles",-11.092193868782633],["leiden",-11.092437140775836],["Committee",-11.092758421113672],["toll",-11.092764088902396],["Internet",-11.09276479318001],["circulation",-11.092808517986015],["onderzoeker",-11.092907514353977],["afternoon",-11.092920331686642],["contribution",-11.092971215940834],["mejora",-11.093422261858349],["Lewis",-11.093601878440673],["wave",-11.093661573647601],["atender",-11.093688814817746],["lastig",-11.093701184791193],["estilo",-11.093706380199189],["isme",-11.094129613944338],["sneller",-11.094296023529967],["hôtel",-11.094374517811922],["envie",-11.094461031066084],["vienne",-11.094522026901998],["hop",-11.094757987406688],["desarrollar",-11.095056381986206],["rode",-11.095455099595542],["recorde",-11.095455384664442],["committee",-11.095506578550285],["sujeto",-11.095789184072867],["especie",-11.095834393725768],["Castillo",-11.09587190568735],["justo",-11.095901372555414],["burgers",-11.09591674934941],["exercice",-11.09847271232045],["Desarrollo",-11.098472733011207],["destination",-11.09853877533484],["april",-11.098786225376681],["dagelijks",-11.099037499259559],["capture",-11.099712255865978],["Guardia",-11.099872226094533],["informado",-11.100142050002255],["transmis",-11.100869314247143],["quiera",-11.100910398140064],["oui",-11.101243626782964],["Cor",-11.101511158808464],["tienda",-11.101833341978626],["norma",-11.102772732005587],["Antwerpen",-11.10280659015211],["sluiten",-11.103078786712558],["Long",-11.10323881844852],["relation",-11.103583889321564],["exception",-11.103586161119821],["leeftijd",-11.104178811334254],["período",-11.104219846961824],["coalition",-11.104578554997648],["publishe",-11.104663491702517],["05",-11.105745518343841],["Boy",-11.105950475696272],["flow",-11.106012475565429],["wise",-11.106212352681794],["Up",-11.10629641851024],["agression",-11.106309412991301],["vaste",-11.106330795879018],["attendu",-11.106463248189275],["Mensen",-11.106739149933311],["precisa",-11.106795898040037],["ving",-11.106965568369972],["dispose",-11.107073867445393],["poi",-11.107177815406786],["moto",-11.10719593030597],["chiffre",-11.107656645197473],["lettre",-11.107780413918864],["speelde",-11.107877244504303],["ended",-11.108069785257452],["evening",-11.108113984621916],["matche",-11.108151217844092],["waarvan",-11.108160934617121],["flu",-11.108659323146322],["comis",-11.10874227310644],["existen",-11.10916785195115],["reveal",-11.109778673038806],["bericht",-11.109896395943979],["Secretar",-11.109958780621872],["ucraniana",-11.110001128007518],["europeo",-11.110001317169932],["habitude",-11.110080432272454],["Occident",-11.110088933171788],["FIFA",-11.110092096084927],["Derecho",-11.110104282089022],["praten",-11.110229350583598],["previsto",-11.110238907283591],["clubs",-11.110252947088316],["escolar",-11.110327961232759],["relief",-11.110604409765653],["samenwerking",-11.110798932540137],["focuse",-11.110803679006217],["domestic",-11.110835843199471],["modern",-11.111036596807178],["feit",-11.111373161228952],["Direc",-11.112360304049833],["institucion",-11.112474582566424],["gehaald",-11.112574588506346],["resume",-11.112685514411673],["seguidor",-11.11273451111024],["export",-11.112857410118155],["mention",-11.113338743204292],["maxima",-11.11364417753988],["gehoude",-11.113983073188688],["pair",-11.114030323190658],["profesor",-11.114034743658197],["aproximada",-11.11421582772184],["Oost",-11.114344479434958],["publication",-11.114354154373324],["Affaire",-11.114367071552781],["organisme",-11.115262811117496],["emps",-11.115315278781356],["connection",-11.115808291245184],["eléctrica",-11.115812435069522],["ámbito",-11.115814137506852],["plaisir",-11.115814559301661],["adversaire",-11.115816373815438],["procureur",-11.11586930552393],["extranjero",-11.115889390249158],["lawyer",-11.115898033204108],["Está",-11.115951350813818],["Control",-11.11638331004739],["matériel",-11.116961865356828],["prévoi",-11.117037002997598],["Hong",-11.117060055072066],["committe",-11.117379398500729],["gesteld",-11.11739296332721],["roman",-11.117437836034831],["CBS",-11.117605618476137],["Kevi",-11.117789691644855],["gre",-11.118522987105003],["Free",-11.118558341008537],["mill",-11.118755791375717],["arrière",-11.11887815956436],["traditional",-11.119117151422715],["kerk",-11.119222158451265],["aplica",-11.119291979919282],["plante",-11.119659876487965],["tjes",-11.119783522235185],["mez",-11.120566702623535],["concierto",-11.120581625216431],["adult",-11.120591062270375],["negro",-11.121001128645311],["gar",-11.121016311783336],["extend",-11.121374202241231],["definite",-11.121520535596357],["faveur",-11.121662781005284],["signature",-11.121666701612646],["Palacio",-11.12166889457372],["positif",-11.121782372629175],["vaccination",-11.121870928507697],["warne",-11.121897343745449],["complètement",-11.1223587924089],["Ri",-11.12239423063356],["tendría",-11.122565144862282],["rights",-11.122833643012141],["accueillir",-11.123043522892324],["fallecido",-11.123459241878821],["nacionales",-11.123742229133214],["Creo",-11.123785585714137],["escuchar",-11.123834480641023],["Bre",-11.123999971666223],["firmado",-11.124318728924028],["contribu",-11.1243434908017],["destacar",-11.12465522741342],["fruit",-11.124719680607114],["Plata",-11.124834275423646],["mont",-11.124862875598138],["esión",-11.125080801922602],["kaart",-11.125819611994551],["aard",-11.12583435012423],["tramo",-11.125902858327315],["ervaring",-11.126284382221371],["ira",-11.126568674901241],["blanco",-11.126578438661717],["Unie",-11.126586189275187],["trabajos",-11.126721559234381],["entender",-11.126824598815727],["frappe",-11.127316587604433],["olympique",-11.127544441609645],["abuse",-11.127863936648216],["Valley",-11.127990474226195],["protéger",-11.128012067041809],["Afghan",-11.128255734190923],["helpe",-11.128328787636281],["sorti",-11.128438178565283],["mando",-11.128676569837618],["créé",-11.128731802651174],["loos",-11.128893318075804],["hair",-11.12893611941383],["5G",-11.129363301945286],["assurance",-11.129577641849604],["lesquel",-11.129595223262108],["chico",-11.129845154616218],["entendu",-11.130127505519292],["montrer",-11.13053772229591],["outil",-11.131001998668532],["Jong",-11.131067219359577],["voisin",-11.131250714080695],["larges",-11.131381256158718],["passant",-11.13155731369784],["december",-11.13161778704492],["apertura",-11.131849504474545],["93",-11.132564149012843],["beneficios",-11.132807560347803],["Local",-11.133157989967152],["procedure",-11.13346838863022],["hubiera",-11.133472802133005],["urió",-11.133484982926099],["Boston",-11.133527756215585],["rendimiento",-11.133643323851139],["Hernández",-11.133774594532024],["recorrido",-11.133788182220162],["disposition",-11.13385088020208],["Laurent",-11.135040279238428],["Australian",-11.135046804042346],["consumidor",-11.135090527084536],["abrir",-11.135936883182092],["laag",-11.136005572842762],["intento",-11.13603151013805],["poursuivi",-11.136452195436767],["Jé",-11.136618195800567],["esperanza",-11.136665398093736],["crédito",-11.13679275172779],["discus",-11.137108675490664],["réaliser",-11.13760223257789],["survive",-11.137653854644924],["ient",-11.137687495768734],["accessible",-11.137953380134235],["corto",-11.13809555697627],["entendre",-11.138445817429353],["vait",-11.138526641014327],["Ryan",-11.139164571456215],["French",-11.13942237823749],["lanzamiento",-11.13944043105919],["température",-11.139465685860312],["piloto",-11.139699096979665],["looks",-11.139719021209093],["corruption",-11.139867682339768],["pieza",-11.1401915314973],["ilegal",-11.14039614152492],["perdido",-11.140464141092178],["Delh",-11.140511509744247],["actrice",-11.140662402374634],["Beau",-11.140782146339806],["migrante",-11.141472449428196],["afirma",-11.14152670971263],["blanc",-11.141704544655962],["Mexic",-11.141712839504855],["decide",-11.142184989446012],["deportivo",-11.142545513389644],["debt",-11.14257554917685],["distancia",-11.143172000247468],["parquet",-11.14351221328057],["Utrecht",-11.143621055790877],["Love",-11.144012683767425],["futur",-11.144118346437299],["Russe",-11.144216684526683],["GB",-11.144437991283196],["observe",-11.144540950697227],["sick",-11.144575052690897],["Sch",-11.144659870605796],["kwartaal",-11.145120833220183],["confirmar",-11.1452628331524],["citie",-11.145374105520556],["réfugié",-11.145402004194565],["honneur",-11.14540205125976],["porcentaje",-11.145402289350251],["característica",-11.145403185755029],["ciudadanía",-11.14540389440312],["Taylor",-11.1454143515589],["utilisation",-11.14543773799238],["magasin",-11.145467311695068],["gewon",-11.145686157700244],["Both",-11.145817959278663],["querido",-11.145833265476679],["intelligence",-11.14604596491072],["Javier",-11.146127298366558],["extérieur",-11.146597391049223],["Also",-11.147205133577184],["ajouter",-11.147486319332163],["canal",-11.14760476796912],["pilote",-11.147612853995229],["cell",-11.148010461321928],["bois",-11.148167472228893],["please",-11.148351993884335],["Genè",-11.148447720406182],["cal",-11.148821530084696],["voulo",-11.14882533628197],["complexe",-11.14882537758418],["elling",-11.14887827178033],["expand",-11.1491240639033],["exterior",-11.149407027820791],["activos",-11.149439750080713],["estudios",-11.149451657382539],["travaille",-11.149530146874675],["valore",-11.149886915555516],["Nov",-11.150247315372475],["NN",-11.150647986671267],["razon",-11.150662180013063],["Unido",-11.151031803992371],["pack",-11.151067687808482],["ependant",-11.151229086417137],["responsibilit",-11.151426100640506],["Chelsea",-11.151428689891862],["Bovend",-11.151489431323714],["immers",-11.151574108122741],["august",-11.151930049338928],["murder",-11.1520223729216],["cierta",-11.152039697951132],["veilig",-11.152162219711318],["sanctie",-11.152231847107121],["pendiente",-11.152427467097052],["vacance",-11.15264076998064],["dependencia",-11.152737055960348],["manche",-11.153108314466877],["verleden",-11.153444188235948],["présenter",-11.153465679494843],["listen",-11.153474020688343],["chang",-11.153505062463118],["Tweede",-11.153600842657275],["ië",-11.153633475423847],["shift",-11.153651149469734],["green",-11.15366800533742],["130",-11.153770889005731],["getroffen",-11.153916831207294],["destaca",-11.15395126435364],["solucione",-11.153973043406538],["ciudade",-11.154308869044403],["Sony",-11.154460171202443],["Actual",-11.154729595762904],["revel",-11.155310155220919],["alerta",-11.155412997055592],["connaîtr",-11.15552544625702],["verkoop",-11.156007591212331],["actif",-11.156152944864704],["ideal",-11.156350416389607],["turismo",-11.156582588386872],["stream",-11.157065995025027],["tonne",-11.157304573619607],["actri",-11.157455051132875],["Público",-11.157486706641349],["doubt",-11.157487705485156],["pandemie",-11.157494310741964],["bande",-11.157613352097147],["aanval",-11.15783320604207],["Other",-11.158055715570216],["offere",-11.158085407531237],["relacionado",-11.158141047933952],["eur",-11.15844782244508],["agricultur",-11.158564690965935],["destacado",-11.158895033909698],["médicos",-11.159021307790649],["permit",-11.159576747111684],["belangrijkst",-11.15969610820586],["Gar",-11.159702648030326],["plekke",-11.159705683875702],["bringing",-11.159941340562263],["gevraagd",-11.160007266617828],["cancel",-11.160230704027175],["Korea",-11.161378449917667],["Lueg",-11.161679718282961],["proposé",-11.161788544335005],["podcast",-11.162074352496788],["governor",-11.162650882065705],["Steve",-11.162915690417526],["référence",-11.162941451361359],["journal",-11.162975903361787],["alza",-11.163088779060715],["Wall",-11.163439170591726],["showing",-11.1634714106961],["Ba",-11.163796620415626],["provider",-11.164047158684639],["tijdelijk",-11.16437214574656],["señalado",-11.164485412939918],["overleden",-11.164492901455732],["Officer",-11.166463964695883],["dieren",-11.166848393112797],["Sept",-11.16725223063862],["ium",-11.167255317005111],["vertelle",-11.16729816464191],["pedir",-11.167750933304763],["owie",-11.167797163247165],["carta",-11.167940900914992],["Onze",-11.168123102615858],["Rome",-11.168137814229329],["interese",-11.168729878531671],["wan",-11.16891430313268],["régimen",-11.168942599686549],["sprong",-11.169250393911453],["ura",-11.169809753404962],["traitement",-11.169956536537423],["Space",-11.17058801304239],["viento",-11.170598326909007],["ocupa",-11.170984863290983],["discuss",-11.17152049065222],["invasi",-11.171585606170778],["sch",-11.171586270421974],["superar",-11.171805093625142],["master",-11.171841408351884],["blessé",-11.17187945234133],["defeat",-11.172337040070033],["bras",-11.172937552141297],["Brun",-11.17300056986334],["wouldn",-11.173077386397559],["presidenta",-11.173144417957593],["Asia",-11.173150727933276],["implemente",-11.17336788056591],["ibilidad",-11.173558279337332],["policie",-11.175103805760848],["rythme",-11.17511689156629],["gardien",-11.175680034613368],["surveillance",-11.175892077043969],["procedimiento",-11.175908794191603],["blessés",-11.176009484470942],["presunto",-11.17644397024507],["précédente",-11.176498190064049],["verkopen",-11.176626681977966],["joue",-11.176635345793864],["immédiate",-11.176652841695962],["esperan",-11.176735745742555],["duur",-11.177398820554863],["CD",-11.177443983077259],["sky",-11.1779128830648],["directora",-11.178764996164027],["Com",-11.17930578951817],["Gov",-11.179408580183225],["enter",-11.180940601741405],["bol",-11.181076185180522],["ros",-11.181077267597733],["joine",-11.18116636798505],["amis",-11.18132258357576],["faible",-11.18188144205116],["laissé",-11.181882263743683],["fotografía",-11.18210356682873],["samenleving",-11.182106683141914],["exploitation",-11.182179164806794],["colectivo",-11.182230863321656],["durable",-11.182386802717412],["aquel",-11.182512774839395],["Tech",-11.182566251575182],["vermogen",-11.182653442488773],["dando",-11.182668233521909],["thème",-11.182731058746285],["intense",-11.182762218490446],["suministro",-11.18293027114806],["liga",-11.18322091976927],["yourself",-11.183627375241196],["Harris",-11.183734127264648],["Rica",-11.184195735319815],["verlor",-11.184395362984063],["wish",-11.184475646701046],["fini",-11.184479606847443],["01",-11.184546127702665],["ément",-11.184785940390475],["Matt",-11.185234548177275],["slachtoffers",-11.185274919983113],["actief",-11.185381133012768],["deporte",-11.185921688046125],["Bon",-11.186891622757832],["luxe",-11.18691816524974],["interna",-11.186969303931143],["sensible",-11.187001639673504],["asil",-11.187276262820683],["*",-11.188309420771603],["comienza",-11.188353384475079],["salarié",-11.188354669662882],["Nuevo",-11.188359660398245],["beslissing",-11.188360933209212],["incluido",-11.188369319303256],["associate",-11.188400623630347],["parlementaire",-11.188400812330698],["Coronavirus",-11.188433452371047],["inmediata",-11.18853517495754],["household",-11.188601357592407],["mener",-11.188688894967928],["Departamento",-11.188968724693067],["Sol",-11.189070139539634],["calor",-11.189114810630372],["escena",-11.189555475653151],["beneficio",-11.189730345887948],["université",-11.189735358457597],["llevado",-11.190167219324803],["frais",-11.190196526107325],["celebrar",-11.19048681916111],["gold",-11.190576119800555],["protagonista",-11.190669321133068],["protester",-11.190788804967148],["installer",-11.19089716316677],["stijgen",-11.190902034801399],["homes",-11.191130864811662],["semi",-11.191144803855181],["pelea",-11.191154393310818],["arts",-11.192350147754924],["parlement",-11.192361196797172],["Ken",-11.192491554010353],["acerca",-11.19275848295399],["permettra",-11.192785256155874],["farm",-11.192823715928624],["expression",-11.193049647872183],["Porque",-11.193066789619202],["dará",-11.19354668936915],["transmission",-11.193562530278479],["perro",-11.194553218384474],["Constitu",-11.194582324607282],["démocratie",-11.194642564829422],["homicidio",-11.194642565732234],["floor",-11.19469090064883],["Company",-11.194796822116853],["déplacement",-11.19482750697367],["viral",-11.195205589558409],["Was",-11.196494381988504],["professeur",-11.19684158210407],["Mary",-11.197209390640076],["vliegtuig",-11.197217841160345],["looke",-11.19727664378092],["erreur",-11.19753619378718],["conocida",-11.197642617300023],["cool",-11.197784763044528],["défaite",-11.197891751577464],["killing",-11.197946083741325],["drivin",-11.198271183028691],["thank",-11.198671858426486],["accueil",-11.198801933315446],["midden",-11.199014258086152],["voelen",-11.199153125983255],["Albert",-11.199187709590422],["tuin",-11.199296736552444],["correct",-11.19966532112015],["surge",-11.199691185587803],["actuar",-11.199875322586374],["vais",-11.199907003296985],["apuesta",-11.20000882457704],["secure",-11.200526103932322],["telefoon",-11.200560220454133],["torno",-11.200881370095207],["akkoord",-11.200971025899296],["espectáculo",-11.200971678747113],["alternativa",-11.20097517869177],["suerte",-11.200987951698828],["vídeo",-11.201006781460016],["identidad",-11.201075688477797],["instancia",-11.201143446061096],["Finland",-11.201145510273832],["améliorer",-11.20135268304621],["anunciado",-11.2013796045396],["apunt",-11.201502397931648],["exposition",-11.20208481052295],["ticket",-11.202174607457899],["estaría",-11.202595871293287],["aware",-11.202638735428899],["Mosc",-11.203263997517162],["corrup",-11.203595307498656],["climat",-11.204263275617784],["Water",-11.204571648289487],["hous",-11.204588278319985],["ties",-11.20485157049635],["plat",-11.205203775633663],["defender",-11.205393557091332],["avenida",-11.205476789772362],["350",-11.205648421218083],["compartir",-11.205682410362233],["suisse",-11.20573010123993],["indicate",-11.205919660432112],["remis",-11.2060243714499],["feest",-11.20676091357618],["dur",-11.206855416027384],["cible",-11.20713279434608],["comienzo",-11.207341779899165],["respectiva",-11.20734399290891],["pétrole",-11.207344367644797],["Canadian",-11.207345962453884],["Alguno",-11.207353037802367],["convocatoria",-11.207362512706014],["ritmo",-11.207370195945083],["Ecuador",-11.20737310332071],["Espagn",-11.20738911503577],["violation",-11.207485494210975],["begonnen",-11.207566467403275],["Virginia",-11.20789067465348],["raakte",-11.208022830122662],["aéroport",-11.208276983935841],["lancement",-11.208778859742722],["writing",-11.208965355157886],["independent",-11.209119016221447],["hogar",-11.209316227293412],["independiente",-11.209494341208407],["plastic",-11.209544289662094],["pain",-11.20965386095033],["volgt",-11.209786687488538],["socio",-11.210302707137872],["stick",-11.210326208382437],["permitirá",-11.21047897161039],["Wi",-11.210681565919547],["Université",-11.210796418506483],["apoyar",-11.211184653290076],["Jordan",-11.211374063491741],["commencer",-11.21186489139525],["divers",-11.211943197260716],["Nederlander",-11.211954207644592],["FB",-11.211982097564512],["avanzar",-11.212026476890545],["invloed",-11.212875226797642],["thinking",-11.2137434112738],["légère",-11.213754446147899],["récord",-11.213774627887656],["gezicht",-11.213940940982646],["múltiple",-11.214039612999201],["isolation",-11.214073166951188],["públicos",-11.214081701801966],["mine",-11.214797048929768],["implica",-11.2149534351352],["inicial",-11.214961338594616],["Fed",-11.215007860506638],["generatie",-11.21520003134996],["woon",-11.215212183622794],["Best",-11.215588683819679],["vino",-11.215848271208728],["eyes",-11.215925159089501],["CO2",-11.216080602467116],["tegenwoordig",-11.216113412151604],["Prix",-11.2163654977637],["arbre",-11.21653824808398],["Servicio",-11.216551698964917],["arrêter",-11.21658535721054],["element",-11.216606243310476],["issent",-11.216643736967265],["develope",-11.216936072828073],["regreso",-11.216991677094104],["Bob",-11.217322155734571],["demander",-11.217430896133777],["logrado",-11.217470895842546],["puisse",-11.217839159185806],["pol",-11.21800621519408],["Guinée",-11.218295034515798],["broken",-11.218435184433439],["plena",-11.218832059616092],["anteriores",-11.219030338442566],["chute",-11.219147671443075],["fui",-11.219434706827489],["militare",-11.219578104066342],["TP",-11.219670866257463],["ambition",-11.219720653873004],["ONG",-11.219781233704145],["strateg",-11.21981345117577],["beschikbaar",-11.220124767294141],["Uruguay",-11.220203135167417],["language",-11.220205191558879],["relevant",-11.220283097598156],["ultimate",-11.220298372599995],["?\"",-11.220367700552742],["Rac",-11.22038132387101],["subida",-11.220650615191374],["verdacht",-11.22078672846633],["incidente",-11.220866056876437],["poursuivr",-11.222148390699221],["videos",-11.222323752696703],["Morena",-11.222368236201266],["extension",-11.222736809659544],["kennis",-11.223122057810695],["apply",-11.22324289219005],["setting",-11.22343511363296],["effectué",-11.223837044657364],["Nicolas",-11.223891322126196],["middel",-11.223953322544531],["jeugd",-11.223962108862569],["vert",-11.22444156005834],["promis",-11.224567345711034],["III",-11.224637861707151],["tradicional",-11.224767184375832],["north",-11.225106286233556],["performances",-11.22537398775327],["makkelijk",-11.225500476723662],["Otra",-11.225518134268537],["heet",-11.225820885963483],["gezin",-11.226247609748508],["allerle",-11.226608274059787],["différence",-11.226701629707867],["phénomène",-11.226703003672613],["sorpresa",-11.226707660091432],["asesinato",-11.226712583724613],["freedom",-11.226751090020237],["réduction",-11.226753906129185],["hommage",-11.22676385878342],["Federación",-11.226826884067203],["survey",-11.226956221841771],["Aucun",-11.22697340590038],["augmenté",-11.227006420384711],["CDC",-11.227036421831645],["Italia",-11.22764709234389],["Reino",-11.227721265336239],["stil",-11.229021413559932],["leiding",-11.229080936049645],["contest",-11.229092515665144],["Art",-11.229419500268872],["Europea",-11.229561965748307],["chargé",-11.229653091708444],["immense",-11.23004879677611],["wijzen",-11.230315237900104],["duro",-11.230321623782753],["alerte",-11.23040762808304],["formal",-11.230604825777899],["Djoko",-11.230746374690797],["bu",-11.231134325640552],["telling",-11.231348300173508],["dark",-11.231722485567643],["BA",-11.231931263567088],["ington",-11.232087957103964],["vroeger",-11.232185630053632],["construir",-11.232189518938437],["ondank",-11.232246951447774],["resolver",-11.233044967591393],["responsibl",-11.2330736118125],["carburant",-11.2332021292416],["réalisateur",-11.233253740802205],["directrice",-11.233285078807862],["Isabel",-11.233446762976838],["snap",-11.23348479160392],["Eerder",-11.233562802878769],["firme",-11.233616313411051],["pleno",-11.233792643434445],["Power",-11.23380160419196],["voulu",-11.233853717432412],["Georgia",-11.234188202986154],["clasifica",-11.234287191470989],["approximate",-11.23441048721913],["delay",-11.23480046176828],["weapon",-11.23492056531624],["hou",-11.235302339222603],["maak",-11.235356256058537],["Beach",-11.235516172634597],["asielzoekers",-11.235754315833589],["entière",-11.235865082784771],["eeuw",-11.236098281258933],["intendo",-11.2361226950903],["ouvrir",-11.236348184816562],["straf",-11.236492487732217],["patiënten",-11.236552472851827],["revis",-11.236740290234309],["smart",-11.237071860887587],["lie",-11.237141110875196],["Allema",-11.237143558880948],["Har",-11.237543287364701],["fuente",-11.237909781653741],["yards",-11.238387244054124],["koop",-11.2384467370653],["gebeurde",-11.238746522202614],["odido",-11.238837565912917],["strict",-11.239063682005959],["snelheid",-11.239220721615862],["Pat",-11.23927880048046],["provoc",-11.239724253866907],["potencial",-11.239741124923508],["demasiado",-11.239811383710881],["Vlaanderen",-11.239816259810725],["efficace",-11.239847288276486],["prevé",-11.239965632168683],["Year",-11.239993840740773],["Joseph",-11.240000088695863],["Naast",-11.240004564686902],["Claude",-11.240198972652752],["flood",-11.24024360331031],["mené",-11.240513688868996],["apps",-11.240643807684123],["rueda",-11.24066340177836],["verklaring",-11.240718762494225],["financiero",-11.241103809701038],["merken",-11.241151232248363],["omzet",-11.241827932050105],["regione",-11.242143366189378],["menu",-11.242638866775653],["circula",-11.24270871879207],["bewoners",-11.242727729507145],["angst",-11.242801617251658],["Institute",-11.242942341508233],["déficit",-11.242964325752865],["histórica",-11.242996957303317],["exercise",-11.243406107317792],["eigenaar",-11.243692375065308],["Hé",-11.243941629941535],["trouwens",-11.244287458476663],["package",-11.244311620335196],["rug",-11.244400092770466],["pluie",-11.244417696427261],["experiment",-11.244820617856107],["wapens",-11.244935025086448],["2003",-11.245125584344024],["pus",-11.24539073071051],["cielo",-11.245772295893973],["Plaz",-11.245864434076951],["ï",-11.245937221463137],["youth",-11.245943070932011],["souhait",-11.24596548693685],["spectateur",-11.246433979547096],["kritiek",-11.246455852533275],["Right",-11.246462184144875],["Vorig",-11.246476856439482],["window",-11.246529866423009],["producteur",-11.246838544930476],["vrije",-11.247186782226022],["realizada",-11.24722229128278],["previo",-11.247830627720193],["steps",-11.247978569356398],["meant",-11.24826146782258],["werknemers",-11.248411643814116],["locate",-11.248594504817648],["Álvar",-11.248597427461954],["inmediato",-11.248615538469455],["agres",-11.248629118112339],["groeien",-11.248971867692743],["disparo",-11.249379630616387],["protocol",-11.249530374114222],["tip",-11.250144965619377],["proteger",-11.250524724257982],["sprak",-11.250539703758548],["Vegas",-11.25059076597838],["kijk",-11.250608618192036],["!\"",-11.250659126702885],["Research",-11.250808205197442],["recognize",-11.250822108906746],["Law",-11.250985745805487],["Ou",-11.251022239815754],["majeur",-11.251195799375406],["constat",-11.25136966987985],["apparent",-11.251410801919478],["autor",-11.251492995091459],["usine",-11.251694453004134],["liefde",-11.251763486574497],["equit",-11.252307702333148],["basketball",-11.252517177985197],["verkocht",-11.252588095644516],["bloed",-11.252873643097846],["consommateur",-11.253102788268134],["Défen",-11.253108661011893],["actuación",-11.253205166536969],["convirtió",-11.253214975550577],["wereldwijd",-11.253292359216717],["Oranje",-11.253307509651574],["relève",-11.253412440851484],["poging",-11.253824033526595],["absoluta",-11.254101979467627],["cancha",-11.25410722986354],["draagt",-11.25415516331299],["sportif",-11.254285756754264],["Brita",-11.254727638073064],["gewond",-11.254760793952965],["solicitar",-11.254960127607697],["duurder",-11.255077185729682],["Vice",-11.255627191671238],["fallo",-11.255960486343126],["argue",-11.25687615535153],["comparti",-11.25702967716814],["comfortabl",-11.257523383697947],["brandweer",-11.257567759911566],["blee",-11.257607867017548],["catch",-11.257932571641174],["Your",-11.257964580568768],["Bal",-11.258601674198296],["GP",-11.258676592513945],["controle",-11.258694431398865],["Laura",-11.258751166597627],["tenter",-11.258878139276195],["gate",-11.259638932056866],["professor",-11.259830238840092],["commissie",-11.259841076266937],["consulta",-11.259878910472839],["dozen",-11.259936588645015],["atelier",-11.259939489317478],["percentage",-11.260127345697555],["bough",-11.260262611527253],["bewust",-11.260482062412848],["sale",-11.26069564158818],["Communit",-11.260716279981438],["positief",-11.260841333836726],["Good",-11.260922462313527],["filed",-11.260973012545135],["expresse",-11.2616844112558],["decía",-11.261790009449431],["leek",-11.261986716620257],["hoogste",-11.262185008054244],["carbon",-11.26283550408117],["PSV",-11.263316619902675],["segui",-11.263429480395995],["Paz",-11.263627819530175],["tuck",-11.263699137442103],["Aug",-11.263705377896446],["naissance",-11.264380420381016],["Market",-11.264669343514104],["Rosa",-11.264736665381353],["boost",-11.264998613282058],["africain",-11.265123493323056],["partners",-11.265974425255513],["Mat",-11.2660659931256],["tenté",-11.266095467889931],["produj",-11.266106243725158],["kwijt",-11.266377935426645],["petróleo",-11.266568725689396],["Fuerza",-11.266569209510342],["Turismo",-11.266591560794584],["attaquant",-11.266611633963112],["Denis",-11.266632290856693],["tekst",-11.266638865796706],["bajar",-11.266786822376712],["collectif",-11.266790554485816],["Young",-11.266798767845009],["separate",-11.266805144464836],["Morgan",-11.266872612916059],["vélo",-11.266906429745081],["existence",-11.266911176600267],["agricole",-11.267069837906629],["précis",-11.267153786392843],["vrijheid",-11.267296377629537],["slot",-11.267308592702513],["Vooral",-11.267396303985102],["dirigido",-11.267451122582754],["piso",-11.267452095500474],["priorité",-11.267645544554886],["sang",-11.267794548749102],["refusé",-11.268073931680414],["reserva",-11.268176244445208],["innovation",-11.26830564430433],["steden",-11.268519322269244],["mensual",-11.26853828174243],["sier",-11.2685855357783],["USA",-11.268647522421904],["concreto",-11.268777078535155],["krant",-11.269080250617971],["Chi",-11.269356509253612],["abandon",-11.269383066628478],["probeer",-11.269981869418263],["197",-11.2699982399157],["consciente",-11.270013776055848],["collecte",-11.270242122506373],["bra",-11.270335441235865],["advirti",-11.270811490193559],["visage",-11.271296474313212],["Iedereen",-11.271430375393464],["menée",-11.271932248922433],["severe",-11.272135608073857],["trouble",-11.272334224743219],["quitté",-11.272491341542885],["priorit",-11.272608914597697],["residente",-11.272754737382064],["vertelde",-11.273038426407144],["Maria",-11.273041334872945],["changé",-11.273359750454398],["Anthony",-11.2733714656732],["feliz",-11.273372176327456],["Mohamed",-11.27338452483237],["burg",-11.273397755501353],["gelukkig",-11.273573401645969],["Christophe",-11.27360132415913],["développer",-11.274131308856234],["papa",-11.274195334831363],["Earl",-11.274566234217419],["cuya",-11.27470472963074],["ramp",-11.274818867747268],["inch",-11.274826561129583],["overwinning",-11.275064668354577],["Ro",-11.275338865674676],["contagios",-11.275708846352794],["OTA",-11.27587677678183],["cycle",-11.276588483568965],["Sub",-11.276793606990223],["maker",-11.276963954041737],["bier",-11.276979417345888],["fijn",-11.277424977737699],["viendo",-11.277526571665131],["consecuencias",-11.277787711314934],["extende",-11.27779711058534],["AI",-11.27846003063857],["retail",-11.278463424099677],["anglais",-11.27889467102281],["continua",-11.278992366499457],["Alexandr",-11.279990349370237],["Bureau",-11.280019564413035],["Hope",-11.280048832199997],["merk",-11.280157101931014],["Gustav",-11.280221322450078],["complejo",-11.280227239608747],["testigo",-11.280228286208567],["beautiful",-11.280245957233987],["journey",-11.280253020160705],["coureur",-11.280363427964891],["défenseur",-11.280446870684559],["remote",-11.280541249861024],["negen",-11.280615574007761],["humanitaire",-11.280740607353493],["interne",-11.280928092239083],["(…)",-11.281063144774905],["asegurado",-11.281284738663247],["Lago",-11.281657122459551],["urged",-11.281962607659231],["terrible",-11.282244587321028],["souten",-11.282417560523466],["berichten",-11.282449425243072],["manifestant",-11.282550287129817],["Nick",-11.28270640225659],["llama",-11.28282187391645],["empate",-11.28304328969094],["VA",-11.283337879077168],["Petro",-11.283911478352078],["viajar",-11.284729094830634],["fly",-11.284787093269486],["marc",-11.28520296283266],["ocurre",-11.28562067843389],["lancée",-11.285743009823188],["waarde",-11.286429727047732],["ble",-11.286577224133485],["vierde",-11.286582505329315],["Oct",-11.286599449865285],["choose",-11.287009973927475],["collègue",-11.287117394534395],["ambulance",-11.287118512500175],["allegation",-11.287120509765229],["expectativa",-11.287122353528634],["kwestie",-11.287135407537775],["Church",-11.287251416993659],["boete",-11.28725883985453],["inspire",-11.287335703798856],["dangerous",-11.287460576373867],["comportement",-11.287481911890588],["hout",-11.287614506021573],["typical",-11.287629806815257],["sche",-11.287631546152102],["esperaba",-11.287698388232744],["goals",-11.287804719133263],["fixe",-11.287875038612244],["clé",-11.288336126834597],["traffic",-11.288420355085709],["parecer",-11.288512430875702],["ropa",-11.28863921216189],["offers",-11.28874572673648],["optie",-11.288917487205016],["skills",-11.289222117949013],["Under",-11.289368291791838],["fais",-11.289602097749885],["receiv",-11.289779717325391],["PM",-11.290414947625823],["wonder",-11.290430071926721],["jardin",-11.290471052533745],["netwerk",-11.290972421724005],["offert",-11.291510173420129],["partage",-11.292006872706093],["choc",-11.292273144066499],
[...]
