{"version":"1.0","truncation":null,"padding":null,"added_tokens":[{"id":0,"special":true,"content":"<UNK>","single_word":false,"lstrip":false,"rstrip":false,"normalized":false},{"id":1,"special":true,"content":"<SEP>","single_word":false,"lstrip":false,"rstrip":false,"normalized":false},{"id":2,"special":true,"content":"<MASK>","single_word":false,"lstrip":false,"rstrip":false,"normalized":false},{"id":3,"special":true,"content":"<CLS>","single_word":false,"lstrip":false,"rstrip":false,"normalized":false}],"normalizer":null,"pre_tokenizer":{"type":"Whitespace"},"post_processor":null,"decoder":null,"model":{"type":"Unigram","unk_id":0,"vocab":[["<UNK>",0.0],["<SEP>",0.0],["<MASK>",0.0],["<CLS>",0.0],["s",-2.668417517962755],["e",-3.162353422695052],["a",-3.450852204395817],["de",-3.517580789090662],["t",-3.6473513621780533],[".",-3.6958368073107675],[",",-3.7349190904432845],["en",-3.9663267513920086],["d",-4.011072109660287],["n",-4.40791446387534],["la",-4.410723421110937],["i",-4.5468998102777345],["l",-4.588878479279403],["o",-4.620953426982156],["in",-4.695293009669465],["y",-4.7400739553765465],["r",-4.748221005552267],["u",-4.860501167591519],["’",-4.920427967798817],["the",-4.959744019811103],["que",-4.982682181321817],["er",-4.990701030061716],["el",-5.057240481724444],["to",-5.092852104356359],["é",-5.16385747315784],["le",-5.1648846185949004],["is",-5.318525977563935],["on",-5.333891067391651],["un",-5.337302319565888],["c",-5.345820734505507],["re",-5.3775303099031895],["p",-5.385582630082524],["al",-5.403774875431907],["-",-5.465077743339206],["ing",-5.571373828560862],["of",-5.57982898689599],["and",-5.587554108170057],["m",-5.61409879833468],["f",-5.675156585978337],["'",-5.697802360110103],["k",-5.796129383623569],["A",-5.8540752644086815],["à",-5.87811644489264],["van",-5.887032867753852],["con",-5.8950753585009],["les",-5.909239170329009],["be",-5.948874796353447],["g",-5.951886642807905],["it",-6.027456704751918],["ar",-6.072371543711727],["het",-6.074092304431813],["est",-6.093293320502296],["los",-6.102500332166748],["op",-6.11710212874627],["an",-6.125708264746166],["S",-6.128793441207499],["\"",-6.1467332885813875],["du",-6.147884725942085],["C",-6.158438544970624],["lo",-6.1850597040898165],["ó",-6.185962507279072],["no",-6.189198749217731],["“",-6.232570716316337],["il",-6.2412844283350495],["ce",-6.245163340950926],["een",-6.295593257104722],["I",-6.298884385181767],["ge",-6.310477665220718],["b",-6.32922235214604],["ver",-6.344071191724865],["z",-6.351682293514223],["or",-6.357543966767164],["por",-6.395189394762481],["h",-6.399288205152773],["for",-6.411932059735701],["dat",-6.453409782178527],["del",-6.464214752840906],["T",-6.489207533774069],["qui",-6.494869112510031],["P",-6.497229100784137],["(",-6.519830818894974],["je",-6.519887911606123],["E",-6.525947598070369],["om",-6.542837580732755],["La",-6.548993716279973],["De",-6.559854370292925],["au",-6.564389152718986],["L",-6.565575985415061],["para",-6.580238452737124],["that",-6.5975105473073565],["ly",-6.618635121824337],["pour",-6.62064412961254],[":",-6.626972977747805],["par",-6.642162038958396],["M",-6.644273540801617],["ment",-6.648448400600776],["ado",-6.664143797811523],["une",-6.7142018315979115],["voor",-6.727698429028701],["F",-6.73959669251386],["me",-6.744419730108314],["una",-6.747126217737014],["The",-6.74812909313906],["B",-6.751357349497196],["was",-6.759299024599267],["sur",-6.768607893875052],["met",-6.773008852567251],["die",-6.775134127751539],["v",-6.782919924407068],["ha",-6.7934022677366634],["D",-6.801933027928477],["G",-6.8410862588427594],["ent",-6.866954146199099],["pas",-6.8753596681440925],["with",-6.885835656188517],["co",-6.887721374966963],["dans",-6.890369926701313],["N",-6.894905707312876],["ción",-6.897909364969715],["we",-6.908409799908185],["he",-6.921423664093792],["w",-6.92347041721259],["«",-6.9249124724118225],["ma",-6.933466231875936],["ch",-6.933765588783547],["En",-6.941325150545795],["las",-6.960928920595418],["ou",-6.9792168820853995],["va",-6.988891924371789],["zijn",-6.989108008700738],["qu",-6.993898498070051],["niet",-6.996288152087466],["ir",-7.001017781438987],["tion",-7.017465312116375],["El",-7.023841043386659],["ze",-7.024777803266151],["Le",-7.025135215616629],[")",-7.043004180037647],["aan",-7.045549105509192],["ci",-7.062695633256732],["K",-7.07446637359253],["ation",-7.07523471056008],["1",-7.078155899151405],["ant",-7.083785441973562],["over",-7.0909202474647905],["O",-7.092081104887111],["uit",-7.109896608421844],["mi",-7.123899437303724],["ur",-7.125503643226464],["ont",-7.132622221285727],["per",-7.152363172320085],["R",-7.1730300722225095],["pro",-7.192070864694877],["son",-7.214298632218711],["más",-7.224293834128355],["man",-7.235283484205276],["V",-7.242674827077703],["ex",-7.257020711735283],["mo",-7.259253962040061],["ter",-7.260315116764886],["?",-7.261369231087032],["2",-7.27340034003295],["ré",-7.276892979093223],["ook",-7.279318952191559],["vo",-7.281900436248327],["In",-7.285989922047799],["have",-7.2937462060792],["ve",-7.322967485683616],["tra",-7.335072946932728],["j",-7.336143859528532],["H",-7.338130737319325],["not",-7.3402531800747415],["ik",-7.346475502783239],["said",-7.347832298763629],["20",-7.353166180255691],["5",-7.355055072137176],["19",-7.356544256827988],["vi",-7.358340371741187],["plus",-7.372060573420837],["out",-7.375872549474732],["pa",-7.391361364689585],["go",-7.396245609844062],["her",-7.39793388617599],["by",-7.4016617048763145],["are",-7.40255236581746],["zo",-7.403947146494922],["aux",-7.421009346832465],["bij",-7.425470144473319],["up",-7.433377034527485],["if",-7.4385119129775585],["ca",-7.454712632504796],["como",-7.46449209572507],["all",-7.4716292496821275],["from",-7.478536180330472],["7",-7.482130387791523],["U",-7.484828192319124],["com",-7.490903286466313],["has",-7.497062597946918],["gen",-7.500669752382736],["6",-7.5017544945525465],["3",-7.50397017996627],["ación",-7.50482701740426],["can",-7.505663301410381],["ba",-7.508073147299431],["th",-7.510807888222736],["8",-7.516280964006453],["will",-7.519141005382245],["dan",-7.5235054163523625],["”",-7.527672762734852],["W",-7.528993000277678],["car",-7.535129443290671],["été",-7.539007797461956],["avec",-7.545499347981702],["í",-7.548339411947737],["ement",-7.560169257484544],["maar",-7.569059903377257],["4",-7.571110764590863],["ga",-7.603284655676722],["dos",-7.611891505489428],["%",-7.618337673514958],["entre",-7.623533062452042],["pre",-7.6332724004237615],["had",-7.634558289984675],["po",-7.649946615620072],["sus",-7.654755464729622],["ido",-7.65496005593112],["ig",-7.6568496100198224],["his",-7.667134312226651],["able",-7.670038174960753],["bo",-7.678452378795058],["á",-7.680512083063983],["x",-7.688179058401333],["this",-7.6972168581919185],["este",-7.698814678682824],["door",-7.703012571402677],["9",-7.707134609299578],["che",-7.707354132556347],["mar",-7.715258839508426],["ag",-7.729769801517772],["‘",-7.7407262700960064],["nog",-7.742011211873221],["ic",-7.7454528770762945],["Het",-7.745884658317664],["dit",-7.746088562760271],["but",-7.759226907792099],["elle",-7.75972841021391],["you",-7.768508731520344],["Re",-7.773464130012496],[".”",-7.7842530177960825],["hi",-7.792744438762517],["our",-7.797139232370224],["”,",-7.797248972192625],["wel",-7.816359751583004],["No",-7.831803163421448],["waar",-7.840568332918064],["esta",-7.844855913672761],["J",-7.852727466668021],["naar",-7.855457122193444],["who",-7.8571260019388],["one",-7.857515506132799],["mente",-7.860375506407829],["their",-7.861792335394082],["Il",-7.870289310192511],["»",-7.870507446034775],["ven",-7.87287539749865],["ho",-7.874247236088969],["Al",-7.876859972182363],["land",-7.890512244420076],["We",-7.89956037980585],["000",-7.900500598593094],["cha",-7.9015205677002935],["age",-7.901719280088836],["Ma",-7.9020090022517095],["han",-7.910977371646156],["aire",-7.926390065317728],["»,",-7.9269840076805345],["ando",-7.942408493409889],["kan",-7.944961695001277],["ron",-7.945497225287024],["heeft",-7.951530898387629],["0",-7.955441834483281],["app",-7.959715371044394],["time",-7.961979197288654],["men",-7.962506966934974],["10",-7.97006804967644],["fait",-7.970255894988753],["inter",-7.973350489891498],["ja",-7.97594052369606],["tur",-7.978080092223319],["ive",-7.982712591488582],["tie",-7.983234860044927],["Ro",-7.990044223068413],["He",-7.990088950414776],["mos",-7.99675127727407],["ken",-7.998178092049736],["tro",-8.002446667353377],["fue",-8.005901342964469],["fin",-8.009940387406328],["ité",-8.010226160650893],["hij",-8.0129976617132],["cre",-8.015036606538695],["sont",-8.016966994943264],["mon",-8.02080005289268],["ju",-8.02333926171307],["even",-8.028105384149894],["ces",-8.049614531285451],["Les",-8.050222665503421],["they",-8.050793876239041],["On",-8.051930988510538],["leur",-8.061099024828177],["cette",-8.069764637050627],["Un",-8.071203013077431],["more",-8.074525935867621],["ante",-8.081800222260336],["gra",-8.084237426192061],["were",-8.08707600595328],["onder",-8.087303171525802],["meer",-8.087996392995247],["ico",-8.095327639051874],["puis",-8.09650743294031],["jaar",-8.099416112074016],["ía",-8.10157472715375],["mais",-8.105577958925064],["Con",-8.1066309167375],[",”",-8.106870466321666],[").",-8.107985492266117],["idad",-8.110449918285601],["étai",-8.112600569583226],["bi",-8.11575657071939],["ance",-8.117643571760336],["moet",-8.119406947854214],["Y",-8.121747932311889],["vol",-8.124807237160876],["bien",-8.12545535259663],["part",-8.125556560333925],["Se",-8.131826402627604],["been",-8.13597380201777],["Je",-8.136061548217313],["ncia",-8.13653236640702],["ies",-8.137611142646668],["ck",-8.144021034752571],["lie",-8.144394606960294],["hebben",-8.144697047580772],["cho",-8.157539473551958],["als",-8.16452050489784],["about",-8.165297689706568],["ger",-8.172627440217266],["wi",-8.173803150973734],["also",-8.174195928468036],["people",-8.179016899354496],["min",-8.18007800849343],["pero",-8.18095362448066],["new",-8.188010621200213],["años",-8.189537736851957],["mer",-8.190325625705775],["word",-8.194452995516484],["other",-8.20302621547053],["worden",-8.210697076706516],["lui",-8.211238450661023],["plan",-8.218224525228445],["just",-8.223570426906724],["$",-8.226169074222275],["\",",-8.227693686454042],["It",-8.231437146674793],["daar",-8.233251009274902],["tout",-8.236986831498532],["aron",-8.240005720135935],["contra",-8.242108246966152],["”.",-8.24871959753576],["être",-8.250497279686014],["día",-8.254715066007835],["uur",-8.258102094958202],["zich",-8.259538119785894],["cul",-8.259850977831816],["ciones",-8.264461924181036],["tri",-8.268213229915604],["ión",-8.269448147318776],["Ha",-8.269786746359582],["nous",-8.27045665339398],["long",-8.271384902619195],["wat",-8.272445736183608],["Mo",-8.27451194975238],["which",-8.277714610452033],["/",-8.279988160417654],["30",-8.281035854902202],["ón",-8.282174609660933],["like",-8.285718080769003],["za",-8.291242404999297],["eux",-8.29126253901198],["auto",-8.299185551893535],["Si",-8.303579071986373],["tre",-8.305063189303143],["también",-8.305764099123675],["está",-8.30708554405027],["…",-8.307107590852322],["public",-8.31342021205719],["án",-8.31343949332668],["place",-8.31639010363256],["To",-8.31960026101949],["),",-8.322311923006733],["tiene",-8.323274158594739],["Na",-8.325302155586982],["imp",-8.328302637726747],["would",-8.33122185077789],["sobre",-8.333499208237624],["Dat",-8.33597779368327],["–",-8.338218847508424],["bar",-8.343404065257054],["year",-8.346432193538883],["rá",-8.34795163519594],["bu",-8.35080216668798],["ko",-8.354982643062344],["deux",-8.35674705505738],["eur",-8.359080144767953],["ij",-8.360344048370223],["mis",-8.361406943927339],["comme",-8.363564108573952],["acht",-8.372676329327062],["week",-8.375137817188104],["Bo",-8.376128718211655],["val",-8.382780727156938],["zelf",-8.383344339439597],["Ho",-8.384848040636806],["bre",-8.388514158647428],["2022",-8.391773547104941],["Ik",-8.393699022038922],["gan",-8.394322305290473],["nos",-8.398429211682426],["hor",-8.400386561065456],["lijk",-8.40075026936952],["!",-8.401201073703279],["fi",-8.403292946512439],["Ba",-8.403409625439055],["même",-8.403506405152493],["Di",-8.406372695489893],["autre",-8.408948980708933],["pu",-8.41222752917506],["iste",-8.41328867982926],["lang",-8.416673418051651],["sión",-8.416687275231576],["play",-8.418618461175896],["after",-8.419287186528226],["act",-8.420270261896071],["she",-8.421655279739403],["Los",-8.422087119561867],["avait",-8.422734180225593],["ría",-8.424119387994335],["ban",-8.427065528540187],["Me",-8.429395601929306],["use",-8.430115949744465],["ans",-8.431048512762786],["veel",-8.433000553047897],["ées",-8.433945288058451],["cent",-8.434999821996374],["pré",-8.435128812751994],["ix",-8.440785644622188],["Por",-8.441086009371402],["vent",-8.444652795323254],["than",-8.445822501417377],["day",-8.45064697444784],[";",-8.450732199431233],["cas",-8.452436024536011],["12",-8.461408728535883],["tegen",-8.462173876188537],["point",-8.463409125678446],["pri",-8.463676178162892],["puede",-8.464331142331854],["aussi",-8.46655438292927],["ici",-8.46746193803966],["Mi",-8.468750043536264],["So",-8.469328881768845],["Z",-8.474279600962175],["when",-8.474430717466358],["goed",-8.475226503607976],["some",-8.476558013767843],["temp",-8.477075799924169],["vous",-8.47914613615101],["Be",-8.486388435179947],["chi",-8.486634347511814],["faire",-8.487621833069811],["rec",-8.489674761967121],["ier",-8.489773396442917],["tien",-8.491484721986119],["ient",-8.493711863501662],["año",-8.495613557756954],["leg",-8.496591391016162],["werd",-8.498335870824253],["vis",-8.503598889571188],["ió",-8.503953385599107],["Lo",-8.504304885472383],["Ar",-8.504450099001577],["ait",-8.504951394151009],["gar",-8.505307804037777],["todo",-8.506852296235657],["—",-8.507952843052681],["hay",-8.508146898954042],["avoir",-8.511522633259533],["té",-8.514682117898744],["Au",-8.51586598974481],["cause",-8.517218333864802],["my",-8.52005250164148],["pen",-8.522351933625444],["komen",-8.523357671344188],["kunnen",-8.527804197539655],["back",-8.530944699008243],["mil",-8.530981814323939],["15",-8.53573161331794],["vers",-8.536458123142058],["gaan",-8.53798481872385],["Co",-8.541936439831598],["Com",-8.542748729190812],["zou",-8.54607148677819],["twee",-8.547505368257085],["adas",-8.552024904542733],["sol",-8.55432635505624],["what",-8.55519334085297],["parte",-8.557602843143254],["ker",-8.560134595513668],["fic",-8.560996710531423],["2020",-8.561313076482095],["17",-8.563141584263825],["hun",-8.564290469980733],["16",-8.567537290505932],["ux",-8.572258980271197],["geen",-8.574371716464118],["want",-8.575785686835285],["muy",-8.576062820262788],["après",-8.578231444965045],["dic",-8.582762510282908],["».",-8.586255316063164],["fu",-8.58759629281026],["50",-8.589438022029526],["wa",-8.593167998552385],["ú",-8.59416061618863],["off",-8.594410944844432],["now",-8.594599818242408],["X",-8.594833297763238],["ki",-8.597280670681203],["país",-8.597429102348075],["weer",-8.601113552312125],["Vi",-8.605784442824842],["there",-8.605914230716149],["forma",-8.606419343740969],["antes",-8.607566735500345],["mensen",-8.608235976601522],["inten",-8.608444448497998],["wij",-8.60871617297518],["dig",-8.609275715583214],["Maar",-8.610647324441228],["work",-8.611325502985007],["jour",-8.615985943078474],["tant",-8.6169770739215],["weg",-8.618999736786051],["own",-8.621891373718885],["année",-8.622707352393444],["gaat",-8.623664922904043],["bra",-8.623761354749266],["Su",-8.626439620822996],["11",-8.627796079579989],["ble",-8.62986861129907],["thing",-8.632372718266186],["ity",-8.635036104134706],["art",-8.636033063087782],["dio",-8.637902277806548],["col",-8.640728819164911],["Ja",-8.642272605492238],["state",-8.644148506293277],["tar",-8.647335720155327],["è",-8.647667830788073],["spec",-8.649053600866248],["hasta",-8.649087284347026],["any",-8.649190192564525],["rès",-8.64989272673925],["Jo",-8.650037690162073],["aciones",-8.651021693246227],["how",-8.652765478144111],["mal",-8.653772355123134],["ran",-8.654330714265917],["get",-8.654356236986494],["lors",-8.659951175265572],["first",-8.66127979742581],["them",-8.661456126170762],["heid",-8.66190773529378],["Mar",-8.66218251241224],["ndo",-8.66268273340668],["For",-8.663427509023062],["ally",-8.666388216774916],["tic",-8.66690298085313],["Par",-8.667900705602959],["ard",-8.669013252844014],["ated",-8.669537008061157],["him",-8.670385654412343],["local",-8.671530134050855],["18",-8.672022394910249],["ster",-8.672315133870509],["two",-8.673233071037385],["way",-8.676634175969735],["Ra",-8.677711643027845],["iendo",-8.678044108550889],["amp",-8.679522243578996],["fois",-8.68191964193466],["ros",-8.682616844138053],["emp",-8.684507002651774],["tijd",-8.686323822539698],["ario",-8.687321679474776],["best",-8.68925107029876],["cal",-8.689380411649193],["ida",-8.689952630577064],["2021",-8.69387893507483],["cur",-8.69470225474973],["sum",-8.695928604515075],["total",-8.700875023541109],["old",-8.702012818971554],["million",-8.702745980708885],["ging",-8.705106984849547],["aria",-8.705301107109314],["25",-8.706056105370362],["200",-8.707156282336474],["éri",-8.70809406631654],["cap",-8.70856708023377],["reg",-8.70927036398145],["rie",-8.711333866530465],["qué",-8.713069198911272],["vez",-8.717824138617157],["déc",-8.718085836858577],["line",-8.71920906488835],["vel",-8.721740562697306],["13",-8.724114851485638],["change",-8.72453662856945],["desde",-8.724823224502718],["24",-8.727960575027979],["moment",-8.728499078197366],["termin",-8.734834587543716],["log",-8.736725663884107],["coup",-8.737093464277098],["don",-8.741985905385114],["gre",-8.742162305408698],["gue",-8.742209791141441],["Du",-8.742693946407304],["oit",-8.744193751144334],["personas",-8.746358199238394],["Car",-8.746700627508602],["Gu",-8.747908648953995],["post",-8.749338897869904],["cuando",-8.751532006905707],["form",-8.75223261466905],["echt",-8.752557614621203],["ang",-8.75549294404334],["inform",-8.755909061154892],["St",-8.756123618815563],["final",-8.75733301424203],["could",-8.758002910583588],["make",-8.760929953123023],["wil",-8.761803920383636],["mee",-8.762465259768666],["Sa",-8.76273203220875],["come",-8.763450783142517],["pan",-8.765685789595084],["lot",-8.766978911796631],["mejor",-8.76869833375714],["peu",-8.770727992347389],["hand",-8.77087530425829],["contre",-8.772152243705953],["deze",-8.772978187331596],["durant",-8.774758183864279],["amos",-8.77498146368658],["rio",-8.775575300372147],["put",-8.776178781915304],["tour",-8.77647352583293],["viv",-8.777125864108488],["face",-8.778179792993825],["And",-8.778956731042733],["recht",-8.77946550758693],["donde",-8.780860810333035],["your",-8.781962888515952],["help",-8.784016039843696],["mes",-8.78896487669697],["14",-8.789299989815433],["él",-8.791713934503612],["ará",-8.794658198619715],["start",-8.794832533532517],["Go",-8.796435908090746],["pays",-8.80041464793428],["ring",-8.801244709539024],["Po",-8.801421050405311],["caso",-8.80155995213724],["aba",-8.80227514530107],["Ju",-8.802873126273873],["ores",-8.808037885957011],["jou",-8.80819248561895],["home",-8.80882340316953],["Pro",-8.808901976868132],["social",-8.809531385261687],["low",-8.809886785351164],["This",-8.810336798132436],["show",-8.810465595510761],["media",-8.8113034248229],["premier",-8.812390419103187],["But",-8.816161782504079],["red",-8.816808044907154],["Pour",-8.81863642334542],["cor",-8.819895907951054],["take",-8.824052822832607],["haar",-8.824640770617773],["fil",-8.825012494612249],["San",-8.827293545985189],["front",-8.8323784380248],["amente",-8.832394780163767],["gui",-8.832799833944737],["trans",-8.835798358800574],["test",-8.836628656008859],["Ka",-8.836640767761892],["direct",-8.837272849957344],["cro",-8.837473438051951],["ère",-8.83789950377765],["most",-8.83951859991944],["heb",-8.840304093369719],["Op",-8.841063792031013],["tig",-8.842827701869343],["gas",-8.843366173329732],["film",-8.844739496679063],["kom",-8.846189364435784],["sign",-8.847095937321225],["ista",-8.847656217092323],["via",-8.85007708021249],["present",-8.850165042031971],["team",-8.850594013909136],["fer",-8.850702778523583],["air",-8.850799165396825],["certain",-8.85093170517887],["toda",-8.853140622426626],["pens",-8.853824410381083],["vie",-8.854677700984029],["dijo",-8.856152316320358],["last",-8.8562148218134],["Mais",-8.857046595532951],["tivo",-8.85766216494737],["mor",-8.858404673584356],["tres",-8.858603660988127],["COVID",-8.860817298577997],["egún",-8.86129322474404],["Qu",-8.86151255800403],["volgen",-8.862755196052442],["New",-8.86351708997734],["sch",-8.863596371366363],["00",-8.863684762620329],["alle",-8.865215466501038],["rac",-8.865715974112472],["win",-8.868381620158015],["down",-8.868826929332275],["personne",-8.870791339239341],["tan",-8.87461538664305],["rij",-8.875689191981419],["Er",-8.876894928597583],["mag",-8.881259580863631],["hacer",-8.882712019648132],["près",-8.884393279953118],["staat",-8.889128751675543],["ible",-8.88985103792318],["hier",-8.890054045527037],["into",-8.891724890925317],["bon",-8.892025485149519],["need",-8.893188680871617],["Van",-8.895159370531454],["andere",-8.89623594521002],["bat",-8.898104601188221],["peut",-8.900385477820986],["Ze",-8.901904042513326],["Cu",-8.90572312432407],["action",-8.905769002312134],["cada",-8.91079871912174],["report",-8.914430402450844],["porque",-8.914822533626609],["eurs",-8.918597800013583],["ôt",-8.919517262537926],["gran",-8.919607452313105],["Ga",-8.921544958811232],["ick",-8.921778584943757],["vida",-8.922917512794129],["porte",-8.92420818460528],["werk",-8.925340468448583],["produc",-8.925904316693503],["uff",-8.926825979844995],["moin",-8.929497605728109],["cri",-8.929533523271303],["through",-8.932078166654211],["ric",-8.933025535558034],["sub",-8.934480911988404],["lig",-8.934619103314338],["Ver",-8.935821046189588],["ves",-8.936069783260503],["king",-8.938088710345859],["ette",-8.939250281159214],["visit",-8.939569303526486],["avant",-8.941359993148597],["rán",-8.9432343131317],["ben",-8.943359929455909],["Trump",-8.944875777514023],["dernier",-8.946877827214035],["Een",-8.948608571142316],["position",-8.94980407456842],["game",-8.950494268248853],["momento",-8.951624213380459],["encor",-8.951637317987657],["ière",-8.952239461704774],["tiempo",-8.952839214067462],["¿",-8.953330207856165],["high",-8.954198049151183],["where",-8.954408321368012],["real",-8.955133264840427],["Ri",-8.955431923135947],["club",-8.95684654241429],["base",-8.957084097725264],["hace",-8.958520029539212],["police",-8.962715780174651],["Do",-8.963187675009976],["dag",-8.964860154507118],["doen",-8.968730641725475],["well",-8.970835665465962],["soci",-8.971392687509878],["miento",-8.972333061683624],["during",-8.973057022335922],["ña",-8.973263550553423],["gro",-8.974026692472133],["había",-8.97914702873688],["â",-8.981502598369676],["Zo",-8.982016208911439],["ù",-8.98376623646427],["being",-8.984154943258833],["sera",-8.984338039570419],["nombre",-8.989890338749872],["elijk",-8.989983116868514],["toute",-8.990303225243784],["Hu",-8.990794309013292],["galement",-8.990849930626752],["ige",-8.993030137825277],["solo",-8.995124197456601],["stand",-8.997292136267902],["coronavirus",-8.999378846360642],["40",-9.001421679935046],["under",-9.002526819236085],["millones",-9.003008505696574],["leurs",-9.003019234171415],["Europe",-9.005147406490948],["second",-9.007061943949035],["voir",-9.007838730755484],["cré",-9.008178955832218],["Daar",-9.009265896767955],["vind",-9.011097843986242],["grand",-9.011173751195834],["mijn",-9.012330067784635],["many",-9.013026083569361],["activ",-9.016442100745502],["krijg",-9.019485496237532],["super",-9.020041740077632],["huis",-9.020311476756094],["todos",-9.021053546606339],["atie",-9.022546097024414],["maken",-9.025914742075384],["punt",-9.027912607633994],["cat",-9.028634648551655],["fond",-9.028837402557768],["vier",-9.028971497124875],["hoe",-9.029577404622486],["may",-9.030921769563838],["every",-9.032629816730804],["ving",-9.033108753506992],["medio",-9.03401455139601],["eerd",-9.035009847579087],["président",-9.036109470397413],["zien",-9.037019241882117],["Nederland",-9.037730457986532],["están",-9.038849324626895],["ville",-9.041409069446225],["support",-9.045853418896106],["ische",-9.046865190183507],["record",-9.049674494334315],["ieron",-9.050047730075503],["toch",-9.050351020641852],["government",-9.050866682411003],["pie",-9.053754797417804],["100",-9.05523146039917],["nieuwe",-9.055894453110675],["going",-9.05882532783411],["look",-9.060204193597304],["partido",-9.06092589138461],["actual",-9.061536715443196],["Or",-9.063204404548888],["ador",-9.06342168224506],["whil",-9.063995668734439],["vu",-9.064217925508341],["right",-9.064365494124901],["mayor",-9.064871348279166],["ras",-9.066356476253226],["cuenta",-9.067593284082733],["camp",-9.068279931688858],["She",-9.068698821444755],["ijn",-9.069465243187668],["Une",-9.074971586618535],["gri",-9.077111128700249],["lugar",-9.079510420800453],["mont",-9.079932687722149],["president",-9.082448297651245],["equipo",-9.082488271719248],["school",-9.082791148048912],["embre",-9.082945190853131],["bro",-9.083237456346447],["before",-9.083276535742684],["presidente",-9.083543643785976],["cours",-9.08358444386348],["hui",-9.084401589973083],["Estado",-9.0854411192949],["thos",-9.08635473542942],["quien",-9.08635941621139],["première",-9.08732879930741],["nuevo",-9.090211389358558],["force",-9.09137647660221],["ough",-9.091832954039903],["sans",-9.092504632327415],["question",-9.092888052438592],["rat",-9.093487209726522],["21",-9.096017585901485],["hecho",-9.096451773614174],["continue",-9.096842962882285],["arse",-9.096895385392914],["ria",-9.09721132024551],["list",-9.0979613986367],["should",-9.09997369242139],["Tra",-9.100167924549186],["grote",-9.103732749449819],["heel",-9.104764336024276],["monde",-9.104782173041269],["pr",-9.104883675733934],["France",-9.105050884825161],["zal",-9.10558041443818],["know",-9.106531292983195],["mismo",-9.108236652047916],["ambi",-9.108829567715354],["extra",-9.115596254902648],["control",-9.116117952961483],["plaats",-9.116406962600584],["Die",-9.119015403973837],["ujour",-9.119601458071378],["euro",-9.120239478872586],["years",-9.126142765957667],["sector",-9.126215740661591],["erg",-9.129076554951208],["Sin",-9.129129643029808],["primera",-9.129493860939878],["result",-9.130324766215587],["still",-9.130443842423709],["semana",-9.130836910445066],["riv",-9.132437215991665],["health",-9.133537383589601],["nada",-9.133796673301713],["ça",-9.1340800961997],["war",-9.134929123747327],["lopen",-9.136197199484064],["exist",-9.137040058693835],["heure",-9.138138944178136],["22",-9.13852872163061],["rend",-9.13853495801011],["Th",-9.138821868693608],["hem",-9.13895622562324],["uego",-9.140038854670095],["tous",-9.141590221213193],["bil",-9.142557826748448],["Cor",-9.144011493487698],["side",-9.145292838203577],["anti",-9.147339645821305],["bri",-9.148797470602428],["travail",-9.152008742069235],["consider",-9.15247772103309],["ntes",-9.15334801939304],["rest",-9.153606697000125],["euros",-9.154682828043814],["bor",-9.155094591244271],["espera",-9.156489324024207],["candidat",-9.15776816644911],["mat",-9.159138832271147],["ño",-9.159981109744185],["open",-9.162224116380983],["otros",-9.164151300018933],["nouveau",-9.164559378969166],["zorg",-9.16487857825324],["Esta",-9.167005002975152],["fund",-9.167849116544321],["serie",-9.169133487990758],["empresa",-9.171295690550883],["tru",-9.17133243743626],["mois",-9.172265896644037],["rate",-9.172894138511165],["very",-9.173994986281],["importante",-9.175286424442328],["match",-9.176686287598482],["ries",-9.177981247996264],["ministre",-9.178030258323535],["así",-9.17866160154325],["tras",-9.179892299663237],["trabajo",-9.181248285047166],["Nous",-9.182141478774348],["agains",-9.183067538498321],["US",-9.18507450490382],["each",-9.188599383754672],["lim",-9.188704441197467],["especial",-9.188980289283482],["zie",-9.189960061449876],["nouvelle",-9.191005293234735],["registr",-9.19274528883114],["último",-9.194560419548866],["nieuw",-9.1957834222741],["emos",-9.195896914926392],["ï",-9.196470003490397],["después",-9.196472163189092],["zegt",-9.197120093527854],["cio",-9.197468454161653],["hard",-9.198175639615009],["droit",-9.199953053146327],["60",-9.200615021054595],["déjà",-9.200941862700308],["cut",-9.201296602405693],["demand",-9.201466337588842],["sort",-9.202552116694537],["staan",-9.203717370912411],["nueva",-9.204867456231165],["eerste",-9.207777401231645],["ciudad",-9.209777146320665],["Et",-9.211924287879187],["Bar",-9.212478578591913],["Ook",-9.213420115811099],["amiento",-9.215368699634588],["ional",-9.216854697192913],["cost",-9.216905063737627],["Als",-9.218857033259313],["señal",-9.219542913209304],["Hij",-9.21997137683014],["won",-9.220268211240734],["pasado",-9.220273443492712],["genera",-9.221536998380817],["houden",-9.221814655424513],["ateur",-9.22215811998819],["calle",-9.222315850205211],["fra",-9.222907977225937],["Ex",-9.224060885143704],["har",-9.22565927699824],["Dans",-9.225911943756035],["opera",-9.22613808683046],["quelque",-9.230201961554142],["video",-9.231369536909448],["much",-9.231410622864379],["appel",-9.232094427315573],["Man",-9.233907935543408],["abri",-9.235569324795033],["dar",-9.237329804052553],["impact",-9.239398003135962],["tir",-9.240125809272502],["main",-9.240465378719815],["kun",-9.24068171838829],["compr",-9.241610794367096],["bus",-9.242707385816509],["three",-9.242893376574651],["State",-9.243197716962257],["aten",-9.243343928245066],["gebruik",-9.244767906743938],["live",-9.245192331317215],["principal",-9.245741120665455],["Sp",-9.245777514055696],["iets",-9.248284682413676],["afge",-9.248792890354434],["arios",-9.248897612271373],["tussen",-9.249651051898713],["tell",-9.250116811873493],["think",-9.251863294500083],["iones",-9.252090949709011],["plant",-9.252860538679537],["attend",-9.25314245155668],["commun",-9.2560235852152],["trois",-9.257250916770058],["human",-9.257970504354404],["continu",-9.258578978005794],["ín",-9.259071821430558],["Wat",-9.26119486359457],["donc",-9.261781235882545],["mid",-9.261800463069228],["dont",-9.26316490805686],["familia",-9.26318245772077],["pose",-9.263786470332555],["venir",-9.263889415357163],["llega",-9.265379931001046],["suite",-9.26565283432404],["water",-9.268740149991325],["tanto",-9.270171605987056],["rond",-9.271598846842643],["pot",-9.272287366889664],["cru",-9.273177427408738],["hele",-9.273601785532492],["Ademá",-9.274121560784515],["achter",-9.276240969984482],["partie",-9.276520538197438],["virus",-9.277988897755161],["possible",-9.279527990065201],["plusieur",-9.279621454652911],["keer",-9.281662594367452],["vert",-9.283243852749816],["leven",-9.285991346895653],["ham",-9.289285263412484],["23",-9.289966736072806],["favor",-9.29070295602261],["self",-9.290776003711718],["gelijk",-9.290821693541073],["será",-9.291880913186795],["share",-9.292844853967498],["did",-9.292891506770527],["class",-9.294177369063954],["équipe",-9.294998865710518],["terug",-9.29625073800171],["Per",-9.296545003867465],["entras",-9.29730789493911],["ismo",-9.29731817382699],["sous",-9.297364895915276],["though",-9.29764220395754],["semaine",-9.29777212433753],["ië",-9.298662257374438],["bru",-9.298694819013523],["contact",-9.299239229383485],["propos",-9.300142235770398],["site",-9.300377992651196],["ward",-9.300575171865923],["begin",-9.301635660495382],["dernière",-9.301872660701946],["situation",-9.30271700846453],["ainsi",-9.304190549674189],["link",-9.305079291988207],["rol",-9.30519347448193],["labor",-9.306733364137695],["You",-9.306832955628053],["good",-9.307424359728085],["country",-9.308319689032098],["ions",-9.308776991645116],["faut",-9.310019176291119],["tener",-9.311225239323104],["table",-9.31151189449906],["primer",-9.312002547460807],["stad",-9.31233228858244],["trata",-9.312540218150671],["Elle",-9.312857519533136],["alleen",-9.312921197753571],["person",-9.3155078214111],["investiga",-9.316808081802659],["life",-9.317232131249717],["denk",-9.317957253246057],["80",-9.317963405493362],["Dr",-9.317996271080421],["Dan",-9.31800827119031],["26",-9.318139459874187],["eigen",-9.319295506569073],["beau",-9.320335556381458],["head",-9.320424250857155],["À",-9.321888032341676],["horas",-9.321930991266605],["70",-9.32340456224637],["vient",-9.324172293628957],["homme",-9.324709234360123],["ram",-9.324718571988399],["Col",-9.324792748428818],["Mor",-9.324840868131828],["nie",-9.325065210172337],["gente",-9.325653846344839],["bli",-9.325711899324322],["début",-9.326009841236154],["otro",-9.326144658806516],["27",-9.328051242679143],["source",-9.328541350389855],["geld",-9.32881052983522],["Pero",-9.328938905716395],["realiz",-9.331340063201345],["cerca",-9.331624258844581],["kon",-9.331942073632504],["menos",-9.332217661855777],["important",-9.332986119081186],["projet",-9.333142560360688],["empre",-9.333360767646216],["issue",-9.333553120529311],["econom",-9.333741335034116],["confi",-9.334226129485556],["sport",-9.335410246960677],["sociale",-9.336391823544012],["É",-9.336417713156067],["Para",-9.337167978786113],["pandemic",-9.33791064309734],["Bi",-9.338273299248332],["bas",-9.338430960047273],["name",-9.340809381224364],["zona",-9.340866830041332],["estado",-9.341298205007178],["concern",-9.34233881914571],["personal",-9.343139807778865],["présent",-9.343685953894894],["hospital",-9.345088159482362],["alors",-9.348230741999124],["bou",-9.349569176485979],["chez",-9.349943021153315],["number",-9.350461561393168],["jar",-9.351538290471177],["national",-9.354009190457457],["ish",-9.355183729951563],["28",-9.357189841951783],["cases",-9.357260454296068],["ahora",-9.357268317167758],["respect",-9.357726722248316],["service",-9.359078049822454],["confirm",-9.35943723372735],["selon",-9.359538383633222],["procent",-9.359883615237035],["lum",-9.360518943955622],["punto",-9.360567226918354],["mission",-9.360679308391479],["business",-9.36092460101127],["maal",-9.361831662921883],["light",-9.362260539521822],["Ch",-9.362735546274351],["capital",-9.363216573300214],["Cha",-9.363856589665989],["gouvernement",-9.364683200749646],["rent",-9.364906548877826],["vaccin",-9.367706501249197],["information",-9.367801020259428],["Mon",-9.368725935915947],["limit",-9.36886615568254],["maakt",-9.369864860125723],["politique",-9.37012780300299],["situa",-9.370490793767672],["pati",-9.370608232642677],["Covid",-9.370761166304657],["pic",-9.370780396028445],["ident",-9.370843858128051],["zij",-9.371084094450524],["cua",-9.37148523889141],["charge",-9.371577100780247],["close",-9.372023855201734],["mucho",-9.372700331908039],["later",-9.37318897497969],["Ber",-9.373596508826843],["baar",-9.373923713010289],["spel",-9.3742323061516],["ical",-9.374524251269197],["permit",-9.375741030232499],["China",-9.376312305106723],["parti",-9.378049032542862],["Met",-9.378621919625022],["season",-9.378770090805727],["prend",-9.380409566011556],["iek",-9.381700894260355],["mogelijk",-9.382233339011943],["around",-9.383139524710826],["cher",-9.384049028197019],["minute",-9.386298466009947],["Q",-9.386422509996748],["Voor",-9.387965258324655],["says",-9.389018829714573],["estos",-9.392832662293308],["student",-9.39297928643888],["Vo",-9.393398874823],["Ukraine",-9.393748452226346],["move",-9.393881204758596],["pay",-9.39395925823925],["acuerdo",-9.395301833311184],["ative",-9.395660795529999],["cción",-9.396597369799945],["There",-9.397169202300244],["Este",-9.39761504811134],["cour",-9.397675726481197],["large",-9.398147366493387],["vision",-9.398987613561705],["tuvo",-9.399002061644435],["serve",-9.399056186610917],["firm",-9.400191879586338],["vre",-9.400525538887221],["care",-9.40057576143094],["petit",-9.401142704284155],["vast",-9.401675811313659],["since",-9.401986523133687],["500",-9.403211031985757],["world",-9.405601214811721],["general",-9.406268669129421],["wereld",-9.406289889849267],["compte",-9.40655043097097],["manera",-9.40698670576161],["russe",-9.407503230790802],["current",-9.407519930942499],["invest",-9.408877072875683],["President",-9.409578776196387],["minder",-9.409959430090286],["mundo",-9.410301033670837],["sido",-9.412315476859787],["iza",-9.412440988210122],["minister",-9.412905617768505],["divers",-9.413322695556722],["vote",-9.413469482118561],["zoek",-9.414817370311557],["vir",-9.415097481883265],["ful",-9.415442056613141],["four",-9.415625995200276],["Fo",-9.416619771511044],["such",-9.41819867115979],["Mari",-9.418723425176864],["term",-9.4197134794683],["&",-9.422085537170515],["asegur",-9.422642762650838],["finale",-9.425904623266806],["vin",-9.426135339952939],["Val",-9.426456640240549],["period",-9.426719108142223],["zonder",-9.428847041154729],["aient",-9.431291858398325],["dollar",-9.431715656490567],["snel",-9.43378549383478],["vrouw",-9.433881943144854],["ness",-9.434757574885236],["ès",-9.437972041978135],["embargo",-9.438994553597842],["jusqu",-9.439934232066431],["pris",-9.440470269628932],["pou",-9.441281146478582],["product",-9.442574284461093],["cou",-9.44278157089523],["rapport",-9.444694627935217],["partir",-9.445242619929491],["ç",-9.445506443329071],["laten",-9.446142597948715],["bank",-9.44710439566613],["ating",-9.44713843953825],["document",-9.44796668263001],["istas",-9.449658382598965],["estaba",-9.44967200362087],["say",-9.449694820137985],["international",-9.449984881742509],["company",-9.450444517420575],["kwam",-9.450498897573027],["plu",-9.451482915140348],["altijd",-9.451581447174723],["dam",-9.454263075358202],["particip",-9.457183376576856],["anza",-9.458538329218122],["isme",-9.459356920497713],["gobierno",-9.459503537623613],["That",-9.460407431914662],["waren",-9.461061664562106],["drie",-9.462133580862307],["Gobierno",-9.462824378097748],["binnen",-9.463717467613861],["If",-9.464092965910853],["algo",-9.464604743979287],["ñ",-9.465221170853045],["ley",-9.468928614495676],["Ru",-9.469677223424487],["rece",-9.469819020042602],["Bu",-9.471212604948592],["these",-9.472808241804401],["bé",-9.474582450265675],["order",-9.477328362463659],["hoog",-9.478365606012208],["central",-9.478553921135937],["bal",-9.478714152751923],["ball",-9.479142717283583],["call",-9.479249419294948],["igh",-9.481324898857157],["proyecto",-9.481606967426362],["crisis",-9.481991666888101],["parent",-9.483416659171517],["rue",-9.484673887578396],["femme",-9.484699688196569],["État",-9.485558248179704],["miss",-9.48745718957641],["hold",-9.487496426961142],["family",-9.488093121371861],["servicio",-9.488942618769872],["PS",-9.489554603675124],["région",-9.489899774771724],["90",-9.48990687848329],["gewoon",-9.49066613696603],["made",-9.491017801107514],["poder",-9.491992040026373],["eront",-9.493436052110496],["nuestro",-9.494080840483413],["oord",-9.494366570594607],["norm",-9.494428257614024],["mise",-9.494477179453824],["ello",-9.494691992469711],["rich",-9.495562988702867],["tenido",-9.49573011129274],["estim",-9.496333650817986],["lieu",-9.497048203403214],["join",-9.497459619947309],["Cett",-9.49870240148255],["cía",-9.500411928799906],["nivel",-9.502433056396844],["brand",-9.504756046611433],["onderzoek",-9.5047658993081],["director",-9.505097334742675],["pendant",-9.50534939697691],["came",-9.505689569699143],["ities",-9.506493607150666],["29",-9.506709213186452],["illo",-9.507829939145577],["niveau",-9.50862962521457],["habit",-9.509232636182352],["wer",-9.510341944711165],["seguir",-9.511155628614759],["ctor",-9.511408860427483],["including",-9.511421725032456],["houd",-9.51152472591399],["recibi",-9.511537800928135],["night",-9.511789847211586],["Ko",-9.512669428190392],["dire",-9.512717281242123],["iers",-9.514463808411385],["group",-9.515312587503425],["transport",-9.515317024390983],["groupe",-9.515548789038085],["jeu",-9.515765484280916],["Russi",-9.516717947887887],["slag",-9.517492624680528],["top",-9.518540123067567],["Gra",-9.5187777002076],["mij",-9.519043887413229],["Nu",-9.519214958210064],["fall",-9.519433112321408],["offer",-9.519771317272987],["35",-9.519807459019653],["weten",-9.519843535476438],["rix",-9.52142771097898],["next",-9.521549920263642],["oud",-9.521762021902813],["tim",-9.522754858045488],["reduc",-9.522938835325526],["Twitter",-9.523683070275764],["vrij",-9.524731223460911],["ienne",-9.525368286857212],["Uni",-9.526658916889616],["declar",-9.528483587916742],["rig",-9.528714179735474],["2023",-9.528927792214011],["nacional",-9.529483959811062],["abilit",-9.529589580763982],["room",-9.530171839694951],["Fi",-9.532237900157597],["expert",-9.5331232051884],["hoy",-9.533150002107412],["rug",-9.533520941297237],["communit",-9.533786098131841],["bol",-9.53405772057205],["isch",-9.534322762170348],["major",-9.53437240015582],["precio",-9.536034323821635],["official",-9.536145712772264],["Pre",-9.536583791863388],["fuero",-9.539158318893557],["aller",-9.541661196407269],["grupo",-9.542419799992116],["mort",-9.54325953564189],["provide",-9.546245824727528],["tenu",-9.546463381347028],["entreprise",-9.546483798347978],["persona",-9.546484413369718],["manifest",-9.546994654955942],["notamment",-9.547835817470546],["comment",-9.5504601459455],["problem",-9.55068725268876],["ima",-9.550847431024732],["política",-9.551462497772665],["Her",-9.551577460429698],["consum",-9.55239979642828],["May",-9.552635408552145],["zeker",-9.554935161346986],["recent",-9.555527176172014],["elijke",-9.555887584755517],["asse",-9.557195730972389],["actie",-9.557259813793877],["bit",-9.557526903613432],["ready",-9.55987606547139],["law",-9.559900090005707],["avon",-9.560259696804412],["franc",-9.560331689574772],["found",-9.560677263711597],["estar",-9.561301100446096],["Bra",-9.562409845440424],["2018",-9.56307682092481],["death",-9.564002744498804],["esto",-9.564265589910843],["Nacional",-9.566109977341721],["steed",-9.56672794662367],["vit",-9.56757255115598],["Ben",-9.568494746102413],["lever",-9.569586277342044],["indic",-9.570689867059627],["artist",-9.571602020243645],["keep",-9.571947889695405],["tipo",-9.571970400797689],["trop",-9.572056181890135],["count",-9.572553936847472],["poco",-9.5725656927967],["agua",-9.573456109550023],["prochain",-9.576344178148355],["ever",-9.576621250263702],["project",-9.57728583919356],["uso",-9.57736759246642],["baja",-9.577840893161675],["onze",-9.57823732971342],["ête",-9.578313484493055],["bajo",-9.578987540550923],["travé",-9.579124876501877],["corr",-9.580383509189135],["normal",-9.58142749005151],["cumpl",-9.58191425457212],["oli",-9.582143227173848],["Wil",-9.582214088261038],["chef",-9.582387367078598],["market",-9.583582429135948],["tijden",-9.584319564933562],["image",-9.584493008561017],["druk",-9.585190754575235],["poli",-9.58538992869259],["beter",-9.585771078382932],["far",-9.587768811226782],["avai",-9.58862893311807],["mano",-9.589200680500717],["vraag",-9.589432244808243],["between",-9.58954464770228],["Ou",-9.590394369263862],["lado",-9.59095122476704],["expres",-9.591052039369174],["berg",-9.591616093533734],["both",-9.592338773295548],["Can",-9.59235323353887],["jaren",-9.592451767971282],["oblig",-9.592514430544938],["politie",-9.593113246837767],["zoal",-9.593199636732807],["utilis",-9.59331976144665],["Dit",-9.593770772658523],["anim",-9.594153371964783],["effect",-9.595713474428427],["Biden",-9.59616650596902],["represent",-9.597583739703124],["Wi",-9.597868024266065],["grande",-9.598158710260908],["eerder",-9.598607530490021],["etting",-9.59868475038104],["ización",-9.599539510539286],["busca",-9.600714383233422],["Of",-9.60177095296638],["kke",-9.602644988284268],["Oekraïne",-9.602731839704372],["cambio",-9.602872542299465],["voer",-9.603531684675257],["rap",-9.604204347515761],["licht",-9.604380304442811],["esos",-9.604688812512808],["same",-9.606426712791222],["podría",-9.60659585938053],["Esto",-9.606843666170036],["love",-9.60767134276366],["rien",-9.608185241922486],["problema",-9.609410001924335],["text",-9.611023065713688],["conclu",-9.61170946511045],["rant",-9.612542126910288],["ambién",-9.612585747002692],["vou",-9.614600583040417],["celle",-9.614749033638958],["nemen",-9.614894032262443],["somme",-9.615058792036681],["€",-9.615243157609703],["jó",-9.615380006159992],["West",-9.615461470287586],["lier",-9.617020669869916],["zit",-9.617600983716448],["teur",-9.617864146318585],["terre",-9.618761250891094],["zó",-9.618963293835995],["hombre",-9.619139272841501],["puesto",-9.619312934237538],["court",-9.619408704908665],["isation",-9.620277889953046],["compar",-9.62117191111734],["vallen",-9.621488935150584],["band",-9.621533478959288],["destac",-9.621557676128198],["services",-9.622079285029407],["rog",-9.622845285010602],["français",-9.623998969587564],["process",-9.62435317112294],["bur",-9.625451919119552],["centre",-9.625943601568384],["tema",-9.626762800987297],["général",-9.626844739693869],["few",-9.62714958974054],["got",-9.627681562806293],["feel",-9.627891184772157],["Sch",-9.627931282789344],["full",-9.629256444613397],["All",-9.62962764043408],["provincia",-9.629880869311233],["ooit",-9.63055299919044],["ship",-9.630914779226092],["jug",-9.631233505588963],["ayuda",-9.63353571244535],["bio",-9.634579760501541],["saison",-9.63501930669705],["gua",-9.635273870325715],["great",-9.635749976198174],["dad",-9.63592367590637],["aange",-9.636345475541894],["ancien",-9.636358732490432],["iteit",-9.636726427036557],["destin",-9.637416495058227],["zone",-9.637632648434344],["turn",-9.637690654302869],["î",-9.638764901473973],["integr",-9.639598068501364],["teurs",-9.640934681894024],["Char",-9.641470419143129],["31",-9.641899988192543],["client",-9.642167951921207],["anunci",-9.643926826470487],["told",-9.643967987714959],["comple",-9.644872165940445],["train",-9.645052265613751],["rust",-9.645238469396201],["system",-9.645388654362101],["Mus",-9.646301333861054],["marca",-9.646541904941849],["truc",-9.647070154220415],["autoridad",-9.647094154461211],["casa",-9.647247514828631],["déclaré",-9.647751048211383],["haber",-9.647878622802068],["protest",-9.648484707876452],["partij",-9.648705494873747],["mean",-9.648880414203122],["donné",-9.648923542555714],["elect",-9.649384492685694],["Son",-9.649463359065809],["mettre",-9.649545264872458],["mic",-9.649828196247235],["ición",-9.651653265279528],["prendre",-9.652005427678017],["ë",-9.6522254096684],["cómo",-9.652950513939144],["prob",-9.654715554262813],["mir",-9.65475795078574],["côté",-9.654813004338404],["sabe",-9.655079055552793],["zar",-9.65582139943017],["alguno",-9.65592512853938],["izar",-9.656732577599026],["arme",-9.65686775977261],["vice",-9.657043908962756],["gek",-9.657455825270098],["Saint",-9.657630823127125],["pol",-9.659119834203393],["Ab",-9.659231966374104],["rez",-9.659834439621873],["York",-9.659858903178337],["aliment",-9.660273167659266],["zin",-9.660726466325814],["prove",-9.661032837179906],["used",-9.661168421207009],["medida",-9.661371332043258],["Sur",-9.661496709106263],["effet",-9.661744413875015],["réalis",-9.66230852619195],["vrai",-9.662418355268855],["seguridad",-9.664031958489534],["précis",-9.664256893485568],["Chi",-9.66444299039436],["aff",-9.664546116750877],["chose",-9.665293794729703],["dur",-9.665404809695524],["stem",-9.666066033877478],["nodig",-9.66668172538191],["iving",-9.667693249456253],["responsable",-9.667940121072416],["tica",-9.668689173435315],["Europa",-9.668817741785784],["view",-9.668972203824017],["laatste",-9.67035751560099],["kort",-9.670417085463109],["gest",-9.671254250732112],["constitu",-9.67305947420864],["Méx",-9.673111178654008],["bekend",-9.673685886849622],["ê",-9.67375874307572],["passe",-9.674324820058182],["posible",-9.674484508309774],["suis",-9.67450825561813],["wor",-9.674950104756638],["var",-9.675417543461414],["edad",-9.677177750842382],["condition",-9.677202240931383],["doel",-9.677309089839625],["weet",-9.67775086225267],["pur",-9.678275356398018],["case",-9.68007181249186],["power",-9.680135958022703],["vario",-9.680896712999333],["Air",-9.683770714052526],["hit",-9.685551039294188],["cast",-9.685828692658381],["Friday",-9.686488640958835],["programa",-9.68738278250272],["ium",-9.687486347559778],["char",-9.687613525423739],["ullen",-9.687795019166797],["ary",-9.688409572425906],["fact",-9.688993166687863],["quant",-9.69140870252049],["nuestra",-9.691708499333643],["salud",-9.69172615882443],["ailleur",-9.692501705133294],["45",-9.69315430786408],["nom",-9.694563261190293],["casi",-9.69581870444227],["meses",-9.69591614269732],["parece",-9.696062148016914],["mucha",-9.69686004413946],["Pat",-9.697600795195463],["arm",-9.69856941735442],["ouvert",-9.699180447899213],["return",-9.699483508477138],["six",-9.699567869845724],["bonne",-9.699577666673731],["vía",-9.699924746722889],["rum",-9.700728767854223],["actividad",-9.700822577502096],["kinder",-9.701796367145086],["Gar",-9.702813471898768],["Est",-9.702992661980392],["última",-9.703268610310527],["remain",-9.703465937248755],["proceso",-9.70439347397965],["Bij",-9.704668897026128],["space",-9.704892266238492],["Za",-9.705294482795331],["Pas",-9.705770657651065],["ON",-9.705823250021876],["combat",-9.70651028859173],["otra",-9.707051085129052],["Har",-9.707532765827914],["trait",-9.707604951731497],["historia",-9.70907795270313],["curr",-9.710177309286053],["prise",-9.710634207641906],["happen",-9.711493891359037],["touch",-9.711648570181193],["pit",-9.711936597715209],["tard",-9.713164126225674],["España",-9.713901364785794],["quiere",-9.714855410909966],["éra",-9.715276177014271],["famille",-9.716047637357615],["Gi",-9.716286529005274],["lead",-9.71892793539444],["civil",-9.719168420799997],["pourrai",-9.71949218912767],["American",-9.71987270456333],["coming",-9.720489577910115],["house",-9.720577762201964],["aura",-9.720936424353933],["Pi",-9.72134268059101],["cual",-9.721722982855225],["lid",-9.723030370599076],["Mr",-9.723849834582666],["valor",-9.724378619565371],["different",-9.725729347732148],["observ",-9.725842437792938],["nother",-9.726249404862962],["vue",-9.72625732657692],["toria",-9.726551370808846],["sigue",-9.726622562201499],["India",-9.726876550166255],["Tur",-9.72715372355091],["één",-9.727202391097286],["election",-9.728272255285551],["release",-9.729030348384446],["kker",-9.729043796288256],["AN",-9.729925351206091],["centro",-9.73007771646283],["quarter",-9.73120734343048],["Que",-9.73133125158899],["zak",-9.732518693074585],["prepar",-9.733773484944338],["ake",-9.7349075256908],["idas",-9.734995524531652],["TV",-9.736964614420021],["event",-9.73729159897188],["Rusland",-9.737739491111844],["junto",-9.737866422525297],["bouw",-9.738089244011007],["tenía",-9.741150488432194],["joueur",-9.742477280216303],["obten",-9.743353569657366],["gel",-9.743431139798485],["Pol",-9.743476920765719],["Una",-9.744326532829714],["pouvoir",-9.744476359105551],["jeudi",-9.74457318368157],["laat",-9.74560872099169],["jamai",-9.745692924030571],["friend",-9.74582618036748],["hoor",-9.747824961105009],["Ti",-9.747834132247515],["blijven",-9.747848014093279],["raison",-9.747850496764828],["legal",-9.748332097021393],["informa",-9.748808106713629],["free",-9.749128778673645],["grave",-9.749742322720223],["half",-9.749839738341745],["middel",-9.750720104127229],["import",-9.751512759049564],["promo",-9.751709511739337],["month",-9.753607653125517],["geven",-9.75449542452617],["meld",-9.754590905199086],["anders",-9.755680077330844],["willen",-9.755794219346843],["tech",-9.758846129195462],["iemand",-9.758899347147391],["série",-9.759122187814247],["Volgen",-9.75913413525102],["city",-9.759208577529144],["groot",-9.760502722622764],["mercredi",-9.76207731169448],["defini",-9.762452271852862],["Russisch",-9.763206138719765],["idea",-9.763391929227353],["posición",-9.764974340855357],["connu",-9.765551814222464],["profit",-9.76616356048795],["annoncé",-9.76657395356352],["dimanche",-9.766575144645518],["ieve",-9.766611425652844],["gemeente",-9.76661819011199],["online",-9.767142335097551],["bedrijf",-9.767701629589315],["mesure",-9.768012793908964],["Sam",-9.768318160000092],["ô",-9.768477390802971],["implement",-9.769456844915696],["cosa",-9.769984636536478],["roep",-9.770483220098804],["buiten",-9.770695607645028],["cuatro",-9.771609921935749],["kill",-9.77208602661195],["199",-9.77308414322894],["energie",-9.773509229062942],["lundi",-9.773530298198333],["ème",-9.773726222914235],["mardi",-9.773951079811525],["Inter",-9.774440672444587],["schap",-9.774499811924748],["stock",-9.774734226813827],["otras",-9.775123860613334],["público",-9.775628780137154],["mur",-9.77695391660782],["alguna",-9.778199759335063],["Unidos",-9.778772756336014],["hizo",-9.7791675962211],["decision",-9.779390434927505],["music",-9.779973859840194],["venu",-9.779977606454555],["vendredi",-9.780190164096876],["contribu",-9.780203031446167],["produit",-9.780464640052077],["mate",-9.78064604311989],["werken",-9.780723524193691],["arly",-9.781120860795166],["presenta",-9.782481417954715],["Brit",-9.784133013972804],["gust",-9.7869487658662],["special",-9.787279038006863],["job",-9.788420437715825],["across",-9.789976799496525],["sistema",-9.790173329164825],["include",-9.79067337639169],["inclus",-9.792223492888589],["interven",-9.792458520932218],["sino",-9.792921082073944],["obra",-9.793233309037177],["nation",-9.79378713010152],["oficial",-9.795375114691188],["verder",-9.795571650828144],["lance",-9.796015328060388],["voorbeeld",-9.7960847378505],["South",-9.796974050695479],["Mat",-9.797356610075493],["miljoen",-9.797469189143072],["Universit",-9.798664847682323],["reported",-9.799519005173334],["population",-9.799795735902483],["municipal",-9.799795825415458],["jonge",-9.800017278577702],["avond",-9.80061645699713],["producto",-9.801387258487036],["area",-9.80158648210651],["reste",-9.801957876142044],["llegar",-9.803091881736076],["wh",-9.803228572593824],["gol",-9.803265845389001],["hoge",-9.8042394237348],["autor",-9.80439266952625],["voca",-9.804993646001643],["arrêt",-9.805695138577116],["give",-9.806037867655213],["phone",-9.806540368438789],["jarige",-9.808358509844533],["resultado",-9.808379311973873],["kind",-9.809365781443729],["endo",-9.810197827256637],["diferente",-9.810335064865885],["Ucrania",-9.811512259378091],["When",-9.811980820998532],["employ",-9.8121592032506],["trabaj",-9.812604398550905],["foto",-9.813128457938376],["aucun",-9.815290205407933],["gemaakt",-9.815331929012855],["nunc",-9.815619375306735],["level",-9.816028944054382],["row",-9.816123413769354],["incident",-9.817511064624984],["unos",-9.819414120290546],["explica",-9.819445128810063],["élection",-9.819799573355084],["+",-9.820985384860034],["dici",-9.821011637046944],["aurai",-9.821133513662996],["reden",-9.821226634606607],["studio",-9.8215795269439],["handel",-9.82162516489069],["accident",-9.82217735530551],["gne",-9.822377699918096],["vec",-9.82240298542844],["û",-9.822725544835293],["fire",-9.824090934640706],["realizar",-9.8242015851833],["EU",-9.825427898587215],["ouder",-9.825510889441453],["aantal",-9.825720261153151],["quand",-9.826042013231874],["respond",-9.827027959610655],["vend",-9.828287332673712],["agent",-9.82855898760057],["NA",-9.82862197469403],["permet",-9.82906876821415],["course",-9.829327858623127],["facilit",-9.829454257599593],["frente",-9.830405772726227],["range",-9.831278615761363],["hope",-9.832025800224145],["afecta",-9.8330143153619],["guerre",-9.833099214938757],["leader",-9.833922246878533],["March",-9.834016706138712],["próximo",-9.834159226563811],["Sta",-9.834208508738174],["collect",-9.835142723004388],["meilleur",-9.835399221409798],["Mc",-9.835714339020033],["pone",-9.836254294118369],["bord",-9.836284375276016],["veu",-9.837462394244458],["refer",-9.83761189385823],["samedi",-9.837943538188032],["capacit",-9.838046782082124],["lip",-9.838505730847334],["Pal",-9.838897950673822],["quatre",-9.839199248078828],["samen",-9.839580036964737],["gebeur",-9.841517252156024],["assist",-9.84194372775222],["celebra",-9.845410989405153],["accord",-9.845447109528163],["indica",-9.845917498264054],["receive",-9.846105250789098],["probabl",-9.846640645061846],["resident",-9.846693811763544],["oorlog",-9.84725117160277],["militaire",-9.847513095527216],["ked",-9.847540475043688],["rob",-9.847828296535937],["derecho",-9.848437861973004],["decir",-9.848465266513205],["fiscal",-9.848540139728094],["Selo",-9.849414620309188],["using",-9.84975689775635],["américain",-9.84995542470606],["mov",-9.85002501605673],["solution",-9.850259333640246],["hang",-9.850699581023758],["corona",-9.85078237778832],["Bur",-9.85175646687408],["working",-9.852105342141513],["média",-9.852455626871905],["fans",-9.852841116313291],["ministro",-9.854032449111003],["body",-9.854076888762892],["vic",-9.855211707054975],["station",-9.855340243115169],["nam",-9.855423393461933],["viern",-9.856073680832903],["occasion",-9.856098381665522],["número",-9.857331166534353],["rage",-9.857540493992312],["Alle",-9.859020075902759],["hum",-9.859021079636928],["eff",-9.859319460299886],["bell",-9.859470310490636],["encuentra",-9.859802241118597],["claim",-9.859978322454403],["arrive",-9.860216048778721],["Apple",-9.861046609964191],["seule",-9.86104803634128],["John",-9.861254159649334],["program",-9.861312122722598],["dólar",-9.862018749415908],["bot",-9.862045275551228],["mercado",-9.862322116546313],["Jean",-9.862578902664357],["big",-9.863088374239233],["posé",-9.864239488974082],["regel",-9.864501561060372],["global",-9.864780641656338],["afirm",-9.865316343868164],["route",-9.865716295857165],["left",-9.866694566999204],["klein",-9.866918509930146],["familie",-9.867253070862027],["production",-9.86729575753894],["near",-9.868543143714787],["hour",-9.870352679290335],["zitten",-9.87044626893188],["jeune",-9.870608029359499],["pid",-9.871575218427035],["distanc",-9.872611546892717],["Cam",-9.873201796570873],["misma",-9.873327103366528],["tendrá",-9.874417529715988],["Om",-9.874445018280756],["National",-9.874911551301615],["anté",-9.875710084064643],["niño",-9.87627218761155],["ète",-9.876436133705923],["leden",-9.876640008905643],["CO",-9.87706295712055],["effort",-9.877437820790949],["version",-9.877968361360775],["objetivo",-9.878534075766538],["affirm",-9.878768274200134],["price",-9.87955400327112],["fonction",-9.879791208222807],["histoire",-9.87980606950449],["Ya",-9.881023685024648],["according",-9.881249477974137],["drag",-9.881261505682273],["vooral",-9.881826420222179],["verwacht",-9.882324790233955],["cualquier",-9.882330029149333],["oog",-9.882702646637327],["dés",-9.883098165160185],["segundo",-9.883583667552196],["United",-9.883623266663179],["augment",-9.883790291674856],["belangrijk",-9.884850505254132],["AR",-9.885162397720718],["chance",-9.885823103617122],["devrai",-9.885965015387733],["septemb",-9.886231523820024],["bond",-9.886506360550236],["allow",-9.886597313523245],["City",-9.887984525360531],["coach",-9.889767843138145],["tors",-9.89003576339855],["mini",-9.89017505626217],["nationale",-9.893572281953881],["tjes",-9.893590407161273],["igual",-9.89393000864013],["iedere",-9.894388419798108],["retour",-9.894881926234628],["never",-9.895370839597181],["FC",-9.895569673729877],["semble",-9.89615322131763],["75",-9.897446858626239],["ativa",-9.897701035666849],["wan",-9.89804669411377],["tax",-9.898668228041611],["unque",-9.898862752752303],["former",-9.900691822951579],["devant",-9.902276650770249],["culture",-9.902711996984877],["venue",-9.902737794113401],["vite",-9.902773213752262],["Mont",-9.903185042738656],["something",-9.903532639669386],["statement",-9.903534883318626],["Québec",-9.904056884163591],["tuig",-9.904426350685984],["find",-9.904603804049344],["Monday",-9.905772206279146],["administra",-9.90599765690813],["install",-9.906394631866535],["uitge",-9.908199262836376],["uck",-9.910543700124736],["vorig",-9.910581110687126],["went",-9.911908496216155],["militar",-9.911957922683085],["compet",-9.913019506047258],["opge",-9.913262704616844],["deuxième",-9.91445607915172],["espacio",-9.914459767190749],["marché",-9.914505538822247],["libre",-9.914607618314411],["novemb",-9.915321368145626],["rill",-9.915745742093627],["elkaar",-9.916047109373086],["juego",-9.916060228441795],["flu",-9.916089208943067],["believe",-9.917204857744135],["drive",-9.91735841057951],["minuto",-9.917385583707832],["War",-9.918590010809911],["Don",-9.918755028979952],["try",-9.919017079229524],["primero",-9.91902458011442],["here",-9.91904735090015],["enfants",-9.92051476677071],["noche",-9.921003573312749],["meest",-9.921638924666045],["soir",-9.921756151675627],["ayer",-9.921835737401352],["rak",-9.922860128053607],["groep",-9.923292223533299],["explique",-9.923639576599928],["zeggen",-9.923671639227173],["Howe",-9.923758654292808],["better",-9.924934013989137],["speel",-9.92689227532207],["abord",-9.9275971811497],["accept",-9.927642604157787],["pier",-9.927709957443643],["Bor",-9.9277317971348],["paar",-9.928804029575854],["conseil",-9.929457612159695],["jugador",-9.931330179327556],["Chine",-9.931642531651454],["chu",-9.932036423960753],["Fue",-9.93280184533019],["sécurité",-9.932911613188235],["mbo",-9.933445500298102],["Así",-9.933729308162913],["positive",-9.934685688772447],["until",-9.935129168625677],["orden",-9.935273235145463],["federal",-9.935587221992584],["zetten",-9.935896372934621],["éré",-9.93629077868058],["organiza",-9.936663584950583],["circul",-9.936979131442865],["fuera",-9.937283360246568],["mail",-9.937333340310968],["Grand",-9.937778243489879],["talk",-9.938181200234038],["popular",-9.938251819107538],["arrest",-9.938263617383129],["Pri",-9.93858151446086],["markt",-9.939319857929263],["prima",-9.939624690911831],["vijf",-9.939634500264308],["entend",-9.939866040898945],["What",-9.93992573480719],["distribu",-9.941030859816424],["divi",-9.943540418068732],["mental",-9.94392438286387],["Alex",-9.94449758629704],["Paul",-9.946177035744675],["depend",-9.946480953911387],["plein",-9.946587898353787],["organ",-9.94711524718264],["Rusia",-9.947697081317788],["alta",-9.948136357966733],["directeur",-9.948794847159885],["varia",-9.949630718414973],["dienst",-9.949716348632549],["contract",-9.949970536951366],["ático",-9.950163819965125],["gang",-9.951098026153225],["cargo",-9.951098779855315],["children",-9.951896927927013],["With",-9.953859100848431],["lunes",-9.955045599972662],["habl",-9.955466570686035],["does",-9.955688283520182],["hoofd",-9.955907534977179],["must",-9.957188068956421],["might",-9.957308741296146],["cam",-9.957960666743382],["vehículo",-9.958518978185577],["future",-9.958590579217077],["domin",-9.958766504020439],["clear",-9.959633110620823],["cord",-9.959783561381315],["gewe",-9.959797712397002],["natural",-9.959935027891182],["PC",-9.9603380662954],["haci",-9.960619494194976],["General",-9.961275959964464],["Reg",-9.963988587539728],["mus",-9.964086528149993],["consult",-9.964154280111513],["ólo",-9.964835157523488],["boven",-9.965334968409252],["lleva",-9.965936666640577],["Jan",-9.96619063959023],["field",-9.966488893389492],["hub",-9.966519461201997],["gie",-9.966539301671737],["cinco",-9.967860084554214],["wind",-9.968151208795707],["risk",-9.968635362313709],["départ",-9.969113658530949],["arma",-9.970178731249636],["gado",-9.970438904170688],["aujourd",-9.970953477102384],["voy",-9.97096661827514],["didn",-9.972599447949996],["dict",-9.972689489947847],["izado",-9.973296596117695],["arra",-9.97337287810364],["model",-9.973553072179792],["Mark",-9.973989093489532],["access",-9.974948489592535],["increase",-9.975043349180794],["werkt",-9.97524235877989],["pueda",-9.976055914282815],["mujer",-9.976299725130708],["passé",-9.976516212995303],["igne",-9.977000776897967],["adapt",-9.977917115673364],["mujeres",-9.977953512783335],["County",-9.979214698141956],["Tout",-9.97952411651398],["Canada",-9.980789245828717],["conocer",-9.98115823580666],["alway",-9.983126254579297],["tiques",-9.983950284166397],["Wal",-9.984598698870247],["particular",-9.984808098372444],["ène",-9.984949984305942],["36",-9.98711591956064],["type",-9.987362377832708],["ciento",-9.987677627025217],["member",-9.989201958572817],["sentido",-9.990117357273597],["Plus",-9.990597040960516],["affaire",-9.991436672030027],["blijft",-9.991889759938253],["ducation",-9.992079698548519],["adde",-9.992647230761397],["iller",-9.992750895030285],["eron",-9.993386930548654],["ried",-9.993405190074453],["making",-9.993783876022242],["32",-9.995170745472134],["ency",-9.995561172154638],["staff",-9.99585865367299],["mañana",-9.996076833650854],["food",-9.997650727666269],["curso",-9.997796350655033],["follow",-9.999395161007964],["père",-9.999562746457617],["five",-9.99964263453225],["David",-10.000358592367157],["Black",-10.000433620374107],["Lib",-10.000841552929469],["sábado",-10.001763180872675],["temporada",-10.001763261184227],["duidelijk",-10.001766948926333],["digital",-10.001893110107321],["merk",-10.002296858976363],["tribu",-10.002994911578153],["Health",-10.00321078928181],["Whil",-10.00395275029588],["télé",-10.004114383004497],["área",-10.004599252837236],["rang",-10.005904548052925],["doet",-10.00674158161278],["Zij",-10.00727230926697],["Entre",-10.007681366890456],["absolu",-10.007915952371429],["spread",-10.008228077362311],["woord",-10.00886691824456],["officer",-10.010360679972742],["sujet",-10.010789024429869],["Thursday",-10.011790202607912],["réseau",-10.011897634242459],["stay",-10.012576920105518],["ática",-10.012643906489664],["retir",-10.012855163451896],["falta",-10.013142764018493],["assure",-10.013421007652166],["aún",-10.013522992529332],["agit",-10.013981446217878],["Marc",-10.014701899865301],["slecht",-10.01475003397078],["mooi",-10.015185843241898],["appear",-10.017864946586794],["restaurant",-10.019018371985396],["hijo",-10.01908549006237],["Luc",-10.019169433377236],["become",-10.019962967666325],["held",-10.020306042830333],["víctima",-10.020466990908087],["allemaa",-10.020480412335454],["enquête",-10.020498348181818],["66",-10.020666453770698],["rencontre",-10.02080667804076],["Etat",-10.021630237603274],["unidad",-10.022555699399671],["rait",-10.023834799771517],["kijken",-10.023996250590024],["chant",-10.024686776025497],["ü",-10.024833809018102],["llama",-10.025363283319244],["short",-10.025490153877271],["Act",-10.025927590293627],["koop",-10.02593070942272],["again",-10.025997907911847],["lice",-10.026519186765903],["adore",-10.026907671648914],["rid",-10.026930586027557],["seul",-10.026951305834107],["office",-10.027378068370002],["votr",-10.027827556547054],["cub",-10.02786991703083],["origin",-10.028255902634994],["levé",-10.028717237724566],["Dé",-10.029704545019932],["gré",-10.030146966149225],["mask",-10.030841307632475],["cinq",-10.031573448243838],["haut",-10.032020898930467],["poner",-10.032118320785617],["naast",-10.032664126906012],["solicit",-10.03279792935546],["Argentina",-10.03287733281212],["veces",-10.033141444742242],["prijs",-10.03356433783902],["journalist",-10.033625969123952],["34",-10.034131929500228],["Sunday",-10.035161698297829],["photo",-10.035326489309764],["bring",-10.035395213634612],["domingo",-10.03728269403786],["ligne",-10.037882612399109],["woning",-10.038008705955699],["box",-10.038672613271721],["rain",-10.039293566666956],["Sha",-10.039427999171446],["vaak",-10.039528386714228],["Gro",-10.039568396370505],["33",-10.03962195678259],["annonce",-10.039744109712167],["regard",-10.039820676205988],["quoi",-10.040777699820367],["Minister",-10.040915095039466],["Madrid",-10.041018695528408],["stellen",-10.041635649336207],["Tuesday",-10.042494479373644],["soort",-10.043420459835039],["transform",-10.043892185795311],["succes",-10.043994675975355],["color",-10.044352550257898],["guard",-10.044754618158112],["infec",-10.044975292387672],["motor",-10.045893526837204],["entro",-10.046275379553807],["souven",-10.046439679400855],["pandemia",-10.046962376904194],["critic",-10.047425663614058],["aard",-10.049484765114432],["command",-10.049571522418178],["radi",-10.049805465185996],["message",-10.050129809336639],["money",-10.050196303640856],["risque",-10.050642340890182],["hur",-10.050812489010987],["taine",-10.05093540876593],["encuentro",-10.051443753004483],["matin",-10.051787545678977],["beeld",-10.052317209637042],["experience",-10.052942171262616],["Saturday",-10.052942578498477],["juli",-10.054060464110922],["halen",-10.054308720561572],["basis",-10.05450505278133],["aske",-10.05494987914965],["programme",-10.055073568910647],["content",-10.055396110267777],["janvier",-10.055964833168952],["junio",-10.056037633435016],["buena",-10.056525978713498],["dora",-10.05792488980221],["cuest",-10.058004302609216],["calidad",-10.058464201760458],["opération",-10.058980604887331],["Cat",-10.059055002623943],["percent",-10.059577728882864],["cadre",-10.060344166217527],["board",-10.06042222392828],["fecha",-10.060444364656465],["300",-10.060959886174357],["women",-10.061321175883137],["Bru",-10.061539126322366],["key",-10.06312903690333],["having",-10.06362478396298],["Belgi",-10.064082266612626],["blanc",-10.064087280409804],["small",-10.064406186076539],["mètre",-10.065268144591915],["read",-10.065667608179371],["Paris",-10.066514832142971],["comunidad",-10.067162351016718],["expect",-10.0673035017453],["grond",-10.06794512314313],["figure",-10.068120860035709],["taking",-10.069580475038196],["cultura",-10.070346343350508],["Hay",-10.071176655401388],["mét",-10.072278032960892],["anterior",-10.072723010167808],["décision",-10.074177680139169],["little",-10.074278048260204],["mark",-10.07626968198128],["pública",-10.076790368806915],["break",-10.077016193592339],["stuk",-10.077341552911523],["Qui",-10.078430575249023],["fight",-10.079058646119842],["connect",-10.079383541393113],["crime",-10.07967496210178],["Institu",-10.08032091767799],["require",-10.081043257224165],["ocurri",-10.081162588511452],["prison",-10.081406956880716],["acteur",-10.081424893198225],["crise",-10.082114632977081],["excep",-10.082136705227292],["together",-10.083450397285805],["Africa",-10.08346123390039],["burg",-10.084395186654534],["disponible",-10.084957095998416],["fail",-10.086349109840006],["37",-10.086596044607457],["titre",-10.088960790858227],["martes",-10.089460654700714],["38",-10.091163263807154],["milliard",-10.091173228637032],["línea",-10.091224113948053],["Over",-10.092429363011423],["breng",-10.092820307710976],["stond",-10.092895151967273],["agreg",-10.094214385078608],["League",-10.094416500436289],["graph",-10.094742541623447],["activité",-10.0961675198422],["eerst",-10.096937098377502],["podrá",-10.097064109125727],["oportunidad",-10.097428614161224],["benefici",-10.097429057436635],["performance",-10.097608302654862],["interest",-10.097821633961297],["besoin",-10.097839102739616],["simple",-10.097868425429322],["opportunit",-10.098998873677045],["natuurlijk",-10.099094567627725],["nature",-10.099279152671407],["leef",-10.099675606373733],["recuper",-10.10063703892703],["reach",-10.101227376583065],["rijden",-10.101519698545184],["alcanz",-10.102042390191569],["rov",-10.103150829139505],["geval",-10.103760788796329],["Ces",-10.103861964620926],["viol",-10.103890536098124],["mogen",-10.103963095744339],["BC",-10.10407658730702],["taken",-10.105501541507369],["99",-10.106106331313734],["lica",-10.106727497894486],["système",-10.108470676699701],["wedstrijd",-10.10848234877657],["garanti",-10.10867074361261],["iércol",-10.108850539381926],["Super",-10.110416223626713],["dispar",-10.1105893429606],["amba",-10.110657438572787],["cycl",-10.110694982915692],["llev",-10.110829091773525],["gli",-10.11109764380209],["carrera",-10.111711896826115],["coment",-10.112120211291922],["exclu",-10.113288650984856],["Ann",-10.113387558156994],["moest",-10.113636146481916],["cuerpo",-10.114836943148251],["park",-10.115680561886085],["North",-10.11606812007712],["justice",-10.116718279120125],["llevar",-10.116888897859692],["cerr",-10.118045842531828],["Wednesday",-10.119633525754718],["segunda",-10.11963405451802],["rib",-10.12013686536013],["eight",-10.121170139413124],["necesita",-10.121243324907713],["roll",-10.122468782808564],["perfect",-10.122868910847034],["vacuna",-10.123403176799808],["option",-10.123485285178464],["multi",-10.123623658840595],["avance",-10.123718402772699],["micro",-10.124479128635809],["Deze",-10.124907143792754],["seem",-10.125332572933917],["complete",-10.125339523626469],["Juan",-10.126035993948836],["organisation",-10.126156116877823],["fuerza",-10.12771955239339],["clair",-10.128233279650209],["Just",-10.128305376104768],["55",-10.12896935343134],["blijk",-10.12928820757293],["tercer",-10.129624318269737],["couple",-10.131603484300083],["carga",-10.132456760715478],["difficult",-10.132547342131033],["Democrat",-10.132547373486556],["société",-10.132630945890092],["plat",-10.133588012087916],["65",-10.13453775668432],["Bri",-10.134861561037098],["oire",-10.13548109509789],["interview",-10.136365595874674],["several",-10.137250797512499],["young",-10.137325270825658],["Facebook",-10.137433425359802],["geef",-10.137938662542199],["worker",-10.138023105665294],["ault",-10.138286021117192],["español",-10.139095222016397],["torio",-10.13947961994468],["motion",-10.139500490051413],["internacional",-10.13971688756422],["Fra",-10.140038130282965],["universit",-10.140150222583124],["cherch",-10.140516028805713],["décembre",-10.141175600966085],["organiz",-10.1415150462551],["talent",-10.141576579205063],["book",-10.142159620899196],["round",-10.142948353342966],["danger",-10.143590288175076],["travel",-10.144377070568257],["q",-10.144488879291213],["ensemble",-10.145730084407536],["desarroll",-10.145745198181142],["watch",-10.146031503571969],["égi",-10.14687808825418],["rouw",-10.14717982966402],["pression",-10.147634258466123],["lockdown",-10.148930117783394],["teken",-10.149498016394226],["partner",-10.149713262390438],["focus",-10.150681863506579],["sinds",-10.151210201111624],["mari",-10.151775956650805],["quelle",-10.15219014820461],["vriend",-10.153974909862477],["announced",-10.154239571868043],["trip",-10.155746960806379],["individual",-10.155759160805301],["rying",-10.15662322030876],["inicia",-10.156678768364232],["enfrenta",-10.157423939178713],["score",-10.157674374839196],["respecto",-10.158196361189493],["warm",-10.159406829939034],["encontr",-10.161071306882388],["inclu",-10.161379619539769],["today",-10.162554211253834],["400",-10.162589531861446],["conserva",-10.16262994005494],["road",-10.162750554747564],["Union",-10.163831840736574],["pped",-10.163865740050772],["prueba",-10.164005496123526],["legó",-10.164066225076542],["unning",-10.165142354926877],["agree",-10.165300488007354],["indiqué",-10.165588618669773],["enero",-10.165651019016241],["value",-10.16656872756885],["uillet",-10.166607378920258],["dress",-10.16661507055193],["hall",-10.16688269081018],["juist",-10.167169245444853],["largo",-10.167999557748],["child",-10.169130944494839],["puesta",-10.16927140641413],["ruim",-10.169535011251735],["genomen",-10.169953444755741],["secteur",-10.170726353473645],["attaque",-10.170755632615327],["autorité",-10.171166526199858],["plek",-10.171673344157293],["univers",-10.171899057303396],["Premier",-10.17233654577971],["given",-10.172491620460129],["Police",-10.172579745688596],["Tour",-10.172598410529293],["construc",-10.173489481356],["After",-10.174237847631353],["least",-10.174723988955254],["journée",-10.175742544391856],["alert",-10.176092863157495],["muestra",-10.177415604005748],["tradition",-10.17753028257708],["muni",-10.177963832779753],["joven",-10.17917376349254],["verschillen",-10.179217112878469],["weekend",-10.179548368739493],["publique",-10.180809458031352],["research",-10.180813398336218],["sexual",-10.181318986396217],["membres",-10.181565934784457],["rating",-10.182333694740214],["festival",-10.18251671917516],["inspir",-10.182672925888266],["stream",-10.182690858891778],["padre",-10.18286991914934],["simismo",-10.182940383642025],["égal",-10.18411668990692],["similar",-10.184259971071771],["novi",-10.185154959679839],["cab",-10.185391259253896],["volg",-10.185797222387475],["ification",-10.185799674663809],["House",-10.1858162599605],["bureau",-10.185852536130607],["conoci",-10.186785286470126],["revenu",-10.187046648847188],["Washington",-10.187653088626908],["période",-10.187662411103325],["politic",-10.188035613355925],["host",-10.188078725597919],["passer",-10.189440751246861],["Todo",-10.189442519568814],["industrie",-10.189806641798224],["campagne",-10.19109872720627],["mí",-10.191206663901404],["Vol",-10.191275265157463],["availab",-10.191601861477166],["solid",-10.191726691264005],["48",-10.191774430937043],["mandat",-10.192151705031897],["Max",-10.192753729120458],["animal",-10.192857207202724],["material",-10.193703310679656],["cierto",-10.194102262727945],["pueblo",-10.194549136137677],["habitant",-10.194643922418003],["denuncia",-10.195791998889487],["José",-10.196368592055546],["political",-10.197003599697473],["bill",-10.197239873762026],["gaz",-10.197685595057832],["elección",-10.197935876441782],["objet",-10.198172258983737],["administration",-10.19920467666873],["mondial",-10.199758837996399],["Macron",-10.199789501360158],["râce",-10.199805862049356],["komst",-10.19982633600165],["Donald",-10.199875244289693],["remos",-10.200124193904813],["noem",-10.200481546053677],["football",-10.201540112897803],["evolu",-10.201769519660733],["elles",-10.20278945299954],["Ministerio",-10.203344475877248],["accueil",-10.203885270633268],["rim",-10.204919473377032],["kracht",-10.205021398999254],["violence",-10.205042488678567],["trek",-10.205250008632355],["offre",-10.205674895594782],["ubica",-10.206021564061654],["trabajador",-10.206506186575432],["correct",-10.207060460626398],["maanden",-10.207237627343934],["doesn",-10.208140911609602],["muerte",-10.208474941664493],["naam",-10.208560559208056],["positie",-10.208663807948586],["meeting",-10.209054012838475],["zaak",-10.209111314520019],["scenario",-10.210328615074621],["fier",-10.210331134573817],["Ang",-10.21047221386672],["vista",-10.211886700806971],["campaign",-10.211982925820529],["budget",-10.212009217164525],["désor",-10.212485811296828],["apoyo",-10.213547888377327],["población",-10.213741971568197],["rrière",-10.213794885321557],["Russe",-10.214031022302947],["licit",-10.214450403297516],["lié",-10.214545840897689],["grado",-10.215014918538689],["municipio",-10.215505186873191],["financier",-10.21550543015626],["problème",-10.215506245794588],["répond",-10.215567945475863],["gezet",-10.215575307814746],["fuerte",-10.215643291815478],["story",-10.215670189383097],["Comme",-10.21578049867663],["riesgo",-10.21578251717294],["Waar",-10.216264686364351],["debido",-10.216266262970358],["prévu",-10.217253835313478],["genoeg",-10.217327482610667],["raad",-10.218408172473392],["vari",-10.219792279770822],["2014",-10.219950543099793],["actuelle",-10.220210526761052],["conflict",-10.220815848639273],["guerra",-10.220829996712412],["imagin",-10.221151205562144],["among",-10.221196404193307],["Iran",-10.221620751231235],["vorm",-10.222712515752528],["shot",-10.224231429615173],["político",-10.224370500422868],["viene",-10.225215591314768],["bijna",-10.22554151797368],["positiv",-10.225994273757554],["milieu",-10.22617010968011],["manier",-10.226539574107733],["gezien",-10.226553601468389],["accione",-10.226729065566484],["migra",-10.227162345102968],["souhait",-10.227968035049312],["septi",-10.228194296215431],["third",-10.228275482255878],["école",-10.228574370834076],["Cela",-10.229116529183813],["capacidad",-10.229727904727145],["menor",-10.231024361366188],["ejemplo",-10.231520472985041],["attack",-10.231526330355369],["Chris",-10.231674690779789],["Tim",-10.231677662638388],["mayoría",-10.232569582185242],["further",-10.23332678634996],["regular",-10.234855200613932],["industria",-10.2350622475196],["éni",-10.235350182369118],["strong",-10.23541284126272],["enkele",-10.236035181667372],["original",-10.236750937284052],["funciona",-10.236770610180237],["jornada",-10.236919293040458],["significa",-10.237180914184426],["formation",-10.237790049019745],["Nigeria",-10.23872134429342],["mensaje",-10.238763022965212],["sterk",-10.238944046575305],["pues",-10.239135321198836],["clima",-10.239489601668396],["hausse",-10.239513227877183],["expected",-10.239618792624086],["direction",-10.239739912135457],["stelling",-10.240175637255593],["factor",-10.240416764529416],["acompañ",-10.240520544272243],["évrier",-10.24052953243958],["Juli",-10.24351305027633],["Robert",-10.243917959282218],["Amerikaans",-10.24430855366418],["lancé",-10.24439605801117],["volver",-10.246190862166419],["Some",-10.246711334068454],["rapide",-10.24681787981456],["prêt",-10.247007995913972],["Merc",-10.247361021228404],["ature",-10.2477944472461],["measure",-10.247883992616568],["soutien",-10.248663563209139],["constat",-10.248995890369917],["Luis",-10.249537193886999],["adelant",-10.24997793230829],["region",-10.25032918959407],["challenge",-10.251450054433267],["arro",-10.251871337161532],["érer",-10.251880818949747],["permis",-10.251943038937835],["écrit",-10.252067018565004],["2015",-10.253199142045291],["montre",-10.253224751413505],["Instagram",-10.253279454360026],["heden",-10.253794828701828],["pez",-10.254680539062445],["véhicule",-10.255114315102455],["presencia",-10.25513209024118],["decidi",-10.256517400703647],["politiek",-10.257847775023176],["migrant",-10.257920894799256],["recurso",-10.258763033964378],["account",-10.260993899105866],["Arm",-10.26142266892547],["carte",-10.261550777227953],["export",-10.261978215954628],["fille",-10.26230162658588],["Ram",-10.2630816466271],["état",-10.263394616257742],["réussi",-10.264659668607365],["poll",-10.265314886599771],["plaza",-10.26603368464334],["security",-10.266197629951446],["Martin",-10.267521757226246],["bedrijven",-10.268053573890993],["ground",-10.268272515433924],["explos",-10.268296792888538],["auteur",-10.269297677566403],["kijk",-10.269539287192913],["ernández",-10.269915893065434],["practic",-10.270036088997884],["exemple",-10.270677230341011],["llement",-10.270919943487888],["importanc",-10.271428264895512],["traslad",-10.271492104225098],["raise",-10.27176500136898],["lien",-10.271855255468878],["objectif",-10.272049040620084],["terwij",-10.27220253032189],["affect",-10.272250959429595],["scherm",-10.272255229212519],["39",-10.273275239819743],["œuvre",-10.273651053848836],["donner",-10.274082122519147],["deliver",-10.27494081409415],["spécial",-10.27552416032001],["dicho",-10.275859862029625],["iana",-10.276131182470206],["Villa",-10.277278315724468],["hotel",-10.277470774877415],["weinig",-10.27758239304331],["octob",-10.27782392118376],["straat",-10.27793354307694],["lucht",-10.278259086142974],["entrega",-10.2783451114026],["familiar",-10.278736004153885],["instala",-10.278739168686826],["défi",-10.280112404788413],["World",-10.281167443355791],["gegeven",-10.28138995069121],["retrouve",-10.281396584346748],["stead",-10.2819640823758],["Camp",-10.283653373433392],["complic",-10.283833119432144],["gestion",-10.284080874450403],["invasi",-10.284226958994823],["insist",-10.284337310952521],["49",-10.284907751815943],["líder",-10.285165880272139],["tenga",-10.286000223605399],["boek",-10.286137597036628],["armée",-10.286573221166583],["trouvé",-10.286834200764043],["bied",-10.287678843785786],["exact",-10.2878230186966],["Sport",-10.288364797172843],["gedaan",-10.28848314085008],["spoke",-10.289549600615672],["reason",-10.290044855382897],["following",-10.290075577118206],["hoop",-10.290390055183071],["Star",-10.290525391554814],["travers",-10.290581100874444],["discus",-10.29250854139799],["profesional",-10.29253684362234],["dinero",-10.292890425562621],["ataque",-10.29320471068932],["romp",-10.293343219258727],["propuesta",-10.293392608226863],["RE",-10.293654741619218],["Carlo",-10.294607248020561],["defend",-10.296053749817228],["steun",-10.296138157657623],["propio",-10.2963723428836],["policía",-10.296515677307838],["straf",-10.297046626791282],["vond",-10.297696501987982],["earning",-10.2978283615533],["Qatar",-10.298292181499798],["tuvier",-10.299184670725658],["titud",-10.299851785373747],["champion",-10.300184462706396],["Even",-10.300565262575923],["permettr",-10.30121943226451],["Final",-10.302224132229961],["exam",-10.302818721566261],["utant",-10.303364445895612],["coût",-10.304106835518681],["residencia",-10.304244393419141],["fri",-10.304772889721683],["woon",-10.305054657564234],["événement",-10.305972725595542],["grow",-10.306594202165792],["argent",-10.306818739963688],["communiqué",-10.307912137637022],["%)",-10.308168707505203],["modern",-10.308267497282353],["memor",-10.308949251908318],["encontrar",-10.309386898384014],["vanaf",-10.31107564015038],["economic",-10.311512662044905],["comunicado",-10.311665798172566],["democra",-10.311809107438973],["environ",-10.312024426323102],["octubr",-10.313733770221067],["voetbal",-10.31376683301739],["amelijk",-10.313886945356082],["ionado",-10.315415335563882],["Australia",-10.315681531042046],["seizoen",-10.315693329442054],["billion",-10.315836062457917],["platform",-10.315974638653085],["adult",-10.317261097797566],["Kie",-10.317930546601927],["Durant",-10.318492485938364],["abandon",-10.318537170586795],["rôle",-10.319688667213466],["gebied",-10.319885850338462],["sufri",-10.320350732494639],["abilidad",-10.321132647858423],["Franc",-10.321184315026894],["économique",-10.321552465288693],["Ciudad",-10.321552894152795],["trokken",-10.321573378551168],["avril",-10.321577585181888],["beetje",-10.321701554805173],["pilot",-10.32213356036183],["Cast",-10.322258463711847],["gave",-10.323359169055774],["woman",-10.323502537884895],["lucha",-10.323670903678186],["scène",-10.323977578637903],["eigenlijk",-10.324120234503493],["safe",-10.324170888884453],["organisatie",-10.32548663811161],["develop",-10.326112802766339],["groei",-10.326764126449605],["operation",-10.327143843697431],["confirmed",-10.327481252211719],["parole",-10.329240917836966],["Santa",-10.329283212906084],["44",-10.330200081116898],["identific",-10.33063004497608],["aak",-10.33099093717775],["torno",-10.331075817071667],["comenz",-10.331298728583443],["precis",-10.331909521582336],["adopt",-10.332068348678616],["gesteld",-10.332079134929476],["Cri",-10.332744125539495],["estará",-10.332891174353728],["William",-10.333398546250454],["accu",-10.3341563770819],["sprak",-10.33417297509368],["walk",-10.334179142200755],["evitar",-10.334927937949693],["previous",-10.335387263509125],["spite",-10.336418813695769],["aille",-10.336427478990078],["kree",-10.336770579249198],["comprend",-10.337276023428837],["riz",-10.337358554929406],["wait",-10.338380101661134],["difficile",-10.339374655248978],["April",-10.339587827480871],["Cap",-10.339940273154998],["rival",-10.34049074198649],["necesario",-10.3413777633471],["Albert",-10.341971791618098],["concentr",-10.342264893742588],["sería",-10.342312281155344],["Mundial",-10.343378865467935],["vroeg",-10.34338129314677],["weken",-10.344279194937998],["supuesto",-10.344484361732427],["finance",-10.34527426229138],["strict",-10.345279100518365],["compañía",-10.345386672086804],["futuro",-10.34541010959854],["vragen",-10.345419276642069],["izada",-10.348451771956325],["46",-10.34876975945189],["provoc",-10.348786080960597],["Policía",-10.349416907459606],["suspect",-10.349493626215637],["Door",-10.349524829682721],["empez",-10.350360117143051],["agres",-10.350774209447163],["dood",-10.350890053768332],["training",-10.35220902137334],["print",-10.352893079542302],["realidad",-10.35293412108844],["experiencia",-10.353459369873349],["vidéo",-10.353479136894375],["shop",-10.3542706491781],["worth",-10.35466633944544],["televis",-10.355328240966518],["Rob",-10.355339053575147],["médica",-10.355543021522458],["outside",-10.356155799754461],["nega",-10.356158404256872],["recherche",-10.356574754932556],["́",-10.357520284621575],["troisième",-10.357522122383918],["ecember",-10.357532881983555],["Tro",-10.357924232202953],["kopen",-10.358274331920184],["unique",-10.358703413738661],["concert",-10.359700391799414],["ferme",-10.360476609194125],["iano",-10.360987710770747],["eeuw",-10.361404806080383],["reciente",-10.361742968822853],["Commission",-10.362139984413977],["Prime",-10.362257329906793],["estamo",-10.362986702410954],["internet",-10.363793407764968],["check",-10.365041897782827],["matter",-10.365309753356215],["potential",-10.365693988795082],["député",-10.365695108955885],["acusa",-10.36600858295187],["fiets",-10.366647939677055],["conoce",-10.366874148861072],["Niet",-10.367692624315143],["companies",-10.367746464017017],["privé",-10.368069001285662],["strateg",-10.368195737938946],["progress",-10.368601417255904],["gewon",-10.369348863722692],["According",-10.369803016320187],["proche",-10.369916064824022],["building",-10.370301535557626],["dossier",-10.370373134427577],["elling",-10.371444004903296],["ssement",-10.372330506719496],["priorit",-10.373175596999783],["cimiento",-10.37385919867485],["Bank",-10.374778927279412],["forward",-10.374788318300649],["neem",-10.375518620222028],["rule",-10.375958755842877],["conocido",-10.376196594107633],["aumento",-10.376836723107818],["47",-10.377343985975703],["extend",-10.377398917224887],["leiding",-10.377918627737515],["application",-10.378076447610082],["défense",-10.38016009803476],["développement",-10.38062177203644],["ejecu",-10.380719988959264],["atoire",-10.381780144327324],["cita",-10.381952469698987],["entrée",-10.382233516154447],["°",-10.38223832114424],["comunica",-10.38245908520307],["Tri",-10.383054682405675],["trav",-10.383368981726807],["victoire",-10.384329047898344],["gracia",-10.384519062362148],["pareja",-10.384614873883436],["elimina",-10.385017383411348],["prijzen",-10.386419248184122],["schuld",-10.386730510713665],["corrup",-10.387847347367483],["increment",-10.388694131690357],["logique",-10.38890549343074],["idée",-10.388989210670386],["understand",-10.389043763605324],["step",-10.390231452094756],["province",-10.390622682606713],["jeux",-10.391697919433481],["económica",-10.392720631367961],["énergie",-10.392721701813254],["argument",-10.3927233031384],["average",-10.39358309599912],["avantage",-10.394757025165937],["Google",-10.39484281237566],["posibilidad",-10.39495195114893],["cabeza",-10.39500141615721],["prevent",-10.396418875351316],["issant",-10.396696944400004],["ayant",-10.396990005299774],["doctor",-10.397392201467179],["gelede",-10.397704651444757],["igné",-10.397870423034254],["promis",-10.398983673715795],["ajouté",-10.399126522951658],["trabajar",-10.399606696259134],["ministère",-10.401186920923903],["livre",-10.401564146907383],["libera",-10.401857219267022],["nomina",-10.402197369305227],["Plan",-10.402501357772767],["overheid",-10.403939828454986],["añadi",-10.405305428197217],["probleem",-10.405454549303506],["août",-10.40546046347422],["mobilis",-10.40563427083981],["ujo",-10.405857238252189],["viaje",-10.407577175765578],["speak",-10.407849410945593],["respuesta",-10.40802125959937],["maintenan",-10.408031752710393],["construction",-10.408712832231597],["étude",-10.408731378199041],["relation",-10.409131246999412],["individu",-10.409496178079348],["Club",-10.409741192367362],["vandaag",-10.40975282162899],["impuls",-10.40976783932786],["involve",-10.409814210050946],["double",-10.409856919762102],["vrijdag",-10.41007383017374],["Nicol",-10.411311747825188],["revis",-10.412361335134154],["gosto",-10.412429085545304],["Parti",-10.413897392441857],["cepti",-10.414006640588166],["necesidad",-10.414023430760562],["veilig",-10.414034736155472],["restriction",-10.414511882393764],["inicio",-10.41516614401344],["infection",-10.41533810283849],["América",-10.41617588721117],["voiture",-10.41618789229909],["libér",-10.416240769652987],["campaña",-10.418351580612011],["suspend",-10.418374900574769],["America",-10.419267930973362],["Nord",-10.419678221661586],["ruimte",-10.419728000283849],["camino",-10.420823046744793],["raakt",-10.421362526198225],["prensa",-10.421455149665217],["concret",-10.421652694777038],["explicó",-10.422669345637413],["klaar",-10.422975162940283],["blij",-10.42317919813397],["bomb",-10.423523202545297],["manière",-10.423785262791228],["interna",-10.42405716591831],["harm",-10.424251701328208],["autour",-10.426323902489274],["Johnson",-10.426760903146164],["Louis",-10.427586749386538],["falleci",-10.428175883009867],["celebr",-10.428900641923413],["regering",-10.429654225693318],["difícil",-10.433586512277332],["response",-10.433587516586348],["association",-10.433594788449195],["commis",-10.434337597598663],["luc",-10.434835432462766],["fast",-10.435145197629167],["regres",-10.435690452856672],["Hospital",-10.43578449484589],["princip",-10.436878003799283],["nosotros",-10.43721863435383],["aquí",-10.437230318536002],["movie",-10.437388955174292],["estadounidense",-10.437986924867012],["ducación",-10.438244457025847],["Conseil",-10.438257953418912],["suivi",-10.438263965927035],["zul",-10.438469301635983],["propia",-10.43858484713575],["instant",-10.43872327040306],["aplica",-10.439517636655548],["assembl",-10.44044411090416],["indique",-10.440629539687063],["amigo",-10.4407947585261],["medical",-10.441333666253682],["industr",-10.442208979763016],["résultat",-10.442406822350808],["condicione",-10.442504285947683],["institu",-10.442505483874534],["clara",-10.443570925313342],["cifra",-10.443751596567116],["target",-10.44426687607342],["launch",-10.444411014045478],["disfrut",-10.444625640846736],["trekken",-10.445191121587742],["vecino",-10.44552740651123],["medic",-10.445571053705123],["figura",-10.445911692320667],["beteken",-10.446083266780956],["verkeer",-10.44617668203702],["ontwikkel",-10.446846375536204],["connaît",-10.446846646473109],["miembro",-10.446852706479074],["Amazon",-10.44686285446242],["édition",-10.44690244277745],["zondag",-10.446925345736501],["reçu",-10.446947876829274],["claro",-10.44821260056468],["Center",-10.448616367980923],["tivas",-10.448635144493027],["concept",-10.449011383895794],["organise",-10.44907022796292],["California",-10.449073508227094],["Amsterdam",-10.44907351465908],["coordina",-10.449267821687613],["leuk",-10.450569575840976],["cancel",-10.450909637460786],["energía",-10.45133222595058],["morning",-10.453786420237687],["carrière",-10.454498825500043],["„",-10.455784939840067],["miljard",-10.455798913422107],["Afrique",-10.455809029053096],["cumul",-10.457544377701783],["profession",-10.457700486647575],["Emmanuel",-10.458032140859796],["behind",-10.458066482257168],["verdad",-10.458396874799458],["serai",-10.458486013409699],["institution",-10.459037737984577],["consist",-10.459110664397175],["médico",-10.460289769042092],["commence",-10.460343582260503],["contrôle",-10.460372510073793],["website",-10.460407480616542],["palabra",-10.462605887909575],["trouve",-10.463813468534148],["officie",-10.464138954258082],["structure",-10.464824780177775],["Office",-10.46496602066232],["countries",-10.46509508621789],["sociedad",-10.465108047721884],["transfer",-10.465672454027557],["dispos",-10.465700072184344],["pandémie",-10.467071883111032],["zaterdag",-10.467073098865814],["village",-10.469318997756542],["character",-10.469350609402579],["address",-10.470429435178719],["Department",-10.471644615259798],["escuch",-10.471670748995738],["Salud",-10.471701331677231],["feature",-10.471802990944006],["conocimiento",-10.471822018013272],["arned",-10.472490881937485],["stijg",-10.472772383475524],["suggest",-10.473226684503505],["ministr",-10.473893530850468],["Central",-10.473934963514814],["betaal",-10.474280807765055],["pack",-10.474474019714899],["madre",-10.475148553310081],["criminal",-10.476211314264065],["sortie",-10.477604765014771],["funcionario",-10.478690194331557],["Cro",-10.481610798288756],["variant",-10.481759463584764],["complex",-10.481854120649107],["dicht",-10.48333401629096],["camera",-10.483380736605943],["hulp",-10.484435027985107],["600",-10.484761500659275],["track",-10.484835336268475],["technologie",-10.485400458434768],["violencia",-10.485422013502731],["lograr",-10.485460424615557],["ploeg",-10.48549140983515],["preuve",-10.485580982563313],["winning",-10.485656870788068],["entire",-10.487396487546505],["ambos",-10.4876229063124],["¡",-10.487714662383546],["woensdag",-10.487714729901315],["introduc",-10.487723811593682],["tribunal",-10.487900348865754],["génér",-10.487945554154972],["frac",-10.488906045836334],["vienne",-10.489022155845596],["Centro",-10.489270421970115],["development",-10.489784138012949],["threat",-10.490344982031125],["wapen",-10.490995060488547],["escribi",-10.491801264709185],["letter",-10.492150935210686],["Poetin",-10.49242176250909],["suivr",-10.492713219654668],["gún",-10.49371194064243],["regula",-10.494334245505048],["Venezuela",-10.494691431943444],["farm",-10.495047146583058],["respet",-10.495429480634485],["gevolg",-10.495673535221002],["Wij",-10.496016722791438],["vivienda",-10.497028689512696],["populair",-10.497036146548034],["vlieg",-10.497171389440165],["poca",-10.497177041131613],["completa",-10.497306116636546],["August",-10.497483922091083],["detail",-10.497907419887744],["igna",-10.49798510378701],["estableci",-10.498237009862006],["history",-10.49994942621983],["senior",-10.500297572475915],["programma",-10.50059619942204],["avanza",-10.500662670798981],["materia",-10.500810614077396],["mannen",-10.501110531912023],["Jack",-10.501517162980736],["territoire",-10.501717251010696],["pesar",-10.50210921785517],["ojo",-10.502398287735467],["Social",-10.504235383525117],["mantener",-10.504299238613221],["surprise",-10.504608971566984],["Group",-10.505095355168265],["moyen",-10.505702347536383],["febrero",-10.506428760202617],["décidé",-10.506714668601592],["update",-10.50754025542042],["delito",-10.508332389047151],["detect",-10.508541914670358],["Michael",-10.508817475616656],["acceso",-10.508819392199165],["seguido",-10.508886999350704],["session",-10.508934729410456],["kabinet",-10.508968139254087],["plazo",-10.509501813583018],["maandag",-10.511267980409027],["correspond",-10.511487494342653],["resid",-10.511504435088687],["professionnel",-10.511512477930932],["East",-10.512114650081237],["alcalde",-10.512223404032722],["strijd",-10.5127311481493],["succès",-10.513537721302754],["employee",-10.51472864315675],["incluye",-10.514823648952369],["James",-10.515286104277507],["virtual",-10.51593491512111],["rekening",-10.51627301376016],["planne",-10.517460941309533],["façon",-10.518306789912387],["constant",-10.519461296006803],["violent",-10.519493257503196],["ahí",-10.520411595096547],["lutte",-10.521704034876153],["situatie",-10.52185980433757],["sanction",-10.52312400409259],["único",-10.52312539205488],["block",-10.523145085385861],["district",-10.523326181549841],["debate",-10.523622264824038],["luz",-10.524630739872375],["invita",-10.525202459874162],["leave",-10.52546447807488],["Suisse",-10.52562107943001],["error",-10.526144648621981],["reunió",-10.526178382242948],["Lors",-10.527124421652795],["Street",-10.527974578919983],["emment",-10.528033731941829],["Michel",-10.528315034008633],["dirigi",-10.528721813156796],["article",-10.529034317263225],["communication",-10.530326189069772],["attention",-10.530338486751088],["White",-10.530391495433374],["mencion",-10.530618555720423],["Direc",-10.532633883796118],["alrededor",-10.53274877702508],["ocupa",-10.532881732722133],["betalen",-10.53299569536459],["safety",-10.53303019710944],["anticip",-10.533113793644919],["golpe",-10.533643926668603],["ingreso",-10.533963429713362],["enfermedad",-10.53517777565969],["jugar",-10.537372984894983],["ística",-10.537742047078499],["drop",-10.5382345150159],["girl",-10.538294970104252],["donne",-10.538710266559146],["intérêt",-10.54004524663984],["Putin",-10.54014996458235],["pendiente",-10.54047173505878],["bloque",-10.541062994001818],["clave",-10.541594469703853],["diferencia",-10.542490322072446],["customer",-10.542490446112875],["grootste",-10.542656212121141],["draai",-10.543117507321051],["School",-10.544946221557801],["plataforma",-10.544950857363148],["Service",-10.544988705011491],["cuanto",-10.545227706003466],["diploma",-10.547398989626043],["eleccione",-10.547759456436497],["location",-10.547801640648096],["preocupa",-10.54791396550641],["Ante",-10.548105081315132],["Play",-10.54923784116831],["slachtoffer",-10.549861799363795],["technique",-10.549863250218564],["benefit",-10.549866122715367],["drama",-10.54987578013002],["lijst",-10.550239085620486],["efecto",-10.550493319159447],["ukrainien",-10.551818795459194],["800",-10.552033469836758],["económico",-10.552330430023304],["black",-10.55260316032587],["visible",-10.552909936351234],["Amb",-10.55308042151648],["significant",-10.553151803707397],["achtig",-10.553493958069645],["iPhone",-10.554806365646103],["passage",-10.554813063978534],["cantidad",-10.555040671186534],["begon",-10.556897099820553],["vehicle",-10.557288588221223],["AFP",-10.557490493806373],["pieza",-10.559462539480197],["possibilit",-10.559783391358383],["explain",-10.559789411677851],["victoria",-10.559909503361931],["http",-10.560015647275932],["participant",-10.560430642411092],["sistencia",-10.560495848086425],["graag",-10.560634602508674],["Blanc",-10.560725533825284],["urban",-10.560869959501066],["echnology",-10.562268597584424],["œ",-10.56476331159018],["mundial",-10.564769555390427],["exploit",-10.564770847178497],["Liga",-10.565004068855075],["Francisc",-10.565516993617257],["avion",-10.565683657063321],["sûr",-10.56601679635892],["legisla",-10.566255107459545],["scene",-10.567085412928396],["gobernador",-10.567397173974301],["fourni",-10.568711171186816],["motivo",-10.568829041682376],["dépend",-10.569638657286816],["enorme",-10.569754840045807],["lógica",-10.569787516667898],["George",-10.56979467325717],["inflación",-10.569809640454878],["authorit",-10.569861953788307],["Defens",-10.570049660588474],["blessé",-10.570488355462665],["ciencia",-10.572287586705283],["Philip",-10.572307445479442],["placé",-10.572508432654644],["ciudadano",-10.572977558284713],["apoy",-10.574651971882371],["permanent",-10.574881547654073],["choisi",-10.575956035129007],["Peter",-10.576997280780512],["qualité",-10.577424215016867],["encourage",-10.577560136514515],["combina",-10.578124616148964],["développ",-10.579331440490696],["commercial",-10.579903195712241],["brief",-10.580576374015656],["effective",-10.58085385903589],["fuente",-10.581301438678732],["hôpita",-10.582445889473501],["outbreak",-10.583533613699565],["immer",-10.583651578211564],["chiffre",-10.584998127224113],["kwart",-10.585488527641143],["Japan",-10.586328166530652],["liggen",-10.586513885513071],["citoyen",-10.587594323851881],["potencia",-10.58765911769206],["haciendo",-10.587723216367786],["foot",-10.587844971815231],["européenne",-10.587981913344763],["honor",-10.58827084101992],["comparti",-10.58834535742451],["totaal",-10.58855565378001],["manager",-10.590604900917885],["explor",-10.592713101509867],["machine",-10.592732617691837],["bericht",-10.59299260425997],["moeder",-10.593164580093042],["fraud",-10.593282093630338],["voyage",-10.594433651270165],["High",-10.594772957101016],["Netflix",-10.595266281420374],["cœur",-10.595270750072695],["dinsdag",-10.59533059582422],["winkel",-10.59547363605484],["noticia",-10.595504967623505],["humain",-10.595937361342],["usual",-10.595962721386993],["régime",-10.597102955907456],["decisi",-10.597144054544124],["halve",-10.597834757392771],["película",-10.597850255443216],["lógico",-10.597853152883076],["compromiso",-10.597857663428195],["principio",-10.59797116026364],["protection",-10.598669515901475],["corps",-10.599999452672495],["private",-10.600450799860884],["ningún",-10.600571506743215],["mobile",-10.600714855283346],["passion",-10.600825275853607],["Daniel",-10.60100326911066],["pping",-10.60130741288921],["Casa",-10.602256258326605],["geweld",-10.602589406046473],["pequeño",-10.605648132443285],["initiative",-10.610872138366243],["beleid",-10.611001358234539],["interior",-10.611852137180243],["Constitu",-10.613496404424318],["negocio",-10.61349745217474],["atteint",-10.61350586005927],["zaam",-10.613872382043464],["initial",-10.613967455220774],["colabora",-10.61401990536315],["peine",-10.614157107019537],["investigation",-10.614165612169693],["chief",-10.614858819901713],["fabric",-10.615278863786052],["Januar",-10.616279326828021],["terrorist",-10.616387905739693],["nombreuse",-10.620013751937584],["ruta",-10.621010627002732],["moeilijk",-10.62141442729355],["fundamental",-10.621420976652134],["habría",-10.621430419785511],["stoppe",-10.621557764829781],["Green",-10.62164590723629],["push",-10.621666018876349],["apport",-10.621815227352425],["baisse",-10.623587166807809],["honderd",-10.624572415303593],["doive",-10.626903670263145],["tension",-10.627813877944579],["Ville",-10.628509562024872],["ología",-10.628601895628423],["Texa",-10.62927902014705],["Israel",-10.629400099648539],["volledig",-10.629407177087188],["science",-10.629573518795638],["intégr",-10.629725021495519],["kamer",-10.631089968019161],["broke",-10.63197238781056],["modo",-10.632117141434257],["Italia",-10.632264589480144],["Twee",-10.632323486571604],["verhaal",-10.632593813400872],["Antwerp",-10.634745089470803],["Pierre",-10.63493384370879],["nécessaire",-10.637433265987791],["Barcelon",-10.637434768038819],["titular",-10.63744059887607],["comercial",-10.637445048583494],["publié",-10.637445504262615],["donderdag",-10.637473838215644],["Smith",-10.63748927444875],["longue",-10.639121810745149],["Federal",-10.640133065501395],["serious",-10.640153799098453],["emergenc",-10.642513241736538],["Oekraïens",-10.642831351124649],["Colombia",-10.642831437003938],["commission",-10.644922595241123],["Onder",-10.648145499882913],["próxima",-10.648258770064222],["gesprek",-10.64826923590109],["disease",-10.648275337057393],["Rutte",-10.648439564469964],["richting",-10.648580108678424],["venture",-10.649528522920033],["victim",-10.650034657234393],["fédéral",-10.650983671290248],["gauche",-10.65125863089007],["uiteindelijk",-10.65151633902073],["implica",-10.652516048427762],["ouverture",-10.653908841819094],["brind",-10.65492582367657],["siete",-10.656190363208825],["sanitaire",-10.656462952017922],["puerta",-10.656520812512476],["father",-10.656905716280903],["Maroc",-10.657081913053402],["Pac",-10.65805157463085],["Oliv",-10.65845434859326],["territorio",-10.659202922687802],["boeren",-10.659371005953556],["matière",-10.659946189532256],["schijn",-10.660557448613243],["makkelijk",-10.661958425275547],["ongeveer",-10.661959683835125],["International",-10.66244850865283],["admit",-10.66282489521118],["ologie",-10.662880781787043],["earlie",-10.663114638241856],["entrada",-10.663244830722647],["fútbol",-10.664720142602928],["cijfer",-10.664732297869636],["otte",-10.66499082196279],["covid",-10.66527841712286],["Lim",-10.66599071082133],["executive",-10.66749016661181],["Manuel",-10.667749014432825],["gratuit",-10.667794694161747],["Euro",-10.667806798869798],["wood",-10.6697535569795],["pudo",-10.670007301083722],["paciente",-10.670291635203554],["única",-10.670315431162543],["Ministr",-10.670325009788574],["veille",-10.671680167481686],["evalua",-10.671849164737843],["welke",-10.672133828323705],["periodista",-10.672209447843645],["patron",-10.673554822980174],["elemento",-10.674881308207123],["Israël",-10.675846709516291],["técnico",-10.67584715638688],["Después",-10.67584716755752],["siguiente",-10.67584719275214],["communauté",-10.675849089708208],["tarjeta",-10.675859128245811],["analyse",-10.675997124385209],["entrevista",-10.676991161746706],["immediate",-10.678648263971112],["transition",-10.678716161724475],["amount",-10.678989789368512],["write",-10.679217186713363],["abinet",-10.681238316430957],["expérience",-10.681456819264323],["Republican",-10.68147710190931],["amenaza",-10.681504209343752],["Emp",-10.681613775480205],["naissance",-10.681627031835397],["élève",-10.6817433314994],["práctica",-10.684273742710147],["économie",-10.68427526815644],["quartier",-10.68427931630044],["People",-10.684319089644145],["Bill",-10.684590954616594],["middag",-10.685050291524092],["río",-10.685729767202295],["particulière",-10.687098711242772],["influence",-10.68710251757033],["pratique",-10.687142351993444],["istisch",-10.687853914260074],["llowed",-10.688970099759988],["pull",-10.689884466480796],["September",-10.689931439120382],["modèle",-10.689933388086173],["bezig",-10.690109794220913],["rock",-10.69014960316743],["crecimiento",-10.690416899662111],["roman",-10.690811799169975],["bourg",-10.691219101295307],["wrot",-10.691610200782307],["league",-10.69420336873424],["Mosco",-10.694275478203402],["agenda",-10.694926071041781],["Municipal",-10.695621354128736],["Novemb",-10.695636474048161],["style",-10.696385930523974],["dreig",-10.696704753003065],["reserva",-10.696893734205114],["solidari",-10.697569825858494],["approach",-10.69847909827561],["Congreso",-10.698480150616362],["efectiv",-10.69849010386556],["institucion",-10.699950136933056],["gebracht",-10.701347814071138],["Pedro",-10.701348422124072],["Octob",-10.701350995905006],["pool",-10.701385078311759],["secretar",-10.702070461548022],["ampoco",-10.702914852914716],["finish",-10.704197325691325],["committe",-10.704218304729682],["personnage",-10.70423964713611],["shoot",-10.704698678215873],["kilometer",-10.707099463115703],["Chief",-10.707520125542867],["discussion",-10.710072446395145],["study",-10.710086515255949],["âgé",-10.710313505723807],["música",-10.71288800030785],["publiek",-10.712888150038292],["duizend",-10.712889250654177],["accè",-10.712927946679336],["souligne",-10.71302734008886],["escala",-10.713055805780051],["iège",-10.713187664580236],["sitio",-10.71578738244619],["Universidad",-10.715795269686602],["République",-10.715802466806565],["contain",-10.717714293717215],["seguro",-10.717989954434605],["máximo",-10.718710384338895],["distinto",-10.718734203162056],["habrá",-10.718789038520079],["college",-10.718957600905608],["Coupe",-10.719069310599739],["pension",-10.719622638387875],["sosten",-10.721266624119048],["vuelta",-10.72168870821952],["kaart",-10.72236622088252],["República",-10.722493307953709],["quotidien",-10.724566976857185],["précédent",-10.724566990089873],["construir",-10.724568682001467],["inaugur",-10.724569012680174],["defensa",-10.724767041218469],["subsid",-10.724910025769235],["secret",-10.724978305279738],["atrice",-10.727240514555625],["présence",-10.727538388801051],["móvil",-10.727588558815814],["bepaald",-10.727713188569716],["leider",-10.727912519747676],["precie",-10.729435020365957],["advise",-10.730036869134672],["movimiento",-10.730463775205074],["protocol",-10.730641885911691],["white",-10.731024985207608],["Civil",-10.733441484246065],["schedule",-10.733450767369819],["oferta",-10.733792407108034],["toekomst",-10.73388312175049],["systeem",-10.736384217126215],["analyst",-10.736402659933717],["Thomas",-10.736406555564365],["daily",-10.737222651115346],["pakt",-10.739113261908187],["Ç",-10.739360070106567],["différente",-10.739467744614679],["acept",-10.739994762028111],["klimaat",-10.742345711986168],["album",-10.742545431498765],["attempt",-10.742555754622092],["centrum",-10.743099032874682],["Mexic",-10.7431361094834],["camion",-10.743581598015616],["représente",-10.745699914371173],["peti",-10.745813175349358],["consecuencia",-10.748342159916016],["multiple",-10.748510920024962],["cuestion",-10.748805340136432],["Mill",-10.74907850835799],["growth",-10.74926479978745],["Champions",-10.75135474255369],["différents",-10.751451942109268],["aught",-10.754293285438528],["circuit",-10.754377664111631],["nummer",-10.754394443874979],["situé",-10.755008104982712],["époque",-10.755331340341645],["kilómetro",-10.757405927619153],["quality",-10.757446723971235],["Duitse",-10.75821337539843],["Oost",-10.759931513237047],["esfuerzo",-10.760445549662116],["mouvement",-10.760445815132197],["éxito",-10.760456439294908],["advoca",-10.76201457087081],["Vladimir",-10.763493959224585],["discrimin",-10.76349421065699],["libertad",-10.763494514354832],["emploi",-10.764103046760537],["aprovech",-10.76452520771791],["engage",-10.765179484679592],["européen",-10.766046560719072],["título",-10.766553583288726],["continent",-10.76660640046896],["verdachte",-10.766754138436184],["wanne",-10.767907471374702],["Consejo",-10.769619821067268],["specific",-10.769743713673158],["Bueno",-10.771249823698758],["sibili",-10.771909237418592],["geluk",-10.771926350559415],["Government",-10.772697386090544],["draw",-10.773004566874235],["propert",-10.773990538589064],["responsabilidad",-10.775782885732916],["alcohol",-10.775785193152629],["ochtend",-10.775787394120975],["essential",-10.775788218826133],["argentino",-10.775978885146525],["huizen",-10.776026209663687],["apareci",-10.776538858600402],["Senat",-10.7773211666359],["build",-10.778639738338086],["maatregelen",-10.778878905068904],["escuela",-10.778883884214782],["inflation",-10.778908716949406],["management",-10.778912536408445],["hoeft",-10.779468394228886],["justifi",-10.780075547010622],["tecnología",-10.781984525263162],["smartphone",-10.781986782020441],["Victoria",-10.78198849128745],["electoral",-10.78207561621376],["department",-10.782672054221045],["Français",-10.785099736584685],["étudiant",-10.78509977568227],["audience",-10.78510416410468],["contagi",-10.785127740105825],["relationship",-10.785196463663102],["iniciativa",-10.785270641827816],["ónica",-10.785818395101169],["accusé",-10.78593583536785],["eguridad",-10.787715821375498],["Montréal",-10.788235418932377],["judicial",-10.78823757684386],["organisé",-10.79155704849283],["monitor",-10.791635814565534],["Poutin",-10.791816191356663],["drink",-10.792460629926788],["volume",-10.794353299038754],["extrême",-10.79450416606785],["ístico",-10.7945276111383],["belasting",-10.794603753856222],["écran",-10.794760140231942],["debería",-10.795403958129512],["wife",-10.79714712078048],["quarantine",-10.79765882586396],["particulier",-10.797659299095631],["Antoni",-10.797694347401556],["example",-10.79780139326061],["studie",-10.798388431566316],["Arab",-10.798460421359529],["ified",-10.798739154435061],["papel",-10.79976522538745],["norte",-10.800420151259734],["incorpor",-10.800449408076133],["infrastructure",-10.800824608355809],["CEO",-10.800956333145582],["établi",-10.800980780991129],["década",-10.801340204803507],["mandatario",-10.801369970863606],["débat",-10.804759566871956],["Agenc",-10.806322872347458],["estructura",-10.807184045039094],["établissement",-10.807217452371955],["describe",-10.807227552835018],["ordinar",-10.809509412939926],["embr",-10.810096806579747],["experiment",-10.810378258042807],["plateforme",-10.810380366630586],["lluvia",-10.81040941914593],["shut",-10.811852530491327],["peligro",-10.813587019733557],["fácil",-10.8135899814713],["ménage",-10.813627651789098],["urgence",-10.813729422193537],["policy",-10.813739031457366],["enseigne",-10.813749909205196],["superior",-10.81429281131556],["idió",-10.8145529122047],["Florida",-10.81679860988141],["Association",-10.816799172583298],["Duitsland",-10.816799972666068],["règle",-10.816803512702727],["réalité",-10.816861160722391],["gression",-10.818522371225146],["regio",-10.818885781891659],["llamado",-10.819833828141846],["mediante",-10.819882698529728],["temperatura",-10.820023899487394],["Christian",-10.820026415210611],["necessar",-10.820030658996263],["juicio",-10.8200783514376],["inscrit",-10.820340332803454],["peuple",-10.82061637706628],["corpora",-10.82135258922944],["impose",-10.822036140530788],["symptom",-10.823260181209342],["déroul",-10.823262197986061],["negocia",-10.823274459478757],["Blue",-10.823551939415816],["establece",-10.823781470666415],["approche",-10.824318884843871],["conférence",-10.826506870424577],["compagnie",-10.826506880768566],["recogni",-10.826507160340107],["purchase",-10.826512837990887],["vakantie",-10.826513868079616],["environnement",-10.8265230243525],["daughter",-10.826645370752907],["fantas",-10.827142890269318],["status",-10.831034441961727],["différ",-10.832808645434188],["inflatie",-10.83304118345993],["disputa",-10.834218670571172],["relatie",-10.835072659912523],["sluiten",-10.835224471506473],["traîne",-10.836315692647158],["Disney",-10.836315805810132],["cinéma",-10.8363294561793],["secretario",-10.836709811753465],["positif",-10.837046476654685],["actri",-10.838822507735],["bénéfici",-10.839600336357464],["expliqué",-10.839600336877142],["Même",-10.839605879018393],["justicia",-10.839778833380521],["analiz",-10.840069802325804],["street",-10.841046858984857],["exprim",-10.841921908687016],["mexicano",-10.842900687630618],["crypto",-10.84290130013104],["diputado",-10.84290294234152],["Cruz",-10.842915703483573],["aspir",-10.843698075799743],["paraît",-10.845849990014031],["addition",-10.846198415808715],["chaîne",-10.846217633261567],["blessure",-10.846261935287522],["Justice",-10.84630272764774],["waarschijnlijk",-10.849534286124527],["voorzitter",-10.849538081185909],["ificación",-10.849777605027908],["relative",-10.85335334553299],["extensi",-10.855716028770793],["discut",-10.856787493993544],["nouvel",-10.858594158888076],["officielle",-10.859493233125722],["compañero",-10.859567701167963],["canadien",-10.860520566817232],["elukkig",-10.86053118955854],["áli",-10.86098150865551],["verkiezing",-10.862934711298708],["distinta",-10.862935790748468],["north",-10.863123566589781],["rechaz",-10.86319342420618],["bereik",-10.86347286802068],["Á",-10.866292337988334],["africain",-10.866314079944042],["cuidado",-10.866331047114564],["découvr",-10.86652793594794],["veiligheid",-10.866588347725619],["Director",-10.867922467326053],["etapa",-10.868841574932258],["treatment",-10.869724118648222],["estrategia",-10.869725859250597],["oplossing",-10.86978044377188],["critique",-10.871756281179765],["categoría",-10.87310431842456],["réponse",-10.873107503899773],["Miguel",-10.873127203094395],["impression",-10.873182142005135],["suficiente",-10.876517301839467],["ziekenhuis",-10.876517534022792],["dizaine",-10.876549104394861],["tranquil",-10.877083206994609],["mitad",-10.878455370878193],["ivité",-10.878716511353012],["vér",-10.879143363113577],["brough",-10.880033274148591],["travailler",-10.880749762998331],["€™",-10.883381437173146],["étape",-10.883426168129738],["défini",-10.886322979437601],["storm",-10.88681732982429],["commerce",-10.887189587279936],["emergencia",-10.887248943289748],["facile",-10.887835720322272],["clusion",-10.888357672807002],["défend",-10.890319764819171],["Jim",-10.891726195200382],["gevon",-10.891744422497283],["activist",-10.892609821721933],["struggl",-10.893763776663146],["sentiment",-10.893978533357945],["alleged",-10.894154281556029],["libro",-10.894412838433434],["trimestre",-10.897246209483125],["conflit",-10.897257200106447],["Fernand",-10.897403897676533],["ticket",-10.897489465530155],["estimate",-10.897690967398407],["above",-10.897832183294963],["buurt",-10.898188175363138],["Congress",-10.898541871975327],["témoign",-10.900753010168863],["torneo",-10.900767081265208],["Scott",-10.900902529388695],["certifica",-10.90142201419532],["tendre",-10.902384893585566],["motiva",-10.904410445449566],["relevant",-10.904514151982678],["ceremon",-10.904545564466307],["interpret",-10.904762813410663],["pedir",-10.90664769408343],["usted",-10.90726942906172],["Fiscalía",-10.907769796304649],["Festival",-10.907770149975772],["Public",-10.907772144643285],["ibilidad",-10.907966006260423],["Council",-10.911304661921154],["mauvais",-10.911307292531864],["thousand",-10.911312831871356],["Brussel",-10.91144829461765],["nchester",-10.91318806096247],["obstant",-10.914876609193552],["Certain",-10.915044410150571],["crowd",-10.917461246545908],["domicili",-10.91840844582893],["commencé",-10.918412958332059],["instrument",-10.918420225169982],["Ángel",-10.918421634220877],["spraak",-10.918500280795978],["natuur",-10.918567264280256],["héro",-10.919061576040622],["acudi",-10.919268876143937],["François",-10.921979570900264],["complète",-10.921979649233371],["véritable",-10.921983015088998],["diffus",-10.921990869218838],["maintain",-10.923439359333198],["muziek",-10.925564531953817],["affiche",-10.925844278026442],["ignor",-10.926071443436445],["empleo",-10.926130903631861],["Bruxelles",-10.92916102833032],["conference",-10.929162181320834],["medewerker",-10.929163214560866],["élément",-10.92924707642551],["Angeles",-10.929484103182117],["historique",-10.932771237364346],["domaine",-10.932833893438467],["extreme",-10.933080132064237],["escrito",-10.934006421808357],["kieze",-10.934443149500206],["emiti",-10.93478938990252],["gemiddeld",-10.935157343497465],["pedido",-10.935210801910308],["opinion",-10.936145581440645],["script",-10.936361984112],["Groningen",-10.936398526188608],["excellent",-10.936400511045116],["rápida",-10.93653746077809],["gezegd",-10.93675781210726],["announc",-10.939318744779186],["ouvrir",-10.939808069423766],["habilita",-10.939827268977087],["kampioen",-10.94003064109746],["policial",-10.94027912024806],["Rodríguez",-10.943680217805325],["continúa",-10.94368082471832],["referencia",-10.943732294178085],["impuesto",-10.943906761894926],["éviter",-10.944180894566525],["propag",-10.944617683929179],["afhankelijk",-10.947343224958558],["Capital",-10.94737641516248],["collection",-10.948125824315863],["ogró",-10.948862566749842],["aanwezig",-10.951021595270884],["cámara",-10.951021892752209],["dolor",-10.953684660850413],["protec",-10.954064360368292],["Verenigd",-10.95474897291258],["symbol",-10.954951838726814],["frère",-10.954954182919487],["urgent",-10.955281868501073],["Valencia",-10.95850071964866],["Nueva",-10.958609169990916],["eventual",-10.961392974634707],["ö",-10.962130904779148],["liberté",-10.962132251905292],["episode",-10.96214951908237],["conversation",-10.962175844263907],["gelegd",-10.962532665544085],["dirigente",-10.962799267408233],["supplémentaire",-10.965862248063052],["absence",-10.965872614567509],["spirit",-10.965915318937245],["picture",-10.965944803673924],["Hong",-10.966012027365501],["compensa",-10.967821477402714],["maximum",-10.96960756644483],["israélien",-10.969608991539733],["représentant",-10.969660960688952],["finaliz",-10.970553800738996],["avoid",-10.970810210793704],["utiliz",-10.971359391989118],["pakken",-10.973456558810277],["Jorge",-10.973787845410643],["clasifica",-10.975447698527077],["Secretar",-10.976937024203455],["£",-10.977140549816689],["médecin",-10.977142543996113],["Prince",-10.977293117003885],["Río",-10.977472827646992],["object",-10.98039098519731],["geschr",-10.98082352718545],["occident",-10.98092962793318],["helft",-10.981041605331203],["partenaire",-10.981117761552444],["annual",-10.98124147001538],["résidence",-10.98473610883125],["chargé",-10.984862684666322],["bereid",-10.984943812053244],["militant",-10.985182128307244],["dirige",-10.986061234763728],["pretend",-10.987429606756466],["establish",-10.988556307320973],["Richard",-10.98856543389817],["Justicia",-10.98856958206428],["llí",-10.992160362242053],["artículo",-10.992378944164205],["criminel",-10.99242990827202],["Suprem",-10.992647632900344],["calific",-10.998076282431715],["gesprok",-10.998677623245364],["Ayuntamiento",-11.000086099498247],["physique",-11.000086103021273],["souligné",-11.000087450639619],["evidence",-11.000088502045285],["Nieuw",-11.000090074860204],["incendio",-11.000097608143061],["sommige",-11.000154721440751],["aquello",-11.001601213661278],["identifie",-11.003937716926451],["functie",-11.003964153468726],["investissement",-11.003964795185802],["keuze",-11.004033175359197],["Malgr",-11.00490319155595],["frustra",-11.005579037819023],["physical",-11.007853145926852],["Carolina",-11.007853758751985],["connaiss",-11.007938373670346],["Cámara",-11.011760218402252],["London",-11.011930361962676],["ventaja",-11.011947935220409],["software",-11.015683569547331],["citizens",-11.015684576490516],["vigil",-11.01620856416713],["propriétaire",-11.01961793998034],["dependencia",-11.019665982991384],["climatique",-11.019984875444369],["Administra",-11.019994774727168],["Chicago",-11.02357251034106],["husband",-11.023574807862325],["essentiel",-11.023639561691507],["numero",-11.023686152416202],["sostuv",-11.02419002777376],["stimul",-11.025488208877551],["attract",-11.027104210466355],["Ejecutivo",-11.027538749207912],["januari",-11.027538821813854],["étranger",-11.027547534530118],["Gabriel",-11.02765953657519],["locatie",-11.027686695901032],["empleado",-11.030145549448953],["herramienta",-11.031522838421932],["woordvoerder",-11.031522891774474],["edificio",-11.031522930877301],["convertir",-11.031596823335944],["gagner",-11.031620673556455],["contexto",-11.031658394402674],["recommend",-11.03171844890301],["bastante",-11.035687918451917],["innovati",-11.035896513608314],["compétition",-11.039538876661837],["vulnerable",-11.0395388796764],["ucraniano",-11.039538890643453],["Ligue",-11.039700591016448],["revealed",-11.043572671976746],["empêch",-11.043578246977443],["Pablo",-11.043582994547403],["estrella",-11.043951934500445],["geleid",-11.046443666259242],["engagé",-11.047663198138348],["descend",-11.050350308419798],["bâtiment",-11.051684766248014],["Microsoft",-11.051684774417744],["pièce",-11.051687202517776],["council",-11.05169662596726],["épisode",-11.051710266860802],["faudra",-11.051719362264553],["verschil",-11.051789350148155],["pouvai",-11.052363497263487],["emocion",-11.053382408432991],["inderda",-11.055358825974416],["Rotterdam",-11.059864792112126],["oficina",-11.059955299112016],["wrong",-11.059960114893528],["majeur",-11.060278393096855],["máxima",-11.063979981877951],["ejercicio",-11.06397998301502],["numérique",-11.063980002297741],["término",-11.063981200044424],["Provincia",-11.063982078652707],["caída",-11.063994948820095],["conscient",-11.06401377460276],["présidentielle",-11.06402263407063],["rendimiento",-11.064044127368511],["junta",-11.06509461166919],["Zelensky",-11.06811221672534],["supply",-11.068130515360501],["competencia",-11.068158882282232],["rêve",-11.070456622313984],["pérdida",-11.072261750561484],["recomend",-11.07236670577122],["coloca",-11.074380184032957],["schakel",-11.074808043162673],["électrique",-11.076428275731242],["género",-11.076429159513324],["triunfo",-11.076430937151589],["Vlaams",-11.076432804893596],["pressure",-11.076736872369494],["fresh",-11.07675757239742],["Zuid",-11.076868396713824],["derrota",-11.07689766631168],["segura",-11.078796519694329],["provincie",-11.080612571286535],["procè",-11.080893287577844],["crash",-11.08104930245678],["posicion",-11.08206124015198],["diálogo",-11.084814051153984],["électrici",-11.084814096783644],["atteindr",-11.08481510212977],["faisai",-11.085590989207653],["network",-11.085909499640874],["faisant",-11.088434261786546],["Kremlin",-11.08903405081616],["voldoende",-11.089113033272401],["cyber",-11.089151488318802],["Algérie",-11.09327564597146],["annul",-11.093617707983071],["intérieur",-11.097527085705169],["function",-11.09753180850663],["vertrouwen",-11.097533257182203],["prohibi",-11.097568509234288],["amarilla",-11.097571131704374],["spectacle",-11.101800243796525],["nommé",-11.101945381977323],["agricultur",-11.102026124834993],["alternative",-11.106091684846042],["verantwoordelijk",-11.10609213422331],["register",-11.106675053410894],["Meanw",-11.108052848221522],["accompagne",-11.110401747193746],["disminu",-11.110418280495356],["simul",-11.110569682276651],["cuente",-11.11202782492027],["Martín",-11.11469087103358],["judiciaire",-11.114731263404206],["Puerto",-11.114766498907757],["VVD",-11.114769639434915],["sucedi",-11.117120401034192],["Servicio",-11.119078671099913],["twijfel",-11.119094557580064],["nucléaire",-11.123445389077304],["combustible",-11.12344540461848],["teléfono",-11.123445405953394],["Alejandr",-11.123445456142843],["Guardia",-11.123447863051188],["bevolking",-11.123453156489509],["pequeña",-11.123456887854232],["plainte",-11.124229629071445],["Sénégal",-11.12783173558378],["necesaria",-11.12783413192405],["podium",-11.127871097894516],["Minnesota",-11.132236640208445],["manufactur",-11.132236675986546],["condamné",-11.132238178537008],["abogado",-11.132290810446193],["England",-11.132310113036851],["Media",-11.133573033713052],["schrijft",-11.136662942640523],["klanten",-11.136721609907871],["colonia",-11.136794870745575],["crítica",-11.141105967246341],["collaboration",-11.141106919057869],["increasing",-11.141107757946722],["Cultura",-11.14111378607352],["González",-11.145570148513496],["knowledge",-11.145571874057477],["offensive",-11.14557673245547],["abierta",-11.14558105763913],["successful",-11.145607657049336],["cuál",-11.146111316824172],["Obrador",-11.15005490493563],["Ajax",-11.150088485404998],["muerto",-11.150142693348904],["Elizabeth",-11.154558972417721],["Santiago",-11.154559452378319],["abierto",-11.154596764865534],["contamina",-11.154679635071489],["hâte",-11.155696016057838],["página",-11.159083958506962],["física",-11.15908439396491],["Tribunal",-11.159084708256827],["temperature",-11.159088312558442],["arbeid",-11.159268830215423],["financière",-11.163629348447348],["elektrisch",-11.163629381687922],["déclaration",-11.163637242796504],["gehaald",-11.16393761690539],["olvid",-11.167918921759378],["º",-11.168195509415408],["futbolista",-11.16819552574897],["persoonlijk",-11.168195551968886],["vluchtelingen",-11.168196332602363],["tráfico",-11.168196916180504],["bevestig",-11.168201019206753],["foreign",-11.168255583129387],["multipli",-11.17208832224794],["protagonist",-11.172782724466867],["omgeving",-11.172807709532705],["britannique",-11.177390961708262],["régulière",-11.177390961722502],["illustr",-11.177399229262825],["Program",-11.177449359717846],["reflect",-11.177456997686663],["stikstof",-11.182021364663857],["funcione",-11.182073748906648],["voormalig",-11.182077734285166],["departamento",-11.186672104670105],["Alemania",-11.186672347122201],["neutral",-11.186682217683874],["posterior",-11.186683712618343],["proporcion",-11.187022589179676],["Amerika",-11.19096288670939],["négociation",-11.196039488585868],["psycholog",-11.196053986941752],["frappe",-11.19713540313877],["responsabilité",-11.200756466760126],["hockey",-11.200765469418648],["equipment",-11.200784492986916],["Organiza",-11.20084857236888],["TikTok",-11.20549587374191],["técnica",-11.205496341316199],["subject",-11.2055035363894],["americano",-11.210257975619317],["mínimo",-11.210258833473816],["diseño",-11.210291951131481],["neighbor",-11.215042736411199],["bewust",-11.215046177783652],["profesor",-11.215051547983386],["venezolano",-11.219850127688314],["secrétaire",-11.219850368228569],["descubri",-11.219868605032852],["schrijven",-11.22468197412001],["governor",-11.224707359900219],["ktober",-11.224732318974086],["*",-11.22953537610314],["Portugal",-11.229535435741965],["étrangère",-11.229535454280198],["telefoon",-11.22953564725237],["supérieur",-11.22953567779329],["carretera",-11.229541208906312],["convainc",-11.229600985380223],["relacione",-11.234347229467676],["cérémonie",-11.234413431463544],["burgemeester",-11.234413486533027],["extérieur",-11.234413537729424],["waarschuw",-11.234413606410778],["Espagn",-11.234421033362867],["numéro",-11.239315440551763],["siècle",-11.239315935430433],["conferencia",-11.239316115618971],["dispositivo",-11.239321432219125],["blood",-11.239412562341313],["Academ",-11.244494608751634],["statut",-11.244976836483064],["podem",-11.248051925952886],["maatschappij",-11.249191989097959],["izquierda",-11.249191997862052],["YouTube",-11.24919222205794],["Rafael",-11.249204143864494],["craft",-11.250080517882397],["énergétique",-11.2591671141],["kwaliteit",-11.25916727605691],["propiedad",-11.259168454332535],["Christmas",-11.259172561615275],["Management",-11.259174238780979],["dochter",-11.259179097382574],["•",-11.26419223909808],["consommation",-11.26419232957064],["minimum",-11.264192783938423],["croissance",-11.26419363904812],["Misschie",-11.264235969799648],["quatrième",-11.269242777386772],["Occident",-11.269242880316853],["dubbel",-11.269299797475286],["strength",-11.274319173065905],["velocidad",-11.274319282760352],["museum",-11.274325447232611],["exterior",-11.274325936412556],["occupe",-11.274335660817709],["Tijden",-11.274341827728286],["sancione",-11.275533596520823],["difference",-11.279420936258962],["célèbre",-11.28454913567088],["horizon",-11.284579595872495],["occupation",-11.289703781256268],["électoral",-11.289706639293783],["Pública",-11.29488512318192],["histórico",-11.294885127301352],["infraestructura",-11.294886647285137],["domicile",-11.2948887187835],["perspective",-11.300093560102283],["stratégie",-11.300093708169076],["dialogue",-11.300093768636621],["entrepreneur",-11.300093827962712],["geschiedenis",-11.30532905439614],["eléctrica",-11.305329062354865],["moitié",-11.305341410982958],["Président",-11.31059276491925],["NAVO",-11.310594991312577],["exhibi",-11.310626275816855],["réclam",-11.31117428591681],["ntertainment",-11.31588370144311],["reflej",-11.315963554154576],["satisfac",-11.316390435172353],["eléctrico",-11.321202371767786],["búsqueda",-11.32120237342533],["Assemblée",-11.326549959683831],["architect",-11.326550012829294],["obvious",-11.33192636602353],["límite",-11.331926876950188],["toernooi",-11.331927179706645],["voorlopig",-11.331929244278182],["síntoma",-11.331931053793113],["référence",-11.333301047293727],["cultiv",-11.333831983060552],["instruction",-11.337334951435619],["holiday",-11.337335649648441],["acceder",-11.337353488308475],["qualifie",-11.337494814716626],["madrugada",-11.342766499526999],["scientifique",-11.348230973524803],["catégorie",-11.348231007516732],["financië",-11.34823101158586],["célébr",-11.348231106211689],["lichaam",-11.348232798785446],["component",-11.348258707203396],["dénonce",-11.34832562040879],["competitiv",-11.348471027007706],["Grupo",-11.353733243808705],["appartement",-11.353735134855604],["vereniging",-11.353739142128175],["supplie",-11.353767456589424],["grève",-11.364806201478686],["trouvai",-11.364846887230707],["accompli",-11.365042817179535],["procédure",-11.370392513650442],["volunteer",-11.370393590659647],["incredibl",-11.370401427304884],["ndroid",-11.370505668533282],["Hollywood",-11.376010472055341],["Afrika",-11.376029489613874],["manipul",-11.376039264801667],["professeur",-11.381660214863697],["Business",-11.381661611453067],["Governor",-11.381664322463589],["solucione",-11.382188624762554],["Committee",-11.387342025888422],["enseignant",-11.38734236645686],["adquiri",-11.38785960440665],["Desarrollo",-11.393056308323313],["exercice",-11.393057689932537],["Argentin",-11.39597718776374],["período",-11.398803987900148],["Canadien",-11.398864859710493],["aproximada",-11.40458376044895],["ucraniana",-11.404583781949253],["FIFA",-11.40458442139455],["procedure",-11.404585886119829],["domestic",-11.404588723438188],["extranjero",-11.410397960197628],["ámbito",-11.4103981362295],["Investiga",-11.410399102125462],["akkoord",-11.410400940078311],["verkocht",-11.416246718420684],["advantage",-11.416247384646375],["olympique",-11.42212802111478],["considéré",-11.42212819817409],["Afghan",-11.422128912302615],["advirti",-11.422168309358756],["viendra",-11.42219443664506],["température",-11.43399761626331],["invloed",-11.43399927014219],["característica",-11.439985586787211],["réfugié",-11.439985587404083],["beschikbaar",-11.439985588380841],["involucr",-11.439986971372857],["porcentaje",-11.439987262796144],["Taylor",-11.439988741801585],["honneur",-11.439992217027438],["responsibilit",-11.446009681387812],["getroffen",-11.446013187111385],["Sebasti",-11.446013763413308],["Público",-11.45207028935193],["responsibl",-11.45207048243357],["relacionado",-11.452071276082863],["relève",-11.458329583433772],["aéroport",-11.464302897030645],["occupé",-11.464303003943638],["dimension",-11.46430826183305],["procedimiento",-11.470475660141169],["surveillance",-11.470475666897045],["fotografía",-11.476686838415286],["orgullo",-11.476687526975635],["colectivo",-11.476687752701547],["Departamento",-11.482936859558432],["Coronavirus",-11.482937019826988],["beslissing",-11.48293711747315],["associate",-11.483096489916058],["démocratie",-11.489226144870752],["homicidio",-11.489226169850959],["espectáculo",-11.495555258776877],["améliorer",-11.495555259076694],["Virginia",-11.495555261592955],["alternativa",-11.495555545004656],["omstandighe",-11.495611375647456],["Canadian",-11.501924838263788],["boodschap",-11.501925519101498],["Ecuador",-11.5019258912297],["Christophe",-11.501942305242181],["múltiple",-11.508334941947389],["disciplina",-11.508334954541537],["patiënten",-11.514786558988288],["Uruguay",-11.514786565775417],["phénomène",-11.521280061327818],["asielzoekers",-11.521280061951103],["qualifié",-11.521280105187385],["intéressant",-11.521280149064655],["Djoko",-11.52128024171073],["americana",-11.521280735144309],["réduction",-11.521280789424242],["efficace",-11.52128080251598],["Federación",-11.521281171569878],["̀",-11.527816009022793],["approximate",-11.527816009028374],["accompagné",-11.527816009028562],["Georgia",-11.52781603185257],["werknemers",-11.527816156725759],["histórica",-11.534394993434086],["Joseph",-11.534395404489192],["nteligencia",-11.534395883135486],["vacacion",-11.536640026612599],["basketball",-11.541017492816323],["consommateur",-11.547684184121714],["convirtió",-11.547684290055928],["comfortabl",-11.547911893062764],["Pakistan",-11.554395605617518],["professor",-11.554395669866754],["pénurie",-11.554395708983474],["petróleo",-11.561152306328594],["Anthony",-11.567955124017356],["Ukrainien",-11.567955294283568],["religieu",-11.56813809253142],["beautiful",-11.574804756686909],["diagnostic",-11.581700895331405],["collègue",-11.581700899478486],["ambulance",-11.581701120943361],["episodio",-11.588645543807981],["colombiano",-11.595638348146535],["discipline",-11.602680606482215],["órdoba",-11.60268081012732],["negotiat",-11.602771175366787],["québécois",-11.609772807017201],["Windows",-11.616915764876817],["appropriate",-11.62410990120555],["attorney",-11.624109940189326],["Escuela",-11.624110212496195],["Protecció",-11.62424112188317],["desafío",-11.638655677829881],["Feyenoord",-11.646008563260702],["mexicana",-11.64600856807475],["científico",-11.65341589486318],["compliqué",-11.653415900036823],["Luxembourg",-11.660878581078961],["stratégique",-11.66087862531954],["immeuble",-11.668397387332137],["législative",-11.683606726580301],["proximité",-11.691299031696145],["Fédération",-11.691299036188886],["respirator",-11.691301183348031],["gouverneur",-11.699050978960601],["acquisition",-11.699050996238894],["Fundació",-11.699636801627683],["aprobació",-11.703295145227312],["circumstance",-11.706863469002332],["Ó",-11.714737484750241],["bénéfice",-11.71473749150145],["´",-11.722673992686751],["pprovisionnement",-11.722673993070536],["bruxellois",-11.72267399549473],["Atlético",-11.730673998030067],["circunstancia",-11.738738508816443],["veroorzaakt",-11.738738512602367],["théâtre",-11.73873853639146],["perspectiva",-11.73874068743508],["vertegenwoordig",-11.746868591978558],["Québécois",-11.763329774291359],["propósito",-11.763329780525636],["sospechoso",-11.771663111917796],["Zaragoza",-11.77170395671436],["Ejército",-11.780066468952608],["ejército",-11.780066469979902],["délégation",-11.78854105285852],["Kirchner",-11.797088063347132],["específica",-11.797088074500223],["Philadelphi",-11.823176325391982],["Eindhoven",-11.832025890232597],["praktijk",-11.83202606991425],["compétence",-11.840954460077299],["circonstance",-11.868228687447791],["Brunswick",-11.89626770156218],["daadwerkelijk",-11.896267702376814],["protagoniz",-11.905793474265568],["flexibili",-11.906103042065029],["spécifique",-11.925115632801457],["Assembly",-11.925115633079644],["immobilier",-11.934919554213064],["diagnóstico",-11.95482054395202],["ä",-11.964921554052776],["Tamaulipas",-11.964921554076355],["circonscription",-11.96492155408709],["elektriciteit",-11.975125635763176],["démocratique",-11.985434914038885],["Pennsylvania",-11.995851580703118],["amélioration",-12.00637789657383],["Zimbabwe",-12.038638447755343],["incertidumbre",-12.049627458742911],["maatschappelijk",-12.049627458803299],["électronique",-12.071974524945917],["·",-12.13012978891122],["Î",-12.23084243103834],["˜",-12.299361303953312],["Í",-12.328139771862215],["ª",-12.50318484715903],["Ú",-12.57528618636563],["̂",-12.65299272326196],["₹",-12.673400886527265],[">",-12.694234219860599],["®",-12.71551081560528],["ã",-12.737249946040063],["¢",-12.759472168262285],["`",-12.805455254943045],["贸",-12.904296048296034],["¦",-12.957638864796746],["′",-12.957638864796746],["‚",-12.957638864796746],["²",-12.957638864796746],["️",-13.043399835851833],["″",-13.073702866154864],["Ÿ",-13.104952866154864],["ð",-13.104952866154864],["Ê",-13.170544264004327],["ø",-13.170544264004327],["×",-13.205027022625016],["Ñ",-13.2407413083393],["Ö",-13.44138481137411],["ğ",-13.637089983395072],["А",-13.637089983395072],["½",-13.637089983395072],["¨",-13.637089983395072],["т",-13.637089983395075],["❤",-13.692645538950629],["~",-13.692645538950629],["<",-13.751469068362395],["−",-13.751469068362397],["å",-13.751469068362397],["È",-13.813969068362399],["ş",-13.880635735029074],["﻿",-13.880635735029076],["ò",-13.880635735029076],["ђ",-13.880635735029081],["™",-13.951997405665715],["ā",-13.952064306457665],["ć",-14.028987383380786],["―",-14.028987383380786],["õ",-14.112320716714219],["ì",-14.112320716714223],["★",-14.303229807624353],["Э",-14.303229807624355],["ă",-14.303229807624355],["č",-14.303229807624358],["̈",-14.41434091873794],["ō",-14.41434091873794],["³",-14.414340918737942],["š",-14.414340918737942],["а",-14.414340918737942],["ʻ",-14.414340918737945],["с",-14.414340918737967],["Ü",-14.539340918747042],["▶",-14.539340918747046],["ᵉ",-14.539340918747046],["₂",-14.539340918747046],["‡",-14.539340918747046],["Ô",-14.539340918747046],["⁣",-14.539340918747046],["‎",-14.539340918747046],["Ў",-14.539340918747046],["ž",-14.68219806160419],["谩",-14.682198061644147],["¥",-14.682198061644149],["茅",-14.682198061644149],["̶",-14.682198061644149],["›",-14.682198061644149],["‑",-14.682198061644149],["Å",-14.682198061644149],["်",-14.848864728310804],["¬",-14.848864728310815],["ı",-14.848864728310815],["‰",-14.848864728310815],["‹",-14.848864728310815],["✅",-14.848864728310815],["Ä",-14.848864728310815],["ū",-14.848864728310815],["ń",-15.048864728310814],["Š",-15.048864728310814],["┬",-15.048864728310816],["】",-15.048864728310816],["₦",-15.048864728310816],["ē",-15.048864728310816],["【",-15.048864728310816],["е",-15.048864728310816],["⬇",-15.048864728310816],["г",-15.298864728270857],["İ",-15.298864728310814],["ﬁ",-15.298864728310816],["æ",-15.298864728310816],["‐",-15.298864728310816],["о",-15.298864728310816],["铆",-15.298864728310816],["¼",-15.298864728310816],["Ž",-15.298864728310816],["ל",-15.298864728310816],["煤",-15.298864728310816],["ѓ",-15.298864728310816],["ѕ",-15.63219806160419],["ု",-15.632198061644104],["म",-15.632198061644143],["У",-15.632198061644148],["Ġ",-15.632198061644148],["◆",-15.632198061644148],["מ",-15.632198061644148],["¯",-15.632198061644148],["क",-15.632198061644148],["±",-15.632198061644148],["і",-15.632198061644148],["¤",-15.632198061644148],["Œ",-15.632198061644148],["§",-15.632198061644148],["ę",-15.632198061644148],["¾",-15.632198061644148],["ß",-15.632198061644148],["─",-15.632198061644148],["ה",-15.632198061644148],["Ю",-15.632198061644148],["ߋ",-15.632198061644148],["➡",-15.632198061644148],["✨",-15.632198061644148],["у",-15.632198061644148],["ɑ",-15.632198061644148],["ा",-15.632198061644148],["➤",-15.632198061644148],["Ø",-16.132198061604193],["ĳ",-16.132198061604193],["တ",-16.13219806164411],["န",-16.13219806164411],["ș",-16.13219806164414],["ț",-16.132198061644146],["帽",-16.132198061644146],["Ъ",-16.132198061644146],["Û",-16.13219806164415],["├",-16.13219806164415],["†",-16.13219806164415],["✔",-16.13219806164415],["ु",-16.13219806164415],["Ľ",-16.13219806164415],["ာ",-16.13219806164415],["˚",-16.13219806164415],["स",-16.13219806164415],["♦",-16.13219806164415],["⚽",-16.13219806164415],["े",-16.13219806164415],["्",-16.13219806164415],["ţ",-16.13219806164415],["‒",-16.13219806164415],["ं",-16.13219806164415],["ý",-16.13219806164415],["י",-16.13219806164415],["✓",-16.13219806164415],["မ",-16.13219806164415],["ी",-16.13219806164415],["⭐",-16.13219806164415],["ि",-16.13219806164415],["₵",-16.13219806164415],["ו",-16.13219806164415],["▪",-16.13219806164415],["ȼ",-16.13219806164415],["ם",-16.13219806164415],["र",-16.13219806164415],["ड",-16.13219806164415],["℃",-16.13219806164415],["＊",-16.13219806164415],["☹",-16.13219806164415],["һ",-16.13219806164415],["н",-16.13219806164415],["⁠",-16.13219806164415],["І",-17.13109806164415],["☆",-17.13119806164415],["̧",-17.13129806164415],["Щ",-17.13139806164415],["င",-17.13149806164415],["ю",-17.13159806164415],["Ђ",-17.13169806164415],["ိ",-17.13179806164415],["̃",-17.13189806164415],["Ь",-17.13199806164415],["ł",-17.13209806164415],["ﬂ",-17.1321980616042],["Ā",-17.1321980616042],["အ",-17.132198061604235],["သ",-17.132198061644054],["ပ",-17.132198061644054],["ှ",-17.132198061644054],["ရ",-17.132198061644054],["ါ",-17.132198061644054],["Ō",-17.132198061644125],["ķ",-17.13219806164414],["Č",-17.13219806164414],["б",-17.13219806164414],["ż",-17.13219806164414],["ⅼ",-17.132198061644143],["ट",-17.13219806164415],["Þ",-17.13219806164415],["ြ",-17.13219806164415],["Ѓ",-17.13219806164415],["ỗ",-17.13219806164415],["ᥙ",-17.13219806164415],["ｅ",-17.13219806164415],["ḥ",-17.13219806164415],["त",-17.13219806164415],["घ",-17.13219806164415],["ņ",-17.13219806164415],["‼",-17.13219806164415],["⏱",-17.13219806164415],["ק",-17.13219806164415],["υ",-17.13219806164415],["ב",-17.13219806164415],["≈",-17.13219806164415],["‪",-17.13219806164415],["",-17.13219806164415],["Р",-17.13219806164415],["я",-17.13219806164415],["Ż",-17.13219806164415],["▌",-17.13219806164415],["נ",-17.13219806164415],["ě",-17.13219806164415],["Ï",-17.13219806164415],["ד",-17.13219806164415],["",-17.13219806164415],["օ",-17.13219806164415],["ʏ",-17.13219806164415],["य",-17.13219806164415],["☀",-17.13219806164415],["ن",-17.13219806164415],["球",-17.13219806164415],["ў",-17.13219806164415],["温",-17.13219806164415],["μ",-17.13219806164415],["ο",-17.13219806164415],["ᵃ",-17.13219806164415],["ļ",-17.13219806164415],["✍",-17.13219806164415],["ー",-17.13219806164415],["א",-17.13219806164415],["⏰",-17.13219806164415],["⚠",-17.13219806164415],["က",-17.13219806164415],["․",-17.13219806164415],["ʼ",-17.13219806164415],["Ј",-17.13219806164415],["њ",-17.13219806164415],["न",-17.13219806164415],["☝",-17.13219806164415],["",-17.13219806164415],["期",-17.13219806164415],["˝",-17.13219806164415],["ễ",-17.13219806164415],["Г",-17.13219806164415],["β",-17.13219806164415],["❣",-17.13219806164415],["➢",-17.13219806164415],["ည",-17.13219806164415],["暖",-17.13219806164415],["¹",-17.13219806164415],["❉",-17.13219806164415],["ע",-17.13219806164415],["☺",-17.13219806164415],["❗",-17.13219806164415],["ќ",-17.13219806164415],["ħ",-17.13219806164415],["⇧",-17.13219806164415],["ေ",-17.13219806164415],["ת",-17.13219806164415],["џ",-17.13219806164415],["化",-17.13219806164415],["ᴠ",-17.13219806164415],["ल",-17.13219806164415],["╖",-17.13219806164415],["қ",-17.13219806164415],["ř",-17.13219806164415],["ש",-17.13219806164415],["ब",-17.13219806164415],["अ",-17.13219806164415],["γ",-17.13219806164415],["д",-17.13219806164415],["⛓",-17.13219806164415],["⌘",-17.13219806164415],["Я",-17.13219806164415],["ွ",-17.13219806164415],["❌",-17.13219806164415],["ж",-17.13219806164415],["လ",-17.13219806164415],["静",-17.13219806164415],["Т",-17.13219806164415],["₁",-17.13219806164415],["⏩",-17.13219806164415],["श",-17.13219806164415],["₡",-17.13219806164415],["Ò",-17.13219806164415],["П",-17.13219806164415],["╕",-17.13219806164415],["α",-17.13219806164415],["Ё",-17.13219806164415],["ν",-17.13219806164415],["✊",-17.13219806164415],["地",-17.13219806164415],["☕",-17.13219806164415],["ဖ",-17.13219806164415],["－",-17.13219806164415],["ś",-17.13219806164415],["Њ",-17.13219806164415],["Ш",-17.13219806164415],["ġ",-17.13219806164415],["ς",-17.13219806164415],["צ",-17.13219806164415],["脕",-17.13219806164415],["默",-17.13219806164415],["च",-17.13219806164415],["ƅ",-17.13219806164415]]}}