{"version":"1.0","truncation":null,"padding":null,"added_tokens":[{"id":0,"special":true,"content":"<UNK>","single_word":false,"lstrip":false,"rstrip":false,"normalized":false},{"id":1,"special":true,"content":"<SEP>","single_word":false,"lstrip":false,"rstrip":false,"normalized":false},{"id":2,"special":true,"content":"<MASK>","single_word":false,"lstrip":false,"rstrip":false,"normalized":false},{"id":3,"special":true,"content":"<CLS>","single_word":false,"lstrip":false,"rstrip":false,"normalized":false}],"normalizer":null,"pre_tokenizer":{"type":"Whitespace"},"post_processor":null,"decoder":null,"model":{"type":"Unigram","unk_id":0,"vocab":[["<UNK>",0.0],["<SEP>",0.0],["<MASK>",0.0],["<CLS>",0.0],[".",-3.2501057789471357],["de",-3.2801872218874664],["en",-3.290430599807854],["s",-3.7109397939043767],[",",-3.9038576720049907],["e",-3.934948448978762],["t",-3.974738399307821],["van",-4.105407237882092],["in",-4.128595873235819],["een",-4.151824782194163],["het",-4.2047228310935],["is",-4.540205456414803],["op",-4.564533162035975],["er",-4.673398353613409],["dat",-4.674991116479703],["te",-4.680138092423389],["n",-4.713770274175605],["voor",-4.935539637222812],["d",-5.040772089927973],["je",-5.055821077262914],["met",-5.084353934815338],["zijn",-5.1089921983667015],["die",-5.144879393520995],["om",-5.151983731793987],["niet",-5.152963892046948],["aan",-5.196250395202979],["De",-5.232944292605648],["-",-5.254805531452947],["ge",-5.307518963430258],["al",-5.427667234551077],["uit",-5.520925267377782],["ook",-5.572212288372038],["als",-5.6078279390946655],["bij",-5.627764306154868],["ze",-5.644017906485628],["maar",-5.684231238681958],["k",-5.742068710533189],["ik",-5.794534273143277],["over",-5.802636236048709],["zo",-5.8481351869739395],["Het",-5.848156034282013],["nog",-5.85824050172023],["r",-5.858613011966479],["i",-5.863039176824239],["’",-5.864366084444811],["ver",-5.887603868475614],["dan",-5.901351002456783],["wel",-5.97961825866731],["be",-5.9874915930945445],["door",-5.990078184294482],["a",-6.00463702948754],["l",-6.015134983393944],["naar",-6.023383347450947],["p",-6.03058872541073],[":",-6.041724304346625],["of",-6.061771432806413],["m",-6.068784253793051],["heeft",-6.071932552143931],["o",-6.098251961848135],["'",-6.104158528508021],["was",-6.141549135664436],["na",-6.165533020873015],["meer",-6.190212879240285],["\"",-6.199737874669731],["(",-6.20243853278733],["g",-6.204561525354666],["?",-6.215076731821814],["we",-6.233468388309118],["hij",-6.235092140096471],["“",-6.260538122942966],["hebben",-6.265228102482464],["jaar",-6.268709983984683],["f",-6.276520859674116],["moet",-6.280669237346302],["ing",-6.320635051296275],["worden",-6.345819590547295],["u",-6.372771922585967],["waar",-6.372893404354983],[")",-6.382740876513534],["af",-6.382867283195168],["wat",-6.385534652900926],["on",-6.387780338072968],["kan",-6.393996114725702],["word",-6.404725883089524],["In",-6.431850445028793],["‘",-6.43828392234729],["z",-6.457136500066843],["A",-6.4877808536497295],["Dat",-6.490155421509163],["Ik",-6.505492972086625],["dit",-6.509259565698947],["y",-6.546880348081407],["daar",-6.5484018306519225],["onder",-6.550859733335054],["el",-6.5521744216373765],["S",-6.562489992909359],["zich",-6.5718799936538215],["nu",-6.592075721450909],["werd",-6.611117727631202],["tot",-6.615841974946349],["h",-6.6169528497564105],["veel",-6.64199506214827],["kunnen",-6.648272771393637],["geen",-6.652554518206145],["gaan",-6.683232436861591],["b",-6.683400156193857],["mee",-6.720001480801155],["Maar",-6.72704246952328],["En",-6.7373317219254325],["gaat",-6.741399508107948],["had",-6.747886820908747],["weer",-6.7493522443844265],["mensen",-6.749820163169323],["hun",-6.7506397331546175],["le",-6.754044940224562],["me",-6.7601067307609055],["K",-6.762440248413652],["1",-6.768250020032587],["B",-6.771510036878388],["tegen",-6.791955418638501],["zou",-6.7953157052365345],["dus",-6.82530582899492],["deze",-6.8383243873953665],["v",-6.839837043071841],["alle",-6.840161013030356],["c",-6.878379902675276],["Een",-6.91018338597391],["komen",-6.928652045865901],["haar",-6.9321354810731455],["C",-6.935435479788629],["P",-6.936760882599013],["man",-6.9376455757737405],["goed",-6.94376630363867],["E",-6.95545980060684],["land",-6.9648397665466115],["D",-6.97392776129918],[".”",-6.9805335014270415],["zelf",-6.99553634683437],["V",-6.996677987615652],["heb",-7.003583335505853],["twee",-7.011566591137098],["kom",-7.016894619964908],["tijd",-7.02447055580825],["2",-7.043008154443303],["G",-7.043835786585115],["T",-7.045015844912714],["toe",-7.06417041769105],["F",-7.07233663443791],["andere",-7.078947385848062],["w",-7.092722654411186],["doen",-7.093354567858218],["staat",-7.097084344645754],["weg",-7.105898424066398],["O",-7.107835570477267],["M",-7.116257209140016],["maken",-7.127782582779637],["krijg",-7.139812822175009],["nieuwe",-7.162864524587497],["wil",-7.1645454170084575],["20",-7.167386130301172],["We",-7.168459941778601],["ers",-7.169788655751795],["maal",-7.172276580550434],["toch",-7.173978170693308],["zal",-7.20350315219521],["Daar",-7.203866976492924],["hier",-7.208822884701321],["Als",-7.231427746171129],["”",-7.231600383206136],["volgen",-7.23384255371401],["lopen",-7.234474685376109],["Er",-7.2370858779902765],["vind",-7.237480717550822],["mijn",-7.24217061747586],["an",-7.249685958875991],["ie",-7.2684806751313715],["hoe",-7.275861102734087],["heid",-7.2789793993527905],["even",-7.293962506178],["heel",-7.2995200719495035],["uur",-7.30248566051328],["Van",-7.3040705431298445],["Ze",-7.305931781474231],["ter",-7.308008049824305],["I",-7.317353755565238],["zegt",-7.320403099604344],["per",-7.321694783831969],["W",-7.321953752233924],["zien",-7.3233121275546],["eerste",-7.32339500828142],["Ook",-7.333712078741746],["Op",-7.342109600542855],["hele",-7.342368840535829],["auto",-7.346268611727194],["R",-7.349229950464582],["Hij",-7.355507476396747],["3",-7.364227483002507],["tussen",-7.373107284769054],["ig",-7.374066753360153],["iets",-7.3744054738545675],["ur",-7.3753649985725005],["ro",-7.375681300162173],["ra",-7.391266520575326],["der",-7.397843808116962],["Zo",-7.39801668723144],["H",-7.403682766733569],["ons",-7.405053767321352],["N",-7.4075737823794965],["us",-7.414980029595683],["dag",-7.415566140182213],["Nederland",-7.424214408557536],["Die",-7.426656412988291],["5",-7.4386773058289375],["Je",-7.443050628015696],["echt",-7.443284051908605],["grote",-7.446090122710346],["alleen",-7.449623502677366],["houden",-7.454602105684735],["hem",-7.45655357519594],["terug",-7.459431974142244],["ma",-7.464769081643637],["ooit",-7.470913209340462],["procent",-7.478332832621296],["leven",-7.485470032122871],["”,",-7.492038642330734],["werk",-7.495161485079036],["!",-7.5010248971397875],["4",-7.505788516181233],["ken",-7.508432573054896],["euro",-7.524336537570531],["keer",-7.531719799089902],["kun",-7.535685469313733],["plaats",-7.548892013203766],["achter",-7.550178605316472],["zij",-7.552680836107334],["huis",-7.5632499190290385],["la",-7.563841159225124],["kwam",-7.570816722935503],["afge",-7.571745649313002],["L",-7.572357574525296],["or",-7.5763069879784934],["binnen",-7.584054733784419],["staan",-7.586508399175559],["net",-7.588247846384669],["altijd",-7.589125184500367],["eigen",-7.5971024803510065],["6",-7.602934848718533],["laten",-7.603595725879833],["geld",-7.605348606545388],["Dit",-7.610392371178336],["gewoon",-7.612565251624473],["waren",-7.620503300522436],["ve",-7.644925312655269],["j",-7.6473863818080225],["Voor",-7.650699866861573],["mogelijk",-7.65273245607917],["week",-7.654223574286811],["7",-7.656326807027008],["rond",-7.657072241135828],["lang",-7.657087376021013],["Na",-7.664209491028414],["minder",-7.68388000633054],["steed",-7.686907148419313],["8",-7.687523970410091],["ren",-7.688013749781404],["mij",-7.692374282199069],["lo",-7.703674186552985],["willen",-7.709765687052713],["politie",-7.710538469392657],["ben",-7.7154863867624215],["drie",-7.719218810442738],["onze",-7.720101083039606],["il",-7.720104067664878],["tijden",-7.734461109393617],["sch",-7.740636456698005],["Be",-7.745864190986242],["deel",-7.746760195204388],["ont",-7.749221953070823],["Met",-7.760874095820822],["onderzoek",-7.763505321269237],["wereld",-7.764697128719881],["leden",-7.7681933977985675],["Wat",-7.7772145538711275],["baar",-7.778654651900037],["ste",-7.786862205044593],["Al",-7.790590405564889],["gen",-7.79282435796314],["want",-7.796077699653532],["jaren",-7.796642698729294],["mo",-7.802995648905036],["ar",-7.805956443534634],["toen",-7.811632762380415],["he",-7.813734658922693],["atie",-7.814614778072658],["Bij",-7.815384654835699],["vol",-7.816562175669558],["moment",-7.8217564579814844],["mag",-7.8265733264971304],["Oekraïne",-7.828490018272539],["ja",-7.83041544588305],["nodig",-7.830699141819575],["geven",-7.8307323394259996],["gebruik",-7.832796189577368],["laatste",-7.834197534638245],["kinder",-7.834388652373135],["ging",-7.837789143379062],["één",-7.840824712041836],["ch",-7.842544150832787],["U",-7.846081860441501],["0",-7.8461110835507935],["Rusland",-7.858174624109133],["zit",-7.8594863938351835],["at",-7.862639266132133],["blijven",-7.8680822203566265],["weten",-7.868192603081199],["wij",-7.877827266894677],["nieuw",-7.878324842386872],["Volgen",-7.879191213361978],["laat",-7.881007049386195],["Russisch",-7.882483821392856],["len",-7.8927622402844],["eerd",-7.894844741978483],["nemen",-7.900564571541146],[".\"",-7.9016408453691565],["verder",-7.9029935769677895],["/",-7.9062984955323845],["ul",-7.908371396190191],["zonder",-7.909278235760639],["snel",-7.914176284359902],["voorbeeld",-7.921494226952877],["groot",-7.923080367841722],["energie",-7.92316978193893],["vier",-7.930726939025078],["samen",-7.933687019837935],["werken",-7.93717239084595],["avond",-7.937744328948262],["gemaakt",-7.941279096737019],["maakt",-7.9431180793696905],["li",-7.947095655603011],["Nederlands",-7.94954354547227],["ga",-7.952223976616347],["ri",-7.952423755991033],["ij",-7.95568991107903],["ut",-7.957792128497781],["jarige",-7.964945569630688],["aantal",-7.970977040035015],["000",-7.974674353929366],["Hoe",-7.977790192052129],["lig",-7.984967922697732],["Dan",-7.989564627665695],["zitten",-7.991353528577163],["ullen",-7.9915619393523345],["zeker",-7.993265961508127],["Le",-7.9946671183630365],["10",-7.994819358643341],["vond",-7.995159920372698],["oorlog",-7.996449047654309],["bekend",-7.998664183321265],["hand",-8.002510696725398],["licht",-8.004005073713977],["stad",-8.00589687378434],["9",-8.007111889321553],["202",-8.01219244232502],["weet",-8.014029208698904],["to",-8.015081210757657],["co",-8.016192334231507],["vast",-8.016989652776441],["gemeente",-8.01737136462541],[").",-8.020321356914977],["her",-8.021216486219629],["vooral",-8.02183142350544],["beter",-8.028279050199433],["vrij",-8.03223237757712],["bedrijf",-8.033348668093836],["elkaar",-8.038910860183629],["miljoen",-8.042050364904641],["zeggen",-8.044213249841404],["anders",-8.047163221457737],["19",-8.052544347905352],["mis",-8.056555801298437],["ck",-8.059080222716329],["bo",-8.066783730301925],["kon",-8.067314708340039],["eerder",-8.069926938119051],["neer",-8.07242328383989],["hoofd",-8.074832970767245],["slag",-8.07552564660281],["alles",-8.075966261848057],["ha",-8.086067838563288],["vraag",-8.086562276605273],["da",-8.088722565811857],["via",-8.089480399417358],["pen",-8.092110804879326],["vrouw",-8.094519405997968],["zorg",-8.095709777786011],["zelfs",-8.102408803462144],["it",-8.102565774004502],["Z",-8.11151131686498],["recht",-8.112220154697614],["gek",-8.113520130606094],["Zij",-8.118821840975887],["boven",-8.1189437796175],["blijft",-8.126320978231982],["doet",-8.128502979129731],["–",-8.129298430615895],["water",-8.129357278896663],["rij",-8.129437204701667],["men",-8.137567847734646],["eel",-8.139191748212362],["lijkt",-8.141048566620054],["pas",-8.143301508295123],["woning",-8.150308383518333],["ic",-8.15284762754257],["naast",-8.153404647908744],["é",-8.157405969229591],["vaak",-8.157507113831254],["di",-8.15818180800272],["um",-8.158908410045951],["Ja",-8.161742972224427],["soort",-8.163424703615963],["elijk",-8.165235949290286],["Om",-8.165497804517642],["zetten",-8.168495224050307],["hoor",-8.16997682916557],["gelijk",-8.170086376109836],["hard",-8.171446113722064],["Ver",-8.178310044596618],["ex",-8.180737734206751],["moest",-8.191773662155715],["buiten",-8.195841929853732],["erg",-8.205526605977184],["groep",-8.209765018888879],["ton",-8.211159130233359],["ag",-8.213474714131978],["pa",-8.218110745296725],["iedere",-8.219524155376114],["natuurlijk",-8.219631516153779],["Ge",-8.219662938115214],["corona",-8.225522661120861],["wedstrijd",-8.228860768901077],["Ro",-8.22945837922428],["x",-8.233747527947996],["zei",-8.234918115765756],["va",-8.235357639623338],["kijken",-8.243174410821176],["eerst",-8.244416861603618],["rol",-8.246146228033009],["app",-8.246431199989804],["prijs",-8.24674718864567],["ru",-8.246852019294547],["iemand",-8.247161999830029],["uw",-8.250627209798097],["duidelijk",-8.251318634560747],["sinds",-8.251544558639143],["partij",-8.254725396734852],["dagen",-8.256582961098339],["geef",-8.256656869783544],["wie",-8.25743464869174],["regen",-8.257621051540887],["go",-8.263235641444346],["gas",-8.265469773841563],["ven",-8.268754097496988],["later",-8.271372979938082],["juist",-8.274285749459885],["lijk",-8.276090832543376],["ster",-8.27870534168651],["denk",-8.278826251971395],["ce",-8.286103927707689],["Deze",-8.286627151571851],["genomen",-8.287212519160175],["ruim",-8.290835879097521],["ka",-8.291278985939968],["Re",-8.292214499693387],["breng",-8.292724662250833],["blijk",-8.292931881713805],["bouw",-8.293428170264875],["druk",-8.293751627503088],["ige",-8.297042135158794],["Sch",-8.299409046429773],["verschillen",-8.299696723172463],["30",-8.301721899346674],["po",-8.304571938705458],["markt",-8.304887032246253],["minister",-8.305620049582693],["ander",-8.312300585456754],["zie",-8.316259632150578],["paar",-8.317224004954461],["tjes",-8.31758406995492],["Ma",-8.320795028238434],["stond",-8.325346427243641],["tweede",-8.32555525116276],["Nu",-8.326844642519868],["landen",-8.333739307766091],["genoeg",-8.337656313743196],["vijf",-8.343857159243832],["manier",-8.349124282001508],["gezien",-8.349282975303991],["ling",-8.350645190345844],["Europe",-8.353231478681856],["goede",-8.353313111934437],["ca",-8.35623474897407],["maanden",-8.356403905487515],["stand",-8.356767123010934],["val",-8.357763308397267],["rijden",-8.357765403374932],["as",-8.360807050421913],["Amerikaans",-8.365059192721171],["St",-8.36677427234292],["extra",-8.367075514737916],["enkele",-8.367311524554058],["leg",-8.367567831103582],["ger",-8.369370817533753],["bijna",-8.375342796787038],["verwacht",-8.383715478433668],["kant",-8.388553622838204],["bedrijven",-8.388914748201326],["ol",-8.389228408989664],["best",-8.393003765463138],["sta",-8.396929772902045],["weinig",-8.397951693071949],["team",-8.398449841785194],["halen",-8.403276408450843],["gedaan",-8.40347513496369],["…",-8.405323355240363],["ber",-8.406315571967191],["%",-8.411015968525543],["wan",-8.412872364402837],["straat",-8.413137279932172],["tien",-8.413938680982305],["amelijk",-8.414664147105036],["brand",-8.415805249743286],["15",-8.418079630152626],["Of",-8.425019010276932],["hoog",-8.425989681613572],["woon",-8.426334601972968],["Waar",-8.42973020565993],["He",-8.435712876021551],["seizoen",-8.43606615465961],["reden",-8.43756354085978],["kree",-8.438770167867872],["gebied",-8.441512292018743],["beetje",-8.441976961493893],["for",-8.443840159373988],["eigenlijk",-8.447215107154047],["ingen",-8.449307531062889],["thuis",-8.449570918502099],["aar",-8.450283915368235],["geval",-8.453169060615469],["ho",-8.456672430084529],["media",-8.457134296502371],["meest",-8.457985140369415],["club",-8.459297529258738],["weken",-8.460295572734882],["start",-8.462953056034458],["oud",-8.465656320901399],["vragen",-8.465772340256658],["eind",-8.471020206085736],["stellen",-8.473699756885239],["ari",-8.476141536590529],["bel",-8.477988242856004],["grond",-8.47891831299738],["kans",-8.480440327390367],["weest",-8.481776947349703],["ische",-8.484281834714285],["meld",-8.487544174731582],["18",-8.488087283929143],["dood",-8.488130284260853],["am",-8.489441790841957],["rit",-8.491235772873486],["Door",-8.493340978591135],["neem",-8.494423862780122],["handel",-8.497638247861452],["beste",-8.497768426485308],["basis",-8.50158901888608],["foto",-8.502520384477048],["Europa",-8.502690629657199],["heden",-8.503777986528934],["maakte",-8.506397794738497],["prijzen",-8.507504041856873],["ziet",-8.507729190116947],["wege",-8.512868377286992],["gang",-8.516691675544521],["werkt",-8.520267542155429],["probleem",-8.525830040511906],["punt",-8.526892459985774],["Li",-8.52706176415773],["doel",-8.527352713806494],["maand",-8.527945751246776],["tie",-8.529134540904764],["overheid",-8.529975992217977],["vandaag",-8.530115606202875],["ci",-8.530407925056133],["La",-8.531319430433419],["EU",-8.53474058703766],["mogen",-8.534792809301761],["hi",-8.53487816926209],["plan",-8.535844341890044],["denken",-8.538061344107083],["vrouwen",-8.53860838593446],["kosten",-8.542546332292847],["problem",-8.543060368252874],["Dus",-8.543927696139777],["ruimte",-8.548586007950144],["gezet",-8.548821449540341],["regering",-8.549646142728792],["sport",-8.55193212296157],["acht",-8.55425165255749],["vi",-8.557525357015365],["vanaf",-8.558219542609999],["Niet",-8.559491830416889],["naam",-8.56183720734343],["Ha",-8.56299548785238],["beteken",-8.565155232189545],["zondag",-8.567323645005324],["mi",-8.570758261415598],["50",-8.572506880268133],["zoek",-8.573148790055106],["veld",-8.575355728053239],["miljard",-8.576168853448142],["zorgen",-8.581122044427568],["zaak",-8.581284255623572],["dienst",-8.58195615265374],["bi",-8.582112400860018],["elijke",-8.582840746129229],["middels",-8.584295422458327],["12",-8.584861711137469],["president",-8.587455650159065],["zaterdag",-8.587461580306204],["Mo",-8.589867208792047],["laag",-8.590878173471843],["mooi",-8.592610099115696],["vallen",-8.593611014286221],["plek",-8.59420093549721],["tra",-8.598674124838944],["regel",-8.600328865282815],["hoge",-8.601066202053167],["echter",-8.601889536488951],["vorig",-8.602781454296373],["school",-8.605086005011056],["ploeg",-8.605784272018795],["pro",-8.60789930468999],["kort",-8.607907770340848],["woensdag",-8.608098747890386],["J",-8.61104117010997],["Poetin",-8.61274659513428],["enige",-8.615611311550637],["oog",-8.61604025962794],["Lo",-8.616403402225444],["eert",-8.620067456199326],["Bo",-8.620115413651458],["langs",-8.620148479005184],["mannen",-8.620230202775188],["17",-8.620746655399493],["gevolg",-8.622567732863327],["nacht",-8.622967340012288],["kracht",-8.623467739132646],["Ar",-8.624754631548711],["kabinet",-8.626812714509851],["sche",-8.6280015105593],["ker",-8.628074409114483],["Wij",-8.628532411679911],["stap",-8.631621662479485],["maandag",-8.631897179293306],["„",-8.63630254705048],["rechts",-8.63787371290151],["terwij",-8.638304119059917],["ieder",-8.638804799330263],["bare",-8.639117206006215],["situatie",-8.641159952710245],["zat",-8.644032686157603],["isschie",-8.645497452763461],["vrijdag",-8.646672217469376],["hoger",-8.646780027050863],["bent",-8.647093330686774],["begin",-8.648322300106557],["stuk",-8.648885847101688],["Mar",-8.65111061033434],["belangrijk",-8.652569488758765],["betalen",-8.653174686883203],["zoude",-8.654525217845705],["oor",-8.654540403593515],["actie",-8.655002634496435],["hulp",-8.65538105192712],["direct",-8.655465943394184],["gesteld",-8.65743187156685],["rekening",-8.6597180290609],["familie",-8.660429193791408],["nieuws",-8.660714806218468],["grootste",-8.664205586188737],["spelen",-8.665480310202621],["aal",-8.665717369239072],["rest",-8.667349732137426],["00",-8.671488910137693],["Ba",-8.672182001702968],[";",-8.675189566098272],["graag",-8.675699188877998],["Is",-8.67856890780134],["los",-8.678644364344219],["bank",-8.679447737405692],["zin",-8.680303072697551],["lever",-8.68060053750396],["ba",-8.681240432556002],["idee",-8.68391395758341],["boek",-8.684529520587612],["voer",-8.68683489423],["16",-8.686955486771016],["kop",-8.688514632935574],["beeld",-8.694200203520523],["elke",-8.695156264263973],["bal",-8.695895757504406],["valt",-8.699101615424365],["On",-8.699138149228695],["liet",-8.703110396553846],["liggen",-8.703895902708624],["totaal",-8.709591876097786],["ier",-8.710228687013576],["leggen",-8.710750784948043],["gekomen",-8.71113240723076],["kel",-8.711547004090122],["sterk",-8.714042754023017],["gedrag",-8.71436914703365],["dinsdag",-8.715659741733134],["moeder",-8.715662158468032],["schap",-8.7173404490578],["200",-8.71788931265855],["Ka",-8.718602547628318],["Uit",-8.719162939501675],["Apple",-8.720989585856678],["won",-8.721112512028451],["25",-8.72278192190512],["eten",-8.723116967832887],["pers",-8.724472336111617],["delen",-8.72848043967733],["punten",-8.729771928364869],["strijd",-8.731032462585105],["beleid",-8.73245618566429],["voetbal",-8.73341169482156],["langer",-8.735610913242525],["houdt",-8.737247966690695],["moeilijk",-8.74179561927347],["Pa",-8.742206195439127],["gegeven",-8.742841561087804],["wer",-8.7430068526152],["wind",-8.74371484508363],["gebruikt",-8.74379551417751],["honderd",-8.744631886216121],["ko",-8.745312885482162],["Aan",-8.746130443147962],["voel",-8.747466650566647],["opge",-8.748921887000686],["volledig",-8.749848960620824],["Wel",-8.751862835455764],["Me",-8.752080907169855],["Wie",-8.752813069535126],["halve",-8.753689865040162],["fiets",-8.75420348588786],["aard",-8.754828219165883],["niets",-8.755273471490842],["olie",-8.756414884728423],["ot",-8.756532119830956],["vel",-8.757618152763431],["donderdag",-8.75785248706718],["est",-8.758458634673712],["verhaal",-8.759989128588325],["hoop",-8.761816049829045],["kamer",-8.76195770811934],["zaken",-8.762216653514855],["Oekraïens",-8.76321526415656],["rechter",-8.767699385876687],["veilig",-8.767954365708068],["vak",-8.76836793085906],["spel",-8.768389074800265],["ogen",-8.76900001119203],["richting",-8.769606507412139],["uiteindelijk",-8.773917275955064],["zomer",-8.775424732630814],["loos",-8.777221939544424],["einde",-8.779547744468886],["ongeveer",-8.782541714722287],["loopt",-8.78306641726861],["jij",-8.78344025664833],["cijfer",-8.785104147703894],["leef",-8.7851494528664],["Rutte",-8.785199244713674],["ijn",-8.785530588636469],["boeren",-8.787548122256784],["film",-8.787902761877339],["ou",-8.790625326218663],["steun",-8.790915567711924],["welke",-8.791358611551956],["21",-8.792658112892541],["programma",-8.79363712009207],["lijst",-8.794510811182136],["22",-8.796056865731273],["dicht",-8.796450091461512],["Hier",-8.797009106991098],["gel",-8.798885095367002],["ring",-8.798998034927198],["vers",-8.79916102962541],["lucht",-8.799208889176857],["organisatie",-8.80274798210107],["Ca",-8.803208288531636],["red",-8.803895260876455],["middag",-8.804832399298704],["The",-8.806940903993883],["rie",-8.808779808691014],["bezig",-8.810990179518225],["bied",-8.81129658235577],["daad",-8.813124340845018],["periode",-8.813158035698955],["aange",-8.813980746267912],["vorm",-8.815635211074467],["waardoor",-8.81644447795391],["up",-8.816963658138793],["zwaar",-8.817421661572952],["El",-8.82046150054953],["Jo",-8.820950014987444],["ion",-8.82328126713734],["vroeg",-8.823808751013889],["trekken",-8.824936567589303],["warm",-8.825759911079874],["gebracht",-8.825836443640696],["Jan",-8.827419338208136],["kleine",-8.829489076049718],["leuk",-8.831840954587316],["’,",-8.833634902633744],["lijn",-8.834830932545433],["kaart",-8.83681527860222],["100",-8.837856852508455],["gevallen",-8.839893734792504],["zoveel",-8.841822336777657],["teken",-8.843198518979907],["niks",-8.843757853585519],["kost",-8.845421560187868],["waarom",-8.846118433278484],["Ko",-8.84632552410852],["X",-8.846934588153868],["eerde",-8.85069569409756],["Sa",-8.853221775727235],["helpen",-8.853953862036775],["partijen",-8.856568484569198],["systeem",-8.856767800343814],["Ga",-8.859086405204874],["vorige",-8.86064752648611],["én",-8.861405017132673],["wegen",-8.862188282766203],["klimaat",-8.862746978666795],["ac",-8.863351985138006],["regio",-8.866125156578672],["precie",-8.868741994174254],["half",-8.870018281799071],["raad",-8.873410595456438],["wilde",-8.873640523082154],["scherm",-8.87478308132551],["nummer",-8.875672572339017],["heen",-8.876662808344864],["rust",-8.87831918012093],["lekker",-8.879616593335665],["centrum",-8.880829965722555],["Ra",-8.882244417092434],["test",-8.883600100843083],["kilometer",-8.883940360219771],["vlucht",-8.885041118325166],["fi",-8.885854796160345],["stel",-8.886798277969994],["wijk",-8.894322036304276],["uk",-8.895606574457847],["dank",-8.895719953749893],["ochtend",-8.89616683327779],["eeuw",-8.89624858890674],["meeste",-8.896681725701534],["&",-8.899262772874396],["hart",-8.904222970710677],["koop",-8.905090903887643],["groter",-8.907663054482029],["maatregelen",-8.907673667649636],["merk",-8.90830817908255],["Mijn",-8.909537776901146],["11",-8.90955512002861],["last",-8.910156981262615],["kopen",-8.910310347953825],["ë",-8.911585053978104],["vader",-8.913675366641412],["huizen",-8.915094788232917],["woord",-8.915465181804077],["klein",-8.916057782041062],["and",-8.916718219871454],["Toen",-8.916749252156158],["derde",-8.917647012253749],["kleur",-8.918149045774015],["Co",-8.918469123029773],["lange",-8.918825678689037],["mar",-8.919688892335078],["Amsterdam",-8.920648486290355],["Ho",-8.923558395547769],["Want",-8.92457978483655],["horen",-8.924828288215192],["flink",-8.925617058427987],["huidig",-8.92777580132961],["jonge",-8.927792030098892],["ouders",-8.927993679357648],["vertelt",-8.93135660590595],["macht",-8.932410288575703],["uren",-8.932504514006325],["name",-8.934825690068795],["reed",-8.935714821179706],["Duitsland",-8.937182639060243],["straf",-8.940836873817652],["zeer",-8.94344873334478],["winst",-8.943721442516246],["terecht",-8.945430447669317],["sector",-8.946892354854146],["vakantie",-8.94689446553831],["Russen",-8.9473594073214],["klaar",-8.9476847442725],["kind",-8.949740060808756],["lid",-8.949900016969785],["ën",-8.949925390683457],["To",-8.95209592892228],["daarom",-8.952357410217783],["rgens",-8.952727297827337],["zag",-8.95316789016649],["dollar",-8.953416881260125],["inflatie",-8.95341893940713],["relatie",-8.953695737662741],["res",-8.955453574948223],["groei",-8.957727601065901],["meter",-8.957915142805115],["rs",-8.958513396680761],["komst",-8.959639449480424],["duizend",-8.962200725521207],["wachten",-8.963627947042546],["inder",-8.964435591172279],["zelfde",-8.964809084682589],["meerdere",-8.9654725650159],["ard",-8.965753769889638],["sociale",-8.966214082895043],["belasting",-8.966603058877087],["ak",-8.967320628213121],["rijk",-8.968126297660094],["waarschijnlijk",-8.969918455348488],["voorzitter",-8.969937875817728],["China",-8.96995444183684],["erd",-8.971065026049175],["uitge",-8.971402723454357],["bu",-8.971964601594534],["finale",-8.9732335488975],["hoeveel",-8.973759880611606],["ui",-8.97447777229895],["stem",-8.97458756195585],["stroom",-8.97596030562032],["Te",-8.976306760313099],["40",-8.977082868176018],["com",-8.978447787316856],["daarna",-8.979962813206361],["oude",-8.981085553145142],["berg",-8.98273871672526],["loop",-8.983663245189597],["grens",-8.983711248605486],["blij",-8.983787267603795],["sluiten",-8.985328238904518],["Over",-8.987341721052413],["Pro",-8.988344914264976],["oplossing",-8.990088056234676],["con",-8.990630513399463],["gevoel",-8.9910540989337],["park",-8.991506388388792],["dingen",-8.992917720751727],["ziekenhuis",-8.997071488345778],["feest",-8.997400178646636],["2020",-8.998381418925742],["opvang",-9.001031924990201],["13",-9.001480247391697],["fa",-9.005246010146351],["liep",-9.006728985495515],["24",-9.007428075807306],["stil",-9.0102940702092],["soms",-9.01122252127659],["politiek",-9.011708897382825],["ding",-9.013135169074044],["slechts",-9.013665430410489],["nou",-9.013700063933516],["project",-9.014156393009314],["Noord",-9.0151611534078],["und",-9.016462425474888],["rente",-9.018401030071729],["onge",-9.018462462659567],["Onder",-9.01848072749381],["wacht",-9.021121692690135],["Toch",-9.021537778196155],["buurt",-9.024606802922957],["verkiezing",-9.028142857550598],["gra",-9.030371008070924],["grad",-9.031185577302765],["mens",-9.03172015858131],["isch",-9.035880581219985],["Lu",-9.036688862701002],["wet",-9.037112164809347],["natuur",-9.038481957050138],["Ter",-9.038833153575126],["stelling",-9.040059752970944],["wens",-9.041160894142436],["stelt",-9.04201507319467],["toekomst",-9.045333958264074],["muziek",-9.045950034891664],["bestuur",-9.047480737128199],["voeren",-9.047482132843111],["medewerker",-9.049563926781358],["gesloten",-9.04995086456783],["14",-9.050808205247144],["vo",-9.051045351698917],["beide",-9.052042592736235],["gelegd",-9.052464157283392],["Kamer",-9.05327519333405],["Do",-9.054175621701742],["dacht",-9.05510565397286],["niemand",-9.055243417334932],["VS",-9.055388249950404],["niveau",-9.0567781588908],["Groningen",-9.056778349811793],["kieze",-9.057147683407848],["gemiddeld",-9.057988531994994],["gezegd",-9.058319175604257],["minuten",-9.060421211893036],["bak",-9.06047655174856],["reactie",-9.060886702798797],["baan",-9.061233764184445],["winkel",-9.061527199020404],["ban",-9.06340958845266],["ry",-9.067642635007228],["wa",-9.068772318993059],["mooie",-9.069238630094617],["Mark",-9.069794924248903],["aanwezig",-9.071409692338168],["ok",-9.071977199747256],["fout",-9.073586666825186],["Duitse",-9.074382170820034],["Verenigd",-9.075175161004534],["elk",-9.077322402579593],["doe",-9.077947596127668],["kamp",-9.07841657367236],["€",-9.078795849656007],["leiding",-9.079275946378825],["nam",-9.081421964813059],["middel",-9.081853849667676],["dezelfde",-9.084478154212462],["planne",-9.08493592585538],["stop",-9.085226927204356],["mei",-9.085729194012412],["anderen",-9.086122186947375],["iek",-9.0917868635738],["motor",-9.091943069861697],["lezen",-9.092253477367217],["hu",-9.0944993670529],["bleek",-9.094569493700792],["betrokken",-9.096073323663905],["leren",-9.096443722322821],["Oost",-9.097618943663981],["bijzonder",-9.098089197883317],["arm",-9.09867226100684],["pakken",-9.100875396394368],["ly",-9.101650981903234],["helft",-9.101852302119328],["antwoord",-9.10239499494009],["huur",-9.105244167163434],["za",-9.105664630325728],["vervolgen",-9.105728184785143],["ap",-9.10630165772269],["lan",-9.106346184763447],["ff",-9.106504043187382],["publiek",-9.106535271341684],["ica",-9.1084071151597],["personeel",-9.10893023177238],["gesprok",-9.108976633149588],["aandacht",-9.111522812786063],["gesprek",-9.11209839974336],["leeg",-9.112922537710283],["weekend",-9.113830126021856],["500",-9.11429503899397],["Br",-9.114594162379738],["schade",-9.114838853685033],["Ta",-9.114886709473826],["West",-9.11551244541807],["leger",-9.117139548088728],["ulli",-9.11811746012148],["ering",-9.118446625719447],["viel",-9.11949238087039],["race",-9.119759518778434],["risico",-9.120470568696394],["contact",-9.120472882552306],["sommige",-9.120476276729516],["mocht",-9.120498819188915],["23",-9.121325626277496],["lie",-9.121895964145839],["band",-9.122966223483473],["positie",-9.124009773052684],["functie",-9.124352756909863],["dorp",-9.124510739397458],["les",-9.12548189589967],["keuze",-9.12614556375453],["ooi",-9.12769475399454],["ment",-9.129503623377232],["ick",-9.130315922588697],["nood",-9.131992126556025],["wonen",-9.133286861678858],["verlo",-9.134117168005401],["loze",-9.135932197779603],["Y",-9.13709803920922],["ijs",-9.137678152585828],["deur",-9.138700319455026],["informatie",-9.139589772004406],["voorbij",-9.142759891300251],["kond",-9.14378456595981],["België",-9.144014517509351],["act",-9.145508459363022],["zak",-9.14571365575555],["januari",-9.147923758098706],["locatie",-9.147924727295656],["dra",-9.149341738271342],["du",-9.15034517442709],["80",-9.150418167302636],["woordvoerder",-9.151906904141363],["wagen",-9.153488009424109],["ële",-9.15379371552563],["gebeurt",-9.154012761922338],["enkel",-9.154687705611893],["air",-9.155174412375898],["aak",-9.155215404109416],["proces",-9.155918398071272],["video",-9.156073304711754],["duur",-9.157897821183909],["winnen",-9.157983580392855],["lager",-9.161407871632427],["waarde",-9.16152591780523],["Tot",-9.162189083428716],["strak",-9.16289070903768],["denkt",-9.164432636268547],["kunst",-9.165373280789275],["bus",-9.165685602109676],["iteit",-9.16572648342201],["ië",-9.167382826033602],["begon",-9.16780494196325],["kerk",-9.168876981948568],["koers",-9.169758713189715],["FC",-9.171803218343253],["verschil",-9.171891566984327],["contract",-9.172096997550327],["bezoek",-9.17453627923267],["slecht",-9.176145855361305],["Haag",-9.176658500007651],["beelden",-9.17780358342699],["trokken",-9.178142049616852],["leider",-9.179756554501072],["volk",-9.180473754169586],["mon",-9.182882168301685],["crisis",-9.184099991411063],["lijke",-9.185123312255069],["reis",-9.18805663252031],["juni",-9.18873108329058],["zeg",-9.19165198874621],["roepen",-9.19227778910759],["out",-9.192418067578291],["handen",-9.195392119828584],["schuld",-9.195782702870366],["han",-9.19596518686826],["ool",-9.196528224890834],["Ben",-9.197046178080695],["pre",-9.197048465563181],["beginnen",-9.197395130028113],["kennen",-9.198495635154076],["speelt",-9.198759343135691],["provincie",-9.200996267124005],["Zuid",-9.201000185896296],["vlak",-9.201406499131942],["bericht",-9.202915731658827],["noem",-9.203198690250613],["verdachte",-9.20425571595666],["post",-9.206020119620092],["verkeer",-9.206723469110752],["wezen",-9.21151068279017],["stuur",-9.212365663597046],["begint",-9.212730195158077],["lam",-9.213102736577811],["titel",-9.21335435561336],["geloof",-9.213778593940468],["zoeken",-9.217966643225417],["slachtoffer",-9.219097184392808],["log",-9.220451406818666],["cu",-9.22085962887024],["vertrouwen",-9.221828726992861],["Alle",-9.222505150254815],["voldoende",-9.223066644217766],["pol",-9.225144016249315],["geweld",-9.226363825839885],["verantwoordelijk",-9.226775940056285],["eindelijk",-9.227816440204608],["slot",-9.228336299333183],["bouwen",-9.228358412209113],["Veel",-9.229430134378394],["bl",-9.230444825412476],["Vlaams",-9.230785684015345],["anti",-9.231201068470469],["Mi",-9.232332594552068],["Net",-9.233333215344173],["studenten",-9.234283787295762],["Sp",-9.235512472659313],["Britse",-9.235613994776664],["premier",-9.23587350632862],["gedacht",-9.236876449952138],["Franse",-9.237204725587887],["spraak",-9.237805847766824],["wist",-9.239926437864227],["aat",-9.240742309761188],["taal",-9.24126091229003],["lag",-9.241488764557818],["ronde",-9.242214193497702],["Rotterdam",-9.243829308329982],["wijl",-9.243870185534181],["vriend",-9.244178325676486],["voorkomen",-9.245005355879172],["prima",-9.245007659978974],["burger",-9.24572463667346],["gaf",-9.247755186942205],["ervaring",-9.248219607261662],["personen",-9.24835079497943],["Nee",-9.248390491382454],["VVD",-9.249442450278934],["feit",-9.250541444989693],["plaatsen",-9.250906307609602],["spreken",-9.251141260685138],["gebeur",-9.252114434152391],["begrijp",-9.253374179281662],["winter",-9.253643850059802],["bond",-9.254228246255312],["afstand",-9.2567691194869],["vis",-9.257124888265068],["online",-9.25799822016679],["zware",-9.258048522200905],["korte",-9.258408102052591],["belang",-9.260358832022938],["trein",-9.260650909174865],["bar",-9.26067463273113],["volle",-9.261731621249355],["verbod",-9.261873877222765],["wit",-9.262349550998861],["versie",-9.262648055404906],["tisch",-9.262708977970984],["persoon",-9.263188875275276],["lot",-9.266518760719865],["belangrijke",-9.267068698828643],["pu",-9.26794415897946],["schrijft",-9.268066151890025],["bedrag",-9.26847555644106],["lastig",-9.270218878349052],["rapport",-9.270440585932572],["D66",-9.27050582195523],["CO",-9.271702602783265],["Belgisch",-9.271954792147195],["klanten",-9.273479003917574],["politieke",-9.274342189089175],["september",-9.274942871047624],["termijn",-9.27595455176294],["gericht",-9.277663702055387],["ill",-9.277831794867748],["klink",-9.277912211257476],["echte",-9.279231431717841],["keren",-9.279563787257954],["rug",-9.281042414895982],["maak",-9.28236615153528],["fijn",-9.282625433774179],["hoeft",-9.283728414646397],["elektrisch",-9.28401325275973],["kers",-9.284425722875604],["legt",-9.287635623005519],["gebouw",-9.287879946745282],["So",-9.28817424914373],["tische",-9.288320777227325],["gehaald",-9.288513581094008],["vluchtelingen",-9.288582480722084],["mmer",-9.289392874727103],["optie",-9.289823807285945],["persoonlijk",-9.291434412919568],["ny",-9.291600306704197],["Sinds",-9.293206579016651],["stemmen",-9.293717493245369],["ron",-9.29390889070577],["pr",-9.293982356144262],["moord",-9.293992621437864],["dieren",-9.294949442170722],["omgeving",-9.295227318682764],["tuin",-9.295693295862943],["hoogte",-9.296785320712932],["stra",-9.29801321487801],["stappen",-9.298319846086642],["dragen",-9.299431960700566],["Alleen",-9.301634673533659],["ies",-9.301996628762021],["stikstof",-9.302405888450192],["voormalig",-9.302430195206178],["productie",-9.303844108291939],["zeven",-9.305161770804357],["besluit",-9.305985399493139],["ebru",-9.306499507835284],["verkoop",-9.306599638877628],["aller",-9.306656466907462],["Kan",-9.307150253853536],["eur",-9.308492494634097],["voet",-9.30918103814765],["international",-9.312509363035781],["ontwikkeling",-9.313465213769692],["tro",-9.314292036227615],["ram",-9.316390284558725],["Ri",-9.316525315099394],["Boven",-9.317614398665052],["Bu",-9.319605658497862],["Geen",-9.321912657019723],["Da",-9.322593115276884],["bepaalde",-9.322854885380774],["levens",-9.32319809412736],["35",-9.32485042927027],["controle",-9.325263700113478],["har",-9.32547611217016],["hal",-9.325774025655054],["normaal",-9.326020797264867],["trainer",-9.326565498208474],["port",-9.330030495414547],["spelers",-9.331031679044681],["rechtbank",-9.331388088978741],["roe",-9.331701109015567],["che",-9.332182033633732],["links",-9.333903944991416],["Ch",-9.334324099172143],["link",-9.334772379523042],["á",-9.33542631002566],["bewust",-9.335428773345251],["model",-9.335611162919728],["sturen",-9.336182166245004],["hout",-9.336216943046965],["Jong",-9.336953272912872],["serie",-9.33804361057227],["ministerie",-9.338294976735234],["enorm",-9.33853645702813],["Frankrijk",-9.34028339473852],["stoppen",-9.340777925279255],["stof",-9.342179061064787],["Ni",-9.34218583891022],["leed",-9.342970678890435],["groen",-9.343056028251631],["diensten",-9.343540640996897],["Heb",-9.344685028607994],["schrijven",-9.345065419193677],["economisch",-9.345072067795925],["baas",-9.345639285329554],["liefst",-9.345706323843036],["tuig",-9.346558138774771],["speel",-9.348939719207756],["PS",-9.34922364382753],["aai",-9.349776119762126],["platform",-9.349919616737623],["telefoon",-9.349921444889894],["70",-9.35009924401232],["eken",-9.350535003159298],["gingen",-9.351185974137376],["tip",-9.352462635652422],["hof",-9.354122892828343],["succes",-9.354293685811662],["wapen",-9.354356516616656],["burgemeester",-9.354797415718512],["twintig",-9.354802560017056],["inwoners",-9.354827706858156],["midden",-9.35507095350897],["geschr",-9.35686808431131],["jongeren",-9.357899915536645],["kijk",-9.358955180787806],["Twitter",-9.359704099352378],["60",-9.36115473425855],["dak",-9.36226860546326],["bevolking",-9.362391090275409],["leiden",-9.362446434818963],["gezin",-9.362721247403059],["vele",-9.363088248202933],["jou",-9.364458225972758],["League",-9.364625444100751],["ktober",-9.364679740844696],["directeur",-9.364842350890196],["mening",-9.366559410890611],["maatschappij",-9.369575902297953],["Ajax",-9.369578068221308],["liever",-9.370174338371672],["90",-9.370446660312881],["probeer",-9.370667869652546],["betref",-9.37076509273421],["jouw",-9.371014076649523],["sprake",-9.37136527975251],["collega",-9.374551463108293],["camera",-9.3745537311645],["national",-9.375149387744667],["leeftijd",-9.376781732727821],["dochter",-9.379551090420682],["kwaliteit",-9.379554038955586],["politic",-9.379557398274581],["drugs",-9.379725145449992],["mond",-9.383318944756326],["tri",-9.383564720300217],["bereid",-9.384556918860184],["slaan",-9.385392357673577],["car",-9.385848634522404],["melding",-9.385933515211459],["Misschie",-9.38626145111262],["tekort",-9.387575998596738],["ov",-9.387992018911234],["Nederlanders",-9.388613585573056],["dubbel",-9.389627934226553],["lokale",-9.389654048090213],["dy",-9.390350092253833],["Twee",-9.391248555648357],["aandeel",-9.391921423506957],["No",-9.392238355133134],["cent",-9.392397757327654],["Brussel",-9.394125882716615],["OS",-9.395658065328142],["Ju",-9.398405261992961],["oot",-9.398743815679197],["hoek",-9.40106184721671],["Tijden",-9.402156672770072],["tafel",-9.403874848787918],["advies",-9.404933086322401],["juli",-9.404943295922283],["kra",-9.405760925317958],["Nog",-9.407015462239148],["lic",-9.407175142402833],["rel",-9.407558308245658],["bestuurder",-9.407784588160247],["Hu",-9.408237068187212],["Utrecht",-9.410264432168871],["producten",-9.41034758354726],["gratis",-9.410387978277907],["bloed",-9.410681527124762],["ouder",-9.412226826175743],["jeugd",-9.415271470200011],["Staten",-9.415928806667495],["qua",-9.416577087715321],["reg",-9.417224693087789],["tank",-9.41749756618039],["economie",-9.420479117153429],["artikel",-9.420485031163633],["meisje",-9.42171730828807],["ham",-9.422029459482086],["ders",-9.422787666251544],["arts",-9.424192062707457],["geschiedenis",-9.425712967148819],["cultuur",-9.42572922139503],["verlies",-9.42584132032167],["station",-9.426214143896502],["agent",-9.426247095812347],["draaien",-9.426329999578975],["vaart",-9.426388006009896],["bestaan",-9.426500060597583],["zoon",-9.426952813235413],["massa",-9.428350072651718],["woorden",-9.430262681178332],["sprong",-9.430991514561253],["hield",-9.43100428116074],["maat",-9.431126681130646],["NAV",-9.431566095413864],["enorme",-9.431814869232946],["Har",-9.432888443348002],["kijkt",-9.434032936735367],["liefde",-9.435271189101174],["loon",-9.435375031669468],["november",-9.43626713037374],["voertuig",-9.436452962560335],["dig",-9.436682321193475],["Du",-9.43805860547829],["Ne",-9.440090879561719],["effect",-9.441309762426796],["gevraagd",-9.443081603071693],["dam",-9.443094001601061],["namen",-9.444176129449847],["prob",-9.444240965747955],["zes",-9.444310238058673],["par",-9.446801178033562],["él",-9.447486744207001],["aanval",-9.449491838407212],["qu",-9.450049344684043],["wijzen",-9.450456054221954],["Q",-9.450568501204033],["pot",-9.451594169180964],["toernooi",-9.452310290104865],["voorlopig",-9.45243963673153],["zette",-9.453072963090543],["krant",-9.454075323838541],["lui",-9.454458210399746],["Di",-9.454665329111252],["Verder",-9.455190385974689],["tas",-9.457634786311257],["brief",-9.457723633022185],["las",-9.457968445150792],["reageer",-9.463192967276026],["sloot",-9.463796834807084],["protest",-9.46423963947965],["morgen",-9.465108055231386],["houd",-9.465801122438577],["27",-9.466671347129418],["speelde",-9.466757543724713],["orde",-9.467776415520966],["logisch",-9.468553452333751],["financië",-9.468614890800177],["lichaam",-9.468615087504961],["Trump",-9.46861550139963],["Bor",-9.469844041733966],["goud",-9.470624768909133],["leid",-9.47295664359575],["Ku",-9.473364385404668],["sprak",-9.473404267458712],["plant",-9.473597533691105],["bureau",-9.473929602403544],["vereniging",-9.474125052582012],["verwachting",-9.474166835852321],["kozen",-9.47441810257461],["kent",-9.47472141552537],["verandering",-9.475556363785342],["Chine",-9.475735000983732],["ich",-9.47737710590831],["lek",-9.477393062111517],["cel",-9.47774985330436],["zorgt",-9.477972147563943],["Con",-9.478657989680006],["burg",-9.478680013412326],["snap",-9.478781617801584],["ille",-9.480821207877295],["genoot",-9.481022069316147],["bed",-9.481565739800441],["geraakt",-9.483289374683235],["Wa",-9.484265174961095],["Antwerpen",-9.486289857121875],["angst",-9.486817321016508],["bot",-9.488303167658472],["burgers",-9.489295395922316],["dreig",-9.4901404779229],["ku",-9.490372346238907],["verdacht",-9.49079842400368],["bui",-9.491105432725806],["ï",-9.49135264344235],["laas",-9.492499886554938],["gewond",-9.492771124088053],["duel",-9.493079410993357],["pan",-9.494420825609653],["veiligheid",-9.4958243650091],["expert",-9.49647367636609],["hit",-9.496986492349546],["overigen",-9.49748985687468],["Wil",-9.497577022058316],["diep",-9.49776050572748],["wijze",-9.49777061651432],["bezorg",-9.498374880944567],["militaire",-9.498511115811397],["vrienden",-9.498856626447882],["makkelijk",-9.498899025867406],["pel",-9.500384179745067],["bewoners",-9.500717526361132],["genot",-9.500900297810283],["tig",-9.500926746064799],["Mensen",-9.50242819383273],["beroep",-9.502526148954376],["26",-9.502573571483742],["sneller",-9.503802232138913],["geldt",-9.508254878547664],["lingen",-9.50836138278478],["noemen",-9.509058218165357],["Gi",-9.510029559078422],["pad",-9.510779940733448],["april",-9.513448121919083],["dagelijks",-9.51352753719529],["bb",-9.513582720678066],["mede",-9.5136115022791],["28",-9.515451785488047],["pijn",-9.5157664557048],["iPhone",-9.519187329236502],["ugust",-9.519188022909841],["tegenover",-9.519733207879796],["off",-9.520391602068209],["Si",-9.521460589701107],["ieke",-9.521620563531346],["45",-9.521988159199665],["trekt",-9.522036820178801],["schot",-9.524847901125657],["december",-9.52496775086521],["incident",-9.524968508469327],["website",-9.52496973974852],["praten",-9.525022797341508],["samenwerking",-9.525215994884169],["vrije",-9.52529554660433],["raden",-9.525728499048775],["schakel",-9.52605017989612],["waard",-9.526995223119307],["Ger",-9.528408144718536],["gelukkig",-9.530514364263308],["akkoord",-9.530781870093989],["simpel",-9.530822466985065],["gast",-9.531332157633702],["brug",-9.532980177968543],["volgend",-9.53319110882408],["oost",-9.533617699188817],["type",-9.53444531314522],["slachtoffers",-9.535008709577241],["sloten",-9.535559939879697],["herstel",-9.535809178851213],["comple",-9.536371857502882],["ü",-9.536388658765468],["partner",-9.536633506187393],["record",-9.536633879665125],["vliegtuig",-9.536701261188725],["training",-9.536818241387742],["verkocht",-9.537632857318542],["coach",-9.537683005262979],["Go",-9.538241814032753],["populair",-9.542524284114275],["kwartaal",-9.542623795239098],["genoemd",-9.542874513119603],["trouw",-9.542966035954063],["bos",-9.54358466084231],["EC",-9.544147532076256],["ation",-9.5443852512975],["toren",-9.547028277444742],["kennis",-9.54946066898777],["atten",-9.551930562400107],["ang",-9.553533128671088],["heet",-9.555374331555452],["Nou",-9.555945690534777],["invloed",-9.556298380213889],["Max",-9.559113686583153],["hangen",-9.559735286350037],["+",-9.560369497310983],["milieu",-9.56037090105671],["beschikbaar",-9.560572256480611],["Open",-9.56062384883749],["Verstappen",-9.560747530286813],["gezond",-9.5617426941982],["tor",-9.562219915751966],["ium",-9.562396778384866],["blik",-9.563494877470372],["lees",-9.563988667013978],["eindig",-9.564599254881276],["schijn",-9.564608498130266],["toon",-9.565418617427637],["TV",-9.56583423681776],["sanctie",-9.566404072284069],["For",-9.567014499181226],["hor",-9.567166462279655],["isten",-9.567385311304498],["ief",-9.567452827379952],["Pas",-9.567954934638045],["ziekte",-9.568050375639512],["NL",-9.569021629789408],["gewon",-9.569493618753555],["getroffen",-9.569686599856539],["Fa",-9.570258799631917],["nemer",-9.571698969497186],["pandemie",-9.572454531111541],["Tweede",-9.5731251310574],["vermogen",-9.574283794708332],["Ti",-9.575275698390534],["ving",-9.575383972306899],["studie",-9.576946320121834],["cor",-9.57777219144575],["Su",-9.57799645334736],["industrie",-9.578553057976299],["stal",-9.578693848938123],["betaal",-9.580501572613867],["geb",-9.580688238910216],["lon",-9.581320780636055],["lied",-9.582947403601075],["immers",-9.583089077829698],["â",-9.584686730057895],["Suriname",-9.584686859747222],["leek",-9.585474932859642],["haven",-9.585564901591113],["boom",-9.586682965097657],["verleden",-9.587292982898433],["imp",-9.588769038977908],["volgt",-9.589285703694532],["actief",-9.58932740792686],["verkopen",-9.590514123991177],["dia",-9.591244839837977],["vic",-9.591264116822199],["gan",-9.592492323800496],["overleden",-9.593378222601167],["vuur",-9.593711553897883],["kast",-9.594972174667888],["samenleving",-9.597071211865277],["plekke",-9.597601397332873],["ziek",-9.59781844046493],["ong",-9.599404163474912],["kap",-9.601481970806834],["virus",-9.60310321923823],["beslissing",-9.603320752223684],["voeg",-9.603441378345572],["schoon",-9.603764352783859],["Nieuw",-9.603826145060546],["tegenwoordig",-9.604063348808483],["schoten",-9.60414784006991],["stijgen",-9.604212525199884],["steden",-9.605522800334992],["snelheid",-9.607076771780397],["aire",-9.607840124464541],["ongeluk",-9.60799357641566],["Vo",-9.6080215179277],["gewerkt",-9.608224892371583],["sluit",-9.608994126949018],["igheid",-9.61072766125062],["centrale",-9.61118027671409],["ucht",-9.61152220941151],["gevaarlijk",-9.611714604756656],["landse",-9.612193753704673],["Po",-9.612676588985554],["Onze",-9.612826200224049],["game",-9.61560372930844],["ó",-9.61580390923369],["terrein",-9.61595859642253],["kern",-9.616719465200712],["Vi",-9.61677673957762],["omstandighe",-9.617749456995252],["bier",-9.618023748043887],["allerle",-9.618231595598921],["Mu",-9.619195293408264],["gebouwd",-9.621875880076058],["begonnen",-9.622839948617642],["voelen",-9.623100887448665],["geleid",-9.62362154571991],["gegevens",-9.624424033220263],["geluid",-9.625918391111384],["poging",-9.625992233728205],["brandweer",-9.626311608841036],["Ander",-9.626673970176775],["verklaar",-9.627838565039525],["grijp",-9.62798062809404],["duren",-9.628953707790592],["klas",-9.628979045051436],["werkelijk",-9.629167901562836],["passen",-9.629193202040586],["winnaar",-9.629212142282983],["OM",-9.629290832934693],["sten",-9.629398149451465],["stijging",-9.629752814620208],["betaald",-9.630767792269713],["aandelen",-9.631122907495456],["stoel",-9.631595989704337],["Vol",-9.63248993143117],["wandel",-9.632618526638419],["generatie",-9.63297632713825],["wapens",-9.633297237170352],["ondank",-9.63339500354058],["gezicht",-9.633535243826856],["maxima",-9.63358156326493],["pensioen",-9.635170503457548],["ieso",-9.636135312432092],["rem",-9.637546918270235],["omzet",-9.637599264707543],["draagt",-9.638506675081452],["trap",-9.638924002708723],["twijfel",-9.639090433307304],["tijdelijk",-9.639637499753498],["richt",-9.641068946317564],["ller",-9.6412000284543],["Car",-9.641487380093004],["asielzoekers",-9.641664151540994],["Tour",-9.642926687958504],["lukt",-9.643644017389352],["patiënten",-9.643902707145251],["Gu",-9.645113425738863],["ester",-9.646841893205277],["raakte",-9.646990795891057],["journalist",-9.647100367624045],["Am",-9.64812371514479],["werknemers",-9.648214633454302],["geluk",-9.648249102248743],["Eerder",-9.648325532777934],["kwijt",-9.648551836383401],["ator",-9.649561082002442],["trouwens",-9.649890680156204],["mor",-9.650338184586726],["son",-9.652118255865968],["eigenaar",-9.652429047073689],["organisaties",-9.652654857916286],["gebeurde",-9.652740958869032],["fans",-9.652788086099894],["voorspel",-9.652932350280274],["speler",-9.65314238517179],["Pi",-9.653515033598804],["beperkt",-9.65479573384689],["Naast",-9.654829039146453],["belangrijkst",-9.654925777973597],["verklaring",-9.655764398659137],["gri",-9.65677255180947],["handig",-9.658716092677206],["interview",-9.661401387299305],["Vlaanderen",-9.661402367563227],["kritiek",-9.661405889879351],["show",-9.661477449707288],["Vorig",-9.661513421921086],["beurs",-9.662063402653901],["hoogste",-9.662992591091278],["vroeger",-9.663293659004715],["eerlijk",-9.66401473132703],["vierde",-9.664611438088052],["noord",-9.665574432333663],["witte",-9.665678870045003],["merken",-9.667423542731115],["festival",-9.668068056088934],["Oranje",-9.668072757852173],["verbruik",-9.668076343967712],["berichten",-9.669332559610648],["duurder",-9.669420935041208],["wissel",-9.669574710579456],["wereldwijd",-9.66985392466922],["prik",-9.670271776529837],["pand",-9.670400070415985],["toegang",-9.67081839550054],["bracht",-9.67191292689741],["blok",-9.673017682741252],["rustig",-9.673029853964351],["plein",-9.674029963462843],["variant",-9.67477956791709],["commissie",-9.674876491431426],["middelen",-9.675265716248411],["super",-9.675634760887316],["Sta",-9.677419260592591],["positief",-9.678031750483113],["Her",-9.67875184085856],["29",-9.67940036295358],["afhankelijk",-9.679835709560454],["Kie",-9.680423842533658],["Iedereen",-9.681538861132111],["Berg",-9.681925345125993],["tekst",-9.682070746395969],["rouw",-9.68261252106593],["onderzoeker",-9.682659292212794],["groeien",-9.684227207759267],["spreekt",-9.68504144355407],["vrijheid",-9.68514595188515],["ight",-9.687227529137871],["Doe",-9.687764679534087],["Japan",-9.689046927758529],["overwinning",-9.689369078506061],["Laat",-9.690497732389769],["verschijn",-9.691624764863692],["achtig",-9.691824364011953],["Ex",-9.692322542089475],["bek",-9.693126274249359],["kampioen",-9.693253175191188],["Tr",-9.694049160860565],["boete",-9.69431313332833],["pak",-9.694833686974064],["Groen",-9.695510926903008],["negen",-9.696344664877085],["mat",-9.69662010178045],["euze",-9.696622759876739],["hou",-9.696637666423143],["raken",-9.697343936967428],["Belg",-9.698429315023965],["vervoer",-9.69854497399756],["waarschuw",-9.698764590901042],["houder",-9.6994554027019],["hoopt",-9.701316385445116],["ley",-9.701323906114215],["kwestie",-9.702087072363094],["geschikt",-9.702102546097041],["New",-9.702343854513805],["eiland",-9.702489687166526],["gevaar",-9.702831778262073],["vertelde",-9.702906703331948],["bevestig",-9.703307757453835],["vraagt",-9.703459535147434],["vervolg",-9.704983400999762],["Par",-9.705356632003769],["verplicht",-9.706114978733613],["wild",-9.707822468142128],["paard",-9.707874161704794],["iet",-9.708245171340382],["voedsel",-9.709045630920947],["75",-9.709461314176398],["bru",-9.710582042353572],["gevoerd",-9.710782708413104],["cons",-9.711656688150821],["bewijs",-9.711857724085467],["mail",-9.713430608773699],["lect",-9.713754305687392],["vaccin",-9.715563847518176],["sow",-9.716207959667692],["steek",-9.716213213860488],["gewone",-9.716483290699351],["second",-9.717619994438342],["trok",-9.717682279709864],["bestaande",-9.718019324891953],["bang",-9.718316272232816],["netwerk",-9.719580848415323],["Pri",-9.721609975233036],["Wal",-9.7227450834581],["blauw",-9.72324186933639],["Man",-9.725080461583163],["levert",-9.725254770538413],["gebeurd",-9.725309823876628],["debat",-9.726486239844803],["Frans",-9.726741586002522],["bord",-9.727638440062393],["stukje",-9.72770442039481],["gar",-9.728080478177496],["site",-9.728457075797063],["opening",-9.728604400137808],["vlieg",-9.728774106667707],["loog",-9.729371998301136],["fabriek",-9.730156713798761],["vreemd",-9.730156740524338],["parlement",-9.73015783553625],["broek",-9.730322873084784],["onderwijs",-9.730382471389813],["vergeten",-9.730490096538878],["Zaken",-9.730710457691174],["blad",-9.73152984419446],["buitenland",-9.731952388377444],["istische",-9.734013901756576],["asiel",-9.734869214964357],["Fi",-9.736586820658406],["gisteren",-9.736677729067596],["keur",-9.737360828586738],["Biden",-9.737906601079503],["schree",-9.738250361354126],["bezoekers",-9.73906488096505],["voorzien",-9.739107855807507],["aardig",-9.739519882809294],["San",-9.739677970981113],["hopen",-9.740467812418316],["Vooral",-9.74060820207701],["Amerika",-9.740622487892072],["opdracht",-9.740839946301001],["Nederlander",-9.741509877478306],["treden",-9.742183852352605],["Unie",-9.74396201316183],["spanning",-9.744495143957314],["behoorlijk",-9.74450465406057],["beweging",-9.74467550625456],["eisen",-9.745963629462988],["spoor",-9.74735692449509],["advoca",-9.750949248914777],["verzamel",-9.751862069094376],["doden",-9.751884117615063],["jaarlijks",-9.751946087951643],["Gra",-9.752007458759529],["werkgever",-9.752014946803317],["hol",-9.752542161270025],["waai",-9.753077956680118],["wijn",-9.753567104100046],["gro",-9.754823914684003],["verdien",-9.755454566460289],["haal",-9.75568008386649],["ix",-9.756366663423414],["Peter",-9.757092803128003],["paal",-9.757363887565186],["veranderen",-9.758098527971281],["definitie",-9.759040512054355],["selectie",-9.759042268870434],["Bi",-9.759282675122261],["regelmatig",-9.759608794587132],["Kaag",-9.759835884989247],["Kort",-9.760147622919824],["overal",-9.76037011644762],["Daarna",-9.761305389007942],["verbeter",-9.76368966328685],["hond",-9.764278792286014],["vertelle",-9.765839554641886],["moeite",-9.766397060903039],["Holland",-9.76640027858797],["stevig",-9.76674067701822],["rand",-9.767547894352457],["schat",-9.769087293086583],["Lat",-9.76930625731082],["minima",-9.76965021959347],["waardig",-9.769812035091995],["stelde",-9.770301525055192],["fase",-9.770937587285143],["product",-9.771166966362845],["chip",-9.772459186166689],["gebruikers",-9.773315983883855],["algemeen",-9.773440704526864],["meerderheid",-9.773828154409784],["vogel",-9.774169817069556],["stro",-9.774393580499925],["Wo",-9.774742181892972],["anne",-9.774921091612114],["dergelijk",-9.77496788494155],["verdedig",-9.775845788128596],["waarden",-9.77629383358667],["motie",-9.776780661630928],["Red",-9.77678956503864],["Zelfs",-9.776807036184016],["code",-9.778182091468162],["bio",-9.778293905457904],["bron",-9.778308490712464],["broer",-9.779373076990577],["extreem",-9.781262494245091],["internet",-9.781391027264345],["Sint",-9.781583695276776],["daarvan",-9.783110943411543],["reeks",-9.788033726542807],["subsidie",-9.788781495264832],["amp",-9.789462056415577],["Ru",-9.789731636797285],["vlag",-9.79069559454249],["liter",-9.792808628264162],["past",-9.793303807235354],["Feyenoord",-9.79635704972279],["breken",-9.79641685525868],["Air",-9.797094932781302],["vlees",-9.797734745083812],["voren",-9.797972911170069],["Kom",-9.798596157083551],["gebrek",-9.799155912613553],["lat",-9.799451902088474],["lossen",-9.799714049336895],["Hel",-9.80080334665399],["nek",-9.800867930848813],["okken",-9.803240498317578],["hoef",-9.803658288945734],["vergunning",-9.803990679406697],["diverse",-9.804043679992843],["besmetting",-9.80406231188828],["fel",-9.804436293020359],["uwelijks",-9.804643635024176],["operatie",-9.804739094009134],["zwart",-9.805071021302304],["melden",-9.805717261536042],["wijst",-9.806627810330458],["sluiting",-9.807248500494222],["Or",-9.808196257047278],["amper",-9.809400278990022],["hoeven",-9.810498631973605],["boeken",-9.810873775447202],["interessant",-9.811682945418235],["verliezen",-9.811684158975346],["Google",-9.81168792454045],["geleverd",-9.813145201029993],["Mon",-9.813765357783325],["pit",-9.814465493627539],["Brit",-9.815985803209188],["ontstaan",-9.81601534115056],["militair",-9.816518346380473],["wo",-9.817144344694485],["kerst",-9.817876573965211],["Som",-9.818977965210637],["graf",-9.819124913072415],["podium",-9.819437437892283],["Va",-9.81991047836064],["temperatuur",-9.820120596101564],["gespeeld",-9.82039070685025],["steken",-9.820788579768159],["Wanne",-9.820844626600415],["Paul",-9.822267905991794],["zege",-9.823252911616528],["Vandaa",-9.823719569027443],["verhalen",-9.824068311732116],["bepaald",-9.824562289760651],["Zou",-9.82462667993168],["Even",-9.824912838531958],["live",-9.825891297407647],["lor",-9.826588309939645],["respect",-9.827250171448828],["Engels",-9.827335245996375],["helpt",-9.827349149186748],["lage",-9.82789992492234],["haalt",-9.827978506467748],["assen",-9.82883075207282],["line",-9.82891980379342],["Sport",-9.829676969023918],["Rob",-9.830063891606942],["Afrika",-9.83311625395364],["rijdt",-9.833287908307756],["wiel",-9.833423866776304],["geplaatst",-9.833638818411249],["hotel",-9.834451495893603],["Per",-9.834872656957614],["geboren",-9.835532952520492],["ontvangen",-9.83560416862799],["afdeling",-9.836052127033312],["ift",-9.836888827802216],["tak",-9.838229530540533],["art",-9.838492117051448],["mate",-9.838809768108641],["optreden",-9.839548707610316],["bas",-9.84029330161956],["vergelijk",-9.8405543581354],["BS",-9.84096228578931],["bon",-9.841205058864277],["ware",-9.841604464172086],["technologie",-9.843058081127765],["twaalf",-9.84305834467566],["fonds",-9.843062901350063],["verhoging",-9.84307080408846],["play",-9.843091664849798],["omhoog",-9.843180727135454],["Willem",-9.843505617219682],["kantoor",-9.843928373091739],["vormen",-9.844322033696939],["mir",-9.844358332468568],["elukkig",-9.84482873359844],["Andr",-9.845462488151753],["elf",-9.84553702692027],["ontslag",-9.845785924204426],["geslag",-9.846742433064907],["tegelijk",-9.846896252411717],["Bos",-9.846982795075284],["route",-9.847475942717104],["gelaten",-9.849137928466607],["rang",-9.850326744995378],["criminele",-9.85105790689883],["kleding",-9.851075372174629],["Kijk",-9.851127578663917],["dader",-9.851207330293823],["kleiner",-9.851717410394054],["droom",-9.851969233214087],["onafhankelijk",-9.853076319719264],["Cor",-9.854592387583324],["Meer",-9.856079665194569],["vriendin",-9.85634665567624],["stemming",-9.856592752808858],["Qatar",-9.859123889162348],["Limburg",-9.85919158222668],["veroorzaakt",-9.85927220774878],["geloven",-9.85936161094456],["acteur",-9.859371248973297],["supermarkt",-9.859421727544724],["letter",-9.859669631535468],["lijken",-9.859831765541067],["klachten",-9.860129817132917],["Europees",-9.861279132045976],["storm",-9.861352352080761],["parkeer",-9.861443367680593],["gestuurd",-9.862888929845841],["cha",-9.863058941326056],["raakt",-9.863368105769283],["ici",-9.864354707974599],["afscheid",-9.864735477085473],["jongen",-9.86485199789485],["Denk",-9.866272035999279],["campagne",-9.867252503210718],["discussie",-9.867252503335852],["verwijder",-9.867280139325686],["staats",-9.867587498117793],["betere",-9.867885611447356],["standaard",-9.867981698069537],["oosten",-9.868229213593548],["brandstof",-9.868443703234881],["term",-9.869097487393041],["prachtig",-9.869121127915818],["vermoed",-9.870754909589172],["vertegenwoordig",-9.870908790724297],["beurt",-9.871542954181908],["Drie",-9.87200798481188],["verkeers",-9.872987050109785],["deug",-9.874578586999203],["John",-9.875330504329344],["Schiphol",-9.875449319052187],["onderwerp",-9.875476371603193],["Musk",-9.875582608920258],["klopt",-9.875729202148161],["weiger",-9.876021925109502],["voordeel",-9.876217098609636],["Spanj",-9.876446669119446],["oordeel",-9.878295485557427],["zagen",-9.88162389587882],["koel",-9.881719727460087],["gaven",-9.882827975678602],["carrière",-9.88371368727885],["clusief",-9.88371368958077],["horeca",-9.883720513579613],["scholen",-9.883870239334394],["sterke",-9.883968934776002],["Wit",-9.88417052576801],["hel",-9.88426907611936],["regeling",-9.884312235478328],["Oud",-9.884665415357961],["iër",-9.88548567575653],["visie",-9.886786312660439],["vertrek",-9.887263387196036],["NA",-9.88844135984287],["ontwikkel",-9.889200269990972],["ach",-9.889378780775868],["199",-9.889451358755572],["aliteit",-9.890104271707578],["stort",-9.89052086215335],["NV",-9.890525859514842],["ö",-9.892047020578188],["museum",-9.892047851927149],["papier",-9.892050596143628],["ontdekt",-9.89224155749812],["AS",-9.892244305204963],["complex",-9.892422479769731],["Euro",-9.893088025429835],["deels",-9.893794357560648],["bedrijfs",-9.894460946917235],["para",-9.895351750885474],["bedoeld",-9.895393013729137],["bit",-9.895615099655355],["Zeker",-9.89570075548528],["koning",-9.896202853696483],["kar",-9.89665105289837],["waarvan",-9.89681205079468],["boot",-9.897153307150472],["troepen",-9.897819530620197],["uni",-9.898175853592097],["zwarte",-9.899296286996524],["vullen",-9.899550430479977],["hangt",-9.899951689680092],["gescho",-9.90010682407182],["klap",-9.90021486938831],["resultaa",-9.900450472540431],["budget",-9.90045194829009],["college",-9.900458150153987],["pakket",-9.90045903961198],["fan",-9.900774800739866],["modellen",-9.90129198774584],["verdienen",-9.90169697531558],["minste",-9.901801365906483],["old",-9.902719231798098],["helaa",-9.90303897477159],["eek",-9.903169724166053],["bra",-9.905728705167261],["zone",-9.905938692555251],["etc",-9.906736635042545],["33",-9.906996935203734],["Haar",-9.907825341099183],["eeft",-9.908316623207224],["VA",-9.908359793871318],["bol",-9.908439622239403],["geheel",-9.909093206940724],["praat",-9.909217388577186],["Gent",-9.90960980927603],["serieus",-9.91007706301451],["jongens",-9.910412600922353],["uitstoot",-9.910628212656682],["stijds",-9.911118722045071],["veiligheids",-9.911956755837661],["geweldig",-9.912311254090891],["schieten",-9.913401429199844],["ance",-9.91360618639966],["opleiding",-9.916002709966005],["rekenen",-9.916198714487383],["update",-9.916886620501785],["norm",-9.91738058102012],["autoriteit",-9.917475910012154],["wethouder",-9.917681155488342],["pil",-9.917859958306224],["Polen",-9.918399807240704],["houding",-9.919140286374557],["werking",-9.919400956725514],["gehoord",-9.919571490706772],["investering",-9.920079294400526],["è",-9.92124798373176],["adem",-9.921432314701244],["laden",-9.921617295504438],["offici",-9.921755623725723],["vinger",-9.92219690322005],["Eerst",-9.922319811467148],["oefen",-9.922394126423288],["bil",-9.925698951023426],["competitie",-9.926092662240773],["coalitie",-9.926093990471292],["fysiek",-9.926095243514585],["Sommige",-9.926098169223028],["Wereld",-9.926109034175603],["sloeg",-9.926120248200618],["beloof",-9.926169394734863],["Binnen",-9.926224516963785],["system",-9.926235215868736],["baby",-9.926245751228425],["cho",-9.92649195876577],["verspreid",-9.926639074984749],["stoken",-9.92752875882341],["vliegen",-9.927679445972043],["banken",-9.927969260173796],["ingezet",-9.930100115245594],["Gre",-9.931831569366276],["opzichte",-9.932131070835766],["slaap",-9.934855892504272],["slapen",-9.934898737914931],["Parijs",-9.934962769522254],["kor",-9.935236749696191],["sfeer",-9.935238362372917],["spring",-9.935254688226664],["bekende",-9.935295569176898],["kruis",-9.93565403909008],["trots",-9.935763911619947],["eenvoudig",-9.936409522876499],["activiteiten",-9.936780399473175],["gemakkelijk",-9.938257869932134],["wal",-9.939592139204699],["digital",-9.940050782006539],["Tesl",-9.94025594324911],["zonne",-9.940389167969181],["matig",-9.941627962485843],["32",-9.94221060405523],["eerdere",-9.942953913270678],["resultaten",-9.943560238737224],["plezier",-9.943560302993397],["concert",-9.94356080378262],["grenzen",-9.943563095539592],["betaling",-9.943582632647637],["koppel",-9.943626701713203],["gooien",-9.943895994552758],["spits",-9.944255381774754],["editie",-9.944479543637483],["total",-9.946852298006387],["Land",-9.947751002970683],["bereikt",-9.950188315256149],["groene",-9.950715079595511],["centra",-9.952407205525088],["praktijk",-9.952409961736603],["Mercedes",-9.952410060796133],["invasie",-9.952411761358128],["aanbied",-9.95245184050805],["Mol",-9.952475346576458],["impact",-9.952568480454016],["Grote",-9.95266679082724],["US",-9.952675073359078],["kapot",-9.953149067677128],["soep",-9.953876043092844],["verband",-9.955195253950048],["speciale",-9.957058639650997],["trek",-9.960051255142785],["fabrikant",-9.961338367692978],["PvdA",-9.961338582142567],["bescherming",-9.961352076623875],["eventue",-9.961395384701312],["koffie",-9.96140622792519],["apps",-9.96176814923394],["Johan",-9.961863637025226],["aangekondigd",-9.962538936569032],["schepen",-9.962994731940505],["Wout",-9.96339510367794],["Col",-9.963689083231891],["beheer",-9.963756980777065],["VV",-9.964704199614346],["aanbod",-9.965259453942336],["ongeval",-9.965364096493087],["AM",-9.966597215832984],["truc",-9.967175869434168],["klasse",-9.969149877942398],["raak",-9.969178180537497],["gezondheids",-9.969927355187437],["absolu",-9.970347377120113],["minuut",-9.970350507930963],["deelnemers",-9.97036536183214],["vervangen",-9.970856624890171],["toont",-9.97149488626635],["dertig",-9.971823541523477],["ya",-9.974788243653762],["doorgaan",-9.975102600311484],["aanvallen",-9.975163396175782],["genieten",-9.975465902296259],["ria",-9.975927879388344],["consumenten",-9.976664749825321],["lachen",-9.97690706589174],["trekker",-9.977916407672879],["gedeeld",-9.978823490912145],["bomen",-9.978832635417964],["schuldig",-9.979308055358475],["stijl",-9.97944972453254],["filmpje",-9.979488525004175],["grap",-9.980016753078107],["goedkoper",-9.980566109630857],["2014",-9.981425309088785],["CDA",-9.981461117114065],["Cha",-9.981813450278612],["pet",-9.983303884861387],["jarenlang",-9.983501003181367],["verzoek",-9.984799875991701],["Za",-9.98542006356354],["rec",-9.985991491149983],["mmel",-9.986483533878253],["opvallend",-9.986834651741649],["conflict",-9.988612606084839],["roep",-9.988634754718152],["evenement",-9.988648282813124],["tegenstander",-9.988772607927064],["overleg",-9.988959160430856],["missie",-9.989033593582464],["reken",-9.989258656045644],["dringen",-9.989529950068732],["cul",-9.989653463056944],["veroordeeld",-9.989681719645837],["gereden",-9.98987204784476],["geheim",-9.990407970625515],["tellen",-9.990477854410946],["Mil",-9.990786137400121],["gebrok",-9.991078329479542],["vergelijking",-9.991228460809907],["IJ",-9.991259570191252],["talent",-9.991629638470902],["wetenschapper",-9.991805209904523],["Kar",-9.991855395349718],["Hoog",-9.991983041226334],["openbaar",-9.992197897117478],["versch",-9.993493911838435],["daling",-9.993565010123627],["gemeenteraad",-9.99385497090313],["ramp",-9.99487113915431],["bad",-9.996378765011585],["jong",-9.996452343135385],["Rij",-9.996755914684352],["Vel",-9.996966694651928],["31",-9.997134137968406],["kwart",-9.997475426749201],["Bank",-9.998170511003417],["index",-9.999480233753106],["36",-10.000132423750737],["aarde",-10.001767973953164],["uck",-10.002611898066387],["ondernemers",-10.002611982830544],["duurt",-10.003611794533299],["rijke",-10.003738820153497],["400",-10.004337398086188],["letje",-10.004388209722741],["haalde",-10.004707550318793],["bloem",-10.005054224456837],["acties",-10.006146919205044],["rood",-10.006729471834594],["westen",-10.007099053614493],["leverancier",-10.007217665917715],["combinatie",-10.007217677556817],["historisch",-10.007217889793829],["analyse",-10.007218492093239],["Eindhoven",-10.007234008181074],["uitkering",-10.00731004695609],["Mosk",-10.007997370665834],["gesprekken",-10.008845891340922],["dikke",-10.01030951146092],["erger",-10.013771004124454],["Was",-10.014034682941539],["roept",-10.014416724910621],["99",-10.015773128734393],["Sy",-10.016040517464758],["poel",-10.01646519253714],["specifiek",-10.016651621929814],["favoriet",-10.016651628088386],["reizen",-10.016651933739784],["verzekering",-10.016718906666636],["Putin",-10.016787768795187],["daadwerkelijk",-10.016874744519658],["Leiden",-10.017015453688856],["brood",-10.017939471697368],["Hou",-10.017985546910499],["westers",-10.018299239829709],["EN",-10.018460680637268],["illa",-10.018879821225969],["voorstel",-10.019074775736613],["Bar",-10.019462134588625],["mogelijke",-10.021998714644798],["draait",-10.022052685140356],["werkte",-10.022738078683021],["37",-10.024339055847964],["raads",-10.02508849684472],["crypto",-10.026136943646803],["God",-10.026171358568075],["blessure",-10.026175425607908],["droog",-10.026254508769583],["tevreden",-10.026326897550796],["tientallen",-10.026335558792784],["Centra",-10.026336681453232],["verminder",-10.02658235537541],["gesteg",-10.02695164772257],["drukken",-10.028678954831435],["begeleid",-10.028719282763113],["vrede",-10.029821743916965],["trui",-10.030428155555835],["Qu",-10.031008648738165],["zekerheid",-10.031800828035088],["rek",-10.032082179723474],["Christ",-10.033660503787178],["apparat",-10.035794973206672],["volwassen",-10.035809420243238],["sprint",-10.035833402497582],["uitgebreid",-10.035899596013103],["errari",-10.035980934448112],["welkom",-10.036083685843021],["aanslag",-10.036463854520223],["nieuwd",-10.03665966894862],["Marc",-10.03666329954455],["Stra",-10.036789118361488],["Stad",-10.03699710858682],["300",-10.038548918730676],["Rond",-10.038582394586754],["schip",-10.03881000457454],["wonder",-10.04005597387664],["borg",-10.042249157085807],["gezondheid",-10.043226909156594],["meren",-10.04465367980741],["?”",-10.044773867886537],["reageren",-10.045499709159479],["Arnhem",-10.04552335767502],["perfect",-10.04552344422948],["fractie",-10.045553400801827],["ekt",-10.045686617361152],["drinken",-10.045728694884204],["probeerd",-10.0459107819782],["manager",-10.045959392713904],["vertrekken",-10.046001894102655],["doelpunt",-10.04630636615142],["talië",-10.046394957867339],["brak",-10.046709023596694],["Samen",-10.04679884215285],["schaal",-10.047501072142415],["Oekraïner",-10.048266160273911],["mini",-10.04851973065208],["ondersteun",-10.048798595493185],["maker",-10.050076524975829],["onbe",-10.050136066093081],["gekocht",-10.051047255166772],["itie",-10.051771529878586],["redelijk",-10.05262375950884],["drijven",-10.05279300200523],["treffen",-10.054226569050272],["Bro",-10.054594446333342],["rode",-10.05479921951735],["golf",-10.055241824645464],["explosie",-10.055303500696024],["Instagram",-10.055303698013516],["techniek",-10.055304507266179],["reclame",-10.055306311687293],["televisie",-10.05532108480692],["behandeling",-10.055335527085479],["City",-10.055824759905239],["vaccinatie",-10.055875877209395],["vuurwerk",-10.056201364759588],["verleng",-10.057520681545864],["ernstig",-10.058490614856249],["afval",-10.05944193960903],["verzet",-10.059448795027961],["pomp",-10.059532399332111],["richten",-10.060179289673153],["feiten",-10.060416742667888],["EK",-10.06120441287592],["scheiden",-10.061495292561652],["gevangen",-10.061956510664805],["Moet",-10.061980704842895],["cur",-10.063598819258786],["Alles",-10.063865289506403],["Wi",-10.063999820184529],["conclusie",-10.065204457000126],["dossier",-10.065207318575421],["benadrukt",-10.065210146701261],["Spaans",-10.065555431571589],["greep",-10.065994226284136],["Echt",-10.06613423795282],["Martin",-10.066494630338696],["steeg",-10.066503817137596],["stadion",-10.066511528903945],["velen",-10.066690852614034],["Val",-10.06689258706706],["hang",-10.067491424227022],["elft",-10.068417371738438],["bekijk",-10.06938266878116],["38",-10.070220251264011],["behoefte",-10.070985551705402],["Zelf",-10.071624161259749],["leuke",-10.072514282658767],["bezit",-10.073156947841458],["seks",-10.073539983215213],["instantie",-10.075205002184639],["Italiaanse",-10.075206379505222],["ambitie",-10.07520666754465],["BMW",-10.075218915940766],["democratie",-10.075260209348844],["gelegenheid",-10.075811141915588],["Mag",-10.076155825079633],["streng",-10.076641806844476],["scherp",-10.076887655900652],["weeg",-10.077059850916042],["inkomsten",-10.077083637735084],["luid",-10.077381193922545],["helder",-10.077501944129292],["snelle",-10.078484308144436],["Bal",-10.079000611759836],["geest",-10.080642040693064],["wend",-10.080679326278709],["Canad",-10.081103548785434],["Afge",-10.08263200884672],["Nor",-10.083755060516243],["kno",-10.084886417964778],["stoffen",-10.085267301576035],["Formule",-10.085305503336313],["gewicht",-10.085305740892894],["gezellig",-10.085306974033202],["machine",-10.085308194632756],["vrees",-10.08530957984085],["aangifte",-10.085374198628998],["proef",-10.085478042386342],["Tim",-10.085655721365935],["ski",-10.08622372878694],["knop",-10.086480475598576],["aflevering",-10.086943505046717],["indruk",-10.08746229299673],["keten",-10.08787874641951],["gevangenis",-10.088556281581727],["klant",-10.08877332644138],["aangepast",-10.088911858062886],["by",-10.089317758047088],["Buiten",-10.089495799295896],["Dank",-10.090396643565184],["66",-10.091185018744987],["Spel",-10.09193068346013],["55",-10.093117234006876],["anse",-10.093413062805066],["Overige",-10.094516447633374],["ussen",-10.094912307308492],["Facebook",-10.095509551325364],["privé",-10.095509854362149],["misbruik",-10.09551112994926],["interesse",-10.09551611757404],["gerekend",-10.09599109425956],["Goed",-10.097256227494583],["gerecht",-10.097568002558909],["bevind",-10.098616936531322],["pelijk",-10.09990739574978],["ineens",-10.100723688866521],["zetel",-10.103238163726528],["Naar",-10.103583213758844],["public",-10.105794472810059],["prestatie",-10.105823746216647],["Groot",-10.105827387487277],["beveiliging",-10.105836460975295],["beslist",-10.105844743416528],["luchthaven",-10.106074819096198],["long",-10.107228040724664],["huishouden",-10.107242279256738],["ior",-10.107381433444772],["Mer",-10.108297157194002],["braak",-10.109095797920538],["boer",-10.109195457847974],["ctie",-10.109702007022694],["Mac",-10.109860185640436],["vijftien",-10.110554916581759],["prof",-10.110694934674083],["Uni",-10.111170408912892],["voorstellen",-10.111469907373547],["boos",-10.111474930746216],["abel",-10.111482609445783],["kie",-10.112095983476117],["schr",-10.112689938953755],["leeft",-10.11607840581954],["excuse",-10.11623679148069],["Brabant",-10.116237773244638],["score",-10.116737856131204],["vechten",-10.11681101709582],["bodem",-10.117049830715963],["jammer",-10.117104810896624],["laad",-10.117121156698762],["verdw",-10.117396555429497],["stukken",-10.119125632060673],["doek",-10.119200100876295],["Bra",-10.119938841242618],["Watch",-10.120364140678745],["ouch",-10.120383223158385],["lief",-10.120759618669412],["nië",-10.121148822583283],["herinner",-10.121573967788681],["gemeenschap",-10.12198518594833],["ezel",-10.122902153933271],["volks",-10.122950933256334],["slechte",-10.123365479801782],["q",-10.124476513581175],["inzet",-10.124771848844148],["linkse",-10.12515363477241],["chan",-10.125588553709136],["eentje",-10.126170376484819],["spulle",-10.1261793203657],["kilo",-10.126768668859045],["pleit",-10.126789053578696],["mobiel",-10.126839232714662],["Beide",-10.12813638060706],["bellen",-10.129384847971389],["bevat",-10.129722166354272],["SP",-10.130548844659621],["donker",-10.130687511898387],["cy",-10.13096186790721],["bro",-10.131175876599322],["landbouw",-10.132691739227234],["dalen",-10.132996270947405],["schiet",-10.133638608628562],["Bart",-10.135370429480405],["hersen",-10.135640002408003],["beker",-10.13654179009352],["Minister",-10.136605980858988],["duurzame",-10.137157315890093],["beleggers",-10.137400235748881],["verbinding",-10.137401771366122],["Raad",-10.137456774382287],["modern",-10.137472978818094],["beschermen",-10.137734703248208],["akker",-10.137914712491405],["dijk",-10.137978030130983],["initiatief",-10.138078410939166],["bedoeling",-10.13940672639885],["strand",-10.139564477630017],["zakken",-10.140515072398166],["levering",-10.141115522030024],["Auto",-10.141563682300426],["Jor",-10.143089837860712],["schrik",-10.143430142418204],["IS",-10.144083552681682],["glas",-10.146266611570542],["schappen",-10.146343483991242],["beslag",-10.146621638827682],["zus",-10.147741278577744],["restaurant",-10.14815279630805],["universiteit",-10.148152825272678],["bondscoach",-10.148157142829124],["psycho",-10.148172170494018],["bepalen",-10.148186553886905],["schop",-10.148288972555301],["vakbond",-10.14854107663827],["vaardig",-10.149157177832903],["Noor",-10.14941936464023],["soldat",-10.149546871068392],["leiders",-10.150709005915312],["Huis",-10.151434147810022],["rink",-10.151826355143502],["bereiken",-10.15245878624469],["verre",-10.154752837722384],["uff",-10.15573474076023],["slim",-10.156129879843993],["zaam",-10.158110286060271],["AD",-10.158241144606293],["focus",-10.159024158239678],["alcohol",-10.15902459102615],["defensie",-10.159027112522429],["zichtbaar",-10.15930794049054],["uitdaging",-10.159341189155946],["leraar",-10.1604749355475],["pri",-10.161775018321833],["apart",-10.162448284795017],["kanker",-10.162911067349455],["matige",-10.1629572372232],["Had",-10.163181682603264],["Rijks",-10.163881726346732],["NS",-10.164016170362506],["ID",-10.164172612538856],["buitenlands",-10.164482064791011],["put",-10.16484192700449],["makers",-10.167161848260807],["graaf",-10.167389947934197],["plat",-10.167995154175085],["gerust",-10.169068106963078],["ruil",-10.16920269267547],["bereik",-10.169758560213653],["zig",-10.169852133526572],["maatschappelijk",-10.170011393475768],["scenario",-10.170011400363324],["collectie",-10.170012177422628],["creatie",-10.170148216887963],["dwong",-10.17036866404112],["decennia",-10.170566478534209],["elders",-10.171253383438348],["prins",-10.17125728486815],["Dam",-10.172033129041225],["Tom",-10.173521656975144],["sterren",-10.174195152964753],["huwelijk",-10.176417762537163],["volgde",-10.17683464863681],["Bull",-10.178225436382338],["War",-10.17826844441806],["circ",-10.17847251464216],["positieve",-10.179083178169813],["dol",-10.179810705335854],["zame",-10.179952818304388],["verblijf",-10.179960105105877],["bor",-10.180683453150184],["schilder",-10.18077481373663],["150",-10.180775783641153],["Defensie",-10.181122728417304],["Oekraine",-10.18112280796155],["vrachtwagen",-10.181154039485218],["Mechel",-10.181159883372757],["import",-10.181192253012473],["adres",-10.181209570850038],["droeg",-10.181243984772486],["munt",-10.181265995348731],["minsten",-10.186043506778278],["varen",-10.187767233657613],["verkeerd",-10.187855100970593],["Rome",-10.189744488862235],["197",-10.191160963071708],["ux",-10.191319560184644],["officie",-10.191461378861245],["$",-10.192358437946808],["account",-10.192358438415585],["Koninkrijk",-10.192358438522518],["chauffeur",-10.192358443952253],["argument",-10.192358448944399],["Commissie",-10.19236572822885],["NPO",-10.192371314656167],["café",-10.192375378883003],["ontwerp",-10.192405439364565],["Elke",-10.192731154551037],["scoor",-10.193435069102659],["Zie",-10.195260098864422],["achtergrond",-10.195325056945903],["pest",-10.196096784035426],["34",-10.19618323479039],["pakt",-10.197349416849036],["ado",-10.197482756338463],["oord",-10.197806338500703],["afloop",-10.197991615856438],["gevecht",-10.199262515798726],["aanpak",-10.201150290106408],["zaal",-10.20150574094777],["ervaren",-10.201961082566058],["beschikk",-10.202112299367354],["vest",-10.203244874290453],["boodschap",-10.203371982570438],["lockdown",-10.2037221212464],["Club",-10.203722294892128],["sleutel",-10.2037230197447],["software",-10.203723642943338],["Dijk",-10.20375691041962],["kritisch",-10.203890691043654],["vijftig",-10.204295358167624],["uniek",-10.20484293618076],["eau",-10.205793602010214],["neus",-10.20679987661616],["kust",-10.206988837122424],["vaar",-10.207262182254425],["goedkoop",-10.207314249649844],["LM",-10.207418076198554],["Boe",-10.207765734378533],["ire",-10.209397139703807],["uitgevoerd",-10.210436345226668],["ezen",-10.210902231855844],["alternatie",-10.211879998054807],["boel",-10.212276055689898],["plicht",-10.212619541279249],["luister",-10.21287148526205],["oproep",-10.213192500229741],["gelegen",-10.213323575872947],["198",-10.213432376585077],["kies",-10.213579943218438],["duik",-10.213842160428172],["besmet",-10.214041162683326],["bijdrage",-10.2150947845088],["principe",-10.21521632767704],["negatieve",-10.215216428741748],["Londen",-10.215262379549252],["Natuurlijk",-10.21537318781317],["woke",-10.215391202605923],["leerlingen",-10.215405830757764],["front",-10.215443028198855],["lening",-10.215541600854893],["theater",-10.215900648919295],["match",-10.21613546615114],["Staat",-10.21663326673888],["koud",-10.216648866603482],["breed",-10.219765752010325],["ira",-10.22052210089588],["diesel",-10.221358392982133],["durf",-10.221538273951467],["medische",-10.221870030303934],["zinnig",-10.22199521912344],["menselijk",-10.222272294939822],["time",-10.222413918500134],["radio",-10.222639612909141],["landelijk",-10.22507186785451],["elektriciteit",-10.226177236531946],["capaciteit",-10.226844234626217],["beperking",-10.226844923783842],["detail",-10.226872246941372],["onderhandeling",-10.226897796512187],["voorkeur",-10.227025849320125],["wolk",-10.227137658934893],["telt",-10.22728801312526],["gevuld",-10.228027198205197],["Eind",-10.228138503271534],["spec",-10.228418063183861],["Tegen",-10.228724331890334],["Wester",-10.228889912951185],["zulk",-10.230325769374254],["ER",-10.231215600981518],["beland",-10.233503935154186],["loot",-10.235205083948433],["opgepakt",-10.237400509039485],["Cla",-10.237439575802156],["wint",-10.238243417290539],["document",-10.238538681945446],["beschouw",-10.238609056997243],["gebaseerd",-10.238615403800086],["Australië",-10.238710928241684],["getuigen",-10.239067762275944],["onduidelijk",-10.23919184078229],["Achter",-10.239443804369591],["Rus",-10.239760172043962],["nazi",-10.240458662877625],["Lang",-10.240952014317216],["krui",-10.241320914285328],["zolang",-10.241534600890471],["Manch",-10.241749016479693],["zitting",-10.24193359266637],["rio",-10.243206273469145],["mid",-10.243658293613617],["tennis",-10.244271812298255],["voldoen",-10.245643708305398],["stijg",-10.246594567426843],["BB",-10.246863277328066],["ward",-10.24711973784519],["blijf",-10.248542252033712],["stok",-10.248848797253801],["dri",-10.249364850982374],["Boer",-10.25040447140006],["stream",-10.250512384326184],["í",-10.250513701947867],["hypotheek",-10.250513701949398],["sociaal",-10.250513766601967],["Zwitser",-10.250514146088895],["Brazili",-10.250514253859512],["Jumbo",-10.250515895363733],["Antwerpse",-10.250919240354069],["Maas",-10.251018116962614],["Hun",-10.251156216085],["Ministerie",-10.251407915058639],["vrijwilligers",-10.251408258386778],["65",-10.252417007687125],["draai",-10.253062731660165],["god",-10.253101215407384],["thema",-10.253164919389459],["Heel",-10.253166740756686],["peil",-10.2534152294664],["vermoedelijk",-10.253598191260965],["krachtig",-10.255345480446927],["gepakt",-10.257913590494827],["grep",-10.258617257344167],["low",-10.261427230741557],["brede",-10.26237642369859],["materiaal",-10.262562382614178],["coureur",-10.262562524432026],["Baudet",-10.262567816750632],["spiegel",-10.26256822564746],["automatisch",-10.26257112588397],["begrip",-10.262579331860454],["wekken",-10.26263876413573],["bewolkt",-10.262928153917592],["IC",-10.262982222351317],["sneeuw",-10.263425450483993],["Ass",-10.263752529974688],["onderzocht",-10.26397486182666],["war",-10.264089717702856],["arbeids",-10.265428104190587],["lul",-10.266350849599178],["lust",-10.266901958689552],["raam",-10.268128088215526],["ax",-10.268335648722266],["gepland",-10.273315512826656],["lichting",-10.273530515414038],["plaatsvind",-10.273561306644948],["armoede",-10.274732438534194],["financieel",-10.274757016718443],["streep",-10.274757051242979],["stichting",-10.274757060039041],["€™",-10.274761963660437],["York",-10.274766206135613],["keuken",-10.274768674864424],["Brugge",-10.27478498734165],["culture",-10.274845915196686],["vloer",-10.274897520493077],["verhogen",-10.274917517491224],["luxe",-10.275023734558392],["onderhoud",-10.27506417536221],["potenti",-10.275070790603364],["voetballer",-10.275178713185404],["veranderd",-10.275566891579029],["voeding",-10.276016547930423],["ontvang",-10.276378118917878],["nauw",-10.27643114189194],["ambt",-10.276966332974425],["shop",-10.277167150878267],["EV",-10.277301171514154],["Live",-10.2778430205319],["achterstand",-10.278361597412944],["lamp",-10.2792625435724],["ima",-10.279518202012053],["buren",-10.282648186402788],["zocht",-10.282906072730565],["bedoel",-10.283135489074292],["zuid",-10.286026786249566],["riep",-10.286106962136898],["char",-10.287101001315708],["reizigers",-10.287102695871663],["Israël",-10.287102697558682],["procedure",-10.287102727948646],["agressie",-10.287103019330083],["fraude",-10.287106122769],["Gelderland",-10.287108267712712],["status",-10.287113531483396],["schaats",-10.28713882387488],["benzine",-10.28716106875419],["transport",-10.287191922200211],["biliteit",-10.287257178102987],["écht",-10.28745939601728],["Hamil",-10.287498573291929],["buur",-10.287661861186614],["held",-10.288091310247012],["beschik",-10.288536308508036],["back",-10.288860717621727],["openbare",-10.28933923051065],["verander",-10.290051221628985],["verstand",-10.290278828307432],["Jam",-10.290328497420978],["oek",-10.290671018020205],["zacht",-10.291526908139048],["snelweg",-10.292272004813938],["drank",-10.29244814979875],["raket",-10.295250318942657],["weder",-10.29525774545107],["piek",-10.295834149273478],["39",-10.29748342307608],["benoem",-10.297637372167898],["geï",-10.298310054664817],["Frank",-10.299475484252593],["zuinig",-10.299607203742703],["communicatie",-10.299816032721703],["comment",-10.3000611815655],["Robert",-10.300353269723509],["realis",-10.300650791126984],["geregeld",-10.30076644197026],["istan",-10.301054989667053],["georganiseerd",-10.301193840165737],["alarm",-10.304040115321921],["rijder",-10.304043996788915],["slimme",-10.304651949024134],["daalde",-10.304690753293716],["gemeld",-10.304807472335316],["wakker",-10.305367245209325],["renner",-10.306494020629986],["recente",-10.307003192441968],["woed",-10.307269903267013],["Bou",-10.308077112673384],["moed",-10.308145660317457],["zwakke",-10.308175912706151],["verdediger",-10.309108317487752],["qui",-10.309604701025071],["II",-10.310954112781568],["Sam",-10.310970458401172],["Ach",-10.31102895824323],["melk",-10.311115306283728],["2000",-10.312171211250782],["kandidaat",-10.31226093464733],["strategie",-10.312263246407802],["ontdekk",-10.312281405001926],["Turki",-10.312283065705886],["factor",-10.312304389106211],["bronnen",-10.312843313358677],["oorzaak",-10.313027985520346],["coronacrisis",-10.313094115738355],["unnen",-10.313107507667787],["reserve",-10.313221631838601],["schoot",-10.31337178668975],["agina",-10.313561148308523],["normale",-10.313740031746446],["Mooi",-10.315235164403386],["elaar",-10.315279453061747],["gekeerd",-10.3185581339273],["Luc",-10.321785154921955],["werkzaamhe",-10.32210641258177],["huid",-10.322133677384942],["trof",-10.32345022972461],["Werk",-10.324777232030621],["supporters",-10.325081446542121],["geboorte",-10.325086483068272],["zonnepanelen",-10.325104916344301],["salaris",-10.325128766154974],["schatting",-10.325161222673835],["zogenaamd",-10.32521037198826],["stelsel",-10.325238101372593],["Marokk",-10.325433288266263],["export",-10.325860075782627],["cli",-10.326802846701717],["col",-10.3281591512254],["vul",-10.328632170493592],["akken",-10.328857299428858],["rollen",-10.329055125331163],["rakette",-10.329600698788386],["boord",-10.329733946065526],["herinnering",-10.33146028346703],["aanleiding",-10.331625087805323],["wereldkampioen",-10.333376858253558],["kok",-10.33452408991776],["zwak",-10.337368057468],["onmogelijk",-10.337446447495907],["overlast",-10.33780357910694],["Zelensky",-10.338068450503336],["categorie",-10.338068452381751],["speciaal",-10.338069053178858],["veertig",-10.338085194203193],["vocht",-10.338117153124752],["Politie",-10.338131866244336],["United",-10.338146052869902],["aanzienlijk",-10.338255193746477],["Klein",-10.338775381538483],["ontstond",-10.341560843095966],["kou",-10.341993117187457],["95",-10.343060227970206],["rant",-10.347823316212335],["bedacht",-10.347853391561788],["Zorg",-10.348496596491344],["geving",-10.34930694266747],["arch",-10.349423410986553],["ung",-10.349793744454185],["breid",-10.351069139283005],["taatssecretaris",-10.351226344074984],["Champions",-10.351226345044573],["appartement",-10.351226349286378],["financier",-10.35122635034109],["Michael",-10.351226611816383],["batterij",-10.351227356038683],["appel",-10.351240893303522],["artiest",-10.351243673404],["Premi",-10.351316413923353],["ontzettend",-10.351357433071072],["sporen",-10.351374190529809],["Johnson",-10.351480154279699],["Via",-10.351684645507287],["coronavirus",-10.351796192748344],["geboden",-10.352331372073966],["straten",-10.353976295987149],["redden",-10.353990469293663],["klok",-10.355086561447276],["tage",-10.35579646812087],["twijfeld",-10.356493873859641],["recent",-10.35850267049089],["achtste",-10.35913534797905],["600",-10.359459620802348],["Weet",-10.360308026980132],["plu",-10.360793551108065],["specialist",-10.361931264362607],["Dor",-10.36224342914598],["gevoelig",-10.363140259870839],["lijf",-10.363472124021094],["vrijwillig",-10.363561144273742],["42",-10.364554494665363],["*",-10.36455967740832],["podcast",-10.36456074634734],["traject",-10.364562474338802],["plastic",-10.364562716912303],["verrassend",-10.364568520489062],["function",-10.364571832170107],["iPad",-10.36465338628962],["analist",-10.36468773972992],["stress",-10.364687860280405],["drong",-10.364818263748337],["ticket",-10.365022336085723],["Anne",-10.365587860382293],["gif",-10.365858627372152],["lkens",-10.366271873079652],["vervelend",-10.367208354082791],["Amerikan",-10.368039470759108],["bedien",-10.368502706460685],["Mari",-10.36956736446783],["Mel",-10.372255718795575],["Vrij",-10.373293529848645],["spannen",-10.37410430389641],["France",-10.374696226826824],["rev",-10.374778125412703],["ontmoet",-10.376386817095518],["draag",-10.377719687530135],["CD",-10.377752955964151],["iviteit",-10.377971260767513],["beschadig",-10.37807321389397],["migranten",-10.378073268889995],["Vroeger",-10.37807399567811],["federal",-10.378078968606722],["Zweden",-10.378084243595785],["terroris",-10.378088090488435],["jury",-10.378090170513916],["46",-10.378162960963596],["daags",-10.3781738796114],["uiterst",-10.378562628713645],["inzicht",-10.378826150662896],["AZ",-10.379126607409486],["streek",-10.379621319391546],["schrift",-10.381336785259284],["Mor",-10.382920908934596],["Kinder",-10.383567743083507],["MI",-10.38358964266597],["lacht",-10.385484585337734],["Welke",-10.38586370203917],["vermoord",-10.386413976504473],["Iet",-10.388669723330253],["nederla",-10.391295676710309],["juridisch",-10.391771822767188],["justitie",-10.391771829520296],["creër",-10.391771911946009],["theorie",-10.391772050907873],["institu",-10.391772336358416],["treffer",-10.391791686298241],["correct",-10.39179371105214],["opgelost",-10.391804937701206],["realiteit",-10.391864930569016],["beneden",-10.391963872112981],["verbonden",-10.392101652789453],["drama",-10.392230730523057],["moslim",-10.39229984620485],["uitzending",-10.392894384851093],["duid",-10.392908637162815],["Tegelijk",-10.39305693183385],["accu",-10.393189888701714],["instellingen",-10.394131605658021],["Henk",-10.394931703392963],["tallen",-10.395250114733411],["maatregel",-10.39639405565661],["Brand",-10.397549860609637],["hinder",-10.398226945882843],["borst",-10.400433653606807],["voudig",-10.403097216268373],["vriendelijk",-10.403278816952675],["gestemd",-10.404681598977799],["abonnement",-10.405660748541312],["Vitesse",-10.405660971678511],["overschrijdend",-10.405662594786834],["computer",-10.40566409723122],["dronken",-10.405674948968656],["etappe",-10.405724014791382],["trans",-10.405743222084705],["schoenen",-10.405763063711877],["Iran",-10.4058324848218],["design",-10.40583529283489],["Hoge",-10.406253639646284],["Team",-10.406639844783992],["herken",-10.407226096663948],["Nij",-10.407704015541986],["trend",-10.408877358365013],["homo",-10.409142972395635],["knal",-10.41033666920384],["moedig",-10.411095836012326],["bleke",-10.411718908822365],["Ant",-10.412911340330943],["Aert",-10.413123289821758],["kader",-10.416263029127887],["gesto",-10.416286552245786],["Antwerp",-10.416471582003423],["droge",-10.419295514010898],["zanger",-10.419333449125762],["ambulance",-10.419745217298118],["onderneming",-10.419745300063699],["Thomas",-10.419745980205388],["medaille",-10.419746260796412],["keihard",-10.419747129901694],["emotione",-10.419783585320136],["neutra",-10.419897795359297],["opmerking",-10.419955254957367],["uitzondering",-10.419957481871506],["opmerkelijk",-10.419971174118578],["nep",-10.420321049086715],["vervuil",-10.421442039024065],["staten",-10.421535036126302],["overzicht",-10.422704062258614],["Apel",-10.42378634160384],["opvolger",-10.42460984106782],["Lam",-10.425735135905795],["spreek",-10.426646171856426],["gave",-10.42859289269675],["schrap",-10.43083467980497],["doelman",-10.431242366114752],["Matt",-10.432033855223308],["technisch",-10.432069654081577],["west",-10.432479331561929],["Itali",-10.433331378013687],["smartphone",-10.434030931276123],["gezamenlijk",-10.434031150435647],["vergadering",-10.434031255132059],["Universiteit",-10.434033209212238],["Philip",-10.434033314513552],["Nijmegen",-10.434034602105957],["GroenLinks",-10.434053700360394],["blank",-10.434110871927324],["voorzichtig",-10.43413334204396],["aanvaller",-10.434145157369919],["vergoeding",-10.434165185250558],["kwalificatie",-10.43420438810586],["letten",-10.435565346462269],["Hans",-10.435840510251193],["44",-10.436641232604304],["ontmoeting",-10.436685947131636],["ondersteuning",-10.436753615990938],["bakke",-10.440117480992793],["bla",-10.441392797539105],["kroon",-10.442208878272641],["ney",-10.446586874579168],["verhoogd",-10.44832593127012],["à",-10.448523684898863],["trekking",-10.448591967673389],["Zonder",-10.448888643458652],["boodschappen",-10.449056225450573],["hevig",-10.449115753328087],["250",-10.449572632792325],["Star",-10.450519830230412],["43",-10.45081473158513],["box",-10.451394940305955],["Grand",-10.452417579635608],["India",-10.45429714405623],["Post",-10.45779793732493],["Kerk",-10.460222806749412],["48",-10.460815052882317],["zender",-10.460904703806316],["temperatu",-10.461925553207223],["Ham",-10.461931603077485],["overname",-10.462707838739627],["crucia",-10.463229677979445],["kwaad",-10.463229809243517],["Sovjet",-10.463230502057934],["Donald",-10.46323230237682],["Porsche",-10.463234142213208],["kandidaten",-10.463235700022821],["vertraging",-10.463245421696275],["Energie",-10.463248997800957],["Koning",-10.463439420267065],["gio",-10.463461083972899],["spoed",-10.463473794315991],["mega",-10.463851486165993],["graven",-10.464524523648818],["exact",-10.464589159976516],["overtuigd",-10.464854286277685],["bedreiging",-10.465039842305295],["verstandig",-10.46751656068211],["commun",-10.467788152820123],["chef",-10.468221645995795],["eltje",-10.468470856423167],["gun",-10.469627668295892],["netto",-10.469847958209922],["verdeeld",-10.469872837695354],["toestand",-10.47041806597175],["beek",-10.470980112115061],["onbekende",-10.472049195397936],["lessen",-10.473395716117501],["reet",-10.474176728769782],["blaze",-10.474890915582115],["jacht",-10.476711313390027],["sterf",-10.478050079871654],["Netflix",-10.47815494197478],["olympisch",-10.478154945222037],["fantastisch",-10.478155325237092],["Alexander",-10.478155999472987],["transfer",-10.478185596185398],["signal",-10.478211215204201],["noodzakelijk",-10.478237999666476],["concre",-10.478292841987141],["grondstoffen",-10.478467162015882],["zand",-10.47881730116773],["sub",-10.480303147988646],["aap",-10.480421442480974],["gestopt",-10.480921118006751],["onzin",-10.481433363300058],["kraan",-10.482176238638296],["spannend",-10.482584427102056],["ture",-10.483326627091898],["57",-10.48333244362249],["verloo",-10.48438531980021],["haat",-10.48445063059671],["Stor",-10.486102456443758],["kanaal",-10.488851837229099],["igenlijk",-10.489321163523233],["file",-10.492686912950422],["accepte",-10.49330662993527],["diversiteit",-10.493306705337112],["structure",-10.49330860094796],["organiseren",-10.49330988491321],["National",-10.493329153398712],["Mocht",-10.493357512530244],["album",-10.493411247995152],["Vervolg",-10.49343080339154],["Word",-10.493517641938908],["David",-10.493554867298265],["kolon",-10.493925708506822],["korting",-10.494217820832176],["schreeuw",-10.49440346501176],["Morgen",-10.494447276305456],["knie",-10.496903114187873],["bereken",-10.498814236318921],["way",-10.499785364111133],["verbetering",-10.502139628846583],["bedenk",-10.503010994373508],["arre",-10.504569167228885],["seksueel",-10.508691913293568],["religie",-10.50871526254814],["toestel",-10.508911147431506],["overeenkomst",-10.50892951976541],["veertien",-10.5090851277212],["koopkracht",-10.509600219955288],["Enkele",-10.509761653288038],["Trans",-10.509873565708086],["booster",-10.510182673362609],["controleren",-10.510588144197737],["heerlijk",-10.51215472098962],["overlijden",-10.512612826646736],["kring",-10.513029348047592],["idd",-10.513348704404123],["verhouding",-10.51380396089575],["urven",-10.515422083178532],["domme",-10.515727281075982],["plak",-10.516012647195096],["laatst",-10.516838416162823],["verdrag",-10.517413385284382],["rez",-10.517466333145798],["onderdelen",-10.518287756013962],["Zand",-10.520346580304857],["zingen",-10.52133826875429],["Qua",-10.5214750036149],["flat",-10.52392175809158],["Australi",-10.524180412821234],["enthousiast",-10.524316070929308],["privacy",-10.52431608807711],["William",-10.524316864038155],["besparen",-10.524323044149927],["grappig",-10.524334953027136],["voorbereiding",-10.524388908783681],["dodelijk",-10.524395275717925],["Krim",-10.524437505629441],["relevant",-10.52452372576279],["plots",-10.52453428665562],["lood",-10.524593845074598],["cyber",-10.5246880380409],["Prins",-10.524847835171373],["Angel",-10.525341779963675],["advocaten",-10.526030889844332],["Mogelijk",-10.52632284397684],["ologie",-10.528882403922793],["bestemming",-10.529275983766357],["Cup",-10.530013793213516],["geopend",-10.532610867396858],["kabel",-10.534380442341266],["schadelijk",-10.534935352415102],["kro",-10.53503864030965],["jarig",-10.535069895441904],["ellende",-10.535167821159098],["minst",-10.535248200477042],["invester",-10.53570027476966],["rijbewij",-10.536037881015474],["agenda",-10.53970627618843],["»",-10.540189086795278],["commerci",-10.540189336237088],["Mexic",-10.54020031634482],["gevaccineerd",-10.540305489492688],["abortus",-10.540312108239007],["concurrentie",-10.540776208448197],["langzaam",-10.540887478330502],["stromen",-10.54107974384103],["gemak",-10.541487674081429],["49",-10.542459982262471],["Amsterdamse",-10.542615125905652],["goederen",-10.542637664010254],["Olympisch",-10.542694748955707],["gemerkt",-10.543825552483025],["raag",-10.547238958735107],["ique",-10.54972593728101],["Bern",-10.551311876932822],["ondernemer",-10.551928177259088],["Recht",-10.552771714629644],["kondig",-10.553134654338333],["individu",-10.556132786908115],["advertentie",-10.556318119549243],["exempla",-10.5563181204384],["producent",-10.556318188927339],["diploma",-10.556318438951498],["liefhebber",-10.556318615420107],["interieur",-10.556319302231776],["multi",-10.556329178231918],["trauma",-10.556342105931748],["wetenschappelijk",-10.55637274947024],["Albert",-10.556426014352253],["Louis",-10.556500942813836],["Michel",-10.556503211384438],["slaven",-10.556513413386545],["binden",-10.556809694716716],["arcelo",-10.557905398916075],["profit",-10.558065650129901],["bizar",-10.558264096496071],["optima",-10.558537904864798],["bril",-10.559139265763466],["eking",-10.560259325241612],["kocht",-10.560638654411296],["omroep",-10.56088841921724],["Poel",-10.56093688652551],["eieren",-10.562287325937493],["klim",-10.563212846723093],["Steven",-10.563379557876146],["knip",-10.565692014766316],["Ron",-10.568784161906324],["organiseer",-10.570717600035655],["gezinne",-10.571104962178806],["missen",-10.572247947732194],["breuk",-10.572711974556261],["gegooid",-10.572716591245616],["Vladi",-10.572717104685285],["cliënt",-10.57271892888367],["extreme",-10.57272068204105],["cadeau",-10.572721569887829],["plafond",-10.572721982587463],["honger",-10.572836225811555],["verjaardag",-10.572884475710305],["ontwikkelaar",-10.573123787050918],["traditionele",-10.573168936575971],["Begin",-10.57329206161615],["Vrijdag",-10.573463336731088],["deskundige",-10.57352086899475],["zetting",-10.573813912959828],["zestien",-10.574218722375527],["800",-10.574992100133574],["griep",-10.575635339013395],["gram",-10.57689535190111],["onderscheid",-10.57693941180906],["hack",-10.577241293791033],["tegenstelling",-10.578001804188682],["Will",-10.5789831169479],["oid",-10.579825547154677],["oefening",-10.582629153539266],["topman",-10.583359534740598],["International",-10.584419676741597],["premie",-10.58649450250494],["Leclerc",-10.589378228733082],["adviseur",-10.589378236932783],["negatief",-10.589378265003571],["apparaat",-10.589378802357771],["besef",-10.589397144126572],["serieuze",-10.589404271111853],["Ruim",-10.589429867875115],["presentator",-10.589439729028955],["bocht",-10.589475385522267],["rendement",-10.589479148215098],["Turks",-10.589481006616491],["figur",-10.58959368385334],["kwartfinale",-10.589609371499835],["kunstenaar",-10.589643307354468],["bijeenkomst",-10.589685042254855],["overtuigen",-10.58977379338599],["klagen",-10.589942833855986],["wetenschap",-10.590017220579826],["Audi",-10.590595827730406],["drukke",-10.59161106016943],["Kim",-10.592014562363564],["Herman",-10.592095800049432],["Dag",-10.592297232529322],["Ya",-10.592823305652612],["Maak",-10.593927942419999],["orry",-10.59535570580583],["aert",-10.595875141779407],["waarschuwing",-10.59749559781818],["uizen",-10.602799448150822],["drijf",-10.603949815245873],["trip",-10.60407968736267],["social",-10.604408217568189],["lokaa",-10.604488998746696],["afspra",-10.604797397479466],["geleerd",-10.60488769778204],["behandeld",-10.605525385243634],["begroting",-10.606327592420302],["ambtenaren",-10.60632829543863],["automobilist",-10.606344663190107],["Oostenrijk",-10.606349725628363],["schrijver",-10.606350114338888],["oppervlak",-10.606356878317875],["spijt",-10.606385524671104],["zilver",-10.606407242042287],["veroorzake",-10.606648402418976],["Wilders",-10.606658434117053],["masker",-10.607294296713812],["Hebben",-10.608211458464634],["dames",-10.608287335134872],["Super",-10.608511176333327],["brok",-10.608912700823693],["ophef",-10.608929341451816],["wou",-10.609356708157726],["bedreigd",-10.60965265020204],["onthul",-10.609945074777452],["Tha",-10.612537432867704],["toekomstig",-10.61378139293268],["You",-10.615458993074643],["asso",-10.618259812211093],["internationa",-10.622626061281249],["succesvol",-10.62319397944964],["efficiënt",-10.623568760312402],["Veiligheid",-10.623568783222634],["aantrekkelijk",-10.623568811392433],["percentage",-10.623568840492357],["evolutie",-10.623569234289683],["praktisch",-10.623570042534098],["anoniem",-10.623570136954196],["mondkapje",-10.623570302977207],["wijziging",-10.623571681488741],["toegevoegd",-10.62357326289018],["finish",-10.623587662765425],["Gemeente",-10.623597674419145],["belegging",-10.623599036287061],["Ronald",-10.62360387145862],["haupt",-10.62360628759677],["uitvoering",-10.623648237464288],["Pieter",-10.623692871311103],["haast",-10.62373391460821],["diefstal",-10.62375910180468],["pauze",-10.623853419915012],["regime",-10.62391975616983],["organ",-10.623966531661168],["rpool",-10.623969506723526],["Harry",-10.62397665941324],["leugen",-10.62402556782159],["zestig",-10.624196372848365],["fruit",-10.624462662855159],["aardgas",-10.625339828006881],["achttien",-10.625391582384413],["getekend",-10.63005016018871],["lezer",-10.630589491173692],["econo",-10.635797370828865],["experiment",-10.641112622878733],["kwetsbaar",-10.641112835073507],["strategisch",-10.641113080323962],["vloei",-10.6411174350905],["garantie",-10.641118895728535],["traditie",-10.641138803468273],["Vijf",-10.641140560811198],["Justitie",-10.641153489847307],["transitie",-10.641169533008231],["beperken",-10.641174160054106],["kennelijk",-10.641225734979315],["Pools",-10.641252539129656],["schuil",-10.641329104223242],["mensenrechten",-10.641668275022205],["Bouw",-10.641762523949392],["monument",-10.642202557232238],["terras",-10.642671130278092],["democratisch",-10.642716314679248],["huisarts",-10.642924734668803],["machtig",-10.643066361314599],["klacht",-10.64325829726853],["Jette",-10.644390723156334],["thee",-10.646030045137987],["wisseling",-10.647916210242618],["uitstekend",-10.652551924751009],["Gaa",-10.653532421100369],["Hug",-10.653632088974277],["propaganda",-10.65896976276775],["hybride",-10.658969764084013],["dividend",-10.658969773388101],["prioriteit",-10.658969873714515],["World",-10.658970098318832],["concern",-10.658970283777519],["kloppen",-10.65897120604506],["claim",-10.658980875757104],["Shell",-10.658982497078414],["persconferentie",-10.659055891894461],["Hongar",-10.659086490346095],["zelfstandig",-10.659099029437503],["Macron",-10.659156635721622],["pijp",-10.65926256553653],["drone",-10.659511482377573],["bespro",-10.65959794940498],["check",-10.660366357184163],["assistent",-10.660805641304236],["formatie",-10.660864458313103],["ruzie",-10.661833993409182],["likken",-10.663059984498734],["lukken",-10.66577420319949],["present",-10.668947784010154],["hoogst",-10.669537942709939],["vergele",-10.672382545075706],["demonstratie",-10.677151585694546],["creëer",-10.677151586227506],["nucleair",-10.677151809973516],["vóór",-10.67715357421581],["toevallig",-10.677154743737454],["toenmalig",-10.677157802173545],["personeelstekort",-10.677162078043953],["origine",-10.677173378944808],["beroemd",-10.677183439916638],["verlaging",-10.677202808621804],["verwonding",-10.677218989108066],["job",-10.677219936261377],["Patric",-10.677231144110602],["actrice",-10.677241072378962],["oranje",-10.677258643360785],["gecontroleerd",-10.677293338933545],["balans",-10.677309048094205],["vorder",-10.677311765805287],["effectief",-10.67740197231512],["paniek",-10.677569093521248],["luchtvaart",-10.677690105271228],["geslaagd",-10.677715192333649],["persbureau",-10.677752487510729],["zangeres",-10.677773498727818],["Jammer",-10.67831950625034],["robot",-10.679357807474311],["barst",-10.68093031095324],["alternatieve",-10.68247068120937],["stier",-10.689049269129365],["kogel",-10.690390258548527],["vrouwelijk",-10.693040680704517],["verteld",-10.693726938855129],["Pol",-10.695421036497319],["˜",-10.695670099402282],["Eredivisie",-10.695670109811036],["Groninger",-10.695670311180294],["branche",-10.695672040436948],["afkomstig",-10.69568849558605],["Radio",-10.69569285798368],["algemene",-10.695700659692342],["verwarming",-10.695703445655724],["sleep",-10.695774922197957],["filter",-10.695953163219503],["kwartier",-10.696062462722942],["figuur",-10.696093697041153],["Simon",-10.6961428056305],["Geef",-10.696343030873626],["klappen",-10.696570198879057],["ijzer",-10.69675040040318],["Tussen",-10.697333729823427],["Gold",-10.69781369355906],["ballen",-10.699960653787183],["netjes",-10.7001415448193],["Bosch",-10.700225607677067],["repar",-10.701676801548116],["voed",-10.701977938288085],["schouder",-10.702480237265352],["straffen",-10.705426190091691],["compens",-10.71418736878099],["oorspronkelijk",-10.714538023936893],["Portugal",-10.71453802394026],["slavernij",-10.714538028999273],["infrastructuur",-10.7145380377303],["management",-10.714538146471362],["seksuele",-10.7145386178251],["perspectie",-10.714539044238137],["scooter",-10.714542866115504],["Covid",-10.714545908732122],["vreselijk",-10.714562919336245],["Lijk",-10.714581131421848],["aanwijzing",-10.714584564111192],["dictat",-10.714662799726018],["Maandag",-10.714665303062034],["paspoort",-10.71484982875798],["eigenaren",-10.714923049186902],["storing",-10.715209570870677],["wettelijk",-10.715519922401295],["kelder",-10.716290783427358],["gigantisch",-10.716918457314828],["getoond",-10.717079917398864],["kundige",-10.71710069450436],["vereist",-10.718123581530577],["tegemoet",-10.718659992018793],["ontbre",-10.721901243498918],["Plan",-10.722664512698747],["hè",-10.725279373419381],["Lind",-10.725532391995046],["noteerde",-10.727594576556594],["poort",-10.728199504330313],["gedaald",-10.730821307879603],["particulier",-10.733768793164987],["gearresteerd",-10.733768805662963],["recessie",-10.733768813931936],["beëindig",-10.733768817630125],["helikopter",-10.733768877124579],["Kremlin",-10.73376894317858],["verrassing",-10.733768956388637],["langdurig",-10.733769660761826],["crash",-10.7337709646964],["stabiel",-10.733772861535321],["prettig",-10.733782354912332],["RIV",-10.733786787401385],["service",-10.733794480804416],["stroming",-10.733804457570368],["tarief",-10.73381453833797],["individuele",-10.733990160414367],["Fortu",-10.734222358815115],["ify",-10.734323830629547],["schilderij",-10.73438912597245],["Jeroen",-10.73441729103397],["studeer",-10.734821805371068],["doelstelling",-10.734861168590243],["Just",-10.735727919145251],["thans",-10.735995260746831],["zijds",-10.737586041789777],["beheerder",-10.738548990154358],["graan",-10.739552825249408],["gebeurtenis",-10.74034889534297],["olksgezondheid",-10.741465639693475],["breek",-10.741657245240596],["rapper",-10.74532750923909],["kampioenschap",-10.746305827909381],["dure",-10.748628971640654],["Fed",-10.749433393895906],["tref",-10.750980135068811],["rommel",-10.751325587482448],["App",-10.751646540324124],["Financië",-10.753376639322301],["Djoko",-10.753376655046607],["medicijn",-10.75337665540415],["installatie",-10.75337671202094],["kwetsbare",-10.753376780878902],["Waarschijnlijk",-10.753376823859256],["vijand",-10.753380581012438],["auteur",-10.753382540420903],["inspectie",-10.753382583430449],["gunstig",-10.753383170572391],["ING",-10.753393067969213],["rechtstreeks",-10.753396584782292],["typisch",-10.753397764991114],["toeristen",-10.753399759378826],["boerderij",-10.753400228908053],["zwembad",-10.753417181359017],["Breda",-10.75343169886891],["suiker",-10.753713493147185],["arbeidsmarkt",-10.75378872396252],["koos",-10.753814528567075],["über",-10.754190446644957],["toezicht",-10.754382615828158],["mislukt",-10.754444988184497],["verdriet",-10.756014337383595],["vrijdagavond",-10.756355721401134],["Jij",-10.756410029911883],["voetballen",-10.757103423155536],["zakelijk",-10.760542560218541],["bevrijd",-10.76064624534593],["Mario",-10.764521316457316],["gister",-10.764524427694148],["anim",-10.76476251979582],["gedrukt",-10.76914233481173],["winning",-10.770344694726056],["lidsta",-10.770621161192105],["stoot",-10.771355848239798],["wolf",-10.772710641638906],["Elizabeth",-10.773376636298872],["portemonnee",-10.773376636330353],["beïnvloed",-10.773376636990818],["Barneveld",-10.773376710870581],["container",-10.773376754079067],["tunnel",-10.77337686679229],["Oisterwijk",-10.773377073264857],["toepassing",-10.773377659449197],["adviseer",-10.773378070325963],["lidmaatschap",-10.773379780830949],["racisme",-10.77337978754454],["gevestigd",-10.773380132778108],["Corona",-10.77340956834239],["Play",-10.773422536938227],["opbrengst",-10.773501544685173],["kerncentrale",-10.773598950488601],["klonk",-10.773649442466878],["nemark",-10.773719601048148],["humor",-10.77376225758746],["schietpartij",-10.774748109724777],["ipv",-10.775000731815632],["Leuk",-10.775804801778811],["handelaar",-10.776041668767258],["vastgesteld",-10.776160644060667],["ilia",-10.777619444881182],["herstellen",-10.778511327812314],["trainen",-10.77891637987364],["Giro",-10.78059847302843],["Geld",-10.78292573483265],["hype",-10.786306816479595],["schuive",-10.787907124770877],["fenome",-10.787956721471538],["bonus",-10.790134055353175],["concurrent",-10.793028760845903],["activisten",-10.79378480226192],["Surinaams",-10.793784806026505],["regulier",-10.793785111570768],["object",-10.793790993529894],["Grieken",-10.793791199794114],["signaal",-10.793793088520214],["Lekker",-10.793796471940809],["profiel",-10.793801499812348],["Sticht",-10.793803697367533],["vrezen",-10.793844066658975],["heilig",-10.793884807882042],["garage",-10.793891999730613],["Vries",-10.793969565184366],["wetgeving",-10.794036779706637],["tempo",-10.79408366034481],["betrouwbaar",-10.794137208980155],["compensatie",-10.79422824057092],["Madri",-10.794253185671016],["semi",-10.794520274281208],["noodzaak",-10.794785225874046],["realistisch",-10.79616904707051],["ction",-10.796300746222288],["Schot",-10.796335166102331],["methode",-10.796629936214636],["Sterk",-10.797017337225324],["hoogtepunt",-10.797113087519614],["student",-10.797746360393015],["zaamheid",-10.800140048598912],["jongst",-10.800310422800923],["drome",-10.800535320284883],["fris",-10.8005980734881],["genodigd",-10.80139843450272],["zeventien",-10.802769746063262],["Kno",-10.807187609240103],["cast",-10.810389327528364],["herhaal",-10.811197887501965],["micro",-10.81174592176281],["migratie",-10.814539223242923],["fossiel",-10.814618137846805],["toegankelijk",-10.814618143819407],["TikTok",-10.814618206148765],["download",-10.814618222386752],["constructie",-10.81461822489407],["Smith",-10.814618978315547],["Zaterdag",-10.814619424892832],["constateer",-10.81461951595469],["constant",-10.814628993270347],["uitbreiding",-10.814631481947837],["Amazon",-10.814636347202836],["Partij",-10.814639676204944],["varken",-10.814668388665904],["generaal",-10.814679536692193],["wappie",-10.81473000033887],["fascis",-10.814847113826268],["knap",-10.814872054760082],["toilet",-10.814945136126063],["belofte",-10.815311905547286],["Fries",-10.815329890330192],["Vraag",-10.815850101945976],["ontving",-10.81632638861089],["Kees",-10.816455448307401],["topic",-10.818260939668797],["verdwijn",-10.819707928115239],["celstraf",-10.820037496172697],["Hond",-10.820423879872916],["dracht",-10.825570770965093],["bach",-10.831322115582052],["verklar",-10.832694745337207],["blind",-10.833147223532686],["waterstof",-10.835240465216119],["standpunt",-10.835596885223653],["Republikein",-10.835894728671523],["Burgemeester",-10.835894729506943],["Leidse",-10.835894882232983],["identiteit",-10.835894893785866],["innovatie",-10.835894995581384],["tentoonstelling",-10.835895119362577],["Turnhout",-10.835895742254515],["minimum",-10.835896216144622],["Taiwan",-10.835898342205258],["juich",-10.835899240865814],["Precie",-10.835905111673108],["verzekeraar",-10.835905200665191],["Leuven",-10.835907409829858],["RTL",-10.83590940239787],["laptop",-10.835909883600785],["herfst",-10.835912313294756],["gezelschap",-10.835924873161972],["taxi",-10.83599991373431],["Midden",-10.836013746031169],["botsing",-10.836092552630937],["nuttig",-10.836143139227104],["ranglijst",-10.836308274626425],["Media",-10.836516545999533],["Mathi",-10.836830852034737],["voorganger",-10.837487314268241],["Normaal",-10.837579420839702],["Afrikaans",-10.841371208152951],["elite",-10.841846138263792],["digita",-10.844843374594213],["voorzieningen",-10.84769379773309],["jongere",-10.849395012970605],["munitie",-10.850495122971658],["behaald",-10.853156430191765],["Zeeland",-10.855743104224675],["ionele",-10.857599576920032],["elektro",-10.857611929504891],["discriminatie",-10.857633859076733],["studio",-10.857634029655081],["Gronings",-10.85763406434266],["beslissen",-10.857634274565603],["sponsor",-10.857635325422542],["wekelijks",-10.857636133973616],["middenvelder",-10.857644110701631],["onmiddellijk",-10.857645785193462],["aanpassing",-10.85764647340108],["Syrië",-10.857650109681867],["brieven",-10.85765290375753],["idiote",-10.857657148333793],["schaam",-10.857660539278617],["dokter",-10.85767817604113],["docent",-10.857697926930529],["Berlijn",-10.85772636162755],["toevoegen",-10.85774826553011],["cursus",-10.857951527219685],["presentatie",-10.858130757320636],["spier",-10.858233317312848],["Momente",-10.85825860290769],["verrast",-10.858379318393073],["mentale",-10.858591009894486],["Jezus",-10.858879317748606],["fluit",-10.859656229740015],["boei",-10.860278518891132],["klus",-10.860760244282716],["bevoegd",-10.86105558879065],["gegroeid",-10.862331713570004],["make",-10.863281120844016],["consument",-10.86434278355909],["ificati",-10.866409307338413],["verlaagd",-10.872191202651468],["noch",-10.872308088199295],["ideale",-10.87467505432145],["rix",-10.87588673807202],["kaars",-10.87970982975616],["conservatieve",-10.879856082416413],["reaguurder",-10.879856083062464],["ingewikkeld",-10.8798560862254],["instrument",-10.879856093793316],["concept",-10.879856269293],["vrucht",-10.879867054589887],["Dinsdag",-10.87986860909653],["liberale",-10.879880331837144],["Donderdag",-10.879899565550827],["work",-10.879986211515636],["zoektocht",-10.880002577193759],["bommen",-10.880022339821672],["verlagen",-10.88052000709279],["gedeeltelijk",-10.881281489496484],["Serie",-10.882565223793812],["column",-10.887731329551862],["presenteer",-10.888708914701656],["scheiding",-10.889578386439485],["vermist",-10.890959033340113],["tikken",-10.89945341406952],["erkend",-10.899580853254268],["registr",-10.90258079053272],["Egypt",-10.902583520813764],["karakter",-10.902583754249559],["kippen",-10.902587910969462],["mishandeling",-10.902591048277518],["Black",-10.902594036388303],["Twente",-10.902606339088587],["covid",-10.90260635790277],["recept",-10.902608610479799],["Onderwijs",-10.902645625984743],["shirt",-10.902653126435366],["content",-10.902704791730855],["Filip",-10.90275179216909],["Marokkaans",-10.902836158607663],["gedeelte",-10.902909935873318],["negentien",-10.903349507582018],["vulling",-10.90335069251394],["Kamerlid",-10.90343995756287],["behandelen",-10.903641378461943],["Grieks",-10.903820680872103],["sneu",-10.90456832420055],["uiterlijk",-10.905359312632282],["horst",-10.905934776764543],["element",-10.908078061539534],["gevangenisstraf",-10.909117647820054],["vestiging",-10.91452475165777],["zwem",-10.919932209445514],["wielrenne",-10.92098285070849],["oontje",-10.922838320136698],["vuil",-10.923153780536884],["verwoest",-10.923823505563515],["erkenning",-10.924226154288712],["scheidsrechter",-10.925839172582291],["Zwolle",-10.92583917463842],["demonstrant",-10.92583917999856],["intelligent",-10.925839325293387],["Parlement",-10.925839661305192],["besparing",-10.92584013391077],["organisator",-10.925840145462177],["arrestatie",-10.925841192937629],["preventie",-10.925841348691666],["Group",-10.925843813246688],["Belasting",-10.92584555552672],["confronteer",-10.925854442859382],["material",-10.925862658675484],["Kroati",-10.925864139776344],["Vlaming",-10.925867983826677],["aanrijding",-10.925880385694654],["aanvoerder",-10.925906754980383],["Plus",-10.925924898463604],["debuut",-10.926047028302143],["dwang",-10.926063891898636],["pijl",-10.926115294024722],["schuif",-10.926693512247962],["ubai",-10.928926292608285],["eigendom",-10.92975639802755],["Cre",-10.931948471324013],["fun",-10.932536222335148],["zwanger",-10.943752801215089],["visse",-10.943860546058378],["goedkope",-10.947011329713094],["Korea",-10.947789924330232],["duurzaam",-10.949196362305937],["criminaliteit",-10.949648691831447],["commissaris",-10.949648692581226],["Institu",-10.949648748067304],["complot",-10.949650580338462],["overtreding",-10.949651138264546],["goedgekeurd",-10.949653845544486],["continu",-10.949653859331278],["amateur",-10.949655821277165],["heftig",-10.949657890495356],["affaire",-10.949663237560681],["George",-10.949690984836915],["communic",-10.949719170855598],["sessie",-10.949734294715892],["Zondag",-10.94985835647382],["Slecht",-10.949880390007664],["negentig",-10.949963448397792],["goeie",-10.950034517458265],["slepen",-10.950626148831219],["stempel",-10.950728545992401],["vermijd",-10.950858299145958],["journalistiek",-10.953699458073697],["cancel",-10.96055766088022],["Kev",-10.962016131247877],["mmy",-10.969999933891504],["zinne",-10.972270889482996],["essenti",-10.974001378958384],["WhatsApp",-10.9740389358208],["Zweeds",-10.974039042182575],["Argenti",-10.974039159643585],["muzika",-10.974039485012508],["schrijving",-10.974039570397263],["marketing",-10.974039790724262],["infectie",-10.974040369733984],["hobby",-10.97404102987279],["Zwarte",-10.974047584942493],["cross",-10.974063016500704],["Apeldoorn",-10.974078658204862],["beschuldiging",-10.974084562025238],["Schouten",-10.974096696703258],["screen",-10.974125139465077],["gids",-10.97416446630554],["zonnig",-10.974168209393275],["dwingen",-10.974176263521214],["documentaire",-10.974185546128876],["geduld",-10.974224858963042],["vlogen",-10.974314524078931],["Wolf",-10.974475742120012],["sensor",-10.974727441494604],["grijs",-10.97514220984719],["Julia",-10.975558180256701],["Chris",-10.979057853204365],["toegest",-10.983686708922647],["toenam",-10.988757775860638],["reus",-10.99526455371766],["concludeer",-10.999038935708763],["vacature",-10.999039044414063],["eredivisie",-10.99903912938154],["knuffel",-10.999040153071268],["context",-10.999040227721572],["drempel",-10.999041091620205],["huisvesting",-10.99904110565685],["verbazen",-10.999041540730394],["lobby",-10.999043440250311],["illegaal",-10.999055492034504],["Middel",-10.999055973722024],["bestrijding",-10.999084481015924],["illegale",-10.999089057909],["uitgeschakeld",-10.999106371648388],["maandelijks",-10.999121861012837],["indrukwekkend",-10.999128486480666],["statushouder",-10.999188233927764],["douan",-10.99919663250418],["biologisch",-10.99930902999333],["klassement",-10.999367900392834],["strafschop",-10.999391294438428],["music",-10.99953564132396],["richtlijn",-10.999613685088635],["promotie",-10.999687580573461],["schaffe",-11.001195161832705],["sportieve",-11.001507002229353],["Flori",-11.007490044299653],["Tijd",-11.013006029424146],["volgers",-11.016110233286424],["verzekerd",-11.019905960134654],["heim",-11.020053965582076],["cocaïne",-11.024679961396403],["druppel",-11.024679995247073],["verschrikkelijk",-11.024680053269261],["verbazing",-11.02468005607392],["gespecialiseerd",-11.02468010303198],["transparant",-11.024680395893549],["grootschalig",-11.024680419826852],["Museum",-11.024680714633538],["structuur",-11.02468125109518],["gestorven",-11.024682605533911],["Derksen",-11.024684278668424],["schaduw",-11.024685287641699],["peloton",-11.024687161578894],["immigratie",-11.024688105274963],["éér",-11.024695925440446],["vonnis",-11.02470080839765],["aankondiging",-11.024706156170481],["SUV",-11.024711332425474],["beledig",-11.024726219857166],["vrolijk",-11.024748661669827],["operatione",-11.024757785242066],["Emma",-11.024839048408065],["uitzonderlijk",-11.024841679257765],["Visser",-11.024928441896048],["dwars",-11.0250349348849],["zeventig",-11.025194262174448],["oprichter",-11.025380844391137],["getraind",-11.026468535783236],["beschuldigd",-11.027227319991473],["geslacht",-11.02754107287624],["Franc",-11.030171401921734],["kernwapen",-11.03482639769329],["overleefd",-11.050129636432057],["schone",-11.050452190023428],["acceptabel",-11.05099575081091],["Microsoft",-11.050995750820338],["Amersfoort",-11.050995750833563],["München",-11.0509957513211],["vleugel",-11.050995777644815],["Chelsea",-11.050995931639243],["satelliet",-11.050995934825817],["Saoedi",-11.050996880507524],["kapitaal",-11.050997420549674],["Blue",-11.051001677224036],["factuur",-11.051004758393276],["geregistreerd",-11.051005114772673],["schutter",-11.051007464033402],["herdenking",-11.051008565906777],["plotseling",-11.051010222781532],["Sparta",-11.05101059375463],["zwijgen",-11.051015266610015],["fraai",-11.051030739016216],["gepubliceerd",-11.051059905603765],["brein",-11.051067358740815],["afbeelding",-11.051077660577558],["toezichthouder",-11.051084500782352],["planeet",-11.051105815756213],["Tilburg",-11.051166341351172],["panelen",-11.051303606084687],["vergeet",-11.051340736273977],["grijze",-11.051342065803645],["blokkeren",-11.051397082131981],["limiet",-11.051412522575362],["lanceer",-11.052785666375659],["transactie",-11.05351205766331],["lease",-11.05405387505673],["ongekend",-11.05725436070368],["assist",-11.058830988088044],["portefeuille",-11.078022777840653],["maximum",-11.078022777862309],["quarantaine",-11.07802277796948],["psychisch",-11.078022795865515],["tribune",-11.078022915413106],["YouTube",-11.078023324652559],["opsporing",-11.07802348783295],["smokkel",-11.078023923910447],["windmolen",-11.078025039874522],["koepel",-11.078039771139776],["verslaggever",-11.07805741709164],["geruchten",-11.078065609072413],["Emmen",-11.078078714844166],["racistisch",-11.07811404300347],["keeper",-11.078218766055835],["Visma",-11.07840984067294],["inhoudelijk",-11.07845359502765],["Winter",-11.078675018847175],["betrapt",-11.078786941544863],["head",-11.078922232074905],["Opvallend",-11.07929629728967],["bagage",-11.08288246761103],["bekek",-11.090507858087044],["nationaal",-11.095188798771023],["patiënt",-11.096178283621317],["handhave",-11.097400200574569],["wortel",-11.09999680530818],["verliefd",-11.102208912181304],["reikt",-11.10468852325771],["mobilis",-11.105797498648112],["administratie",-11.10580055561262],["toeschouwer",-11.105800562290398],["Sinterklaas",-11.105800564557292],["district",-11.105800566555828],["Volkskrant",-11.105800582661253],["Erdogan",-11.105800606893007],["Pogacar",-11.105800699061117],["gewelddadig",-11.105801016389975],["penalty",-11.1058037446067],["segment",-11.105808272698626],["cilinder",-11.105810253216221],["bitcoin",-11.10582029458967],["Natuur",-11.10583157158057],["Dirk",-11.105849791412268],["heffing",-11.105856517429569],["Stefan",-11.105865284384556],["isolatie",-11.105870058361885],["audio",-11.105898950828818],["aanmerking",-11.105901315312941],["omikron",-11.105921359566658],["Wetenschap",-11.105941164039105],["strikt",-11.105969897504778],["studeren",-11.10599039115541],["voortdurend",-11.106032944969169],["neef",-11.106233919031444],["permanent",-11.106303524614246],["aanhanger",-11.106351170855644],["hervat",-11.106458211847825],["scheep",-11.106531838796098],["Christian",-11.106565012288645],["vierkante",-11.108550677199107],["klem",-11.111540076061065],["schrijf",-11.120815963184281],["Camb",-11.123327521086773],["doos",-11.134259717859939],["spectaculair",-11.134371984200566],["President",-11.134371984453827],["architect",-11.134371985885515],["Aziatisch",-11.134371991152229],["obligatie",-11.134372015381475],["Volkswagen",-11.134372021759626],["hectare",-11.134372048844725],["verpakking",-11.134372152961845],["Verschillen",-11.134372343202724],["kleuter",-11.134374125457407],["Woensdag",-11.134374281882568],["centimeter",-11.134375581591792],["carnaval",-11.134375940854778],["rabië",-11.134381703061969],["stunt",-11.134387050128037],["valuta",-11.134388063161513],["Disney",-11.134396414605487],["HEM",-11.134404084380732],["VRT",-11.1344075764871],["ezorgd",-11.134455909541588],["investeerders",-11.134458272593378],["Gelderse",-11.13450654057225],["jurk",-11.134533734376669],["volume",-11.134584951744163],["Moeder",-11.134620732267397],["planning",-11.1346208081718],["Croo",-11.134681440961776],["waanzin",-11.135362724068063],["gepresenteerd",-11.13584124293041],["hielp",-11.137811810248568],["ariev",-11.139162781752548],["besprek",-11.144512952632702],["gemeenschappe",-11.147686113202228],["lezing",-11.148286460105723],["getrouwd",-11.148476652436742],["minderjarig",-11.156166477719756],["initiatie",-11.1618935944891],["ä",-11.16378374888848],["progressie",-11.16378374964162],["Portuge",-11.163783756851332],["FIFA",-11.163783800467485],["Consument",-11.163783824157278],["Heerenveen",-11.16378395861815],["puzzel",-11.163783976919083],["nauwkeurig",-11.163785854126866],["Joods",-11.163787481553532],["langzamer",-11.163790552577566],["wolven",-11.163790961506194],["stiekem",-11.163798159154988],["statement",-11.163801882437168],["terreur",-11.163802380533184],["horloge",-11.163804905019482],["vreten",-11.163822575454724],["zuiver",-11.163822708767889],["vooruitzicht",-11.163842238528737],["verzorging",-11.163895541775204],["geschaft",-11.163995858676563],["ultiem",-11.164062886919423],["kroeg",-11.164102974115261],["schaars",-11.164184313300888],["nieuwkomer",-11.164359767797688],["Remk",-11.164470122400754],["gekoppeld",-11.164842206792041],["razend",-11.16492971219271],["vergrot",-11.164998660147358],["worp",-11.183547130370812],["ppie",-11.183668449153402],["vermeend",-11.190017120784363],["geïnteresseerd",-11.194086779192515],["intimidatie",-11.194086780253533],["ceremonie",-11.194086783981362],["symptom",-11.19408680433209],["security",-11.194086816419231],["katholiek",-11.194086851366253],["teleurgesteld",-11.194086939818114],["Telegram",-11.194087365014987],["Hitler",-11.194087394243097],["NIET",-11.194087605345633],["Arabisch",-11.194087911597277],["Oorlog",-11.194089927934161],["intensieve",-11.194090329825682],["koninklijk",-11.194092367162837],["drinkwater",-11.194092639304854],["vanzelfsprekend",-11.194093710083473],["formule",-11.194096439002921],["Stijl",-11.194105206739433],["Messi",-11.194112765303059],["afwezig",-11.194113542122988],["Direct",-11.194116091497722],["letsel",-11.194150928629131],["streven",-11.19418979165416],["stekker",-11.19421574518881],["beseffen",-11.194217633958228],["lichtingendienst",-11.194244350242002],["kachel",-11.194267095984594],["Volod",-11.194492069926397],["verduurzam",-11.1950953026655],["Koreaans",-11.196734336923278],["arbeid",-11.197723569828181],["Vincen",-11.198890056448478],["gedur",-11.200247688987762],["flits",-11.202633641086768],["worst",-11.21672018067043],["lemm",-11.219277839720807],["ngeveer",-11.223463518809869],["ú",-11.225336779191512],["respectievelijk",-11.225336784182756],["Window",-11.225336789179696],["fragment",-11.22533681282145],["Omtzigt",-11.225337082434084],["break",-11.225337533327664],["identifice",-11.225337746609988],["Vereniging",-11.225339187513352],["patroon",-11.225340461361695],["regenboog",-11.225341364654053],["koeien",-11.225364575405159],["ouderwets",-11.225395894494554],["Donets",-11.225448316623776],["Krijg",-11.225484895927726],["gracht",-11.225495719648283],["gewaardeerd",-11.225900757355891],["geteld",-11.226673897556983],["escal",-11.22679082734754],["ashing",-11.236649057558823],["Arno",-11.24613053890419],["aanstaand",-11.256133815353342],["consequentie",-11.257594843785682],["inspiratie",-11.257594844538032],["introductie",-11.257594845968287],["concentratie",-11.257594959127138],["virtue",-11.257594973176712],["Hasselt",-11.257595099224453],["criminee",-11.257595250929402],["handhaving",-11.257595432969463],["comfort",-11.257595458970275],["onference",-11.257596122051577],["Klimaat",-11.257597480883344],["warmtepomp",-11.25759964480766],["Sophie",-11.257600605003647],["glazen",-11.257602241106982],["gijzel",-11.257603228050833],["cirkel",-11.257603463717297],["achtervolging",-11.25760409015201],["MacBook",-11.257609081569417],["makelaar",-11.257621367116917],["kwalijk",-11.257643243158256],["krimp",-11.257644419323125],["vorst",-11.257671724812072],["versterking",-11.25770899475394],["presteren",-11.257712324587896],["Klaver",-11.2577265789521],["dingetje",-11.257863977879914],["installer",-11.257943786806091],["dienstverlen",-11.258142609895256],["ontsnapt",-11.258207237776642],["duct",-11.270074899519845],["egenwoordig",-11.27222663940271],["nvesteerd",-11.275531303303254],["kwalific",-11.290519680878273],["É",-11.290928177040973],["ambassadeur",-11.290928177049153],["immuun",-11.290928177072853],["fatsoenlijk",-11.290928177916498],["enquête",-11.290928197348265],["Koninklijk",-11.290928231043239],["Beleggers",-11.29092825047633],["zorgvuldig",-11.29092831256339],["commandant",-11.290928725043562],["Kempen",-11.29092995553203],["Voetbal",-11.290932520927608],["Heuvel",-11.290933253010436],["camping",-11.290937101790988],["Drenth",-11.29094323236354],["Cherson",-11.290948297077703],["problematiek",-11.290955620880927],["reiking",-11.290956106836829],["kliniek",-11.290962276995462],["Space",-11.290964447395027],["medium",-11.290981067739933],["AOW",-11.290994589041118],["leraren",-11.291019776459255],["offensie",-11.291134663471327],["broeder",-11.291208687585165],["fusie",-11.29125720207843],["chemisch",-11.29156748274827],["Haarlem",-11.296950981026942],["medisch",-11.305709762877088],["regelgev",-11.314763670846663],["automaa",-11.316062138095297],["faillissement",-11.325410935662276],["stimuleren",-11.32541093574359],["gouverneur",-11.325410935829545],["Ecuador",-11.32541094520625],["humanitair",-11.325410946460657],["symbool",-11.32541095325012],["statistiek",-11.325410954885816],["frustratie",-11.325410965131262],["evenwicht",-11.325411041375126],["regisseur",-11.325411125210083],["avontuur",-11.325411579073366],["schandaal",-11.325412224318233],["betreur",-11.325412556700416],["koolstof",-11.325413581306677],["logistiek",-11.325414761083179],["Ziggo",-11.325415137030546],["krediet",-11.325416814147268],["attractie",-11.325417590954917],["strafrechtelijk",-11.325420665168124],["Excels",-11.325421029413752],["NASA",-11.325424218246273],["Senegal",-11.32542851529012],["down",-11.325434514569096],["NFT",-11.325448641759666],["Golf",-11.325471310046671],["biosco",-11.325490434311819],["mbledo",-11.325552064091685],["schepp",-11.326002133906291],["strooi",-11.329640941480488],["Stree",-11.352987966458032],["bibliotheek",-11.361125221375952],["solidariteit",-11.361125221405151],["tertainment",-11.361125228406564],["Voedsel",-11.361125253657885],["therapie",-11.361125315734979],["verzuim",-11.361125330429928],["Familie",-11.36112538776452],["recherche",-11.361125391198584],["Stream",-11.361125489275015],["evaluatie",-11.361125525772067],["reality",-11.361125713068255],["schorsing",-11.361126276498089],["talkshow",-11.361126682256003],["lunch",-11.361127033943834],["depressie",-11.361127043301131],["aanbeveling",-11.36112723504462],["business",-11.361127759663198],["aardbeving",-11.361127795284562],["congres",-11.361128989786057],["speech",-11.361129118742733],["Winterswijk",-11.361129795856886],["porno",-11.36113126330253],["Richard",-11.361134864020492],["versnelling",-11.361153073696025],["kassa",-11.361162216155854],["veiling",-11.361215835302854],["ingeschakeld",-11.361282461560647],["moeiza",-11.361366662521348],["Roemeni",-11.361404296503201],["Ziekenhui",-11.36165867142713],["voorwaardelijk",-11.361663671035341],["pikke",-11.371202646055814],["betrouwba",-11.375947135259347],["Internationa",-11.38232221789197],["democra",-11.394544606614826],["conferentie",-11.397981916876532],["ç",-11.398162258412809],["—",-11.398162258412986],["oorlogsmisdad",-11.398162261071114],["Hongkong",-11.398162262256573],["Festival",-11.398162267528248],["Studio",-11.398162285110221],["Democrati",-11.398162290237332],["glimlach",-11.398162330636243],["Centrum",-11.398162346063856],["bewaking",-11.398162462521842],["boycot",-11.398162520150278],["manifest",-11.398162846141933],["verslaving",-11.398163008570393],["personage",-11.398163200267081],["gruwelijk",-11.398163547491539],["snoep",-11.398165768967793],["extremis",-11.398166979496123],["Milieu",-11.398169514825854],["continent",-11.398170008713421],["uniform",-11.3981763293392],["recycl",-11.398176532035178],["geëist",-11.39818919273624],["pantser",-11.398199691952673],["atmosfe",-11.398314591795],["hausse",-11.398349610602946],["privat",-11.398595798245584],["verwarr",-11.398630968254688],["Blind",-11.398866965828988],["federatie",-11.399485183801396],["Francisc",-11.399626993450978],["investeer",-11.401727853544996],["ontkenne",-11.407566013260032],["begre",-11.40896567348435],["eroofd",-11.416569826526057],["Economi",-11.428648338113437],["corrupt",-11.435868563058076],["Curaçao",-11.436623796874539],["populariteit",-11.436623796915315],["expliciet",-11.436623797586675],["frequent",-11.436623802028269],["parcours",-11.436623834848126],["artillerie",-11.43662387327857],["reputatie",-11.436623884943263],["Duivels",-11.436623923040056],["Tokio",-11.436624098925986],["Russell",-11.4366241084138],["Californi",-11.436624119679289],["Hendrik",-11.436624221634911],["Wageningen",-11.436625095544663],["Zelenski",-11.436625142044871],["resulteer",-11.436625571900262],["renovatie",-11.4366257343931],["adviser",-11.436626225536529],["Colombia",-11.436628302288291],["begraafplaats",-11.436631382724189],["prominent",-11.436636145383556],["dominant",-11.436641464877741],["Victor",-11.4366511300071],["fiscal",-11.436707014981598],["elektronisch",-11.436731760589812],["sentiment",-11.4367810683204],["tablet",-11.436949675705074],["gemengd",-11.437061966844793],["filoso",-11.437875690626443],["woestijn",-11.439995220260638],["stikke",-11.445955647425972],["bevolkingsgroe",-11.454589527194795],["Kardashian",-11.476623796881377],["sympathie",-11.476623796965221],["demonstreren",-11.476623797169047],["suggestie",-11.476623797172067],["vreugde",-11.476623797623121],["motivatie",-11.476623797972906],["technologisch",-11.476623804923658],["scène",-11.476623827388526],["symbolisch",-11.476623828584692],["willekeurig",-11.476623835960584],["chirurg",-11.47662384737133],["geblesseerd",-11.47662385545166],["cannabis",-11.476623923711989],["epidemi",-11.47662402464423],["Bitcoin",-11.476624588183874],["Belarus",-11.476624713156163],["suggere",-11.476625646278098],["Randstad",-11.476627032196777],["asfalt",-11.476628468234438],["America",-11.476631804602388],["herhaling",-11.476633812767098],["schimmel",-11.476634418628407],["Vriend",-11.476641376001728],["criteri",-11.476647666582913],["schudd",-11.47668046349695],["arrive",-11.477485469405734],["belangstell",-11.510503491901236],["referendum",-11.51829046354927],["flexibel",-11.518290463678976],["discipline",-11.518290463765794],["concurreren",-11.51829046413572],["Gündo",-11.518290464376383],["professional",-11.518290464421721],["Mohammed",-11.518290475659137],["integriteit",-11.518290476568819],["ontploff",-11.518290490876279],["Management",-11.518290507504162],["apenpokken",-11.518290532763869],["confrontatie",-11.518290660263471],["arrogant",-11.518291110275156],["splits",-11.518291622564224],["variabel",-11.518292171921363],["oligarch",-11.518293531816541],["lancering",-11.518294650522746],["Rafael",-11.518294668337662],["werkloosheid",-11.518296536824613],["tolerant",-11.51829887797299],["Servië",-11.518301196819124],["bubbel",-11.518305697454197],["script",-11.518309816039492],["tractor",-11.518310958838157],["hysteri",-11.51831215206527],["Ukraine",-11.518313897689412],["campus",-11.518341136173614],["connect",-11.518345335714102],["cruise",-11.518414415596379],["ketting",-11.518634222658697],["afschaff",-11.518844298877045],["gigant",-11.556240209913371],["spreid",-11.558995932963096],["Luxemburg",-11.56176872442934],["jubileum",-11.561768724441059],["coördinat",-11.561768724568704],["diagnose",-11.561768724637506],["bombardement",-11.56176872477771],["Sebasti",-11.561768733510698],["immun",-11.561768751383905],["grandslam",-11.561768757022309],["marathon",-11.561768772956174],["protocol",-11.56176897379675],["toetreding",-11.561769217839027],["insecten",-11.561769393001647],["reductie",-11.561769968424484],["pluimvee",-11.561771158748371],["gewijzigd",-11.561771799313295],["absurd",-11.561773477716308],["Universit",-11.561773901555144],["Tsjechi",-11.561774496220144],["provider",-11.561778471666226],["ongelooflijk",-11.561790132756233],["correspondent",-11.561897985741574],["bijbehorend",-11.561981130220179],["Gelre",-11.562418913891024],["gasprij",-11.585692365755788],["oorlopig",-11.607131672042808],["«",-11.607223269865303],["enthousiasme",-11.607223269865809],["première",-11.607223269899226],["spektakel",-11.607223270447701],["compliment",-11.607223271333105],["Kampioen",-11.607223271640096],["inspireren",-11.607223272425639],["prestigieu",-11.607223272695919],["Erasmus",-11.60722330762168],["gegarandeerd",-11.607223309109592],["fundamente",-11.607223360277306],["teleurstelling",-11.607223435130763],["Kosovo",-11.607223456635763],["teleurstellend",-11.607223503184564],["Kyiv",-11.607223828871119],["geavanceerd",-11.607224151428376],["strepen",-11.607224415298985],["accijn",-11.60722584124631],["bromfiets",-11.607227224644273],["topscorer",-11.6072282218837],["streamingdienst",-11.607229274543275],["motive",-11.607232091386955],["Politic",-11.607235111704945],["compromis",-11.607263181866072],["Vleute",-11.607425992492118],["hittegol",-11.608281442178258],["professione",-11.653203609298036],["ê",-11.654842288264655],[">",-11.65484231748435],["ñ",-11.65484231748435],["influencer",-11.654842317499924],["prognose",-11.654842317904412],["consumptie",-11.654842318615492],["Cruijff",-11.654842318757426],["millimeter",-11.654842345221448],["verschuiving",-11.654842368088424],["Advoca",-11.654842369819255],["Capitool",-11.654842418353569],["Frankfurt",-11.654842421883956],["interventie",-11.654842425383714],["geïsoleerd",-11.6548424507328],["hockey",-11.654842545801074],["Mohamed",-11.65484259477262],["maffia",-11.654842672460436],["historie",-11.65484289320744],["schitterend",-11.65484302243453],["browser",-11.654843419656704],["reativiteit",-11.654843824641102],["geblokkeerd",-11.654846258699564],["oriënt",-11.654847113115364],["verslaafd",-11.654853044486872],["onvermijdelijk",-11.654857764595924],["Fernand",-11.65486576381307],["toonaangevend",-11.654871995355663],["verwijzing",-11.654873190278837],["Virgi",-11.654886714741409],["Arbeid",-11.654946442552514],["xpress",-11.655152707427149],["olumnist",-11.68711522583002],["produceer",-11.70306279539361],["accessoire",-11.704842317484642],["geïnstalleerd",-11.704842317534467],["provinciale",-11.704842317574482],["Cristian",-11.704842317665179],["occasion",-11.704842317758057],["Indonesië",-11.704842317908794],["Ziyech",-11.70484231863001],["gletsjer",-11.704842324123879],["telefonisch",-11.704842328308475],["HomePod",-11.704842330124546],["adviezen",-11.704842332529976],["Trudeau",-11.704842338114236],["evacuatie",-11.704842343744119],["Gazprom",-11.704842345045877],["microfoon",-11.704842348812278],["Vluchtelingen",-11.704842352354863],["onderbreking",-11.704842378617625],["Business",-11.704842407034036],["chocolade",-11.704842415936042],["toetsenbord",-11.70484242777232],["atletiek",-11.704842500113617],["gordijn",-11.704842541004783],["radicale",-11.70484254760769],["opportunis",-11.704842922492812],["Student",-11.704842956579032],["speaker",-11.7048432449653],["reactor",-11.70484352841106],["erformance",-11.704844014238217],["xecuti",-11.704868572966275],["Timmermans",-11.704956446969222],["edeputeerde",-11.704974692018865],["streef",-11.705081507127854],["traditione",-11.75598187914825],["ø",-11.75747389643172],["•",-11.75747389643172],["Palestijns",-11.757473897013263],["Hilversum",-11.757473898723656],["faciliteren",-11.757473903671352],["corporatie",-11.757473904193843],["christelijke",-11.757473909558058],["spionage",-11.757473917411561],["Doetinchem",-11.757473931384837],["soeverein",-11.757474019316184],["barbecue",-11.757474028958505],["Digital",-11.757474050128026],["ontploft",-11.757474056042827],["medicatie",-11.757474059324679],["parlementariër",-11.7574740666129],["zeldzame",-11.757474248257008],["Kazachs",-11.757474284479471],["gloednieuw",-11.757474334403684],["Technolog",-11.757474597269852],["gerelateerd",-11.757474833628809],["hulpverlener",-11.757474980784302],["Duidelijk",-11.757475030636272],["sanitair",-11.757475031724155],["gejaagd",-11.757504718885855],["exclusieve",-11.813029451989923],["Scandinavi",-11.813029451995678],["Conservatieve",-11.813029452007036],["Vught",-11.813029475943951],["basketbal",-11.813029484880483],["geselecteerd",-11.81302949374306],["position",-11.813029498663361],["kazerne",-11.813029606553872],["nieuwsgierig",-11.813029687639592],["observ",-11.813033970300303],["archeolog",-11.813776101293872],["significant",-11.871852981399119],["Hyundai",-11.8718529825125],["Gorinchem",-11.871852982690104],["Zutphen",-11.87185298363589],["geïnformeerd",-11.87185298384397],["verhuizing",-11.871852999284707],["exploit",-11.87185299982208],["erbrandingsmotor",-11.871853410779044],["historic",-11.871855030549694],["peperdur",-11.87185788411998],["geïntegreerd",-11.934352981409013],["laboratorium",-11.934352981414403],["evolutionair",-11.934352981568647],["lucratie",-11.934352982418215],["installateur",-11.934352983241006],["intellectue",-11.934352983307857],["therapeut",-11.934352983983105],["resolutie",-11.934352984841752],["stimuleer",-11.93435298660436],["Paternott",-11.934353000540293],["activeerd",-11.934353108708613],["Hollywood",-12.001019648066096],["psychiatri",-12.001019648066798],["geëvacueerd",-12.001019648069988],["concluderen",-12.00101964807006],["hygiëne",-12.001019648082188],["euthanasie",-12.001019648109875],["Persoonlijk",-12.001019648961082],["Zaporiz",-12.001019649259055],["champagne",-12.001019649509926],["reflectie",-12.001019650271658],["Wilhelmina",-12.00101965159308],["faciliteit",-12.001019652271372],["abstract",-12.001020098473807],["sociolo",-12.007580583281037],["Oekraïn",-12.011683488248392],["Journalist",-12.072448220285636],["Moldavië",-12.072448221229976],["secundair",-12.072448248577198],["legendarisch",-12.07244829330919],["efrustreerd",-12.07244835575959],["doctrine",-12.145410326948303],["´",-12.149371296417433],["geïntroduceerd",-12.149371296417435],["psychiater",-12.149371296422565],["ontgoocheld",-12.149371296426468],["geïdentificeerd",-12.14937129645678],["inclusiviteit",-12.149371296577677],["kathedraal",-12.149371296659947],["universitair",-12.149371297514767],["repressie",-12.149371305652423],["kiezingsuitslag",-12.149629493937649],["rbeidsvoorwaarde",-12.198460056312818],["geïnterviewd",-12.232704629750943],["orthodox",-12.232704629752554],["Provinciale",-12.232704629759903],["gediscrimin",-12.232704677897793],["classific",-12.232706305295652],["lektriciteitsnet",-12.237674527000946],["crowdfunding",-12.323613720660234],["discrimineren",-12.32361372066032],["François",-12.323613720660639],["fastfood",-12.32361372066119],["distributiecentr",-12.32361372067038],["manoeuvre",-12.32361372072404],["geïmproviseerd",-12.423613720664134],["sympathisant",-12.534724831774588],["×",-12.53472483177459],["‚",-12.53472483177459],["Bibliotheek",-12.534724831774591],["mountainbike",-12.534724831774636],["Ö",-12.659724831783691],["̶",-12.802581974640841],["ğ",-12.802581974680797],["ã",-12.802581974680797],["Ü",-12.969248641307503],["ş",-12.969248641347457],["ô",-12.96924864134746],["¬",-12.969248641347463],["ò",-12.969248641347463],["å",-12.969248641347463],["−",-12.969248641347463],["û",-12.969248641347463],["£",-12.969248641347463],["ì",-13.169248641307504],["̈",-13.169248641347464],["▶",-13.169248641347464],["™",-13.419134215043812],["ž",-13.419248641307508],["<",-13.419248641347464],["`",-13.419248641347464],["¨",-13.419248641347464],["ć",-13.419248641347464],["°",-13.419248641347464],["Ç",-13.752581974680794],["³",-13.752581974680796],["²",-13.752581974680796],["~",-13.752581974680796],["æ",-14.25258197464084],["š",-14.25258197464084],["ł",-14.252581974680787],["ĳ",-14.252581974680792],["ń",-14.252581974680798],["ù",-14.252581974680798],["¤",-14.252581974680798],["′",-14.252581974680798],["‹",-14.252581974680798],["·",-14.252581974680798],["®",-14.252581974680798],["‡",-14.252581974680798],["ý",-14.252581974680798],["Ў",-14.252581974680798],["Ÿ",-15.251381974680795],["́",-15.251481974680797],["Á",-15.251581974680796],["★",-15.251681974680796],["‰",-15.251781974680796],["î",-15.251881974680796],["Å",-15.251981974680795],["ð",-15.252081974680795],["¦",-15.252181974680795],["ђ",-15.252281974680796],["ю",-15.252381974680796],["Р",-15.252481974680796],["†",-15.252581974680796],["☆",-15.252581974680796],["₂",-15.252581974680796],["Ġ",-15.252581974680796],["℃",-15.252581974680796],["⌘",-15.252581974680796],["º",-15.252581974680796],["ķ",-15.252581974680796],["﻿",-15.252581974680796],["静",-15.252581974680796],["Ø",-15.252581974680796],["±",-15.252581974680796],["≈",-15.252581974680796],["ς",-15.252581974680796],["ν",-15.252581974680796],["ě",-15.252581974680796],["č",-15.252581974680796],["ō",-15.252581974680796],["├",-15.252581974680796],["⇧",-15.252581974680796],["Ó",-15.252581974680796],["È",-15.252581974680796],["期",-15.252581974680796],["ß",-15.252581974680796],["Ž",-15.252581974680796],["默",-15.252581974680796],["ο",-15.252581974680796],["υ",-15.252581974680796],["",-15.252581974680796]]}}