{"version":"1.0","truncation":null,"padding":null,"added_tokens":[{"id":0,"special":true,"content":"<UNK>","single_word":false,"lstrip":false,"rstrip":false,"normalized":false},{"id":1,"special":true,"content":"<SEP>","single_word":false,"lstrip":false,"rstrip":false,"normalized":false},{"id":2,"special":true,"content":"<MASK>","single_word":false,"lstrip":false,"rstrip":false,"normalized":false},{"id":3,"special":true,"content":"<CLS>","single_word":false,"lstrip":false,"rstrip":false,"normalized":false}],"normalizer":null,"pre_tokenizer":{"type":"Whitespace"},"post_processor":null,"decoder":null,"model":{"type":"WordPiece","unk_token":"<UNK>","continuing_subword_prefix":"##","max_input_chars_per_word":100,"vocab":{"<UNK>":0,"<SEP>":1,"<MASK>":2,"<CLS>":3,"!":4,"\"":5,"$":6,"%":7,"&":8,"'":9,"(":10,")":11,"*":12,"+":13,",":14,"-":15,".":16,"/":17,"0":18,"1":19,"2":20,"3":21,"4":22,"5":23,"6":24,"7":25,"8":26,"9":27,":":28,";":29,"<":30,">":31,"?":32,"A":33,"B":34,"C":35,"D":36,"E":37,"F":38,"G":39,"H":40,"I":41,"J":42,"K":43,"L":44,"M":45,"N":46,"O":47,"P":48,"Q":49,"R":50,"S":51,"T":52,"U":53,"V":54,"W":55,"X":56,"Y":57,"Z":58,"`":59,"a":60,"b":61,"c":62,"d":63,"e":64,"f":65,"g":66,"h":67,"i":68,"j":69,"k":70,"l":71,"m":72,"n":73,"o":74,"p":75,"q":76,"r":77,"s":78,"t":79,"u":80,"v":81,"w":82,"x":83,"y":84,"z":85,"~":86,"£":87,"¤":88,"¦":89,"¨":90,"«":91,"¬":92,"®":93,"°":94,"±":95,"²":96,"³":97,"´":98,"·":99,"º":100,"»":101,"Á":102,"Å":103,"Ç":104,"È":105,"É":106,"Ó":107,"Ö":108,"×":109,"Ø":110,"Ü":111,"ß":112,"à":113,"á":114,"â":115,"ã":116,"ä":117,"å":118,"æ":119,"ç":120,"è":121,"é":122,"ê":123,"ë":124,"ì":125,"í":126,"î":127,"ï":128,"ð":129,"ñ":130,"ò":131,"ó":132,"ô":133,"ö":134,"ø":135,"ù":136,"ú":137,"û":138,"ü":139,"ý":140,"ć":141,"č":142,"ě":143,"ğ":144,"Ġ":145,"ĳ":146,"ķ":147,"ł":148,"ń":149,"ō":150,"ş":151,"š":152,"Ÿ":153,"Ž":154,"ž":155,"˜":156,"́":157,"̈":158,"̶":159,"ν":160,"ο":161,"ς":162,"υ":163,"Ў":164,"Р":165,"ю":166,"ђ":167,"–":168,"—":169,"‘":170,"’":171,"‚":172,"“":173,"”":174,"„":175,"†":176,"‡":177,"•":178,"…":179,"‰":180,"′":181,"‹":182,"₂":183,"€":184,"℃":185,"™":186,"⇧":187,"−":188,"≈":189,"⌘":190,"├":191,"▶":192,"★":193,"☆":194,"期":195,"静":196,"默":197,"":198,"﻿":199,"##a":200,"##p":201,"##j":202,"##e":203,"##s":204,"##r":205,"##w":206,"##k":207,"##n":208,"##i":209,"##g":210,"##m":211,"##d":212,"##l":213,"##c":214,"##o":215,"##t":216,"##z":217,"##b":218,"##u":219,"##v":220,"##f":221,"##h":222,"##9":223,"##2":224,"##M":225,"##D":226,"##3":227,"##7":228,"##y":229,"##L":230,"##4":231,"##5":232,"##J":233,"##O":234,"##K":235,"##8":236,"##6":237,"##ï":238,"##G":239,"##E":240,"##B":241,"##N":242,"##A":243,"##S":244,"##I":245,"##V":246,"##0":247,"##x":248,"##C":249,"##1":250,"##è":251,"##á":252,"##Z":253,"##P":254,"##F":255,"##ë":256,"##U":257,"##ü":258,"##T":259,"##R":260,"##W":261,"##Q":262,"##$":263,"##é":264,"##X":265,"##ö":266,"##û":267,"##ô":268,"##ú":269,"##ñ":270,"##H":271,"##’":272,"##,":273,"##ó":274,"##q":275,"##˜":276,"##ù":277,"##.":278,"##)":279,"##ø":280,"##â":281,"##™":282,"##:":283,"##ä":284,"##ç":285,"##/":286,"##Y":287,"##”":288,"##É":289,"##\"":290,"##–":291,"##(":292,"##ê":293,"##?":294,"##í":295,"##à":296,"##æ":297,"##‚":298,"##“":299,"##'":300,"##¬":301,"##̈":302,"##±":303,"##€":304,"##%":305,"##ђ":306,"##ю":307,"##î":308,"##‘":309,"##!":310,"##★":311,"##☆":312,"##ì":313,"##…":314,"##-":315,"##ş":316,"##Р":317,"##Ў":318,"##„":319,"##⌘":320,"##>":321,"##~":322,"##³":323,"##ò":324,"##́":325,"##å":326,"##;":327,"##ō":328,"##ß":329,"##ð":330,"##Ÿ":331,"##†":332,"##ã":333,"##ž":334,"##š":335,"##ć":336,"##*":337,"##ý":338,"##Ž":339,"##ń":340,"##ł":341,"##»":342,"##‹":343,"##‰":344,"##ĳ":345,"##+":346,"##º":347,"##ğ":348,"##ķ":349,"##̶":350,"##č":351,"##默":352,"##期":353,"##<":354,"##¦":355,"##ο":356,"##υ":357,"##ς":358,"##⇧":359,"##£":360,"##ě":361,"##en":362,"##er":363,"##an":364,"##et":365,"##ij":366,"##el":367,"de":368,"##aa":369,"##or":370,"##in":371,"##ie":372,"##at":373,"##ch":374,"##st":375,"##aar":376,"van":377,"een":378,"##it":379,"in":380,"##on":381,"het":382,"##oor":383,"en":384,"##gen":385,"##der":386,"ge":387,"##den":388,"##de":389,"##ee":390,"op":391,"##oe":392,"##al":393,"##ar":394,"te":395,"is":396,"##cht":397,"##ro":398,"ver":399,"##ig":400,"##ijn":401,"##ing":402,"al":403,"dat":404,"voor":405,"##ijk":406,"##is":407,"##le":408,"be":409,"##om":410,"##eer":411,"##iet":412,"##ken":413,"st":414,"##ol":415,"##ur":416,"aan":417,"##ver":418,"##and":419,"met":420,"##ge":421,"##il":422,"zijn":423,"on":424,"niet":425,"##re":426,"##og":427,"##ra":428,"die":429,"De":430,"##ok":431,"##un":432,"##te":433,"##aat":434,"##id":435,"##ot":436,"##ou":437,"om":438,"##am":439,"er":440,"##us":441,"##as":442,"ze":443,"je":444,"##ers":445,"he":446,"##ven":447,"##op":448,"##ag":449,"uit":450,"##ft":451,"##elijk":452,"##rij":453,"##aan":454,"##ten":455,"ook":456,"we":457,"##sen":458,"##se":459,"##sch":460,"over":461,"##eld":462,"##ien":463,"re":464,"##kt":465,"maar":466,"wor":467,"##ste":468,"##aal":469,"bij":470,"##uw":471,"als":472,"##ele":473,"##je":474,"##oet":475,"##nen":476,"wer":477,"##ent":478,"##ad":479,"zo":480,"Het":481,"##ze":482,"##ct":483,"heb":484,"dan":485,"##he":486,"nog":487,"##ui":488,"##oen":489,"##len":490,"##ier":491,"##ond":492,"##oo":493,"##eel":494,"##ap":495,"##eeft":496,"##ingen":497,"ik":498,"##atie":499,"##ang":500,"door":501,"##ul":502,"naar":503,"##eren":504,"waar":505,"heeft":506,"##ak":507,"wel":508,"##dt":509,"of":510,"af":511,"pro":512,"meer":513,"onder":514,"##ik":515,"was":516,"le":517,"##ige":518,"##isch":519,"sch":520,"##ant":521,"##uur":522,"##acht":523,"##em":524,"##land":525,"##sp":526,"##ben":527,"sp":528,"##be":529,"##ut":530,"hij":531,"kun":532,"##ist":533,"hebben":534,"wat":535,"an":536,"alle":537,"moet":538,"kan":539,"##pen":540,"##omen":541,"##ic":542,"jaar":543,"##icht":544,"In":545,"##im":546,"##eder":547,"##ijd":548,"##lijk":549,"##uit":550,"daar":551,"##ind":552,"##elen":553,"##ter":554,"##es":555,"vol":556,"worden":557,"##gt":558,"##oed":559,"##elf":560,"##ru":561,"men":562,"##wee":563,"##ich":564,"##heid":565,"##zen":566,"##een":567,"wordt":568,"##ieuw":569,"tot":570,"Dat":571,"##ke":572,"##art":573,"geen":574,"Ik":575,"##sl":576,"ander":577,"dit":578,"##itie":579,"Al":580,"##ker":581,"bl":582,"nu":583,"pl":584,"20":585,"##ische":586,"gro":587,"##aag":588,"wil":589,"ter":590,"##gens":591,"##oek":592,"##oon":593,"##ast":594,"ma":595,"zich":596,"##dag":597,"eer":598,"##ve":599,"##aak":600,"##aren":601,"bet":602,"En":603,"zou":604,"kunnen":605,"na":606,"me":607,"tegen":608,"##br":609,"##os":610,"##we":611,"##men":612,"##gel":613,"##igen":614,"veel":615,"##od":616,"gew":617,"deze":618,"Maar":619,"##ies":620,"##aten":621,"min":622,"mensen":623,"##ale":624,"hun":625,"##ort":626,"##onder":627,"gr":628,"gev":629,"nieuw":630,"##erk":631,"##oord":632,"gaat":633,"mee":634,"twee":635,"Neder":636,"##chter":637,"##uro":638,"##ne":639,"ont":640,"##sten":641,"##ite":642,"##open":643,"##ger":644,"weer":645,"##uis":646,"##ug":647,"##ff":648,"##ac":649,"werd":650,"had":651,"##dat":652,"Een":653,"kl":654,"gem":655,"##oc":656,"gaan":657,"sl":658,"##orm":659,"con":660,"goed":661,"##ion":662,"to":663,"haar":664,"##ek":665,"##oop":666,"zelf":667,".”":668,"##00":669,"hoe":670,"##ank":671,"##eek":672,"Nederland":673,"Rus":674,"man":675,"##um":676,"bed":677,"toe":678,"kw":679,"##ia":680,"##ber":681,"##ië":682,"##uk":683,"##ctie":684,"##amen":685,"dr":686,"##af":687,"##ub":688,"##rouw":689,"vr":690,"##ir":691,"We":692,"##aakt":693,"##ders":694,"##innen":695,"bel":696,"##pl":697,"##ijden":698,"##jes":699,"andere":700,"##oel":701,"##cent":702,"##hou":703,"dus":704,"##val":705,"##ets":706,"beg":707,"##agen":708,"moeten":709,"##oer":710,"##els":711,"##ouw":712,"komen":713,"Daar":714,"ex":715,"##wij":716,"##ere":717,"##eerd":718,"##alen":719,"eigen":720,"##eten":721,"##iek":722,"mil":723,"br":724,"kom":725,"##mer":726,"##ster":727,"nieuwe":728,"pol":729,"blij":730,"##per":731,"krij":732,"el":733,"##oog":734,"##ussen":735,"##voor":736,"##elijke":737,"##brui":738,"##uid":739,"best":740,"verk":741,"doen":742,"##ab":743,"gez":744,"##eed":745,"##ard":746,"##maal":747,"Er":748,"##iteit":749,"tijd":750,"##ater":751,"Als":752,"##pp":753,"hier":754,"##eem":755,"zal":756,"##kken":757,"aut":758,"gen":759,"sn":760,"##iden":761,"##ine":762,"##deren":763,"##ell":764,"laat":765,"toch":766,"##ens":767,"maken":768,"mijn":769,"##zoek":770,"staat":771,"##ran":772,"ben":773,"##ust":774,"##oeg":775,"geb":776,"##ink":777,"##als":778,"ged":779,"zit":780,"##onden":781,"lang":782,"##racht":783,"vrij":784,"heel":785,"zegt":786,"St":787,"##aam":788,"werk":789,"Oek":790,"##tijd":791,"vert":792,"Van":793,"moe":794,"Ook":795,"Oekra":796,"eerste":797,"Ze":798,"##gev":799,"komt":800,"bo":801,"Hij":802,"pre":803,"##vol":804,"vl":805,"politie":806,"land":807,"##bij":808,"per":809,"##ip":810,"##elt":811,"hele":812,"##kend":813,"Op":814,"alleen":815,"##oren":816,"##baar":817,"com":818,"Oekraï":819,"##anden":820,"##erg":821,"##uren":822,"##io":823,"##ocht":824,"##wer":825,"##ron":826,"##me":827,"echt":828,"##schap":829,"202":830,"##uiten":831,"##av":832,"##oep":833,"##iv":834,"##ma":835,"gebrui":836,"terug":837,"##ood":838,"den":839,"##ec":840,"##org":841,"##ire":842,"eens":843,"##rijk":844,"plaat":845,"verd":846,"##ings":847,"##aad":848,"hou":849,"Die":850,"zien":851,"procent":852,"”,":853,"##tal":854,"iets":855,"achter":856,"##ud":857,"weg":858,"pr":859,"##bl":860,"##of":861,"ons":862,"omdat":863,"milj":864,"hem":865,"##ellen":866,"Je":867,"##zelf":868,"gel":869,"grote":870,"even":871,"Euro":872,"##zet":873,"##ief":874,"##huis":875,"##atuur":876,"Ch":877,"euro":878,"Voor":879,"##dig":880,"##idd":881,"zw":882,"##ucht":883,"groot":884,"##ogelijk":885,"dag":886,"kle":887,"##pt":888,"mis":889,"##eert":890,"An":891,"net":892,"##ggen":893,"Vol":894,"pers":895,"##are":896,"##iel":897,"binnen":898,"altijd":899,"##ree":900,"##oof":901,"Zo":902,"##man":903,"auto":904,"toen":905,"versch":906,"Europ":907,"vin":908,"Dit":909,"##ijf":910,"leven":911,"samen":912,"tussen":913,"verl":914,"wereld":915,"##komen":916,"##int":917,"##ed":918,"ko":919,"ar":920,"##werk":921,"##mee":922,"onze":923,"##ijdens":924,"##eerde":925,"zoals":926,"##ide":927,"gewoon":928,"##nem":929,"##eeds":930,"waren":931,"##ation":932,"##uim":933,"her":934,"minder":935,"##ss":936,"geld":937,"vrouw":938,"bedrij":939,"gele":940,"##iss":941,"aange":942,"keer":943,"verw":944,"mogelijk":945,"recht":946,"snel":947,".\"":948,"se":949,"willen":950,"##mp":951,"jaren":952,"##én":953,"##ullen":954,"mij":955,"ieder":956,"weten":957,"##ister":958,"wij":959,"##ijken":960,"Mar":961,"##uc":962,"Wat":963,"##artij":964,"inter":965,"##oten":966,"steeds":967,"hel":968,"won":969,"week":970,"##van":971,"cor":972,"hand":973,"elk":974,"##con":975,"Met":976,"oor":977,"Ver":978,"volgens":979,"der":980,"##amp":981,"##anc":982,"##iz":983,"##oot":984,"verb":985,"belang":986,"##ass":987,"##ren":988,"krijgen":989,"besch":990,"laten":991,"##tra":992,"##eg":993,"##ov":994,"##beeld":995,"tra":996,"##ob":997,"##ong":998,"rond":999,"drie":1000,"huis":1001,"open":1002,"##gelopen":1003,"want":1004,"##dien":1005,"##aanse":1006,"On":1007,"##ogen":1008,"##oort":1009,"##amer":1010,"##au":1011,"uur":1012,"##stand":1013,"##elde":1014,"##ijkt":1015,"##unt":1016,"##ame":1017,"##ann":1018,"201":1019,"vor":1020,"Oekraïne":1021,"Russ":1022,"kon":1023,"##aast":1024,"##sdag":1025,"##rek":1026,"hoog":1027,"tijdens":1028,"Le":1029,"##ragen":1030,"kin":1031,"onderzoek":1032,"Rusland":1033,"natuur":1034,"plaats":1035,"vier":1036,"verh":1037,"##odig":1038,"staan":1039,"maand":1040,"##act":1041,"laatste":1042,"##kom":1043,"##eling":1044,"Sp":1045,"##ooit":1046,"mag":1047,"één":1048,"verg":1049,"##rijd":1050,"##log":1051,"##aken":1052,"Br":1053,"Bij":1054,"##inds":1055,"##ost":1056,"##ari":1057,"verder":1058,"##ow":1059,"beh":1060,"deel":1061,"bez":1062,").":1063,"##geven":1064,"gek":1065,"##achten":1066,"##ult":1067,"miljoen":1068,"##veel":1069,"##aties":1070,"or":1071,"##woord":1072,"prob":1073,"besl":1074,"##ler":1075,"gemeen":1076,"##etje":1077,"buiten":1078,"##if":1079,"gebe":1080,"##wel":1081,"##etten":1082,"geh":1083,"vooral":1084,"kwam":1085,"ple":1086,"Volgens":1087,"energ":1088,"##gr":1089,"##houden":1090,"lig":1091,"##door":1092,"##end":1093,"##arige":1094,"19":1095,"Sch":1096,"##lie":1097,"##ruk":1098,"zonder":1099,"zie":1100,"##omm":1101,"nooit":1102,"##anis":1103,"ou":1104,"##over":1105,"aantal":1106,"enk":1107,"zij":1108,"##ool":1109,"eerder":1110,"##aard":1111,"##oem":1112,"blijven":1113,"verschil":1114,"Amer":1115,"##na":1116,"alles":1117,"Bel":1118,"##ment":1119,"##orgen":1120,"Russische":1121,"##la":1122,"##ander":1123,"coron":1124,"##dst":1125,"afgelopen":1126,"##oede":1127,"##geb":1128,"##ert":1129,"med":1130,"partij":1131,"ve":1132,"##off":1133,"belangrijk":1134,"ruim":1135,"##ees":1136,"##ilig":1137,"zelfs":1138,"Amerik":1139,"nodig":1140,"sle":1141,"zeker":1142,"##voer":1143,"##ade":1144,"##gd":1145,"elkaar":1146,"##won":1147,"Dan":1148,"##ri":1149,"##eter":1150,"val":1151,"zullen":1152,"##ce":1153,"beter":1154,"##bal":1155,"##inn":1156,"ste":1157,"inf":1158,"##our":1159,"##ooi":1160,"ten":1161,"##ram":1162,"eind":1163,"verm":1164,"Hoe":1165,"ad":1166,"##aart":1167,"##ikk":1168,"##weg":1169,"##dam":1170,"##uizen":1171,"weet":1172,"anders":1173,"##ach":1174,"000":1175,"gesch":1176,"volgen":1177,"jarige":1178,"##akk":1179,"##ks":1180,"##rijs":1181,"houden":1182,"zeggen":1183,"helemaal":1184,"##aas":1185,"werden":1186,"bekend":1187,"allemaal":1188,"##eb":1189,"Om":1190,"tre":1191,"zitten":1192,"niets":1193,"##ark":1194,"##oven":1195,"Na":1196,"ber":1197,"##sel":1198,"##rag":1199,"##aakte":1200,"gest":1201,"gesp":1202,"##cl":1203,"##ces":1204,"##uidelijk":1205,"##emen":1206,"stad":1207,"##gaan":1208,"kinderen":1209,"\",":1210,"vast":1211,"geval":1212,"##isten":1213,"Be":1214,"fin":1215,"##gest":1216,"##lende":1217,"app":1218,"oorlog":1219,"maakt":1220,"Nederlandse":1221,"minister":1222,"##deel":1223,"##voorbeeld":1224,"hoof":1225,"##oment":1226,"##co":1227,"blijft":1228,"##ans":1229,"vaak":1230,"tweede":1231,"Duit":1232,"boven":1233,"bedrijf":1234,"cont":1235,"##ill":1236,"##str":1237,"via":1238,"##heden":1239,"10":1240,"ging":1241,"werken":1242,"Vl":1243,"energie":1244,"##tre":1245,"##mm":1246,"##arkt":1247,"get":1248,"vinden":1249,"doet":1250,"lijkt":1251,"##igd":1252,"ken":1253,"bur":1254,"str":1255,"##sm":1256,"moment":1257,"vak":1258,"##raf":1259,"Deze":1260,"##wijl":1261,"##ieden":1262,"reg":1263,"voet":1264,"##aanden":1265,"natuurlijk":1266,"kr":1267,"##ieren":1268,"duur":1269,"ger":1270,"gee":1271,"##aald":1272,"##oos":1273,"##ay":1274,"bijvoorbeeld":1275,"##ader":1276,"##oeken":1277,"##ijna":1278,"Am":1279,"##zien":1280,"ne":1281,"##uist":1282,"plan":1283,"cl":1284,"##midd":1285,"##oopt":1286,"iedereen":1287,"##age":1288,"kunt":1289,"blijk":1290,"tien":1291,"##ident":1292,"sinds":1293,"##ied":1294,"##schien":1295,"slecht":1296,"##zelfde":1297,"pas":1298,"##iding":1299,"##vers":1300,"gebeur":1301,"erg":1302,"geven":1303,"##tje":1304,"hadden":1305,"Ar":1306,"##itter":1307,"jon":1308,"##aire":1309,"##dere":1310,"vraag":1311,"##pro":1312,"##ichting":1313,"geleden":1314,"##app":1315,"goede":1316,"##bur":1317,"bep":1318,"##emand":1319,"##leg":1320,"##gem":1321,"kn":1322,"zei":1323,"nam":1324,"##slag":1325,"##nieuw":1326,"##erm":1327,"##inig":1328,"gemaakt":1329,"landen":1330,"##appen":1331,"##avond":1332,"gebruik":1333,"krijgt":1334,"##hand":1335,"##one":1336,"zouden":1337,"prod":1338,"vand":1339,"##ern":1340,"##ina":1341,"##angen":1342,"later":1343,"opge":1344,"gemeente":1345,"brand":1346,"ch":1347,"##sk":1348,"##elden":1349,"bew":1350,"##all":1351,"##elingen":1352,"##ord":1353,"Belg":1354,"dire":1355,"##eken":1356,"##itu":1357,"gra":1358,".’":1359,"dagen":1360,"##oge":1361,"##iale":1362,"##les":1363,"##amil":1364,"paar":1365,"##ositie":1366,"bijna":1367,"fl":1368,"Waar":1369,"maanden":1370,"##uz":1371,"##eef":1372,"##ese":1373,"##vl":1374,"##get":1375,"eerst":1376,"iemand":1377,"##vin":1378,"bele":1379,"water":1380,"##lijke":1381,"enkele":1382,"verwacht":1383,"maat":1384,"top":1385,"##ax":1386,"##ode":1387,"##oepen":1388,"##oss":1389,"vijf":1390,"soort":1391,"##zicht":1392,"stem":1393,"doel":1394,"##ris":1395,"duidelijk":1396,"gas":1397,"dien":1398,"##ess":1399,"##vang":1400,"##rokken":1401,"ald":1402,"extra":1403,"speel":1404,"Fran":1405,"oo":1406,"##bare":1407,"beste":1408,"##akken":1409,"Den":1410,"kijken":1411,"nemen":1412,"##stell":1413,"org":1414,"##arm":1415,"##igde":1416,"rij":1417,"##rie":1418,"##wege":1419,"vrien":1420,"opl":1421,"hebt":1422,"aldus":1423,"15":1424,"thuis":1425,"##waar":1426,"ide":1427,"##unten":1428,"lever":1429,"afge":1430,"person":1431,"Amerikaanse":1432,"##vest":1433,"Nu":1434,"am":1435,"##aven":1436,"##gele":1437,"vanaf":1438,"##eur":1439,"##vallen":1440,"##izoen":1441,"meld":1442,"wie":1443,"denk":1444,"##wikk":1445,"##eu":1446,"##ente":1447,"##plaat":1448,"zom":1449,"##air":1450,"##leden":1451,"stuk":1452,"##aalde":1453,"El":1454,"Gro":1455,"##reken":1456,"regel":1457,"##schapp":1458,"##ser":1459,"beetje":1460,"vindt":1461,"##oll":1462,"##reeg":1463,"##est":1464,"hal":1465,"ind":1466,"##eest":1467,"terwijl":1468,"Europese":1469,"kop":1470,"##ding":1471,"inge":1472,"weinig":1473,"eigenlijk":1474,"##kl":1475,"organis":1476,"##stof":1477,"Of":1478,"##rijzen":1479,"##ffen":1480,"kreeg":1481,"##king":1482,"zorg":1483,"##ondag":1484,"lie":1485,"##weest":1486,"manier":1487,"##sie":1488,"##asis":1489,"genoeg":1490,"’.":1491,"##doen":1492,"##ue":1493,"volle":1494,"hard":1495,"##ect":1496,"##gang":1497,"gevol":1498,"##aterdag":1499,"geweest":1500,"##antie":1501,"##iën":1502,"verschillende":1503,"hoofd":1504,"bere":1505,"##yp":1506,"##erd":1507,"bren":1508,"##lemen":1509,"Is":1510,"##ive":1511,"##iem":1512,"fil":1513,"##aliteit":1514,"##teur":1515,"uitge":1516,"##bleem":1517,"Europa":1518,"kab":1519,"##oh":1520,"##indelijk":1521,"##sident":1522,"##onde":1523,"vind":1524,"##echt":1525,"weken":1526,"wedst":1527,"kans":1528,"adv":1529,"Ge":1530,"ac":1531,"##bo":1532,"##ubl":1533,"seizoen":1534,"soc":1535,"##ioen":1536,"##room":1537,"ligt":1538,"geeft":1539,"actie":1540,"##onnen":1541,"moest":1542,"##ett":1543,"##roken":1544,"##atief":1545,"gedaan":1546,"vandaag":1547,"##oensdag":1548,"vrijdag":1549,"kant":1550,"sc":1551,"##kende":1552,"gere":1553,"##oto":1554,"),":1555,"Dus":1556,"col":1557,"sy":1558,"##oorden":1559,"maakte":1560,"mogen":1561,"overheid":1562,"win":1563,"##ulp":1564,"##rug":1565,"##conom":1566,"##rim":1567,"vrouwen":1568,"Niet":1569,"woord":1570,"##ange":1571,"##olen":1572,"aand":1573,"##out":1574,"comp":1575,"reger":1576,"mede":1577,"##anneer":1578,"EU":1579,"ele":1580,"##chn":1581,"spel":1582,"hen":1583,"onge":1584,"##oetin":1585,"##bouw":1586,"##inde":1587,"groep":1588,"##ry":1589,"verz":1590,"vlucht":1591,"##gers":1592,"reden":1593,"zondag":1594,"Ant":1595,"act":1596,"lucht":1597,"’,":1598,"##aars":1599,"##tie":1600,"ziet":1601,"##oms":1602,"gezien":1603,"zorgen":1604,"inst":1605,"##bed":1606,"grond":1607,"veilig":1608,"Door":1609,"beteken":1610,"zaterdag":1611,"voetbal":1612,"di":1613,"blijkt":1614,"ooit":1615,"probleem":1616,"kil":1617,"##akt":1618,"##anten":1619,"##iging":1620,"##nemers":1621,"do":1622,"echter":1623,"lief":1624,"enige":1625,"##recht":1626,"meest":1627,"club":1628,"bent":1629,"druk":1630,"##rijden":1631,"##rijven":1632,"30":1633,"App":1634,"cent":1635,"dood":1636,"##insdag":1637,"vanwege":1638,"team":1639,"Fr":1640,"nad":1641,"rol":1642,"##nis":1643,"##gram":1644,"gelijk":1645,"woensdag":1646,"##ian":1647,"##ts":1648,"##inet":1649,"waarsch":1650,"zetten":1651,"intern":1652,"Poetin":1653,"##derd":1654,"ser":1655,"##orden":1656,"reken":1657,"acht":1658,"##raag":1659,"##staan":1660,"##ont":1661,"Te":1662,"licht":1663,"vanuit":1664,"vorig":1665,"tele":1666,"Alle":1667,"prijs":1668,"##alis":1669,"##ook":1670,"##reg":1671,"rest":1672,"##woners":1673,"bedrijven":1674,"maandag":1675,"namelijk":1676,"##uil":1677,"##ieten":1678,"##zonder":1679,"misschien":1680,"vervol":1681,"Over":1682,"hog":1683,"rel":1684,"##sche":1685,"##onderdag":1686,"last":1687,"##middels":1688,"##tu":1689,"##achtoff":1690,"##ijnen":1691,"president":1692,"12":1693,"##iële":1694,"##sterdam":1695,"##cies":1696,"opnieuw":1697,"spec":1698,"media":1699,"##ense":1700,"##iez":1701,"off":1702,"##iets":1703,"stij":1704,"##ichten":1705,"Amsterdam":1706,"bev":1707,"##oppen":1708,"persoon":1709,"jul":1710,"##ille":1711,"##und":1712,"##regen":1713,"Af":1714,"waarin":1715,"werkt":1716,"grootste":1717,"##rum":1718,"klein":1719,"Un":1720,"su":1721,"enorm":1722,"begin":1723,"##wijs":1724,"elekt":1725,"100":1726,"##ium":1727,"graag":1728,"bouw":1729,"basis":1730,"hoge":1731,"mid":1732,"ongev":1733,"train":1734,"famil":1735,"bestuur":1736,"denken":1737,"juist":1738,"rijden":1739,"draa":1740,"gebruiken":1741,"25":1742,"Re":1743,"positie":1744,"elke":1745,"neem":1746,"tw":1747,"##olog":1748,"##ure":1749,"##assen":1750,"2022":1751,"##stel":1752,"##uigen":1753,"##jaar":1754,"##ikt":1755,"##och":1756,"ontwikk":1757,"regering":1758,"##bel":1759,"kabinet":1760,"zet":1761,"##oeren":1762,"##utte":1763,"idee":1764,"dinsdag":1765,"ster":1766,"##apen":1767,"slachtoff":1768,"woning":1769,"ga":1770,"mannen":1771,"huid":1772,"##ijnlijk":1773,"##ick":1774,"totaal":1775,"Zij":1776,"buur":1777,"##mat":1778,"##bs":1779,"komende":1780,"##pr":1781,"minu":1782,"##ationale":1783,"Apple":1784,"##iezen":1785,"Wel":1786,"##tem":1787,"groe":1788,"plek":1789,"mooi":1790,"zon":1791,"##sn":1792,"##weer":1793,"##slagen":1794,"betalen":1795,"Gron":1796,"Ja":1797,"##omst":1798,"vlie":1799,"econom":1800,"lopen":1801,"##actie":1802,"##iks":1803,"##ijst":1804,"problemen":1805,"##zij":1806,"##its":1807,"zieken":1808,"##ging":1809,"##ilijk":1810,"##oud":1811,"donderdag":1812,"##isc":1813,"stond":1814,"Duits":1815,"as":1816,"foto":1817,"uite":1818,"vragen":1819,"woon":1820,"##ember":1821,"ant":1822,"klim":1823,"Onder":1824,"Wij":1825,"##kker":1826,"##menten":1827,"moeilijk":1828,"##pel":1829,"meteen":1830,"##uld":1831,"Bl":1832,"Me":1833,"##naast":1834,"start":1835,"##ituatie":1836,"dicht":1837,"200":1838,"av":1839,"oud":1840,"##az":1841,"##lang":1842,"##zaam":1843,"##eeg":1844,"##iger":1845,"techn":1846,"##ving":1847,"##reven":1848,"waarom":1849,"ongeveer":1850,"18":1851,"red":1852,"miljard":1853,"jij":1854,"##ah":1855,"waardoor":1856,"jong":1857,"zes":1858,"welke":1859,"Nederl":1860,"volgende":1861,"hoor":1862,"##mal":1863,"derde":1864,"Hier":1865,"##att":1866,"Th":1867,"##ins":1868,"kwart":1869,"##aris":1870,"nieuws":1871,"Twee":1872,"toek":1873,"##zig":1874,"##genomen":1875,"uiteindelijk":1876,"Rutte":1877,"zeer":1878,"##kort":1879,"##dem":1880,"meter":1881,"##zoekers":1882,"##stelling":1883,"##aden":1884,"##onds":1885,"zwaar":1886,"kosten":1887,"the":1888,"##aring":1889,"zodat":1890,"##spr":1891,"Oekraïense":1892,"2021":1893,"amb":1894,"voel":1895,"##red":1896,"zoveel":1897,"##achte":1898,"bezig":1899,"vriend":1900,"##gramma":1901,"halen":1902,"boeren":1903,"Ben":1904,"hoop":1905,"tro":1906,"##heids":1907,"Brit":1908,"##ukk":1909,"rust":1910,"##form":1911,"gebruikt":1912,"##ctor":1913,"##ice":1914,"ruimte":1915,"fe":1916,"gep":1917,"##ico":1918,"wilde":1919,"vorige":1920,"wedstrijd":1921,"##raa":1922,"spelen":1923,"mot":1924,"##steem":1925,"spra":1926,"co":1927,"##arte":1928,"##aalt":1929,"waarbij":1930,"geweld":1931,"##iode":1932,"kleine":1933,"link":1934,"##anen":1935,"verkl":1936,"liggen":1937,"niks":1938,"par":1939,"##punt":1940,"##ons":1941,"##elijks":1942,"comm":1943,"##iemand":1944,"##anders":1945,"stand":1946,"geworden":1947,"verhaal":1948,"toekomst":1949,"The":1950,"##alist":1951,"sport":1952,"##geving":1953,"##burg":1954,"##ck":1955,"##acc":1956,"##akkelijk":1957,"nadat":1958,"norm":1959,"##hal":1960,"inmiddels":1961,"##werp":1962,"##oelen":1963,"##orp":1964,"##ankelijk":1965,"brengen":1966,"##leven":1967,"ja":1968,"##veren":1969,"##asting":1970,"Toen":1971,"Wie":1972,"lag":1973,"wet":1974,"##sy":1975,"dec":1976,"fun":1977,"##opt":1978,"helpen":1979,"valt":1980,"tran":1981,"gegeven":1982,"zomer":1983,"klimaat":1984,"moo":1985,"wanneer":1986,"##up":1987,"dem":1988,"daarom":1989,"conc":1990,"##rouwen":1991,"infl":1992,"kilom":1993,"##okk":1994,"##regelen":1995,"elektr":1996,"Aan":1997,"Zijn":1998,"##cties":1999,"financ":2000,"rac":2001,"##hol":2002,"##risis":2003,"groter":2004,"##fl":2005,"meeste":2006,"##anks":2007,"##zetten":2008,"markt":2009,"##tussen":2010,"##enn":2011,"##enen":2012,"erv":2013,"Kamer":2014,"##erst":2015,"langer":2016,"einde":2017,"mod":2018,"neer":2019,"zaak":2020,"##sh":2021,"##iaal":2022,"##uin":2023,"Gel":2024,"bro":2025,"keu":2026,"Joh":2027,"hulp":2028,"##igt":2029,"##komst":2030,"Mijn":2031,"situatie":2032,"##ate":2033,"##stellen":2034,"##arde":2035,"lekker":2036,"##voerder":2037,"sm":2038,"##abr":2039,"##ratie":2040,"##ider":2041,"##oemen":2042,"reag":2043,"vertelt":2044,"##ucces":2045,"produ":2046,"Want":2047,"eff":2048,"##lo":2049,"ploeg":2050,"pop":2051,"zat":2052,"##min":2053,"precies":2054,"rechts":2055,"publ":2056,"##orte":2057,"##iteiten":2058,"Duitsland":2059,"16":2060,"##uden":2061,"##ieu":2062,"milit":2063,"nacht":2064,"deed":2065,"##ieke":2066,"##che":2067,"voorbij":2068,"prof":2069,"##clus":2070,"##zitter":2071,"##ress":2072,"zeven":2073,"##ollar":2074,"gl":2075,"un":2076,"##sloten":2077,"Russen":2078,"verdien":2079,"corona":2080,"huidige":2081,"Ter":2082,"##rik":2083,"##ject":2084,"daarna":2085,"Veren":2086,"##rit":2087,"##ieel":2088,"veroor":2089,"##lex":2090,"##ommige":2091,"Jan":2092,"Frank":2093,"neemt":2094,"dollar":2095,"stra":2096,"stap":2097,"zichzelf":2098,"##ijfers":2099,"succes":2100,"”.":2101,"school":2102,"50":2103,"naam":2104,"meerdere":2105,"##onderd":2106,"hoeveel":2107,"wee":2108,"##ssen":2109,"China":2110,"betekent":2111,"familie":2112,"naast":2113,"soms":2114,"##ober":2115,"##ator":2116,"##ampioen":2117,"direct":2118,"##uziek":2119,"Pro":2120,"los":2121,"leuk":2122,"houdt":2123,"00":2124,"##bank":2125,"##ijt":2126,"2020":2127,"Ste":2128,"Tw":2129,"kort":2130,"##mier":2131,"##fin":2132,"##itte":2133,"##rijf":2134,"##ima":2135,"##ock":2136,"##nam":2137,"##oef":2138,"contro":2139,"Net":2140,"WK":2141,"##iers":2142,"##antwoord":2143,"##bruik":2144,"moeder":2145,"partijen":2146,"inflatie":2147,"eten":2148,"sh":2149,"##rekken":2150,"##rimin":2151,"feit":2152,"ero":2153,"He":2154,"wink":2155,"klaar":2156,"##iele":2157,"##VD":2158,"bek":2159,"##omp":2160,"##houd":2161,"sociale":2162,"##annen":2163,"##isie":2164,"gehad":2165,"14":2166,"richting":2167,"aller":2168,"##eens":2169,"jonge":2170,"volledig":2171,"NA":2172,"Uit":2173,"nood":2174,"vorm":2175,"zaken":2176,"anderen":2177,"Toch":2178,"##sc":2179,"##nemen":2180,"ziekenhuis":2181,"17":2182,"punten":2183,"stellen":2184,"##ack":2185,"kind":2186,"niemand":2187,"dezelfde":2188,"oploss":2189,"asiel":2190,"noem":2191,"##line":2192,"kilometer":2193,"11":2194,"lange":2195,"ris":2196,"##lop":2197,"straf":2198,"langs":2199,"lok":2200,"##gelijk":2201,"##sters":2202,"##onen":2203,"sterk":2204,"##uni":2205,"terecht":2206,"##ific":2207,"jan":2208,"liet":2209,"##mmer":2210,"res":2211,"Daarnaast":2212,"##gesteld":2213,"vond":2214,"##ijs":2215,"##deeld":2216,"##vangen":2217,".'":2218,"Men":2219,"vader":2220,"##old":2221,"##landse":2222,"Groningen":2223,"nou":2224,"wind":2225,"##ectie":2226,"##gent":2227,"vuur":2228,"##ib":2229,"##igens":2230,"##vel":2231,"mooie":2232,"VS":2233,"imm":2234,"loopt":2235,"verander":2236,"##zegd":2237,"ouders":2238,"##ukkig":2239,"Ital":2240,"leeft":2241,"midd":2242,"voer":2243,"##66":2244,"aanwe":2245,"mens":2246,"personeel":2247,"dingen":2248,"kopen":2249,"steun":2250,"boek":2251,"##iep":2252,"daarmee":2253,"##tern":2254,"minuten":2255,"13":2256,"gezond":2257,"periode":2258,"Duitse":2259,"##derdaad":2260,"Min":2261,"verst":2262,"##leiding":2263,"##eerden":2264,"rec":2265,"rechter":2266,"bijzonder":2267,"kwamen":2268,"##werpen":2269,"##issie":2270,"half":2271,"##ën":2272,"betre":2273,"waarschijnlijk":2274,"horen":2275,"##ore":2276,"gehe":2277,"betrokken":2278,"gemidd":2279,"bestaan":2280,"##organis":2281,"art":2282,"produc":2283,"##accin":2284,"Par":2285,"olie":2286,"##ner":2287,"##inkt":2288,"oude":2289,"Noord":2290,"imp":2291,"momen":2292,"##ged":2293,"overl":2294,"##uldig":2295,"programma":2296,"Geen":2297,"Ne":2298,"##des":2299,"##imaal":2300,"slechts":2301,"aandacht":2302,"##spraak":2303,"Bra":2304,"et":2305,"##ign":2306,"onbe":2307,"onderz":2308,"offic":2309,"bank":2310,"pan":2311,"zoek":2312,"##wijk":2313,"##veld":2314,"##isme":2315,"##urs":2316,"bleek":2317,"film":2318,"Rot":2319,"##su":2320,"##res":2321,"provin":2322,"schade":2323,"grens":2324,"politiek":2325,"inform":2326,"Heb":2327,"##uari":2328,"##ath":2329,"##atten":2330,"##oegen":2331,"verv":2332,"voorsp":2333,"studen":2334,"##ull":2335,"mocht":2336,"##ourn":2337,"##doende":2338,"',":2339,"bal":2340,"handen":2341,"wachten":2342,"beschik":2343,"hoger":2344,"Wil":2345,"##ys":2346,"beeld":2347,"groen":2348,"gevonden":2349,"##oerd":2350,"super":2351,"konden":2352,"prijzen":2353,"zag":2354,"straat":2355,"gebeurt":2356,"24":2357,"iP":2358,"##mijn":2359,"##igers":2360,"##gemee":2361,"##iveau":2362,"##licht":2363,"##osten":2364,"##ïn":2365,"##gende":2366,"voort":2367,"stelt":2368,"##iddag":2369,"##ots":2370,"België":2371,"vervolgens":2372,"\".":2373,"aard":2374,"kracht":2375,"zin":2376,"##sent":2377,"Daarom":2378,"buurt":2379,"Tot":2380,"##ral":2381,"##ijft":2382,"##ity":2383,"##werkers":2384,"rekening":2385,"januari":2386,"macht":2387,"muziek":2388,"##teel":2389,"gevoel":2390,"##standig":2391,"Sh":2392,"##stig":2393,"##ase":2394,"##ugd":2395,"denkt":2396,"kost":2397,"21":2398,"##mot":2399,"gevaar":2400,"pat":2401,"##atieve":2402,"begon":2403,"begrij":2404,"##straat":2405,"Waarom":2406,"hart":2407,"gekomen":2408,"##olf":2409,"spr":2410,"helft":2411,"Haag":2412,"##ix":2413,"##maat":2414,"verantwoord":2415,"voorkomen":2416,"aanp":2417,"##gere":2418,"bestaat":2419,"regio":2420,"midden":2421,"22":2422,"##ail":2423,"inderdaad":2424,"##reden":2425,"begint":2426,"Tur":2427,"##ivers":2428,"##bet":2429,"##qu":2430,"waarop":2431,"max":2432,"gesprek":2433,"juni":2434,"kap":2435,"##atis":2436,"##zeker":2437,"##wijf":2438,"keuze":2439,"popul":2440,"##ante":2441,"strijd":2442,"##rijft":2443,"zowel":2444,"sche":2445,"sep":2446,"hoogte":2447,"beleid":2448,"Nieuw":2449,"vide":2450,"##lement":2451,"besp":2452,"beginnen":2453,"##pers":2454,"##markt":2455,"Brus":2456,"##staat":2457,"hetzelfde":2458,"aanv":2459,"ond":2460,"gebied":2461,"graden":2462,"meldt":2463,"##tr":2464,"##eeuw":2465,"Engel":2466,"serie":2467,"weekend":2468,"feest":2469,"park":2470,"##auw":2471,"##ome":2472,"gener":2473,"direc":2474,"gebouw":2475,"##dienst":2476,"Zelf":2477,"##tjes":2478,"##zaak":2479,"##ars":2480,"beide":2481,"maart":2482,"##keur":2483,"genomen":2484,"echte":2485,"vallen":2486,"Veel":2487,"##ph":2488,"opt":2489,"##veilig":2490,"goedk":2491,"enkel":2492,"part":2493,"tr":2494,"##port":2495,"stil":2496,"##entie":2497,"contra":2498,"verkiez":2499,"cult":2500,"kijk":2501,"##winn":2502,"##merk":2503,"##ton":2504,"aanval":2505,"ongel":2506,"##ikstof":2507,"gedrag":2508,"Vlaam":2509,"Gr":2510,"Sur":2511,"VVD":2512,"##goed":2513,"##foon":2514,"##ering":2515,"verpl":2516,"vergelijk":2517,"Britse":2518,"aanwezig":2519,"40":2520,"ogen":2521,"daarvoor":2522,"##terdam":2523,"vroeg":2524,"dienst":2525,"Pl":2526,"winnen":2527,"##hankelijk":2528,"##ateg":2529,"gezegd":2530,"##werken":2531,"##tember":2532,"Rotterdam":2533,"##ain":2534,"##oy":2535,"##bele":2536,"##rein":2537,"ervoor":2538,"nummer":2539,"belasting":2540,"krijg":2541,"verdw":2542,"vakantie":2543,"cre":2544,"korte":2545,"heen":2546,"dank":2547,"##apt":2548,"waarde":2549,"##irus":2550,"FC":2551,"Open":2552,"##verd":2553,"politieke":2554,"plannen":2555,"Alleen":2556,"500":2557,"Tru":2558,"Zuid":2559,"##aur":2560,"##issen":2561,"online":2562,"ern":2563,"leid":2564,"klanten":2565,"##ument":2566,"verkeer":2567,"##werking":2568,"organisatie":2569,"result":2570,"disc":2571,"##cie":2572,"nauw":2573,"Franse":2574,"Kl":2575,"for":2576,"lid":2577,"makkelijk":2578,"rente":2579,"én":2580,"##itel":2581,"woordvoerder":2582,"september":2583,"Ol":2584,"koop":2585,"##aut":2586,"bevol":2587,"2019":2588,"belangrijke":2589,"studenten":2590,"dre":2591,"##gde":2592,"ergens":2593,"flink":2594,"Brussel":2595,"up":2596,"ziek":2597,"##ude":2598,"##anken":2599,"##itt":2600,"regen":2601,"##ici":2602,"maatregelen":2603,"slachtoffer":2604,"D66":2605,"Sinds":2606,"fiets":2607,"qu":2608,"##use":2609,"kunst":2610,"hoeft":2611,"##maken":2612,"Omdat":2613,"trekken":2614,"finale":2615,"gevolgen":2616,"##bedrijf":2617,"du":2618,"dacht":2619,"trouw":2620,"##aste":2621,"##VO":2622,"##stappen":2623,"opd":2624,"bevest":2625,"vroe":2626,"wonen":2627,"##cept":2628,"speelt":2629,"publiek":2630,"risico":2631,"Zw":2632,"##ja":2633,"##rale":2634,"##oekt":2635,"voormal":2636,"daarbij":2637,"##ruari":2638,"##oemd":2639,"##ebruari":2640,"##gemaakt":2641,"Eer":2642,"mat":2643,"waarmee":2644,"Mis":2645,"duizen":2646,"##th":2647,"stikstof":2648,"aanb":2649,"behand":2650,"##plaats":2651,"##gemeester":2652,"Surin":2653,"23":2654,"Boven":2655,"februari":2656,"##oft":2657,"##ukt":2658,"leger":2659,"gevolg":2660,"CO":2661,"dro":2662,"##nog":2663,"##ule":2664,"voorzitter":2665,"##oging":2666,"gebeuren":2667,"vluchtelingen":2668,"car":2669,"lich":2670,"##geld":2671,"##middag":2672,"verwij":2673,"##houder":2674,"##eller":2675,"zware":2676,"##schappij":2677,"jullie":2678,"avond":2679,"oplossing":2680,"informatie":2681,"Ieder":2682,"Man":2683,"ee":2684,"##lever":2685,"##ague":2686,"##eeks":2687,"'.":2688,"Aj":2689,"kern":2690,"zoeken":2691,"##orgt":2692,"##verk":2693,"ij":2694,"mo":2695,"sek":2696,"##mper":2697,"##loop":2698,"deur":2699,"int":2700,"##chten":2701,"voordat":2702,"##kens":2703,"##unn":2704,"##wegen":2705,"polit":2706,"##lega":2707,"##gelegd":2708,"normaal":2709,"Frankrijk":2710,"kiezen":2711,"mer":2712,"oog":2713,"sommige":2714,"toon":2715,"##ield":2716,"##ival":2717,"##lei":2718,"##erende":2719,"leggen":2720,"premier":2721,"bepaalde":2722,"##raagd":2723,"verantwoordelijk":2724,"##ners":2725,"##aagt":2726,"##verse":2727,"ervan":2728,"volk":2729,"vertrouwen":2730,"prima":2731,"straks":2732,"Kon":2733,"gaf":2734,"vele":2735,"##prijzen":2736,"##ret":2737,"##iste":2738,"##erde":2739,"verra":2740,"stat":2741,"##ijds":2742,"autom":2743,"personen":2744,"systeem":2745,"sec":2746,"##aus":2747,"##vaart":2748,"inwoners":2749,"##aling":2750,"##apens":2751,"gezet":2752,"kinder":2753,"35":2754,"maak":2755,"pe":2756,"##stad":2757,"##ktober":2758,"zoon":2759,"##ochtend":2760,"Nederlanders":2761,"Twitter":2762,"Bar":2763,"##oden":2764,"##oze":2765,"##ames":2766,"uitb":2767,"mei":2768,"verdachte":2769,"Mark":2770,"League":2771,"##iënten":2772,"##matig":2773,"Ajax":2774,"mond":2775,"punt":2776,"raad":2777,"warm":2778,"##kk":2779,"##orie":2780,"##test":2781,"##anger":2782,"##itiek":2783,"geldt":2784,"gevallen":2785,"winst":2786,"drug":2787,"niveau":2788,"##kracht":2789,"##ozen":2790,"aank":2791,"##uik":2792,"##ruis":2793,"ontde":2794,"##own":2795,"collega":2796,"liefst":2797,"jongeren":2798,"betreft":2799,"laag":2800,"##eau":2801,"##orten":2802,"gebracht":2803,"vaker":2804,"Groen":2805,"eeuw":2806,"log":2807,"loc":2808,"oktober":2809,"##rist":2810,"##to":2811,"##beid":2812,"##centrum":2813,"##intig":2814,"stemmen":2815,"John":2816,"Misschien":2817,"Sl":2818,"cijfers":2819,"##ey":2820,"deb":2821,"##iew":2822,"stoppen":2823,"zeg":2824,"uiter":2825,"plat":2826,"liever":2827,"activ":2828,"##ologie":2829,"Cl":2830,"Tijdens":2831,"lijst":2832,"voed":2833,"##prijs":2834,"##roep":2835,"##ald":2836,"verde":2837,"##oth":2838,"##best":2839,"##ica":2840,"exper":2841,"##komt":2842,"Nog":2843,"nov":2844,"##fer":2845,"inv":2846,"##igheid":2847,"stroom":2848,"leu":2849,"##ranje":2850,"plaatsen":2851,"##iedenis":2852,"Utre":2853,"jui":2854,"pod":2855,"##enk":2856,"test":2857,"gratis":2858,"##berg":2859,"Belgische":2860,"enorme":2861,"Max":2862,"PS":2863,"gingen":2864,"san":2865,"##gst":2866,"legt":2867,"Staten":2868,"priv":2869,"rechtbank":2870,"gekregen":2871,"ministerie":2872,"hor":2873,"jouw":2874,"##ai":2875,"##cten":2876,"##oken":2877,"##bin":2878,"##oeien":2879,"##gez":2880,"##ikken":2881,"##uurd":2882,"##ime":2883,"##wezen":2884,"gevangen":2885,"##ront":2886,"contact":2887,"##gemeen":2888,"Car":2889,"des":2890,"voorlop":2891,"##uiden":2892,"trein":2893,"juli":2894,"momenteel":2895,"Utrecht":2896,"Mer":2897,"jur":2898,"neg":2899,"zorgt":2900,"##oeden":2901,"##regel":2902,"##ash":2903,"##spel":2904,"##bere":2905,"internationale":2906,"links":2907,"Verenigde":2908,"erop":2909,"fiet":2910,"##zorg":2911,"##stru":2912,"daarvan":2913,"##west":2914,"klinkt":2915,"##woordig":2916,"NAVO":2917,"november":2918,"Don":2919,"rapp":2920,"wacht":2921,"##ple":2922,"##will":2923,"##ial":2924,"inc":2925,"aandeel":2926,"onver":2927,"##raan":2928,"##heen":2929,"afstand":2930,"onderste":2931,"termijn":2932,"proberen":2933,"bus":2934,"huur":2935,"wist":2936,"oper":2937,"##raken":2938,"jeugd":2939,"reactie":2940,"##hem":2941,"slag":2942,"staats":2943,"##offen":2944,"burgers":2945,"lokale":2946,"provincie":2947,"Oost":2948,"sim":2949,"vijft":2950,"##OS":2951,"##gew":2952,"##rakt":2953,"##erend":2954,"##akte":2955,"regels":2956,"spelers":2957,"fijn":2958,"merk":2959,"##aand":2960,"ene":2961,"besm":2962,"beelden":2963,"stud":2964,"##oper":2965,"moesten":2966,"colle":2967,"Pre":2968,"uw":2969,"##aaf":2970,"##rol":2971,"waarvan":2972,"koers":2973,"sprake":2974,"Kan":2975,"doc":2976,"dieren":2977,"gast":2978,"##ije":2979,"geste":2980,"##igh":2981,"##igit":2982,"advoc":2983,"Trump":2984,"Ex":2985,"baan":2986,"delen":2987,"journ":2988,"##fens":2989,"geïn":2990,"##alt":2991,"Verder":2992,"telefoon":2993,"bieden":2994,"dom":2995,"woorden":2996,"zee":2997,"##él":2998,"gehouden":2999,"schree":3000,"tegenover":3001,"bericht":3002,"##partij":3003,"##raal":3004,"##wagen":3005,"##kant":3006,"##orst":3007,"##ubs":3008,"present":3009,"##rong":3010,"##vloed":3011,"vrienden":3012,"80":3013,"##isen":3014,"schrijft":3015,"meis":3016,"##afel":3017,"Con":3018,"doe":3019,"mass":3020,"noemen":3021,"##uig":3022,"##view":3023,"temper":3024,"webs":3025,"##apan":3026,"##isteren":3027,"##schappen":3028,"twintig":3029,"directeur":3030,"ap":3031,"aug":3032,"dik":3033,"leer":3034,"##oeld":3035,"##esse":3036,"slot":3037,"##estival":3038,"Antwerpen":3039,"veroorz":3040,"winkel":3041,"Mensen":3042,"Bovendien":3043,"lichaam":3044,"apr":3045,"bi":3046,"kaart":3047,"rijk":3048,"##punten":3049,"##water":3050,"##ift":3051,"##ux":3052,"vooruit":3053,"##rak":3054,"##tegen":3055,"overigens":3056,"##ikel":3057,"ontm":3058,"Nederlands":3059,"##gevoerd":3060,"##sych":3061,"elektrische":3062,"bevolking":3063,"vaccin":3064,"##son":3065,"##oom":3066,"##tien":3067,"##roffen":3068,"stuur":3069,"##rest":3070,"proces":3071,"##irc":3072,"woningen":3073,"burger":3074,"vliegt":3075,"CD":3076,"Cent":3077,"Eind":3078,"Mich":3079,"ab":3080,"fra":3081,"kijkt":3082,"##pakt":3083,"opvang":3084,"##leving":3085,"omgeving":3086,"resp":3087,"Afrik":3088,"Minister":3089,"iPh":3090,"april":3091,"jou":3092,"ronde":3093,"zicht":3094,"vern":3095,"##ager":3096,"bleef":3097,"##ocr":3098,"##ionele":3099,"winter":3100,"dochter":3101,"motor":3102,"december":3103,"##ef":3104,"##inder":3105,"##ats":3106,"vers":3107,"diep":3108,"##tes":3109,"leden":3110,"##spre":3111,"vlak":3112,"levens":3113,"herinn":3114,"medewerkers":3115,"Hol":3116,"Nee":3117,"bood":3118,"kregen":3119,"##tig":3120,"voldoende":3121,"economie":3122,"Tweede":3123,"Fin":3124,"ie":3125,"typ":3126,"##ppen":3127,"##urt":3128,"lezen":3129,"veiligheid":3130,"Bor":3131,"Jon":3132,"dorp":3133,"namen":3134,"##da":3135,"##hoog":3136,"insp":3137,"tek":3138,"West":3139,"2023":3140,"kennen":3141,"Vr":3142,"##lopen":3143,"##iedt":3144,"gegaan":3145,"##asse":3146,"##ersch":3147,"project":3148,"##ustus":3149,"rapport":3150,"27":3151,"fabr":3152,"pakken":3153,"##name":3154,"##itten":3155,"uitgeb":3156,"overal":3157,"##ooien":3158,"##akker":3159,"##istische":3160,"Verstappen":3161,"besluit":3162,"kwartaal":3163,"trans":3164,"beschikbaar":3165,"contract":3166,"45":3167,"Mac":3168,"pap":3169,"##kamer":3170,"##inst":3171,"##stra":3172,"##genoot":3173,"arm":3174,"koning":3175,"vierde":3176,"commun":3177,"##halen":3178,"##aap":3179,"##chen":3180,"overleden":3181,"spreken":3182,"##keken":3183,"##mans":3184,"arbeid":3185,"augustus":3186,"Hel":3187,"Har":3188,"Nou":3189,"Vor":3190,"don":3191,"loop":3192,"vre":3193,"##ware":3194,"##andid":3195,"waard":3196,"leiden":3197,"##bren":3198,"geloof":3199,"leveren":3200,"##demie":3201,"controle":3202,"verkiezingen":3203,"voorlopig":3204,"##fensie":3205,"agen":3206,"cel":3207,"rad":3208,"##azen":3209,"##anderen":3210,"daardoor":3211,"##treden":3212,"gebeurde":3213,"slachtoffers":3214,"28":3215,"Her":3216,"bre":3217,"##ielen":3218,"##delen":3219,"##lin":3220,"##ende":3221,"##iter":3222,"vertellen":3223,"##ips":3224,"Chine":3225,"geschiedenis":3226,"beleg":3227,"##scheid":3228,"##winning":3229,"Vand":3230,"digit":3231,"leren":3232,"pens":3233,"##ymp":3234,"voorzien":3235,"##osk":3236,"bedoel":3237,"##houders":3238,"Span":3239,"besliss":3240,"kennis":3241,"productie":3242,"militaire":3243,"Aust":3244,"Ger":3245,"crimin":3246,"voeren":3247,"##eeld":3248,"##ditie":3249,"volgend":3250,"hogere":3251,"voelt":3252,"juiste":3253,"Mus":3254,"band":3255,"camer":3256,"##tuigen":3257,"##vd":3258,"##haven":3259,"heet":3260,"##sport":3261,"##aagd":3262,"##ieso":3263,"##ustrie":3264,"burgemeester":3265,"##serv":3266,"##useum":3267,"fout":3268,"##kw":3269,"##by":3270,"##ère":3271,"##ijl":3272,"##ake":3273,"kleur":3274,"verloren":3275,"interess":3276,"Onze":3277,"beroep":3278,"waarschuw":3279,"trainer":3280,"leeftijd":3281,"Meer":3282,"voelen":3283,"##lig":3284,"##lijn":3285,"##ermen":3286,"##eloos":3287,"##gesch":3288,"reis":3289,"leider":3290,"##ranten":3291,"samenleving":3292,"##nemer":3293,"##owieso":3294,"advies":3295,"actief":3296,"zonne":3297,"allerlei":3298,"Mart":3299,"Sy":3300,"dub":3301,"post":3302,"tv":3303,"##dra":3304,"##loos":3305,"##leggen":3306,"##wedst":3307,"slim":3308,"##reekt":3309,"iedere":3310,"Hoewel":3311,"brandweer":3312,"financiële":3313,"honderd":3314,"##ting":3315,"##uut":3316,"##olang":3317,"##ammer":3318,"Ind":3319,"tegenwoordig":3320,"begonnen":3321,"sneller":3322,"praten":3323,"##ance":3324,"antwoord":3325,"immers":3326,"iPhone":3327,"26":3328,"huizen":3329,"hyp":3330,"##ona":3331,"##sproken":3332,"##rukt":3333,"wilt":3334,"sluiten":3335,"vrijwill":3336,"##groep":3337,"liep":3338,"lastig":3339,"asielzoekers":3340,"noemt":3341,"##standigheden":3342,"video":3343,"Pa":3344,"kamer":3345,"##sb":3346,"##iaanse":3347,"##inc":3348,"##inken":3349,"##ieken":3350,"##iti":3351,"invloed":3352,"teken":3353,"verleden":3354,"beper":3355,"stappen":3356,"werknemers":3357,"samenwerking":3358,"belangrijkste":3359,"##rypt":3360,"##staande":3361,"economische":3362,"##iversiteit":3363,"60":3364,"dak":3365,"geg":3366,"versie":3367,"bezoek":3368,"mening":3369,"betaal":3370,"##gebied":3371,"Vlaan":3372,"##mming":3373,"Antwerp":3374,"bouwen":3375,"producten":3376,"trouwens":3377,"reed":3378,"##her":3379,"schuld":3380,"volgt":3381,"##gebouw":3382,"geraakt":3383,"##bureau":3384,"pensioen":3385,"Austral":3386,"Vlaanderen":3387,"70":3388,"Fl":3389,"Ser":3390,"Tour":3391,"at":3392,"kampioen":3393,"prakt":3394,"tal":3395,"veld":3396,"viel":3397,"##du":3398,"##stoot":3399,"##okken":3400,"alsnog":3401,"Inst":3402,"gewonnen":3403,"verkoop":3404,"gemeenten":3405,"##ommissie":3406,"Air":3407,"Naast":3408,"Wer":3409,"wapens":3410,"##kelijk":3411,"##hoven":3412,"##ande":3413,"##inderen":3414,"##sluit":3415,"kwaliteit":3416,"Daarmee":3417,"verkopen":3418,"koff":3419,"##stellingen":3420,"Nederlander":3421,"drugs":3422,"Ad":3423,"Rijk":3424,"mon":3425,"name":3426,"psych":3427,"##ile":3428,"##iest":3429,"##derheid":3430,"##aker":3431,"kwijt":3432,"##abel":3433,"##ationaal":3434,"ongeluk":3435,"Eerder":3436,"Iedereen":3437,"Bur":3438,"Cor":3439,"Haar":3440,"Laat":3441,"tafel":3442,"##kers":3443,"##ieven":3444,"##ieve":3445,"##ampen":3446,"##beh":3447,"##sluiten":3448,"bloed":3449,"verkocht":3450,"199":3451,"##oemde":3452,"indruk":3453,"race":3454,"ervaring":3455,"Pol":3456,"dw":3457,"##duc":3458,"##zin":3459,"opmerk":3460,"##aalf":3461,"vraagt":3462,"extr":3463,"##grond":3464,"Arn":3465,"positief":3466,"middel":3467,"cultuur":3468,"pot":3469,"pass":3470,"##eent":3471,"verbl":3472,"altern":3473,"beveilig":3474,"aang":3475,"schrijven":3476,"##spro":3477,"anal":3478,"And":3479,"hoogste":3480,"##plaatst":3481,"New":3482,"ontmoet":3483,"biedt":3484,"sele":3485,"titel":3486,"##ga":3487,"##ose":3488,"##zing":3489,"##zame":3490,"##yn":3491,"##iev":3492,"##eep":3493,"##oudig":3494,"omzet":3495,"sluit":3496,"expl":3497,"interview":3498,"wand":3499,"winn":3500,"##etter":3501,"defin":3502,"##stal":3503,"##ones":3504,"##ales":3505,"##less":3506,"##amb":3507,"schoon":3508,"scherm":3509,"##spraken":3510,"gemeent":3511,"bedrag":3512,"sector":3513,"behoor":3514,"zomaar":3515,"parlement":3516,"militair":3517,"Pas":3518,"ding":3519,"dragen":3520,"not":3521,"rug":3522,"sowieso":3523,"twijf":3524,"##druk":3525,"voorbeeld":3526,"bewoners":3527,"##olle":3528,"onderhand":3529,"##oofd":3530,"##ampag":3531,"bescherm":3532,"##obil":3533,"aandelen":3534,"artikel":3535,"merken":3536,"Mil":3537,"OM":3538,"Oranje":3539,"dur":3540,"lijken":3541,"mar":3542,"##ijven":3543,"stonden":3544,"##icatie":3545,"Daarbij":3546,"vrije":3547,"verwachten":3548,"vergeten":3549,"appar":3550,"draaien":3551,"dankzij":3552,"90":3553,"Biden":3554,"Wille":3555,"Zaken":3556,"##wacht":3557,"##ict":3558,"##zer":3559,"##umenten":3560,"##aardig":3561,"veranderen":3562,"##inger":3563,"aant":3564,"afhankelijk":3565,"Daarna":3566,"vertelde":3567,"##diensten":3568,"##coach":3569,"##langs":3570,"lager":3571,"verplicht":3572,"daad":3573,"gang":3574,"##elaar":3575,"##oest":3576,"##leet":3577,"##kennen":3578,"##ace":3579,"werkge":3580,"##volle":3581,"Vooral":3582,"orde":3583,"bewust":3584,"voedsel":3585,"##otheek":3586,"website":3587,"29":3588,"Pr":3589,"crisis":3590,"leek":3591,"rak":3592,"veert":3593,"##go":3594,"##ogelijke":3595,"##otte":3596,"rep":3597,"betere":3598,"toegang":3599,"speelde":3600,"Turk":3601,"vroeger":3602,"##westie":3603,"##ubsid":3604,"Fey":3605,"abs":3606,"leeg":3607,"##iders":3608,"##ormen":3609,"aanget":3610,"##verh":3611,"##schak":3612,"##pport":3613,"aangehouden":3614,"##acties":3615,"gebeurd":3616,"brengt":3617,"gemiddelde":3618,"Zelfs":3619,"Vlaamse":3620,"Suriname":3621,"75":3622,"Kaag":3623,"Vrij":3624,"crypt":3625,"fans":3626,"gar":3627,"hoort":3628,"##raad":3629,"##iken":3630,"##cu":3631,"##voudig":3632,"##oorten":3633,"##denken":3634,"stop":3635,"alsof":3636,"gevraagd":3637,"bedre":3638,"brief":3639,"Volks":3640,"wetenschapp":3641,"##komsten":3642,"halve":3643,"concur":3644,"PSV":3645,"definitie":3646,"Lim":3647,"Sint":3648,"form":3649,"hot":3650,"hield":3651,"##haald":3652,"##ette":3653,"##elaars":3654,"##arten":3655,"algemeen":3656,"voorbere":3657,"bezoekers":3658,"##ike":3659,"##ikte":3660,"##istor":3661,"gewone":3662,"autor":3663,"plekken":3664,"berichten":3665,"simpel":3666,"Red":3667,"ke":3668,"mater":3669,"past":3670,"##err":3671,"opzicht":3672,"##ijnt":3673,"##spl":3674,"wilden":3675,"##iër":3676,"##hout":3677,"prest":3678,"bovendien":3679,"verzam":3680,"model":3681,"extreem":3682,"derg":3683,"oef":3684,"pijn":3685,"zak":3686,"##richt":3687,"##feer":3688,"##onn":3689,"gec":3690,"zogen":3691,"##akers":3692,"angst":3693,"##iciteit":3694,"werkelijk":3695,"##weging":3696,"kritiek":3697,"duurder":3698,"Chinese":3699,"Ber":3700,"Put":3701,"hang":3702,"kerst":3703,"raakte":3704,"tuin":3705,"##aw":3706,"##kond":3707,"##gaat":3708,"##etitie":3709,"##straf":3710,"initi":3711,"tegelijk":3712,"##ish":3713,"afd":3714,"##pens":3715,"gezin":3716,"gelukkig":3717,"hoofdst":3718,"##vinden":3719,"ondanks":3720,"Feyen":3721,"Bo":3722,"bier":3723,"pracht":3724,"##gress":3725,"##zi":3726,"##ane":3727,"##etjes":3728,"##atisch":3729,"inten":3730,"gecon":3731,"verzeker":3732,"onaf":3733,"##oogle":3734,"vermoed":3735,"krant":3736,"wedstrijden":3737,"functie":3738,"maximaal":3739,"qua":3740,"opdracht":3741,"Ab":3742,"Jong":3743,"Ten":3744,"boet":3745,"gisteren":3746,"kandid":3747,"rode":3748,"tijden":3749,"##wassen":3750,"##huizen":3751,"##eters":3752,"inkomen":3753,"inclus":3754,"##illen":3755,"meerderheid":3756,"##brand":3757,"ontstaan":3758,"##aby":3759,"##ustitie":3760,"##ivisie":3761,"##tallen":3762,"negen":3763,"levert":3764,"diverse":3765,"Even":3766,"Rob":3767,"##past":3768,"##ruim":3769,"##mmen":3770,"##toe":3771,"##baan":3772,"##uff":3773,"gef":3774,"opp":3775,"data":3776,"sturen":3777,"##ream":3778,"##oke":3779,"omhoog":3780,"ontvangen":3781,"cons":3782,"moeite":3783,"eindelijk":3784,"gegevens":3785,"Terwijl":3786,"sancties":3787,"schreef":3788,"Sa":3789,"Zou":3790,"bang":3791,"bracht":3792,"hopen":3793,"##ior":3794,"##md":3795,"##oond":3796,"##enten":3797,"##atische":3798,"##onk":3799,"gesl":3800,"verlen":3801,"##outen":3802,"leg":3803,"jaarlijk":3804,"toern":3805,"combin":3806,"mogelijkheid":3807,"besloten":3808,"liefde":3809,"internet":3810,"##ieuze":3811,"gemiddeld":3812,"politici":3813,"Paul":3814,"Ph":3815,"Tim":3816,"Wanneer":3817,"zagen":3818,"##iam":3819,"##ole":3820,"##zak":3821,"##inter":3822,"##eekt":3823,"##oei":3824,"##repen":3825,"schil":3826,"genoemd":3827,"buitenland":3828,"grotere":3829,"patiënten":3830,"##beleid":3831,"nauwelijks":3832,"Feyenoord":3833,"Berg":3834,"Google":3835,"Or":3836,"bos":3837,"circ":3838,"hy":3839,"mogelijke":3840,"richt":3841,"wapen":3842,"witte":3843,"##lijst":3844,"##vast":3845,"##atar":3846,"optie":3847,"##oeder":3848,"##teken":3849,"nogal":3850,"##iere":3851,"waaronder":3852,"##ement":3853,"##bert":3854,"##werkt":3855,"verliezen":3856,"##ariant":3857,"ouder":3858,"stev":3859,"centrum":3860,"groeien":3861,"demon":3862,"voormalige":3863,"NL":3864,"Tes":3865,"##zijn":3866,"##bers":3867,"##bond":3868,"##elk":3869,"##stro":3870,"##arden":3871,"##ley":3872,"bekende":3873,"##eelden":3874,"##achtig":3875,"benad":3876,"##ippen":3877,"terugk":3878,"Char":3879,"##reep":3880,"onderzoekers":3881,"passen":3882,"##eurs":3883,"relatie":3884,"Gelukkig":3885,"gezondheid":3886,"verdedig":3887,"gevangenis":3888,"Willem":3889,"Japan":3890,"Kort":3891,"ass":3892,"nationale":3893,"roep":3894,"##wijd":3895,"##lingen":3896,"##erkt":3897,"gede":3898,"##dent":3899,"onderdeel":3900,"##vester":3901,"kwal":3902,"eigenaar":3903,"gezicht":3904,"##iphol":3905,"geloven":3906,"helpt":3907,"Sport":3908,"miljoenen":3909,"gesteld":3910,"gesproken":3911,"twaalf":3912,"##sterse":3913,"##tegenwoord":3914,"Natuur":3915,"Sm":3916,"vis":3917,"zul":3918,"##kr":3919,"##gra":3920,"##tro":3921,"voordeel":3922,"##idu":3923,"protest":3924,"compl":3925,"Europees":3926,"bepaald":3927,"regelmatig":3928,"ontwikkeling":3929,"Gelder":3930,"##organisatie":3931,"Qu":3932,"emot":3933,"goud":3934,"ol":3935,"wen":3936,"##mers":3937,"##orn":3938,"invest":3939,"tev":3940,"##ooft":3941,"##ocratie":3942,"##ions":3943,"zwem":3944,"Marokk":3945,"gekozen":3946,"Schiphol":3947,"relatief":3948,"groei":3949,"platform":3950,"Vandaag":3951,"Dr":3952,"zoekt":3953,"##kte":3954,"##dit":3955,"##han":3956,"##chtend":3957,"versl":3958,"jezelf":3959,"vrijheid":3960,"##ividu":3961,"Zoals":3962,"helaas":3963,"verbeter":3964,"##rière":3965,"product":3966,"geheel":3967,"locatie":3968,"podium":3969,"Spanje":3970,"Musk":3971,"##wedstrijd":3972,"##ampagne":3973,"Ga":3974,"Pvd":3975,"bar":3976,"kwestie":3977,"lach":3978,"sign":3979,"virus":3980,"##woon":3981,"##laag":3982,"##vis":3983,"##ijen":3984,"deden":3985,"##inke":3986,"##stoffen":3987,"overwinning":3988,"wellicht":3989,"onderwijs":3990,"leiding":3991,"hoef":3992,"zwart":3993,"2018":3994,"doden":3995,"bestuurder":3996,"sprak":3997,"coach":3998,"uiteraard":3999,"beslissing":4000,"selectie":4001,"behoorlijk":4002,"32":4003,"Can":4004,"aarde":4005,"bot":4006,"il":4007,"kent":4008,"keren":4009,"kerk":4010,"lijn":4011,"melden":4012,"optreden":4013,"wegens":4014,"##ctuur":4015,"##rukken":4016,"##rib":4017,"jongen":4018,"jongens":4019,"effect":4020,"Konink":4021,"horec":4022,"Polen":4023,"fact":4024,"moord":4025,"ochtend":4026,"##inden":4027,"##oorlog":4028,"##omb":4029,"##uss":4030,"blauw":4031,"Zeker":4032,"geluid":4033,"##anning":4034,"ingezet":4035,"stijging":4036,"verdienen":4037,"generatie":4038,"300":4039,"Nad":4040,"eisen":4041,"wijk":4042,"##ael":4043,"##rip":4044,"##duizen":4045,"##zier":4046,"##eth":4047,"##stijds":4048,"tekort":4049,"erbij":4050,"##asie":4051,"spreekt":4052,"##arts":4053,"tegenst":4054,"verhalen":4055,"besloot":4056,"##bedrijven":4057,"sterke":4058,"concurr":4059,"toernooi":4060,"?”":4061,"Binnen":4062,"hoopt":4063,"loon":4064,"ner":4065,"ton":4066,"##cel":4067,"##yl":4068,"##BS":4069,"gepro":4070,"##alitie":4071,"##igingen":4072,"##verb":4073,"##gek":4074,"##rap":4075,"afscheid":4076,"dagelijks":4077,"gelegen":4078,"##vallend":4079,"Tegen":4080,"##aliseren":4081,"Italië":4082,"serieus":4083,"Soms":4084,"duren":4085,"heer":4086,"subsid":4087,"##uwe":4088,"##heb":4089,"doorgaan":4090,"##istisch":4091,"##ioneel":4092,"hoeven":4093,"vlag":4094,"apps":4095,"strateg":4096,"blijkbaar":4097,"compleet":4098,"Unie":4099,"besmett":4100,"respect":4101,"Qatar":4102,"banken":4103,"##kel":4104,"##izen":4105,"##zo":4106,"##ertijd":4107,"ges":4108,"gesloten":4109,"alweer":4110,"##ids":4111,"mail":4112,"##gericht":4113,"gebrek":4114,"vormen":4115,"gehaald":4116,"meestal":4117,"record":4118,"BM":4119,"Col":4120,"akk":4121,"det":4122,"##vrij":4123,"##vorm":4124,"##ete":4125,"ineens":4126,"##verl":4127,"##gekomen":4128,"##ogel":4129,"##rijpen":4130,"##school":4131,"vreem":4132,"vrijwel":4133,"##udget":4134,"Christ":4135,"wijze":4136,"2017":4137,"##club":4138,"individu":4139,"etc":4140,"seksu":4141,"Merce":4142,"advocaat":4143,"Wereld":4144,"Tesla":4145,"code":4146,"pak":4147,"##hof":4148,"##honderd":4149,"##ork":4150,"##atr":4151,"##stige":4152,"##arken":4153,"##iland":4154,"onlangs":4155,"##ott":4156,"##oude":4157,"##iment":4158,"##ruc":4159,"totale":4160,"consu":4161,"zwarte":4162,"binnenkort":4163,"steden":4164,"industrie":4165,"##iënt":4166,"speciale":4167,"##ologische":4168,"zette":4169,"standaard":4170,"impact":4171,"voorsprong":4172,"populair":4173,"status":4174,"temperatuur":4175,"hangt":4176,"PvdA":4177,"consumenten":4178,"Nij":4179,"Se":4180,"boeken":4181,"honder":4182,"sal":4183,"sold":4184,"##cus":4185,"##zel":4186,"##vrouw":4187,"##eraad":4188,"##aarde":4189,"stro":4190,"uitzonder":4191,"##jecten":4192,"gewerkt":4193,"##stens":4194,"genieten":4195,"##avor":4196,"eventu":4197,"geschreven":4198,"rijdt":4199,"##waarden":4200,"decenn":4201,"profess":4202,"gestegen":4203,"meisje":4204,"absol":4205,"hoofdstad":4206,"Mercedes":4207,"Alex":4208,"Kom":4209,"Kun":4210,"baby":4211,"morgen":4212,"mark":4213,"vracht":4214,"##wet":4215,"##oers":4216,"##elle":4217,"invester":4218,"omstandigheden":4219,"ondernemers":4220,"spoor":4221,"##elling":4222,"##rend":4223,"2014":4224,"vermogen":4225,"beperk":4226,"gebruikers":4227,"coalitie":4228,"Brab":4229,"groene":4230,"ondersteun":4231,"CDA":4232,"Afrika":4233,"31":4234,"400":4235,"Mosk":4236,"Noor":4237,"Will":4238,"histor":4239,"wiss":4240,"##pe":4241,"##park":4242,"##mb":4243,"verspre":4244,"##ussie":4245,"zege":4246,"##uister":4247,"milieu":4248,"##orgd":4249,"verdachten":4250,"Ond":4251,"verwachting":4252,"##waarde":4253,"advis":4254,"speler":4255,"minuut":4256,"voorbije":4257,"pandemie":4258,"Ferr":4259,"Sc":4260,"lees":4261,"raak":4262,"wit":4263,"zanger":4264,"##lecht":4265,"##verg":4266,"onm":4267,"##rab":4268,"##gels":4269,"kwets":4270,"##afé":4271,"geluk":4272,"Amerika":4273,"duurt":4274,"gericht":4275,"organisaties":4276,"centrale":4277,"##ectief":4278,"Parijs":4279,"officieel":4280,"leidt":4281,"duizenden":4282,"Ba":4283,"Form":4284,"God":4285,"Ke":4286,"Kijk":4287,"Peter":4288,"VA":4289,"Wor":4290,"fr":4291,"haalt":4292,"li":4293,"taal":4294,"##aders":4295,"##wiss":4296,"##woorden":4297,"##ih":4298,"inval":4299,"opgel":4300,"##gezet":4301,"##gegeven":4302,"Dem":4303,"##ouden":4304,"Alles":4305,"bedoeld":4306,"##ukken":4307,"geboren":4308,"##inks":4309,"Oekraïners":4310,"openbaar":4311,"Denk":4312,"filmp":4313,"persoonlijk":4314,"creë":4315,"Eindhoven":4316,"camera":4317,"gemeenteraad":4318,"Samen":4319,"haven":4320,"ment":4321,"##aver":4322,"##visie":4323,"##VV":4324,"eenmaal":4325,"geë":4326,"eerlijk":4327,"##odel":4328,"werkte":4329,"##werker":4330,"Leiden":4331,"Grote":4332,"##ondscoach":4333,"modellen":4334,"duizend":4335,"##retaris":4336,"daadwerk":4337,"Fac":4338,"Mon":4339,"twe":4340,"wél":4341,"##kampioen":4342,"##30":4343,"destijds":4344,"vanavond":4345,"ent":4346,"##dex":4347,"##tegr":4348,"schiet":4349,"##utt":4350,"##icro":4351,"##asten":4352,"Staat":4353,"Stad":4354,"aangekond":4355,"deelnemers":4356,"probeert":4357,"##middel":4358,"tientallen":4359,"brandstof":4360,"##tuig":4361,"##unning":4362,"studie":4363,"digitale":4364,"opzichte":4365,"Kiev":4366,"TV":4367,"Zelen":4368,"poging":4369,"rit":4370,"trek":4371,"war":4372,"##pan":4373,"##PO":4374,"##onie":4375,"##genoten":4376,"##oeker":4377,"##aringen":4378,"##ario":4379,"##lein":4380,"stelde":4381,"zoiets":4382,"ondertussen":4383,"daarop":4384,"##wekken":4385,"confl":4386,"restaur":4387,"vriendin":4388,"feiten":4389,"##auto":4390,"ziekte":4391,"toont":4392,"uitgebre":4393,"Limburg":4394,"roept":4395,"akkoord":4396,"Zelensk":4397,"Bos":4398,"Dav":4399,"Mag":4400,"baas":4401,"liter":4402,"raken":4403,"##oorde":4404,"vervangen":4405,"##anda":4406,"##opelijk":4407,"##agram":4408,"uitspraak":4409,"word":4410,"##ction":4411,"##istr":4412,"kansen":4413,"##ieuwd":4414,"betaald":4415,"gren":4416,"Daardoor":4417,"##uidt":4418,"vertrekken":4419,"Vanaf":4420,"##iviteit":4421,"trekt":4422,"persoonlijke":4423,"middag":4424,"technologie":4425,"troepen":4426,"##ight":4427,"Putin":4428,"City":4429,"Hong":4430,"Moet":4431,"Uite":4432,"dier":4433,"hangen":4434,"tent":4435,"wagen":4436,"wint":4437,"##ipp":4438,"##dige":4439,"##stemming":4440,"##bewijs":4441,"verlaten":4442,"197":4443,"##waardig":4444,"stukje":4445,"specif":4446,"##atting":4447,"rustig":4448,"##halve":4449,"reageren":4450,"tekst":4451,"Uiteindelijk":4452,"Gent":4453,"Oosten":4454,"Su":4455,"bak":4456,"kro":4457,"##nacht":4458,"##cast":4459,"##voeren":4460,"geve":4461,"geplaatst":4462,"opvol":4463,"testen":4464,"##ilige":4465,"##rem":4466,"##rekt":4467,"##oenen":4468,"zwak":4469,"##voering":4470,"##ebook":4471,"trots":4472,"resultaat":4473,"updat":4474,"veroorzaakt":4475,"dergelijke":4476,"nergens":4477,"Ondanks":4478,"Ferrari":4479,"Aut":4480,"Del":4481,"Dank":4482,"Port":4483,"US":4484,"boer":4485,"##wa":4486,"##bak":4487,"veren":4488,"aanzien":4489,"##oute":4490,"westen":4491,"overeen":4492,"##uwen":4493,"##utie":4494,"conclus":4495,"##wijzen":4496,"##oegd":4497,"mogelijkheden":4498,"gehoord":4499,"##gebracht":4500,"diensten":4501,"Italiaanse":4502,"kapot":4503,"invasie":4504,"leuke":4505,"BMW":4506,"honderden":4507,"Moskou":4508,"Buiten":4509,"Rem":4510,"kruis":4511,"out":4512,"th":4513,"uren":4514,"wisten":4515,"##jarige":4516,"##si":4517,"##sd":4518,"ing":4519,"voorstellen":4520,"##kent":4521,"##unde":4522,"uitzen":4523,"##tent":4524,"wegen":4525,"westerse":4526,"##schot":4527,"##iend":4528,"aflever":4529,"##imm":4530,"gewond":4531,"slapen":4532,"##ublie":4533,"##houding":4534,"gedacht":4535,"boom":4536,"vlees":4537,"perf":4538,"##ergie":4539,"verloor":4540,"wijst":4541,"plezier":4542,"coronav":4543,"slechte":4544,"maatschappij":4545,"vliegen":4546,"bijzondere":4547,"begrijp":4548,"agenten":4549,"beperkt":4550,"Naar":4551,"budget":4552,"editie":4553,"##wink":4554,"##vr":4555,"##EN":4556,"##iteren":4557,"##oes":4558,"##igratie":4559,"beurs":4560,"##oloog":4561,"##oetbal":4562,"welkom":4563,"##ouwen":4564,"gezell":4565,"eerdere":4566,"afgesloten":4567,"Isra":4568,"Overigens":4569,"draait":4570,"verklaring":4571,"elektriciteit":4572,"incident":4573,"Arnhem":4574,"Formule":4575,"Facebook":4576,"36":4577,"Eigen":4578,"Kar":4579,"Sommige":4580,"Tom":4581,"festival":4582,"go":4583,"reeks":4584,"vaste":4585,"##iro":4586,"##ling":4587,"##ote":4588,"inzet":4589,"##ise":4590,"##geh":4591,"##reet":4592,"eruit":4593,"recl":4594,"##ada":4595,"scher":4596,"Intern":4597,"minimaal":4598,"toer":4599,"##houdt":4600,"##wereld":4601,"Russisch":4602,"gesprekken":4603,"Frans":4604,"bereid":4605,"Gewoon":4606,"luchthaven":4607,"show":4608,"onderzoeken":4609,"supermarkt":4610,"gebouwd":4611,"carrière":4612,"activiteiten":4613,"privé":4614,"vijftien":4615,"Instagram":4616,"Bart":4617,"Had":4618,"Heeft":4619,"Med":4620,"Sam":4621,"Wal":4622,"favor":4623,"nee":4624,"##ep":4625,"##ror":4626,"##rid":4627,"##gas":4628,"##hi":4629,"##atter":4630,"gekeken":4631,"##alisten":4632,"erger":4633,"##icus":4634,"volks":4635,"tijdje":4636,"netwerk":4637,"wereldwijd":4638,"snelheid":4639,"Watch":4640,"dertig":4641,"##ovid":4642,"##cohol":4643,"bewol":4644,"bereiken":4645,"bestaande":4646,"begrijpen":4647,"ernstig":4648,"journalist":4649,"Brabant":4650,"Val":4651,"aft":4652,"droom":4653,"toet":4654,"##down":4655,"##ël":4656,"versn":4657,"stel":4658,"station":4659,"##opvang":4660,"uitdag":4661,"##schop":4662,"volwassen":4663,"plots":4664,"klachten":4665,"const":4666,"toege":4667,"drinken":4668,"exp":4669,"excus":4670,"##med":4671,"198":4672,"coronac":4673,"##appe":4674,"flinke":4675,"##maatschappij":4676,"resultaten":4677,"college":4678,"explos":4679,"37":4680,"Eén":4681,"Land":4682,"Rad":4683,"bru":4684,"hers":4685,"id":4686,"live":4687,"tel":4688,"##ius":4689,"##lers":4690,"##50":4691,"##ors":4692,"inz":4693,"uitstoot":4694,"##sector":4695,"##schijnlijk":4696,"schad":4697,"scholen":4698,"vertrek":4699,"plaatse":4700,"jarenlang":4701,"beschermen":4702,"huishouden":4703,"##auff":4704,"bedrijfs":4705,"draagt":4706,"woont":4707,"ambitie":4708,"democratie":4709,"smart":4710,"vergelijking":4711,"discussie":4712,"aanbod":4713,"seconden":4714,"fietsen":4715,"interessant":4716,"winnaar":4717,"daadwerkelijk":4718,"grenzen":4719,"Bank":4720,"Huis":4721,"Per":4722,"Raad":4723,"Sn":4724,"feder":4725,"goe":4726,"km":4727,"leef":4728,"lukt":4729,"neder":4730,"ob":4731,"##waard":4732,"##va":4733,"##ith":4734,"vooraf":4735,"##isse":4736,"##ommen":4737,"begele":4738,"landbouw":4739,"##count":4740,"vuurwerk":4741,"Vlaams":4742,"droog":4743,"dikke":4744,"vliegtuig":4745,"koffie":4746,"boete":4747,"Jul":4748,"Li":4749,"Vit":4750,"Was":4751,"bondscoach":4752,"em":4753,"len":4754,"lage":4755,"wiel":4756,"##pag":4757,"##kan":4758,"##NV":4759,"##enario":4760,"vanzelf":4761,"##ara":4762,"alcohol":4763,"##lem":4764,"##scherm":4765,"##elend":4766,"##kering":4767,"minstens":4768,"verlies":4769,"verboden":4770,"##rijding":4771,"stads":4772,"brood":4773,"##ockdown":4774,"bekijken":4775,"##ificatie":4776,"donker":4777,"##incip":4778,"inclusief":4779,"33":4780,"Jer":4781,"La":4782,"che":4783,"dra":4784,"fig":4785,"hum":4786,"##crisis":4787,"##ugen":4788,"##anne":4789,"##aaien":4790,"##stap":4791,"##station":4792,"##aarten":4793,"##iete":4794,"##outer":4795,"##stemen":4796,"##aagde":4797,"terrein":4798,"##braak":4799,"klant":4800,"werkzaam":4801,"arg":4802,"herstel":4803,"##izigers":4804,"steken":4805,"##handel":4806,"maatschapp":4807,"acteur":4808,"ongeval":4809,"##rechten":4810,"Mech":4811,"trok":4812,"##raaf":4813,"linkse":4814,"voertuig":4815,"goedkoper":4816,"duel":4817,"excuses":4818,"Gra":4819,"Piet":4820,"agress":4821,"gun":4822,"ident":4823,"zuid":4824,"##wen":4825,"##gingen":4826,"##cle":4827,"##zil":4828,"##uy":4829,"eenvoudig":4830,"##ingers":4831,"bese":4832,"##sec":4833,"overd":4834,"##gelaten":4835,"Westen":4836,"##eltje":4837,"verdacht":4838,"princip":4839,"misd":4840,"bepalen":4841,"melding":4842,"Groot":4843,"voormalig":4844,"##oftware":4845,"Holland":4846,"##pporters":4847,"combinatie":4848,"Bull":4849,"Doe":4850,"Gen":4851,"Hoog":4852,"NPO":4853,"Ts":4854,"Wh":4855,"cy":4856,"hond":4857,"ker":4858,"kond":4859,"mor":4860,"rook":4861,"variant":4862,"zolang":4863,"##pol":4864,"##kosten":4865,"##ced":4866,"##ham":4867,"##ino":4868,"intussen":4869,"gepl":4870,"##leur":4871,"aanm":4872,"##vert":4873,"##erse":4874,"overleg":4875,"overtu":4876,"schak":4877,"ontst":4878,"gemakkelijk":4879,"verkeerde":4880,"kleding":4881,"##ational":4882,"##ifte":4883,"geschikt":4884,"getroffen":4885,"competitie":4886,"stijgen":4887,"positieve":4888,"Johan":4889,"control":4890,"moder":4891,"beleggers":4892,"##ympische":4893,"oefen":4894,"Phil":4895,"Koninkrijk":4896,"soldaten":4897,"conflict":4898,"99":4899,"Commissie":4900,"EK":4901,"EC":4902,"bomen":4903,"jammer":4904,"letter":4905,"mob":4906,"rui":4907,"sfeer":4908,"tank":4909,"##meer":4910,"##ini":4911,"##oorn":4912,"opgenomen":4913,"steeg":4914,"##ures":4915,"##rechter":4916,"##amers":4917,"##opp":4918,"##aans":4919,"##uwelijk":4920,"##ney":4921,"snap":4922,"beschuldig":4923,"buitenlandse":4924,"gespeeld":4925,"150":4926,"rekenen":4927,"teleur":4928,"##redivisie":4929,"veroordeeld":4930,"maxim":4931,"verrassen":4932,"debat":4933,"Club":4934,"initiatief":4935,"aangekondigd":4936,"38":4937,"?’":4938,"AD":4939,"Bro":4940,"Gem":4941,"Kui":4942,"Londen":4943,"Ren":4944,"foc":4945,"hom":4946,"hoek":4947,"kat":4948,"lied":4949,"rele":4950,"rood":4951,"vonden":4952,"##net":4953,"inkomsten":4954,"##verlen":4955,"##apac":4956,"schieten":4957,"spullen":4958,"##inding":4959,"blik":4960,"klap":4961,"##ekker":4962,"acties":4963,"##vereniging":4964,"functies":4965,"hoeveelheid":4966,"officiële":4967,"CO2":4968,"ijs":4969,"##ferentie":4970,"bedoeling":4971,"hotel":4972,"autoriteiten":4973,"Dijk":4974,"FI":4975,"Ma":4976,"RT":4977,"haal":4978,"noord":4979,"roepen":4980,"wens":4981,"##ute":4982,"##vak":4983,"##EC":4984,"##que":4985,"##inse":4986,"verzoek":4987,"##ama":4988,"##aseerd":4989,"##ooster":4990,"doordat":4991,"onth":4992,"slaan":4993,"komst":4994,"2024":4995,"verhoog":4996,"Spelen":4997,"Spaanse":4998,"verschillen":4999}}}