{"version":"1.0","truncation":null,"padding":null,"added_tokens":[{"id":0,"special":true,"content":"<UNK>","single_word":false,"lstrip":false,"rstrip":false,"normalized":false},{"id":1,"special":true,"content":"<SEP>","single_word":false,"lstrip":false,"rstrip":false,"normalized":false},{"id":2,"special":true,"content":"<MASK>","single_word":false,"lstrip":false,"rstrip":false,"normalized":false},{"id":3,"special":true,"content":"<CLS>","single_word":false,"lstrip":false,"rstrip":false,"normalized":false}],"normalizer":null,"pre_tokenizer":{"type":"Whitespace"},"post_processor":null,"decoder":null,"model":{"type":"Unigram","unk_id":0,"vocab":[["<UNK>",0.0],["<SEP>",0.0],["<MASK>",0.0],["<CLS>",0.0],["s",-2.681700844661883],["e",-3.2918613235059375],["de",-3.4541067931135725],[".",-3.577528780549649],["a",-3.592745455105943],[",",-3.614421180283415],["t",-3.8498069313444088],["en",-4.044543275321107],["d",-4.175909335423709],["la",-4.351843499918376],["n",-4.579508325544843],["y",-4.745146802779935],["in",-4.747351361132509],["l",-4.762850467326617],["’",-4.800651528709912],["the",-4.852448814630975],["o",-4.855007921171966],["que",-4.9241139293189935],["i",-4.97836684966183],["el",-5.06185248742479],["to",-5.102226177328182],["r",-5.117200602602402],["u",-5.1775750567997445],["le",-5.195290413218473],["er",-5.2259306482704755],["un",-5.326613040420229],["-",-5.345301304250301],["on",-5.380567227012776],["is",-5.410666242692008],["of",-5.479283157483696],["and",-5.506147724358275],["é",-5.575848889342032],["'",-5.578025921021197],["al",-5.608125164056753],["ing",-5.670440393579588],["re",-5.7119198234995725],["à",-5.758340042112588],["van",-5.793049586534178],["c",-5.808569788681149],["les",-5.855381911044301],["p",-5.86992672026946],["het",-5.954147726904814],["los",-5.97603849040069],["A",-5.992368733468448],["con",-6.00061995493259],["m",-6.005640265976902],["\"",-6.023938401280757],["be",-6.038937375722034],["est",-6.041122159839826],["een",-6.07330411449589],["“",-6.112794277227431],["du",-6.116103592897279],["f",-6.117372359252631],["ó",-6.120915578634088],["op",-6.164325988265922],["no",-6.23389040166292],["it",-6.296798268370013],["il",-6.302399331567965],["an",-6.306274423888562],["del",-6.314050419515016],["k",-6.328413230412089],["dat",-6.346230821570327],["g",-6.367472917166802],["C",-6.367858151346711],["por",-6.372916634473768],["for",-6.384600850025853],["(",-6.406473398641374],["De",-6.454831039996728],["lo",-6.458368997652169],["para",-6.4622964401958125],["La",-6.466660600427852],["ce",-6.471527318480872],["that",-6.47729622651112],["S",-6.480460278467543],["je",-6.483872875697582],["I",-6.489013773379172],[":",-6.526797020304068],["ly",-6.527237543929338],["qui",-6.549256040089398],["pour",-6.5570612170896805],["une",-6.572087320569121],["au",-6.575798798233464],["ción",-6.585371825213652],["ge",-6.58607478888336],["una",-6.617382903564028],["h",-6.62268353586756],["The",-6.6256332028950204],["ar",-6.636743871500814],["was",-6.638304470029267],["om",-6.644513602047127],["par",-6.645368935281629],["L",-6.657898543371543],["ver",-6.671899103357134],["voor",-6.678812409775938],["or",-6.6844406693569915],["z",-6.702944258830874],["met",-6.715728864897233],["sur",-6.735313464862296],["die",-6.745468625999617],["dans",-6.764791521477758],["with",-6.76603401577017],["«",-6.805136033322917],["b",-6.812016059385844],["ha",-6.845061859304618],["pas",-6.845599424051663],["T",-6.848052660308088],["ment",-6.8543181548332655],["las",-6.859672605716616],["zijn",-6.868858404847636],["niet",-6.875192198233677],["En",-6.882659156424664],["E",-6.897294541217807],["El",-6.91656897735235],[")",-6.925567111073965],["P",-6.931821810301356],["Le",-6.943182693440724],["he",-6.944069332037861],["me",-6.955320530831006],["aan",-6.96292281052491],["F",-6.968225470696019],["we",-6.976043057517209],["B",-7.007093385555743],["ado",-7.023004471547743],["over",-7.053415708504291],["qu",-7.09144401979324],["ont",-7.092323124158206],["más",-7.105041667314566],["1",-7.107825011307918],["son",-7.125898293505827],["uit",-7.127016695523819],["ze",-7.135928941483597],["?",-7.141552003073144],["ent",-7.14774753972061],["G",-7.156254044527833],["M",-7.173899017046086],["have",-7.181545031044173],["are",-7.203159086385197],["v",-7.213199496145071],["ook",-7.218805731146407],["19",-7.227839762452229],["said",-7.231885018635978],["co",-7.2355927981758015],["D",-7.236120743019036],["plus",-7.247958912539232],["In",-7.269991750728522],["not",-7.271621174750679],["ou",-7.280789438797983],["mi",-7.285866768444961],["by",-7.31691125742468],["aux",-7.319792647835724],["2",-7.329836672899525],["como",-7.338613663445397],["va",-7.352592402894439],["from",-7.358761091396621],["ant",-7.36288783997461],["man",-7.368669817149016],["has",-7.370550708864062],["20",-7.374603472493503],["bij",-7.380640449919099],["O",-7.388790091398278],["ik",-7.392713970873853],["will",-7.3996662740687],["”",-7.420638547485529],["N",-7.421660532848966],["ma",-7.423523612099391],["avec",-7.4260834230438455],["ir",-7.43370347627722],["K",-7.441248264189641],["maar",-7.445402061160957],["R",-7.445553902951813],["out",-7.451439278932176],["été",-7.457394414937712],["tion",-7.458327578965767],["ch",-7.460322950451404],["w",-7.4854741959118645],["zo",-7.495862546248736],["her",-7.499151396140947],["dan",-7.505283760488291],["ve",-7.5060119196239565],["up",-7.508818503599931],["had",-7.510042084837419],["can",-7.514305133806651],["ci",-7.516174185095014],["3",-7.532547790918002],["j",-7.540346270221804],["dos",-7.557031792165654],["ation",-7.561343808317915],["per",-7.563079467377806],["this",-7.571251989103569],["ex",-7.577248004597569],["V",-7.58116221382738],["his",-7.5909697178291875],["%",-7.594464242470783],["mente",-7.602240861659347],["all",-7.603241470253222],["5",-7.612379191505827],["este",-7.615902041467091],["entre",-7.618104425451751],["nog",-7.618709500841868],["Het",-7.6206594641559935],["‘",-7.620949831007101],["ca",-7.622900138545827],["but",-7.632477186808286],["door",-7.6361218963010895],["ur",-7.636872947043619],["if",-7.645218792080103],["you",-7.6460166876691265],["4",-7.65304457451176],["sus",-7.66058296771107],[".”",-7.667991212144326],["H",-7.683686880885091],["”,",-7.688780768356235],["W",-7.705545148429531],["wel",-7.712398068354828],["x",-7.728997203959514],["their",-7.735099251712823],["»",-7.7443599229226905],["ter",-7.7499614099719665],["go",-7.750253211556348],["ré",-7.767920117924254],["naar",-7.768027032241774],["able",-7.78631336213417],["dit",-7.792966221378597],["who",-7.7934872149320995],["We",-7.803536572120583],["ación",-7.808951083777151],["»,",-7.810565246172235],["mo",-7.8136256449338966],["U",-7.82252775909147],["Il",-7.830252699139985],["heeft",-7.831747789488759],["elle",-7.8431440388295055],["000",-7.850309834290661],["sont",-7.863992085533345],["th",-7.869619710670648],["vi",-7.871931049228566],["J",-7.872523106087863],["one",-7.878308710070026],["ión",-7.885866735612174],["hij",-7.892424552513299],["6",-7.898034337764061],["fait",-7.898414893497254],["fue",-7.907569772059894],["tra",-7.910349836576451],["als",-7.9151623536899365],["Les",-7.9170996960887],["He",-7.918367768653754],["Al",-7.920521571561652],["they",-7.9272922780810156],["10",-7.927336635742028],["á",-7.92961490796622],["more",-7.937956593514],["kan",-7.9480888066680855],["cette",-7.948644437471444],["were",-7.960732888217683],["meer",-7.964045799791673],["been",-7.968189439521494],["our",-7.968966148826457],["pa",-7.975545020601512],["í",-7.982906428948526],["han",-7.984112605588713],["mais",-7.987984813314235],[",”",-7.991760841349565],["ciones",-7.9922684897616385],["ga",-7.993702158510928],["moet",-7.998654545298528],["bien",-7.9992702838767205],["ement",-8.000075071000992],["étai",-8.000565415044088],[").",-8.001891175642188],["ido",-8.003669531658925],["car",-8.015495121210325],["jaar",-8.016066619598032],["mos",-8.018547359485751],["time",-8.021914164499853],["ando",-8.024189269161468],["hebben",-8.024888037090482],["No",-8.026291097384204],["Re",-8.028501022725226],["even",-8.03361405916594],["0",-8.035814359292369],["Je",-8.037256555516397],["about",-8.044602013254195],["esta",-8.048441117010324],["Y",-8.048657102357664],["pero",-8.049688424445103],["ba",-8.050044552973086],["also",-8.050681140365775],["puis",-8.05161669981709],["people",-8.059234970618554],["waar",-8.063421421002078],["com",-8.067596502507952],["9",-8.0687515748618],["años",-8.06931500076378],["word",-8.073109635196595],["ja",-8.082549691090046],["On",-8.086511216834424],["7",-8.088541405505595],["worden",-8.089200992601329],["tout",-8.096297042145634],["ig",-8.096342949963613],["ies",-8.096753368143158],["Un",-8.100308519531305],["fin",-8.101324169179502],["leur",-8.102029406528985],["$",-8.10639263513337],["It",-8.11222020064618],["ón",-8.116445862823298],["pro",-8.123881137466686],["8",-8.125373313732867],["être",-8.130861599112135],["\",",-8.132436222170627],["”.",-8.134661728417473],["men",-8.134941156239265],["Se",-8.135791960732737],["ante",-8.137857612798111],["wat",-8.140560798691114],["Con",-8.144384581971888],["nous",-8.148794997137692],["lui",-8.149128478107105],["bo",-8.152106835075397],["which",-8.157931985544723],["land",-8.172842151521529],["like",-8.179234874064736],["ía",-8.182180037888408],["onder",-8.182929751854545],["también",-8.184686851790271],["está",-8.188629473306175],["Ma",-8.189557464116517],["idad",-8.18990039899686],["ron",-8.191092929909988],["age",-8.204985644083425],["ic",-8.210671807690666],["new",-8.2108636217383],["would",-8.211444865283173],["sobre",-8.213355089479156],["30",-8.214269928128966],["),",-8.217156546435477],["Dat",-8.218213243161339],["–",-8.218442408419518],["ces",-8.219143031794161],["día",-8.219481286016213],["aire",-8.220886663719922],["year",-8.225439623177477],["…",-8.226299715493935],["Si",-8.226570052600728],["deux",-8.231054722410471],["place",-8.232672641948419],["tiene",-8.243175699384992],["eux",-8.243179480196124],["zich",-8.254212936403118],["Ik",-8.260208864064058],["just",-8.261599388877663],["/",-8.26709650974789],["2022",-8.271988555354454],["bi",-8.27439382735436],["même",-8.283728899961831],["autre",-8.285527395552814],["comme",-8.290445845659294],["Los",-8.290567156449391],["ndo",-8.297907478517336],["avait",-8.3039284525242],["other",-8.315382679838928],["ven",-8.31734783512004],["pre",-8.319257951277955],["ité",-8.320698972121052],["part",-8.323952330014626],["day",-8.32814605780905],[";",-8.330955760342327],["mis",-8.345796781151964],["vous",-8.346566613564853],["aussi",-8.346689890277931],["ken",-8.35033530492849],["after",-8.352148046422908],["when",-8.353769253475233],["!",-8.354445885933123],["gen",-8.358312430248182],["po",-8.359757562773265],["án",-8.3602543106081],["daar",-8.361940797283534],["she",-8.364090653727722],["my",-8.365256175595244],["Me",-8.366470688969144],["public",-8.370835710595253],["werd",-8.372983189909764],["faire",-8.374677474155433],["ger",-8.376754433506719],["geen",-8.3780348960246],["cha",-8.380507937341015],["—",-8.388176403963776],["cause",-8.396256069677676],["week",-8.398461999494836],["todo",-8.40519233646382],["mar",-8.407207629074893],["kunnen",-8.407970976741312],["gaan",-8.408859677140518],["back",-8.410500912846219],["puede",-8.411778919493003],["point",-8.413151814687428],["veel",-8.414947313558171],["some",-8.416718495775898],["año",-8.422717101682805],["parte",-8.423258633599294],["plan",-8.423347255229588],["ans",-8.424736595613403],["che",-8.429638934889987],["hun",-8.430746060925415],["15",-8.431184735959064],["Z",-8.43507568421837],["what",-8.43524392487767],["than",-8.435698218417862],["2020",-8.441217154091326],["nos",-8.443863864971108],["ive",-8.446838004100163],["vo",-8.449337200758468],["long",-8.449702242485259],["après",-8.455375731281917],["muy",-8.455579493027571],["auto",-8.458279730660148],["17",-8.458610809345807],["ag",-8.460035348883116],["tegen",-8.461367765536473],["16",-8.462534084588732],["Por",-8.463108345569314],["there",-8.464942904175924],["ico",-8.465057687406986],["now",-8.468796733446606],["».",-8.473094960267346],["12",-8.475951687306225],["país",-8.477549753261165],["contra",-8.477972854135064],["ju",-8.48162115879849],["ait",-8.48386682935228],["Maar",-8.48716448571793],["mensen",-8.489393221067978],["mer",-8.489743993895303],["Be",-8.491112758923684],["app",-8.491141686865088],["gaat",-8.502315374675982],["année",-8.503051808530584],["get",-8.505491396843816],["cre",-8.508945170032948],["11",-8.513487473496095],["mon",-8.518820403409137],["hi",-8.518844505572655],["avoir",-8.520624577117646],["weer",-8.522349532405878],["hasta",-8.528370491566271],["rès",-8.529892928624088],["how",-8.531667924617427],["work",-8.534086766572933],["vol",-8.535437483209504],["Na",-8.53616293450207],["aron",-8.538706442741658],["first",-8.541465302952734],["Lo",-8.544645779011919],["Ro",-8.548010604196769],["two",-8.55387300825888],["way",-8.55670843730462],["hay",-8.55680114882605],["zou",-8.558836859881463],["fois",-8.561480436575586],["18",-8.563558398624721],["want",-8.56583361751894],["forma",-8.567033403190464],["tie",-8.567128500587875],["Mo",-8.570996387357514],["2021",-8.574091618277208],["him",-8.575313332046402],["total",-8.57785708655012],["temp",-8.582520697058456],["million",-8.583029837390907],["cho",-8.583920581103207],["val",-8.587927330679904],["Di",-8.588684613456804],["oit",-8.588863528088307],["ck",-8.594624733419195],["ux",-8.59556336952091],["them",-8.596470083182727],["desde",-8.597326706493156],["moment",-8.606438987807728],["13",-8.609951749832014],["24",-8.611020636382323],["coup",-8.61165966085708],["goed",-8.61204693406293],["50",-8.61225815694232],["era",-8.613686140026083],["use",-8.617753529944078],["deze",-8.618945718357253],["personas",-8.619366858678816],["ho",-8.620064225437648],["za",-8.628484596261636],["off",-8.630615828704723],["cuando",-8.632012877631919],["Co",-8.63245066156422],["komen",-8.633025365348484],["mal",-8.637581622609602],["could",-8.638157630445061],["tro",-8.638256722430437],["state",-8.642342390429132],["its",-8.642546215797012],["contre",-8.644754439720973],["ncia",-8.651694642804518],["durant",-8.652495006338743],["donde",-8.655574519250159],["ij",-8.659725587904381],["Mi",-8.660752576115435],["final",-8.660857030874613],["pays",-8.666053851330812],["X",-8.668755180236996],["ix",-8.671722102684466],["caso",-8.673559277144669],["tur",-8.676151051190205],["14",-8.680395641559358],["lors",-8.680941079802675],["adas",-8.686953234765289],["Bo",-8.68970873095964],["haar",-8.691287884550665],["fi",-8.691924487539719],["But",-8.69200839429351],["premier",-8.69259428401147],["This",-8.693848838739356],["jour",-8.69539065905581],["San",-8.695766435594754],["cul",-8.69588029440499],["Pour",-8.695969313034698],["zelf",-8.6975649711793],["And",-8.697864294511348],["most",-8.70153400561095],["peu",-8.703579564502924],["inter",-8.709645142940566],["kom",-8.711218247396985],["your",-8.71735965024157],["vers",-8.718180912570947],["tijd",-8.71852044148775],["vez",-8.721597549065887],["hand",-8.722979787608807],["toda",-8.724410434601687],["don",-8.725231444580334],["take",-8.725721791468823],["any",-8.726144115860334],["25",-8.727998724813151],["Mais",-8.730022667278028],["team",-8.733937332576314],["Ra",-8.73528265003711],["cas",-8.736029394514627],["dijo",-8.73619541600975],["rie",-8.737373121358381],["home",-8.737648466160602],["iendo",-8.740969504464356],["COVID",-8.741040867894272],["ió",-8.741269906811436],["Een",-8.74203963436039],["into",-8.743396276118307],["egún",-8.744947056116654],["line",-8.74723117136371],["social",-8.747605161447906],["ici",-8.748177582640057],["personne",-8.752335360198222],["bu",-8.753002279794657],["last",-8.753295904450518],["heb",-8.756486383112218],["Vi",-8.75699958146836],["antes",-8.760438558160764],["ally",-8.761572235794002],["tant",-8.763500904855597],["près",-8.766256009848853],["Su",-8.768993619447153],["film",-8.770480278473475],["face",-8.772359092517828],["peut",-8.773567161240335],["Mar",-8.773740806656608],["make",-8.781787333956267],["twee",-8.78238716856102],["down",-8.782550351097743],["té",-8.782924256961977],["gran",-8.787903276235117],["ées",-8.790122094593187],["porque",-8.791606972591477],["pu",-8.792163952707272],["mee",-8.793347649502076],["staat",-8.795707006608863],["ity",-8.797881559310834],["Sa",-8.798997545771334],["hier",-8.79902840654091],["Er",-8.79906128828084],["help",-8.799298037086158],["pré",-8.80000926175667],["rá",-8.803184622633351],["tien",-8.806068879040156],["vie",-8.80641374126839],["encor",-8.812040092574353],["through",-8.812299055715986],["avant",-8.817620072649609],["bar",-8.822233337749637],["Car",-8.823245431227278],["cent",-8.824502221441337],["imp",-8.824535343945058],["Trump",-8.8250981089286],["ría",-8.825539117051358],["ance",-8.826642563360712],["dernier",-8.82712879717106],["So",-8.827962559884021],["momento",-8.82938633307798],["weg",-8.82961610773878],["sol",-8.831013483407009],["red",-8.831875030794988],["tiempo",-8.833056477251327],["¿",-8.83355376876726],["where",-8.834104912547573],["doen",-8.834583235761436],["media",-8.83494876021287],["ble",-8.835549011561882],["cada",-8.835769573811444],["club",-8.837061185251116],["being",-8.841745811298258],["direct",-8.842003255247263],["police",-8.84206196414419],["well",-8.845230984468262],["bre",-8.845761606743931],["ging",-8.846247356650276],["Van",-8.846526917854678],["via",-8.846569903768046],["andere",-8.847141966829248],["show",-8.849316339824815],["during",-8.850819664396077],["ko",-8.856902487016704],["Ha",-8.857075793158529],["galement",-8.857762621658015],["toute",-8.85886835863531],["había",-8.859367509581535],["Zo",-8.860897643043543],["solo",-8.862380142839012],["ù",-8.863989797375364],["emp",-8.865897240280841],["gan",-8.86764376325037],["To",-8.871432783137028],["heid",-8.87372914103387],["under",-8.875796977542755],["coronavirus",-8.879607480186785],["gra",-8.879906696527396],["local",-8.880114854158652],["Par",-8.880988156213999],["volgen",-8.881220626183033],["qué",-8.882196774261569],["millones",-8.883239814104254],["alle",-8.885598586519379],["ú",-8.887437456311009],["real",-8.888925964568507],["40",-8.889101827121562],["vent",-8.892066889266566],["eur",-8.894047586863081],["hacer",-8.894370788021899],["report",-8.897624923723225],["For",-8.897955956462017],["bra",-8.897971770414063],["moin",-8.899485746557282],["vind",-8.89962228323214],["krijg",-8.899654083122762],["maken",-8.899696571041527],["aba",-8.899973314199437],["every",-8.903160956637786],["high",-8.908018840013447],["base",-8.908884243926828],["ated",-8.910935497818183],["quien",-8.911265542293275],["lie",-8.91279739963369],["están",-8.91477969572869],["todos",-8.916412407006998],["200",-8.916636137347474],["New",-8.918710992006137],["Nederland",-8.91892189369094],["cur",-8.918978949350732],["start",-8.921169847184828],["old",-8.921451216621962],["nieuwe",-8.923126043038938],["ban",-8.923278151305599],["Au",-8.923900653305669],["toch",-8.924880803876789],["Ze",-8.925391008357028],["look",-8.926620212089876],["Une",-8.92732629461374],["uur",-8.929607330830944],["going",-8.930086137740624],["government",-8.93116277485593],["tras",-8.931238209136374],["porte",-8.932394803620351],["hoe",-8.933522227662845],["zal",-8.933910144386855],["nombre",-8.934484391524242],["wil",-8.935666430711182],["président",-8.936312964704417],["Ja",-8.93678424959511],["Do",-8.939168363312266],["tres",-8.939392061105028],["partido",-8.939867104997917],["ville",-8.942787085209783],["right",-8.944438006120887],["mayor",-8.944953162791549],["100",-8.947368392294784],["cuenta",-8.947778646224988],["dag",-8.94825219599198],["voir",-8.948488223332072],["pen",-8.949358025857126],["many",-8.950685207183161],["presidente",-8.950786050901357],["sera",-8.951489821910897],["vida",-8.951606818199057],["tri",-8.952937287339319],["whil",-8.955690371797491],["Op",-8.956273471236194],["St",-8.956521066321654],["ier",-8.956639567359026],["Et",-8.95680777723795],["open",-8.95785910743373],["monde",-8.959036423640288],["lugar",-8.95963616264887],["thos",-8.961296209947712],["Ar",-8.962074659598155],["equipo",-8.962580511222436],["before",-8.9630426474531],["school",-8.963924452449607],["need",-8.964230609943623],["Estado",-8.965495678369658],["amos",-8.96556243664595],["première",-8.967549917113107],["min",-8.969730211755106],["nuevo",-8.970417216140367],["question",-8.971583330658726],["put",-8.97552471503175],["gar",-8.978209208511451],["France",-8.979211444303102],["21",-8.97995065126116],["should",-8.980198898383957],["heel",-8.980926715190574],["00",-8.981934288128631],["mes",-8.982800417513069],["mil",-8.985993456258383],["know",-8.98658196741378],["echt",-8.98696711552325],["ster",-8.987045550568325],["ujour",-8.98714881996688],["Ga",-8.989295831180218],["aria",-8.989373680922897],["tar",-8.99231589444756],["hui",-8.992938126506267],["mejor",-8.993565520321742],["tan",-8.993642763019071],["ient",-8.994453302280501],["hace",-8.995301745952576],["control",-8.99595754479467],["mismo",-8.997608578869784],["She",-8.998304669740847],["sans",-8.998766163724408],["dio",-8.999443401228461],["tous",-9.003267751815603],["Pro",-9.004072850277115],["years",-9.004222603032057],["sector",-9.004907287065873],["mijn",-9.005273445753524],["primera",-9.006199695993985],["come",-9.007461372861526],["lot",-9.00847356315576],["lopen",-9.010250728298303],["semana",-9.010684134737923],["cap",-9.012621277703303],["health",-9.013747071192137],["euro",-9.015855730079384],["own",-9.02033584608699],["emos",-9.020568309788503],["Esta",-9.020838876144586],["ang",-9.021664083717017],["22",-9.02658661472466],["tic",-9.028228267719932],["still",-9.028842704864509],["euros",-9.031667400853214],["medio",-9.033120726338714],["dig",-9.035455967419452],["force",-9.03569350264055],["extra",-9.036287313246465],["Europe",-9.036860736326837],["ran",-9.039737180253319],["otros",-9.043122690431368],["nouveau",-9.044752109748803],["ministre",-9.050588133108333],["Ver",-9.050743152239274],["importante",-9.050870223651865],["certain",-9.051467566604742],["match",-9.054201269017376],["record",-9.054827438859409],["eerd",-9.054956964133016],["mois",-9.055891816948314],["Als",-9.0572150298974],["trabajo",-9.057735377022393],["thing",-9.060405600726584],["Nous",-9.06097656735212],["continue",-9.061706932886251],["bon",-9.062094770189688],["agains",-9.06284941403797],["así",-9.065672462117263],["US",-9.066004877082076],["best",-9.06708211654346],["embre",-9.067188301009388],["ça",-9.068027043098262],["leg",-9.068257617873364],["bus",-9.068611643780649],["second",-9.07022458782085],["amente",-9.070925791402793],["nouvelle",-9.07131312834965],["gas",-9.07376726967987],["último",-9.07478401268714],["ros",-9.074912370732694],["Die",-9.075326105493772],["hem",-9.076304110620772],["después",-9.076694405733],["calle",-9.077140940179646],["tre",-9.078515174688341],["aciones",-9.07966774995957],["leurs",-9.080261299738197],["support",-9.081067806541537],["déjà",-9.081164416454726],["result",-9.081364534844159],["zegt",-9.082021572299311],["heure",-9.083161046751563],["Ba",-9.08487295073525],["nueva",-9.085051550667885],["60",-9.08737220421504],["sch",-9.087688961190747],["gre",-9.087816176198427],["test",-9.087885376761706],["eerste",-9.087892436716107],["zien",-9.088038846786972],["ciudad",-9.09002812410664],["game",-9.09023432998277],["houden",-9.091591069440982],["rio",-9.093192180892654],["Ook",-9.09347412079799],["low",-9.094431347714172],["anti",-9.094624457700409],["dont",-9.094835031521121],["pasado",-9.095080452467016],["grand",-9.096367886108624],["Hij",-9.099519658467457],["lang",-9.101134777466978],["cri",-9.10258303499123],["ida",-9.102961202648476],["nada",-9.103671340476248],["Dans",-9.103858544618344],["hard",-9.10391573232795],["sión",-9.105979796595067],["cor",-9.107111511967513],["tour",-9.109252539095039],["quelque",-9.109576812330939],["ista",-9.10979010307554],["video",-9.10995637262878],["Du",-9.116847294759559],["Daar",-9.117627027106689],["ever",-9.117909242279236],["much",-9.118806686383225],["vis",-9.12028328203207],["three",-9.122274127530797],["iets",-9.124464749382149],["trois",-9.125978383189231],["air",-9.127588673221922],["tussen",-9.131705914826295],["think",-9.131838681349445],["donc",-9.136235323224481],["Gu",-9.136607544730506],["tanto",-9.137190712276682],["keer",-9.139655156988692],["may",-9.140873628277166],["Ka",-9.140993751717765],["grote",-9.14174231523768],["hele",-9.141797970094203],["rec",-9.142367098739873],["post",-9.14270159505514],["water",-9.143548436050967],["uego",-9.143813858916726],["será",-9.14697014384783],["familia",-9.152539150720678],["achter",-9.152559781404715],["Ademá",-9.153644021595987],["gue",-9.154284781254761],["sido",-9.155554034907379],["actual",-9.156820403300813],["virus",-9.158535774734219],["sous",-9.159135393748578],["bas",-9.159250995026005],["play",-9.1595167077007],["Or",-9.159564811464744],["plusieur",-9.1614826159798],["hecho",-9.168266930087835],["afge",-9.168513643142767],["rond",-9.170080124860288],["entras",-9.170893668720844],["è",-9.171212985117753],["change",-9.173224906873322],["ring",-9.17494130500653],["werk",-9.174996182808728],["équipe",-9.175125962696733],["terug",-9.175507219211351],["tener",-9.175805304659274],["act",-9.176286801253179],["23",-9.17750668257819],["semaine",-9.177948071763797],["dernière",-9.18209187925482],["situation",-9.182688898268163],["alleen",-9.182943595159283],["ainsi",-9.18318704263519],["especial",-9.18323835951746],["ará",-9.183716522921069],["otro",-9.184650389876339],["war",-9.18521688371801],["ki",-9.185618443146058],["good",-9.186912067757344],["beau",-9.187213075061383],["leven",-9.187628690448847],["country",-9.188505397839808],["Dan",-9.189597362489323],["Elle",-9.189818155378472],["Para",-9.190912827552168],["log",-9.191284533710657],["life",-9.195327366260724],["inten",-9.195413952091247],["wa",-9.19567100697641],["Cor",-9.195788267672388],["head",-9.196715192810299],["él",-9.196973239210141],["Jo",-9.197590556500742],["did",-9.198214596500538],["pri",-9.199160717074326],["primer",-9.200759081552018],["geld",-9.201087132739893],["ette",-9.201991702920793],["À",-9.20211159325277],["suite",-9.202179673623158],["person",-9.202384916520774],["president",-9.202825024327248],["sociale",-9.203318089543211],["homme",-9.20463686799274],["huis",-9.204826415775656],["début",-9.206013248598932],["tig",-9.206187393023122],["staan",-9.207180054862873],["menos",-9.208965769323287],["main",-9.209391782214695],["alors",-9.209862803380407],["very",-9.209949105899735],["Pero",-9.21137812242415],["ough",-9.212392267803711],["made",-9.21276480922001],["issue",-9.213033073128816],["projet",-9.213113394626136],["hospital",-9.216568242371826],["80",-9.216597982030402],["important",-9.217891744281774],["Ex",-9.218001972801634],["pandemic",-9.21813109997099],["26",-9.219913827254699],["personal",-9.221357404355768],["chez",-9.224631711584347],["empresa",-9.225441239669319],["vier",-9.227169579303622],["arse",-9.228788297052457],["Qu",-9.229603276857787],["number",-9.23068500252517],["rest",-9.231554680592064],["ben",-9.231649604999026],["punto",-9.232066793730048],["cours",-9.233799333990255],["lijk",-9.233899879683843],["selon",-9.234273812137706],["atie",-9.235777448925798],["cases",-9.2361352283251],["horas",-9.236885715963718],["Po",-9.236967027590907],["procent",-9.238606829040663],["27",-9.239091152168346],["national",-9.239488960018752],["ria",-9.240468176845823],["service",-9.240653685794928],["sub",-9.24093406935135],["business",-9.241147882336346],["plaats",-9.242150629833036],["inform",-9.24329225005789],["chi",-9.243393769943177],["rate",-9.244749517323292],["gouvernement",-9.244906760609808],["side",-9.245572879517873],["bal",-9.246006461571206],["information",-9.246357494821442],["close",-9.24691198540739],["rij",-9.247794776824243],["28",-9.248798891965446],["reg",-9.249866473847074],["politique",-9.250236347615582],["Covid",-9.250967522455467],["charge",-9.25107273300844],["mucho",-9.251533412219649],["ahora",-9.251720288958666],["Bar",-9.251996685181501],["col",-9.25219711979896],["mag",-9.252410420550504],["bat",-9.25332186622998],["Met",-9.256177714301142],["China",-9.256296901879935],["There",-9.256751507266106],["super",-9.258342780035942],["Ri",-9.258483584640032],["season",-9.258633999301255],["around",-9.259577852823433],["elijk",-9.261464042243047],["faut",-9.261511580545399],["mogelijk",-9.26194393481229],["Este",-9.262306219785046],["action",-9.262496242203344],["site",-9.263174755650589],["wij",-9.263803784780642],["Sin",-9.263862014482708],["fond",-9.265401465998224],["vu",-9.267044056522487],["says",-9.267380947928125],["Voor",-9.26774832577465],["tuvo",-9.267934343288639],["Q",-9.268524115964485],["dar",-9.269223535259158],["vast",-9.269569596601706],["aient",-9.270138333653447],["general",-9.27207190912647],["large",-9.272718058930716],["student",-9.273198494739004],["Ukraine",-9.27397194702986],["table",-9.273986102079185],["mont",-9.275214236644594],["acuerdo",-9.275525326939267],["say",-9.276785602450222],["eigen",-9.278633923466728],["ario",-9.279194898776959],["You",-9.280226826453912],["stad",-9.280849488134551],["Hu",-9.281341482937474],["since",-9.28167080171237],["70",-9.282477445045487],["500",-9.283227808454548],["ving",-9.284897859761568],["world",-9.285715590864909],["ves",-9.285908294081096],["current",-9.28679864867161],["manera",-9.287459549705302],["empre",-9.28906361822303],["President",-9.289146545310754],["minder",-9.290421844716601],["mundo",-9.290472623163062],["ôt",-9.29212917666188],["name",-9.29405235525558],["self",-9.295029404056116],["Cu",-9.297265333046138],["estos",-9.297477515486158],["droit",-9.298052152767532],["gui",-9.298281785828252],["art",-9.298500905005357],["&",-9.30230909808161],["If",-9.303941833539817],["hor",-9.304145766837145],["possible",-9.305891832032268],["cerca",-9.306238295254023],["lieu",-9.306720836662922],["ère",-9.307056416246045],["front",-9.311035454008362],["rán",-9.311347664967366],["Ho",-9.311533569879405],["ick",-9.311881285854028],["iste",-9.313355872173055],["pris",-9.314732498407862],["these",-9.317063060203171],["embargo",-9.319217821674606],["jusqu",-9.319284766047224],["fer",-9.320305927517415],["laten",-9.320821109761747],["sport",-9.32286062536577],["call",-9.32314707461412],["estado",-9.324074408506357],["rapport",-9.324556174587357],["company",-9.33065549870926],["kwam",-9.330666729814947],["altijd",-9.330798359170016],["ker",-9.332009938261074],["tivo",-9.333599448858058],["finale",-9.333876426990553],["such",-9.337401016460351],["partir",-9.33946661199207],["That",-9.339474709327714],["gobierno",-9.33972732090673],["waren",-9.342533001032255],["Gobierno",-9.343047972724065],["binnen",-9.343905662824955],["Cett",-9.346049598115606],["situa",-9.3464096777702],["spec",-9.346532323889832],["zona",-9.349269552975256],["cro",-9.35027429763702],["ña",-9.351143692116858],["estaba",-9.351287834539407],["ière",-9.355203695422645],["communit",-9.355262012041937],["â",-9.35543037321461],["produc",-9.356401421765721],["éri",-9.35712573820785],["Man",-9.357374909296187],["kun",-9.358110193490809],["rend",-9.358608766267478],["ores",-9.359869245878212],["proyecto",-9.36179688821096],["crisis",-9.361954864247728],["venir",-9.362273616529643],["algo",-9.363430190506431],["Mon",-9.364519519339604],["femme",-9.364911365991297],["investiga",-9.365542508419733],["État",-9.365767757643466],["nieuw",-9.367640253962104],["family",-9.368313996216695],["poder",-9.368606831944785],["servicio",-9.369182363989863],["present",-9.369642773069016],["région",-9.370043267454307],["impact",-9.370373924508106],["gewoon",-9.370568383402453],["win",-9.371044945146508],["cost",-9.371125892660757],["nuestro",-9.374301829555154],["dic",-9.374920165027987],["nivel",-9.376396914850865],["later",-9.377087860206329],["Ko",-9.378512242009917],["ello",-9.379097025971745],["Pi",-9.38161609362218],["came",-9.383855752951597],["onderzoek",-9.385113101692264],["director",-9.385639078645848],["niveau",-9.385652810240252],["ische",-9.385751579762088],["zorg",-9.386690651185976],["fuero",-9.387216945994592],["care",-9.387390627052875],["hoy",-9.38747046561084],["far",-9.387917620528155],["groupe",-9.388609988487392],["each",-9.389874999804938],["amiento",-9.389953042859778],["Per",-9.390020380344163],["mij",-9.391569874498437],["including",-9.39162820724133],["night",-9.391692196480163],["cio",-9.392703306752441],["ish",-9.393605173819589],["ras",-9.393822869760417],["lig",-9.393971067061283],["ín",-9.39505426703103],["sum",-9.396735205410954],["Russi",-9.397265404122784],["State",-9.397646077250133],["stand",-9.398282435723393],["maal",-9.398940137756695],["next",-9.399171067884344],["uso",-9.399414283175076],["group",-9.401986351660096],["Ju",-9.402943367702832],["pendant",-9.40326306400224],["travail",-9.403657715450738],["Her",-9.40387764202562],["Twitter",-9.403909201558616],["mort",-9.404450383568069],["drie",-9.40484633619744],["29",-9.405446712057463],["Dr",-9.40586172672204],["live",-9.406100093161418],["zij",-9.40679049279978],["partie",-9.406808163707272],["uff",-9.40868328610318],["2023",-9.40912922795718],["consider",-9.410986496666903],["wereld",-9.41164112475376],["miento",-9.411938376534202],["cut",-9.413358067499878],["contact",-9.414012184023479],["Dit",-9.417674862905013],["estar",-9.419935719957968],["comment",-9.422282756072303],["grupo",-9.422644896406188],["recent",-9.422822804743982],["rix",-9.423209826991645],["got",-9.423310195534011],["acht",-9.424672504020114],["amp",-9.42514807311759],["déc",-9.42589465777624],["rent",-9.425930691522396],["entreprise",-9.426876823104173],["Ou",-9.426889235039896],["order",-9.427379683750312],["gri",-9.427538825190602],["notamment",-9.428058573540165],["won",-9.428193485548393],["política",-9.431686034488138],["problem",-9.43509376643334],["hit",-9.436633536005516],["fra",-9.436874579343641],["Com",-9.436875223438463],["bor",-9.437864914018208],["chef",-9.438560526611202],["avai",-9.439782768361411],["ready",-9.440115202444069],["2018",-9.44324535261271],["poco",-9.444310006693158],["fall",-9.446103176001127],["Nacional",-9.446331914142593],["aller",-9.4470864800285],["trans",-9.447315085706764],["position",-9.448086278285494],["Son",-9.449433615468525],["eront",-9.449688904994796],["rez",-9.449737306628805],["steed",-9.450040351549712],["keep",-9.451348886333111],["form",-9.451689949733327],["class",-9.451798367061508],["Go",-9.452604237761488],["grande",-9.456015503966873],["tipo",-9.456344069468212],["baar",-9.45656286382549],["Sch",-9.457320641025305],["project",-9.45747029978247],["ño",-9.457533104782541],["aten",-9.457965404462144],["travé",-9.458530897858822],["zoal",-9.459040236782517],["tijden",-9.459327575863494],["sign",-9.459334294421815],["tir",-9.4610634414558],["provide",-9.461086281540005],["pan",-9.461871249390413],["found",-9.46380155854223],["ham",-9.464402695271694],["ley",-9.464635993787578],["onze",-9.464754358212247],["four",-9.4654622994932],["Cha",-9.466029428011595],["ès",-9.466059642889192],["berg",-9.466214652881451],["35",-9.466972893819802],["both",-9.468593193721702],["vient",-9.468806859129948],["casa",-9.469193171878347],["between",-9.469715398691353],["same",-9.471454695534398],["rem",-9.472992785731622],["minister",-9.473011356174286],["politie",-9.474131834419218],["Bu",-9.474667254604846],["Biden",-9.47590689364199],["parent",-9.476602613373498],["Esto",-9.47698631471831],["zit",-9.47701203206142],["bou",-9.477946000208927],["court",-9.479107835478022],["cher",-9.479976169584207],["centre",-9.4808664973411],["Oekraïne",-9.482955400614125],["mean",-9.483987032327551],["licht",-9.484272516742635],["ful",-9.484489205074782],["vert",-9.48451229730135],["problema",-9.485167316776863],["Wat",-9.485282828561932],["cambio",-9.485799423750036],["podría",-9.486796401928569],["pic",-9.48695760905197],["cat",-9.487127046895232],["agua",-9.487735129533458],["vel",-9.490582504278501],["told",-9.491682029937751],["case",-9.494766673972723],["€",-9.495466608245547],["parti",-9.497296017810779],["ambién",-9.49753301289514],["opera",-9.498232766468647],["hombre",-9.499678878193297],["services",-9.50156751854572],["Mr",-9.502509896704927],["wi",-9.502586996015378],["bank",-9.503388961787945],["expres",-9.504168989051573],["few",-9.504640388233522],["normal",-9.5057127087946],["compte",-9.505868323640325],["capital",-9.510318531480905],["har",-9.511001783364776],["band",-9.5112426515451],["char",-9.512314168540577],["great",-9.51374304525856],["saison",-9.514781197453118],["É",-9.514955574422634],["bol",-9.516964727675216],["trata",-9.518615826030668],["Ru",-9.518939934829806],["kon",-9.520528388410039],["jeu",-9.520869670624936],["gente",-9.520954033952467],["ooit",-9.522820359962735],["nemen",-9.524113528728952],["system",-9.525256273213538],["lado",-9.526140000666434],["protest",-9.526496675800171],["autoridad",-9.527133432877598],["haber",-9.527694068963195],["31",-9.527864235947757],["déclaré",-9.527957366712466],["rich",-9.527971685224347],["trop",-9.528882046738769],["Val",-9.529522223084065],["pou",-9.53034950763911],["Vo",-9.530599010571542],["fic",-9.531271509968962],["vote",-9.531849405746279],["rien",-9.53293480338618],["zeker",-9.533186186472037],["cómo",-9.53319850373719],["cual",-9.534486860034512],["somme",-9.534958652544638],["côté",-9.534993653214773],["vrai",-9.535732390006956],["otra",-9.535748957937901],["alguno",-9.536087785346265],["recht",-9.536146478045307],["nie",-9.536762054410477],["ating",-9.536919268664215],["mettre",-9.537087563518615],["Saint",-9.537505786322551],["York",-9.540070646317035],["espera",-9.540684242357912],["love",-9.540694457356384],["effet",-9.541302786128652],["medida",-9.541350209894063],["vrij",-9.542740932945794],["chose",-9.542882311164131],["nodig",-9.543669312364024],["nother",-9.543684883646566],["seguridad",-9.543943871316543],["product",-9.54758419080192],["respect",-9.549856153603518],["ard",-9.550365533817827],["bro",-9.5520815838669],["bekend",-9.552992054336123],["Méx",-9.553447466355113],["zonder",-9.553528049389794],["king",-9.55580011192596],["jó",-9.556101418818983],["begin",-9.556495317756514],["programa",-9.55681748155714],["Sur",-9.556823179508264],["ismo",-9.556887704462607],["condition",-9.557514147813116],["snel",-9.55808673445361],["continu",-9.558488946374009],["Europa",-9.559461203735147],["vía",-9.559483711359777],["weten",-9.560495530343754],["laatste",-9.56157706057903],["full",-9.562598169856962],["ieron",-9.563228634745403],["punt",-9.563867226485277],["Pas",-9.563928424509044],["Of",-9.564669407146507],["druk",-9.564824996156577],["jaren",-9.565275361674233],["Friday",-9.566765970663235],["ball",-9.567106383780176],["laat",-9.569285773889945],["cal",-9.56970613227979],["gebruik",-9.570116338497485],["mucha",-9.570480234776461],["salud",-9.57146266067226],["meses",-9.571787553340457],["nuestra",-9.571927842855569],["90",-9.572392598072001],["bri",-9.573889494039408],["Bij",-9.575334612724873],["rue",-9.576152238084767],["etting",-9.577068798086842],["ailleur",-9.57960684238883],["remain",-9.580008529745847],["kinder",-9.580447046824329],["coming",-9.580460660538234],["actividad",-9.580491214915703],["return",-9.582006865678393],["bajo",-9.58226462076751],["Una",-9.582892425244541],["asse",-9.583261748995078],["última",-9.583492067616358],["valor",-9.584062052693099],["six",-9.584416911531452],["eurs",-9.58475570910146],["ullen",-9.585058559345415],["cru",-9.58566522088828],["proceso",-9.588736210299269],["legal",-9.588929854035243],["gelijk",-9.589063232144763],["historia",-9.589153357218034],["happen",-9.590778934904634],["España",-9.594124917480084],["West",-9.594319009083115],["nacional",-9.594638436709353],["offer",-9.595189521194694],["famille",-9.596267931975595],["celle",-9.597026976733627],["45",-9.59704975575886],["divers",-9.597369622402695],["combat",-9.598386080453393],["light",-9.598544036676056],["American",-9.599488940442905],["though",-9.602533817755774],["één",-9.602734459319574],["geven",-9.602843689923922],["fil",-9.6030365163004],["sigue",-9.604412747282705],["list",-9.604721911712907],["different",-9.605952915995239],["avon",-9.607795767117974],["election",-9.608259397896816],["centro",-9.609809973864813],["principal",-9.609973829492084],["quarter",-9.612939261563103],["ador",-9.613626631346376],["lim",-9.614662722168404],["Mari",-9.614839465552723],["ness",-9.61644972426965],["term",-9.617364410859011],["eerder",-9.617586903521415],["Rusland",-9.617947807915098],["junto",-9.618053648092868],["tenía",-9.618459213018983],["endo",-9.619531156040427],["joueur",-9.619617891011846],["dire",-9.620302535156682],["willen",-9.621831621100096],["baja",-9.621872673971616],["May",-9.621911304473924],["série",-9.621991667756117],["Bi",-9.62274253311179],["jamai",-9.62328782622901],["isation",-9.623663214411241],["jeudi",-9.624652906865352],["pouvoir",-9.624662467019952],["process",-9.624901780359089],["TV",-9.62585904579835],["ige",-9.62637351188327],["Que",-9.627449946177872],["blijven",-9.627967156845681],["All",-9.629303732819311],["half",-9.6295228638802],["cosa",-9.629977925327072],["ï",-9.63034977331624],["month",-9.631161156670208],["pourrai",-9.631238687658787],["russe",-9.631517923280068],["bio",-9.631814795062777],["mor",-9.631930621973186],["puesto",-9.632988922956724],["anim",-9.633458124616393],["top",-9.637247556284986],["groot",-9.639194697573483],["Volgen",-9.639358818675195],["vin",-9.639405394149303],["Ben",-9.639922553441984],["raison",-9.641511227218803],["city",-9.641554955221435],["source",-9.641977388670963],["mercredi",-9.642300556986836],["Col",-9.642725447899014],["Russisch",-9.642971686412547],["Mor",-9.644044905900467],["online",-9.64467231659886],["Mc",-9.645408980123051],["rep",-9.64598774842996],["annoncé",-9.646797417432703],["dimanche",-9.6468241150761],["mesure",-9.647830768589888],["bedrijf",-9.647924902760046],["termin",-9.648089106666092],["vice",-9.64877559241808],["idea",-9.649436336935446],["weet",-9.649451121246639],["serie",-9.649849499406585],["otras",-9.650570718682198],["señal",-9.651309155832323],["cuatro",-9.651437287035051],["anders",-9.652801140651272],["mardi",-9.652872080236708],["energie",-9.653653159963842],["lundi",-9.653655603581122],["room",-9.653767879580194],["confirm",-9.654218839923471],["implement",-9.654279255647857],["stock",-9.654628701505914],["sino",-9.655165991072277],["dad",-9.655213665691537],["join",-9.655275815828169],["hizo",-9.655794315047697],["público",-9.65585233967559],["beter",-9.656306917352445],["ries",-9.657077349672608],["alguna",-9.658340589665169],["casi",-9.658384071634938],["decision",-9.66025569493858],["vendredi",-9.660411975310785],["produit",-9.660504632904537],["prendre",-9.661380048376286],["Wa",-9.662056103288528],["ram",-9.662225152376969],["Ab",-9.662310118870794],["aurai",-9.663011398600059],["include",-9.665026019872942],["vraag",-9.6651678189015],["norm",-9.665263132654285],["pay",-9.665310913589256],["verder",-9.665822830748231],["iek",-9.667154972299372],["bit",-9.667220381932058],["unos",-9.667525108353825],["market",-9.667908285600422],["job",-9.668512544600771],["ary",-9.669618147772894],["brand",-9.66969263879966],["sistema",-9.669995099415047],["attend",-9.670200980533352],["werken",-9.670327785042433],["avond",-9.670770695842666],["star",-9.671277336212798],["Unidos",-9.671469491066823],["persona",-9.671557813448276],["used",-9.67184623741165],["ië",-9.671908511762354],["give",-9.672335384984855],["rol",-9.6733369608913],["Can",-9.673941206489893],["Nu",-9.673999662655646],["ions",-9.675312034083657],["oficial",-9.67552011591275],["cia",-9.676620774488274],["voorbeeld",-9.677006676540236],["miljoen",-9.677692446486395],["reported",-9.679053984543518],["eron",-9.679089223384981],["slag",-9.679430733290463],["ización",-9.679806074426711],["population",-9.680019264459958],["iones",-9.680345940318427],["prend",-9.680783549351176],["Gi",-9.68291534255783],["level",-9.685560294505468],["across",-9.68641699948973],["Selo",-9.686615395586035],["resultado",-9.687678790888771],["fire",-9.688006339001628],["jarige",-9.688297350527478],["gest",-9.68947429864089],["human",-9.689687487825617],["edad",-9.690196209944519],["foto",-9.691374754966755],["Ucrania",-9.691735816232303],["When",-9.692008637993496],["PS",-9.692147386276744],["Universit",-9.692224944737136],["course",-9.693073422244971],["pur",-9.693265104697542],["bé",-9.693765755272523],["seule",-9.694976647335444],["vot",-9.695333438746205],["quand",-9.697483739105415],["maakt",-9.697766462862294],["gemaakt",-9.69788504752547],["incident",-9.697975715309402],["concern",-9.698039013364046],["near",-9.698047436545776],["here",-9.698143809677886],["kind",-9.698635669979376],["power",-9.699113354665238],["fund",-9.699518420643866],["firm",-9.700037561644617],["wie",-9.701170834000347],["+",-9.701208945771128],["izar",-9.701324637130398],["transport",-9.702406944828667],["exist",-9.70300884977149],["aantal",-9.703112440628413],["posible",-9.70362814880873],["Sp",-9.706655526051769],["vit",-9.706864740394561],["tado",-9.707757114504243],["arly",-9.708734172999158],["tard",-9.70920429420529],["March",-9.709562243192803],["facilit",-9.709637631587185],["frente",-9.709950355714504],["fans",-9.710164819866742],["tema",-9.710167300734708],["samen",-9.710367810071752],["isme",-9.711074757912076],["limit",-9.711327708627273],["zone",-9.711824161424111],["indic",-9.714197802884566],["grave",-9.714249373318394],["guerre",-9.714372090707737],["próximo",-9.714382787598003],["big",-9.715701725031167],["Tra",-9.715890435429603],["nation",-9.716565489178599],["samedi",-9.717741212647123],["prob",-9.718141303109507],["Om",-9.71856696849949],["Alle",-9.718763634067603],["station",-9.718808825013902],["quatre",-9.719289666590292],["abilit",-9.720910073950533],["oorlog",-9.722878010210039],["miss",-9.72392943772667],["marca",-9.724226240704722],["decir",-9.724787315573455],["unque",-9.725352357818757],["accord",-9.72568380542336],["rat",-9.726031052712925],["lever",-9.727632686006537],["derecho",-9.72811246976542],["document",-9.728212436817039],["visit",-9.728419235817405],["fiscal",-9.72864582908366],["corona",-9.72916827312249],["ical",-9.731031134542569],["erg",-9.73119837963532],["working",-9.73162409531264],["train",-9.731731208204772],["labor",-9.732072329964245],["pie",-9.7326246237185],["share",-9.733001320313793],["body",-9.733520772914545],["ñ",-9.733728466795995],["wh",-9.734562214944635],["solution",-9.734795262213499],["bonne",-9.73493498230051],["mission",-9.73573468302516],["ntes",-9.7359791044845],["vooral",-9.736261042053421],["occasion",-9.736321654522794],["número",-9.737554623239259],["bur",-9.738245827588674],["ago",-9.738554504379922],["esto",-9.738697761919656],["Jean",-9.739918488930769],["encuentra",-9.740025405676947],["claim",-9.740468648131358],["expert",-9.741109157575611],["left",-9.741110639885285],["John",-9.741397608175916],["route",-9.741610487773821],["receive",-9.741652271592404],["dólar",-9.741946950119532],["llegar",-9.741984602907456],["hour",-9.742325652191093],["mercado",-9.742638726654107],["Apple",-9.743457204596776],["tell",-9.744297310837236],["militaire",-9.745867782550704],["production",-9.745977811598987],["corr",-9.746369615148996],["gek",-9.746539741215468],["demande",-9.746603980651154],["var",-9.746644207693807],["ible",-9.746679939752518],["global",-9.747166128741192],["suis",-9.748758942712058],["image",-9.749173121901006],["Mont",-9.749660153208836],["zitten",-9.750570734270763],["pol",-9.750580547395444],["price",-9.75079703066522],["tendrá",-9.751115299984303],["try",-9.751310414896487],["grandes",-9.751754929272291],["misma",-9.75202839882985],["jeune",-9.752184835897275],["oud",-9.752247615582746],["paar",-9.753832507889435],["program",-9.755082434968166],["teur",-9.75625466986935],["niño",-9.756330722922256],["tim",-9.75655462320938],["reste",-9.757076635978862],["law",-9.75726511328936],["effort",-9.757554838933615],["National",-9.757585526115799],["objetivo",-9.758753581105477],["informa",-9.759650660937913],["histoire",-9.760024145654207],["appel",-9.760969297120198],["Sal",-9.761020980276585],["according",-9.761076219200744],["chance",-9.76133235626336],["spel",-9.761484153593292],["South",-9.761572249056613],["Ch",-9.76257424667132],["cualquier",-9.762645029826336],["petit",-9.762894926729102],["FC",-9.763097646683164],["iza",-9.763235319933859],["segundo",-9.763808718988226],["United",-9.763819767323563],["City",-9.76502179587997],["ach",-9.765487039620336],["bil",-9.766448019822413],["rig",-9.766479777602662],["Ya",-9.767146121618673],["devrai",-9.768262929416363],["Hoe",-9.768328928365317],["never",-9.768569203903118],["nationale",-9.768883364490183],["serve",-9.769626303139285],["Har",-9.769761763889054],["Fi",-9.771097688919292],["went",-9.771347500683568],["ancien",-9.772642830397867],["arm",-9.772771124525596],["inclus",-9.774808536785489],["devant",-9.775010592706106],["tax",-9.775999750844253],["gemeente",-9.777862954694402],["adde",-9.778295557443116],["rece",-9.778407522054247],["entro",-9.778878991255676],["muchos",-9.77913500967032],["Za",-9.780574547102436],["anza",-9.780855486839375],["statement",-9.782495332764496],["fu",-9.782651609913156],["aura",-9.782809494963665],["something",-9.783462088415904],["Québec",-9.78428489810873],["hora",-9.785689068977312],["ship",-9.785696230998731],["pr",-9.785715237837785],["Monday",-9.785973156257889],["cela",-9.787444918847939],["former",-9.788214246786852],["noche",-9.788256265609078],["favor",-9.788431561504275],["house",-9.789867006894323],["talk",-9.790165141471237],["War",-9.790189409280014],["militar",-9.792115123234066],["bot",-9.792597456046682],["race",-9.79261621943666],["mise",-9.793330522927631],["Sam",-9.793331699406998],["positive",-9.793394170188074],["elijke",-9.793807240886583],["deuxième",-9.794677696322239],["espacio",-9.794679037311951],["mai",-9.795272920004022],["range",-9.79563258490341],["marché",-9.795734491998775],["juego",-9.795761998591356],["primero",-9.79591874987506],["elkaar",-9.796297812676295],["effect",-9.796946059003464],["jeunes",-9.797562841662662],["cré",-9.79848289724253],["uch",-9.798546424780731],["believe",-9.798907937742026],["haci",-9.798997609239063],["vrouw",-9.799425078905063],["enfants",-9.800311604324794],["minuto",-9.801020224839672],["ative",-9.801691159301146],["Ni",-9.80232702069126],["event",-9.802391187816637],["zeggen",-9.80402541987813],["better",-9.804385517637183],["uck",-9.805108524602115],["mail",-9.806332081407735],["riv",-9.806632041811845],["busca",-9.807186835236074],["75",-9.807512886273317],["retour",-9.807683104471364],["ienne",-9.8080883265756],["hoog",-9.808430541052857],["groep",-9.80923614099838],["aff",-9.80936066901496],["free",-9.80973644589335],["jugador",-9.810838091431847],["soir",-9.811152504613725],["vec",-9.811243343494972],["Chine",-9.811642646915992],["mano",-9.812413420930511],["feel",-9.812907498525485],["sécurité",-9.813134835385291],["until",-9.813264647644935],["Nederlands",-9.813435103873335],["fuera",-9.814336587400298],["Gar",-9.814947918318484],["Así",-9.815125423892011],["dice",-9.816164932791809],["contract",-9.816617490720239],["mov",-9.818404904976862],["popular",-9.818474475613169],["quiere",-9.819804309323802],["vijf",-9.819823569183002],["What",-9.820002213453396],["zetten",-9.820285251066515],["Jan",-9.82146336335288],["terre",-9.822050153829444],["rap",-9.823023564030905],["plein",-9.82381528952827],["Paul",-9.824868952221568],["must",-9.82552424238496],["rum",-9.82713757410488],["abord",-9.827248958290067],["Rusia",-9.8278988277415],["directeur",-9.828485493084884],["stop",-9.828661706161597],["cargo",-9.82906633871183],["soci",-9.829408346969934],["version",-9.831436159524259],["lunes",-9.83151278151666],["children",-9.83202728462749],["With",-9.833970333179998],["does",-9.834291712555878],["hoofd",-9.83503563066391],["demand",-9.836102850287546],["clear",-9.836519273781523],["mat",-9.836735805501963],["might",-9.837403648083242],["using",-9.838252958269273],["vehículo",-9.838742539356772],["iedere",-9.838903944331975],["viern",-9.838928437919407],["explique",-9.839214356903746],["natural",-9.841001064675352],["away",-9.841357735727719],["General",-9.841513766705313],["boven",-9.841998240893226],["rac",-9.842352005365843],["hope",-9.843808602409972],["special",-9.844297947357482],["federal",-9.844747867385209],["vario",-9.844970556436504],["risk",-9.8452674849087],["past",-9.845369336911713],["pid",-9.845976058738252],["field",-9.846895550471839],["cinco",-9.846988132209036],["didn",-9.847693605949537],["Bra",-9.848327566726892],["Tout",-9.849792660494423],["gré",-9.850698537494905],["kort",-9.850800793953617],["aujourd",-9.850801456927194],["months",-9.850999569625305],["passé",-9.852086108118556],["genera",-9.853235928580688],["istas",-9.853581148857032],["future",-9.853908724349981],["things",-9.854299910446318],["tjes",-9.85448202430181],["increase",-9.855262847732874],["orden",-9.855346598186696],["mujer",-9.856890916924451],["conocer",-9.857360784208893],["area",-9.857791883000733],["mujeres",-9.8578016447596],["County",-9.859436311345084],["alway",-9.859897308847891],["five",-9.861372641130094],["EU",-9.86167162862353],["alta",-9.862784719218238],["oog",-9.862867312256242],["lum",-9.86327153108033],["aban",-9.863936562595129],["producto",-9.864305747011262],["members",-9.864759240352154],["particular",-9.865037303729721],["type",-9.865390835422655],["varia",-9.865898101369613],["ciento",-9.866654979244768],["Canada",-9.866803197127004],["tribu",-9.867131535034808],["iteit",-9.86771527151404],["opge",-9.868998848476801],["mid",-9.869552803862458],["sentido",-9.869759948496899],["explica",-9.87066888601474],["Plus",-9.870707016734354],["affaire",-9.871216325046667],["making",-9.871659227951357],["parece",-9.871755555518192],["reden",-9.872111831716808],["jou",-9.874565223287604],["Howe",-9.875163115386101],["posición",-9.876252849139252],["Zij",-9.8762546850956],["mañana",-9.876300019696682],["staff",-9.876478853289068],["afin",-9.877203066032035],["food",-9.877775393455781],["réseau",-9.878137149779473],["semble",-9.878657715176345],["ellos",-9.879727040683626],["élection",-9.88052322624122],["David",-9.880938478454384],["Black",-9.88097323071418],["onces",-9.88193286329253],["sábado",-9.881985657564204],["temporada",-9.881985876342274],["duidelijk",-9.881987405534543],["meld",-9.88223262553251],["digital",-9.882331369989979],["ium",-9.882989648598153],["Health",-9.883423504781167],["allow",-9.883473575833358],["doet",-9.88362565792913],["Qui",-9.884524621447607],["hijo",-9.88483694433595],["arma",-9.885639175539914],["PC",-9.885833440403292],["quant",-9.886634255608042],["minutes",-9.886955351081262],["mate",-9.887184599816065],["cción",-9.887275942886273],["falta",-9.887379634576172],["seguir",-9.887741839941441],["officer",-9.887871546312315],["woord",-9.887937195474805],["spread",-9.888044525723593],["Entre",-9.88838715610758],["Whil",-9.888481106411199],["stay",-9.888679079838598],["hang",-9.8896537365802],["sujet",-9.890287564389238],["blijft",-9.890414589712535],["provincia",-9.891918850030084],["Thursday",-9.892013733409144],["read",-9.892409994687737],["held",-9.892467951627243],["venue",-9.89289668429386],["respond",-9.89290681592983],["zi",-9.893268229648529],["existe",-9.893604161814224],["vic",-9.894142545224714],["Don",-9.89505388961783],["coach",-9.89523104775591],["Lib",-9.896342033021057],["%.",-9.896396736164952],["allemaa",-9.897574539361035],["Che",-9.89765571400456],["international",-9.897747229207923],["color",-9.897963371690134],["short",-9.89806027806669],["présent",-9.898146161255347],["restaurant",-9.899240313378808],["agent",-9.899323539153713],["rencontre",-9.899711015100234],["become",-9.900125956499034],["agit",-9.900622295646022],["víctima",-9.900690551570783],["Etat",-9.901004428949218],["retir",-9.901467767035713],["kijken",-9.902837745163293],["slecht",-9.902909371341288],["rang",-9.904619727283768],["cinq",-9.904805342070606],["ligne",-9.905639887750642],["enquête",-9.906199959882477],["aún",-9.906523339350514],["32",-9.906565404158027],["turn",-9.906625895905169],["realizar",-9.907892366390435],["photo",-9.9084436570338],["cour",-9.908555129134916],["hold",-9.90883235201391],["votr",-9.909186095158905],["veces",-9.909388934917208],["office",-9.90966474553689],["meter",-9.910182378526294],["connu",-9.91028103962486],["period",-9.910303947963705],["Gra",-9.911186769783761],["aske",-9.911283366777603],["tenu",-9.91128554856636],["mask",-9.911524435704361],["fact",-9.91162662183342],["Argentina",-9.912034221401019],["Luc",-9.912432868162401],["presenta",-9.912560170491336],["regel",-9.912596495551442],["média",-9.912899691098378],["prijs",-9.913013042973983],["indica",-9.914073882838593],["bouw",-9.91456082412429],["général",-9.914687160851592],["woning",-9.914794789790085],["Ter",-9.915317144151034],["Sunday",-9.915366695804916],["box",-9.916520981312075],["zar",-9.916854842251688],["pueda",-9.917103224729596],["pose",-9.917163187340833],["domingo",-9.917164248166308],["veu",-9.919253234732308],["quoi",-9.919612748789813],["vaak",-9.919786096718846],["annonce",-9.91989922653558],["libre",-9.920067606459332],["rou",-9.920288330415309],["declar",-9.92032636770454],["mic",-9.920515148128134],["Minister",-9.921194119276954],["Madrid",-9.921237509932807],["manifest",-9.92141226223247],["again",-9.922187921829941],["Ti",-9.922441170147291],["Tuesday",-9.922718483657851],["soort",-9.923167778344185],["sí",-9.923616967069602],["eves",-9.924015302917091],["dés",-9.92418736691857],["Hay",-9.92451865609063],["anté",-9.924557645175385],["camp",-9.924792009559827],["matin",-9.924925091706616],["lijkt",-9.925544037478438],["hoor",-9.926602192786131],["pandemia",-9.927183459645015],["risque",-9.927361134901387],["36",-9.927960466019051],["regard",-9.928146079129139],["halen",-9.92857875023418],["money",-9.92878102977147],["celebra",-9.929487866797302],["message",-9.930262065812506],["vend",-9.930300242558305],["basis",-9.930319483390821],["poste",-9.930577206832972],["nic",-9.930867356612646],["Ces",-9.931236452700821],["stellen",-9.93141188960688],["encuentro",-9.931666851181472],["nom",-9.932013338804573],["dici",-9.932113687458758],["dollar",-9.93215060045377],["alles",-9.932176889404673],["redes",-9.932457284350686],["motor",-9.93313594269991],["Saturday",-9.933165900529286],["juli",-9.933539045545512],["passe",-9.933917091861831],["ander",-9.934771528079786],["programme",-9.935065632069135],["chaque",-9.93557384975436],["content",-9.935874664106663],["vision",-9.93587537361109],["janvier",-9.936255056182912],["experience",-9.936849392333503],["tier",-9.937171219024233],["Paris",-9.937794301240261],["éré",-9.938443498765853],["board",-9.938446992515622],["ities",-9.9387242474719],["cadre",-9.939297852851496],["fecha",-9.939609991257193],["small",-9.94015731696424],["33",-9.940590884159452],["trade",-9.94059333440269],["34",-9.940944270904817],["women",-9.941088039288324],["300",-9.942646181888408],["lleva",-9.943468460919899],["civil",-9.943698404530974],["Pre",-9.943890107471901],["sort",-9.94402295180392],["grond",-9.94437088268813],["tors",-9.944954151162307],["denk",-9.945978342624674],["Art",-9.946564704736733],["having",-9.946941418142718],["comunidad",-9.947036530418714],["plu",-9.947495919407327],["français",-9.947658456365449],["taking",-9.947878108107695],["vre",-9.948135517784582],["permit",-9.948223717411018],["crime",-9.94877907056398],["merk",-9.94977908033179],["ministro",-9.949923889918402],["ateur",-9.951356498149469],["series",-9.951418974944609],["buena",-9.951771296321951],["once",-9.95230138305163],["handel",-9.953039147029099],["rente",-9.953414593683892],["junio",-9.95425849726183],["décision",-9.954396464870474],["little",-9.954441240085508],["conclu",-9.954449334081843],["design",-9.95481822565795],["doel",-9.955702253732543],["break",-9.956001929621056],["zie",-9.95600348228897],["Cal",-9.956391585261493],["prison",-9.956666936646043],["pública",-9.9571151127901],["cab",-9.957331306277297],["fight",-9.959045289018299],["buiten",-9.959057495343824],["anunci",-9.959664092885467],["Grand",-9.959893711090562],["seul",-9.95995334332968],["crise",-9.96050687336312],["mark",-9.960789823373275],["death",-9.96092187758039],["titre",-9.961337973278848],["propos",-9.961423301277204],["reach",-9.962582690236154],["Chi",-9.962729969378131],["together",-9.96366065042351],["idas",-9.964274889898798],["hur",-9.964464719645987],["CO",-9.965051662230131],["disponible",-9.965180648822184],["partij",-9.965497418493161],["interest",-9.965808139289315],["cover",-9.965909189892807],["option",-9.9662289956836],["actor",-9.967071575770571],["observ",-9.9671569574138],["enter",-9.967556271699998],["stond",-9.968269997087436],["bru",-9.969398433144974],["simple",-9.969649475907673],["haut",-9.969900442388868],["Wil",-9.969933698931023],["martes",-9.970702900877935],["marque",-9.971059898996508],["milliard",-9.971397066152388],["actie",-9.971402502919997],["línea",-9.97142411407609],["agreg",-9.971438585519568],["Cam",-9.971674192642208],["breng",-9.971904159626067],["taken",-9.972956828919578],["pense",-9.973268538168679],["moest",-9.973634858904202],["teurs",-9.974066124917496],["League",-9.974583911593909],["registr",-9.97495848610492],["Ber",-9.975245718870955],["organiza",-9.975630786090232],["vos",-9.975755495936932],["central",-9.976341375244967],["bord",-9.976382101847356],["podrá",-9.976451276462686],["fun",-9.977383134259256],["move",-9.977422365093421],["benefici",-9.977651816759238],["oportunidad",-9.977651882796788],["performance",-9.977740505055237],["profit",-9.97787683794997],["besoin",-9.97789524762787],["activité",-9.97797628490159],["opportunit",-9.979222029630623],["natuurlijk",-9.979286576454552],["victime",-9.980810533094008],["roll",-9.982802690468212],["accept",-9.983549550507854],["Est",-9.984531123763274],["dagen",-9.985070040278679],["99",-9.98664909145307],["responsable",-9.98666811800883],["presse",-9.986815234887723],["ich",-9.987002177120644],["lead",-9.987087635822977],["système",-9.988693267259208],["causa",-9.98869520069239],["wedstrijd",-9.988702976404173],["iércol",-9.988840136615586],["tête",-9.9891819088283],["BC",-9.989799115566253],["Air",-9.989867237242661],["cumpl",-9.990522988536146],["cycl",-9.990630417551426],["One",-9.991401108270708],["carrera",-9.991894978916605],["gro",-9.99191874914544],["landen",-9.992047729804295],["markt",-9.99277520988855],["abri",-9.993353399291975],["eerst",-9.993423593976779],["gewe",-9.99353335240674],["toria",-9.99378751799159],["seem",-9.994099895719168],["cuerpo",-9.995057897297523],["vue",-9.995608634569624],["confi",-9.9957105517434],["presente",-9.996743414505092],["justice",-9.996782855611137],["Ser",-9.99835650706288],["belangrijk",-9.998414427784876],["North",-9.998780021101975],["avance",-9.999166439561776],["Deze",-9.999297529257404],["Wednesday",-9.99985708622205],["segunda",-9.999858409032615],["schap",-10.000466198132244],["Juan",-10.000575979088925],["igual",-10.000641524001232],["Min",-10.001230215266318],["trip",-10.001605196375316],["zoek",-10.00163481109464],["Da",-10.002172008825838],["llega",-10.002271023746356],["diferentes",-10.002336967682355],["touch",-10.003124104552146],["cet",-10.003374897944974],["patients",-10.00495192444452],["franc",-10.005005191759011],["NA",-10.00560202338023],["iemand",-10.005936042692042],["mental",-10.006264191608052],["organisation",-10.006323576050352],["rak",-10.006796527359771],["bond",-10.007440341387637],["geef",-10.007541950239762],["My",-10.007851506030615],["fuerza",-10.007921147614772],["find",-10.008679481201126],["book",-10.009227452404183],["gr",-10.009728198175074],["worker",-10.010008909522874],["fan",-10.010464541923632],["Cre",-10.010711767261263],["Sta",-10.010949711831923],["couple",-10.011509134918636],["société",-10.011845348690546],["late",-10.011966914657163],["locale",-10.012529855150156],["promo",-10.01253559644671],["score",-10.014518677839817],["shares",-10.01479860942285],["wide",-10.01484907862838],["tweede",-10.015269549380772],["éni",-10.015695295038297],["talent",-10.015964122835396],["Bou",-10.016206911305552],["interview",-10.016296541507948],["aid",-10.01660527487128],["lid",-10.016614195891151],["precio",-10.016726577943583],["several",-10.017128363934756],["young",-10.017169880608705],["Facebook",-10.017675960928525],["199",-10.01801144094883],["cou",-10.018310060628245],["asegur",-10.018589881192776],["watch",-10.018732283586104],["wind",-10.018791304631065],["zelfs",-10.019168671075054],["español",-10.019307514812816],["particip",-10.019428604830859],["Yo",-10.019613261023967],["geval",-10.020593855026183],["décembre",-10.021139356255944],["run",-10.021618464362511],["ensemble",-10.021938392677828],["ayuda",-10.022136617051437],["Not",-10.02217399030269],["garde",-10.02438419458524],["complete",-10.026584752738732],["warm",-10.027224132818034],["press",-10.02726005669319],["internacional",-10.027309545706935],["gang",-10.027416121605153],["Bor",-10.027545784613494],["ición",-10.02780595379776],["Ros",-10.028642592523413],["figure",-10.028653675476061],["respecto",-10.029256476214377],["lockdown",-10.029260255027513],["travel",-10.029542387343271],["Th",-10.029763214405719],["área",-10.030712124919134],["focus",-10.030841849334594],["model",-10.03111544728229],["poner",-10.031425800687991],["paso",-10.032462933907144],["verwacht",-10.032724818238231],["necesita",-10.033182362952708],["administra",-10.0336636656034],["Inter",-10.034086002869024],["vriend",-10.034162607436343],["announced",-10.034247558764326],["cast",-10.034933142327763],["individual",-10.035527583490595],["gua",-10.035850248733187],["curr",-10.036065430860596],["gol",-10.036679812477207],["assist",-10.037044366999607],["juist",-10.037778716772152],["Union",-10.03834373319124],["rait",-10.038416626155772],["isch",-10.038568319084757],["India",-10.038877513328181],["Tour",-10.040091440002854],["alert",-10.040673949665319],["CA",-10.040921581254945],["today",-10.041555928979061],["wan",-10.041758621254907],["izado",-10.041962946347676],["teken",-10.042804564778299],["belle",-10.04300451560336],["value",-10.043551492895649],["gel",-10.043572893218439],["command",-10.043973183554058],["prueba",-10.04415039209285],["400",-10.044278013703945],["lié",-10.044576621318958],["38",-10.045665203800667],["indiqué",-10.045807473360428],["largo",-10.04684536394561],["37",-10.048426853378754],["dam",-10.04915111659362],["given",-10.049652066968461],["cua",-10.049975163387531],["voy",-10.050011976459931],["genomen",-10.050022492327951],["gne",-10.050170738637188],["Bal",-10.050355045270187],["tica",-10.050500950850704],["secteur",-10.050889292467115],["attaque",-10.050914143089217],["autorité",-10.051067092846068],["Pal",-10.05117635538734],["host",-10.051308286446613],["pot",-10.052328263451002],["Premier",-10.052549825783641],["Police",-10.053467992463581],["realiz",-10.053611158365774],["ira",-10.053953856648803],["Bre",-10.053997465092369],["After",-10.054306460601055],["least",-10.054900684685126],["Como",-10.055025878479439],["nature",-10.055058089580626],["buy",-10.055903202874171],["journée",-10.056050094653948],["space",-10.056210383214667],["55",-10.056937672156197],["muestra",-10.057632594012176],["client",-10.057783465895788],["tarde",-10.057787387883742],["Todo",-10.05788164020012],["passer",-10.058516810104535],["65",-10.05877870770285],["create",-10.058928647084873],["note",-10.058980646402572],["weekend",-10.059098988870057],["joven",-10.059356960145783],["novi",-10.059388121428519],["verschillen",-10.059417202659056],["ruim",-10.059956285920858],["werkt",-10.060631825610301],["bureau",-10.060636516373664],["nunc",-10.061026025664923],["dado",-10.061242066696447],["sexual",-10.061268875760057],["Joe",-10.061337117916507],["Pr",-10.06144765028201],["prochain",-10.062300607099065],["research",-10.062353286384946],["simismo",-10.06239788593236],["festival",-10.062739848382236],["rating",-10.062859225939633],["publique",-10.063401724211285],["recibi",-10.06353373937948],["vallen",-10.063610458078248],["mot",-10.063841184224529],["padre",-10.063898762741513],["similar",-10.064461525702452],["inspir",-10.064750304201448],["House",-10.06495923247528],["adapt",-10.065675635331989],["animal",-10.067754716503647],["Washington",-10.067876649453643],["période",-10.067970132806987],["tenido",-10.068043708131817],["industrie",-10.068747358019415],["Dé",-10.069235557386445],["political",-10.069253831840026],["noem",-10.069950315763812],["Brit",-10.07013427972178],["km",-10.070751662242351],["availab",-10.071237922116538],["campagne",-10.071317543808547],["voca",-10.072066704504483],["sinds",-10.07245648499395],["conseil",-10.072659661410137],["hum",-10.073126147779824],["Tu",-10.073967160831852],["pueblo",-10.074769100810746],["legó",-10.074778522559388],["principale",-10.075245965403298],["Ten",-10.075267054602216],["José",-10.075408059154746],["enero",-10.075515435593227],["novemb",-10.075522720282272],["count",-10.07598392759993],["offre",-10.077462869651004],["His",-10.077482265395986],["flu",-10.077549980404331],["oire",-10.078301396059231],["mbo",-10.078394270192401],["administration",-10.078839135380374],["arios",-10.078970205884549],["rust",-10.079456586941026],["ieve",-10.079560695153397],["vista",-10.07969596223505],["Donald",-10.080045554785528],["râce",-10.080090945038094],["officials",-10.080104535671644],["Macron",-10.080227183483345],["elección",-10.080750385661855],["lica",-10.080762756259764],["dur",-10.081301632926543],["ólo",-10.082087554652901],["football",-10.082152179388135],["kracht",-10.083180549382165],["vaccin",-10.08328654355543],["road",-10.08340992752745],["material",-10.083470672084262],["Ministerio",-10.083510803209462],["key",-10.083762429727594],["zei",-10.084376990464747],["dollars",-10.084631836091779],["violence",-10.085231350270654],["membres",-10.085832958360959],["doesn",-10.085991713818828],["trabajador",-10.086232283232512],["perfect",-10.08655696686094],["maison",-10.0869063275297],["mur",-10.087143172517232],["Red",-10.087717712433163],["aange",-10.08789930431346],["uillet",-10.088136041922969],["muerte",-10.088694138451],["sterk",-10.089014035389056],["chant",-10.089815775469098],["apoyo",-10.090036278977095],["ric",-10.090661248586898],["meeting",-10.091375617371018],["ijn",-10.091617981619141],["shot",-10.091677978161087],["campaign",-10.092204973850281],["budget",-10.092218786474168],["ake",-10.092695039861162],["désor",-10.092860624619851],["población",-10.093965226953088],["llevar",-10.094096655297488],["gezien",-10.09449849077289],["riesgo",-10.094800559952077],["rijden",-10.095043766094596],["Cela",-10.095049517986006],["prévu",-10.095053637961424],["Ali",-10.095388241379862],["municipio",-10.09572874735256],["financier",-10.0957289020469],["problème",-10.095729124920076],["fuerte",-10.095779692342232],["debido",-10.096255478487652],["informe",-10.096441128830302],["genoeg",-10.097514883956862],["along",-10.098357954631528],["dispar",-10.098638402130451],["known",-10.098802849813229],["candidat",-10.099349767256626],["phone",-10.09960319008303],["imagin",-10.099851588233218],["party",-10.09994738696626],["rrière",-10.100056522100836],["2014",-10.100095690854658],["transform",-10.100818638142433],["original",-10.100881352994291],["maanden",-10.100977790591259],["guerra",-10.101147000206199],["aide",-10.101361395096081],["among",-10.101464388267676],["loi",-10.101852728565593],["interven",-10.102699127228037],["illo",-10.102781686777977],["region",-10.10326482509037],["milieu",-10.104059232676775],["rot",-10.104264548158536],["político",-10.104594054088194],["goal",-10.104605067040218],["actuelle",-10.10463719918674],["bijna",-10.105144767783775],["Gro",-10.105747006832383],["multi",-10.10615821718412],["dejar",-10.106184136302485],["école",-10.106197820286518],["regular",-10.10666945008005],["players",-10.10712831979636],["prêt",-10.107174126200242],["vorm",-10.107177573168151],["hub",-10.107207475263632],["major",-10.107296291773153],["manier",-10.108055954887622],["Ils",-10.10809151824619],["prise",-10.108155401324002],["factor",-10.10815546655925],["third",-10.108427191471703],["viv",-10.10847727521921],["pit",-10.109167757489505],["aña",-10.109493604706223],["Ram",-10.109576079841467],["capacidad",-10.109951288428356],["gezet",-10.110256243958199],["pues",-10.111230516590929],["ident",-10.11153518308007],["Pat",-10.11153527576667],["oli",-10.111741650530211],["ejemplo",-10.111743662569332],["attack",-10.11174518334662],["appear",-10.112064894556191],["Unis",-10.112699350156788],["mayoría",-10.11279915659242],["further",-10.113586082568277],["septemb",-10.113702514223363],["permet",-10.113766853357934],["forme",-10.114427074868328],["septi",-10.114562258945423],["aard",-10.11476850868447],["arte",-10.115368596864037],["strong",-10.115473451245974],["volver",-10.11687459846128],["funciona",-10.117046902398496],["jornada",-10.11714100905181],["ties",-10.117917297162041],["hausse",-10.118547153480671],["ayer",-10.118750448108791],["Some",-10.118772639753846],["mensaje",-10.118994893212964],["plat",-10.118995108420396],["clima",-10.119158457600843],["Over",-10.119450656904586],["expected",-10.119471793897224],["rant",-10.119817176663744],["direction",-10.119867436128889],["48",-10.120271496235247],["évrier",-10.120752524185079],["propose",-10.121618269330675],["accione",-10.122043007430012],["constat",-10.12335850426452],["Robert",-10.123823706149523],["donner",-10.124049052489429],["lancé",-10.124464549152611],["Amerikaans",-10.124520600829715],["univers",-10.126130948463445],["voi",-10.126162817985183],["arrive",-10.127043323653046],["cía",-10.127216560233197],["pez",-10.127561426361403],["moi",-10.127934099179507],["measure",-10.128088616758575],["amor",-10.12831342371964],["permis",-10.12833888098049],["adelant",-10.128795176326706],["Luis",-10.128920531069157],["elect",-10.129373577039592],["unidad",-10.12946712837288],["bad",-10.130320224609441],["bout",-10.131600887407927],["souven",-10.131916966640947],["acto",-10.13225528583927],["gie",-10.133073296705817],["2015",-10.133289985770276],["Instagram",-10.13350302467562],["kant",-10.133789058916525],["familiar",-10.134168190912757],["recurso",-10.134625478998275],["mir",-10.134650609038065],["cop",-10.13516670801987],["tomar",-10.13517704716838],["protect",-10.135236251381896],["véhicule",-10.135337874844291],["enkele",-10.135397493715235],["état",-10.135757266273004],["presencia",-10.135989642228434],["politiek",-10.136015155520912],["AN",-10.136641345761596],["mari",-10.136730074292025],["Ste",-10.137083598284034],["link",-10.137375523577623],["soutien",-10.137509396793362],["aliment",-10.137535268903854],["gelede",-10.138888517466881],["font",-10.139140319037407],["entrega",-10.13916798032416],["chien",-10.139462046808717],["OS",-10.139814083629933],["Juli",-10.140419926628326],["obra",-10.140504876284147],["official",-10.140734284922662],["export",-10.14093783665893],["account",-10.140969801252064],["donné",-10.141103487346669],["formation",-10.14165227346557],["access",-10.14206013358581],["Hi",-10.142536694290198],["Mark",-10.143009091142645],["page",-10.143071548754806],["quelle",-10.143515323317217],["domin",-10.144411044362746],["ground",-10.144694757101712],["personnel",-10.144713482504123],["réussi",-10.14472726359081],["cara",-10.146044817973902],["fonction",-10.146410604932637],["security",-10.146419792060227],["story",-10.146552787220324],["decisi",-10.146876792869122],["Star",-10.147210693083423],["Martin",-10.147247456677434],["pens",-10.148140546697018],["bedrijven",-10.148736923034619],["centrale",-10.14877200593363],["estas",-10.149061515121833],["opération",-10.149402334105776],["park",-10.149737660445602],["challenge",-10.149932655966875],["bare",-10.15016112587913],["Real",-10.150640020801571],["exemple",-10.150900322402677],["kijk",-10.151216446126963],["Super",-10.151713737468404],["chu",-10.151830095010679],["affect",-10.152209921976016],["objectif",-10.152225112014708],["denken",-10.152469156533726],["ski",-10.152524210314635],["dicho",-10.153086896289137],["insist",-10.153609467480038],["œuvre",-10.15387430819375],["liste",-10.153936943811555],["role",-10.154377384415156],["Even",-10.154854394627103],["distribu",-10.155286448028875],["guard",-10.156926423067944],["straat",-10.157049774192352],["vou",-10.157070672040799],["Villa",-10.15711510762025],["ê",-10.157202535671404],["instala",-10.157521566341288],["weinig",-10.157710567517643],["gave",-10.157762978659882],["octob",-10.157790339097328],["fille",-10.15876457618095],["gestion",-10.158993554512184],["Carlo",-10.159467777785302],["plante",-10.159595443059635],["dict",-10.160024432597774],["stead",-10.161310368241157],["World",-10.161387824992604],["amelijk",-10.161659495524777],["gegeven",-10.162107925240589],["lier",-10.162308360173459],["gaz",-10.16241008319474],["hoop",-10.163828000109248],["internationale",-10.164025904414835],["Wi",-10.165032991571376],["pesos",-10.16518010004803],["líder",-10.16525358447777],["armée",-10.165977057723502],["boek",-10.166361424490727],["gebeur",-10.166741369568552],["travers",-10.166764939544837],["spoke",-10.166779107172534],["trav",-10.167353015106709],["Fo",-10.167526570986489],["times",-10.167773195531169],["reason",-10.168053743449132],["refer",-10.168239864282558],["following",-10.168272411048925],["Sport",-10.16867630271713],["torio",-10.169162642885988],["gedaan",-10.169519295429113],["ataque",-10.170251805117985],["utant",-10.17026103676151],["web",-10.17027846265285],["mus",-10.170399464466087],["viene",-10.170729434669875],["starte",-10.17081611524744],["arrêt",-10.17089204705433],["carga",-10.171286067691014],["evento",-10.171468502720078],["Pen",-10.171802123634984],["mond",-10.172436173720769],["profesional",-10.172760417765975],["juste",-10.17298320921635],["propuesta",-10.173010703562824],["row",-10.173513801304269],["bied",-10.173777464846477],["done",-10.174054748793804],["took",-10.174284602314872],["encontrar",-10.174286508056722],["straf",-10.174763687987074],["remos",-10.176178234711491],["Char",-10.176546720619715],["policía",-10.17662148099808],["propio",-10.176628818301182],["Mag",-10.176814333800774],["hotel",-10.176903227956554],["signe",-10.177614968297942],["Mal",-10.177848820288755],["dinero",-10.178008059307608],["Qatar",-10.178508067932475],["plant",-10.17939986811437],["mars",-10.179412977369179],["entend",-10.179713171070564],["ruso",-10.180068597086937],["habit",-10.180075004577226],["goede",-10.18063388007128],["correct",-10.181140804261812],["%)",-10.181528388061382],["round",-10.181530928453304],["town",-10.182524774987854],["uitge",-10.183496065260744],["tend",-10.183921146823566],["coût",-10.184273837061376],["trek",-10.184571104162913],["événement",-10.18619627837493],["grow",-10.186667365114076],["rim",-10.186667656497981],["safe",-10.186747161934342],["vond",-10.187067533862077],["vanaf",-10.187242367128261],["estamo",-10.187535827413384],["communiqué",-10.188131408055224],["modern",-10.188546298926447],["cita",-10.18879663111623],["considera",-10.188803011755722],["Waar",-10.188927062757063],["arro",-10.189642343078225],["trabaja",-10.190001385256695],["economic",-10.190419229256985],["exact",-10.190532056912563],["permettr",-10.190815220259854],["haya",-10.19097458030221],["comunicado",-10.191770178539205],["environ",-10.191846339088595],["Sha",-10.192821943972188],["poor",-10.192928952173213],["ask",-10.193509619086766],["meilleur",-10.193824295129772],["octubr",-10.193956853391446],["Final",-10.194608113626504],["voetbal",-10.194631967459548],["estudio",-10.194886540870044],["file",-10.195147662727877],["tru",-10.195518465661365],["rapide",-10.195555429624353],["print",-10.195659956745747],["participa",-10.195696199910465],["percent",-10.195729759872913],["seizoen",-10.195910174618222],["billion",-10.195984033658338],["Australia",-10.195997326942905],["platform",-10.196107253063786],["expect",-10.197256116884958],["poli",-10.197408241423371],["Rob",-10.197520868841913],["zin",-10.199242915535216],["Ki",-10.199354757398023],["gebied",-10.199532286905391],["rôle",-10.199810169338324],["DA",-10.200177831263101],["Cat",-10.20057799176995],["économique",-10.201775972268221],["Ciudad",-10.20177610850996],["avril",-10.201784758555153],["beetje",-10.20186681677754],["woman",-10.202383694704281],["Santa",-10.20245218548409],["Comme",-10.203094136497334],["regen",-10.20311051462049],["pilot",-10.203372528995086],["Durant",-10.20371060489945],["wait",-10.203738734665269],["representa",-10.20389562276909],["scène",-10.203910457187433],["voel",-10.203984544513037],["eigenlijk",-10.204022563661706],["kree",-10.204136274983238],["groei",-10.204485523025156],["require",-10.204733739681654],["39",-10.204735915173448],["Fre",-10.204938792449894],["stuk",-10.205071345554185],["ked",-10.205575320230166],["organisatie",-10.205709378659815],["develop",-10.206277051851028],["confirmed",-10.206701214837672],["AM",-10.207033862556699],["49",-10.2071598376996],["comes",-10.207363133727778],["éra",-10.207572658503757],["music",-10.207638931023054],["terme",-10.208097695459632],["stelling",-10.20826608748714],["gens",-10.208279319819376],["precis",-10.20836323025987],["lucha",-10.20855656005639],["wer",-10.208617673094711],["parole",-10.20870990339954],["pped",-10.210837138789852],["arme",-10.210966505444205],["walk",-10.211283616612358],["adopt",-10.211575901227185],["precios",-10.21163888917574],["bring",-10.211918507928178],["partner",-10.212058502443288],["gesteld",-10.212111201151284],["AR",-10.212250266399467],["américain",-10.212339266613501],["spite",-10.213124062625337],["pai",-10.213984534613065],["mí",-10.213996873326728],["proces",-10.21432845912394],["ward",-10.214389784331807],["evitar",-10.214447403370718],["rule",-10.214588730986979],["Tri",-10.214827834155962],["accident",-10.215156463964078],["raise",-10.215305168446942],["previous",-10.21574302205758],["thuis",-10.215951549983396],["vir",-10.21612628294514],["q",-10.216948023916693],["terwij",-10.217006450322614],["depend",-10.217736051130085],["FA",-10.218617784726959],["parce",-10.218748815525585],["weken",-10.219123999598864],["difficile",-10.21959819691017],["April",-10.219665895426381],["desarrollo",-10.219767073002338],["Pri",-10.21988099602309],["constitu",-10.219967393575537],["capacit",-10.220219449240204],["Uni",-10.22025382965056],["necesario",-10.221599024452788],["culture",-10.221792832353385],["provoc",-10.222148537901793],["dienst",-10.222286121054513],["invers",-10.222375808516567],["Mundial",-10.223602258834802],["vroeg",-10.223602857085673],["mini",-10.224261892992425],["stap",-10.22452019103327],["veld",-10.224682808337342],["Kar",-10.22475833010849],["friend",-10.225565536088752],["compañía",-10.225610232717521],["vragen",-10.225619185797129],["concentr",-10.226098438509101],["view",-10.2261917586357],["Door",-10.226488133098119],["iers",-10.226606863398812],["RE",-10.226675499069689],["AS",-10.227187117707395],["release",-10.22867877174555],["vont",-10.228776170255859],["feu",-10.229088015922887],["tab",-10.229186691090291],["certaine",-10.229241308593876],["Policía",-10.229663845723955],["suspect",-10.22966503034652],["training",-10.229758484667972],["dood",-10.230130303701182],["futuro",-10.230263256354874],["44",-10.23169291759797],["mode",-10.232138988286117],["kers",-10.232370130892143],["realidad",-10.232866174130955],["laag",-10.233019862383571],["dura",-10.233506697424302],["vidéo",-10.233687682239708],["leader",-10.233707251086622],["unique",-10.233708302653916],["experiencia",-10.233709759764288],["worth",-10.233960987287379],["texte",-10.234031865197547],["Han",-10.234451313325476],["construc",-10.234937893502298],["pos",-10.234943869683388],["outside",-10.235548630025649],["médica",-10.236428917270636],["wear",-10.23650030831567],["kop",-10.23676768263825],["arrest",-10.236950916690052],["pick",-10.237111856120904],["zaak",-10.237570661683534],["troisième",-10.237744479847713],["ecember",-10.237748965618398],["afirm",-10.237905364525139],["esos",-10.238156982456562],["élu",-10.238176524404881],["collect",-10.23818019628282],["store",-10.238333682543207],["Kie",-10.238768786289445],["père",-10.238907967608617],["thought",-10.239227095263384],["opening",-10.239716132611274],["step",-10.239763699147982],["ima",-10.240359091972666],["concert",-10.240624753912861],["municipal",-10.24113733045704],["check",-10.241277135272638],["kin",-10.241702546591151],["Commission",-10.241958561976325],["jan",-10.242179399010087],["estará",-10.242597908445909],["matter",-10.242878859299061],["resto",-10.243116580425346],["fiets",-10.243204878420553],["gener",-10.243790256164349],["limite",-10.243931239882876],["commune",-10.243935564012238],["carte",-10.244308796280407],["potential",-10.245915837108132],["député",-10.245916341496718],["gewon",-10.24638033757412],["prochaine",-10.246461117533464],["reduc",-10.24678990518051],["middel",-10.246879808641483],["burg",-10.24715648382203],["reciente",-10.247861536358082],["privé",-10.248036694929482],["Nor",-10.24839305925129],["rian",-10.248969926866021],["iro",-10.249476726203666],["abilidad",-10.24969870522662],["Fue",-10.24974636879228],["According",-10.250026546191513],["building",-10.250266211702625],["dossier",-10.250318000970928],["internet",-10.250372515314684],["conoce",-10.250874606966704],["Gran",-10.25128258807663],["Niet",-10.251855759657463],["forward",-10.25188172211781],["recherche",-10.252379214205144],["neem",-10.25263351890699],["blijk",-10.253144090189412],["June",-10.253590743967525],["companies",-10.254070835367898],["Ku",-10.254244110286901],["rain",-10.254833262646965],["stage",-10.254895405651773],["candidate",-10.255133457127707],["SA",-10.255562310841103],["voer",-10.255715280212193],["Bru",-10.255856855561543],["aumento",-10.256686256317694],["Bank",-10.257329046968445],["Mat",-10.25742530417009],["cherch",-10.257485231364281],["autor",-10.257520379489218],["curso",-10.257719357964973],["venta",-10.25813534701318],["application",-10.258299698838396],["gros",-10.258396669815493],["ES",-10.258713830709631],["entrée",-10.259282654322142],["iba",-10.259428764557512],["elke",-10.259475124787848],["denuncia",-10.259539949394785],["imos",-10.260141238752729],["radi",-10.260381880346351],["Va",-10.260609548637014],["développement",-10.260676994419342],["arra",-10.26137397953407],["igne",-10.261427875217022],["réc",-10.261736926122047],["°",-10.262461882055334],["comunica",-10.262752235830204],["leiding",-10.262798085889736],["ément",-10.262813809335945],["gracia",-10.263049437679824],["UE",-10.26326862241691],["pareja",-10.264335381941299],["victoire",-10.264551334869562],["terrain",-10.265286690360467],["importa",-10.265547357482497],["PP",-10.265727394371979],["ayant",-10.266135081729095],["ional",-10.266322890588857],["Tom",-10.26634278967407],["prijzen",-10.26664191916489],["Wal",-10.266873788388164],["aucun",-10.266948521654795],["news",-10.268432828173411],["rid",-10.268756245101542],["adore",-10.268806431713314],["bent",-10.269084792107865],["gado",-10.269090721659325],["pied",-10.26917623228133],["Park",-10.269227681639787],["jeux",-10.269508501830336],["modelo",-10.269690381586766],["extend",-10.27020240453221],["vrouwen",-10.270209224885761],["comenz",-10.270401257259252],["idée",-10.270475541551088],["sería",-10.270719402875434],["province",-10.270840430282298],["active",-10.27096784774242],["cabo",-10.271275032511546],["MA",-10.272031901903658],["weeks",-10.2724519079877],["económica",-10.272944171231469],["énergie",-10.272944483855941],["argument",-10.272944770566435],["average",-10.27328491811491],["Plan",-10.27336273447601],["destac",-10.2736113039521],["ziet",-10.273993511407514],["avantage",-10.274386836936893],["understand",-10.274397170711396],["koop",-10.274587532300682],["games",-10.274742117928263],["rage",-10.274774604614063],["ête",-10.275038244321092],["Google",-10.275061304332297],["fac",-10.275139615393737],["cabeza",-10.275162522210142],["posibilidad",-10.27517143430088],["follow",-10.275246059007472],["maakte",-10.27579051102266],["jouer",-10.276601382624897],["llev",-10.276662795511072],["doctor",-10.277278958355303],["43",-10.277909108472718],["whe",-10.278069766951589],["eind",-10.278285961321348],["Camp",-10.278648388747843],["aï",-10.278688659914021],["heden",-10.278709895483136],["hall",-10.278866701179737],["connect",-10.279037022882227],["42",-10.280074818291872],["iving",-10.280295511413861],["ajouté",-10.280763909102166],["ministère",-10.281409993801313],["serai",-10.282089717379977],["zorgen",-10.282741756470855],["gun",-10.282841301609487],["overheid",-10.282868652555386],["blanc",-10.283181093496506],["quick",-10.283218177426795],["vor",-10.283743084888448],["arán",-10.284555469064822],["Arm",-10.28464926679477],["operation",-10.28478132883444],["août",-10.285671450995928],["probleem",-10.285675713863597],["mobilis",-10.286104647882144],["significa",-10.286142011038828],["viaje",-10.286529344861773],["mogen",-10.287258602715301],["Day",-10.28766341432984],["kosten",-10.287781275096503],["respuesta",-10.288031485303222],["étude",-10.288234754598937],["construction",-10.288419663375258],["visita",-10.288613135424988],["petite",-10.289257338021432],["member",-10.28942517812563],["rying",-10.289886569542588],["Club",-10.289953906265279],["vandaag",-10.28995804989747],["impuls",-10.289962037560839],["involve",-10.289986305650052],["double",-10.290008988277418],["vrijdag",-10.290243509923474],["individu",-10.290287296960734],["plane",-10.290323632273243],["saying",-10.290463507551188],["Bas",-10.291096647143394],["echter",-10.291291171989723],["conocido",-10.292189807966727],["danger",-10.29305114054361],["necesidad",-10.294245569015128],["gli",-10.294402961911139],["restriction",-10.294577773530524],["inicio",-10.294810559509424],["infection",-10.294814071765114],["Bel",-10.29483414713195],["institu",-10.2955035274789],["meest",-10.296034005810679],["livre",-10.296337079128142],["América",-10.296399408396413],["voiture",-10.296534116603553],["ruimte",-10.296938697183915],["raad",-10.297073649243151],["coment",-10.297504464541401],["taine",-10.297581640036286],["unning",-10.297726722773051],["suspend",-10.29825692941927],["ü",-10.298406414826584],["concret",-10.29846285052971],["campaña",-10.298622712839734],["Mac",-10.298693369687115],["autour",-10.298818316939329],["God",-10.299292235767112],["trabajar",-10.299383364623596],["hol",-10.300048687544265],["America",-10.300715565798107],["camino",-10.30085171346872],["Reg",-10.300970471960994],["prensa",-10.301063848283384],["maand",-10.301241500948631],["pati",-10.301474540047678],["manière",-10.302475254941264],["fast",-10.302859705333054],["speak",-10.302931209423047],["explicó",-10.302958340425647],["Vol",-10.303270540875042],["libera",-10.30329797064849],["85",-10.303304085087687],["clair",-10.303394022067648],["écrit",-10.303586425825824],["Iran",-10.303837254189588],["priorit",-10.304325080537431],["drive",-10.305925501401095],["commun",-10.306934785773961],["Johnson",-10.30705075187159],["zul",-10.307433504995508],["libér",-10.30748594129858],["Louis",-10.30754690761445],["maintenan",-10.307884804050303],["abandon",-10.308863176045769],["zag",-10.308863773651943],["contribu",-10.309525210146948],["vons",-10.309567883021739],["regering",-10.309602064528832],["gain",-10.309719468424866],["child",-10.310899567120188],["présenté",-10.311762225595313],["46",-10.3128446376377],["SE",-10.313043739184948],["regres",-10.313241939116292],["difícil",-10.313810049290336],["response",-10.313810357220733],["association",-10.313811675601952],["RT",-10.314237775489527],["gosto",-10.314311453988068],["Kan",-10.314617825033118],["istes",-10.314645196349456],["ssement",-10.315087564478528],["MI",-10.31576345571351],["Hospital",-10.316007881816969],["donnée",-10.31633074016056],["aquí",-10.316915166799308],["instant",-10.316981073358772],["nosotros",-10.317352243211033],["rival",-10.317400302942161],["ativa",-10.317756359576194],["estadounidense",-10.318210485591067],["Conseil",-10.318385429554098],["ray",-10.318466019090947],["launch",-10.318683739323058],["residents",-10.318735040206006],["movie",-10.31875664581481],["Fu",-10.318932557432216],["pression",-10.320055485590919],["caus",-10.32046568642904],["indique",-10.320633679941615],["amigo",-10.320685186353147],["luc",-10.320704286441654],["medical",-10.320740133474935],["volg",-10.320868955456202],["fri",-10.320881745799],["pier",-10.321061288826987],["propia",-10.32134740790931],["ár",-10.3218355802773],["poll",-10.321913802719173],["calidad",-10.321950691323341],["cifra",-10.3221994834613],["ouvert",-10.32234253836748],["Nord",-10.322394862126886],["concept",-10.322403906506302],["vari",-10.32244644781939],["résultat",-10.322630380900897],["naam",-10.32267774671832],["target",-10.323764783181796],["ligt",-10.324343147684585],["Cro",-10.324569843739852],["west",-10.324613652822865],["verkeer",-10.324714564675286],["Our",-10.325023393152492],["trekken",-10.325169730732474],["iano",-10.325310040924744],["vecino",-10.325514448382819],["rill",-10.32569564546254],["beteken",-10.32590909363627],["venu",-10.325987530233633],["industr",-10.32600551188061],["hoge",-10.326350147952885],["miembro",-10.327072736488077],["Amazon",-10.327079313434208],["reçu",-10.32708159238614],["édition",-10.327085524412158],["zondag",-10.327201529690619],["II",-10.327397321434919],["appelé",-10.32774413343557],["Act",-10.32837463094381],["mayo",-10.328683673144399],["claro",-10.329225337695632],["Amsterdam",-10.32929707033717],["migrant",-10.329535065462274],["bid",-10.329642080852121],["llama",-10.32964494345761],["cancel",-10.329720378316653],["wijk",-10.329993992273451],["Center",-10.330291890840908],["emment",-10.330547435769114],["kke",-10.331058242141676],["infec",-10.331121801572959],["energía",-10.331540322700425],["départ",-10.331650143423921],["trouve",-10.332448077096618],["trait",-10.33375641312443],["mètre",-10.333776241907152],["shop",-10.33384435980128],["morning",-10.33384487330035],["financial",-10.333981094305203],["carrière",-10.334488210370866],["condicione",-10.33506682533227],["California",-10.335405516223112],["gevolg",-10.335815387298688],["anterior",-10.335954278339925],["„",-10.336008500751161],["miljard",-10.336011355041812],["Afrique",-10.336027210623842],["compar",-10.336394984001242],["langer",-10.336991351938057],["wege",-10.337015508628316],["trouver",-10.337030044437578],["micro",-10.337317756365206],["pasar",-10.337493339667956],["mut",-10.337621091791178],["Emmanuel",-10.338255694368058],["behind",-10.338271436993246],["elles",-10.33838646877202],["viol",-10.338797481404965],["institution",-10.338902591844995],["Bri",-10.33895408972609],["zing",-10.339005127927422],["tech",-10.33946743239772],["leef",-10.339746148024895],["contrôle",-10.340572042798106],["website",-10.340629993611437],["médico",-10.340720266911603],["bill",-10.340852580393229],["rouw",-10.341744634122058],["avis",-10.342096565842311],["card",-10.342784679940605],["palabra",-10.34278955169128],["evolu",-10.342916549214868],["ping",-10.343275646933524],["econom",-10.343745852168713],["IS",-10.344354662082608],["deaths",-10.344446885532179],["lip",-10.34462205153298],["rado",-10.344974222037266],["structure",-10.345032007411113],["countries",-10.345129498782207],["sociedad",-10.345138496991765],["Bon",-10.345214436529783],["vorig",-10.34552486073233],["mine",-10.346230549777275],["égi",-10.346626640335055],["produce",-10.34677441009957],["porter",-10.346846042435104],["Día",-10.346973814132344],["pandémie",-10.347295337108331],["zaterdag",-10.347296480084164],["zak",-10.347309982695172],["prop",-10.34742776308735],["tren",-10.348119562534936],["eros",-10.348252161778204],["village",-10.34872104122848],["leuk",-10.348745152880102],["burger",-10.349096009766464],["jar",-10.34932740719047],["eten",-10.349461777363764],["character",-10.349570719705987],["prove",-10.349990281955648],["How",-10.350076738144093],["address",-10.350192636097464],["Bro",-10.350243257279203],["rendre",-10.35054148609623],["nacht",-10.350920483985526],["radio",-10.3516633747259],["mind",-10.35177814548896],["Department",-10.351860594448151],["Salud",-10.352115664837026],["eight",-10.35272605808455],["kleine",-10.352762210009962],["madre",-10.353019344175125],["suggest",-10.353072471818756],["lijke",-10.353326600026547],["Centre",-10.353606572181397],["Central",-10.354139693652655],["betaal",-10.354303051042681],["47",-10.355393583807754],["variant",-10.355855555882624],["arrivée",-10.356175891689333],["voter",-10.356387924902723],["criminal",-10.356462334030752],["track",-10.357004001529184],["Vou",-10.35703734284324],["ocurri",-10.358341873495359],["entidad",-10.35867586042233],["funcionario",-10.35885505817178],["puesta",-10.359907970145736],["mention",-10.359934162209974],["fit",-10.360087878669633],["demanda",-10.360535230438417],["feature",-10.360595214754216],["lucht",-10.360748852326552],["complex",-10.36128160545973],["dicht",-10.362080513165921],["cado",-10.36217216128719],["rog",-10.36232464460565],["camera",-10.362596893629906],["wapen",-10.362740588652924],["Wij",-10.363015735376027],["vacuna",-10.363067606637754],["pued",-10.363166424448202],["fier",-10.363347213351368],["loos",-10.363361487855947],["600",-10.36359242448475],["prepar",-10.363609223632075],["entire",-10.363843998506924],["lograr",-10.36402445275565],["hulp",-10.36408170396442],["beste",-10.365081580440767],["planne",-10.365255196424236],["onge",-10.365549881106196],["gún",-10.36557574817067],["technologie",-10.365623663578258],["violencia",-10.365632563362135],["ploeg",-10.365643545953958],["jugar",-10.365797186166816],["elling",-10.366038419585507],["ambos",-10.366416502910777],["abril",-10.367037164461284],["vive",-10.36738672388553],["¡",-10.36793822329464],["woensdag",-10.367938247190597],["introduc",-10.36794104370573],["tribunal",-10.36808036778613],["materia",-10.368104927136322],["proche",-10.36820359164406],["Centro",-10.368924473909637],["enige",-10.36903122528582],["development",-10.369804801752167],["threat",-10.370370728444305],["single",-10.371009725435528],["agres",-10.371075513821587],["regional",-10.37183799868001],["relate",-10.372046227240602],["zó",-10.372101164101643],["Poetin",-10.372607377951091],["letter",-10.374003104493237],["Venezuela",-10.374914992865495],["Dus",-10.375031011201532],["detail",-10.376242820294847],["dacht",-10.377161055738334],["vivienda",-10.377255406939366],["August",-10.377563500099306],["ojo",-10.378072042831482],["Bay",-10.378196428732338],["encontr",-10.378753097131794],["mannen",-10.378778188157128],["Now",-10.378798898328798],["sortie",-10.379051441463119],["champion",-10.379720780441431],["senior",-10.37994453049452],["history",-10.380178376108194],["conjunto",-10.380266604990567],["programma",-10.380295864008731],["zoude",-10.380883013620718],["komst",-10.380934015386217],["lijn",-10.381133368241745],["naast",-10.381231846807239],["visite",-10.381643744487876],["territoire",-10.381940788575548],["represent",-10.382010276057544],["pesar",-10.382055011358087],["released",-10.383109320518358],["additional",-10.38347417966014],["moyen",-10.383647497928665],["surprise",-10.383702252796088],["intent",-10.383750308781641],["actions",-10.383761480063349],["stem",-10.383780446919324],["error",-10.38407001601228],["dieron",-10.384090693731537],["mantener",-10.384139738688269],["decidi",-10.384301875891682],["Social",-10.384364327068953],["detect",-10.384975477838147],["Group",-10.385038509493299],["Gen",-10.3856067317153],["AP",-10.385761092409304],["mooi",-10.385831302144673],["delito",-10.385987649076728],["zaken",-10.386005458011429],["Pol",-10.386017674299968],["febrero",-10.386652230132777],["update",-10.387034654225545],["kabinet",-10.387344306265932],["fair",-10.387384934892134],["woon",-10.388081204350577],["Max",-10.388140343801702],["sprak",-10.388184016947978],["cord",-10.388816772018895],["acceso",-10.389024574305317],["Michael",-10.389026257288315],["More",-10.389259856537567],["décidé",-10.39020511777981],["66",-10.390333346225232],["luz",-10.390361440617712],["plazo",-10.391042933516765],["aldu",-10.391211543685838],["often",-10.391217311829196],["professionnel",-10.39149819746193],["fail",-10.391519984435039],["correspond",-10.391577247216375],["maandag",-10.391705378996544],["alcalde",-10.391738767579955],["cuest",-10.391849951402367],["participant",-10.392297904062797],["ène",-10.39248615101138],["employee",-10.392559747596184],["incluye",-10.393280151218011],["succès",-10.393761252096882],["duur",-10.3938076258886],["strijd",-10.395164561754331],["positie",-10.39528560980581],["Just",-10.395317524442866],["lock",-10.39536884755527],["Tras",-10.395837286697478],["James",-10.396142623441534],["virtual",-10.396145520329334],["rekening",-10.396323212311913],["41",-10.397139849464292],["maker",-10.397627924565192],["violent",-10.397900724436163],["plut",-10.398165775448007],["cam",-10.398354318461271],["ería",-10.398462438086188],["façon",-10.398529009244019],["assure",-10.398923952520253],["Open",-10.39914651255842],["plek",-10.399649717207229],["debate",-10.399896674070597],["acompañ",-10.399989509321536],["beeld",-10.400060486887845],["leave",-10.401459022241768],["situatie",-10.401809907645482],["habitant",-10.402333717960996],["ctor",-10.40305472043729],["lance",-10.4031345820964],["sanction",-10.403327693531274],["district",-10.403395677286735],["único",-10.40350102747157],["leden",-10.403682464935514],["rappel",-10.403974865626594],["ON",-10.405591130240644],["Suisse",-10.405791454419838],["porté",-10.406094097138718],["middels",-10.406802201815129],["reunió",-10.406986174682029],["article",-10.407612535719672],["Sol",-10.407625037468856],["Street",-10.408152091847258],["Michel",-10.408314218230835],["Direc",-10.408371728425294],["Cap",-10.408395763398829],["block",-10.408405720578187],["?”",-10.408919108227375],["aak",-10.409405244554126],["familie",-10.40994680461846],["mencion",-10.41043294284163],["attention",-10.410552492388852],["White",-10.41059635930365],["communication",-10.410837429150023],["ganar",-10.412217182691787],["vaccine",-10.412305775758227],["voie",-10.412791799951034],["recover",-10.412863785357427],["alrededor",-10.412970408512127],["RA",-10.413025294035183],["betalen",-10.41309182515474],["safety",-10.413202424104924],["heart",-10.413356927752265],["ingreso",-10.413413788130761],["golpe",-10.413446296376877],["venes",-10.413755370076078],["Qué",-10.413933878806745],["consult",-10.414030994944156],["ème",-10.414220079881868],["enfermedad",-10.415398553743861],["150",-10.41660667067491],["dû",-10.417444586088926],["liet",-10.418555631877744],["nadie",-10.418620731068572],["importanc",-10.419012402741881],["sufri",-10.41942441284548],["rester",-10.420029497540053],["clave",-10.420193106229519],["Court",-10.420216748544219],["intérêt",-10.420268806177615],["Putin",-10.420302843800272],["bloque",-10.42072248053526],["ensure",-10.421000794283938],["ahí",-10.42118283803206],["punten",-10.42221349857098],["salir",-10.422271967172572],["romp",-10.42240903969034],["diferencia",-10.422713814352722],["grootste",-10.42283216630936],["maire",-10.422904239454752],["draai",-10.423031054775706],["Cri",-10.423356724184213],["cierto",-10.423401411880802],["ocupa",-10.423646669231038],["SS",-10.423673257275325],["customer",-10.423722036085142],["Ahor",-10.423934457372894],["Belgi",-10.424117086580146],["olie",-10.424298746291518],["Ló",-10.424474128980862],["tum",-10.42502083261207],["School",-10.425166863489217],["plataforma",-10.425172196720583],["cuanto",-10.425268822097603],["interna",-10.425271351161989],["Service",-10.425286494921387],["tuig",-10.425349169091584],["ático",-10.425781974879438],["activ",-10.42615373993191],["spelen",-10.426420953227083],["girl",-10.426578237398257],["donne",-10.426620469373997],["Play",-10.426707696644362],["integra",-10.426880030971105],["eleccione",-10.427849553870082],["preocupa",-10.427888348154555],["rijk",-10.427890428009771],["location",-10.427971854012322],["mandat",-10.429351840275496],["rob",-10.429771299444035],["slachtoffer",-10.430084972625538],["technique",-10.430085413189662],["benefit",-10.430092478275451],["inclu",-10.430284630959317],["lijst",-10.430289261685079],["efecto",-10.430332052589213],["eeuw",-10.430515524005735],["lien",-10.430555707534374],["UK",-10.430621558205598],["lives",-10.430749622230167],["slagen",-10.430852731478009],["friends",-10.431020879449418],["rico",-10.431405488031299],["ukrainien",-10.432171845308513],["económico",-10.432553976358381],["significant",-10.433030679519106],["black",-10.433537282860982],["passage",-10.434276981441217],["grav",-10.434582170945099],["cell",-10.434611168156323],["afecta",-10.434962462221],["llement",-10.435001404468043],["iPhone",-10.435029395497523],["cantidad",-10.435167251444113],["visible",-10.435362053467674],["95",-10.43558775545598],["jug",-10.435629168557318],["ending",-10.436078095102804],["robo",-10.436535092488025],["zwaar",-10.436603014317793],["graag",-10.436994433484085],["mother",-10.43716291613897],["800",-10.437396421286959],["esté",-10.437426487588112],["vehicle",-10.437511012972385],["AFP",-10.437598268246337],["kker",-10.437839206286768],["drama",-10.438289302856239],["wing",-10.438577747709058],["Rou",-10.43860797625604],["universit",-10.43874990490075],["scene",-10.43891229055254],["migra",-10.439006923717727],["dress",-10.43907829708668],["campo",-10.43911334899964],["grado",-10.439775154469212],["avion",-10.43980411608121],["discus",-10.439886734253923],["explain",-10.440004021249568],["victoria",-10.44022220597747],["Blanc",-10.44034459020451],["sistencia",-10.440670474618955],["ER",-10.44068558588128],["gebruikt",-10.44090287412346],["saw",-10.441529690752883],["metros",-10.441613549756575],["grade",-10.441801559300556],["Bol",-10.4420695791611],["echnology",-10.442509708314695],["http",-10.442510544398047],["sûr",-10.443127496884719],["Dur",-10.443322440823852],["mani",-10.443728927558748],["conduct",-10.443962585271631],["Ante",-10.444034216605726],["Liga",-10.444106757382105],["trap",-10.444180816299816],["rick",-10.444318295586164],["argent",-10.444490879036682],["iana",-10.444888631277419],["52",-10.444890152820205],["œ",-10.444989926713191],["mundial",-10.444992323676948],["menor",-10.445322960472106],["motivo",-10.446277541095935],["truc",-10.446352163247383],["enorme",-10.446539302300776],["hoger",-10.447264079835985],["began",-10.447355200886053],["alto",-10.447574468880322],["celebr",-10.447576423936809],["gobernador",-10.447640887581532],["complic",-10.447876332033843],["toma",-10.448780950028688],["harm",-10.449113722716241],["humano",-10.449271949198831],["jefe",-10.449351323397703],["inflación",-10.450025156886843],["Defens",-10.45015984247],["Francisc",-10.450333017116488],["blessé",-10.450356176304233],[":/",-10.450439256982872],["spot",-10.450913116698384],["desarroll",-10.451226100473963],["lista",-10.451282249421947],["placé",-10.452589692781597],["OM",-10.452924396117035],["ciudadano",-10.45307155955535],["amba",-10.453407156272526],["jonge",-10.453470124230538],["auteur",-10.453559550034488],["immer",-10.453744719848626],["usuarios",-10.454222600153681],["fuente",-10.454804365395589],["Dar",-10.45490342928894],["permanent",-10.455076269979916],["Peter",-10.45573832008135],["figura",-10.455920942017688],["chat",-10.455944949062442],["logique",-10.45632004922694],["midi",-10.45709677225475],["qualité",-10.457614897246476],["choisi",-10.458491480676521],["gekomen",-10.459046517464767],["exclu",-10.459286534997455],["développ",-10.459760512665675],["kar",-10.460201788496613],["brief",-10.460351608000174],["effective",-10.460581083722479],["rug",-10.461218448377178],["Mur",-10.462010872681876],["obliga",-10.462031748200587],["Ger",-10.462059352141551],["fou",-10.462187180602626],["elimina",-10.462290638567419],["hôpita",-10.462669215750058],["commercial",-10.46288450105881],["Hier",-10.463306828939324],["mère",-10.46335790784012],["George",-10.463556893525993],["outbreak",-10.463661296050361],["liggen",-10.463793927900607],["TA",-10.464189716730353],["encourage",-10.465198952772717],["chiffre",-10.46522074189343],["duda",-10.465376935720421],["Japan",-10.465979271537137],["rare",-10.466238622359935],["honor",-10.466525223412859],["Tim",-10.466662729241751],["pago",-10.46731205970389],["Casa",-10.467599457639523],["citoyen",-10.46779729395845],["potencia",-10.467805849806684],["foot",-10.4678281165024],["haciendo",-10.467951391978488],["européenne",-10.468097156644026],["totaal",-10.468278109052225],["fraud",-10.46838713444859],["prima",-10.468567636177083],["usual",-10.469591634879025],["revis",-10.469832071334425],["stress",-10.469937623290072],["winter",-10.470260697166342],["leggen",-10.470306961906932],["artista",-10.47071635058994],["wegen",-10.470740546140332],["vio",-10.47088496168297],["rechts",-10.471249902511968],["doive",-10.4720730105256],["riz",-10.472380381092025],["Sud",-10.472726246298137],["miles",-10.472910076962158],["explor",-10.472918886183358],["machine",-10.472929403599368],["bericht",-10.473118296969503],["moeder",-10.47323595089179],["High",-10.473383083503643],["nam",-10.473441394743535],["reduce",-10.473460680975641],["families",-10.473554456439746],["voyage",-10.473573156663686],["happ",-10.473804244200988],["halve",-10.474149323433522],["manager",-10.47534872799974],["Netflix",-10.475489834130373],["cœur",-10.475491585033584],["dinsdag",-10.475533576337822],["winkel",-10.475545296039007],["noticia",-10.4756218895079],["humain",-10.475877899251198],["revel",-10.476323707957325],["régime",-10.476537014989294],["ither",-10.47673572053224],["Sou",-10.476992543996873],["seis",-10.477009140966064],["tap",-10.477098243344717],["roepen",-10.477527936621318],["savoir",-10.477658873888014],["confront",-10.477932552696393],["película",-10.478073811761671],["bell",-10.478073943523201],["principio",-10.478100757414868],["protection",-10.478611621682344],["gedrag",-10.47876772824609],["corps",-10.478892406237826],["perdu",-10.478957876998486],["57",-10.479108445958076],["screen",-10.479340056143291],["Alex",-10.479758161507586],["private",-10.480666589194193],["compromiso",-10.480773843557406],["ningún",-10.480797122567516],["passion",-10.480896676497409],["Daniel",-10.481026966448436],["aille",-10.481874941542994],["houdt",-10.482111033322553],["pil",-10.482859531705154],["répond",-10.483326553081206],["meet",-10.483612446234105],["tweet",-10.483742677620906],["juge",-10.48388392440986],["suma",-10.48410513538562],["signal",-10.484419581831677],["Bur",-10.48499172700106],["pequeño",-10.485868205159516],["gust",-10.486138707001174],["boy",-10.486504977355526],["peine",-10.487360646479992],["Prime",-10.487881554020788],["ambi",-10.488634334475606],["spend",-10.488664003521835],["posé",-10.488850186153563],["défi",-10.488866142547415],["rank",-10.48922116928251],["vienne",-10.489299683094455],["soon",-10.489421095509897],["igna",-10.49050348692746],["inicia",-10.490794672815259],["prepara",-10.490799394434317],["fica",-10.491238989604774],["initiative",-10.491246976688112],["interior",-10.491284610788366],["opposition",-10.491893751535088],["hors",-10.492369686942695],["Marc",-10.492702338270817],["beleid",-10.492801405969999],["investigation",-10.49290316622698],["Wel",-10.492996996725518],["push",-10.493084562758574],["lutte",-10.49345589349651],["negocio",-10.49372007128363],["atteint",-10.493722801883303],["initial",-10.493882062691828],["chief",-10.494406202844223],["Frans",-10.49449606649788],["habl",-10.495609924881308],["contrat",-10.495659428295554],["mix",-10.496432067197055],["Januar",-10.496451817852982],["terrorist",-10.496602712275816],["plaza",-10.497478086985513],["speel",-10.498489371151134],["modo",-10.500518256532429],["72",-10.500682160207276],["Africa",-10.500932878747872],["apport",-10.501297381048241],["Ville",-10.501562795058737],["moeilijk",-10.501636075632824],["fundamental",-10.501638900184394],["habría",-10.501641635578288],["nombreuse",-10.501727981316922],["64",-10.50254951815084],["reed",-10.502654304605315],["Green",-10.502804605524734],["Uit",-10.502859290119329],["lange",-10.503431554466557],["izada",-10.504022149177878],["gebouw",-10.504310088945026],["conserva",-10.50450919091385],["honderd",-10.504659505250508],["valeur",-10.504713438181136],["visto",-10.50491136813991],["etc",-10.505068201319979],["EE",-10.50516856772382],["dispos",-10.505400489641302],["Dam",-10.505835544483148],["critic",-10.506042189951696],["zat",-10.507043955475773],["presta",-10.507726282388532],["objet",-10.507990608228612],["Texa",-10.508087870256052],["chip",-10.508283464184426],["sabe",-10.50834909213905],["ología",-10.508551171286532],["propre",-10.508991503953204],["ofrece",-10.509079185542879],["mostr",-10.50913487957883],["DC",-10.509186999375167],["Israel",-10.509618054870955],["bag",-10.50968688008961],["science",-10.50968827883441],["volledig",-10.50971178987427],["ë",-10.509877189712714],["intégr",-10.509901640943262],["Twee",-10.509953783591609],["kamer",-10.510127060182331],["nord",-10.510681658489878],["cross",-10.510846164633632],["success",-10.51104806143108],["contest",-10.511149902178653],["someone",-10.511502794665859],["identific",-10.511620588726426],["completa",-10.511738069427885],["gevoel",-10.511776089188512],["agree",-10.512001890810394],["Ang",-10.51208843549506],["blij",-10.512474270173623],["bert",-10.512572042726756],["nieuws",-10.513150053369817],["Eso",-10.513241313591159],["longue",-10.513309205878098],["musical",-10.51359002836714],["journaliste",-10.51376875991073],["68",-10.51442113946958],["Antwerp",-10.51496862519867],["Pierre",-10.51505724071531],["authorit",-10.515560036659425],["playing",-10.515655683946504],["song",-10.516078865897729],["verhaal",-10.516422845146458],["difficult",-10.516553872810686],["Comp",-10.516944087929284],["Far",-10.517146753830367],["urban",-10.517404524741034],["perform",-10.517429859281048],["nécessaire",-10.517656802243911],["Barcelon",-10.51765755923271],["titular",-10.517659133736027],["comercial",-10.517660109474335],["Port",-10.517670928391102],["Smith",-10.517677296908523],["donderdag",-10.517683747765865],["CE",-10.518184587549158],["tenga",-10.518233454492986],["ration",-10.518450265732369],["baisse",-10.518487004772687],["escribi",-10.51849812690454],["compare",-10.519184040146733],["mené",-10.519981234280802],["Federal",-10.520381783994267],["mill",-10.520432368724801],["serious",-10.52078619187441],["compra",-10.521313137579801],["rechter",-10.521492744002947],["genre",-10.521612592314721],["publié",-10.52211383266658],["earlie",-10.522494235871978],["King",-10.522627200852785],["sept",-10.522699375094046],["Nation",-10.522790431299597],["emergenc",-10.522868240522483],["Oekraïens",-10.523054912032421],["Colombia",-10.52305494960379],["wist",-10.52341655464759],["aucune",-10.523750852774056],["commission",-10.523762125729256],["realiza",-10.523825529156902],["exige",-10.524068825790042],["buen",-10.524774048303922],["owner",-10.524822483076427],["réalisé",-10.525009104115684],["ën",-10.525231009882102],["pregunta",-10.52566449202816],["lower",-10.525714595400018],["André",-10.52583636720697],["Onder",-10.526280467182012],["IT",-10.526304107303805],["toward",-10.526517523745062],["manque",-10.526557153074265],["resid",-10.527000472516258],["rendu",-10.527260284873616],["ernández",-10.528021824737795],["veilig",-10.52838229908056],["hablar",-10.528457037714311],["próxima",-10.528482330547735],["disease",-10.528489693847085],["Rutte",-10.528578620104604],["richting",-10.528684698269416],["76",-10.528979292328396],["acte",-10.529389657627085],["economía",-10.529986852433568],["creat",-10.530037940872631],["ô",-10.530458729153276],["fase",-10.530583502668772],["DE",-10.530911339079928],["fédéral",-10.531207148908145],["gauche",-10.531361535716831],["uiteindelijk",-10.531723121114501],["implica",-10.531812246157278],["jij",-10.532161387667044],["studio",-10.532296498211515],["française",-10.532327150948987],["inside",-10.5327724614897],["asegura",-10.533078154502277],["Institu",-10.533154139653712],["klein",-10.533830791818794],["review",-10.533870773383725],["Tur",-10.53391647545184],["ouverture",-10.534005138134422],["étant",-10.534467322574947],["victim",-10.535257404494356],["neer",-10.535520842029378],["aider",-10.53561415837057],["siete",-10.536200469051572],["gor",-10.536394410386276],["sanitaire",-10.536682053390827],["puerta",-10.536699879163251],["father",-10.536869844531209],["Maroc",-10.536985528149742],["esas",-10.537180629223219],["vente",-10.537382672983417],["veille",-10.537638766188813],["longer",-10.53767380476592],["Tot",-10.537785859956994],["boeren",-10.537804864704231],["education",-10.537885059150096],["marqué",-10.537951129618591],["ruta",-10.538320049932615],["précisé",-10.538454219730411],["Ann",-10.538704022762186],["tente",-10.538921610767048],["zomer",-10.539102217532584],["58",-10.539206852384584],["territorio",-10.539440730660349],["matière",-10.539705882100979],["issant",-10.53977694919592],["direc",-10.539800872121994],["María",-10.54008565020401],["pull",-10.540263951210786],["mejore",-10.540357428427402],["text",-10.540639398735784],["précise",-10.540665655265034],["promis",-10.540854902279467],["resident",-10.540893700916225],["integr",-10.541554378396341],["makkelijk",-10.542181342431785],["ongeveer",-10.542185828121656],["transfer",-10.54248213934499],["alcanz",-10.542504223789276],["International",-10.542586976807597],["añadi",-10.543323067766297],["gast",-10.54423771010062],["Charles",-10.544279515459525],["verdad",-10.544520075049363],["Jul",-10.544644375546564],["cijfer",-10.54494686837685],["covid",-10.545120458258552],["pop",-10.545728702576703],["MS",-10.545867352366876],["acteur",-10.54624884299104],["fútbol",-10.546471862469485],["player",-10.54654658509558],["russes",-10.547108311238338],["iller",-10.547295856462512],["States",-10.547380246355049],["executive",-10.54771369369681],["gratuit",-10.547811389835822],["Manuel",-10.5478544187091],["Wie",-10.548106710612764],["entrada",-10.548357022062522],["feest",-10.54837184254691],["terminar",-10.548429159633612],["pudo",-10.548763013992819],["vite",-10.548836107559215],["changement",-10.549210013765666],["evalua",-10.549421761887494],["née",-10.549492123520356],["destin",-10.550305004977133],["hart",-10.550378451833966],["welke",-10.550493256011745],["paciente",-10.550499445328606],["única",-10.550538074405033],["Ministr",-10.550619029417692],["uses",-10.550892842199248],["environment",-10.550915490379381],["periodista",-10.551233929381581],["adora",-10.551653746827874],["bili",-10.551988537983126],["IA",-10.552103160846233],["retrait",-10.552875099001861],["patron",-10.553415859381111],["waardoor",-10.553535276069976],["télé",-10.553795091746466],["elemento",-10.55410227048506],["employ",-10.55413589576602],["quedar",-10.554373726184437],["78",-10.5544419753857],["oord",-10.554449624923734],["strateg",-10.554478973704278],["habla",-10.554529197426676],["gone",-10.554882345662268],["loopt",-10.5551915428771],["waarom",-10.555295513813512],["Israël",-10.556070277682672],["técnico",-10.556070341793632],["Después",-10.556070453391564],["communauté",-10.556070741382346],["tarjeta",-10.556075701620365],["siguiente",-10.556115882012307],["analyse",-10.556183405221045],["phase",-10.556851950948124],["entrevista",-10.55709764856542],["presentar",-10.557271653985698],["ordre",-10.557390393541727],["bomb",-10.558083442384405],["Bill",-10.558271233806245],["TO",-10.558478661659944],["frac",-10.558776267799324],["immediate",-10.55887151408796],["lorsqu",-10.55899985238934],["amount",-10.55903278812195],["transition",-10.559038987748197],["67",-10.559525123378776],["cambi",-10.56025382123929],["roman",-10.560274461593815],["liter",-10.560312173611639],["vak",-10.560324849872284],["kille",-10.56037761742958],["playe",-10.560455559195711],["espace",-10.561516972835179],["expérience",-10.561680391910931],["Republican",-10.561692439692276],["amenaza",-10.561701405548366],["PA",-10.56231473031536],["dora",-10.562346851252054],["élève",-10.56254729092112],["54",-10.5626250991136],["MP",-10.56278916279488],["activit",-10.563399182669936],["nuit",-10.56389112190448],["práctica",-10.564497283486354],["économie",-10.564497883581051],["People",-10.564518200530113],["ouder",-10.564606457415245],["quartier",-10.564704952696646],["middag",-10.564916282097478],["Sar",-10.565646350869526],["partijen",-10.566176413929018],["bak",-10.566904252658748],["62",-10.567058315736347],["particulière",-10.567322296071062],["influence",-10.567324381648024],["pratique",-10.5673444487724],["río",-10.567668434739144],["News",-10.567673987267334],["tension",-10.56779307336809],["Comis",-10.567828075226991],["Ban",-10.568228334158341],["Nigeria",-10.568353043734845],["RC",-10.569707574245895],["September",-10.570155000981426],["modèle",-10.57015551285316],["bezig",-10.570234743731863],["crecimiento",-10.570347756400897],["estime",-10.570433353353522],["ayudar",-10.570644545574908],["wrot",-10.571079022449815],["bron",-10.571153589893953],["escenario",-10.571615912576656],["style",-10.572061811839978],["Democrat",-10.57213235652486],["dreig",-10.57228163294786],["Hoy",-10.572920759739738],["77",-10.57294889955181],["émission",-10.573032438174462],["rise",-10.573058177020052],["ME",-10.573870915449788],["llowed",-10.57403369794484],["agenda",-10.574233074686367],["medic",-10.575474795778865],["Want",-10.57581888341717],["Municipal",-10.575844912642363],["recibir",-10.575924198002884],["ándo",-10.57593969418446],["steun",-10.57600724357925],["ejecu",-10.576563971043212],["Novemb",-10.576568476199697],["feit",-10.576619280239147],["nothing",-10.5769933678446],["ature",-10.57752619351562],["tip",-10.577528666286792],["concerne",-10.577959365065606],["cliente",-10.57865700198052],["approach",-10.57870219356496],["Congreso",-10.578702822285607],["ried",-10.578864549463965],["yard",-10.579427582567588],["pool",-10.579640912955949],["needs",-10.579759685937823],["zoveel",-10.580850034887257],["career",-10.580857112892122],["UN",-10.580857438556563],["Pedro",-10.581568955134674],["Octob",-10.581591039580704],["loop",-10.58175963943421],["valt",-10.582260381555145],["Mill",-10.582604721177944],["waarde",-10.58267420223948],["parler",-10.583602530965202],["finish",-10.583644835803895],["campe",-10.583758054159524],["escala",-10.583814065968086],["Tan",-10.58404385192656],["River",-10.584061117864355],["rock",-10.58437643788017],["committe",-10.584441162100473],["personnage",-10.5844541623467],["progress",-10.584868827738774],["gebracht",-10.585112952638127],["schade",-10.585179455409573],["responsables",-10.585240668664813],["élevé",-10.585358332002212],["title",-10.586034207950387],["hou",-10.586689381347288],["89",-10.58670621933872],["Hor",-10.586970318999473],["medi",-10.586996063270032],["pone",-10.587311694282091],["sitio",-10.587368698897954],["kilometer",-10.587379031469043],["Chief",-10.587477979410952],["tercer",-10.587638849734407],["Game",-10.587710246372271],["cine",-10.587814048023347],["88",-10.588152718065196],["divi",-10.588261451384483],["Gil",-10.588396776432734],["sorte",-10.588439639415759],["origine",-10.589276175599842],["parties",-10.589332503687924],["roep",-10.589899212363548],["langs",-10.59010124144481],["study",-10.590256416775533],["discussion",-10.590256840419215],["âgé",-10.59031268546066],["Auto",-10.59083707852325],["tuvier",-10.590874560713942],["credit",-10.590907471505133],["loot",-10.591397866202573],["contain",-10.591458243472594],["isten",-10.591694867116619],["aim",-10.592199484815431],["música",-10.593111526702044],["duizend",-10.59311197180704],["accè",-10.593123204460637],["publiek",-10.59318202067263],["iège",-10.593204785470927],["souligne",-10.593212450392649],["ieder",-10.593385895114448],["wit",-10.593547359930419],["firma",-10.593858696942366],["pagar",-10.594046526684835],["cum",-10.594080699021276],["seguro",-10.594123820770655],["solid",-10.594995727278855],["mass",-10.595095053845661],["République",-10.596058522115058],["Universidad",-10.596139035399322],["2010",-10.596357561710288],["genes",-10.596642777724048],["générale",-10.597059583542288],["others",-10.597323098997258],["ampoco",-10.59774910829984],["gevallen",-10.597922033710347],["ification",-10.598119700719032],["máximo",-10.59893394615115],["distinto",-10.598947873821986],["habrá",-10.598965172547485],["Ana",-10.598977993158082],["college",-10.599037542004023],["guy",-10.599088526394434],["Coupe",-10.59912341239647],["permite",-10.599315744423219],["deben",-10.600047195220125],["conform",-10.60142259212802],["kaart",-10.601486835968153],["vuelta",-10.601882516372354],["53",-10.602150464575331],["mostrar",-10.60236166132415],["participar",-10.60244167007637],["República",-10.602523901081806],["Mus",-10.602632053170764],["memor",-10.604415113275932],["shows",-10.604515622085433],["quotidien",-10.604790491991594],["inaugur",-10.604791183104062],["construir",-10.604801083353415],["Net",-10.604820635092928],["defensa",-10.60488668598865],["précédent",-10.605096592276594],["ogen",-10.605703354413253],["localidad",-10.605735294752018],["comprend",-10.605858157340661],["dingen",-10.606024785091979],["rail",-10.606045571986918],["2000",-10.60631501698393],["ète",-10.607197003192042],["trabaj",-10.607355280525011],["présence",-10.607744689192184],["socio",-10.60781051029412],["bepaald",-10.607817793180875],["leaders",-10.607998927058496],["defend",-10.608206616261086],["precie",-10.608282671878099],["advise",-10.608715581445093],["Kat",-10.609660038945862],["deliver",-10.609871433688989],["movimiento",-10.610683277061346],["protocol",-10.610739201996497],["defini",-10.610915901446054],["white",-10.61102642665185],["leider",-10.61135777200946],["igh",-10.611924304098428],["niks",-10.612767829464909],["oferta",-10.612807239978835],["mejorar",-10.612832187239409],["kilo",-10.612923865517915],["2012",-10.613061369436934],["schedule",-10.613655636391819],["Civil",-10.613688387813399],["mantiene",-10.613701314963643],["absolu",-10.613810433584865],["cuestion",-10.613861666824416],["toekomst",-10.613936978643602],["VI",-10.614439444574412],["250",-10.614743377414648],["doute",-10.61498331631208],["adult",-10.615294143205759],["terra",-10.615482016032976],["solicit",-10.616531052170803],["systeem",-10.616607574740126],["analyst",-10.616617300216408],["Thomas",-10.61665866075354],["institucion",-10.616993858487259],["daily",-10.617063884074142],["pakt",-10.617241815043945],["accidente",-10.617285805292553],["East",-10.617619005069335],["levé",-10.617771631558764],["aving",-10.618288163175123],["istic",-10.619227855664171],["oblig",-10.619294216388514],["mondiale",-10.619379856973438],["acept",-10.619488711578654],["différente",-10.619615338133496],["belang",-10.619794404893316],["Bien",-10.620602405066002],["zeer",-10.621235691972279],["wonder",-10.621273129704633],["accuse",-10.621519717516986],["Mosco",-10.621895999910564],["défense",-10.62205010746278],["RS",-10.622150719265044],["cité",-10.622250873183386],["wish",-10.62236906486574],["69",-10.622415659663156],["klimaat",-10.622568891512893],["album",-10.622633385997133],["attempt",-10.622665866345292],["retrouve",-10.622834577595663],["centrum",-10.623030365656817],["bos",-10.623541505824049],["artiste",-10.624360548543537],["nés",-10.624900975639001],["meeste",-10.625453988348443],["houd",-10.625968382807905],["impacto",-10.626187206222127],["bestaan",-10.626609171633383],["engagement",-10.62663087357831],["decade",-10.627954562612516],["activa",-10.627969874703702],["Chan",-10.62837099710886],["saber",-10.62854815439158],["consecuencia",-10.628565720658546],["multiple",-10.628662375672924],["growth",-10.62920665750504],["zeg",-10.629391796925155],["seconde",-10.629809713411742],["compr",-10.629874042027785],["horen",-10.629878229035915],["vader",-10.62991651410898],["Toda",-10.62999693890806],["reprise",-10.630171715331851],["volk",-10.630281705618243],["asocia",-10.630977613199999],["différents",-10.63161454071465],["nez",-10.632119701058928],["kost",-10.63241817615919],["wante",-10.632630767318318],["interés",-10.633415329121913],["stream",-10.634327379870935],["cimiento",-10.634526559947442],["aught",-10.634529032916134],["circuit",-10.63459944715761],["nummer",-10.634606123187968],["époque",-10.634894786891081],["aime",-10.6354778013539],["59",-10.6357366557969],["fiesta",-10.636483989317504],["till",-10.636587915614498],["Bat",-10.63666922201542],["vamo",-10.636724384698258],["capable",-10.636763667293259],["scherm",-10.636786167487504],["fut",-10.637026038343897],["forte",-10.637452026997353],["kilómetro",-10.637629370953665],["valid",-10.637630097589767],["quality",-10.637868521828198],["engage",-10.638154771805343],["Duitse",-10.638258430952222],["rib",-10.639111408966308],["prevent",-10.639889576333893],["cambiar",-10.639913180482658],["invest",-10.640208992166253],["situé",-10.640607232734729],["mouvement",-10.640668880059106],["esfuerzo",-10.64066888906755],["éxito",-10.640672789528956],["minute",-10.641146015348617],["79",-10.64136019684511],["drop",-10.642238926028035],["origin",-10.642282129163547],["ocho",-10.643033711689569],["ergens",-10.643036339561771],["clara",-10.64319322206989],["roi",-10.643415641816524],["73",-10.64353871973147],["arrêté",-10.643706709428947],["Vladimir",-10.643717515388293],["discrimin",-10.643717620338059],["libertad",-10.643719006199726],["vorige",-10.644147519208644],["emploi",-10.644250513239385],["Fed",-10.644380142398123],["vlucht",-10.64469719816386],["astro",-10.645728082671706],["européen",-10.646395612258878],["érer",-10.646499328480214],["lekker",-10.646654026290767],["título",-10.64677608294826],["continent",-10.646800978238517],["Tal",-10.647124015123307],["specific",-10.647131939412677],["verdachte",-10.647860675195268],["macht",-10.6481588659017],["NS",-10.648206191036241],["empat",-10.648512199111874],["Musk",-10.648909749185012],["seek",-10.649442436829368],["contar",-10.64947058411316],["fur",-10.64947844012173],["capacité",-10.649525374828734],["Plat",-10.649811516817032],["Consejo",-10.649843236103141],["improve",-10.650326933806404],["Indian",-10.650510858117968],["alter",-10.650637624462554],["Trans",-10.65066761254153],["enfant",-10.650841948003935],["Bueno",-10.650934410271056],["Ob",-10.651130627288321],["distanc",-10.651208161174875],["bueno",-10.651258389648591],["96",-10.651416081293405],["égal",-10.651533069671935],["IV",-10.652241588199171],["marco",-10.652444766924983],["VS",-10.652851159416427],["Government",-10.65292043588829],["vivre",-10.653563342650633],["marcha",-10.653928898772385],["Frank",-10.654042481554155],["eeded",-10.655255843930814],["Senat",-10.65538142265994],["Gold",-10.655725696508153],["magne",-10.655831560829236],["responsabilidad",-10.656006445940701],["essential",-10.656008142256445],["alcohol",-10.656011143503141],["ochtend",-10.656018186660562],["argentino",-10.656115235523965],["huizen",-10.656163791174563],["presión",-10.656301324584021],["kopen",-10.656703213642908],["wanne",-10.656742829244202],["candidato",-10.657249203180761],["Ken",-10.657297480553034],["irá",-10.657419338073879],["comis",-10.657444913998846],["SP",-10.657619740005405],["arch",-10.658393020170301],["ún",-10.65860699599483],["peur",-10.659082697904536],["maatregelen",-10.659103213682492],["inflation",-10.659112446755643],["televis",-10.659166815783585],["ística",-10.659185112990862],["provincial",-10.65930768254686],["industria",-10.659398521989418],["escuela",-10.65955938591281],["Turk",-10.659675630725491],["bli",-10.659904128937972],["vivir",-10.659941198463448],["kra",-10.660046550057647],["management",-10.660125924526337],["ures",-10.660365216486516],["tiques",-10.66056890043576],["whole",-10.660630584163508],["BA",-10.660974229423687],["demandé",-10.661168412486433],["draw",-10.661317470451168],["amplia",-10.661611685644335],["tecnología",-10.662208042353843],["smartphone",-10.662229925850808],["Victoria",-10.662374338070194],["bigge",-10.662462733160385],["electoral",-10.662473838897265],["department",-10.662663835176861],["Franci",-10.6628823185985],["daarom",-10.663002470925216],["représente",-10.663039220258971],["Clar",-10.663334336197524],["Kamer",-10.663441740429983],["antwoord",-10.663708724679662],["patient",-10.66373321926253],["fuego",-10.663781004058297],["NC",-10.665013765854873],["ouders",-10.66524627660737],["56",-10.665291777341157],["Français",-10.665323282813441],["audience",-10.665325608754342],["contagi",-10.665330609975385],["relationship",-10.665377146642594],["iniciativa",-10.66538145515096],["ffer",-10.665426371063607],["accusé",-10.665540898323446],["Februar",-10.665948833439819],["born",-10.666323403800302],["ónica",-10.666681427116878],["étudiant",-10.667333781282057],["gusta",-10.667468363065801],["wor",-10.667599376488738],["positivo",-10.667648732821668],["detalle",-10.667835077448558],["driver",-10.667945010220015],["Montréal",-10.668453726199218],["judicial",-10.668454055985329],["utiliza",-10.668483980769835],["eguridad",-10.66889522686165],["mens",-10.6691148407153],["tué",-10.669144662966456],["llí",-10.669416004314037],["Mijn",-10.669902279288976],["planta",-10.669958645794678],["Mé",-10.670920879814737],["eff",-10.671385187000224],["monitor",-10.671669208554349],["Hol",-10.671694781684462],["build",-10.671774136991484],["Poutin",-10.671805902097184],["organisé",-10.671870650577999],["volume",-10.672609107296829],["wife",-10.67308543591751],["Euro",-10.673501558318613],["década",-10.67369052625461],["tengo",-10.673729137975473],["cultura",-10.67410567698245],["63",-10.674274407641324],["periode",-10.674276005639445],["51",-10.674321947716589],["extrême",-10.67472772610354],["écran",-10.674793966011325],["belasting",-10.674801021756966],["debería",-10.675280146966742],["prett",-10.675981113101368],["Ça",-10.676599395708969],["ologie",-10.677199670032046],["studie",-10.677854253857419],["quarantine",-10.677882327876867],["particulier",-10.677882841624516],["Antoni",-10.677913921333293],["example",-10.67793024271576],["señala",-10.678070593616447],["drink",-10.678367192235493],["practice",-10.678402839115996],["papel",-10.678540947386889],["personeel",-10.678974586104701],["norte",-10.67948637530166],["consulta",-10.680194022186742],["infrastructure",-10.681047838187382],["établi",-10.681070170389686],["voto",-10.681165277222842],["mandatario",-10.681243595532228],["anual",-10.68173668933765],["CEO",-10.681928146307044],["divis",-10.681951215481094],["uren",-10.681998767944625],["lancer",-10.682536392110713],["finance",-10.682700693883312],["agente",-10.682822314351917],["hacen",-10.682840635594616],["Pan",-10.68294386061645],["terecht",-10.683080771597906],["ninguna",-10.683337869978676],["promet",-10.683948906549576],["87",-10.684002751476767],["meilleure",-10.684505007745646],["ordinar",-10.684628704086334],["revenue",-10.684664748770885],["huidig",-10.685057249270908],["Merc",-10.685311298449534],["nood",-10.685716432073221],["balance",-10.686676974571707],["voit",-10.687067566161506],["TE",-10.687246639706682],["daarna",-10.687303197188912],["estructura",-10.68740588633122],["volvi",-10.687423539332023],["établissement",-10.687441805068257],["rica",-10.6876659623934],["flink",-10.688048153535544],["describe",-10.688110645800705],["Mer",-10.688261817258699],["acteurs",-10.688373003330867],["Ron",-10.688399912132667],["ault",-10.689120891118783],["revenu",-10.6898683296161],["commis",-10.69017497504824],["Tor",-10.690382752391237],["policier",-10.690530083914922],["experiment",-10.690601274074087],["plateforme",-10.690606642941741],["lluvia",-10.690615971972587],["penal",-10.690818996992757],["majorité",-10.690836604733525],["GB",-10.691020767170048],["vertelt",-10.69112992988033],["graf",-10.691268701344281],["dog",-10.692137541520832],["nier",-10.692149019999142],["propert",-10.693652400492763],["peligro",-10.693808288539408],["fácil",-10.693808512044502],["urgence",-10.693843062837532],["policy",-10.693855911784052],["enseigne",-10.693888881823412],["IN",-10.694005506085482],["superior",-10.694026943243307],["vait",-10.694526101352611],["groen",-10.694738282550468],["shut",-10.695529338812097],["détail",-10.695800033234404],["affirmé",-10.695985562634043],["américaine",-10.696317387086172],["capitale",-10.696367267895187],["estim",-10.696763614144746],["PD",-10.696827448564283],["Nicol",-10.697018592915333],["Florida",-10.697021786517269],["Association",-10.697021841996602],["Duitsland",-10.69702269000863],["règle",-10.69702294653887],["réalité",-10.69704093346478],["dank",-10.69782329584878],["ID",-10.698110896531261],["Mario",-10.69870367351742],["Many",-10.698894970884695],["llamado",-10.699072658635021],["Hab",-10.699308656620083],["dix",-10.69953088346658],["impose",-10.699584951935435],["sigui",-10.699783142971349],["clase",-10.700180344076731],["acaba",-10.700235818759543],["temperatura",-10.70024840064497],["necessar",-10.700250663378654],["juicio",-10.700264773563733],["Christian",-10.70029145640494],["Parti",-10.700312624276695],["inscrit",-10.700481998999743],["ándose",-10.700535709235925],["mediante",-10.700844281668795],["áli",-10.700878237153518],["gression",-10.700903430625388],["corrup",-10.701159838177022],["populaire",-10.701825883482528],["coordina",-10.701846568389936],["organization",-10.701925912837911],["conduc",-10.70204560417864],["peuple",-10.702219524384475],["regio",-10.70236791490812],["Tho",-10.7030780366043],["souhait",-10.703122004208971],["muni",-10.703294367730999],["compris",-10.703342490069609],["symptom",-10.703483815046495],["negocia",-10.703486904949882],["déroul",-10.703493717753593],["Blue",-10.703580782230416],["telle",-10.703905972514104],["approche",-10.704164653393061],["peti",-10.704616891090675],["stroom",-10.704768329651493],["atrice",-10.704778438458106],["débat",-10.705526039555027],["wild",-10.705578738312058],["winst",-10.706158167762956],["contrato",-10.706363259745554],["clin",-10.706598341639282],["conférence",-10.706730429978826],["compagnie",-10.706730431239679],["purchase",-10.706733195913019],["vakantie",-10.706739630608276],["wachten",-10.706792016696687],["daughter",-10.706822897454527],["intention",-10.707240610368732],["verg",-10.707576052675144],["leading",-10.707719048810329],["AD",-10.708380677442136],["piece",-10.708499290038308],["barrio",-10.708584905811515],["kennen",-10.708956566836537],["hip",-10.70903780712915],["MC",-10.709214854996297],["Barr",-10.709467541749293],["retrouver",-10.710222894892974],["kov",-10.710278257725701],["status",-10.710740320108195],["kunst",-10.711142277893511],["klaar",-10.711961123445157],["wall",-10.712100858348707],["créer",-10.712356207482474],["700",-10.712377047736794],["Russen",-10.712687203780629],["journalist",-10.713045896203857],["inflatie",-10.713260360550512],["invita",-10.71337990958804],["environnement",-10.713405638410968],["tasa",-10.713870998193553],["disputa",-10.713930471466055],["obteni",-10.714329689701154],["Copa",-10.714557449994519],["isée",-10.71547183639456],["relatie",-10.715696671177874],["sluiten",-10.715838765436219],["detenido",-10.716056292838331],["oubli",-10.716067491234767],["conductor",-10.716255973196215],["Disney",-10.716536823726777],["Poli",-10.716629293195826],["secretario",-10.716698120130058],["exam",-10.71689115178743],["ática",-10.717650963023214],["diario",-10.718067113836813],["anticip",-10.718083757089989],["86",-10.71821744365841],["probeer",-10.71878723541268],["dirigeant",-10.718993996362425],["tarif",-10.719121128822573],["exprim",-10.719283963794137],["voorbij",-10.719343220973652],["deep",-10.719373526627145],["user",-10.71954811889462],["bénéfici",-10.719823895095232],["Même",-10.719825310269563],["justicia",-10.719923010141617],["street",-10.720281543158515],["pair",-10.720342781255688],["Ains",-10.720568274639916],["anyon",-10.720857226100359],["expliqué",-10.720918322882294],["ously",-10.721059180246037],["affirme",-10.722047386264604],["salida",-10.722715899487815],["colabora",-10.7229412794807],["mexicano",-10.723124230628315],["diputado",-10.723124881661803],["Cruz",-10.723128384721834],["buscar",-10.7234472965773],["brill",-10.723471411380757],["secret",-10.724093420777777],["farm",-10.72520147836649],["meerdere",-10.725485353603727],["request",-10.725626307783319],["nette",-10.726025180328623],["representante",-10.72625117327945],["manage",-10.726273000615757],["Ham",-10.726340464110084],["chaîne",-10.72643634857744],["Justice",-10.726467542387581],["blessure",-10.72647053593191],["ionado",-10.72653402485083],["ciencia",-10.726744100991393],["standard",-10.726823320331999],["Cour",-10.726854226983052],["solu",-10.7270595662178],["aspir",-10.7271374821184],["chemin",-10.727305433098678],["garanti",-10.727431228901112],["jury",-10.727446741180444],["moral",-10.727477759383959],["addition",-10.727592820518101],["rusa",-10.727840238515475],["hoeveel",-10.727867981259745],["moved",-10.728343203652212],["lift",-10.72850847063663],["kleur",-10.728629915544355],["raz",-10.728699126278176],["cumplir",-10.728884138741279],["waarschijnlijk",-10.729757762785022],["voorzitter",-10.729760262679253],["helpen",-10.730209405421242],["path",-10.73041140424067],["intervention",-10.730858172007704],["Rock",-10.73150145071905],["spring",-10.731564806277968],["learn",-10.731599046482405],["kids",-10.731987556188221],["venida",-10.732037447729027],["âge",-10.732148894227137],["relative",-10.73348366016556],["perdi",-10.734785293843519],["WK",-10.735095902763138],["Will",-10.735458273415698],["rus",-10.73606938899563],["eyes",-10.736545656370135],["discut",-10.736743817718974],["summer",-10.737305223581991],["nouvel",-10.738112757950153],["clean",-10.738456778303021],["zaam",-10.738556479429928],["size",-10.738925408763752],["Franc",-10.739091416535572],["quite",-10.73918730418382],["accueil",-10.739343534564005],["golf",-10.73945657071568],["PI",-10.73978723158772],["compañero",-10.739791261979187],["zeven",-10.73993024841306],["dedica",-10.740810212129881],["menace",-10.741004094872],["enjoy",-10.741371242429324],["border",-10.741427958178516],["nomina",-10.74212159324489],["rath",-10.742339624806796],["84",-10.742555410370956],["verkiezing",-10.74315827461892],["distinta",-10.7431586570765],["lógica",-10.743221239166633],["officielle",-10.743235183049773],["bereik",-10.7434256627464],["achat",-10.743621878055325],["vlak",-10.743657428457674],["circula",-10.743662685807667],["tort",-10.743804087376615],["estudiante",-10.744792651511762],["fear",-10.744816324983603],["barre",-10.744895919625716],["futur",-10.745022576088415],["activist",-10.745538165435235],["contacto",-10.745752814020568],["hond",-10.746144575194359],["Á",-10.746518905045232],["veiligheid",-10.746712046921914],["resource",-10.74704885735103],["etapa",-10.747583152433812],["aplica",-10.74775012060104],["gebeurt",-10.747874687830159],["cup",-10.747896494314205],["center",-10.74805779389387],["Mol",-10.748259072964164],["cuidado",-10.748422175288734],["guien",-10.748602842896867],["wood",-10.74901958371444],["Heb",-10.749356139364746],["rechaz",-10.749463501359823],["estrategia",-10.749935007766481],["Tro",-10.749961409646907],["oplossing",-10.749989387324419],["assurer",-10.750554158794165],["baan",-10.750666952903972],["critique",-10.750715602589192],["treatment",-10.75079582334994],["prime",-10.751242057204333],["Director",-10.751480859915008],["Matt",-10.752047993113765],["boost",-10.75210268384609],["gevon",-10.752834648770154],["soldat",-10.753093543706942],["africain",-10.753227204914532],["réponse",-10.753328662927505],["Miguel",-10.753336326402625],["categoría",-10.753436429126051],["distance",-10.753629963147343],["incorpor",-10.753702445654419],["baby",-10.754123917705577],["présente",-10.75434328842763],["crois",-10.754916846798803],["61",-10.755078559467197],["montre",-10.755236610748849],["attendu",-10.756331855239768],["suficiente",-10.756740811057405],["ziekenhuis",-10.756742546989113],["dizaine",-10.756754674249105],["tranquil",-10.757048047994322],["Toen",-10.757324845451556],["nombr",-10.75748147463433],["opvang",-10.757616958762117],["allá",-10.75816811150727],["Adam",-10.75874472331931],["EN",-10.75892469839744],["hout",-10.759260500280615],["Lors",-10.759409040017857],["fourni",-10.759898346168113],["brough",-10.760196425452941],["ET",-10.76031539638439],["reforma",-10.7617221475459],["Inc",-10.761899368932543],["acusa",-10.76226703045446],["idió",-10.762396305970194],["permett",-10.762450411030386],["storm",-10.762875585507416],["empez",-10.763228476199817],["€™",-10.763605390027701],["electric",-10.763740383976469],["étape",-10.763801937709877],["rode",-10.76395045313047],["Kha",-10.764122995874756],["icieron",-10.764139910186078],["juez",-10.764549658527432],["bier",-10.764933226397044],["estimate",-10.765218299981488],["travailler",-10.766029593390108],["Ré",-10.766279012178662],["employé",-10.766491714770627],["fera",-10.766582707107174],["commerce",-10.767235231913688],["emergencia",-10.767291501372851],["decided",-10.767478128690174],["facile",-10.767664404316413],["mitad",-10.768641591601943],["poi",-10.769068868137866],["invasi",-10.769203324025078],["imagen",-10.769492104956482],["mét",-10.770202388244632],["Wall",-10.770322690908923],["défend",-10.770527680859498],["lack",-10.770606074502952],["Jim",-10.77124220843071],["soirée",-10.771547994697404],["pack",-10.77157049299494],["App",-10.771781553971975],["PO",-10.772104156227792],["istisch",-10.772349418844655],["cash",-10.772506429711008],["alarm",-10.772860218584707],["tient",-10.773206916782279],["licit",-10.773605757366173],["motion",-10.773834234696064],["torno",-10.773930053700978],["struggl",-10.77398355425559],["sentiment",-10.774088082333181],["alleged",-10.774186106795149],["combina",-10.774227835830288],["felt",-10.77425581838797],["moord",-10.77459183247923],["libro",-10.774821495430594],["themsel",-10.775590110984522],["Var",-10.776523219808634],["ajoute",-10.776932448190221],["oost",-10.77708946710164],["82",-10.777128545616911],["trimestre",-10.777467749868421],["conflit",-10.777472618905385],["ticket",-10.777641565389075],["above",-10.777693742087422],["buurt",-10.777752608730456],["conflicto",-10.77801951458229],["llegada",-10.77841958193973],["Más",-10.778455362111785],["Emp",-10.778562210084758],["emiti",-10.779168531089509],["stelt",-10.77933981774935],["Amb",-10.779730729160658],["Congress",-10.780196546980854],["winning",-10.780226369171125],["Noord",-10.780323340034144],["torneo",-10.780972569252874],["Scott",-10.781025675570827],["certifica",-10.781189903183495],["augmentation",-10.78121554177162],["Nee",-10.781753413014965],["truck",-10.781852024687547],["Toch",-10.781895078624675],["laboral",-10.782207904170168],["Nav",-10.782445681300455],["utilisé",-10.782867297252253],["illon",-10.783221191357402],["uke",-10.783505162984794],["novel",-10.783737570545794],["save",-10.783841617672913],["giving",-10.783862568385647],["probablement",-10.784114097550141],["interpret",-10.784585494431203],["relevant",-10.784616172376413],["motiva",-10.784667795240185],["Hast",-10.784849489319654],["documento",-10.785815220105974],["jam",-10.785862230899031],["Every",-10.786364860441015],["voeren",-10.786567104596445],["suivi",-10.786739344961255],["74",-10.786938385010515],["Chile",-10.787190254003342],["liep",-10.787350754742764],["ujo",-10.787451209006854],["subi",-10.78763257107741],["destino",-10.787720200908879],["hiver",-10.78773885647993],["abilité",-10.787844053802582],["Festival",-10.787993464897623],["Public",-10.787993706888573],["Fiscalía",-10.788091075034503],["spreken",-10.788346417351677],["consumo",-10.788387521968831],["strict",-10.78867038965318],["ramp",-10.788996144436567],["cepti",-10.789043470434578],["realizado",-10.789091289488104],["marz",-10.789154590754402],["audio",-10.789277086735277],["deberá",-10.789758599475178],["coll",-10.790572155996722],["pedir",-10.791054482833523],["estatal",-10.791344791927083],["Council",-10.791527441859534],["mauvais",-10.7915280291781],["thousand",-10.791538657976766],["Brussel",-10.791615708594371],["comité",-10.791879233932127],["chair",-10.792133244148106],["nchester",-10.792242311647437],["ified",-10.792432065374879],["Instituto",-10.792544301335022],["assuré",-10.79264645916971],["ballot",-10.792927883869794],["lice",-10.793034449087124],["Beau",-10.793446868155552],["Christ",-10.793553729759122],["pasada",-10.793602295773386],["moto",-10.793723287924195],["obstant",-10.795083177422255],["Certain",-10.79517006870764],["tank",-10.795255279243193],["cero",-10.79593985078822],["crowd",-10.79617874974478],["Deux",-10.797654052016277],["keur",-10.79800590525742],["drag",-10.798023497717352],["disfrutar",-10.79804709830773],["cool",-10.798346878180311],["commencé",-10.798633279179636],["instrument",-10.798635367772189],["Ángel",-10.798641773690875],["natuur",-10.798648904975959],["poursuit",-10.798848514073162],["Home",-10.799088543304261],["évolution",-10.799105973582215],["huge",-10.799250877538949],["cultural",-10.799255793701729],["supuesto",-10.799621584205932],["banc",-10.800680686491093],["acudi",-10.800744101480834],["wacht",-10.801158563289142],["apunta",-10.801193706112645],["atoire",-10.80183971352806],["raakt",-10.801879387129244],["sentir",-10.801953151968018],["François",-10.802203131651943],["véritable",-10.802204740764644],["pire",-10.80226787999308],["importe",-10.802868925190944],["observa",-10.803158484748513],["maintain",-10.803326557332957],["Office",-10.803369999626826],["carta",-10.803544554173955],["session",-10.804359054643651],["ignor",-10.804712786442],["hile",-10.8057294493001],["muziek",-10.805801672441003],["blé",-10.805911081359994],["affiche",-10.805947856271183],["empleo",-10.806105929758065],["Mike",-10.806334507664559],["GT",-10.806721272920978],["Pay",-10.807426405121774],["uando",-10.80753736301093],["ingresa",-10.808238156330463],["bestuur",-10.808360735962886],["Force",-10.808533671359214],["presidencia",-10.808652251959451],["encontraba",-10.808840860046763],["Tru",-10.80891643685425],["Bruxelles",-10.809384550454357],["conference",-10.809384928965521],["medewerker",-10.809385528545187],["élément",-10.809643503880832],["tierra",-10.810910513654413],["Angeles",-10.811415645693247],["urgent",-10.811869839745693],["maat",-10.811967583062371],["conflict",-10.812423177162833],["historique",-10.812994675572412],["domaine",-10.813027014368302],["extreme",-10.81311151811517],["opinion",-10.81348826210087],["kieze",-10.813574013418904],["sense",-10.813717534924862],["damage",-10.813796565147651],["escrito",-10.81402152249591],["gemiddeld",-10.814149476464408],["avocat",-10.814485968638463],["é",-10.814794479071836],["circul",-10.814961281123107],["Albert",-10.815304503771138],["habilita",-10.81582519595375],["kamp",-10.816190233431016],["otte",-10.816227292157896],["noir",-10.816538741999661],["Groningen",-10.816620333736124],["excellent",-10.816621369095486],["rápida",-10.816670685831209],["groter",-10.816866732661122],["atura",-10.816896661906398],["ukrainienne",-10.817179103374428],["rouge",-10.817428477524945],["niemand",-10.8180600189933],["Chris",-10.818075512769646],["trial",-10.818764967217737],["feeling",-10.818920727068978],["98",-10.819449133224026],["gezegd",-10.819693129231018],["pedido",-10.819730707290661],["kampioen",-10.820255111975987],["policial",-10.820339708014469],["titel",-10.82045924336563],["continuer",-10.820608153478311],["Costa",-10.820677263302144],["incendie",-10.821139240569174],["chev",-10.821572447432722],["création",-10.821793850244607],["ogró",-10.82180697608861],["Dav",-10.822139101117642],["keren",-10.822776230549122],["pourra",-10.822899033540246],["derde",-10.822918839367023],["answer",-10.823331736788363],["trust",-10.823688154029842],["Rodríguez",-10.823903778716009],["continúa",-10.82390403938669],["referencia",-10.823920726889916],["impuesto",-10.8239954914451],["éviter",-10.824043223140736],["beide",-10.824301361502512],["Italia",-10.824432792111772],["maxima",-10.82445246337376],["département",-10.824600537317004],["various",-10.82517824517301],["costo",-10.825646069051555],["issent",-10.825663017518995],["Tele",-10.826058797689171],["tendre",-10.826451346700999],["probabl",-10.826747827598153],["profond",-10.82699613752795],["PN",-10.827431891775683],["tratar",-10.827509151840145],["Rome",-10.827551398648176],["afhankelijk",-10.827566783189985],["Capital",-10.827584215820803],["Gor",-10.827794552344336],["fête",-10.827795983503409],["collection",-10.827886548939535],["thank",-10.82802055611485],["moyenne",-10.8281896585615],["alcanzar",-10.828294440487657],["snap",-10.828323417686416],["réunion",-10.828367079558952],["consist",-10.828604633255438],["hoogte",-10.829117275034921],["Tar",-10.829232089785046],["contenido",-10.82927084243451],["hield",-10.830075056734927],["tradition",-10.830117290085964],["crear",-10.830168934477253],["excep",-10.830751903088744],["cámara",-10.83124367816183],["aanwezig",-10.831244227909771],["protec",-10.831731312588492],["compet",-10.832059502440654],["dolor",-10.832291244917958],["reactie",-10.83235846133904],["minuten",-10.83265391682877],["avanza",-10.833759836490808],["organ",-10.833828008302568],["cancer",-10.833839211749348],["investi",-10.834223715500142],["gelegd",-10.834615682057429],["hacerlo",-10.834697175624408],["mobile",-10.834841899384077],["Verenigd",-10.83495459904208],["frère",-10.834994154360713],["trein",-10.83501143544133],["organismo",-10.835014846284643],["symbol",-10.835137169120397],["fabric",-10.835424027085686],["Lion",-10.836015059003977],["grab",-10.836343818653553],["artist",-10.836364085489652],["Oost",-10.836464082859328],["Cabe",-10.83646904206331],["spécial",-10.837318841266612],["professional",-10.8373209850632],["spraak",-10.837996617942096],["visage",-10.838454105293277],["cinéma",-10.83863208484244],["Valencia",-10.838676150485519],["Nueva",-10.83872154217342],["Brasil",-10.838998525042026],["scale",-10.839388539771306],["CH",-10.839649080406257],["eventual",-10.840082397716294],["NE",-10.840103878885081],["kat",-10.840105848687902],["hogar",-10.840203899348055],["possibilité",-10.840495368405264],["Hong",-10.840607569078536],["situ",-10.841143581260013],["libra",-10.841260366078187],["anderen",-10.841533566632211],["ö",-10.842354465690242],["lógico",-10.842356490453886],["liberté",-10.842358012414902],["hir",-10.842428852962215],["vital",-10.842437671448144],["Eric",-10.842664298070504],["dirigente",-10.84272792463835],["conversation",-10.84278526864034],["episode",-10.843141287294504],["touché",-10.843258041263379],["conséquence",-10.843538091474793],["Human",-10.843736822368545],["African",-10.844712118929138],["surface",-10.84472004799207],["import",-10.845080204016485],["wijn",-10.845084742280726],["Thi",-10.845612565106599],["probable",-10.845640298886119],["geweld",-10.845909730039207],["supplémentaire",-10.846085808974333],["absence",-10.846089379707799],["picture",-10.846122832805044],["peace",-10.846334218973833],["vervolgen",-10.846334775080596],["Post",-10.84634414145641],["officie",-10.846422998305098],["frontière",-10.846493195261932],["teacher",-10.84670191574293],["aspecto",-10.846763994182478],["irse",-10.846940010464861],["banque",-10.847008294544068],["dirigi",-10.847341176065587],["enkel",-10.847424431805045],["houder",-10.84770774440552],["compensa",-10.847750234353823],["bijzonder",-10.848376800720265],["Big",-10.848606724405734],["consum",-10.848708684484917],["huur",-10.849348625676647],["Fernand",-10.849571795171524],["served",-10.849744108695258],["panel",-10.849771589559808],["maximum",-10.849834087145489],["représentant",-10.84984887736211],["estoy",-10.850810104294013],["sound",-10.850906703959195],["décè",-10.851041065297917],["î",-10.851122736229398],["begrijp",-10.85124006825974],["menores",-10.851507459897533],["European",-10.851680241687221],["clasifica",-10.851813872079992],["battle",-10.851850497683326],["frontera",-10.852114359562126],["plot",-10.85214776807764],["ritten",-10.85218761992168],["nega",-10.852526204076128],["commence",-10.852847416975827],["retrouvé",-10.853298296671035],["aanval",-10.853342799689235],["gezin",-10.853468772451702],["pakken",-10.85360769821082],["entrar",-10.853696809664253],["Jorge",-10.853754408446775],["rov",-10.854122034039467],["bleek",-10.854785824587157],["PE",-10.854809795705604],["avoid",-10.854979115853242],["tercera",-10.855674549042316],["betrokken",-10.855827647099979],["lezen",-10.85598132998986],["imá",-10.856350861545769],["incremento",-10.856368044985729],["ç",-10.85650612288886],["RD",-10.856549482903688],["iber",-10.85673342156604],["Secretar",-10.857120322362281],["clé",-10.8572414955622],["£",-10.857364110727783],["médecin",-10.857366778020069],["Río",-10.857444371052635],["Prince",-10.857489383690842],["massive",-10.857686200842522],["energy",-10.857928774672065],["calific",-10.858165359262873],["Bull",-10.858324999608506],["sortir",-10.858639255015065],["forcé",-10.859664149935622],["Since",-10.859688123187434],["escuch",-10.859785944627077],["mira",-10.860222568095722],["marin",-10.86042045323066],["object",-10.860706529917515],["occident",-10.861152156060827],["helft",-10.861194956605786],["partenaire",-10.861253883847656],["annual",-10.86127118524215],["arned",-10.861333010540179],["Secretaría",-10.861443492766758],["zocht",-10.861510978152298],["rub",-10.861822847176041],["comple",-10.862004234158286],["fout",-10.862164085225896],["Democrati",-10.862305111857697],["Engel",-10.862881819490301],["rural",-10.863171483529868],["ency",-10.864778631418286],["presqu",-10.864831283978521],["résidence",-10.864957102987123],["chargé",-10.865014579691948],["bereid",-10.865100184664962],["militant",-10.86514409476278],["Asia",-10.865437686894282],["café",-10.865753716909536],["dirige",-10.865991199743586],["learning",-10.866499794842127],["enfrentar",-10.866646700504637],["supporters",-10.867244154904707],["UU",-10.8675612997197],["Berg",-10.868232589703435],["podem",-10.86838569958734],["achtig",-10.86846554561306],["schiet",-10.868476768242457],["dorp",-10.868511128904906],["joué",-10.868681060811069],["establish",-10.86877309896078],["Justicia",-10.86877960612173],["Richard",-10.86883115911708],["cuarto",-10.868865042147178],["trouvé",-10.869068354775358],["UC",-10.8699888446859],["aandacht",-10.870128326999422],["Hill",-10.870327773895154],["recupera",-10.870346183853174],["guer",-10.870547443626117],["voisin",-10.870599359937488],["utilis",-10.871400537982682],["partage",-10.871452733675367],["bail",-10.87170325112301],["pretend",-10.871722681038094],["reserva",-10.871763704134484],["ducación",-10.871834408343714],["relat",-10.872320921035024],["gesprek",-10.872335819481009],["Gir",-10.872598980852503],["artículo",-10.8726024856762],["criminel",-10.87262705798725],["Suprem",-10.872683725677227],["revenir",-10.872938587902858],["cub",-10.873073450414816],["bull",-10.873160255223643],["easy",-10.873356961160658],["gesprok",-10.873425358088642],["81",-10.874783154051805],["reducir",-10.875033929906504],["suele",-10.875156641785294],["seguido",-10.875431722281537],["beat",-10.875608378748154],["orienta",-10.875627189724828],["podía",-10.876337045530398],["peor",-10.876385828533191],["estima",-10.877233070297354],["speed",-10.877838217821331],["éro",-10.878010619312807],["massa",-10.87801819740426],["compara",-10.878039588002538],["trui",-10.878224670041533],["leid",-10.878991385341127],["earning",-10.88009818842848],["Ayuntamiento",-10.880309650467101],["souligné",-10.880310002169338],["evidence",-10.88031038959047],["physique",-10.880312351260745],["sommige",-10.88033397605191],["Nieuw",-10.880336314988678],["segui",-10.880574773339145],["mocht",-10.880581163861418],["aquello",-10.880631199957902],["risico",-10.880654539746986],["NH",-10.880948556143775],["expand",-10.88125061235474],["geloof",-10.88145227361916],["ouche",-10.881728151255238],["drone",-10.881741906631575],["conect",-10.882022281409952],["identifie",-10.882178728096026],["maladie",-10.882366020393214],["incendio",-10.882618563045039],["conocida",-10.883790305687544],["functie",-10.884189818819785],["keuze",-10.884202371861939],["investissement",-10.884223270335463],["From",-10.884585479067518],["frustra",-10.884987286950121],["renov",-10.885198086118692],["échange",-10.885255794457917],["NI",-10.885741629797504],["restric",-10.886131086488986],["Shi",-10.886190045512256],["physical",-10.888080305022834],["vlieg",-10.88809839511288],["item",-10.888189585845465],["Carolina",-10.888240833281328],["usage",-10.888482155979435],["conocimiento",-10.888524798351266],["chacun",-10.888600663749713],["cantante",-10.888613389229995],["fruit",-10.888662580665642],["generar",-10.888833720943712],["71",-10.889097271933437],["millier",-10.889359342437679],["investment",-10.889464464923963],["razó",-10.889899333922042],["tenant",-10.890610078214117],["organiz",-10.89062928017163],["DP",-10.891268158063749],["conseguir",-10.891587084637877],["ipp",-10.89186249633445],["Belg",-10.891902321968105],["Cámara",-10.891983121338766],["London",-10.892113572658115],["section",-10.892223327998675],["ventaja",-10.892776261829418],["kerk",-10.892844187342359],["corte",-10.892977869438404],["tekort",-10.893498345789768],["gaf",-10.894045923020752],["finaliz",-10.894776661773172],["carbon",-10.895453955050638],["common",-10.895698012748712],["citizens",-10.895904542434248],["software",-10.895906016186613],["pensar",-10.895940840070661],["Cup",-10.896032831225753],["vigil",-10.896063796035246],["centaine",-10.896104632872792],["flight",-10.896112585498265],["heim",-10.89615826487844],["stimul",-10.896208184931679],["presentado",-10.896315905524897],["Dou",-10.896329435556495],["120",-10.896404439564769],["streaming",-10.896482236504525],["operativo",-10.897181901074454],["informatie",-10.897222226660652],["alia",-10.89760465886612],["Korea",-10.89769558551884],["changer",-10.897957116173568],["Face",-10.898224808061165],["daarme",-10.899058252277204],["ocasione",-10.899252247712434],["leeg",-10.899357010938806],["holding",-10.899493332444015],["vaart",-10.899500234821565],["propriétaire",-10.899841488221732],["scolaire",-10.899947272401787],["politic",-10.899971125650252],["climatique",-10.900032657599475],["ONU",-10.900942210018972],["reality",-10.901241552077689],["dependencia",-10.901764917926993],["voulai",-10.902724304913034],["aspect",-10.902741095623288],["tory",-10.902802859573606],["sostuv",-10.903631096829917],["pendiente",-10.9036311262659],["Jong",-10.903657507997998],["Chicago",-10.903795260951359],["husband",-10.903796243245534],["essentiel",-10.903826362128159],["numero",-10.903890079840043],["België",-10.903902543765572],["Simon",-10.903950877800927],["Harry",-10.903961036849545],["choice",-10.904078702743803],["attract",-10.90431659867695],["paz",-10.904552953413162],["ividad",-10.90460618246168],["battu",-10.905086921352947],["counter",-10.90511067399785],["storie",-10.905142264613358],["atrás",-10.905651621106571],["raconte",-10.906873736420017],["Banco",-10.90716866863932],["Ejecutivo",-10.907762309463134],["januari",-10.907762432838515],["Bern",-10.907763346718687],["étranger",-10.907765353180999],["payment",-10.907765694836183],["Gabriel",-10.907802069681429],["gué",-10.907842623831536],["locatie",-10.90795329661187],["niña",-10.90810537977681],["GP",-10.90818191467042],["Road",-10.908287394678364],["remise",-10.908600028699663],["gratis",-10.90869450616096],["winnen",-10.90905293675314],["prior",-10.90908065006609],["ombre",-10.909254050061415],["tool",-10.909459349437139],["ministra",-10.90995934588398],["Cur",-10.910067560067272],["empleado",-10.910289582098194],["Pac",-10.91047898834844],["modifica",-10.91084792587193],["herramienta",-10.911746380102734],["woordvoerder",-10.911746401061649],["edificio",-10.911746405817631],["gagner",-10.911798397004663],["convertir",-10.911881781254795],["wagen",-10.911884899503843],["subray",-10.911956075528177],["voeg",-10.911969384293446],["campus",-10.912108513070645],["aporta",-10.912660377189987],["invasion",-10.913372115890642],["minste",-10.913589456489717],["Malgr",-10.913594873019917],["midden",-10.913835991489385],["fill",-10.913936467456866],["contexto",-10.913949963957958],["suivr",-10.914490032670694],["beelden",-10.914601931820005],["Meanw",-10.91502588037589],["worst",-10.91522925190963],["German",-10.91565305986283],["Watch",-10.91570090535793],["Mir",-10.915812354036209],["bastante",-10.91585188493309],["zwart",-10.915921032089399],["imply",-10.91624771216559],["GO",-10.916303038822022],["Internacional",-10.916826315184812],["Haag",-10.918005177352095],["economie",-10.918036125825424],["Gri",-10.918133443930259],["dépass",-10.918941023909934],["fines",-10.919092168772893],["pec",-10.919434282253539],["compétition",-10.919762437344556],["ucraniano",-10.919762441470755],["vulnerable",-10.919816033871749],["Ligue",-10.919818781981792],["musique",-10.919871235078025],["schot",-10.920049749101835],["respet",-10.92008870987378],["2008",-10.92242356889115],["profiter",-10.922535535251095],["Nic",-10.922589601869412],["emocion",-10.922971965605452],["voulo",-10.923329527408042],["confirmé",-10.92342240189298],["invite",-10.923666190189822],["Pablo",-10.923797591589977],["estrella",-10.924054654590035],["speelt",-10.924140376250348],["revealed",-10.924193272060812],["empêch",-10.924193999886208],["lib",-10.924373438369923],["Nov",-10.92461963412385],["calm",-10.924857486044987],["calcul",-10.924997147824808],["perder",-10.925263364864227],["mala",-10.925369737943736],["voice",-10.92577076068386],["assembl",-10.926412080776574],["ziek",-10.926481507508479],["spent",-10.926539250078582],["kick",-10.926775515449162],["wens",-10.927315418808746],["ouvrir",-10.927762915462651],["tandis",-10.927811844355368],["engagé",-10.927853475703117],["Jack",-10.928329379182152],["kern",-10.928582112440107],["league",-10.928854436860826],["cadena",-10.929066806744324],["coche",-10.929095563412526],["periodo",-10.929164644310497],["begon",-10.929345301537987],["comparti",-10.929398783743839],["majorit",-10.929555223850105],["Arc",-10.92957871223694],["Torre",-10.929705313303472],["09",-10.930062702144177],["concluy",-10.930624437701798],["descend",-10.930976156932534],["koers",-10.931251805932837],["financia",-10.93162820480272],["Microsoft",-10.931908324765418],["pièce",-10.931908744438974],["council",-10.931912356665265],["verschil",-10.931913207866604],["faudra",-10.931927966919705],["épisode",-10.932013010321992],["bâtiment",-10.932267225116743],["champ",-10.932274077223958],["ratio",-10.93304193092855],["verano",-10.933081477327459],["montant",-10.934253092587149],["terminé",-10.935356305677782],["pouvai",-10.935409424935411],["allait",-10.935780861124957],["97",-10.936358767324764],["planning",-10.936430353693016],["!”",-10.936761640758121],["stijg",-10.93726238334618],["throw",-10.937292456449125],["trokken",-10.938203216292905],["usted",-10.93857478600503],["pion",-10.938997775279082],["inderda",-10.939823735076605],["consolid",-10.939880316018089],["marge",-10.939888941094097],["Rotterdam",-10.940088318202081],["wrong",-10.940115426667752],["oficina",-10.94012342831708],["pompiers",-10.940136034972074],["ibilidad",-10.940163885024008],["leadership",-10.940238828810791],["majeur",-10.940296888046364],["Bell",-10.940504122850122],["tonne",-10.940539822358051],["gevangen",-10.940652674672524],["provid",-10.94086506467171],["graden",-10.941363961523257],["afirma",-10.941398923565728],["ultra",-10.94162688296901],["difficulté",-10.94177334581163],["refuse",-10.942594629067752],["flow",-10.942749657543082],["yond",-10.942973583241692],["ajo",-10.943098178546197],["junta",-10.943293082761016],["explos",-10.943536786860168],["payer",-10.943711895489145],["máxima",-10.944203539612005],["ejercicio",-10.944203540049948],["numérique",-10.944203543807188],["término",-10.944203841603686],["Provincia",-10.94420411037407],["caída",-10.944208464251275],["conscient",-10.944214679900721],["rendimiento",-10.944230774675457],["présidentielle",-10.944238413988998],["sacar",-10.944367925705976],["minima",-10.944424270325078],["Côte",-10.94453945816553],["voorkomen",-10.94476454678312],["admit",-10.944859513770872],["declaraciones",-10.944891601144642],["strak",-10.94508387394875],["determine",-10.945264318300746],["rush",-10.945691759084372],["peso",-10.946410793351312],["juni",-10.94641809651013],["belge",-10.946627098083678],["pese",-10.946873611124985],["Daarnaa",-10.9470422525925],["vér",-10.947892386413589],["Zelensky",-10.948335823535281],["competencia",-10.948344658008839],["supply",-10.948345325974039],["premio",-10.94841686693383],["colon",-10.948616804178261],["bezoek",-10.948765911763989],["Lim",-10.948962611992968],["rêve",-10.949208221413542],["continuar",-10.949222805191035],["épi",-10.94957762622186],["Radio",-10.949595520629515],["leger",-10.950190890855307],["hermano",-10.950330746155075],["reporter",-10.950732096654894],["servir",-10.950895184751008],["producer",-10.950923528748831],["jongen",-10.952380213277497],["older",-10.952426088537585],["pérdida",-10.952491191435737],["paper",-10.952509990600362],["recomend",-10.952525233838173],["Cómo",-10.952578714908775],["connaiss",-10.952788336877196],["détermin",-10.952805445770338],["fantas",-10.952948124598851],["Marine",-10.953041745688342],["papier",-10.95328195529537],["llamada",-10.953289199339348],["residencia",-10.95386956901253],["schakel",-10.954293746018823],["ieurs",-10.954433735348996],["agence",-10.954474735689544],["union",-10.95522493974324],["victor",-10.955305582004893],["lejo",-10.955402015883621],["legisla",-10.95591001032754],["afectado",-10.956056461203865],["schuld",-10.95613462085349],["électrique",-10.956651818627453],["género",-10.956652135617752],["triunfo",-10.95665244848466],["Vlaams",-10.95665359396337],["marcado",-10.956709084328153],["Zuid",-10.956712462191707],["fresh",-10.956786890644633],["pressure",-10.956889855148901],["derrota",-10.95696572152586],["mondial",-10.957007111165638],["Lake",-10.957082428408624],["quart",-10.957101440058093],["beginnen",-10.957398748370592],["resist",-10.957830943139225],["rappelle",-10.957977668676104],["piste",-10.958225314794493],["passen",-10.959017069091766],["camion",-10.959056142343222],["radical",-10.959139191187138],["poca",-10.959155757557888],["standing",-10.959512583460281],["deuda",-10.95981737236803],["pomp",-10.959877382636897],["exploit",-10.960304396298058],["provincie",-10.96083594806768],["procè",-10.960894572011352],["crash",-10.961015405715102],["Team",-10.961058116614224],["boot",-10.961861852196092],["83",-10.962094591903332],["agreement",-10.962616133458111],["Messi",-10.963221568579861],["William",-10.964133364483187],["diálogo",-10.965037598801059],["électrici",-10.965037660881553],["atteindr",-10.965040105252193],["arrivé",-10.965088593108572],["integrante",-10.965091806979096],["nuclear",-10.9652918464414],["tratamiento",-10.96543164120353],["gira",-10.965446676756006],["faisai",-10.965494748095889],["ferme",-10.965554138531274],["schuldig",-10.965644231752735],["heard",-10.965750484972354],["network",-10.96576828325167],["estadio",-10.966216193714931],["coloca",-10.967172949218284],["Henr",-10.967405224065518],["index",-10.967709627489267],["faisant",-10.96875667940811],["raf",-10.96899509631406],["democra",-10.968996556633728],["Kremlin",-10.969257225117115],["cyber",-10.969288257141713],["voldoende",-10.969311932722043],["bombarde",-10.969377545556679],["enregistré",-10.969879293458089],["ontwikkel",-10.969988918007623],["estimé",-10.970612075821467],["appeal",-10.97161730235842],["participation",-10.971898604097976],["Cast",-10.972923003590541],["comenzar",-10.973290780797923],["Dor",-10.973305844334483],["geschr",-10.973335928812709],["réuni",-10.973361996826215],["lourd",-10.973445667292403],["Algérie",-10.973495863487084],["ambiente",-10.97357097607038],["stein",-10.973595560248974],["annul",-10.973684505789796],["centra",-10.97455000295188],["notice",-10.975042209983453],["script",-10.975303538358805],["transmis",-10.975795319054487],["UR",-10.976015263964442],["enfrenta",-10.977330379731903],["ullie",-10.977346276539386],["funding",-10.977590191565092],["intérieur",-10.977749854875244],["function",-10.977755856314932],["prohibi",-10.977757422407405],["amarilla",-10.97777032451226],["wissel",-10.977962464228835],["Zelf",-10.978082782870421],["invité",-10.978092007550394],["wezen",-10.978178447505423],["vertrouwen",-10.97841177974736],["Cuba",-10.978416777478056],["Tam",-10.979002188781564],["proposé",-10.979219647330213],["ancienne",-10.979811557104671],["buitenland",-10.981085957437687],["spectacle",-10.982023258180458],["industrial",-10.982029056116616],["nommé",-10.982074777718644],["instance",-10.98214985541547],["agricultur",-10.982296983838026],["judge",-10.982303694736405],["tendencia",-10.982477638086639],["preuve",-10.982598742309847],["geleid",-10.982709940411649],["followed",-10.983207818395792],["supone",-10.983298348972317],["remember",-10.983890541225843],["héro",-10.983999560426259],["treat",-10.984299225589455],["carry",-10.98441690118506],["utiliz",-10.984543242258315],["stuur",-10.985172136102365],["completo",-10.985350363696302],["sister",-10.985916900764455],["pension",-10.985974746007004],["trainer",-10.985980007517965],["logisch",-10.986284298842854],["verantwoordelijk",-10.98631539120586],["alternative",-10.986315839219875],["register",-10.986447580731088],["confianza",-10.986469811705176],["alimentos",-10.987565124083616],["manifestation",-10.987862955675837],["Anti",-10.988039988639546],["racism",-10.988075377164321],["trice",-10.988267694153521],["fish",-10.988272900892603],["homo",-10.988821246293742],["boom",-10.989550901778031],["gesloten",-10.98993898493594],["eindelijk",-10.990204157483046],["déli",-10.990276974999706],["accompagne",-10.990625306754929],["disminu",-10.990629113997809],["Brown",-10.990696024197337],["vague",-10.990980944569156],["buil",-10.991013983514648],["OTA",-10.991988406772512],["Party",-10.992214390075773],["Veel",-10.993797062783901],["goes",-10.99453313125818],["Martín",-10.994926630974927],["judiciaire",-10.994954490307169],["Puerto",-10.994965823842012],["ubica",-10.994983959661596],["sueño",-10.995021426869524],["VVD",-10.99510364189696],["segment",-10.995381210749459],["cierre",-10.995730049776792],["gedacht",-10.995755970417587],["simul",-10.995981291013877],["cumul",-10.99627119757189],["ouvre",-10.996314289100816],["genoemd",-10.996327373093848],["découvert",-10.996494403037474],["Garc",-10.996761021562417],["negen",-10.99690010315766],["pensé",-10.996999285097235],["logement",-10.997374774363765],["Tech",-10.997672609154588],["perte",-10.997781358047392],["photograph",-10.998127339978748],["kill",-10.998498590712611],["suicid",-10.998523139830429],["estudi",-10.998988101319206],["Servicio",-10.999302254564565],["twijfel",-10.999312803729943],["Jam",-10.99955837685096],["kept",-10.999734779143159],["constitution",-11.000679731483842],["salva",-11.000966974895025],["cobr",-11.000968151129072],["gevoerd",-11.00115018055405],["Kim",-11.001189365973183],["Otro",-11.001927262388186],["Britse",-11.002546496768106],["mph",-11.00273359161331],["author",-11.003090889774402],["combustible",-11.003668952327974],["teléfono",-11.00366895331809],["nucléaire",-11.003668971737701],["Alejandr",-11.0036689878207],["pequeña",-11.003673040557336],["bevolking",-11.003683414055228],["plainte",-11.003912389221318],["Guardia",-11.004032644048442],["compt",-11.004051744372253],["grens",-11.00414662715736],["traslad",-11.004900546709958],["favorable",-11.00508984360216],["parecer",-11.005156322053582],["amour",-11.005176715804371],["apareci",-11.006247657127856],["division",-11.006412567410607],["évolu",-11.007934903196329],["Sénégal",-11.008054999331094],["necesaria",-11.008056047066795],["podium",-11.008067142819709],["ervaring",-11.008165557780517],["caution",-11.008348680912857],["declara",-11.009561526134256],["matig",-11.009887955069772],["diferente",-11.010061048551183],["arriv",-11.01045611599101],["leren",-11.010717797329768],["Media",-11.01093283580742],["posicion",-11.010980413675247],["zware",-11.011339636929598],["llegado",-11.011661231089157],["filtr",-11.011672169487836],["Él",-11.011915610138832],["villa",-11.012075053745498],["verbod",-11.012408899757776],["Minnesota",-11.012460201538854],["condamné",-11.012461715762761],["manufactur",-11.012475183971606],["abogado",-11.012478797815785],["England",-11.012495299956688],["First",-11.012543140146747],["remporté",-11.01262234992199],["afstand",-11.012787587911452],["pelea",-11.0128478104073],["discours",-11.013329336692706],["apoy",-11.01536864231773],["sleep",-11.015957073149853],["acá",-11.016877013251655],["schrijft",-11.016885919845414],["Champions",-11.01689060220646],["klanten",-11.016907083573745],["dak",-11.01732160313868],["sexuel",-11.017433550822496],["Fra",-11.017896198482406],["connaît",-11.018028822744117],["colonia",-11.018264032013056],["positiv",-11.018310588304752],["registro",-11.019269431231915],["journal",-11.019615364593491],["censo",-11.020974750642791],["crítica",-11.02132944149192],["collaboration",-11.021329627301707],["increasing",-11.021330138852111],["Cultura",-11.021331292097486],["hí",-11.021351526386969],["tradicional",-11.02141736064242],["brother",-11.021731017810659],["communic",-11.021913197515142],["adding",-11.022364470086377],["krant",-11.022460654145467],["Fox",-11.022596366139064],["termijn",-11.022613108816866],["usar",-11.023200947594693],["Tesla",-11.023506693428299],["banco",-11.024084902164486],["connaîtr",-11.024659555407695],["quién",-11.024758030882776],["Well",-11.024937810165541],["Sab",-11.025602127558031],["González",-11.02579370942119],["offensive",-11.025796811603694],["abierta",-11.02583780932934],["cuál",-11.026000848195466],["successful",-11.0260902066683],["común",-11.026282934197553],["persoon",-11.02631021868617],["encima",-11.026365229500005],["compromet",-11.026486725628493],["Most",-11.026526506589171],["tienda",-11.026604068091835],["Jones",-11.026842164626594],["Mah",-11.02706001506559],["broad",-11.027240608966299],["gram",-11.027278830205375],["connaissance",-11.027651456452897],["pudier",-11.027709999998043],["Alberto",-11.028075695358858],["sky",-11.028364507661253],["ampli",-11.028367625088364],["créé",-11.02839928229816],["infecte",-11.02868575937227],["Belgisch",-11.029060575633371],["atti",-11.029244719042808],["manche",-11.02932612171286],["sloten",-11.029443151404697],["solidari",-11.029945323918277],["Obrador",-11.030279073493784],["Ajax",-11.030300296726569],["muerto",-11.030308049118752],["Martínez",-11.030325215842122],["excuse",-11.030353457807053],["faible",-11.03050157012039],["exception",-11.030559361516243],["gericht",-11.03135988340891],["trauma",-11.031728780373012],["triste",-11.03314730441408],["regret",-11.033371424034438],["carne",-11.033748964560417],["parcours",-11.033968328746802],["hoeft",-11.034076949130258],["Hug",-11.0342244316573],["Elizabeth",-11.034782526822848],["Santiago",-11.034783443723187],["contamina",-11.034824180255875],["hundred",-11.03482545025044],["Patrick",-11.034858942119463],["shift",-11.034897238498324],["abierto",-11.035026339860426],["découvrir",-11.03519444662442],["competi",-11.035870161508342],["tennis",-11.036237780280182],["personaje",-11.036608860092336],["kwart",-11.037494191815185],["Santé",-11.037692225931348],["auron",-11.038095293733969],["nforcement",-11.03861930782853],["servi",-11.038629095467442],["rendez",-11.038671263446837],["embr",-11.03911671463349],["barra",-11.039167804303226],["klink",-11.039206876973239],["página",-11.039307431925975],["física",-11.039307521839806],["Tribunal",-11.03930790221326],["temperature",-11.039309612398387],["tourist",-11.039397327129082],["discurso",-11.039473989260827],["critical",-11.039764442509902],["fiance",-11.040047317754237],["arbeid",-11.04005054008461],["metro",-11.040158952549366],["D66",-11.040686232066811],["dieren",-11.040754692367571],["zette",-11.040998653173087],["Sub",-11.041031012673937],["pill",-11.041118825977312],["Transport",-11.041730646480573],["prog",-11.04203176528522],["récent",-11.042112067748452],["ocurrido",-11.042183657118837],["Dub",-11.04250721526018],["bedrag",-11.042597225988665],["tendance",-11.042639553183257],["exchange",-11.042727913941706],["iniciar",-11.04280176879729],["comprar",-11.042911538623027],["practic",-11.043319558487282],["visual",-11.043324281650975],["obtener",-11.04364277023166],["móvil",-11.043705968860358],["financière",-11.043852873581233],["elektrisch",-11.043852875538658],["déclaration",-11.04385501638014],["puissance",-11.044066094664982],["gehaald",-11.044123845635772],["stick",-11.044386179285379],["prof",-11.04463251536427],["Corte",-11.044975371911164],["fijn",-11.045322593043979],["bourg",-11.045496465488075],["courant",-11.045560799224583],["Vega",-11.04657560804499],["olvid",-11.046622898335125],["lastig",-11.046720182264337],["doble",-11.047352275678524],["impression",-11.04832978874036],["º",-11.048419070326503],["futbolista",-11.048419129746343],["tráfico",-11.048419308311448],["vluchtelingen",-11.048419717386594],["bevestig",-11.0484216570559],["ménage",-11.048425414658697],["foreign",-11.048447073364404],["search",-11.0485828223803],["Royal",-11.048913781236248],["persoonlijk",-11.048937871138097],["september",-11.048957621584462],["Perú",-11.049196184609738],["ofrecer",-11.04972347362471],["HD",-11.049848930805812],["nazi",-11.050453232304012],["travaille",-11.050706139795416],["firmado",-11.050763079308755],["rati",-11.051587230103056],["reiter",-11.051696230089675],["actuel",-11.052270248870684],["entretien",-11.052559889074187],["protagonist",-11.053006236978298],["omgeving",-11.053017744503602],["salaire",-11.053105345971836],["Mercedes",-11.05313128436281],["presupuesto",-11.053338748024046],["Two",-11.053388306867955],["stemmen",-11.053702084235653],["maak",-11.053704411850902],["sorti",-11.05421244904704],["scenario",-11.055394316876399],["Hace",-11.055830170001892],["Island",-11.056409850244687],["espér",-11.056782778427817],["movement",-11.057472439741117],["justifi",-11.057559528196737],["régulière",-11.057614521424242],["britannique",-11.057614521605803],["crypto",-11.057614727687083],["illustr",-11.057618169736552],["reflect",-11.057702389954844],["entrenador",-11.057708930358203],["Program",-11.05776038658804],["agency",-11.0579481609178],["grim",-11.058029279073093],["neuf",-11.058196880351781],["stappen",-11.058291138750679],["realizará",-11.058293317460805],["asisti",-11.058748787646827],["texto",-11.058763143360803],["espère",-11.058823345535178],["Award",-11.059057400480608],["recordar",-11.059128153932996],["asking",-11.059419968323098],["transit",-11.059839944018862],["root",-11.060022959263828],["versie",-11.060068211340681],["Station",-11.060115853605376],["Nada",-11.06011915711164],["ève",-11.060496896119382],["pijn",-11.060698660320908],["profil",-11.061875269377396],["stikstof",-11.062244560025443],["voormalig",-11.062272326460361],["disposición",-11.062587781538966],["rab",-11.062988085809957],["pobre",-11.063174564430277],["Agenc",-11.063372146961044],["hará",-11.0635314531274],["Hall",-11.063606207986773],["multipli",-11.064086402299484],["́",-11.064579949950076],["verkoop",-11.065075000152628],["utiliser",-11.065174591243267],["hood",-11.065222315223728],["langue",-11.065385926852375],["réforme",-11.066161426991204],["herido",-11.066432520631114],["génér",-11.066723149060287],["departamento",-11.066895474320388],["Alemania",-11.066896982427764],["neutral",-11.066902146681176],["posterior",-11.066906336621134],["espoir",-11.066942539065838],["nueve",-11.067025222196525],["proporcion",-11.067094285326016],["assistance",-11.067315736584534],["Carr",-11.067380935772778],["génération",-11.06742869900605],["appelle",-11.067879876497274],["viral",-11.067917343048851],["augmenter",-11.068050142048193],["acumula",-11.068269371970114],["resume",-11.068495207096381],["obligation",-11.06880945582663],["blad",-11.068914611391575],["productor",-11.068974351825545],["aumentar",-11.069651531385196],["proyec",-11.07053989425406],["Amerika",-11.071209371044365],["pping",-11.071523979065859],["Pérez",-11.071587907558527],["offrir",-11.071702016895372],["retail",-11.071820889378262],["proper",-11.072170153660373],["productie",-11.073935834153211],["north",-11.074059296586581],["funcione",-11.074328609265844],["vuelo",-11.074510501139853],["ontwikkeling",-11.075449120123137],["ebruar",-11.075485840302111],["réserve",-11.075535462480271],["requiere",-11.075717102176199],["gezondheid",-11.075817903140475],["derecha",-11.076236942793422],["négociation",-11.07626304691387],["cuyo",-11.076336965323357],["Verstappen",-11.076385905163344],["habitual",-11.07643178300951],["favorite",-11.076531602804394],["frappe",-11.076714149811432],["clip",-11.076716327813015],["vuelve",-11.076801840788516],["disco",-11.076904177966773],["encarg",-11.076953741753975],["altura",-11.077523150594349],["fatal",-11.0775345068575],["prenant",-11.07779396537767],["blok",-11.078071580150954],["Shar",-11.07852405375751],["investigador",-11.07889430441411],["besluit",-11.078897860131736],["Arab",-11.079470237791567],["igné",-11.080042448980393],["responsabilité",-11.080980028009703],["equipment",-11.080990562535623],["Organiza",-11.081027483295092],["kilomètre",-11.081032469746908],["hockey",-11.081038584520556],["ivité",-11.081447912873323],["alimentaire",-11.081687683712719],["voet",-11.081829953814683],["publishe",-11.082263042536635],["Comité",-11.082332122716998],["increment",-11.082403449013917],["billet",-11.08243105205429],["distribution",-11.082449920014106],["Rac",-11.082524147386376],["Fri",-11.08263974441919],["Está",-11.08265848625323],["promotion",-11.083110039366549],["promedio",-11.083299439486046],["march",-11.08352114017576],["quête",-11.083887989198605],["Jeff",-11.084334834412587],["Fund",-11.084416369405286],["otorg",-11.085383320023936],["TikTok",-11.085719377826575],["técnica",-11.085719473100522],["subject",-11.085722616697343],["correspondiente",-11.085729208892568],["Any",-11.08604210715304],["normaal",-11.08632466552904],["install",-11.086457607157634],["1000",-11.086464340327591],["Avant",-11.086916297473842],["proposition",-11.087267322342328],["absolute",-11.087723475680704],["péri",-11.087944619538298],["celebrate",-11.08807967697961],["saisi",-11.088473695337676],["americano",-11.09048419154686],["mínimo",-11.090485882659676],["diseño",-11.09049638996498],["trouble",-11.090504601820783],["NFL",-11.090529194494733],["sibili",-11.090720336123095],["rechtbank",-11.09084108032253],["comida",-11.091074587434639],["Mayor",-11.091918337925296],["larga",-11.092099494822577],["recibido",-11.093103244349596],["sometime",-11.09323355555697],["montré",-11.093689124639578],["condena",-11.093931892021079],["eerlijk",-11.093990777506676],["bewust",-11.095267005148406],["Andrew",-11.095287798251604],["profesor",-11.095291780267036],["delega",-11.095461978083836],["tournoi",-11.095542041573989],["inner",-11.095643749347918],["Phil",-11.095683854111218],["dispute",-11.095853876834653],["flag",-11.096011317857943],["Londr",-11.096023533448914],["Cho",-11.096295622024277],["attente",-11.09633490355381],["kap",-11.096551474480481],["filia",-11.096920162956799],["reconnu",-11.097256027562839],["shooting",-11.097581516557433],["ministerie",-11.098154125426888],["liever",-11.099373053061292],["bound",-11.099446045716205],["voorzien",-11.099996597161471],["venezolano",-11.100073668174666],["secrétaire",-11.100073709729516],["Frankrijk",-11.10012033698926],["laisser",-11.10012279891655],["Sergi",-11.100157055277933],["Harris",-11.10023874359447],["relacione",-11.100255501353411],["gift",-11.100302211836736],["vermoed",-11.100332286094996],["descubri",-11.100689670574315],["tivas",-11.10091377331203],["Kevi",-11.100992551997358],["respective",-11.101115579986365],["quitter",-11.101353640959712],["Mali",-11.101412035904854],["cerr",-11.101888131686895],["Liver",-11.102000995011613],["desarrollar",-11.10217917606323],["lateral",-11.102796810940907],["decline",-11.10288899718537],["passing",-11.10292920703236],["stoppen",-11.103122473613796],["viendo",-11.103359284470944],["réagi",-11.103529571243929],["cible",-11.103841979798142],["schrijven",-11.104904848566221],["ktober",-11.104919709460951],["liefst",-11.104933696397433],["guideline",-11.104940238281356],["décid",-11.10542338096945],["governor",-11.105781636959401],["pelo",-11.105990229578415],["ization",-11.106115750703175],["Nik",-11.1063105612239],["endant",-11.108143829228101],["hoek",-11.10814965249943],["sturen",-11.10819595624614],["tourné",-11.108503023814471],["economisch",-11.10870034819526],["empezar",-11.109478449196],["obtenu",-11.10953263301848],["participer",-11.109582446762666],["*",-11.109758937014234],["étrangère",-11.109758962116238],["telefoon",-11.10975901945531],["Portugal",-11.109759054204005],["supérieur",-11.109759152489968],["carretera",-11.109760467391768],["appareil",-11.109782662725525],["convainc",-11.109786618863458],["transmit",-11.109974234769378],["revanch",-11.11018847854698],["empresario",-11.110697585265147],["Oscar",-11.110712201628477],["géant",-11.110794072787748],["Fire",-11.112231195327254],["Ferr",-11.11281206136975],["Long",-11.112925261472602],["humor",-11.113502360358094],["witte",-11.114081115583723],["Acc",-11.114128785809415],["culturel",-11.114288093300555],["mène",-11.114559783977835],["cérémonie",-11.11463698746401],["extérieur",-11.114637007458809],["burgemeester",-11.114637022002816],["waarschuw",-11.114637582615863],["Espagn",-11.114639090670085],["twintig",-11.114651776415444],["inwoners",-11.11465574775703],["volonté",-11.114693816551668],["dividend",-11.114928096672639],["jongeren",-11.114991485892912],["efectivo",-11.115268465400181],["cuento",-11.115307591388966],["corpora",-11.115563489245236],["igheid",-11.115675339159651],["culpa",-11.11596191655611],["offering",-11.116537045160602],["primar",-11.116635645992098],["fourth",-11.116805741320025],["Tous",-11.11709380720141],["definite",-11.117238490435644],["aprovech",-11.117315389086732],["partisan",-11.117637803598768],["fren",-11.117846591587664],["Mak",-11.118675157143262],["Live",-11.119369816814256],["ww",-11.11950782658472],["siècle",-11.119539065619172],["numéro",-11.119539138790582],["conferencia",-11.119539158972444],["accusation",-11.119572384837412],["blood",-11.119579139051922],["dispositivo",-11.11966031623253],["docente",-11.119753842881485],["monument",-11.11978868242115],["Ryan",-11.12026216128579],["luxe",-11.120364223786567],["denunci",-11.120709443360987],["ética",-11.120780388038305],["erreur",-11.121099562649405],["ubicado",-11.121113679553497],["Camero",-11.121178882260391],["registrado",-11.121390997637981],["statut",-11.121678039779688],["investor",-11.121694921214235],["phy",-11.121716198720243],["Johan",-11.122044060096858],["graph",-11.122153233334647],["discover",-11.123237146655768],["arriver",-11.123273139035259],["finir",-11.123771804449005],["agradeci",-11.123856340597328],["III",-11.12395081655186],["talló",-11.1243674531996],["Academ",-11.124660552065876],["surance",-11.124770751390722],["achieve",-11.124848923697686],["verbeter",-11.125176325750012],["brutal",-11.125205898015375],["carrie",-11.125962651309749],["utilizar",-11.126800701183644],["pray",-11.127408606931985],["entendu",-11.127687117401301],["Miam",-11.128849177257369],["resolu",-11.128884934098881],["maatschappij",-11.129415550044754],["izquierda",-11.129415551975958],["YouTube",-11.129418510689064],["Rafael",-11.129420963604181],["entraîneur",-11.129423800244503],["championnat",-11.129428280142687],["vuur",-11.129535736274253],["Utrecht",-11.129584770201875],["beginning",-11.129587470906333],["defense",-11.129635348424475],["arbitr",-11.129965920870923],["installation",-11.129972692460939],["craft",-11.129998667378176],["coraz",-11.130171672461007],["haga",-11.130419170192079],["elected",-11.130972457783955],["missile",-11.130996933097874],["angst",-11.131388751796376],["jouw",-11.132093898820548],["objeto",-11.132461453295566],["hacía",-11.132492074417264],["installé",-11.13309352309842],["garantizar",-11.133445221824843],["reció",-11.13351705572122],["betref",-11.133919683708683],["ístico",-11.134227608180817],["church",-11.134460923687207],["District",-11.134656401562502],["Angel",-11.134804541932658],["leeftijd",-11.13505238753993],["syndicat",-11.136083952673378],["Norte",-11.136461255537824],["ducation",-11.136479256632285],["collega",-11.136764649566924],["procur",-11.136949443330426],["krui",-11.13698908765791],["ondation",-11.137780348327672],["comprendre",-11.138270248935875],["énergétique",-11.13939067444247],["kwaliteit",-11.139390710776972],["dochter",-11.139393256733465],["Management",-11.139393365944649],["propiedad",-11.139396313284209],["negative",-11.13939943693833],["comercio",-11.139406874689758],["privado",-11.139418333180485],["Christmas",-11.139456101057961],["900",-11.139879249653283],["succes",-11.139968692615394],["winner",-11.14033946488904],["contraire",-11.140910619031466],["lukt",-11.140930171943388],["franchise",-11.141275514688395],["Brand",-11.141833121734798],["acusado",-11.143300544446902],["épreuve",-11.14383775649894],["voz",-11.14441036549277],["•",-11.144415800009174],["minimum",-11.14441592611328],["croissance",-11.144431314067251],["approve",-11.144616893278908],["consommation",-11.144648764159228],["Misschie",-11.144713286946859],["fermé",-11.145225938707785],["vivo",-11.14524488043613],["aclar",-11.145297005839762],["brind",-11.145995647290613],["employment",-11.146367492004078],["2025",-11.14644432247838],["mega",-11.14695155837977],["consumer",-11.147019902398249],["Pap",-11.147273335578753],["conduit",-11.14739221409637],["manifestant",-11.147534236275781],["domicilio",-11.147651850141738],["publicado",-11.147989937717748],["melding",-11.148019403854594],["generation",-11.148071345033683],["usine",-11.148112469983172],["Bob",-11.148420818529463],["nader",-11.148478210984784],["asumi",-11.149091147157222],["couleur",-11.149293553117598],["quatrième",-11.149466311361655],["Occident",-11.149466322640112],["pantalla",-11.149486707842108],["dubbel",-11.14949497759022],["crucial",-11.14952736570486],["lokale",-11.14959452736991],["cerrar",-11.149912436149465],["Times",-11.150356259290001],["sosten",-11.15091835809129],["Sobre",-11.151093594535663],["roz",-11.151192548920495],["murder",-11.151476620679443],["expens",-11.151477813700517],["erhaps",-11.1515100189431],["actualidad",-11.15152637888572],["sancione",-11.15273221921155],["negro",-11.153274495546565],["display",-11.154355402276995],["console",-11.154513726599745],["velocidad",-11.154542799324524],["strength",-11.154543073098958],["museum",-11.154544364169242],["Tijden",-11.154551432243949],["occupe",-11.154593899370433],["zuid",-11.154646289458977],["witness",-11.15467591719187],["royal",-11.154743368850191],["vitesse",-11.154894085700638],["bilan",-11.155163940788702],["wave",-11.15545724262467],["vaya",-11.15548397060477],["parlement",-11.155750930703572],["weight",-11.155833578681566],["contrario",-11.156200747272589],["Mauri",-11.15636906515255],["sumar",-11.157336147327207],["fence",-11.1579685681173],["agencia",-11.158548893778192],["titud",-11.159435099425846],["verra",-11.159540308175071],["difference",-11.159644498422193],["Cristin",-11.159671827371671],["décédé",-11.159699551517836],["College",-11.159704288818038],["tombé",-11.159883394610114],["master",-11.160190218909197],["trás",-11.16040291256672],["provision",-11.160714537982592],["parking",-11.160927393697552],["pronto",-11.161508246013048],["achete",-11.161810538596374],["allemand",-11.161942444419957],["politici",-11.162022427308862],["conclusion",-11.162528109414755],["ône",-11.162656133401446],["cultiv",-11.163019942337824],["princip",-11.163544121831633],["llena",-11.163569189372089],["goud",-11.164379236097215],["célèbre",-11.164772693606139],["horizon",-11.164783625547805],["stemming",-11.164806566994155],["advies",-11.165127606015176],["bestuurder",-11.16516810275493],["terreno",-11.165366215573027],["estilo",-11.16594272454935],["transaction",-11.166153685754935],["tafel",-11.166398679937412],["liquid",-11.166414626747331],["nacionales",-11.166666165076672],["Ferrar",-11.166687325745638],["ificación",-11.166978949251419],["Esc",-11.168031054226034],["durée",-11.16815493820692],["explosion",-11.168243599871042],["stijging",-11.169170103323372],["locate",-11.169447919255967],["herida",-11.169516055046453],["électoral",-11.169964888209247],["BTC",-11.170043345564356],["effectué",-11.170162764932186],["margin",-11.170172919343852],["bloed",-11.170192312334937],["señor",-11.170253221964842],["plicación",-11.170574528809883],["liefde",-11.170626856707813],["quasi",-11.170691944861368],["querido",-11.171289127515115],["psycholog",-11.171309453162609],["nutri",-11.171336104522176],["acquir",-11.171672040456746],["organiser",-11.171859806564854],["joy",-11.172073088507613],["prévoi",-11.172150605083676],["expertos",-11.17216800567994],["recuperar",-11.173210081801301],["yester",-11.173695096453637],["mainten",-11.174019555495386],["droga",-11.174238055576474],["razon",-11.174548502953456],["Oct",-11.174551193973052],["siglo",-11.17458877531346],["época",-11.17470896336598],["Pública",-11.175108680164989],["histórico",-11.175108734227987],["infraestructura",-11.175109822482497],["domicile",-11.175110335524916],["matériel",-11.175113737271033],["rápido",-11.175123577503486],["verplicht",-11.175128134699207],["Alexander",-11.175254602544328],["jeugd",-11.17528863855476],["purpose",-11.175343319142314],["Mexic",-11.176059576424672],["Educación",-11.176474907353818],["2007",-11.176765217861815],["Holland",-11.17696930159022],["laissé",-11.177196456324243],["Trois",-11.177653503229077],["adresse",-11.177740273449494],["primari",-11.17876358153767],["Audi",-11.179402689894436],["registrar",-11.180224629589137],["perspective",-11.180317028822422],["stratégie",-11.180317083722576],["entrepreneur",-11.18031709018253],["doubt",-11.180342570173657],["Regional",-11.180401955263278],["impossible",-11.180428156599286],["dialogue",-11.180473836001056],["advance",-11.180505259425402],["passenger",-11.18065499286187],["actif",-11.180665163738318],["envoyé",-11.18079534981373],["suisse",-11.180892616465343],["meisje",-11.180894375339431],["artikel",-11.181421356264071],["attach",-11.181468353131685],["esposa",-11.181979304721157],["HO",-11.1820411352082],["2030",-11.1826601142278],["cabinet",-11.182941027951163],["secretar",-11.183386175030488],["fusion",-11.183994357642131],["visitante",-11.184036114617586],["intentar",-11.184616733763654],["Asocia",-11.184644857870698],["publi",-11.185144625593896],["geschiedenis",-11.185552614978958],["eléctrica",-11.185552618645453],["moitié",-11.185556643263098],["Global",-11.185564308864057],["cultuur",-11.185591768699101],["Philippe",-11.185634632475075],["troupe",-11.185887779811338],["Partido",-11.185977632532481],["verlies",-11.186786523256217],["actuar",-11.186992206677163],["Quant",-11.18704911223429],["reclama",-11.187079737476797],["uniform",-11.187719676834782],["défini",-11.18780632611758],["corta",-11.188112730230852],["Other",-11.188269254010153],["solicitud",-11.188404279301585],["laisse",-11.188736511924557],["admir",-11.18984462435144],["NAVO",-11.190816851186826],["exhibi",-11.190826724054505],["Sinds",-11.190841318488912],["sprong",-11.190891131644364],["Wood",-11.190894268634732],["gender",-11.19091866788753],["Laurent",-11.191032131341888],["esprit",-11.19124010666987],["travailleur",-11.191972441396302],["recuerda",-11.19217433853498],["paga",-11.192689598923204],["Dios",-11.192794905723979],["salario",-11.193041871985638],
[...]
