{"version":"1.0","truncation":null,"padding":null,"added_tokens":[{"id":0,"special":true,"content":"<UNK>","single_word":false,"lstrip":false,"rstrip":false,"normalized":false},{"id":1,"special":true,"content":"<SEP>","single_word":false,"lstrip":false,"rstrip":false,"normalized":false},{"id":2,"special":true,"content":"<MASK>","single_word":false,"lstrip":false,"rstrip":false,"normalized":false},{"id":3,"special":true,"content":"<CLS>","single_word":false,"lstrip":false,"rstrip":false,"normalized":false}],"normalizer":null,"pre_tokenizer":{"type":"Whitespace"},"post_processor":null,"decoder":null,"model":{"type":"Unigram","unk_id":0,"vocab":[["<UNK>",0.0],["<SEP>",0.0],["<MASK>",0.0],["<CLS>",0.0],["s",-2.7997269945586396],["the",-3.358462771754244],[".",-3.3915930510912133],[",",-3.4658578350288707],["a",-3.6989382534707964],["to",-3.8973433289940953],["and",-4.074205530773131],["of",-4.111254872835648],["in",-4.202493763157957],["ed",-4.24970645105719],["ing",-4.405796991487337],["d",-4.465258398119818],["t",-4.467236532040788],["y",-4.546087583487484],["e",-4.559594093015999],["on",-4.72357537735869],["’",-4.828868192583977],["-",-4.859405235377274],["is",-4.890490059216818],["ly",-4.928050626775608],["that",-4.969918945887239],["for",-5.003256198881097],["o",-5.066580227794429],["I",-5.119663858082305],["The",-5.169589271856948],["be",-5.2318495191492005],["with",-5.263665628140394],["it",-5.2783951492288015],["n",-5.2922484073773095],["“",-5.42048023061578],["was",-5.47321848665341],["at",-5.497146127293922],["are",-5.516401080669777],["'",-5.571890241915513],["an",-5.6273392959887065],["aid",-5.648362745836275],["have",-5.694309745875284],["has",-5.794478234652804],["he",-5.8469693427521],["i",-5.848094844228818],["from",-5.854600012995856],["by",-5.872732828625612],["will",-5.920289389738366],["\"",-5.941364764691162],["r",-5.943417395711521],["or",-5.987273802875027],["not",-5.999572506045695],["this",-6.060553146902839],["m",-6.072115096290089],["A",-6.100852971684256],["his",-6.119819470300516],["we",-6.133780838262629],["er",-6.1630080343667455],["you",-6.163796079814631],["their",-6.21609591299282],["out",-6.216614361129086],["S",-6.24237438806853],["one",-6.269187962336659],["who",-6.3215993734374685],["but",-6.34039761730603],["re",-6.34198062963614],["been",-6.353474928255977],["her",-6.369738716202152],["l",-6.370077949698404],["can",-6.372730515238537],["ies",-6.392101805704398],["up",-6.399739281935819],["all",-6.414655233726181],["b",-6.452134301790011],["were",-6.454083145485827],["(",-6.456535656967654],["they",-6.458850956375688],["had",-6.4590451486398734],["more",-6.461161169072938],[",”",-6.4787252806347535],["h",-6.509081330898114],["p",-6.532973334889224],["also",-6.549619001957986],["people",-6.5531953230736875],["about",-6.559964502210448],["other",-6.561579632547565],["19",-6.57040118267264],[":",-6.587466955311751],["al",-6.594746576851723],["time",-6.608123033062958],[".”",-6.6150443290682315],["which",-6.650044804954602],["like",-6.722248810022755],["year",-6.730646845673725],["In",-6.737429105176416],["”",-6.741301386631957],["would",-6.751692521967071],["our",-6.762773582247808],["new",-6.774839977898175],["c",-6.776654890483806],["over",-6.781919146699735],[")",-6.786338497575622],["20",-6.787630150244951],["We",-6.798670156978956],["day",-6.819250290236294],["He",-6.824636514641526],["when",-6.841151670023303],["f",-6.859710270982731],["after",-6.8625677857161715],["she",-6.868829600081501],["us",-6.877240827351896],["there",-6.88909761780306],["C",-6.891685704107685],["what",-6.939050456742553],["$",-6.943033768984254],["1",-6.943693896473031],["than",-6.943762349192076],["some",-6.9455427163525725],["if",-6.954858210292312],["?",-6.963475572846839],["get",-6.973883128184117],["now",-6.978723595105245],["able",-6.979642755263973],["its",-7.000428524025018],["just",-7.001636135785126],["first",-7.039929808827992],["two",-7.048958001084723],["M",-7.053942540142913],["—",-7.076248777598111],["my",-7.080496170097941],["them",-7.086345261695114],["how",-7.089016965116685],["cause",-7.097060373381489],["back",-7.099794130873125],["any",-7.106417414488934],["T",-7.109859136900355],["work",-7.120236601398964],["2",-7.133128958457972],["him",-7.136281386908579],["un",-7.14221494544854],["need",-7.142630303722716],["g",-7.148533969384874],["most",-7.161134112940672],["k",-7.181371090194196],["This",-7.1820122542513785],["your",-7.202177521695224],["But",-7.210997635512461],["state",-7.2110616653445545],["could",-7.215908406632437],["u",-7.2314514037149715],["w",-7.235624764050972],["last",-7.239433312533631],["man",-7.243691008468807],["B",-7.255784090385235],["ever",-7.261196727694599],["take",-7.301617169204561],["U",-7.306484494055247],["hose",-7.309052597179155],["whil",-7.314620332700432],["through",-7.317140253926379],["ve",-7.320123991774483],["3",-7.327180236233428],["R",-7.3310328074159825],["want",-7.341493893639557],["way",-7.343500825162174],["during",-7.3497462094616255],["W",-7.351945700612203],["me",-7.355910521177904],["end",-7.3607348642800705],["well",-7.372164685368813],["make",-7.3752767658388665],["being",-7.37870781503638],["P",-7.383201099787656],["where",-7.389688685749542],["go",-7.396885777479821],["D",-7.397525230657331],["home",-7.40101971617652],["every",-7.406708913248776],["see",-7.41032568962589],["help",-7.415394218268303],["many",-7.417562851982071],["government",-7.423265951889285],["going",-7.428161910253678],["4",-7.42863062187285],["high",-7.4336919209911505],["call",-7.434476214381939],["come",-7.44217467965038],["even",-7.442652996767049],["000",-7.442875000708733],["N",-7.443793427993544],["play",-7.445006609328593],["th",-7.44598193253243],["E",-7.45213309542455],["COVID",-7.45227037278604],["before",-7.455277546184586],["F",-7.457652769071801],["5",-7.466555552033599],["look",-7.468739858377814],["per",-7.4719952752683545],["game",-7.478960513746605],["down",-7.479787282960598],["years",-7.479948755164487],["long",-7.503397947438891],["health",-7.508249806835531],["–",-7.510046061767097],["into",-7.518010649656286],["should",-7.519719241580647],["real",-7.524764181124257],["start",-7.527167309542342],["off",-7.5275515083386155],["know",-7.533518055107157],["week",-7.537828334578387],["agains",-7.552728111145871],["Trump",-7.557410577003139],["And",-7.57685752266534],["test",-7.578653842730186],["made",-7.581383125224995],["L",-7.582003917068315],["%",-7.584871382929363],["under",-7.588829634029711],["thing",-7.588911273847949],["coronavirus",-7.59072062682538],["O",-7.591782637119756],["part",-7.595855708503256],["still",-7.599797504987315],["‘",-7.60118950341814],["use",-7.602681579133251],["three",-7.6144615701880225],["2020",-7.620381869010714],["G",-7.6220132883895175],["old",-7.623791519812454],["H",-7.636518840431968],["very",-7.647713693329923],["place",-7.655555539827665],["10",-7.658166336988014],["these",-7.660997706759118],["may",-7.663662747565239],["She",-7.671073683087069],["6",-7.672216968321642],["le",-7.674707865421333],["K",-7.683932191025826],["ce",-7.684632526732028],["million",-7.685613936783043],["show",-7.687758466933253],["support",-7.699197869170542],["country",-7.703674196362374],["good",-7.708120144087325],["ity",-7.709632753825672],["pandemic",-7.710983817683548],["point",-7.721270050455082],["number",-7.722805883338442],["much",-7.722958021886726],["team",-7.727210573236221],["right",-7.732419907501669],["think",-7.733010028296278],["cases",-7.733364738396465],["New",-7.733833253754344],["There",-7.734017351813288],["/",-7.735520345013036],["says",-7.738132860008231],["school",-7.741560431510256],["around",-7.751021219624344],["public",-7.753273255759222],["season",-7.769739201660321],["business",-7.773886790955819],["continue",-7.786042884820577],["add",-7.7874921680248566],["such",-7.789994146589122],["8",-7.792114299371057],["If",-7.793634730292632],["world",-7.796028648011644],["since",-7.804309724832874],["less",-7.806879308796992],["close",-7.808919535295556],["life",-7.813953680935779],["7",-7.814053862383501],["police",-7.820574875016574],["did",-7.8227157700635646],["own",-7.823311728345391],["self",-7.828860453167047],["change",-7.829728458239002],["0",-7.83566306611256],["communit",-7.840176072082822],["company",-7.845168887564431],["service",-7.847758000362244],["don",-7.861598108571581],["family",-7.86299505050949],["lot",-7.865207004657739],["That",-7.866081054587316],["ment",-7.8721830179142],["came",-7.876437371294722],["ll",-7.883144780497126],["including",-7.883729664988222],["say",-7.884625282875621],["issue",-7.885618432579947],["How",-7.886069529533606],["person",-7.887845811569175],["As",-7.889164812116678],["ers",-7.899061554416516],["next",-7.914786838758794],["am",-7.915007954856858],["9",-7.915092936047311],["head",-7.916170620604242],["For",-7.927747117996189],["ready",-7.933112397058961],["ic",-7.939995286590446],["second",-7.944003129357282],["So",-7.951140835738266],["est",-7.956261534805603],["told",-7.959180971492753],["etween",-7.961085454492582],["both",-7.965919664497437],["Mr",-7.969897662636508],["same",-7.972009279572997],["care",-7.984255490816147],["group",-8.000331984848508],["ember",-8.003902048422361],["allow",-8.006278105478579],["v",-8.007716273492484],["great",-8.008911470897221],["student",-8.011107888098007],["um",-8.014297751738885],["30",-8.016879154295395],["You",-8.01789589228579],["ary",-8.020720455821557],["open",-8.024816222381098],["plan",-8.026692411689826],["social",-8.029026101593303],["current",-8.033168804907842],["got",-8.038676046785238],["On",-8.04250008357571],["keep",-8.045886509362973],["few",-8.047471737980196],["ear",-8.050923491967861],["order",-8.056808247746329],["President",-8.062381723539536],["night",-8.062589193841326],["each",-8.06515769227924],["base",-8.06622610318346],["put",-8.067315750707934],["remain",-8.069082467932661],["low",-8.075696796612776],["recent",-8.07582084952891],["ask",-8.077592320044264],["result",-8.077735509502759],["return",-8.080275725484666],["virus",-8.086234845692221],["coming",-8.0914186133273],["15",-8.092174122463334],["side",-8.09597491269388],[";",-8.101323307643415],["different",-8.101326855832337],["line",-8.1034562020274],["election",-8.104631818582547],["case",-8.10463837177592],["though",-8.105092302713174],["Friday",-8.11004310797794],["love",-8.110889629297604],["report",-8.111690639532707],["face",-8.111878042923816],["US",-8.112466635176808],["ive",-8.112780898999056],["best",-8.114190233282512],["president",-8.124323703432633],["four",-8.125547613185706],["month",-8.128328539462506],["near",-8.128544825392433],["try",-8.129318267025283],["!",-8.13772985381203],["found",-8.137914644533193],["include",-8.143437786411758],["z",-8.148603581362586],["market",-8.154783196776421],["city",-8.157168493907482],["16",-8.158640597933992],["here",-8.159153451296831],["local",-8.160561363863419],["11",-8.162432399654808],["ance",-8.167733036991034],["across",-8.17116762481129],["American",-8.17451308457278],["To",-8.17480605220048],["co",-8.179922517215822],["provide",-8.183707101122053],["reported",-8.185125971670873],["release",-8.189095091708314],["When",-8.19067875781159],["special",-8.191975779146706],["give",-8.192960816952082],["event",-8.19668249436441],["far",-8.196823674950394],["State",-8.198298716173333],["De",-8.198556392911659],["due",-8.204892685783117],["12",-8.206728979988625],["age",-8.212029758211218],["land",-8.217264461443612],["V",-8.221632884161744],["large",-8.224583731158456],["mean",-8.229338666458979],["An",-8.230058391694097],["14",-8.231939178637042],["left",-8.233406819600962],["system",-8.246683743622384],["price",-8.248655688120815],["according",-8.250213803680793],["hour",-8.253820958146948],["turn",-8.25486498633175],["full",-8.256127175545558],["working",-8.258529000531766],["move",-8.262975828795879],["live",-8.265554867138711],["Al",-8.26606932293252],["level",-8.266140662702973],["never",-8.269843873188648],["…",-8.269957073797404],["17",-8.272179706637758],["post",-8.27286256628928],["ation",-8.277029115332411],["something",-8.27836954930887],["term",-8.285634712843105],["ion",-8.289631436119173],["J",-8.290260331719244],["feel",-8.291054141585256],["big",-8.291400319679347],["ook",-8.292296957984242],["Monday",-8.293506545711853],["What",-8.293550086164652],["share",-8.294746827600598],["hard",-8.296638318628206],["quarter",-8.297424749799745],["better",-8.299979520324289],["car",-8.301419529927074],["until",-8.30401916086712],["believe",-8.304476720212117],["een",-8.311481529288233],["ness",-8.31401916982575],["statement",-8.317113896662377],["21",-8.318572660166467],["record",-8.319933395047595],["talk",-8.320157602799767],["children",-8.324064324927708],["final",-8.324523167410756],["things",-8.32529863991381],["must",-8.326128671380449],["ar",-8.326571125505092],["didn",-8.328295068274832],["might",-8.331009299455847],["months",-8.332974035500593],["run",-8.335379379082351],["win",-8.33539139000364],["With",-8.34047326239808],["film",-8.34116798099],["away",-8.341239127626585],["does",-8.345349184056442],["increase",-8.347380734834228],["men",-8.347985924812662],["five",-8.348711613835187],["ten",-8.350145639740692],["past",-8.350708160950479],["No",-8.354134832295152],["total",-8.356768767546573],["China",-8.357235357974751],["force",-8.357879503932148],["power",-8.358896461911485],["law",-8.360361354825145],["County",-8.36040724321262],["wh",-8.361006240307265],["alway",-8.362849189591676],["gan",-8.363259982755626],["hospital",-8.364031683212886],["claim",-8.364050659566907],["50",-8.364975391429626],["March",-8.36743943313976],["body",-8.367996713184123],["air",-8.37153891361692],["top",-8.372399465342738],["information",-8.373338072815109],["question",-8.375557295828777],["Whil",-8.375563806348612],["members",-8.376086871171559],["deal",-8.377136347466628],["Thursday",-8.384133899950477],["important",-8.387030496147766],["officer",-8.387811523999762],["stay",-8.387819042460691],["find",-8.394643225174809],["positive",-8.394795054929858],["South",-8.394938666571623],["become",-8.395112201336698],["decision",-8.395719821460672],["13",-8.396264033190338],["pay",-8.398766878637511],["risk",-8.399266353088832],["&",-8.400099388468194],["making",-8.401744633764888],["spread",-8.403302516191408],["media",-8.40762414195612],["again",-8.412802072785322],["went",-8.41414746514874],["Tuesday",-8.414838146465712],["won",-8.416644251177583],["Health",-8.417816198633684],["water",-8.417965644292675],["ial",-8.418605412113797],["Sunday",-8.422509338645819],[").",-8.424140036013295],["Saturday",-8.425285906604152],["food",-8.428294946984114],["vote",-8.431143674830414],["hit",-8.431981869735692],["women",-8.434559679795417],["project",-8.435556111681219],["hav",-8.436789910214],["later",-8.436916707174262],["money",-8.4375896638439],["resident",-8.438335725553216],["former",-8.439909060525757],["stock",-8.444230065527627],["little",-8.449585990610316],["experience",-8.450122547298083],["small",-8.450745812374848],["Re",-8.45092461293595],["ch",-8.453076295367094],["fund",-8.45353353302568],["staff",-8.45421664144073],["together",-8.456533794141158],["future",-8.457300962004924],["cent",-8.458296075076962],["One",-8.460903825294878],["ish",-8.462505968957842],["concern",-8.463516873610871],["death",-8.464228339526375],["clear",-8.467428028161189],["wide",-8.47084430838224],["national",-8.471239158716488],["ally",-8.474988005477607],["six",-8.47966910901431],["free",-8.482271778266089],["24",-8.4835663304236],["shares",-8.490879906544777],["Wednesday",-8.491977261896281],["happen",-8.494348559132064],["25",-8.495842919297434],["United",-8.496791902595875],["mask",-8.501620827434017],["action",-8.502101628106413],["worker",-8.50725296544729],["court",-8.507689698033673],["process",-8.507752389338254],["All",-8.513583511501597],["leas",-8.515837116646264],["X",-8.518085285705968],["several",-8.519082217496381],["St",-8.522030487201231],["taking",-8.522062024091396],["along",-8.522237418633335],["video",-8.524833887836138],["18",-8.526774719683551],["Be",-8.526944126935032],["announced",-8.529122033870838],["sure",-8.529845109784775],["sign",-8.531069503081211],["late",-8.531314104111036],["position",-8.535718666050157],["May",-8.537231837609895],["house",-8.537833431499504],["ship",-8.541322714701009],["led",-8.541828850070672],["reach",-8.54425242672007],["office",-8.545618796101186],["given",-8.54639213467561],["young",-8.547257137994304],["series",-8.548776506305725],["consider",-8.554517970256391],["let",-8.555796831457949],["officials",-8.559728523772673],["political",-8.561031526922964],["program",-8.561852427164974],["weeks",-8.56243508042279],["After",-8.565161964119271],["National",-8.565613763731076],["online",-8.569304735632262],["doesn",-8.571395036131154],["Dr",-8.573180906383843],["),",-8.573900426146182],["field",-8.575452161841957],["taken",-8.575993619851054],["light",-8.576213175726384],["nough",-8.577820991971715],["receive",-8.578090534013642],["seem",-8.579690499340867],["today",-8.58068078990048],["data",-8.581916040924309],["campaign",-8.584324692176459],["possible",-8.584360869174308],["lead",-8.5850453663482],["half",-8.586263830404658],["hope",-8.589516568484129],["period",-8.591386262423548],["watch",-8.591419308084033],["Police",-8.593170658333456],["among",-8.595135779932303],["players",-8.596100721541305],["using",-8.599531296120656],["board",-8.603720878648055],["hi",-8.603733133749177],["third",-8.603878130329171],["avail",-8.604005623785984],["whe",-8.60738041442362],["problem",-8.607457455506541],["further",-8.607482011156492],["rate",-8.608156690143403],["party",-8.615153184502725],["fire",-8.620974422909676],["York",-8.621966470581789],["kind",-8.62304160644236],["strong",-8.623792914937628],["effort",-8.625627894198942],["Covid",-8.627461079442977],["job",-8.627712134453123],["yet",-8.628790913202202],["ball",-8.63061781657034],["short",-8.630715238434782],["ber",-8.631368786390855],["cost",-8.636044201273675],["complete",-8.63630557613559],["impact",-8.642511672780511],["fall",-8.643059762862517],["Biden",-8.644146770902974],["pass",-8.645267431182265],["hold",-8.647547559109906],["100",-8.647636983836602],["deliver",-8.64821619396166],["City",-8.64889600651663],["Nov",-8.65282590117379],["attack",-8.652978175822152],["200",-8.655726371270507],["buy",-8.656689177585807],["list",-8.659923749392547],["interest",-8.66028551684423],["fight",-8.661177582246182],["measure",-8.664618634855422],["following",-8.666459437332989],["fact",-8.666839056452263],["leader",-8.667707498346896],["offer",-8.667996181622966],["House",-8.670070204055099],["grow",-8.674324570469906],["create",-8.678292533885681],["lockdown",-8.67850110041189],["Black",-8.680660891837258],["ex",-8.6840749674336],["situation",-8.684130764320106],["done",-8.686058974431791],["economic",-8.686677718611286],["trade",-8.687809325846267],["percent",-8.690375463210925],["appear",-8.695854760933798],["course",-8.695878941178114],["Co",-8.696753053534344],["meeting",-8.698780169519507],["travel",-8.69929876840606],["direct",-8.699431270759643],["bring",-8.699679294891757],["visit",-8.699758503943485],["confirmed",-8.700373077051577],["security",-8.702223066394756],["actual",-8.702458990189164],["die",-8.703654212812701],["focus",-8.703759317559069],["spite",-8.70415237049902],["act",-8.705446074345673],["ago",-8.705889840055471],["held",-8.706537259455907],["nation",-8.70753010448718],["previous",-8.70773035623899],["wear",-8.708876434347678],["industr",-8.709527227554382],["West",-8.710141183246945],["major",-8.711066606757733],["Universit",-8.711909969301638],["expected",-8.712422230389748],["front",-8.715169839670283],["role",-8.716328631572459],["known",-8.717275544443098],["tell",-8.721369255759772],["protect",-8.721491950437178],["opportunit",-8.721758610855874],["woman",-8.723954839095404],["im",-8.727995202671842],["official",-8.728149224744566],["Apri",-8.728878985648194],["limit",-8.728945934955334],["challenge",-8.734891767695352],["Minister",-8.735991687962304],["My",-8.736996991968322],["human",-8.738611464786043],["Some",-8.7391614527314],["potential",-8.740089062527836],["matter",-8.740152644882787],["shot",-8.740737489160995],["June",-8.740750682804924],["According",-8.742146671827864],["safe",-8.743014158241127],["forward",-8.744283338104411],["companies",-8.746241962759417],["rating",-8.746768234977502],["thought",-8.747477945311449],["present",-8.747718159095506],["outside",-8.748099278122606],["40",-8.749882000164824],["contact",-8.750421691702279],["name",-8.750433395810397],["billion",-8.750582443566781],["certain",-8.751695446194729],["moment",-8.752563992217912],["Y",-8.755228894596025],["North",-8.755978632503844],["India",-8.757926035194314],["war",-8.76107808549568],["kill",-8.765802282369453],["econom",-8.766437420953677],["patients",-8.766936940822315],["quick",-8.767200346980644],["worth",-8.76728208790206],["control",-8.770580443058083],["fans",-8.77146078115625],["space",-8.771818676264637],["Dec",-8.773124689207716],["story",-8.774300602811614],["con",-8.77695831051701],["building",-8.778712361215108],["average",-8.779999258068512],["bit",-8.780705726304559],["parent",-8.782565823023583],["once",-8.791449254240817],["ha",-8.801217628785002],["saying",-8.802859766940916],["22",-8.803982386515852],["book",-8.805205240852153],["research",-8.806207464970049],["value",-8.806635929275465],["launch",-8.808128280387475],["00",-8.8099217242654],["dollar",-8.812548630976064],["response",-8.813089329891799],["mov",-8.813996701387106],["require",-8.816199618807728],["store",-8.817979768352732],["ur",-8.818061606875883],["condition",-8.823656087541668],["deaths",-8.823700180137042],["star",-8.824883570222736],["financial",-8.825886524626274],["medical",-8.826132643513024],["reason",-8.827322031766217],["form",-8.828316434950153],["director",-8.829745406099235],["individual",-8.830375867989371],["morning",-8.830378310153744],["main",-8.831961785532702],["behind",-8.832684971124532],["product",-8.832762480286478],["2018",-8.834142941295333],["drive",-8.83660792093638],["stop",-8.837056163766295],["target",-8.837170804591526],["demand",-8.837187391815078],["countries",-8.83720558682098],["Sept",-8.839655694734777],["bar",-8.840583531687654],["crisis",-8.843967338792584],["address",-8.844338286742829],["join",-8.844407530396547],["news",-8.845071151002845],["bank",-8.849549033091645],["Department",-8.850831496407611],["walk",-8.853099049837645],["ful",-8.85373685696149],["Z",-8.855371684862053],["entire",-8.855443261053264],["couple",-8.857747508816434],["movie",-8.859247383678717],["abilit",-8.859386103063365],["develop",-8.865876620039916],["room",-8.86594327918895],["town",-8.866192315758314],["additional",-8.872828338397468],["date",-8.87340541300707],["ves",-8.873470531645577],["lives",-8.873530661133614],["lost",-8.877003093832261],["global",-8.878777145911718],["history",-8.879219901883495],["round",-8.880574545188313],["arrest",-8.88142286404446],["access",-8.88300331805795],["comment",-8.883758794749305],["account",-8.88632894519577],["cut",-8.888596214632287],["employee",-8.890681227831166],["general",-8.890750859365937],["ther",-8.891193711084266],["check",-8.893595168973153],["learn",-8.893919225694042],["times",-8.894052632195201],["leave",-8.894296712340434],["ley",-8.896028871219407],["TV",-8.899548058302667],["recover",-8.900098196062437],["Democrat",-8.902562815968455],["personal",-8.90490892125159],["key",-8.906231341770695],["often",-8.909635448286842],["development",-8.910117258618396],["app",-8.91105843790565],["race",-8.914675540279005],["wait",-8.917452307950438],["count",-8.917520101909219],["customer",-8.918253126623268],["saw",-8.918329236097248],["character",-8.91997830101009],["America",-8.922117768815585],["benefit",-8.92220657068323],["design",-8.923480935388055],["vaccine",-8.927149390205711],["stead",-8.93012392569957],["vehicle",-8.932118358588362],["expect",-8.932461183653887],["Now",-8.93438359165826],["option",-8.934572807058895],["explain",-8.934638681982733],["liv",-8.93524185192231],["x",-8.940472597104858],["feature",-8.940628591920788],["vi",-8.943260654948121],["tri",-8.944101053567275],["region",-8.945130200527739],["federal",-8.94717581411919],["site",-8.947343534425123],["read",-8.948855998743639],["friends",-8.948910008902118],["phone",-8.949218562252675],["follow",-8.950307741923769],["Do",-8.95176036395363],["single",-8.952174705959463],["safet",-8.953705500135946],["kid",-8.95761894975616],["outbreak",-8.959047652153648],["candidate",-8.959898260191496],["charge",-8.960304535461077],["etting",-8.963060509468487],["member",-8.96473624251983],["Jul",-8.966086221970027],["source",-8.967648390684179],["Le",-8.968286845768883],["oil",-8.970131176621312],["art",-8.970839332269538],["States",-8.972461955798893],["heart",-8.975968649938139],["Man",-8.977546524187126],["significant",-8.97869846676197],["John",-8.982309279686211],["black",-8.98444373455763],["famili",-8.985025718415766],["ensure",-8.985054496787384],["host",-8.985769552686214],["ither",-8.989733424730588],["Janu",-8.990790811475451],["press",-8.991018636084476],["ier",-8.99302374448791],["pick",-8.993854337936881],["Center",-8.994880533882178],["spend",-8.997377345115801],["miss",-8.999005360251395],["Our",-8.999729456484012],["park",-9.000199896256309],["60",-9.000627799803148],["pre",-9.001569717342822],["earlie",-9.00213298946728],["authorit",-9.002172035880182],["His",-9.004250104271176],["particular",-9.004407979188958],["Mc",-9.009002432981482],["stage",-9.009386214952332],["unning",-9.00963955300897],["UK",-9.0124224474462],["serious",-9.012540067517605],["plann",-9.013446918266492],["23",-9.013843126801419],["someone",-9.01473547479791],["difficult",-9.01517508825134],["activit",-9.015176224751489],["emergenc",-9.018400377463562],["mind",-9.018748603304953],["26",-9.02008729384913],["disease",-9.020642485355589],["push",-9.02081347142568],["rote",-9.022083952554542],["view",-9.023351000852607],["cover",-9.024171044915892],["meet",-9.025402846253407],["international",-9.02615397285912],["club",-9.026210061538308],["arm",-9.02866429973081],["gav",-9.031111067382982],["World",-9.031546786324899],["contract",-9.031773394475405],["bad",-9.033384531839099],["infection",-9.034672955517],["soon",-9.034997166961993],["eight",-9.03679085428682],["child",-9.037033658826903],["rest",-9.0388489052219],["suggest",-9.039567396847923],["private",-9.039855778181138],["senior",-9.042611830176806],["chief",-9.042622583638746],["La",-9.04441099885625],["enter",-9.048092699138099],["executive",-9.048208230434856],["track",-9.048511479520975],["deep",-9.049231375209233],["28",-9.049437940217848],["mother",-9.049725300522852],["Ro",-9.050239520801199],["affect",-9.050716563985667],["operation",-9.052392382265715],["toward",-9.053711167626398],["immediate",-9.053800600132934],["August",-9.053811195509422],["assist",-9.053942894988271],["mid",-9.0548423673243],["protest",-9.055135597013221],["Court",-9.056740605291436],["model",-9.057653554944487],["ize",-9.058518377684234],["career",-9.058812596712121],["Q",-9.059406156784654],["bigge",-9.062350050444762],["interview",-9.062460687871418],["speak",-9.062518575808358],["nothing",-9.062807479221924],["fee",-9.063219024975425],["figure",-9.064177327403542],["White",-9.066838839064465],["ground",-9.06717639922082],["goal",-9.067668006962052],["San",-9.069296049865589],["voter",-9.071640963150044],["ter",-9.07191503479418],["normal",-9.071979739248562],["road",-9.072717263925322],["effect",-9.076259669473199],["chance",-9.077077885462016],["music",-9.080531842842243],["performance",-9.085413922426984],["study",-9.085598902092029],["match",-9.085626383666344],["firm",-9.087947965285819],["restriction",-9.088202076266937],["ous",-9.08901906300181],["27",-9.089533388187835],["amount",-9.08991281626717],["whole",-9.09231386410071],["seek",-9.092561737641507],["player",-9.093593061816499],["girl",-9.093784813987654],["friend",-9.094260879208983],["sector",-9.095863310956219],["School",-9.096910677908715],["Day",-9.0979197484826],["receiv",-9.099221860792984],["understand",-9.105192025667055],["Dur",-9.105302144876404],["Octo",-9.105640864877062],["incident",-9.108836063037518],["states",-9.109037249565045],["People",-9.111703807488187],["attempt",-9.114695934208397],["exist",-9.114743815442395],["message",-9.115791546210428],["break",-9.11603964239509],["agree",-9.116142305057025],["lower",-9.117045213753176],["district",-9.120699797533437],["investigation",-9.120831383130337],["fast",-9.121093699209187],["makes",-9.123044752514861],["white",-9.123895559386927],["wa",-9.124802235481784],["aily",-9.128199441705013],["coach",-9.1284289163804],["else",-9.131777415634783],["Go",-9.132621714124301],["shows",-9.13293074177487],["growth",-9.133737504910789],["father",-9.136840156240037],["Chief",-9.138900844177417],["expert",-9.13890604396403],["detail",-9.138913986109777],["Ka",-9.140937009786814],["victim",-9.145040206667005],["decade",-9.145040253563572],["Park",-9.146004058971275],["31",-9.1471687087502],["echnology",-9.15036931674629],["essential",-9.151222998262856],["Government",-9.151244104243867],["propert",-9.152057831232039],["practice",-9.154375868296887],["leaders",-9.15722920630861],["relationship",-9.157484268980578],["production",-9.157840926805433],["begin",-9.158075950608215],["review",-9.15839426448365],["similar",-9.160568459211333],["scene",-9.162357586554501],["distanc",-9.162634485677644],["treat",-9.16286599407339],["Donald",-9.16358882431343],["500",-9.165301055035291],["29",-9.166556484940596],["wife",-9.16699868178984],["unit",-9.167049609470897],["Febr",-9.168733172783766],["lates",-9.169373976038415],["Many",-9.171145025149086],["schedule",-9.172855710282992],["example",-9.173181092911626],["reduce",-9.173818491635187],["attend",-9.174987343766578],["ge",-9.176545055555966],["ied",-9.178002253138619],["guy",-9.178442906507932],["quarantine",-9.178747795119158],["ending",-9.179094007908668],["approach",-9.179128687119121],["ent",-9.179679387164832],["conduct",-9.179796343809768],["Even",-9.181393734606889],["qualit",-9.184216347334619],["weekend",-9.186012901944249],["dead",-9.18744105113949],["idea",-9.18792942677265],["extend",-9.188431729947967],["popular",-9.189151690542278],["inside",-9.189926819519947],["training",-9.190697551800818],["legal",-9.19242906999475],["organization",-9.192451035797893],["rise",-9.192473639690661],["education",-9.193746935248344],["respond",-9.19423372840096],["effective",-9.195943525086257],["70",-9.196119411804403],["range",-9.196990506231604],["driver",-9.197568046005824],["reports",-9.20032346807577],["Pa",-9.201509497484642],["Her",-9.203249767649876],["ran",-9.204601804221198],["suspect",-9.205376129368023],["policy",-9.205470364098858],["loss",-9.205968452581692],["uar",-9.206490311453155],["pro",-9.207458494213322],["update",-9.208016109178788],["militar",-9.208675699939665],["platform",-9.208723558545817],["j",-9.208914603698469],["football",-9.208945299702997],["ling",-9.210959793839821],["ham",-9.21822503858394],["California",-9.21855566312338],["request",-9.218928505250727],["administration",-9.21955813113356],["stand",-9.220833259021733],["enjoy",-9.221892986883983],["Bank",-9.222465916969465],["block",-9.223981132506216],["prevent",-9.226342950087433],["ul",-9.227010192084812],["lack",-9.22735364881532],["song",-9.228186096954566],["35",-9.228808927187579],["raise",-9.232137997231671],["card",-9.23349029394557],["ut",-9.2336944643741],["title",-9.233869471128344],["resource",-9.23422757806382],["capital",-9.235051944393497],["summer",-9.235289698172924],["ak",-9.235941193726836],["bill",-9.236769303109924],["minutes",-9.237078946061509],["gun",-9.237264208363342],["score",-9.239541893526837],["Con",-9.240070409020278],["provid",-9.240691239288802],["via",-9.24122763788155],["daughter",-9.242031060222551],["doctor",-9.242048551919684],["others",-9.242267355069853],["treatment",-9.242462202728449],["revenue",-9.242672488120505],["War",-9.243809334885949],["seven",-9.24529900364142],["80",-9.24547409034276],["vice",-9.245883022506753],["tax",-9.247716528588917],["sense",-9.248667244681826],["anti",-9.251217217947456],["represent",-9.251494767696977],["crime",-9.252287703387509],["Service",-9.252293506878482],["Street",-9.252297944403022],["cap",-9.25723892759283],["station",-9.257963208565858],["population",-9.259175407726827],["Mar",-9.259778897652424],["easi",-9.259797722615053],["brand",-9.25996658662569],["energ",-9.260088987282534],["brough",-9.260114442819116],["step",-9.262668021508059],["decided",-9.265235172002896],["Joe",-9.268554053076342],["alleged",-9.26856634254326],["serve",-9.271676121644436],["build",-9.272057917227503],["themsel",-9.272195991212456],["David",-9.273090486175677],["active",-9.273137022388314],["finish",-9.273144026855984],["Chine",-9.273212353725443],["above",-9.27434359428911],["mis",-9.27455136065381],["Nigeria",-9.275079265142221],["ather",-9.27514136823542],["class",-9.276505833572383],["felt",-9.276669428797609],["quite",-9.276951980843315],["street",-9.276973042765615],["link",-9.277200561300074],["Me",-9.277207774887088],["minister",-9.278450727479374],["Bo",-9.278604001949443],["hands",-9.27950631990105],["fair",-9.280566620590921],["Congress",-9.283647361609667],["probabl",-9.283699436841674],["usual",-9.286870965751863],["user",-9.287043963285935],["thousand",-9.2873227458633],["original",-9.288701800897336],["letter",-9.29083754127478],["maintain",-9.294355565179089],["answer",-9.294873232672964],["huge",-9.295687659651719],["Africa",-9.296468970712498],["save",-9.296534927496708],["fail",-9.296873999215862],["necessar",-9.297100189791516],["regard",-9.297829892554947],["piece",-9.297968293454142],["location",-9.301232060433435],["Or",-9.30131563576095],["More",-9.303637003706749],["plant",-9.30438586002314],["met",-9.305957928131242],["aught",-9.305965081644102],["Part",-9.306676342517806],["happ",-9.3077176215383],["trial",-9.308560324581169],["Washington",-9.308737972119093],["Every",-9.311326448167826],["regular",-9.312366954198481],["â",-9.31237431989978],["leading",-9.313565665947628],["pent",-9.313575976073313],["sent",-9.314721048468598],["various",-9.316033263999122],["department",-9.316995293954726],["90",-9.317372277156363],["purchase",-9.31931845033187],["ballot",-9.319949121067282],["conference",-9.320289300752854],["screen",-9.322029499663895],["God",-9.323118369913168],["restaurant",-9.323363430818933],["center",-9.325518221507178],["General",-9.3270863789975],["manage",-9.327158556793059],["trust",-9.328492242245563],["ler",-9.329031743545976],["prett",-9.330964855304877],["Not",-9.332446077191065],["accept",-9.334405366001686],["website",-9.334518293525313],["Pro",-9.335985128516057],["ill",-9.336667882228127],["teacher",-9.338583650463582],["ang",-9.341997192109206],["involv",-9.342577583825765],["roll",-9.34481531474069],["avoid",-9.344961078051426],["episode",-9.345710703058089],["ver",-9.346437070718686],["cast",-9.348902447189499],["damage",-9.34896586658498],["Facebook",-9.349503319299204],["pull",-9.353289858142873],["den",-9.353370796174614],["ism",-9.354661867158253],["News",-9.355221268829656],["tic",-9.356808377931896],["Mean",-9.361539719605414],["Brit",-9.361618810368881],["Sinc",-9.361856218909974],["feeling",-9.362373874345014],["Of",-9.363920917218405],["Ma",-9.36555426500663],["easy",-9.365643319836726],["stream",-9.367838157258351],["virtual",-9.368568813846917],["estimate",-9.369929240044868],["East",-9.370532412937148],["mar",-9.372218975498587],["evidence",-9.372429829654394],["mark",-9.374957508035756],["contain",-9.375016424219234],["actor",-9.375166871480289],["box",-9.375994021614517],["gas",-9.377427219308247],["specific",-9.377430175754565],["Act",-9.377973439703027],["Australia",-9.379058182292258],["material",-9.380199202978467],["capacit",-9.380911012369276],["investment",-9.38435531712329],["injur",-9.387790390037855],["physical",-9.388048830138034],["factor",-9.388543123312296],["common",-9.389862517915288],["border",-9.39003327262448],["produce",-9.390063958558901],["drop",-9.390513021768921],["accus",-9.391077272609746],["£",-9.39196166240697],["African",-9.393590973469593],["High",-9.394914195429507],["cross",-9.395431105522153],["Council",-9.395909763778514],["husband",-9.39591477165165],["page",-9.396301388225528],["table",-9.398214037216963],["payment",-9.400929294592867],["learning",-9.401903519011615],["Green",-9.401965964766827],["true",-9.402559280815215],["ard",-9.402721977063589],["sell",-9.404212246503125],["Ne",-9.404859100339706],["fine",-9.405657229262484],["choice",-9.407890942530898],["carry",-9.407951378151617],["addition",-9.410001740849323],["League",-9.411883835457775],["Group",-9.41188550124124],["threat",-9.41188693431333],["perfect",-9.412029043415364],["flight",-9.4120470460019],["professional",-9.412133989597436],["ways",-9.41279240409164],["success",-9.413097531283704],["environment",-9.418047863406265],["solution",-9.41818419624657],["rules",-9.418265297472425],["ck",-9.419003419036411],["fan",-9.419861867790605],["Twitter",-9.42000151483455],["ja",-9.420003328989614],["Ba",-9.420398186246732],["natural",-9.42404742080367],["hear",-9.425199089568814],["revealed",-9.425949270485203],["com",-9.427889865941712],["express",-9.428101614059088],["imply",-9.428751854022204],["Johnson",-9.428959221195303],["Ho",-9.430169039238345],["file",-9.4310480269076],["Canad",-9.431177369264404],["Public",-9.43220848956506],["standard",-9.432326783991602],["Ex",-9.432768009323969],["ong",-9.434883568028273],["By",-9.43682261585619],["cash",-9.44056882488438],["German",-9.440674904253818],["seat",-9.440923225864871],["creat",-9.441688958516863],["Ben",-9.443830690724653],["gone",-9.445204617125695],["note",-9.445801964126062],["boy",-9.44656247997565],["Ar",-9.447490289622227],["annual",-9.44865943338033],["league",-9.448776282308415],["pressure",-9.44886584432814],["initial",-9.449035252280076],["trip",-9.449960209303976],["continu",-9.449995260136209],["heard",-9.451162698322513],["sound",-9.451255469186005],["slow",-9.45175819581353],["Iran",-9.45290287326386],["Japan",-9.452993886775479],["giving",-9.453149460899391],["grant",-9.453286882194956],["Bu",-9.454246727195265],["respect",-9.456777820211089],["discuss",-9.456900823710466],["wrong",-9.45715987176829],["citizens",-9.457821264399124],["document",-9.458522382564915],["Sh",-9.459767982096107],["supply",-9.461390874195732],["fac",-9.464123290209322],["throw",-9.464600809127498],["fill",-9.46506992744295],["remember",-9.465249812383352],["appeal",-9.465748434371015],["winning",-9.466016930988506],["wood",-9.467217654740253],["words",-9.467751240495287],["speed",-9.470041028036704],["45",-9.471078616409947],["centre",-9.47146939875999],["fear",-9.472487131312251],["involve",-9.473023150393981],["email",-9.474345658798923],["Inc",-9.475639767264989],["Bill",-9.47678833269534],["touch",-9.47719346315629],["Star",-9.47824092081678],["red",-9.478371473960257],["network",-9.478452981346866],["judge",-9.478663540696482],["size",-9.47923683605648],["award",-9.479947871092907],["notice",-9.48083524948218],["European",-9.481588625617604],["Just",-9.48193848886149],["analyst",-9.482752112435493],["Senat",-9.482773814737687],["voice",-9.482813338561726],["From",-9.482938800314733],["jobs",-9.483396049146428],["earning",-9.484124905060625],["buil",-9.484222108914604],["budget",-9.487081118378175],["holding",-9.489536329005015],["door",-9.489649504081942],["content",-9.490194517432666],["tweet",-9.491462073473352],["ban",-9.49275117171818],["Po",-9.492958762287122],["credit",-9.49392474631519],["infect",-9.495372512163158],["Hospital",-9.495789128305177],["battle",-9.498279195283132],["warn",-9.4983136063933],["followed",-9.498705815214517],["mention",-9.499616154561354],["standing",-9.500202327189726],["camera",-9.500572378606522],["artist",-9.500995662249291],["facilit",-9.501535049304312],["item",-9.50183479351881],["version",-9.50439982483638],["vot",-9.505042944999946],["Last",-9.50504408176824],["ach",-9.50545166683871],["loan",-9.505893096799996],["Ju",-9.507997553394215],["improve",-9.508443030835489],["que",-9.508904714796575],["symptom",-9.508974975950125],["sports",-9.50945527372788],["critical",-9.510651911589925],["ji",-9.511201244691055],["Can",-9.51135585744685],["Over",-9.511810961045924],["Sam",-9.512559462022963],["increasing",-9.513449618008678],["surprise",-9.51344966358185],["application",-9.51344970320952],["digital",-9.51398235808893],["encourage",-9.514188939723596],["Ra",-9.514282173058632],["suit",-9.51469897393757],["relate",-9.517266153879065],["college",-9.51791389219786],["Michael",-9.517913939146078],["brother",-9.518058085478486],["Union",-9.518123046785679],["successful",-9.51817043118955],["ster",-9.51821502038555],["stress",-9.51823500377363],["Road",-9.518378757120379],["manager",-9.518842147747574],["ner",-9.518974389646173],["ility",-9.519178577948182],["teams",-9.519895863034513],["sales",-9.519956369088987],["ought",-9.52012195598424],["goe",-9.520416263089327],["lift",-9.520983734498039],["poor",-9.521118188386453],["ca",-9.52228921995085],["publish",-9.522447610397652],["El",-9.526470103585574],["hundred",-9.52690272004304],["London",-9.526935756343313],["aware",-9.528446425736247],["county",-9.528456374671993],["partner",-9.529579426138568],["Indian",-9.530734806925949],["paper",-9.531496251408988],["International",-9.531542618242739],["delay",-9.531614831677786],["kick",-9.531977035347289],["Air",-9.533152376871278],["Di",-9.53441053601633],["tion",-9.53468629396675],["income",-9.534740211457045],["han",-9.534804049510509],["climate",-9.53597306203027],["storie",-9.537071771342402],["Lo",-9.538982353627045],["foot",-9.540027981909438],["Texa",-9.54071035032002],["Paul",-9.540849274625133],["agreement",-9.541036247215985],["extra",-9.54107575793147],["Ga",-9.541442901123467],["ence",-9.542520744494515],["Mu",-9.543824588422629],["crowd",-9.545017868641708],["image",-9.54616393183886],["Scott",-9.546288596280554],["George",-9.549736514789036],["http",-9.549738673515701],["James",-9.549870961447079],["Director",-9.550475614132383],["movement",-9.551320984701594],["opening",-9.553456820440795],["fun",-9.55371523238046],["universit",-9.554364357978539],["Smith",-9.554364947528086],["served",-9.555287536647974],["exchange",-9.555320540213746],["primar",-9.556368236811023],["Am",-9.557666387872535],["register",-9.559015724802025],["gre",-9.559570572029314],["agency",-9.560584167124858],["anagement",-9.561430082336816],["strateg",-9.56279810901808],["shop",-9.563034789986013],["collect",-9.563118475848984],["Li",-9.563193882085944],["hat",-9.563423990363788],["shift",-9.56370798909116],["za",-9.563709129165435],["Prime",-9.563925260718362],["multiple",-9.56465916830358],["violen",-9.566243404220723],["search",-9.566730419175938],["England",-9.56838359238519],["drug",-9.56914729062515],["trad",-9.570787998438828],["Ab",-9.57135861982611],["port",-9.571516776248592],["super",-9.572821648787215],["victor",-9.573104941712732],["spot",-9.573558065572204],["born",-9.573565956440222],["broad",-9.576671294395517],["equipment",-9.577839726058624],["yond",-9.580700214327805],["AP",-9.582572294242887],["attenti",-9.583304084948793],["Bay",-9.583569780845338],["Jan",-9.584460879758431],["overall",-9.585947464689704],["extreme",-9.587386167017984],["Del",-9.58809071821998],["writ",-9.59007735949594],["establish",-9.59180685806985],["haps",-9.592646682123545],["describe",-9.592792460538087],["transport",-9.597051446458536],["exact",-9.597434365513045],["guideline",-9.597479185955944],["rule",-9.597521856757744],["ide",-9.598069391636898],["Ha",-9.59959841461343],["Per",-9.599715794367551],["32",-9.599916698494226],["province",-9.600440903452103],["Republican",-9.600568972334484],["First",-9.601880387980504],["expand",-9.601941376548536],["import",-9.602022798787637],["shooting",-9.602923343647461],["tra",-9.6044035289428],["Red",-9.606051164164507],["shut",-9.606118638912859],["Ministr",-9.607003480188741],["adding",-9.607538892285165],["fourth",-9.609410075940366],["gain",-9.612093691961348],["Most",-9.612558019073225],["Tom",-9.61333930546866],["ville",-9.613898415900044],["ratio",-9.616500565534826],["Florida",-9.61658534005414],["monitor",-9.616589311972572],["asking",-9.616981227100084],["relat",-9.617300487691216],["investor",-9.618692491478981],["draw",-9.619569374700472],["hot",-9.619695296975042],["basi",-9.620453996840265],["Two",-9.621057696192757],["sometime",-9.621094120665322],["defense",-9.621535726286991],["culture",-9.621537774228138],["blood",-9.62154575281901],["talent",-9.621575276541474],["beginning",-9.621634990263576],["eventual",-9.621732205191115],["discover",-9.622250205442334],["Here",-9.623138406525385],["picture",-9.625098552678356],["arrive",-9.625930384371996],["council",-9.626506481183942],["conversation",-9.626510854158695],["sexual",-9.626547756255704],["spokes",-9.62663908722362],["bus",-9.627954421284425],["prove",-9.627999636146036],["photo",-9.630260272568199],["negative",-9.632015589776806],["novel",-9.633693111023018],["poll",-9.633950483872948],["murder",-9.636545676835754],["approve",-9.636589591291782],["named",-9.636723075392101],["Hill",-9.63737548284276],["EU",-9.637954017900968],["mental",-9.640478986336541],["Ko",-9.640952707105278],["Minnesota",-9.641586572900925],["proper",-9.641658405922211],["generation",-9.642076434778698],["double",-9.643018675018013],["Du",-9.643679357013422],["Nigerian",-9.6437920173223],["offering",-9.644551491559714],["foreign",-9.645102361658134],["leav",-9.645191072310912],["criminal",-9.646662632766533],["leg",-9.647063199714847],["mission",-9.647446843516267],["couldn",-9.647724621046804],["Europe",-9.648031219631239],["Ja",-9.64874669678252],["Office",-9.649151398835613],["rais",-9.649711563741528],["pack",-9.650315897351833],["nine",-9.65093550885697],["Super",-9.65098599710441],["Los",-9.652609677137471],["elected",-9.652778026178488],["mail",-9.653133283922312],["King",-9.653682034024898],["patient",-9.654094044161575],["Gu",-9.654381402384171],["Well",-9.654427614495383],["pair",-9.656802551190628],["debate",-9.65689397702846],["difference",-9.656905056000767],["Don",-9.65765533298945],["36",-9.658212410006438],["kept",-9.660879036094588],["animal",-9.662066734274326],["Justice",-9.662126136294901],["SA",-9.663971682128675],["rates",-9.664410716925358],["Lake",-9.66503161512026],["ious",-9.666200327628236],["mix",-9.666583720136298],["church",-9.667229302148833],["District",-9.667276813855661],["purpose",-9.667299314643378],["dog",-9.667495380701414],["alone",-9.66770400222888],["justice",-9.668639092587668],["Commission",-9.66923892263539],["subject",-9.672437210108221],["passenger",-9.672440103647546],["relative",-9.672754831804008],["yester",-9.672790687213723],["winner",-9.673030372683789],["Car",-9.673437046203144],["ng",-9.675363743881585],["polic",-9.675990248353399],["celebrate",-9.677277958176468],["word",-9.677455053124955],["34",-9.677574897984929],["earn",-9.678759284461396],["committ",-9.680713276972035],["fresh",-9.681216197107144],["sub",-9.681459810486352],["tool",-9.681644513473316],["implement",-9.682675471024996],["hotel",-9.683088061320223],["Israel",-9.684317739517965],["governor",-9.684323053546816],["PS",-9.685070026365906],["har",-9.68528029730991],["ell",-9.68693170365783],["camp",-9.687673158200184],["device",-9.688426463067543],["listen",-9.689026832073242],["train",-9.689392581626706],["Other",-9.690293978017394],["facility",-9.690541625864057],["scale",-9.692472714597793],["MP",-9.693182117650982],["color",-9.693670461923745],["ez",-9.693819784408529],["burn",-9.694700395773772],["Home",-9.695262350790994],["37",-9.696094695014892],["bid",-9.696393307267588],["55",-9.696723691512343],["wall",-9.696836509281203],["surance",-9.69740375735456],["Arm",-9.698171822060244],["favorite",-9.698922045283993],["wave",-9.700350540980626],["Mark",-9.701441103858052],["decline",-9.701466439338766],["van",-9.701755551755479],["suffer",-9.702881134748552],["75",-9.703230431578476],["tough",-9.704144208002594],["€",-9.70426921033783],["Har",-9.704526162018269],["employment",-9.705731103335985],["spoke",-9.706008800735916],["consumer",-9.706056834756858],["reopen",-9.706801772810362],["Force",-9.707231218233638],["perform",-9.707601878243322],["chang",-9.709304381565236],["Central",-9.709675855927543],["Christmas",-9.709676414744825],["holiday",-9.709676511039788],["spring",-9.70972270666991],["commercial",-9.709811212074575],["Any",-9.70985642453008],["BTC",-9.710260636821161],["obvious",-9.710863226999747],["ice",-9.711556219301313],["ney",-9.714305221501776],["En",-9.716448449088531],["tru",-9.716659758518304],["gathering",-9.718160943439418],["write",-9.718961168098645],["Board",-9.720713036039054],["afford",-9.722332498567596],["38",-9.722334219547502],["advance",-9.723416424366967],["charges",-9.72529356435792],["hop",-9.725924316520784],["threaten",-9.726141364378542],["craft",-9.726516339701977],["crew",-9.726658441464313],["warm",-9.728081711575918],["driv",-9.729032023846305],["clean",-9.729449137700124],["Association",-9.731594077170222],["competition",-9.731628565356221],["99",-9.733237837736741],["33",-9.73340619174229],["homes",-9.733796155323171],["finding",-9.73404072513777],["Port",-9.734165753841879],["style",-9.736947132465245],["straight",-9.737150803385056],["tagram",-9.73724238521957],["committee",-9.737266042126464],["unique",-9.737379443543478],["Sen",-9.738421150368218],["Carolina",-9.740765114391106],["rush",-9.741142162199054],["balance",-9.74125927382265],["Sea",-9.741891579344465],["progress",-9.742432483172554],["volunteer",-9.742736224896849],["degree",-9.74273773494135],["sort",-9.742744253028386],["River",-9.742815564576265],["Why",-9.742906801723027],["rights",-9.744669858270722],["Let",-9.745220062446926],["48",-9.747562305527147],["absolute",-9.748354202424695],["hearing",-9.748849003227587],["society",-9.749840608134246],["300",-9.749980733534159],["hair",-9.750834602025263],["Will",-9.750923108346012],["owner",-9.75106072799405],["welcome",-9.751217618616135],["sex",-9.753092951950618],["intend",-9.754088950262748],["Governor",-9.754193130085884],["Apple",-9.754424823192972],["fell",-9.755286687899764],["wors",-9.755755754336215],["ke",-9.756494286696212],["ki",-9.758897036320139],["hurt",-9.759761302836733],["Like",-9.759895537754653],["afternoon",-9.75994655311401],["catch",-9.760771714694368],["Gar",-9.761032857137415],["trend",-9.762725372398886],["39",-9.763649608253022],["maker",-9.764894669341246],["compar",-9.764949959485477],["simple",-9.765486518532903],["Angeles",-9.765712671407567],["Mike",-9.76593799171178],["abuse",-9.766802508633091],["equit",-9.767883641531345],["eyes",-9.769102581027582],["prison",-9.769934909597602],["wouldn",-9.770030384187885],["remove",-9.77191133804542],["flow",-9.772010980783286],["compare",-9.772323606503283],["connection",-9.772434772080311],["wish",-9.772515687312548],["minute",-9.773840953001105],["pic",-9.775208709701605],["middle",-9.776938656278787],["dream",-9.777111190540541],["weight",-9.778064670174613],["bringing",-9.778196374584805],["lose",-9.778204670450908],["cook",-9.779074431037312],["definite",-9.779171148438046],["wise",-9.779637370622943],["reveal",-9.780028796425842],["Committee",-9.782741450592926],["boost",-9.782743001030443],["lawyer",-9.782941070066693],["construction",-9.782994216202603],["NFL",-9.783017057647752],["display",-9.783666594021096],["weather",-9.786949309959315],["uk",-9.786999775722343],["amid",-9.78714024985602],["audience",-9.788589765157052],["sleep",-9.788656642777891],["mass",-9.78987452459225],["65",-9.791018727796134],["traditional",-9.791598172765394],["Big",-9.793550411684492],["operat",-9.793925582095115],["east",-9.794344552647418],["Su",-9.7944632692094],["é",-9.794468266635182],["identifie",-9.794471759043512],["Chicago",-9.794472024908941],["client",-9.794472287941755],["CEO",-9.79447713898878],["jump",-9.794495135150571],["profit",-9.794868289134122],["sister",-9.795848328229658],["politic",-9.796548723197432],["debt",-9.800429862841465],["discussion",-9.800766089956682],["setting",-9.800812924123916],["putt",-9.80099101791819],["distance",-9.802459984168678],["invest",-9.804013332556572],["lock",-9.804925333454902],["guard",-9.806084484744753],["baby",-9.806332481696355],["type",-9.811260077411124],["engage",-9.811963436240646],["north",-9.812300574801574],["Compan",-9.812440621855172],["crash",-9.812636442038432],["ease",-9.812637298500029],["cell",-9.81277181354826],["rich",-9.813673765985993],["zi",-9.81372669113284],["farm",-9.81407179629451],["Secretar",-9.815109365931223],["nel",-9.816828315761077],["DC",-9.817701114418213],["responsibilit",-9.818353421788592],["Bar",-9.818651826849502],["massive",-9.818664841382427],["Un",-9.819052557003712],["bag",-9.820090261734421],["scor",-9.820990104718216],["inform",-9.822826382183056],["gar",-9.823401805885629],["urg",-9.823619824269421],["doubt",-9.824402590756335],["France",-9.824609652134718],["Both",-9.824674075093245],["hous",-9.824777632551072],["pur",-9.824868447049452],["CO",-9.824901896528825],["domestic",-9.825304458099076],["male",-9.825461401329356],["producer",-9.82546931219757],["reporter",-9.826490879407862],["Dan",-9.827241911880622],["berg",-9.828628653415233],["defeat",-9.830538220343449],["winter",-9.831825918452129],["please",-9.835066973080423],["dark",-9.836282761232837],["peace",-9.836379118084118],["lie",-9.836427407360096],["€™",-9.836647502271921],["majorit",-9.838657130308334],["path",-9.838832856154797],["ical",-9.839806468142363],["steps",-9.840403595947599],["Jo",-9.840675817366352],["Williams",-9.841281172618354],["rent",-9.844514107172746],["depend",-9.844751616488084],["retire",-9.845485949287154],["zone",-9.845822342447333],["sick",-9.846086462442646],["writing",-9.846239299737913],["pool",-9.849222991036896],["ble",-9.849662932315951],["central",-9.85026775561461],["campus",-9.851020909615443],["surge",-9.852680447163479],["priorit",-9.853377347484999],["evening",-9.854345765186483],["thank",-9.854353306605098],["upon",-9.854665722500616],["yourself",-9.854840277475958],["+",-9.855280573783045],["associate",-9.855280576046443],["College",-9.855281464932066],["adult",-9.855364121849071],["divers",-9.85552857973221],["household",-9.856219050122707],["inter",-9.856474429788843],["Ver",-9.857267457917757],["classe",-9.860121185283985],["floor",-9.861570429418673],["weapon",-9.861583242323874],["promise",-9.862005962783835],["strike",-9.865233702756623],["rock",-9.865620108079224],["basket",-9.867900160161593],["BC",-9.869621122047395],["Lu",-9.870081300100718],["Fire",-9.870171646037694],["session",-9.871737958694041],["operate",-9.872725319853632],["pop",-9.873288796503582],["reflect",-9.87399634820537],["nforcement",-9.87438695883333],["separate",-9.87494441706679],["Management",-9.875451964306222],["ger",-9.875465705339966],["hip",-9.87642387389205],["Mac",-9.87650290891975],["Officer",-9.877558765899757],["cancel",-9.878360229946317],["Final",-9.878555234109252],["chi",-9.879226352977984],["realit",-9.879985863392179],["vulnerabl",-9.880678683766995],["categor",-9.880678851769735],["nature",-9.881880244742568],["meant",-9.88313830364324],["49",-9.885372706374921],["chain",-9.885548925640578],["article",-9.885663447284536],["gu",-9.886127250932269],["Brown",-9.887373787177834],["ail",-9.887621230282992],["tree",-9.889150585784947],["equal",-9.890138873120915],["Col",-9.890550339886211],["electric",-9.891011904485397],["UN",-9.891343338299723],["yards",-9.892105180028324],["survive",-9.893798455292174],["Canadian",-9.893834840290758],["influence",-9.893958127052237],["honor",-9.89429493296944],["incredibl",-9.894961148346756],["Peter",-9.895143813973807],["harm",-9.895564297201048],["ze",-9.896190522648352],["Gov",-9.896882142896882],["agent",-9.8970549352496],["95",-9.89708294256666],["older",-9.89733283626061],["gra",-9.898117374915632],["47",-9.898279387389767],["uff",-9.899591541410114],["killing",-9.89996592564687],["apply",-9.90005158219861],["ultimate",-9.90015978627053],["language",-9.90015979287562],["temperature",-9.900159885508305],["science",-9.900160027642194],["freedom",-9.90016044536964],["survey",-9.900160999529255],["wonder",-9.900191084472617],["suspend",-9.900270681514282],["gift",-9.900329563503579],["responsibl",-9.900677802147428],["Earl",-9.900836005906745],["approximate",-9.901580093791921],["Island",-9.902717918667793],["ization",-9.904023839897999],["row",-9.904191527141535],["Chi",-9.905641691114301],["ug",-9.906098751359702],["severe",-9.9062743384908],["flood",-9.906738709977073],["Securit",-9.90673926073238],["Amazon",-9.90673932669404],["upreme",-9.90682204761513],["storm",-9.907033167972862],["46",-9.907080744691026],["vision",-9.90719975830389],["flag",-9.909041200201909],["exercise",-9.911664887229055],["speech",-9.913361352540022],["relief",-9.913655139990361],["sport",-9.914834269422332],["statu",-9.915986946186054],["tech",-9.917862078625525],["gen",-9.918364624175894],["struggle",-9.918489388480474],["green",-9.919912468848704],["closure",-9.91993754729312],["Premier",-9.92002812376313],["ride",-9.920031876281758],["collection",-9.920410276821459],["partie",-9.920665369753522],["par",-9.920980404265935],["44",-9.921977457051348],["phase",-9.922928901309202],["independent",-9.924069426644094],["43",-9.924557321630285],["mer",-9.926128897337513],["wild",-9.926447674999661],["civil",-9.926507011429191],["showing",-9.926556928352948],["Under",-9.926768721535588],["ticket",-9.926802331745229],["IT",-9.926832188190472],["Centre",-9.926983724729483],["Fund",-9.92715344945243],["vo",-9.93202924360488],["urge",-9.932450569335659],["rain",-9.932478503373538],["multi",-9.932501465035967],["typical",-9.933499073624553],["truck",-9.93351851508454],["youth",-9.934399755585265],["Russia",-9.935251779564442],["CA",-9.938937191264714],["package",-9.939284780826402],["window",-9.940303158285571],["rose",-9.940627321164804],["Oct",-9.94099903076233],["secure",-9.942109839099933],["communication",-9.942257914919256],["studie",-9.94232140256798],["LA",-9.943297914728955],["Chris",-9.943911497053097],["predict",-9.945512126516359],["Com",-9.945629306947698],["cat",-9.945710363726933],["Cha",-9.945880239292194],["fix",-9.945924900730112],["miles",-9.946079139404286],["Democrati",-9.947135110864785],["journey",-9.94714885842776],["album",-9.947165399272688],["section",-9.947448195846698],["Brita",-9.94831619594681],["ski",-9.94914308278765],["Tok",-9.949208959338227],["union",-9.949767648293811],["asset",-9.950243699552136],["draft",-9.950487380533975],["memor",-9.951253463612696],["south",-9.95370584423198],["allegation",-9.95408727863473],["dangerous",-9.954125264338678],["beautiful",-9.954213722492037],["print",-9.954429821068919],["rising",-9.954467796948943],["Cup",-9.955196697075866],["traffic",-9.956885340427057],["carrie",-9.957975353243613],["rally",-9.958067452509901],["Sal",-9.958729469581696],["guid",-9.959047257062299],["structure",-9.960989062983689],["scientist",-9.96099036149446],["alternative",-9.961003673167955],["remote",-9.961041763670922],["isolation",-9.96152277615858],["supporter",-9.962124241815904],["chair",-9.962682066470604],["Australian",-9.963027598929923],["choose",-9.963467939663795],["lam",-9.965151189083624],["meal",-9.96647186289427],["cancer",-9.968226977590838],["soft",-9.969929431430595],["thinking",-9.97052557076306],["Law",-9.970866881626346],["prepared",-9.971261735120944],["ette",-9.971423659924378],["author",-9.971492506512458],["Hu",-9.971994979872548],["graduate",-9.972765781515456],["NA",-9.973520714673803],["caus",-9.97426032629273],["grand",-9.974954974200287],["French",-9.975024778768002],["Googl",-9.975065051503305],["farmers",-9.975323292169577],["infrastructure",-9.975427140294716],["stuff",-9.975778484149856],["Jones",-9.975968095149728],["sitting",-9.975968721280768],["comfortabl",-9.97631084061457],["PC",-9.978015105252265],["highlight",-9.978211379005021],["Sp",-9.97862975743722],["log",-9.979913125152956],["42",-9.979947518823522],["mobile",-9.982097502025287],["Federal",-9.982117715531484],["female",-9.982129506119321],["assault",-9.98214131865711],["Coronavirus",-9.982164216532352],["scheme",-9.982177314873592],["village",-9.982407143182728],["Year",-9.982700709393834],["requirement",-9.983357110577742],["drink",-9.984585990712244],["Prince",-9.984890306771174],["advantage",-9.989168874977278],["conflict",-9.989259392861756],["ick",-9.989785241144794],["HO",-9.990045671193851],["protection",-9.990210733950438],["institution",-9.99062809798683],["writer",-9.990693109140238],["truth",-9.991021590018693],["prior",-9.991958938412722],["beat",-9.992160532212214],["load",-9.992620314388619],["provider",-9.99303882085534],["lay",-9.993875960952279],["sides",-9.994856828634891],["pain",-9.995295837387742],["recognize",-9.995652538801401],["complaint",-9.995833405729709],["attorney",-9.996454112929282],["opinion",-9.996454435979919],["entertain",-9.996464688181542],["Though",-9.996742322890789],["Blue",-9.998536376328936],["defend",-9.999172489246526],["ax",-9.999565468384501],["Ri",-10.001922268397953],["complex",-10.003700015015259],["announcement",-10.003943887235703],["airport",-10.00405684963184],["recall",-10.005124513527495],["Cor",-10.005751509365506],["Communit",-10.00667742463872],["toll",-10.006873573508669],["EC",-10.00772696686486],["skills",-10.008478857939306],["connect",-10.009389218774167],["Ke",-10.010008928085192],["resume",-10.010049333918452],["amazing",-10.011013595455672],["supposed",-10.011043712944833],["knowledge",-10.011049474191385],["fuel",-10.011091801671519],["LLC",-10.011521144667888],["struggl",-10.012687028181883],["ola",-10.013353036635088],["ik",-10.01410813456286],["outdoor",-10.014676856377225],["stick",-10.015677899406562],["jo",-10.01706412749813],["offers",-10.017311259469722],["appropriate",-10.018306257851085],["ceremon",-10.018353023780339],["dozen",-10.018374838970136],["programme",-10.018375366229801],["recommend",-10.018506781958287],["Fi",-10.020244466028661],["bond",-10.021989069168251],["supplie",-10.023113767452237],["Den",-10.023376227572903],["dropp",-10.023512365386196],["Robert",-10.024212345802123],["warning",-10.024498870082475],["serving",-10.024650709888999],["Martin",-10.025026017354277],["proud",-10.025778604244627],["element",-10.025840041825163],["bra",-10.02624213446206],["Andrew",-10.026506634694986],["investigat",-10.027853198677843],["hang",-10.028963179778568],["excited",-10.029025371067247],["spec",-10.030841525616536],["regional",-10.031805950914716],["41",-10.032270118223446],["opposition",-10.03326405248486],["sale",-10.033735491215094],["Fox",-10.033770563268938],["skin",-10.03378208297971],["losing",-10.033833237729418],["Max",-10.034390668715764],["giant",-10.034391798747478],["gold",-10.034614441323502],["pet",-10.035700000327374],["Ram",-10.03571898516153],["observ",-10.036263045404983],["confiden",-10.036715938780027],["nice",-10.037748961133808],["protester",-10.03835807578962],["400",-10.038830715514148],["Vi",-10.039224495013709],["route",-10.039698509211977],["smart",-10.040009136206987],["initiative",-10.040741317952488],["Business",-10.040743783367606],["Right",-10.040974125331878],["dress",-10.042423904324004],["flu",-10.043234270291766],["onic",-10.043486026297876],["che",-10.044529402517668],["reading",-10.044985296737039],["mate",-10.04514184731981],["journalist",-10.045905803588187],["indicate",-10.046449597273593],["Tri",-10.04785420491659],["heavy",-10.048264087112582],["possibilit",-10.048316910885573],["transition",-10.048775248609289],["crore",-10.048868252716442],["combat",-10.050381374310192],["wind",-10.051572236955463],["Who",-10.051717378917637],["happening",-10.053193441575313],["Russian",-10.053970328305484],["grade",-10.054697434565048],["Capital",-10.055953309353622],["Hall",-10.056797140738517],["guest",-10.056869400794735],["Als",-10.057224229672766],["remind",-10.057646884718288],["insist",-10.057841262256161],["trades",-10.057972073756822],["retail",-10.058129862544689],["hall",-10.060370616261714],["ward",-10.060675233781804],["consistent",-10.06368396506716],["Disney",-10.06369783775958],["Up",-10.063705147347129],["Market",-10.06381773343177],["politician",-10.063998940899616],["prime",-10.064005667588635],["heat",-10.064259677111313],["Ru",-10.065772270938329],["Pi",-10.066846943867821],["Sun",-10.067214605832856],["Mayor",-10.067681161720175],["lab",-10.068287006838563],["FA",-10.069140178465522],["yard",-10.070744521613033],["coast",-10.072024794700727],["king",-10.072753802201632],["Qu",-10.073200670624912],["pot",-10.073582019219463],["Par",-10.073728309211983],["creative",-10.073817883369802],["ural",-10.073913912150928],["injuries",-10.074750586048737],["lan",-10.075682002325816],["owners",-10.077801291534875],["Georgia",-10.078952724005006],["circumstance",-10.079207212240291],["constant",-10.07920732288705],["Thomas",-10.079207605591835],["Church",-10.079216770563804],["Region",-10.079242448712268],["married",-10.079287042564275],["Valley",-10.079343071302471],["Good",-10.079615881800468],["handle",-10.079713007799782],["function",-10.080496859343452],["manag",-10.081177759072265],["task",-10.081978280651892],["ttle",-10.082294542183368],["wage",-10.08318466130166],["Republicans",-10.083687288372165],["Lee",-10.083975380473195],["acquir",-10.084002877104771],["gather",-10.084918969185773],["strict",-10.085438980580129],["CC",-10.085771194398694],["destroy",-10.087081239178207],["Work",-10.08769916557791],["proposal",-10.087910705265465],["powerful",-10.087922516624992],["modern",-10.088123092813095],["appearance",-10.08869227224419],["worse",-10.089059219298933],["direction",-10.089556267984891],["Han",-10.089705027339043],["Serie",-10.090083492387901],["fer",-10.090303574392596],["machine",-10.091275294337828],["gate",-10.091307615482236],["aim",-10.091427820462787],["rank",-10.092147556141539],["DA",-10.092841032217684],["66",-10.09391543799906],["illness",-10.094033801716826],["ory",-10.0941415948184],["85",-10.094327597459985],["Jack",-10.094625206938147],["Wood",-10.095059862912073],["spirit",-10.095088604392174],["master",-10.095132149475198],["commitment",-10.0951772933617],["56",-10.095335030307114],["shape",-10.096269472003769],["ox",-10.096327870825544],["Your",-10.09663631527744],["researcher",-10.097022137895259],["correct",-10.09709368138236],["corner",-10.097100397935883],["donation",-10.098387568785942],["donate",-10.098783960769573],["interesting",-10.098806929910744],["reopening",-10.100440840601081],["elling",-10.101605174705746],["tournament",-10.103017752956895],["famous",-10.103019028559483],["fellow",-10.103024276607952],["Christian",-10.10304738309297],["kar",-10.1034935273459],["Virginia",-10.103547342689769],["respective",-10.103594444165305],["secretar",-10.104094201037377],["chose",-10.106117680616862],["rough",-10.106439383681654],["Post",-10.107097121030803],["challeng",-10.107324779197679],["nurse",-10.107343681936637],["reform",-10.107709395738734],["agenc",-10.10858829936367],["AT",-10.109096655310983],["Daniel",-10.111083273091486],["internet",-10.111106578079122],["apparent",-10.111223134296651],["!”",-10.111525379713331],["bridge",-10.111534625603714],["burg",-10.112796545741608],["Nation",-10.112867506809794],["contest",-10.112935776847348],["employ",-10.113046641222564],["az",-10.11414680511941],["68",-10.114824292312427],["lines",-10.11577294657357],["radio",-10.116465972512039],["lum",-10.11684800076445],["joint",-10.117644069838555],["Ali",-10.118356444622906],["veteran",-10.119220630412965],["surface",-10.119284647478533],["Na",-10.119356749409967],["jail",-10.119368608368678],["text",-10.119498113265262],["Ge",-10.120504295920316],["engineer",-10.121313099218863],["qui",-10.122701744797112],["tuck",-10.123482290523366],["pound",-10.124879121797768],["ou",-10.125610534490256],["egg",-10.127130825433488],["wealth",-10.127455377378125],["Follow",-10.12748957884471],["wake",-10.129871705180594],["Korea",-10.130682792083896],["bough",-10.131365793163923],["refuse",-10.13168272298088],["cool",-10.133900707310115],["presen",-10.134053066847745],["NB",-10.134284074392749],["strength",-10.135620693680591],["margin",-10.13566485561891],["Team",-10.135764864129817],["failure",-10.13576834606534],["ruling",-10.135866348998086],["Sanders",-10.136138239836386],["ollywood",-10.136361551366178],["cold",-10.136740168299031],["Play",-10.137221347494446],["Inter",-10.137238449603458],["Vic",-10.13730639180117],["Chair",-10.137415405591273],["Real",-10.137780488462974],["trail",-10.138319608201996],["citi",-10.138446329137544],["witness",-10.139371055997218],["capture",-10.139410787968401],["je",-10.139551509704885],["sentence",-10.142641380702287],["qua",-10.14273360088093],["TA",-10.143573240823418],["twic",-10.143774804453109],["professor",-10.144006845119602],["approval",-10.144006890108443],["stretch",-10.144008494810162],["Institute",-10.144126411579055],["admitted",-10.144133422208588],["transaction",-10.144134779029228],["protocol",-10.144171117349831],["Bi",-10.144626484844936],["Pre",-10.144678000797803],["batter",-10.144764979347718],["division",-10.145517561319481],["%.",-10.14678645597088],["core",-10.147214644128578],["Sch",-10.147298877467481],["Victoria",-10.147329330515712],["panel",-10.147412186718881],["rac",-10.147981468103],["Commissioner",-10.149232456394447],["imagine",-10.150166278689888],["understanding",-10.15077152169324],["Che",-10.152447786238682],["transmission",-10.152451092634184],["Harry",-10.152454112530098],["plus",-10.152469605894726],["representative",-10.15250941128324],["mouth",-10.152612355730383],["Ken",-10.153833141497994],["haring",-10.15385475102768],["pped",-10.154954745632136],["entry",-10.155613779815754],["stoppe",-10.155705505017806],["emerg",-10.155757369247244],["Times",-10.156060610820571],["code",-10.157375936698298],["zing",-10.157778890055123],["pan",-10.158156449250809],["mom",-10.158540519515363],["ative",-10.158921025210098],["MA",-10.159898584408499],["broke",-10.160144352646835],["waste",-10.160324764183931],["participate",-10.160641670451064],["plane",-10.160859440970498],["scenario",-10.160884782339178],["opponent",-10.160884782653081],["religious",-10.160884819959625],["Club",-10.160884833392151],["ium",-10.16089367964386],["rapid",-10.160916341449253],["regulation",-10.160921209653836],["Development",-10.16098069056919],["apartment",-10.16126492454885],["Jackson",-10.161467127665759],["regulator",-10.161489981368518],["internal",-10.162182551434096],["honest",-10.162300017741977],["blow",-10.162728011964873],["ure",-10.162931313067979],["familiar",-10.163582610647843],["ST",-10.164164648838367],["76",-10.165020736554343],["Love",-10.165100848344153],["books",-10.165312060577111],["ington",-10.166171748906365],["Feb",-10.166309967746791],["trick",-10.1667182384848],["ake",-10.168394086704243],["produc",-10.16916364655487],["English",-10.169431793504796],["adopt",-10.169433830170869],["channel",-10.169434205823904],["distribution",-10.16956544312944],["forecast",-10.169737959420981],["Royal",-10.169975616136023],["slight",-10.17036657439831],["boat",-10.170566040881159],["ministr",-10.17073741051674],["Avenue",-10.171439845005654],["iv",-10.172256000356448],["telling",-10.173366796358646],["achieve",-10.174655455232894],["pitch",-10.1751829224348],["promote",-10.176017383855545],["valu",-10.176031793421082],["53",-10.176905899185696],["PM",-10.177085205871425],["dividend",-10.17809204206479],["800",-10.178296917418631],["cur",-10.17830015449849],["tackle",-10.178465271419418],["island",-10.179745023610923],["saving",-10.181282329364514],["bio",-10.182598488674518],["closing",-10.182641902794243],["outcome",-10.183094444206372],["52",-10.184425312712525],["accident",-10.184760142229102],["ker",-10.18601289420935],["owns",-10.186679649691905],["rescue",-10.186785170004928],["studio",-10.186804586874812],["recommendation",-10.187055141130617],["vent",-10.187383827942934],["enable",-10.18805303256245],["sustain",-10.188087668768492],["goals",-10.190165229955713],["rel",-10.190342102770092],["PD",-10.19035218579302],["54",-10.190381855472836],["orrow",-10.19106748715231],["64",-10.191628358549957],["mayor",-10.192234716851353],["runs",-10.193469639751811],["blue",-10.195520971673023],["Election",-10.195562366041584],["relevan",-10.195580118731234],["length",-10.195646023105455],["88",-10.195659594988191],["84",-10.195681265949148],["aspect",-10.195856259949704],["Ch",-10.196495915460842],["dry",-10.197252952747764],["edge",-10.197459463122637],["plent",-10.197483638710844],["600",-10.197905961142116],["Aug",-10.198568523577833],["century",-10.198946607460272],["viewers",-10.19922664540628],["FC",-10.200645785714247],["MC",-10.20106642228188],["replace",-10.201543198844014],["teen",-10.201947048944396],["deploy",-10.20400200361374],["78",-10.20405215822479],["rival",-10.204082352080931],["obtain",-10.20437075596961],["guilt",-10.20437517684575],["illegal",-10.20438402703174],["Western",-10.204432210447662],["meaning",-10.204673729760444],["Iowa",-10.205003004689846],["chester",-10.205894398247631],["Human",-10.2059701301848],["App",-10.20694565615215],["singer",-10.207155862621972],["polis",-10.207176342339228],["CDC",-10.208394606619542],["Yes",-10.20914706027342],["ible",-10.209496830557681],["Mal",-10.209573156744838],["expose",-10.21002062021192],["SE",-10.210227101605101],["basic",-10.211385157108356],["method",-10.212033566815794],["mond",-10.212068208188764],["Ten",-10.21224073078175],["ung",-10.212416151239914],["provision",-10.213434829222257],["sight",-10.213446706906012],["denie",-10.213636453442547],["trouble",-10.213915085230553],["ramp",-10.21418652269094],["transfer",-10.214264132225235],["photos",-10.214569111380667],["Corp",-10.215076607952554],["Research",-10.215200338371178],["television",-10.215839375192555],["variet",-10.216013796196952],["Care",-10.216632595775396],["environmental",-10.217546155562285],["combine",-10.21779840737429],["uncertaint",-10.217857522704906],["59",-10.21861113324548],["declare",-10.218748875664259],["determined",-10.218796744340036],["Alex",-10.21917357092731],["instance",-10.220827549767911],["Rock",-10.221056100748967],["Cal",-10.221269617044968],["opt",-10.221855008067042],["identify",-10.222307203227347],["permanent",-10.222308331943228],["shelter",-10.222325810856656],["glass",-10.222390579449675],["Micro",-10.222443122829036],["Richard",-10.222468719442768],["steal",-10.222606617742127],["Harris",-10.22264298543936],["bright",-10.223100101497268],["deput",-10.22336449560657],["ER",-10.223749946223254],["MS",-10.224497997382636],["visitor",-10.224905678484877],["77",-10.226995439804789],["Long",-10.227178989471703],["Kan",-10.22767504583464],["commission",-10.22770497212819],["57",-10.228057547574828],["shock",-10.228154474631198],["67",-10.2292808280658],["passe",-10.229341461486271],["immun",-10.230597581011033],["unlike",-10.230645112755832],["Maine",-10.230734438761614],["determine",-10.231178433233207],["volume",-10.231398715582786],["Ohio",-10.231414607581407],["Three",-10.231414672543],["false",-10.231424262604575],["finance",-10.231522783852572],["blame",-10.232289858940053],["coverage",-10.232357009629547],["ru",-10.232878014629872],["hopeful",-10.233288497727758],["72",-10.2335022969928],["EP",-10.234944535006388],["Bra",-10.236071706612012],["occurr",-10.236336676986753],["mine",-10.236395413783036],["cra",-10.23677938565379],["featur",-10.237298954432413],["rang",-10.237620938749476],["Ki",-10.23770905042979],["rap",-10.239400272541346],["happens",-10.239633424289003],["unny",-10.24002641368169],["62",-10.240370702253394],["troop",-10.240573136023288],["cars",-10.240740427477906],["Week",-10.24090461427748],["onna",-10.241338145354536],["ID",-10.242017703837691],["Adam",-10.24207132190842],["prepare",-10.243552226610532],["flat",-10.243938885821898],["Authorit",-10.244020143971213],["manufactur",-10.244282489157305],["Shar",-10.245257106214211],["Kar",-10.245344897623706],["desire",-10.245946107327782],["Wi",-10.246010392221038],["Mexic",-10.24605902790815],["fish",-10.246156270544661],["govern",-10.246286920747371],["propose",-10.246299207705727],["rie",-10.246626216629103],["reduc",-10.247849979412255],["hole",-10.247871798421995],["covering",-10.249425586771533],["appoint",-10.249811945923867],["Education",-10.249831681028393],["prospect",-10.24983315766265],["recruit",-10.24983516790354],["Floyd",-10.24986933687978],["consequence",-10.249878356741114],["gender",-10.249959716783575],["organisation",-10.250014409001349],["imp",-10.250055526333554],["secret",-10.250101791782381],["numero",-10.250167300767114],["festival",-10.250194323274105],["dance",-10.250318976197931],["Medical",-10.250444536749733],["96",-10.250552369342437],["breaking",-10.250668964296551],["reaction",-10.25089957918249],["decide",-10.251468801698373],["softw",-10.251706201572809],["busy",-10.251781166505602],["doors",-10.252160007336958],["Bell",-10.25308440677585],["Great",-10.253448589757545],["partners",-10.25438751776188],["breath",-10.255008162358552],["whom",-10.255155016239451],["GO",-10.257971112055852],["possibl",-10.25810372420477],["disappoint",-10.25887401357984],["Student",-10.25917800208555],["segment",-10.259182869567683],["Ag",-10.259220058942478],["sky",-10.260588671392417],["Frank",-10.261215306278231],["improv",-10.262100458840187],["guess",-10.26245345711837],["everal",-10.262725067001128],["58",-10.2627794271359],["urism",-10.262896253503602],["Fr",-10.263814254071306],["drugs",-10.265327511550613],["airline",-10.265431995071275],["NH",-10.265463973556741],["98",-10.265858679856391],["handl",-10.266389347824889],["encourag",-10.267058634069823],["counter",-10.268537203966336],["arriv",-10.268571982524183],["neighbor",-10.268581414710084],["Parliament",-10.268611437468309],["sudden",-10.268612730834345],["Social",-10.268649476305981],["vital",-10.26881834982563],["reject",-10.268942883312448],["postpon",-10.269025263099085],["boss",-10.269665708209065],["Yet",-10.26996588428506],["introduc",-10.272200062096742],["RE",-10.272672476854607],["Onc",-10.273153076069736],["mph",-10.275346257466978],["expens",-10.277194510338887],["alcohol",-10.278135489919444],["colleague",-10.27813637290376],["identit",-10.278165420667499],["Spring",-10.278181455243756],["Ku",-10.278191164950574],["appointment",-10.278439638988491],["dismiss",-10.27849071689659],["Young",-10.278882381510199],["Singh",-10.279166076546455],["resolve",-10.279685688911435],["Beach",-10.279718678058586],["97",-10.280394605401296],["background",-10.280926091724357],["venue",-10.283498372624091],["debut",-10.284381168310379],["Press",-10.285072633661636],["contribute",-10.287171061843914],["uck",-10.287450388876788],["adapt",-10.28749258450863],["•",-10.28775063155145],["franchise",-10.287750701832657],["Earth",-10.28775698991404],["Iranian",-10.287865223531114],["Life",-10.287922787707025],["lawsuit",-10.288268999756365],["intelligence",-10.288621890081878],["tag",-10.289359655000158],["mistake",-10.29040115205067],["cul",-10.293347165357313],["brief",-10.294900078579467],["taxe",-10.294938022869907],["locat",-10.295496985435125],["Still",-10.296032198964195],["oursel",-10.297101859003481],["faith",-10.297245734804047],["Netflix",-10.297459369460698],["Investment",-10.297459399809508],["appreciate",-10.297459422404291],["Assembly",-10.297459991228315],["technical",-10.297460068140996],["consensu",-10.297464098297413],["neighborhood",-10.297490271827343],["Watch",-10.297499591384916],["agricultur",-10.297596739463406],["wedding",-10.297607967051484],["export",-10.297804992137575],["stands",-10.298048322790425],["mal",-10.299575896480075],["charit",-10.299666421408364],["bear",-10.30117723034338],["broken",-10.303264876742283],["employer",-10.303565478895912],["shire",-10.304704221008055],["Executive",-10.307263292034628],["participant",-10.307263293501151],["Obama",-10.307277020425307],["crop",-10.30728171004306],["Out",-10.307431610703555],["Water",-10.307543713728066],["racial",-10.307547232960063],["expectation",-10.308289347463054],["chairman",-10.308291200419664],["Ital",-10.309840585846008],["zero",-10.310369095494915],["Look",-10.311133920720582],["ried",-10.311593178767904],["resolution",-10.31159754520963],["pace",-10.311671738898601],["mandate",-10.311817449080806],["emotional",-10.312115627582822],["aka",-10.312309447056398],["trac",-10.312425877454913],["cal",-10.314864493059549],["Van",-10.315508454651265],["advise",-10.315604641940563],["iscal",-10.31561806981655],["describ",-10.315945469476723],["Additional",-10.317164514269539],["prompt",-10.317164558599906],["celebration",-10.317380572725755],["Game",-10.317949804675374],["llino",-10.318252430557925],["classic",-10.318866475201744],["sharp",-10.319104168777738],["license",-10.320038860155083],["CBS",-10.320722733971039],["Nor",-10.321358815982986],["omen",-10.322026125580521],["stars",-10.325387702488712],["Are",-10.325576300309493],["bann",-10.32588728130213],["ju",-10.326846004063178],["NN",-10.327025285758232],["concert",-10.327164840605194],["Middle",-10.327173487076898],["analysis",-10.327174670688596],["Bryan",-10.327193454598987],["garden",-10.327308891973285],["partnership",-10.327665076667255],["realize",-10.327750452183846],["69",-10.327832328059904],["beach",-10.32853385692304],["larger",-10.328544161062371],["Station",-10.328923796751889],["requir",-10.328924339031673],["wan",-10.329196468190432],["losse",-10.329211325524081],["bail",-10.329516516905283],["luck",-10.329675459246289],["briefing",-10.329817327785713],["ture",-10.330577454928132],["Best",-10.330964171950878],["shoot",-10.331521561381727],["Pol",-10.33225190525977],["tight",-10.332551421086112],["hill",-10.33293069975349],["sample",-10.333234184873227],["Nav",-10.333449432297293],["Hol",-10.333622810167835],["theater",-10.33510711103952],["evil",-10.335441041914242],["tz",-10.336565751789319],["fraud",-10.337265298759622],["Taylor",-10.337266550249748],["spike",-10.33732542676562],["Queen",-10.337568130767107],["lawmaker",-10.337694894991277],["Trust",-10.337982418246717],["lic",-10.338169646730389],["Ak",-10.338700337946594],["curb",-10.339098748966393],["Where",-10.339121130388808],["itch",-10.34033735638199],["Ed",-10.34040447907339],["Ya",-10.34084331547454],["operator",-10.341649390021555],["favor",-10.341718423021822],["Bob",-10.342535012575306],["guide",-10.344231166719247],["Gra",-10.34449643430387],["Ni",-10.344952219469477],["Tor",-10.345399290280632],["switch",-10.345429486697654],["comfort",-10.345931686295442],["argue",-10.346386483636362],["51",-10.346709791258782],["cloth",-10.346860076460407],["Boy",-10.346983487708467],["solid",-10.347339379334194],["Four",-10.347443162692379],["athlete",-10.34747073704355],["bottom",-10.347498344299932],["Jewish",-10.347635237097993],["Coast",-10.347663405442596],["nuclear",-10.347664225868481],["prosecutor",-10.34834550197349],["purchas",-10.34853355568669],["cu",-10.348993591362301],["alert",-10.349361612386952],["Only",-10.349397493128553],["assure",-10.349666419373872],["shortage",-10.349773327645266],["Francisc",-10.350310074093215],["suffering",-10.350395370947894],["elder",-10.350777306265137],["Spa",-10.351711431903542],["weak",-10.352623977323137],["formal",-10.352886153785011],["86",-10.352993189739031],["Mi",-10.353100064326785],["Asian",-10.353119003191043],["Bowl",-10.35373719065553],["Men",-10.354132580679401],["Asia",-10.354398010090181],["isolate",-10.354590780786967],["cha",-10.355007255316679],["repeated",-10.355221618876985],["gue",-10.356958631566883],["accurate",-10.357784644347996],["horse",-10.357897537269139],["Turkey",-10.357898632987247],["Agenc",-10.357912210926248],["soldier",-10.357914447395775],["Down",-10.358074143161094],["quiet",-10.358163084754803],["newspaper",-10.3582704807297],["Local",-10.358405426046431],["tradition",-10.358536811791492],["Gold",-10.358910846533337],["industrial",-10.35897199607111],["actress",-10.35990608426847],["brain",-10.36016440701583],["RA",-10.361917992507163],["danger",-10.36310115035798],["corporate",-10.363439685639008],["dig",-10.36490361694731],["Hi",-10.365636979594333],["escape",-10.366404517499209],["Grand",-10.36655813690911],["thanks",-10.367232125442513],["Mary",-10.3673054531101],["deserve",-10.367336920068944],["fashion",-10.368195421112908],["bottle",-10.368220380223644],["medicine",-10.368241537627327],["Food",-10.368245198896012],["peak",-10.368286259624018],["Former",-10.368828571845391],["birthday",-10.369205598122964],["touchdown",-10.369615663997777],["upgrade",-10.370499746086516],["cop",-10.371624921332888],["bound",-10.373702592991771],["pel",-10.373910806587041],["efore",-10.374422047130235],["explore",-10.375413478549866],["Free",-10.37585260956396],["dinner",-10.376293630967513],["laws",-10.376418572814808],["sweet",-10.377203584374833],["controll",-10.378444438991217],["uhan",-10.378686525014713],["Global",-10.378721641379098],["surprising",-10.378721655849036],["democrac",-10.378721662401354],["Academ",-10.378721740885403],["marriage",-10.37872176543987],["behavior",-10.378721916812491],["conclude",-10.378722357200292],["Muslim",-10.378726864566744],["compete",-10.378734310438794],["Zoom",-10.378736260007162],["Plu",-10.378755103153274],["contribution",-10.378892684328491],["drama",-10.378955653572016],["heavi",-10.379022749671048],["Michi",-10.379333246412095],["cloud",-10.379447604075029],["laugh",-10.380516176101864],["uch",-10.380593233480196],["Th",-10.380884717874915],["William",-10.38135822977598],["Scotl",-10.38256428922347],["Bel",-10.382598480864868],["Bost",-10.383067632471615],["Kim",-10.383791281094762],["racis",-10.385138841391369],["introduce",-10.385241065359178],["ideas",-10.385341020681677],["Jim",-10.385358813723997],["founder",-10.38549684729876],["Town",-10.385718033975774],["anger",-10.3859734106016],["cease",-10.386496016383415],["inch",-10.386567082961873],["Dar",-10.38687262175656],["uru",-10.388049467113259],["Base",-10.388304942529128],["remark",-10.389292039982337],["Project",-10.389360054780514],["disaster",-10.389365825903578],["Charles",-10.389380286569338],["cream",-10.389400884230414],["Control",-10.389479975674938],["map",-10.38951718849809],["championship",-10.389536339628311],["Among",-10.38957570987135],["Tu",-10.389661181112205],["eligib",-10.389667878513134],["Bloom",-10.38971159243143],["Report",-10.389884596610312],["shopp",-10.390100882098501],["Ryan",-10.390210987948132],["94",-10.39030972799541],["regime",-10.39040108324215],["bodie",-10.390938884688428],["manner",-10.391340171430905],["Jay",-10.391611595631492],["lim",-10.391887097231562],["Pakistan",-10.393486454824611],["dealing",-10.395537941961475],["Khan",-10.39604726083881],["quarterback",-10.396102714130278],["ram",-10.397698870106755],["defensive",-10.400112619671875],["maxim",-10.400113549604479],["royal",-10.4001231946077],["Power",-10.400203534963177],["vast",-10.400271805164497],["dispute",-10.40039084656923],["argument",-10.40039211503927],["instruction",-10.400575774157973],["Morgan",-10.400682518963398],["fifth",-10.400817621944682],["nstead",-10.401296692682212],["percentage",-10.401817776757479],["Hav",-10.401977110046401],["olar",-10.40200717788587],["decrease",-10.40517183011077],["organiz",-10.405283523929393],["SP",-10.40559307474507],["uty",-10.40613467983004],["61",-10.409054104414377],["tend",-10.409537435963433],["matche",-10.409610872578963],["PP",-10.409758784029439],["istan",-10.410108737539229],["BA",-10.410288891288282],["2012",-10.410372530995518],["Head",-10.410474864346813],["Jordan",-10.410983299243078],["routine",-10.411009500698574],["admit",-10.4110445035588],["affair",-10.411063082645336],["Toronto",-10.411192317075674],["Back",-10.411242007867505],["square",-10.41128798117009],["pen",-10.411422488906604],["gap",-10.411490801708238],["08",-10.412223466157158],["Kong",-10.412478795723414],["enem",-10.412497588467236],["corrupti",-10.412795499537882],["NC",-10.413369471130087],["halt",-10.413403818021623],["Maybe",-10.413961740887293],["urban",-10.414955866191544],["Paris",-10.415622284332832],["Sports",-10.416559498295975],["Wal",-10.417107937555034],["eating",-10.417455668246042],["cycle",-10.418500448216964],["hood",-10.418650176213848],["temporar",-10.418949373322992],["Financi",-10.41909080857735],["adjust",-10.419319982598488],["Ray",-10.420750145229814],["bu",-10.421071970112777],["urgent",-10.421362776571192],["Speak",-10.421576606537688],["procedure",-10.421971198879962],["guarantee",-10.421971200267585],["offensive",-10.421971227266202],["territor",-10.42197153975999],["iPhone",-10.42197599921493],["dedicate",-10.421983202970965],["System",-10.421986646398306],["golf",-10.42204740385236],["Judge",-10.422099869435172],["custod",-10.422121055914975],["profile",-10.422253820769063],["74",-10.422431813742211],["Open",-10.422535189590006],["jur",-10.422567278382001],["Rose",-10.42336100901652],["cho",-10.42405540246266],["Bl",-10.424683662087723],["Mont",-10.425099066329997],["Daily",-10.425665477951828],["81",-10.427581434639912],["Wild",-10.428155806619753],["2010",-10.428934382151317],["87",-10.429010395061052],["confirm",-10.430223348725345],["stone",-10.430462107986827],["63",-10.430539375472744],["photograph",-10.430871117236588],["Far",-10.430880729554861],["polls",-10.432334941643926],["Pennsylvania",-10.433082306985515],["capabilit",-10.433546970310587],["Cat",-10.434192092516646],["expense",-10.434192257825721],["teaching",-10.434594555030628],["Da",-10.435213102362418],["roads",-10.43528419572473],["thus",-10.435641227987261],["Gen",-10.435995817303935],["PR",-10.43608555417154],["bury",-10.436805776240373],["mode",-10.437289951113781],["western",-10.43735165698234],["Pay",-10.440203212070704],["broadcast",-10.441940422426331],["Dis",-10.442076226049021],["Plan",-10.443667970344826],["charg",-10.443924459859048],["excellent",-10.444318338571637],["yield",-10.44431847890707],["Jersey",-10.44431874100544],["Second",-10.444319588044417],["knock",-10.444321674945211],["Vegas",-10.444331219241189],["Economic",-10.444344841586428],["crucia",-10.444385303632925],["assessment",-10.444681721108402],["hal",-10.444721197426219],["playoff",-10.444738890963635],["cable",-10.445955064693393],["strategic",-10.446474207041668],["isation",-10.44672619881841],["Alberta",-10.446923439896896],["possession",-10.44743152312667],["Bal",-10.44763171188169],["val",-10.449111245373391],["gam",-10.449284437510354],["BO",-10.449815073033124],["unclear",-10.450229077397836],["Senator",-10.451021598454009],["native",-10.45124165516633],["pose",-10.452536855753],["Houst",-10.454469650620378],["till",-10.454496996445696],["sole",-10.454831762526547],["frame",-10.45515807627384],["birth",-10.455503833172962],["frequent",-10.455681898784045],["diagnose",-10.455681898907422],["exposure",-10.455681913594145],["grocer",-10.455684658491059],["wound",-10.456035804380123],["Clark",-10.456572720822516],["fake",-10.457282798496497],["concept",-10.458954593730365],["residenc",-10.460239810712183],["250",-10.461404977267481],["Lago",-10.46142969419903],["filing",-10.462913821196926],["hunt",-10.46350018407696],["Mon",-10.464338275364925],["nomination",-10.464500957705177],["announce",-10.46462324595787],["object",-10.466597418810583],["paint",-10.46661935786991],["Net",-10.467043171637135],["motor",-10.46709779964884],["Family",-10.467180070990578],["Energ",-10.467180969390112],["Arizona",-10.46720184111478],["Championship",-10.467242448454263],["nurs",-10.467338750895134],["Labour",-10.467792469568614],["footage",-10.467897464603919],["collective",-10.467923813400123],["computer",-10.468063081831623],["150",-10.468264588820015],["motion",-10.468322070742445],["attract",-10.468480056593156],["xciting",-10.46854408923799],["79",-10.46907006297202],["Pat",-10.469106283265095],["mic",-10.470328337740739],["Add",-10.470520779082232],["northern",-10.470720321099986],["neck",-10.470920649726871],["reference",-10.471823502955694],["cheap",-10.472315701374226],["anticipate",-10.472345240813867],["submitt",-10.472654883749826],["Op",-10.4731997532861],["west",-10.47383089069339],["Thank",-10.475852241295932],["homeless",-10.476045740545196],["92",-10.476455014221713],["700",-10.478310942645912],["Angel",-10.478441734157373],["qualifie",-10.478804122272162],["offense",-10.478805212983804],["unprecedented",-10.478807073467223],["kitchen",-10.478810508713483],["competitive",-10.478815126529799],["precaution",-10.478917313293708],["unfortunate",-10.479079946935986],["objective",-10.479111737822848],["tourist",-10.479209377785718],["raw",-10.479808742837024],["improvement",-10.47982663687532],["lakh",-10.47998919602325],["legend",-10.480289974046954],["Yo",-10.480695348109583],["topic",-10.481656860597788],["Emm",-10.48167409376278],["recogni",-10.482409389677073],["Brand",-10.482981237802033],["declar",-10.483175833078121],["ES",-10.483907343006216],["ON",-10.484922415917161],["praise",-10.485196521440148],["occasion",-10.485421612661458],["bomb",-10.485940033604836],["command",-10.486125727634063],["Steve",-10.486192605055116],["aged",-10.48630940844281],["install",-10.486551977190409],["connected",-10.487658411454818],["ND",-10.488103098962895],["invite",-10.489213573427737],["rew",-10.489320191234565],["Sir",-10.489365005817639],["ix",-10.4899293674918],["detect",-10.490005442968727],["Mil",-10.49003976608355],["LE",-10.490514147192362],["Advisor",-10.490568801643644],["Wisconsin",-10.490568802462102],["Foreign",-10.490570353909755],["penalt",-10.490586321501432],["Lewis",-10.490608025469442],["collaboration",-10.490614901684719],["legac",-10.490636343792751],["pilot",-10.49065897280335],["reduction",-10.490713898145735],["struck",-10.490754554832389],["advocate",-10.491306165182388],["AR",-10.491338832741075],["gle",-10.491844405063379],["wheel",-10.492168922624838],["Cross",-10.492721075774266],["prepar",-10.493123657882588],["ensur",-10.49334709455239],["Tim",-10.493373215272978],["Davis",-10.493572675556704],["collapse",-10.49358924226836],["joy",-10.493929572990895],["fired",-10.494882987328886],["WE",-10.49497412024444],["AI",-10.495961694871404],["lip",-10.497551964193278],["Henr",-10.497894507628086],["minim",-10.498980375659816],["worrie",-10.499187197907993],["historical",-10.49998690052997],["BB",-10.50211123742443],["Show",-10.502166071397461],["assess",-10.502217843595357],["cultural",-10.50246310604689],["Elizabeth",-10.5024735276741],["Unfortunate",-10.502493994070576],["librar",-10.50250484484042],["acknowledge",-10.502520095405893],["Disease",-10.50255067311176],["Sheriff",-10.502564400740374],["Network",-10.503352750620845],["locate",-10.503791003866906],["91",-10.50403379762206],["indeed",-10.504480330215923],["vin",-10.504599138797552],["indoor",-10.505084376298615],["JP",-10.505260985075608],["elect",-10.505360485385776],["Eastern",-10.50536589144473],["Deput",-10.505745136708883],["quote",-10.50800998096807],["ourne",-10.50874323136397],["iami",-10.510669546020065],["headline",-10.512040244969524],["residence",-10.513515276943377],["AC",-10.513650235080835],["Ontario",-10.514521719574844],["Attorney",-10.514521723513592],["Afghan",-10.514521724074047],["Special",-10.514568998159696],["worry",-10.514776013203623],["gear",-10.514980789627224],["peaceful",-10.515055253999375],["crack",-10.515760915166785],["disclose",-10.515886209738154],["mile",-10.51605650249242],["downtown",-10.517605607419007],["AM",-10.518235825523803],["split",-10.518894952772344],["planet",-10.520399252021623],["Ever",-10.52056440401483],["embrace",-10.521560923908126],["rid",-10.522968633577701],["Ford",-10.523306309925971],["engine",-10.523571728709577],["Sara",-10.525457249185369],["tension",-10.525884391697588],["promis",-10.526184803044877],["Zimbabwe",-10.526716840953508],["empty",-10.52671699956992],["junior",-10.526717110451624],["Senior",-10.526732964941157],["extraordinar",-10.526762607079634],["Raj",-10.526828655608496],["Please",-10.52719557024675],["index",-10.527802749530009],["settle",-10.52845373593581],["ika",-10.528522035495604],["restrict",-10.529227482672297],["Award",-10.530462279954333],["mini",-10.530554686775517],["knee",-10.53070386000765],["careful",-10.530812826153483],["Walk",-10.530822672747856],["mount",-10.531154397362297],["bird",-10.53139854899107],["rack",-10.532253648887263],["tip",-10.532912238849958],["confident",-10.533060577536965],["manufacturer",-10.534083708160914],["anywhere",-10.534437353150683],["surrounding",-10.534469780431404],["Whe",-10.534576811976757],["cancell",-10.534908362830048],["speaker",-10.535721203279497],["Cas",-10.535931488830338],["Test",-10.537744986424462],["73",-10.538320368961001],["ABC",-10.538796258311411],["breach",-10.538923716386012],["Colorado",-10.539062528541681],["Catholic",-10.539062529560164],["narrative",-10.539147721230915],["academic",-10.539193475546513],["shore",-10.539334204479797],["HS",-10.540010442083716],["Va",-10.540863479898647],["celebrat",-10.541068566574449],["clinical",-10.54110371572704],["clock",-10.541461267262463],["outlet",-10.541753182254517],["followers",-10.542422974096208],["flower",-10.542605009093926],["Republic",-10.543441687549715],["Ok",-10.54347182762979],["SD",-10.54387585621381],["NE",-10.544529349174763],["enhance",-10.544861876438064],["Ren",-10.546046673194],["82",-10.546571231985707],["ahu",-10.546626281805946],["Ste",-10.546788523144984],["propos",-10.547031152141447],["impose",-10.547119529697287],["PA",-10.54795704010538],["folks",-10.54817560676775],["signal",-10.548382772468697],["Area",-10.550006317271833],["arren",-10.55001283924324],["itness",-10.550146140966458],["exit",-10.550357319471953],["ET",-10.550664889859199],["ric",-10.550717480524536],["dish",-10.55096330254462],["shoulder",-10.551269866873547],["Ham",-10.551542452328697],["delphi",-10.551562521987156],["Conference",-10.551562532209186],["cryptocurrenc",-10.551565429370182],["fruit",-10.551578397682434],["viral",-10.551597440871866],["Through",-10.551612945359814],["violation",-10.551793625036671],["climb",-10.551936826773321],["Lord",-10.552212270504963],["gym",-10.552286938325613],["desperate",-10.552431112105928],["complain",-10.552613271024256],["Jason",-10.552991611089055],["arrival",-10.553859923415184],["historic",-10.55423068228895],["arvel",-10.554869243202603],["Tony",-10.55510857298606],["fishing",-10.555829103652602],["ction",-10.556938961375556],["assembl",-10.557089656915085],["Justin",-10.557760040396204],["Phila",-10.559563249330573],["experienc",-10.559775273079193],["oundation",-10.56041745769984],["Israeli",-10.560892987965914],["89",-10.56191913187791],["surger",-10.562956091113755],["micro",-10.563384460698398],["Live",-10.563515941860464],["clip",-10.563858949782897],["except",-10.563929236676797],["divide",-10.5641655436206],["adequate",-10.564220748282967],["perspective",-10.564220751029406],["Professor",-10.564220806175722],["condemn",-10.564220871450075],["YouTube",-10.564225513586461],["conservative",-10.56423022099635],["colour",-10.564243598839143],["plastic",-10.56424929710409],["Patriot",-10.564249842397018],["burden",-10.564256036296824],["encounter",-10.564292640702712],["dramatic",-10.564340365261387],["Leader",-10.565159856699136],["Santa",-10.565752961946394],["Iraq",-10.565874450934796],["portion",-10.565901266189499],["baseball",-10.566464802681349],["DO",-10.566614726172824],["chart",-10.56685533250107],["generate",-10.56711976721352],["newly",-10.567218064773972],["fence",-10.567331056301398],["transform",-10.567815788037013],["legislation",-10.568558507924838],["Abu",-10.56865546050576],["trailer",-10.569234817288015],["violent",-10.570061047652505],["cor",-10.570113444317862],["RO",-10.570142947225689],["advertis",-10.570787660323829],["tank",-10.571205022045557],["apart",-10.571329228681721],["mir",-10.57235692073688],["pal",-10.572719162260732],["scar",-10.573760355509275],["ile",-10.57459588371902],["snap",-10.574930166806832],["coin",-10.575364258334709],["Drive",-10.576636426038469],["Zealand",-10.577043058492308],["absence",-10.577047818627996],["hari",-10.577117084310867],["sanction",-10.57727913846999],["wonderful",-10.577337574666029],["joke",-10.577529353782868],["classroom",-10.577914571455707],["09",-10.578303911869357],["Season",-10.578315265353003],["recording",-10.578653328429708],["root",-10.580669014324783],["5G",-10.580990021199284],["rom",-10.581853334193134],["Val",-10.582753123293715],["grass",-10.58407241095681],["Kev",-10.584317322530563],["Bro",-10.584327566635103],["93",-10.584495575737634],["Eric",-10.584665409389466],["cutt",-10.58504988746106],["Matt",-10.585243428803134],["ami",-10.58554603208181],["rick",-10.587331446989202],["Late",-10.588243080805931],["auto",-10.588646290085293],["caution",-10.589902031116642],["Administrati",-10.590029626236404],["senator",-10.59002985637415],["combination",-10.590030414302706],["Science",-10.590041638920468],["reader",-10.590194996380795],["laid",-10.590258263237484],["nic",-10.590573512077405],["shirt",-10.59058230232877],["craz",-10.590707704048043],["PO",-10.591408632964708],["bike",-10.591588993109585],["alarm",-10.591725843064864],["moral",-10.591870686688825],["lesson",-10.5920242087042],["circulat",-10.592340617589038],["reserve",-10.592377266089152],["Read",-10.592533404754843],["Old",-10.592552638088964],["web",-10.593590238344213],["Call",-10.593712997629673],["See",-10.593850568237212],["spin",-10.594746649885447],["prayer",-10.594778741425841],["dale",-10.59557148764452],["minorit",-10.595909335997142],["bowl",-10.596344287284644],["atic",-10.596417422541077],["ual",-10.59726904759394],["trained",-10.597713809255406],["petition",-10.598069200504835],["Ber",-10.598092797395864],["witnesse",-10.598099347411928],["emerge",-10.598236374575919],["cuts",-10.599046045077602],["exam",-10.600165464466848],["relations",-10.600963365308584],["releas",-10.601035531230387],["wor",-10.601182946575882],["leak",-10.601981472691286],["stimul",-10.602327568721162],["sponsor",-10.60298461877894],["outhern",-10.603047871513981],["component",-10.603186172800038],["anxiet",-10.60318617509091],["Joseph",-10.603187181128277],["depth",-10.603190402342765],["belief",-10.603198248960869],["fundamental",-10.603200880760614],["Saudi",-10.603208832375493],["Program",-10.603241441096234],["strengthen",-10.60327047427223],["extension",-10.603396374539162],["abandon",-10.603497799566853],["Night",-10.603550841597094],["shall",-10.604138854529088],["assign",-10.604189910382068],["knowing",-10.604392323617972],["impossible",-10.604448386232768],["passion",-10.604980818412404],["bal",-10.605350876642667],["enforce",-10.605605090696432],["Kelly",-10.60623157295391],["Pri",-10.606682391075147],["Kenya",-10.606870876490722],["label",-10.608245367359693],["OS",-10.608316970189412],["scientific",-10.608817846566982],["hell",-10.608892040584179],["failing",-10.608990616198415],["TON",-10.609486958111972],["reasonable",-10.609675597158175],["tick",-10.610709989660762],["Brady",-10.611342632575855],["Have",-10.613159170284678],["Bur",-10.613471010947475],["ping",-10.613922949828353],["literal",-10.614247821021943],["trans",-10.615789504871117],["Pl",-10.616265379283208],["Official",-10.616519543236407],["nominee",-10.6165220729651],["Saint",-10.616858422972818],["Keep",-10.61717439714299],["Stan",-10.617304722397375],["proof",-10.617791885305554],["Phil",-10.61799580212211],["gal",-10.618541156230597],["AE",-10.619011690586381],["permit",-10.619037412178267],["ians",-10.62190077511724],["unknown",-10.621971938642604],["cheer",-10.622841396006818],["RC",-10.623327048454769],["stein",-10.624024142400742],["Media",-10.62715811778595],["ula",-10.627244415499424],["Mos",-10.627732691398066],["plead",-10.628173080575046],["upper",-10.628839836121372],["inmate",-10.629799757997397],["Sydney",-10.630033610771708],["horror",-10.630034048759416],["currenc",-10.630035532938386],["Guard",-10.630108434346816],["criticism",-10.630125480177156],["Nicol",-10.630202093703284],["tel",-10.631276844331918],["wine",-10.631344068589874],["Tik",-10.631676750898437],["finger",-10.63229023689399],["Bre",-10.632410698206847],["Top",-10.63293635600973],["weigh",-10.63316856390283],["comic",-10.633198613311587],["boxe",-10.63388143321567],["developer",-10.634174502466443],["automatic",-10.634353399037602],["km",-10.63452826258488],["pray",-10.635062766885586],["Anth",-10.636547353522612],["champion",-10.636779192893744],["strange",-10.636847760681782],["ock",-10.6382624469768],["RS",-10.638355215340976],["ME",-10.639316063394862],["Mad",-10.639861974241756],["views",-10.640969859507482],["zz",-10.641130971979468],["minor",-10.641233471796436],["Za",-10.641453604724578],["Bat",-10.641760018265693],["Jeff",-10.64198162717122],["Tru",-10.642096341177979],["signature",-10.643740454800497],["museum",-10.643748013503654],["aggressive",-10.6438755000316],["carbon",-10.64387820779072],["context",-10.644010303149372],["Josh",-10.644173520531911],["Grant",-10.64425844090282],["cruise",-10.644357553655805],["Sky",-10.644392939014349],["eastern",-10.644507477945659],["racist",-10.645039648728243],["lake",-10.64595487437442],["Golden",-10.64649162291691],["demonstrate",-10.646921331555493],["ockey",-10.647251462577454],["cleaning",-10.6473883303266],["ages",-10.647398488263635],["wards",-10.647519687773482],["AL",-10.648537731917283],["pol",-10.648758635010186],["march",-10.648983868983398],["practical",-10.649206335331959],["Ye",-10.64956201684283],["inspir",-10.649587055534155],["names",-10.650219243300567],["marked",-10.651320725462451],["SC",-10.651979402789392],["Time",-10.652523710527548],["meter",-10.652544504850745],["cope",-10.654156357772175],["Cook",-10.655691163156195],["negotiat",-10.657351974018],["migrant",-10.657568136389182],["genuine",-10.65762077466269],["Stephen",-10.657628064900285],["script",-10.657631254385393],["medium",-10.657689239540476],["Guyan",-10.657727628058966],["pocket",-10.658025107384658],["storage",-10.658435957716152],["runner",-10.65860762693328],["hak",-10.660182465113646],["Barr",-10.660730840886075],["ken",-10.66184731120898],["mere",-10.663316182841388],["Pal",-10.665036819696017],["stepp",-10.665864930034111],["define",-10.666170221176472],["Carl",-10.667168086200473],["alter",-10.668142145220074],["ncy",-10.668759887559036],["Wall",-10.668797446903346],["corn",-10.66898495202453],["Marc",-10.669027329080592],["hub",-10.670065929343224],["Hope",-10.671239566618649],["technologi",-10.67157410250963],["exclusive",-10.671705079131202],["behaviour",-10.67170521766482],["Bitcoin",-10.671710377139215],["convert",-10.671712433782346],["Bengal",-10.67179427012454],["Further",-10.671840406585154],["smartphone",-10.671951841369939],["assistant",-10.672175669067606],["Safe",-10.67223772444634],["Music",-10.672406991413752],["Beat",-10.672601000252694],["organis",-10.67302815648312],["cry",-10.67303935560825],["shutdown",-10.673374387734764],["Ph",-10.673621082214257],["handed",-10.673790062409346],["83",-10.67392939620282],["Las",-10.67430601328348],["Pan",-10.676003787096295],["format",-10.676102384477133],["tolen",-10.676618066667613],["spokesm",-10.676723070504714],["repair",-10.676818467934702],["MD",-10.676993733184288],["lies",-10.67753846986903],["GM",-10.678048992687952],["ray",-10.678118681001273],["chip",-10.678885006053758],["visibl",-10.679175681217913],["musical",-10.679438842362757],["Spani",-10.680595356424512],["Get",-10.680616581399612],["lane",-10.68224184015314],["tune",-10.682248407267672],["tele",-10.683138611103534],["distribute",-10.683562880501693],["videos",-10.68379868464307],["permitt",-10.68395620942191],["Nick",-10.685271397365506],["epidemic",-10.685990756613034],["intervention",-10.685990779907755],["Stadium",-10.685990866490751],["favourite",-10.686033923736229],["Check",-10.686138999781742],["celebrit",-10.686155300175244],["Airport",-10.686211581361672],["negotiation",-10.686267129180031],["Wilson",-10.686368326837488],["Bridge",-10.686456708530374],["01",-10.687739714515175],["fulfill",-10.688060643314294],["proceed",-10.688092104818894],["Louis",-10.688240894834829],["OC",-10.68839524943424],["Space",-10.689591039536838],["equi",-10.68966014580284],["foundation",-10.690511313037083],["investigate",-10.69072110160192],["GA",-10.690813588888357],["aimed",-10.69115133327134],["lung",-10.692044399065663],["bell",-10.69274030591031],["Rob",-10.694246114189937],["basicall",-10.694270376485463],["Crow",-10.695369735665482],["Cooper",-10.695429630884231],["rug",-10.696948329164314],["Ash",-10.698417369132997],["ification",-10.698840814043157],["meat",-10.69942443913034],["sung",-10.69975133616601],["forest",-10.70001845131812],["remov",-10.700379415831272],["respirator",-10.700483509097777],["Investor",-10.700484331922645],["comply",-10.700521342233792],["coffee",-10.700585279998442],["Turk",-10.700702189176589],["Bei",-10.700778712453587],["riot",-10.700970768545822],["violat",-10.701007751443685],["indicat",-10.701290213069202],["OK",-10.70130665277457],["wick",-10.701399156466568],["Was",-10.701591080913063],["smoke",-10.70173722840046],["nobod",-10.702302243752204],["Mer",-10.70344905300096],["panic",-10.703892044720444],["Unit",-10.70435988118107],["Sur",-10.704498088821707],["calm",-10.705128470436343],["feed",-10.705274866597275],["Brian",-10.705586775245493],["Sab",-10.705636413042493],["CU",-10.706510987584807],["latter",-10.706541138538256],["adviser",-10.706791735686277],["signing",-10.707574324655418],["Book",-10.708590136531832],["Bru",-10.710131272238801],["argu",-10.710267281530797],["FB",-10.710985521664899],["Tar",-10.712638803073428],["Mat",-10.714135974758602],["pat",-10.71424475185772],["pit",-10.715007703063549],["subsequent",-10.7151893913571],["efficient",-10.715189391363381],["Associate",-10.715189393497312],["experiment",-10.71518951501965],["Pacific",-10.715189582709822],["podcast",-10.71519006624068],["intensive",-10.715192346824036],["Megha",-10.715243552523699],["vessel",-10.715251454737839],["defence",-10.715331225138632],["Division",-10.71535868382098],["summar",-10.715482019264687],["Bernie",-10.715487171027156],["retain",-10.715530555595912],["funeral",-10.715644781142405],["Modi",-10.71574035475466],["Lady",-10.71590847820569],["squad",-10.716257026386256],["clash",-10.716275561084451],["tier",-10.716387475542398],["arch",-10.716422969852488],["substantial",-10.716993863653979],["stem",-10.717044604249924],["Lind",-10.71762697199975],["AD",-10.717785390785387],["cia",-10.718359933922105],["Minne",-10.71850973773026],["els",-10.718901292381455],["Anti",-10.718917455247706],["orry",-10.718980552145004],["Rep",-10.718986211331035],["edition",-10.71905917053948],["Br",-10.71935539242603],["Never",-10.719374317915246],["earth",-10.719374705345194],["provinc",-10.719580933192361],["Em",-10.719773443724852],["Rich",-10.719882084633003],["SU",-10.720145314416566],["travell",-10.72020073136193],["wore",-10.722289248342745],["inning",-10.722729877619358],["scenes",-10.7227976553901],["Mir",-10.72342343191268],["reward",-10.723694473583626],["Five",-10.724317669658326],["GB",-10.724380667560833],["Art",-10.725592274658425],["integr",-10.726235634944082],["terrorist",-10.726815628720477],["ional",-10.727658896549965],["Financ",-10.727837886701433],["error",-10.72810485099522],["convince",-10.729733227973279],["Ghana",-10.730016311690372],["WA",-10.730079375418253],["association",-10.73011476454834],["Mumbai",-10.730114766808173],["Societ",-10.730114771111701],["qualify",-10.730114806620335],["prohibit",-10.730114907515544],["brutal",-10.730114972604742],["sensitiv",-10.730115768816693],["gradual",-10.730142939652577],["lunch",-10.73016049561884],["registration",-10.730167807856475],["Shan",-10.730193026438585],["absent",-10.730287990219923],["Master",-10.730514323604913],["civilian",-10.730527455695643],["curve",-10.731818778910885],["beaut",-10.732453899582998],["anniversar",-10.733008854792612],["await",-10.733291383953881],["unusual",-10.733509570665714],["Take",-10.733861449364674],["120",-10.734087802819683],["Jet",-10.734140719681095],["institutional",-10.734485062795054],["Eagles",-10.735200166059698],["acquire",-10.735997146780162],["occur",-10.737111761011501],["labor",-10.737170541503549],["sumption",-10.737193624964295],["counsel",-10.73760818553366],["Hal",-10.738061727655632],["inspire",-10.738527855207696],["Indiana",-10.738542850821142],["eager",-10.738989200403],["iron",-10.740310073079863],["lands",-10.740391137756784],["string",-10.740956443386166],["Atlant",-10.741305770231506],["stable",-10.74158616533717],["Mor",-10.742198041895069],["TE",-10.742717063429007],["itz",-10.743250325241798],["DP",-10.743812127015593],["neighbour",-10.74523571132491],["Defense",-10.745266280091249],["trillion",-10.74526706302747],["pattern",-10.745267174861809],["trigger",-10.74528167370233],["Brexit",-10.74529776168768],["Clint",-10.745313887218565],["destination",-10.745351759041785],["drew",-10.746174777582254],["cake",-10.74782199873942],["understo",-10.74799251770838],["forth",-10.748133001779802],["PT",-10.74866558629325],["utter",-10.748685507581595],["Liver",-10.748750262875658],["prefer",-10.749082760422192],["pictures",-10.749690268955353],["emi",-10.750252863134108],["resort",-10.750286882810633],["performing",-10.750665881776504],["Trade",-10.750672226536416],["ura",-10.751202231797063],["exten",-10.75160666882583],["plate",-10.75166971512784],["select",-10.751736766143596],["rig",-10.75243987950277],["Bad",-10.752899613092973],["wal",-10.753501009131949],["ears",-10.75363776183714],["Sony",-10.754784128477572],["gang",-10.754932734153957],["examine",-10.756438495545407],["appli",-10.756933825778255],["overse",-10.75749817548605],["Tre",-10.757767331317792],["clinic",-10.758119961623942],["jing",-10.75818748158548],["aside",-10.758205973296114],["iving",-10.759465256642901],["creation",-10.759639237404294],["priva",-10.759697510753988],["uomo",-10.759776923316036],["convict",-10.760381615935877],["Thompson",-10.760650895430281],["Dakota",-10.760650902470505],["symbol",-10.76065239866831],["barrier",-10.760656496278443],["Palestinian",-10.76069244222468],["Common",-10.760697289620012],["Italian",-10.760727826672264],["Photo",-10.760858877814126],["NSW",-10.760916563057258],["bias",-10.760964379491018],["mountain",-10.761120509174006],["Shi",-10.761138659429562],["GDP",-10.761214857006847],["critic",-10.761316198050718],["hospitaliz",-10.761418991508275],["teammate",-10.761559949213398],["unk",-10.761786804151523],["musician",-10.76193674144649],["citing",-10.76211861839932],["Luc",-10.762419588796803],["smooth",-10.763067538339175],["pursue",-10.763707044076288],["IV",-10.763890325105379],["comed",-10.763988989647139],["peer",-10.76493363439852],["taste",-10.765864417264114],["Kid",-10.765891013019733],["Ross",-10.766022263672763],["buyer",-10.766165536196022],["bol",-10.767591284990381],["Tra",-10.768531030372998],["NY",-10.769244938589829],["swing",-10.769277899286367],["primari",-10.76962756120393],["q",-10.771441613501908],["Bear",-10.77177505415424],["graphic",-10.771945376533232],["MO",-10.773119686266664],["Mak",-10.773541958169876],["71",-10.773586535380279],["lap",-10.774484981323829],["Ven",-10.774575341774296],["skill",-10.774868431007743],["dominat",-10.775056989244899],["pregnan",-10.775118017851852],["subsid",-10.775340985433505],["USA",-10.775484719154182],["Bir",-10.775620449180778],["plain",-10.776071176049221],["relax",-10.776103708412663],["inner",-10.776175708212525],["Arab",-10.776234128387102],["expansion",-10.776275900677152],["satellite",-10.776276592861343],["Which",-10.776277940225576],["cyber",-10.7763911384835],["mandator",-10.77641464250138],["instant",-10.776556441067255],["Tech",-10.776938743153798],["admission",-10.777167127151618],["IN",-10.777486747772764],["Ban",-10.77792918956661],["rebound",-10.778951361291051],["drone",-10.779177554511858],["Matter",-10.779736315470348],["independenc",-10.779982165685649],["interact",-10.78051247025995],["deposit",-10.781004639604028],["Hamil",-10.781086602336348],["RT",-10.78224087740929],["innovation",-10.782436041408639],["quest",-10.782588130669687],["Pur",-10.783031161886862],["mild",-10.783875333987591],["complet",-10.784040738976188],["bri",-10.784099058061916],["types",-10.784736469276883],["Stone",-10.785692392298337],["consum",-10.786505548737154],["nose",-10.786989184572995],["lady",-10.787464308308689],["PL",-10.790563615647198],["bab",-10.791707554353675],["Mid",-10.792085214604299],["topping",-10.792140106642536],["divorce",-10.792148964262331],["Oregon",-10.792152384469828],["Moore",-10.792158864991574],["Utah",-10.79216275512749],["captain",-10.792169273157427],["cabinet",-10.792191619361287],["cluster",-10.79219679993247],["portray",-10.792228515048226],["warrant",-10.792298681797085],["Irish",-10.792318819745049],["portfolio",-10.792324173535182],["impressive",-10.792326210794137],["agenda",-10.792357720201732],["dynamic",-10.792427308906628],["Mountain",-10.79248058973981],["achievement",-10.79286998595581],["bedroom",-10.792985433949855],["progressive",-10.793018156702345],["infectious",-10.793148018143533],["engagement",-10.793177766488725],["confront",-10.793200130659834],["UC",-10.79337856339717],["salar",-10.793402836331811],["Constitution",-10.79384244540653],["Gun",-10.794316536439167],["tention",-10.794465367829886],["Marsh",-10.794771043644268],["gross",-10.794834708608136],["Highway",-10.794966735989956],["resist",-10.795032790581951],["TO",-10.79537175540338],["passionate",-10.795841544485732],["river",-10.796173369043483],["Does",-10.7963226861626],["solve",-10.797585696715549],["UP",-10.797692511499198],["Mill",-10.797873931243316],["cinema",-10.798519456973047],["Gr",-10.799312590371816],["aga",-10.799442788997453],["sheet",-10.79971816632553],["ED",-10.799732764722524],["cited",-10.80037572077508],["hung",-10.80077497538412],["Fair",-10.800866641778136],["hitting",-10.801008239355676],["Sub",-10.801503733873687],["hrew",-10.802560005272216],["winds",-10.803145698842975],["referred",-10.803673362537625],["emission",-10.804072118634096],["beating",-10.804345255543328],["ants",-10.804677777467367],["ella",-10.805556782673769],["layer",-10.806238487089704],["mill",-10.806676937725614],["idden",-10.807077726567659],["ili",-10.807101747051586],["ignor",-10.80719730083759],["evolv",-10.807273867374143],["Je",-10.807325524580213],["forget",-10.807470596113287],["hol",-10.807721522511983],["frai",-10.80794213763487],["premier",-10.808231579587599],["*",-10.808277943148097],["principal",-10.808277943148648],["helicopter",-10.808277944706177],["brilliant",-10.808277961555394],["harvest",-10.808286229176446],["extensive",-10.808297509949192],["Current",-10.80832611940939],["fantastic",-10.808364510836332],["Little",-10.80842668896063],["wipe",-10.80845301386918],["proven",-10.80849210000439],["arrangement",-10.808499647465512],["sugar",-10.809051881204972],["branch",-10.809374369735133],["Six",-10.811042562681664],["holder",-10.811680516770156],["HD",-10.811843665561378],["Melb",-10.812148557135162],["integrate",-10.812237322813203],["headquarter",-10.81282710678315],["Gri",-10.813252642867415],["Mari",-10.814252230210279],["NBC",-10.814564421879515],["oul",-10.815031752224662],["commissioner",-10.815148264949354],["iness",-10.815479955447637],["worri",-10.815824059466632],["fears",-10.815918030237246],["educational",-10.817645075577568],["intention",-10.818546934287012],["OT",-10.819971942870703],["Gate",-10.820483402384948],["lew",-10.820694902307796],["boot",-10.82136731238791],["retailer",-10.821423642035388],["habit",-10.821849497701395],["lated",-10.822018184397326],["oppose",-10.822069260150691],["rail",-10.822403344954758],["transferr",-10.82294887566393],["sustainabl",-10.823835635917469],["fighter",-10.824397364325211],["venture",-10.824460047396446],["nominate",-10.824601013510815],["á",-10.824671385771047],["entrepreneur",-10.824671385771058],["conclusion",-10.824671387328058],["Prevention",-10.824671415834647],["Civil",-10.824677074217625],["electronic",-10.824677321353036],["Radio",-10.824683180577345],["demonstration",-10.824759065176757],["SARS",-10.824761654965457],["replie",-10.824804554941114],["console",-10.824912435610965],["compromise",-10.82493014882628],["CS",-10.824955828336972],["Gulf",-10.825025596953187],["semi",-10.825172317870368],["Farm",-10.82543745142694],["Mitchel",-10.825586550548628],["tenanc",-10.825626860295289],["align",-10.826129338771917],["deadline",-10.82681039140175],["occ",-10.828117116884751],["renew",-10.828390967252911],["USD",-10.828466796249355],["Again",-10.828638308026239],["assume",-10.829553085319679],["ries",-10.830625062796326],["villain",-10.830990351223882],["Boris",-10.831995306445535],["Lives",-10.832742416734629],["titude",-10.832878952011917],["orthern",-10.835698274716727],["roof",-10.836373674695503],["lash",-10.836557558544703],["Ger",-10.837164279788752],["Cre",-10.837268890078885],["bot",-10.837411810316947],["custom",-10.837470249530496],["07",-10.83786277576515],["GP",-10.838234177629676],["citizen",-10.83872301091566],["loud",-10.839338257553583],["Class",-10.839447430676637],["akh",-10.841038272873336],["Dam",-10.841223028456149],["continent",-10.841338193678528],["Should",-10.841339844082771],["navigat",-10.841343555891555],["Tiger",-10.841344793150022],["visual",-10.841352492570056],["liberal",-10.841358706612224],["Organization",-10.841405962828944],["tap",-10.841816751638824],["impeach",-10.841908730422915],["Gre",-10.84198328000437],["sufficient",-10.842225192734123],["hir",-10.84226919503916],["suicide",-10.842324749642643],["milk",-10.842417541262208],["Childre",-10.842436039346172],["rooms",-10.842690969816603],["attach",-10.842741072239347],["ology",-10.843152057574411],["rape",-10.843309900804226],["Var",-10.843798655085315],["Mass",-10.843825453781943],["utilit",-10.84391586891033],["Awards",-10.84393926756458],["chat",-10.843995273030982],["promotion",-10.844424048785992],["Dieg",-10.845141656300543],["Roberts",-10.845597032344793],["mess",-10.845856176691782],["honour",-10.847089055645272],["Make",-10.847217322960784],["achiev",-10.84753987462065],["chest",-10.848175001792157],["quo",-10.84842723053253],["blast",-10.848488837950889],["editor",-10.848505131116578],["VP",-10.848890471913936],["intense",-10.849227001281912],["Anna",-10.849243594202374],["math",-10.850514281445761],["Swi",-10.850560040073937],["tries",-10.85080851944095],["Did",-10.850825686271545],["?\"",-10.851854852217038],["Kate",-10.852073157105405],["Nel",-10.852709798727096],["tribute",-10.853694459961668],["Mart",-10.853927905154608],["Nar",-10.854230021445158],["Steven",-10.855336799909649],["pos",-10.85534393857199],["ular",-10.855869698391064],["duti",-10.856782534957961],["spoken",-10.857337284731248],["explosion",-10.858287204982295],["complicate",-10.858287205956685],["privilege",-10.858287207523421],["Emergenc",-10.85828777929205],["silver",-10.85828859734562],["Affair",-10.858298691416168],["Agricultur",-10.858301650551432],["obligation",-10.858335515409102],["exceed",-10.8583468775312],["missile",-10.858464159919823],["moderate",-10.858652586601233],["fatalit",-10.858720017965162],["pub",-10.859059866433206],["dose",-10.8595357906023],["hum",-10.859761078250092],["ideal",-10.859825412001433],["toilet",-10.859887422600169],["gging",-10.861588229161615],["narrow",-10.861655371012896],["washing",-10.863292530015006],["Dun",-10.864057071874043],["Cam",-10.864111411915141],["Ball",-10.865615027703308],["rity",-10.866860347588466],["gent",-10.867355150218017],["bread",-10.868986086648246],["compos",-10.869405353513285],["heading",-10.86980973662323],["Dub",-10.870308973523969],["coache",-10.871357613761926],["posed",-10.872317892507564],["Main",-10.87262639628519],["Has",-10.873916125736944],["Dem",-10.874350996337732],["Murphy",-10.875528584672338],["technique",-10.87552880940557],["unveil",-10.875529995276182],["grateful",-10.87553103975078],["devastating",-10.875541362588432],["Jacob",-10.875544204340894],["Transport",-10.875577286191923],["punch",-10.875593177049696],["luxur",-10.875626784520595],["noise",-10.875664249310393],["barrel",-10.875860257740037],["Light",-10.875881161537572],["Stock",-10.876003281030101],["rumor",-10.876006806666012],["pledge",-10.876045812738223],["Brook",-10.87606064841134],["ocean",-10.876121332647674],["copy",-10.87620706922754],["Montreal",-10.876405671167035],["Zo",-10.876411338990977],["interaction",-10.876411576489044],["boyfriend",-10.876619055432698],["overnight",-10.877197356666446],["Ep",-10.878343677699984],["workplace",-10.878530199149381],["CB",-10.878758322737866],["Ann",-10.879425199452804],["gel",-10.87977170934699],["temporari",-10.880098158821077],["Such",-10.880103109774172],["houses",-10.880287448105381],["rolling",-10.880438431144151],["compet",-10.880500168835292],["coal",-10.880697229453903],["screening",-10.881049319300391],["IP",-10.88126152551665],["tender",-10.881298716308892],["soul",-10.883382243400979],["amp",-10.883424392570028],["05",-10.883570245161774],["Whit",-10.88381446397177],["Vol",-10.884137840197162],["metre",-10.884672630092147],["VI",-10.884854469609877],["hide",-10.884931580279996],["Fall",-10.885710470150253],["Ott",-10.886732135388115],["processe",-10.887295511165961],["rath",-10.887501347620695],["angle",-10.888193940293512],["roots",-10.888241134985066],["spell",-10.888559587809137],["generat",-10.891043357207764],["2000",-10.89172251058826],["viation",-10.89174553097872],["GH",-10.891933791442508],["entit",-10.892393199915539],["disappear",-10.892751265590064],["disrupt",-10.892803451508872],["Wale",-10.892923287237565],["surveill",-10.8930724722833],["chapter",-10.89307288463015],["Alabam",-10.893074941920084],["Crime",-10.893082538889818],["weird",-10.893082672042494],["Eli",-10.89310252295873],["premise",-10.893128243675882],["Forest",-10.89314196920293],["sentiment",-10.893151957022498],["Garden",-10.893354961838245],["Edward",-10.893582163905632],["ventilator",-10.893682733799007],["disabilit",-10.893759970632702],["reliabl",-10.894097708476028],["EA",-10.894349851894955],["Anderson",-10.894402534362758],["attendance",-10.894680607931086],["criticiz",-10.894702586431492],["referr",-10.89504040095073],["fatal",-10.89506311407463],["PPE",-10.895146603593478],["Miller",-10.895624505806648],["seeming",-10.895801437692484],["Massac",-10.895864702047248],["inches",-10.896055385096314],["Rod",-10.896260793963195],["beds",-10.896813364154761],["odds",-10.89735894949936],["helpful",-10.897864865683786],["rapper",-10.898701443711598],["confus",-10.899908258962277],["emotion",-10.90061978923454],["refus",-10.90087815664441],["Card",-10.900906957465454],["pover",-10.901402380041876],["Brad",-10.901727322519246],["02",-10.901847065021943],["vocal",-10.901894364451714],["Jona",-10.90249586091598],["resign",-10.903053183106698],["istic",-10.904863031748324],["uring",-10.905026968950676],["ration",-10.905354795552725],["fil",-10.905785236489947],["06",-10.905998488632378],["Cape",-10.906654598751118],["neutral",-10.906677530529544],["stance",-10.907688469213053],["proceeding",-10.908341955524287],["Pen",-10.908539312856327],["Pra",-10.91025495407295],["Mount",-10.910559050104043],["favour",-10.910876096238933],["Brazil",-10.910900309004774],["frustration",-10.910929595696766],["deficit",-10.910929605760622],["physician",-10.910929714542098],["fabric",-10.910929738416097],["statistics",-10.910929780915401],["shield",-10.910929782495487],["chicken",-10.910929800207086],["Vietnam",-10.910932073802392],["Austin",-10.910952505731185],["sensor",-10.9109604071823],["Galax",-10.91096755462846],["terribl",-10.911001950868831],["Alexander",-10.911003147964966],["Channel",-10.911003279369023],["Zack",-10.911050311876954],["Rev",-10.911100182883068],["brown",-10.911159221454572],["liquid",-10.911176147684973],["Hawaii",-10.91147880191469],["verse",-10.91156734821531],["oko",-10.911711641335687],["discharge",-10.91188316406837],["Kyle",-10.91197170090579],["clothes",-10.912063509613503],["Oscar",-10.912261323070656],["cooperati",-10.91241020572485],["aches",-10.913379014669022],["mad",-10.913472756113979],["directive",-10.913731734089556],["oppos",-10.914163713112199],["equipp",-10.91416464204331],["Fre",-10.914479504406943],["Jenn",-10.914606883410471],["Speaker",-10.914971849884253],["impos",-10.916356560542905],["overwhelm",-10.916682283204675],["plot",-10.91767630655672],["carrier",-10.917794037386773],["til",-10.917878876325041],["vow",-10.91796703450381],["personalit",-10.918055812516545],["NP",-10.918697690961787],["Char",-10.91884631884783],["chill",-10.919865788975537],["rant",-10.920106906260234],["1960",-10.920549695143158],["Kay",-10.921583902103023],["Jew",-10.921691144851945],["Cur",-10.921848434350931],["participat",-10.921958362732454],["Korean",-10.922059004196075],["dogs",-10.924310912667014],["sack",-10.924930937227348],["Yu",-10.92533031379294],["Due",-10.92542196871943],["instrument",-10.925554630864783],["tape",-10.925581730555898],["Burn",-10.925622798671373],["operational",-10.926178177286529],["ich",-10.926490832733144],["%,",-10.927769857064053],["rely",-10.92851164838583],["publication",-10.92861607139568],["usage",-10.928944326760494],["ndigenous",-10.929111437433747],["chemical",-10.929113753445135],["loose",-10.92912062142157],["Film",-10.929121985857638],["Given",-10.929155121245143],["stakeholder",-10.929161336625098],["loyal",-10.929165788072062],["Corporation",-10.929179632618705],["Hotel",-10.929284890484457],["drill",-10.929315458562353],["firefighter",-10.929326523376776],["Next",-10.929329948543696],["immigrant",-10.929331100563068],["Evans",-10.929398181220817],["laptop",-10.929423396138464],["consist",-10.929473813411235],["preparation",-10.92951430980739],["Cost",-10.92988576951751],["implementation",-10.93001796190147],["bench",-10.930133569104806],["robber",-10.930182087930456],["timing",-10.930422536804615],["Manager",-10.93046348441538],["smile",-10.930659316355353],["TC",-10.93078313695808],["discount",-10.930822439758849],["chao",-10.931593705607618],["Ask",-10.931867663592282],["Nu",-10.932546098392951],["advisor",-10.93275801288243],["myster",-10.933029027682492],["Members",-10.933073633064765],["Tam",-10.933375360522755],["invit",-10.93366970257246],["Charli",-10.933989767393783],["tale",-10.934661184901765],["deny",-10.936103131427664],["Put",-10.936879839906151],["isolat",-10.937098453633173],["eliminate",-10.93737348035249],["Patric",-10.937794282601587],["Terr",-10.938107179175775],["Turn",-10.93993011355354],["creator",-10.940352062884788],["tenni",-10.942918219337951],["Greg",-10.943034132202374],["Thu",-10.943717672988992],["dispos",-10.944074312070562],["UT",-10.944255827665899],["activists",-10.944690212173441],["anyway",-10.945534441431727],["Balti",-10.945681362285658],["Jon",-10.945816158667402],["Land",-10.94609713193617],["Gree",-10.946693071856776],["spark",-10.94680160419814],["AG",-10.94703306543515],["consult",-10.947252583012459],["principle",-10.94762992349706],["Charlotte",-10.94762997228771],["Resident",-10.947630151992797],["contrast",-10.947630366677028],["taxpayer",-10.947636771195949],["reputation",-10.947638211341967],["Museum",-10.947639136840621],["Bureau",-10.947647033912931],["Wolf",-10.94764952729527],["motive",-10.947652298974669],["Dallas",-10.947717508990578],["magazine",-10.948173339568278],["quin",-10.948222083369782],["Information",-10.948272447877354],["Tour",-10.94854556150801],["supplement",-10.94884635947929],["expression",-10.948860969407463],["Small",-10.948862478015233],["NASA",-10.948999073862199],["Kris",-10.949069906244963],["immunit",-10.949289983265643],["Arts",-10.949771710009724],["issu",-10.950138130801458],["therap",-10.950388287703394],["Collin",-10.950675113248701],["Pelo",-10.951374093610847],["Leban",-10.951688418881094],["Dead",-10.952244383533227],["Morrison",-10.952478744393275],["metric",-10.952488479007654],["ML",-10.952947788172164],["kins",-10.953360691041365],["norm",-10.953361701889577],["coordinat",-10.953441640648464],["bubble",-10.953738992840536],["fur",-10.955220908004145],["2003",-10.955312447339255],["Miss",-10.95612965271137],["reek",-10.956250919466719],["parliament",-10.956544392443636],["cheat",-10.956948787934405],["designer",-10.957687855730192],["ku",-10.958368597472296],["statue",-10.958402691879098],["southern",-10.959825036456248],["metal",-10.959828397457645],["Sometime",-10.960752779080444],["jet",-10.960874812387706],["insight",-10.961397817232964],["easing",-10.961860344771289],["arc",-10.962564944108617],["ux",-10.9631268699542],["EX",-10.963417453585864],["cup",-10.963890574729325],["rip",-10.964661933370968],["Simon",-10.965368914535972],["construct",-10.966230360716967],["Ethiopia",-10.966497848207617],["consecutive",-10.966497848278648],["recession",-10.966497896400885],["drastic",-10.966498111404775],["stadium",-10.966498311627529],["conspirac",-10.96650357966093],["fiction",-10.966505226178384],["Nevada",-10.966505278421394],["boast",-10.96650778455117],["vegetable",-10.966532692698372],["Building",-10.966542688848193],["roster",-10.966576339828347],["regret",-10.966580999162074],["interrupt",-10.966581689116305],["Barrett",-10.966615013278844],["compliance",-10.966630307099223],["controversial",-10.966640773785098],["disruption",-10.966787699074299],["harass",-10.966827190538062],["inspiration",-10.96687321939085],["Glen",-10.967236564875957],["sanitizer",-10.967326206137912],["click",-10.96751378420904],["Major",-10.967735529767467],["react",-10.967752423382024],["girlfriend",-10.967758972705582],["teenager",-10.967787429352404],["tiny",-10.967906358537455],["Bio",-10.968432452821792],["pour",-10.968511553719189],["Sad",-10.968555863989536],["Camp",-10.968907578313141],["Sean",-10.969137545610508],["interior",-10.969138610901059],["hook",-10.96922759751305],["buck",-10.969521836122832],["comm",-10.970221543156995],["obust",-10.97072240403167],["PE",-10.971518496619616],["Technology",-10.971555449918483],["attitude",-10.971585347475987],["repeat",-10.971683171686392],["Fla",-10.972545000905095],["Fl",-10.972778512941028],["investigator",-10.973041021790728],["moon",-10.974094678879744],["para",-10.974172892545027],["strain",-10.974253860998884],["ark",-10.974471849283601],["participati",-10.974526294912518],["exception",-10.9763153770204],["realise",-10.976859017993396],["shoes",-10.977149755118733],["marks",-10.977443406992839],["drawing",-10.978361105688403],["powers",-10.978534854189185],["beta",-10.979014205629094],["Fans",-10.979067395069142],["lights",-10.97916656884169],["overwhelming",-10.979566343045638],["valid",-10.97976623352265],["eem",-10.979780367691315],["commit",-10.980989919012849],["Olympic",-10.982295568718337],["theatre",-10.982643597013386],["poster",-10.982652440240523],["communicate",-10.982676076485864],["gon",-10.98326470101117],["ASDA",-10.984990367855863],["MB",-10.985056061013616],["accomplish",-10.985336426519163],["hike",-10.985392040088488],["graph",-10.98566684184086],["Festival",-10.985728619193718],["Muhammad",-10.985728625569541],["enterprise",-10.985729706600114],["Video",-10.985737019737744],["Support",-10.98574229178693],["breast",-10.985744888592091],["succeed",-10.985753271379473],["Solei",-10.985765915475278],["landscape",-10.985773716372165],["Cabin",-10.985791263004547],["Credit",-10.98587721358085],["Chelse",-10.985978552170378],["Baker",-10.985982381774022],["hired",-10.9860355477041],["conviction",-10.98606603026798],["distribut",-10.98629095882456],["ordinar",-10.98643637257225],["overcome",-10.986590397585735],["replacement",-10.986598106483003],["shine",-10.986605302014546],["audio",-10.986627416799681],["angr",-10.98676915723556],["Columbia",-10.986832651757044],["shower",-10.987206047822898],["everyday",-10.987386042006325],["prominent",-10.987437232365716],["refugee",-10.987699272067465],["augh",-10.987945368984516],["acult",-10.988705735123387],["Orange",-10.988784198969382],["Games",-10.98911531971222],["Kam",-10.989117963414401],["fled",-10.989232606896756],["THE",-10.989774156395189],["promot",-10.990331927397484],["electoral",-10.990387087924738],["genre",-10.990991598771402],["rice",-10.991115500636527],["Met",-10.991241715852553],["Case",-10.991342560477362],["tactic",-10.99160729493729],["ique",-10.99225767854992],["productive",-10.992618785626835],["surround",-10.993023569926162],["1990",-10.993280881134528],["slide",-10.993913298968248],["announc",-10.994570660365433],["Dave",-10.994638928404974],["FF",-10.995998297634483],["belt",-10.99619289374958],["Jean",-10.99714755689687],["Emil",-10.997745887374542],["Mel",-10.998421759854034],["Ap",-11.000564460626665],["aunt",-11.000762128602503],["End",-11.000878382356778],["ootball",-11.001482005405538],["Hunt",-11.002978789685097],["Luk",-11.003265743087129],["Cap",-11.003277287784687],["mari",-11.003830149071575],["contractor",-11.003943734133912],["Coin",-11.005195627202035],["detain",-11.005254271636955],["universal",-11.005336477798778],["silence",-11.005338063934689],["Halloween",-11.005338990143985],["Tennesse",-11.005344291786635],["Brooklyn",-11.005378296012507],["opposite",-11.005394904300063],["premiere",-11.005395261733026],["Jesus",-11.00542608395325],["Connell",-11.005596090903943],["Bruce",-11.005982642180854],["coalition",-11.005991428551363],["Kh",-11.006136566947552],["outfit",-11.006326571083026],["delight",-11.006581797004715],["Phase",-11.006610835602194],["specialist",-11.006825878289973],["Euro",-11.006885978515504],["qu",-11.007033271059962],["button",-11.007457520936505],["Hunter",-11.008135635236915],["0000",-11.009315857100537],["useful",-11.0096925970983],["Bor",-11.00998554176441],["lone",-11.010188632298759],["attribute",-11.010552641591108],["Mul",-11.011361679329264],["crush",-11.012575836112623],["wins",-11.012954472158027],["2023",-11.013755206421138],["1970",-11.01400916872037],["urgh",-11.014282670833593],["exceptional",-11.015486021616665],["mash",-11.015662247895262],["counted",-11.015940678678747],["ucker",-11.017214946248831],["pickup",-11.01798780215632],["Christ",-11.018559725276962],["shame",-11.018914695352416],["prop",-11.01899343444369],["probe",-11.019245282405002],["hiring",-11.020179683469982],["Seven",-11.020236619257881],["receiver",-11.020737409416633],["magic",-11.022960912966909],["Kent",-11.024576003711612],["desk",-11.025176780715684],["mortgage",-11.025336461412252],["religion",-11.02533683891386],["Captain",-11.02534087036929],["entrance",-11.025341291978968],["Philippine",-11.025348531283257],["departure",-11.02535772042701],["utiliz",-11.025361362653664],["vendor",-11.025375458062035],["Ocean",-11.02539415123874],["Order",-11.025540374730882],["sweep",-11.025666748730812],["empower",-11.025710909832782],["Aaron",-11.025715127798305],["Warner",-11.025838916172896],["buse",-11.026272423294845],["discriminati",-11.026521875760615],["bitter",-11.026679260291669],["Resource",-11.027070721914015],["constitutional",-11.027309111810297],["thick",-11.0273252936791],["abb",-11.027946357222435],["Studio",-11.028342233607155],["blend",-11.029197321369045],["seize",-11.029950205930431],["erial",-11.031413640539839],["03",-11.032010705452077],["transit",-11.032397913328385],["ignore",-11.032576689305511],["cab",-11.033451313309135],["deck",-11.034090349328942],["Robins",-11.034600305200367],["NG",-11.03502663805139],["FO",-11.035065579021213],["Find",-11.035448060847854],["Way",-11.035639866812287],["spott",-11.036469194648244],["defender",-11.037541373179547],["LP",-11.039388966485292],["Wil",-11.039696781338115],["arring",-11.040141675543435],["bull",-11.040264913687999],["CH",-11.040518436553747],["igg",-11.041061563020131],["rep",-11.04226302232733],["contribut",-11.044205867384896],["chew",-11.044301387608458],["Sale",-11.044929878717117],["₹",-11.045744623658667],["í",-11.045744623658667],["Representative",-11.045744712062419],["judicia",-11.045745560058915],["muscle",-11.045747173598446],["sequel",-11.045749771085074],["reiterate",-11.045751595730259],["recipe",-11.045753154193626],["educate",-11.04576808613459],["Matthew",-11.045790370101841],["laborator",-11.045813596820349],["Village",-11.045820115887253],["uri",-11.045844028056187],["comprehensive",-11.045938824712758],["adventure",-11.046104949905557],["Roger",-11.04616535662258],["Panther",-11.046172739824202],["Storm",-11.046308123615695],["continuous",-11.046338521995285],["apped",-11.04635141050801],["curfew",-11.046489111983398],["NO",-11.046617209967776],["explor",-11.046815880726111],["Reserve",-11.047049693311362],["spaces",-11.047223573128502],["cle",-11.047246591605136],["lifestyle",-11.04725745397644],["rear",-11.04738581465718],["Line",-11.0474175615758],["5th",-11.047568874204995],["quit",-11.047692497460433],["strand",-11.047781749590222],["permission",-11.048089366739827],["Pick",-11.048265154704113],["grave",-11.048873555304667],["sacrifice",-11.049386516304832],["legitimate",-11.049437393473728],["Philip",-11.049710273302058],["ensu",-11.050318874777235],["aging",-11.050451300983763],["fever",-11.05096756672336],["stunning",-11.051138069215128],["nife",-11.051506055804166],["Cro",-11.051972263621458],["Vanc",-11.052117950993205],["deeme",-11.052346119689155],["wishe",-11.053421147849017],["Bri",-11.054570265300494],["antibod",-11.054812592239218],["uous",-11.054836495968026],["fleet",-11.055825735452354],["erry",-11.055895978914348],["lib",-11.056687555141952],["NCA",-11.05789655981668],["Zi",-11.05837024921549],["documentar",-11.059782993692394],["amendment",-11.06008845749269],["Islam",-11.060224947315564],["Near",-11.060545894077597],["bay",-11.060588368599898],["horn",-11.061193471363348],["departments",-11.061569685545672],["Staff",-11.061684066253292],["midst",-11.062603883007764],["cus",-11.062717135086935],["Pho",-11.062930090830045],["thrill",-11.063003713153886],["Pitt",-11.063167313491133],["recognise",-11.064219040605353],["101",-11.066011143203777],["Cla",-11.066200511594216],["unemploy",-11.066408493765655],["jurisdiction",-11.06657795701005],["phrase",-11.0665780201686],["Aberdeen",-11.06657806592769],["cricket",-11.0665783213759],["Kingdom",-11.066578715588744],["float",-11.066581166534226],["Fauci",-11.066583266364196],["silent",-11.066585641549533],["tragic",-11.066585980418083],["Reuter",-11.066590812805613],["Future",-11.066601386585685],["patron",-11.066621951503208],["substance",-11.066651950666834],["drove",-11.066654271479639],["hawk",-11.066699856653514],["liabilit",-11.066760269813626],["Arabia",-11.06684710633015],["pipeline",-11.06687029468122],["hire",-11.066884217574437],["premium",-11.066994264909619],["hug",-11.067032524248273],["optimis",-11.067104940381167],["settlement",-11.067244752414398],["counterpart",-11.067719071755743],["render",-11.068019151104888],["Andre",-11.06834391507296],["Short",-11.068546345009127],["pause",-11.06872069116019],["Penn",-11.069435686893405],["gust",-11.069727107310943],["consideration",-11.069800604789487],["Bull",-11.070203106862081],["Hell",-11.07074956345773],["Airline",-11.071063199660628],["Rick",-11.071334839443942],["Viking",-11.072556472597103],["versu",-11.07293543253104],["BE",-11.073984188833556],["Allen",-11.07540203294176],["token",-11.076779684589201],["Lev",-11.07721291101053],["CMP",-11.078194631414581],["roit",-11.078374073192467],["span",-11.07865229062243],["Bush",-11.078703393317468],["recycl",-11.079122111197172],["Mag",-11.080437294394502],["temp",-11.081556627990585],["Francis",-11.081924602305273],["cure",-11.082031412747723],["Joy",-11.08236537807054],["nail",-11.082518601694357],["Tele",-11.083980229803082],["Putin",-11.084023580584272],["NT",-11.0851740205644],["Adams",-11.08529423986851],["convention",-11.085483472355499],["ight",-11.086415674815],["cow",-11.087309920754596],["exhibit",-11.087585258642477],["Lincoln",-11.087854554022451],["hybrid",-11.08785485176345],["sibling",-11.087856695793134],["Summer",-11.087857415672302],["treasure",-11.08786133039445],["Country",-11.087875114546119],["pivot",-11.087880479370686],["occupie",-11.087888478870006],["costume",-11.087900430838628],["Memorial",-11.087915793730804],["Phillip",-11.088062118508422],["apitol",-11.088066180216675],["Graham",-11.088068477296908],["transformation",-11.088318714639346],["Gordon",-11.08833192437767],["gram",-11.088457670458734],["presentation",-11.08877517149653],["revise",-11.089048776952223],["flash",-11.089252506480955],["download",-11.089575541255751],["establishment",-11.089583111417138],["survivor",-11.089591626329666],["bump",-11.090149845711307],["stabili",-11.091341058711635],["mitigate",-11.091523597104263],["happi",-11.091923592022253],["frontline",-11.092094097512408],["elite",-11.092287715542104],["shipp",-11.092335852118914],["Prof",-11.092347195296602],["relation",-11.092975920219363],["activist",-11.093149181365028],["LL",-11.094301752926874],["rallie",-11.094433159201612],["Easter",-11.094808607017098],["lick",-11.094964138326691],["hail",-11.095189807555997],["plea",-11.095311446815973],["itation",-11.095771205019338],["unexpected",-11.096626372568604],["Thai",-11.096719064082333],["menu",-11.097007926423451],["Buy",-11.098469244352353],["trap",-11.09927753231198],["Death",-11.099915891607122],["diet",-11.100394857731366],["organizer",-11.100413444997503],["Ric",-11.10046669561266],["ancing",-11.100492210807076],["shake",-11.101259251773769],["Kal",-11.101656206514193],["dropping",-11.102562829963894],["Hard",-11.102766026665876],["oven",-11.102923396648034],["iga",-11.10324801024926],["Heart",-11.103352932659254],["auction",-11.104048294292284],["tail",-11.104342150436276],["Mall",-11.10561448734153],["labour",-11.106113734362271],["Along",-11.106429660898547],["izer",-11.106849810882292],["injustice",-11.107622002842035],["aq",-11.108048113214425],["Lim",-11.108155720604978],["DR",-11.10933161426791],["furlough",-11.109593683331536],["voluntar",-11.109593684299988],["democratic",-11.109593685372946],["mechanism",-11.109593687953183],["caucus",-11.109593848006883],["congress",-11.109596593349943],["ialogue",-11.109596886357581],["cannabi",-11.109603726011855],["felon",-11.109604851093],["random",-11.109653028403699],["scrutin",-11.109666201545028],["spiritual",-11.109668022908286],["prize",-11.109683015547345],["boom",-11.109757887479057],["Asset",-11.109846446593746],["Cleveland",-11.109895931020434],["corporation",-11.110278625935209],["Point",-11.110497580772465],["economist",-11.110525039995464],["worship",-11.110842072892352],["exhibition",-11.110928651955874],["partisan",-11.110982879035518],["framework",-11.111166472727637],["membership",-11.112113098984862],["gro",-11.112520811609182],["Cart",-11.112670704560905],["Foot",-11.112837632529036],["Mile",-11.112986705906897],["beef",-11.113563905283478],["Thing",-11.114094666243837],["Rama",-11.114106507093464],["Data",-11.11461835622831],["tooth",-11.114783805361114],["soap",-11.114885467100788],["fate",-11.114991464555207],["Auto",-11.11503003201819],["endorse",-11.115053954637181],["commander",-11.115597541479877],["CM",-11.115635429186232],["inquiry",-11.115678155485641],["NR",-11.116649714483787],["Islami",-11.117380588565204],["ING",-11.118535990939092],["imagin",-11.119449915037505],["acre",-11.120116593830353],["loom",-11.120290483925256],["cater",-11.12041255383178],["AFC",-11.120462703486352],["Der",-11.12084899353765],["glad",-11.121360015769968],["outline",-11.12262478814467],["Iron",-11.122804658546091],["endra",-11.123429469603485],["Kha",-11.123607914358727],["Pass",-11.124068353505296],["Pier",-11.125336478520044],["%)",-11.125996221920774],["Lab",-11.126659302804477],["battl",-11.126722711596315],["Syria",-11.127311307875942],["upset",-11.12746225614935],["trauma",-11.128194173348609],["Direct",-11.128356363232896],["Bow",-11.12893926277447],["Gi",-11.129381955720252],["BR",-11.130125315326785],["Mun",-11.130431193868002],["SB",-11.130776156596308],["lian",-11.1312234666776],["ological",-11.131679883943903],["Conservative",-11.131815905406242],["tremendous",-11.13181590610314],["Similar",-11.131815908155174],["flavor",-11.131815908460622],["Treasury",-11.131815909085468],["Singapore",-11.13181590984969],["obstacle",-11.131815911074582],["ingredient",-11.131815952242256],["Quebec",-11.131816570541908],["stroke",-11.131817210625783],["Douglas",-11.13181837511559],["guitar",-11.131823918241667],["ethnic",-11.131828310182005],["Smart",-11.131983608823276],["prosecution",-11.132019496295651],["consultation",-11.132129920049767],["welfar",-11.132162610306867],["judgment",-11.132185995438945],["introduction",-11.132220788538257],["generous",-11.132243531359421],["crowds",-11.13239976304293],["digit",-11.13242344048123],["fault",-11.132582970854287],["parade",-11.132765793400194],["Blake",-11.133094499013861],["Sar",-11.133313745371577],["pink",-11.133364007569718],["painting",-11.133890062742854],["innocent",-11.134067850998086],["mega",-11.134142103904477],["Gib",-11.134216355666014],["appreciati",-11.134420494646792],["cycl",-11.13445813688328],["lender",-11.134486600996214],["acquisition",-11.134996194573244],["globe",-11.13580156609576],["Brother",-11.13583958206979],["Dean",-11.136187196425036],["Happ",-11.136828060613542],["abad",-11.13819554075794],["heel",-11.138583315587065],["900",-11.140228101938714],["partial",-11.14102204097304],["ector",-11.141137705192918],["pursu",-11.141296150404022],["ICU",-11.14146127210581],["Fred",-11.141649405657322],["Ade",-11.141964012332442],["VA",-11.142934630105934],["declin",-11.143597614675398],["ndroid",-11.144154035662073],["Oak",-11.144776671260654],["Kobe",-11.145113102398277],["Hot",-11.145487664302642],["FT",-11.145527343194914],["Come",-11.145631627500453],["exploit",-11.145685248533187],["Sri",-11.146729477469982],["height",-11.14711392574995],["showcase",-11.14883984533747],["mac",-11.149031444653362],["keen",-11.14919857479465],["shareholder",-11.14921541703876],["immigrati",-11.149333686238558],["Medic",-11.149466777541075],["reservation",-11.149570726503821],["glove",-11.149880025720789],["LC",-11.150268492886163],["tips",-11.1507493955815],["Sho",-11.15099114583506],["Chat",-11.151217442923366],["insider",-11.151265776410357],["litera",-11.15147239105228],["uncertain",-11.15176477883178],["iva",-11.152572847297689],["pac",-11.152795642981662],["itarian",-11.153677422043335],["destructi",-11.15386206904166],["assert",-11.154425355366133],["2004",-11.154447307548695],["efficienc",-11.154543178120974],["Ultimate",-11.154543178243413],["ambassador",-11.154543178258745],["Bangladesh",-11.154543180145339],["reception",-11.154543184684679],["criteri",-11.154543187901234],["athletic",-11.154543375563902],["Field",-11.154543865158907],["Chamber",-11.154546266086642],["exclud",-11.154549006791896],["yellow",-11.154551253405113],["Broncos",-11.154554512763543],["councillor",-11.154563317114757],["flame",-11.154580526365415],["blind",-11.154591525285111],["suspension",-11.15460027124309],["Wayne",-11.154603707723375],["initiate",-11.154608875795859],["Thanksgiving",-11.154631628392293],["commence",-11.154636670281896],["mentor",-11.154643268888023],["Sudan",-11.154718659414414],["nonprofit",-11.154719547209032],["proportion",-11.154727353174627],["ouver",-11.154789730171442],["Duke",-11.154873359847482],["indication",-11.154967015344386],["Nazi",-11.15497455164931],["Roman",-11.154983627604107],["lecture",-11.155002318599184],["Place",-11.155044885905454],["burst",-11.15504873215339],["blaze",-11.155053790993922],["Christophe",-11.155123894486493],["Histor",-11.155276153745818],["stabb",-11.155349492895464],["lev",-11.15543430956604],["crude",-11.155550144351311],["nick",-11.1555640228845],["NEW",-11.15571097318202],["medication",-11.155734270132982],["foul",-11.156073429590348],["Motor",-11.156123376212946],["pregnanc",-11.156235913319007],["Coach",-11.15636998449087],["friendship",-11.156592461833377],["suggestion",-11.156781024013576],["Tro",-11.156911247760803],["Hart",-11.157041371193362],["Tax",-11.157208303544175],["Mol",-11.157549602198948],["deserved",-11.157836876593121],["Camero",-11.159095445504136],["prisoner",-11.159174061821261],["pole",-11.15967844201112],["reverse",-11.160030975150018],["Gill",-11.160042931617049],["Cub",-11.160279849584416],["Thanks",-11.160704399803798],["preserve",-11.160987434865227],["jam",-11.16106901380429],["arcelo",-11.16232672467066],["refresh",-11.162380471477114],["kit",-11.16248870148841],["Jud",-11.162573123565434],["Nam",-11.164787044894645],["Knight",-11.166620562404077],["aki",-11.166784948895673],["tory",-11.167381420242878],["ranking",-11.167932994371503],["traffick",-11.16820092726072],["MT",-11.16953975289012],["ound",-11.170224612389202],["picking",-11.170449926248219],["Being",-11.17133219750387],["noon",-11.1735480067144],["unfair",-11.174286938255841],["McK",-11.174491733319693],["credible",-11.175297553303228],["ike",-11.175949872774938],["shell",-11.176952562647772],["flaw",-11.177027823384567],["traged",-11.177352202091866],["subscription",-11.177799020431262],["phenomen",-11.177799044612323],["Picture",-11.177799652970407],["enormous",-11.177800576133983],["volatil",-11.177802154084985],["mirror",-11.177811400773196],["compell",-11.177818739539353],["atmosphere",-11.177826773314491],["Titans",-11.177867340956208],["incentive",-11.17786903302347],["apologize",-11.177914042867272],["View",-11.17791699296223],["Assistan",-11.177960729732522],["Mau",-11.177963667740094],["Talk",-11.177997872211161],["compound",-11.17803327271724],["Hawk",-11.178165212493065],["accompanie",-11.178171229046177],["cancellation",-11.178299812191643],["confirmation",-11.178351141897803],["PG",-11.178380076795436],["Girl",-11.178510301071613],["ouisiana",-11.178642098355414],["Hopeful",-11.178663173576485],["adjustment",-11.178676442302606],["hospitalization",-11.179040312591724],["Saskat",-11.179127158943663],["fift",-11.179142096230896],["feedback",-11.179232754252483],["endanger",-11.179361312036045],["Kamal",-11.179874154745832],["tenant",-11.179907748597863],["Low",-11.179921288215978],["administer",-11.180045261528756],["var",-11.180180054223204],["Dark",-11.180246713609373],["Ker",-11.18042377801643],["vard",-11.180497519776907],["Labor",-11.180501908129912],["limitation",-11.180868246805975],["rib",-11.181400293017582],["dip",-11.181506332697014],["Tak",-11.181643264221155],["Olympics",-11.181974867113112],["loot",-11.182515553886306],["beneficiar",-11.182581005466758],["Unlike",-11.18282446865975],["migration",-11.183159378568272],["bold",-11.184294576593691],["origin",-11.185722488261213],["lowes",-11.185795350471915],["zel",-11.18599080008643],["supplier",-11.186223375473276],["lig",-11.187138670788272],["bil",-11.187209639471824],["Nat",-11.187472850378406],["offence",-11.187787284577889],["NU",-11.188016973722068],["00000",-11.188345029856997],["Know",-11.18850703220873],["restor",-11.188557946798852],["CR",-11.188905305794531],["acres",-11.189354710875486],["sideline",-11.189440516601188],["zer",-11.190077837230447],["chase",-11.19008326787616],["flee",-11.190329939589034],["zen",-11.191226488649193],["plac",-11.192832966080113],["Fer",-11.193044761750201],["completi",-11.194709204094117],["valent",-11.19507285222316],["RP",-11.195338139549019],["cro",-11.19556665629797],["trappe",-11.197251608200222],["terroris",-11.197580462079607],["Fle",-11.197601626039972],["relie",-11.198072572015292],["constitution",-11.198475751222505],["Merc",-11.19855869957058],["lop",-11.199399426955418],["bath",-11.19943160485037],["rage",-11.199522169533807],["pure",-11.199975231912488],["lover",-11.200221494049519],["lining",-11.200646716074168],["lifetime",-11.201147997315301],["stall",-11.201253974880252],["innovati",-11.201404876763675],["anime",-11.201478610432106],["trait",-11.20148415792747],["commerc",-11.201515937658616],["Journal",-11.201516066301528],["pump",-11.201543656020215],["complication",-11.201608515956654],["administrator",-11.20160852594632],["Pompe",-11.20160871656613],["Edmonton",-11.20160888986352],["Librar",-11.201610014378424],["semester",-11.201611153258147],["Entertain",-11.201612714362106],["inflation",-11.20161954100384],["inevitabl",-11.20162004707734],["Square",-11.201627993582479],["Could",-11.201640411146865],["accommodation",-11.201655589382037],["Berlin",-11.201659727140624],["activat",-11.201678017986861],["Morning",-11.201717767010349],["dirt",-11.201734164408023],["vary",-11.20174146303839],["milestone",-11.201757253674643],["crete",-11.201760725964808],["Calgar",-11.20182095823486],["Kumar",-11.201837012701086],["bullet",-11.201946103882126],["robot",-11.201987574034229],["apolog",-11.202010841411836],["Operation",-11.20201422610893],["Fargo",-11.203009496933138],["Players",-11.203080639043849],["mil",-11.20328610370834],["hits",-11.203311257483257],["designate",-11.203353987745112],["possess",-11.20373955723649],["entitle",-11.205271526779875],["Stay",-11.205875708018151],["ult",-11.205896780758797],["chef",-11.206110921773432],["Ji",-11.206685775383573],["Qui",-11.206798271628514],["raft",-11.206831971848153],["Bond",-11.207424289492188],["Kansa",-11.208504857863197],["iko",-11.20913451645932],["hou",-11.209333754939232],["intentional",-11.209449969420008],["pad",-11.209594847508692],["Jen",-11.211270978846693],["Gal",-11.212571597380009],["submit",-11.214452618423252],["alien",-11.215206956615248],["scam",-11.21595163704624],["ranch",-11.21597982195451],["cott",-11.216401200568523],["audit",-11.216731691058307],["gri",-11.216952618726605],["Lock",-11.21703623930879],["restore",-11.217080893887657],["Event",-11.218431438753507],["grain",-11.218635780071029],["drain",-11.220152295838474],["Edo",-11.220177955375188],["Carol",-11.22073677540537],["Walla",-11.221484674843953],["grab",-11.22163766941487],["escalat",-11.221692701599306],["pastor",-11.221956493426998],["shaw",-11.22205323044522],["bow",-11.222771696355576],["lyric",-11.222804106731125],["recount",-11.22332644713345],["DN",-11.223411175046065],["eath",-11.224082627937106],["solo",-11.224613849825825],["Hamp",-11.224717475227036],["workout",-11.225001687202159],["restart",-11.225282345405418],["Broad",-11.22551504996893],["hygien",-11.225998760111501],["calendar",-11.225999272306566],["Spider",-11.225999685166098],["certificate",-11.226001855256547],["universe",-11.226001972402285],["Consider",-11.226010486968125],["external",-11.226011379657265],["mineral",-11.226016800694273],["bunch",-11.226032111661182],["Section",-11.226039852917086],["Palace",-11.226103451633549],["Liberia",-11.226125770971988],["seal",-11.226225426697404],["scandal",-11.226254343049469],["Jerem",-11.226283817913293],["FM",-11.226365035146959],["Record",-11.226367071340771],["Giant",-11.226390515914154],["Alaska",-11.226473044890394],["dump",-11.226567634663866],["Enter",-11.22662505871729],["circle",-11.226643522879314],["nutrition",-11.226693077871237],["Maryland",-11.226748097144942],["breakfast",-11.226912391945188],["Pittsb",-11.227115390766667],["Gray",-11.227709947938308],["refer",-11.227897580567939],["Libya",-11.228225442915447],["ava",-11.228285352842],["bul",-11.228294059641696],["involvement",-11.228343472095744],["removal",-11.228425279104531],["patch",-11.228512932622367],["riding",-11.228805616124763],["Mail",-11.229244043131942],["Jane",-11.22934568008752],["Recent",-11.229535519857151],["communicat",-11.229626160521999],["fundrais",-11.229664797963386],["Madri",-11.230267451496047],["decent",-11.23045759997051],["mont",-11.231233837950636],["VE",-11.23177585004484],["deau",-11.232677306875447],["mur",-11.232812503905901],["leans",-11.232814795932093],["AB",-11.233311959195177],["mood",-11.233494765065126],["Neil",-11.234137484277511],["kiss",-11.234410234251666],["SF",-11.23466262198634],["ownership",-11.23494111393128],["dependent",-11.235006569644653],["dust",-11.235851011437697],["1980",-11.236337902297105],["gay",-11.237436260075668],["shout",-11.23766927653739],["lens",-11.238432290091435],["04",-11.238608356518272],["Dev",-11.239409345243788],["lineup",-11.239660516530641],["Change",-11.24018166530335],["HR",-11.240644972681185],["Antoni",-11.240734789783547],["tube",-11.241257369352208],["mob",-11.242212871540557],["mum",-11.242251435410019],["grid",-11.242675685151472],["freeze",-11.243550960362464],["thread",-11.244134179099406],["Rome",-11.244884782479025],["pric",-11.245084597039446],["Note",-11.246571221236541],["RM",-11.24697474437418],["accessib",-11.247548492056053],["Trans",-11.247906079647343],["bless",-11.248221108093382],["matur",-11.248878135049459],["sweat",-11.249536760279623],["Lane",-11.25055391191373],["punish",-11.250647298067133],["calculat",-11.250729107363373],["pharmac",-11.250907925584908],["column",-11.250912058407568],["Commerce",-11.250998856032508],["exhaust",-11.250998915826747],["evident",-11.25099897963507],["Communication",-11.250999045916387],["deliberate",-11.25099905167185],["emphasis",-11.25099914988508],["Federation",-11.250999233885322],["nervous",-11.250999357519515],["romantic",-11.25099997141062],["fantasy",-11.250999972125546],["civic",-11.251000027513257],["Internet",-11.25100062172363],["anxious",-11.251001208719117],["diamond",-11.251001219434073],["Receive",-11.251001285357164],["commodit",-11.251001501237626],["Modern",-11.25100422069787],["embass",-11.25101067078035],["fool",-11.251012245511246],["Electric",-11.251013925594357],["borough",-11.251037047303628],["ecosystem",-11.251059908946713],["convey",-11.251089163266313],["decorat",-11.251112014249706],["genetic",-11.251119645351821],["intimate",-11.25120195347154],["affirm",-11.251232051909039],["comparison",-11.251289227220536],["Laura",-11.251311008042459],["disagree",-11.251372890445865],["meaningful",-11.251527998674234],["Update",-11.251547618630063],["safeguard",-11.251685071636857],["shadow",-11.251871910943455],["wildfire",-11.252100355801403],["rian",-11.252568426346484],["Greek",-11.25271869919927],["hom",-11.253037844130994],["disorder",-11.25320012719836],["Rom",-11.253311582439974],["swimm",-11.253758460037556],["devote",-11.253789777682984],["Calif",-11.253842520476223],["breed",-11.254097613025483],["Roy",-11.254139661036437],["haunt",-11.254292437245313],["preference",-11.254325691727809],["Eve",-11.254697595094628],["Champions",-11.254702709644102],["intent",-11.255195016746551],["institute",-11.255496914595547],["pig",-11.255924272092702],["trim",-11.25694091807505],["tired",-11.257705788454906],["Creat",-11.257869131905775],["brush",-11.258261028986736],["pping",-11.25827782691268],["Gor",-11.258585469879494],["bats",-11.258631893601814],["FL",-11.259318394802948],["Mexican",-11.261348646007756],["aving",-11.26189590503822],["Join",-11.261986303014448],["reminder",-11.262060373047118],["350",-11.262708444089181],["izz",-11.262923980173206],["220",-11.262934931141844],["sovereign",-11.263531325709836],["CD",-11.263985318176005],["solv",-11.264106995841399],["Olive",-11.264296823422361],["Hud",-11.264427267756213],["accord",-11.26443097078817],["Log",-11.265401325222888],["ntil",-11.26544506592851],["processor",-11.265514602790429],["Daw",-11.26570406451492],["None",-11.266347647713422],["Robin",-11.266521178352965],["rub",-11.266886692784215],["depressi",-11.267933671475644],["municipalit",-11.268358172500516],["Page",-11.268705647813949],["borrow",-11.268929174447953],["Thor",-11.270881246370994],["bug",-11.270959656372181],["Carr",-11.270959666109924],["stain",-11.271431312751474],["arrow",-11.272638032350192],["oversee",-11.27270201639835],["instruct",-11.272919985604616],["eller",-11.273333662475007],["Boe",-11.2734404158853],["advoca",-11.275025761105644],["APC",-11.275189567925478],["Mississippi",-11.276639785427445],["earthquake",-11.27663979131253],["Taiwan",-11.276639951137486],["mutual",-11.276640375469658],["Doctor",-11.276640789866939],["Temple",-11.27664096736723],["ESPN",-11.276641464814293],["autonom",-11.276643071479452],["Critic",-11.276644645555514],["Ahmed",-11.276650506829442],["thorough",-11.276652089914354],["Citizen",-11.276652146207729],["uniform",-11.276669669454142],["socio",-11.276670760844201],["excuse",-11.276674001258524],["Malawi",-11.276695342264903],["NYSE",-11.276704036950601],["Think",-11.27672953769686],["dispatch",-11.276734775009801],["Jerr",-11.276770162274374],["constituenc",-11.276775704428639],["solida",-11.27679514364492],["Metro",-11.27683902676164],["determination",-11.27684663146044],["cough",-11.276925151574337],["animate",-11.276925353193151],["hotspot",-11.277027527889791],["Doug",-11.277065644041283],["caption",-11.277224996017152],["weakness",-11.277272058503872],["Dodger",-11.277302301931691],["greet",-11.277311723554163],["observation",-11.277557288846833],["Maria",-11.277679210953172],["Victor",-11.277874370418232],["Mother",-11.277897894196688],["cute",-11.278152413147442],["supermarket",-11.278245665023011],["declaration",-11.278571173470581],["laz",-11.278988237173],["notifie",-11.279095933703285],["preferred",-11.27926145318917],["crossing",-11.279441874160831],["Train",-11.2795576634633],["organ",-11.279992817617945],["REN",-11.280029249853794],["unlock",-11.28014564170118],["refund",-11.280863961983146],["Hay",-11.28089715507198],["ambition",-11.281003918119628],["rode",-11.281866235256713],["stating",-11.282195620808844],["rental",-11.28222668967319],["emphasize",-11.282374912802055],["Pet",-11.282957794101868],["Hous",-11.283090255993466],["pride",-11.283370910485772],["Atlanti",-11.283530523657543],["relieve",-11.283580075204906],["bro",-11.283671079967778],["folk",-11.283807086862057],["Brie",-11.283917335777042],["starter",-11.283965612360792],["Born",-11.284166761338682],["spectrum",-11.286066627622859],["performer",-11.286176530795835],["Kra",-11.286305572800636],["CAA",-11.286917258911073],["grabb",-11.287566672895418],["Side",-11.288919914591943],["Nad",-11.289076428601884],["Jenni",-11.289151475795979],["killer",-11.28921172225563],["Laker",-11.290490919049851],["grie",-11.29226608295908],["rop",-11.292354152082924],["Anne",-11.292366544007217],["Kath",-11.292409951523375],["timeline",-11.293701563913846],["legislati",-11.293942868897025],["pil",-11.294460672593578],["kits",-11.294543660542077],["plug",-11.295226812812064],["Pun",-11.29558364022809],["cord",-11.296340647685952],["Bol",-11.29656128585606],["Start",-11.29689101181502],["Prade",-11.297040866742988],["Christin",-11.297146773007363],["allen",-11.297265412036854],["()",-11.297295766845343],["polluti",-11.297428626412149],["griev",-11.297728942960612],["enabl",-11.297926352387368],["Nag",-11.298864592879438],["rak",-11.29905341763958],["Kol",-11.299664779153192],["resistan",-11.29975997482919],["ridge",-11.300489238637384],["Sport",-11.300534807672811],["programm",-11.300869923321503],["Set",-11.301231913165491],["discriminat",-11.301393022747078],["Teh",-11.301839958367117],["KA",-11.301991312134744],["influen",-11.302233863841991],["ounce",-11.302679381459246],["courage",-11.302717275830426],["pension",-11.302929425655377],["Venezuela",-11.302955574903951],["incumbent",-11.3029555751563],["diagnosi",-11.302955576322391],["unanimous",-11.302955579710112],["Municipal",-11.302955605082051],["concession",-11.302955626786147],["Agreement",-11.302955646881742],["suspicion",-11.302955655478875],["Oxford",-11.302956002849843],["Craig",-11.302957127863152],["Indonesia",-11.302958673414377],["Superintenden",-11.302959672472415],["Window",-11.302959714498403],["chamber",-11.302960141742076],["Provinc",-11.302960810706974],["applicant",-11.302989376499825],["steel",-11.302993901860269],["psychological",-11.302994352916347],["livelihood",-11.303078242439392],["preced",-11.30308104889261],["Uganda",-11.303092638181877],["twist",-11.303112093180014],["Clear",-11.303112927519322],["rookie",-11.303113467442301],["persist",-11.303114684236125],["detention",-11.303159067674686],["submission",-11.303287110124948],["asty",-11.303380832951163],["alia",-11.303401018135832],["hardwa",-11.30343660384881],["ultra",-11.303576867029346],["Montana",-11.303703954795154],["memorial",-11.303840167430131],["pretend",-11.30432214700236],["160",-11.304598328963058],["Price",-11.304810702561925],["anne",-11.305171751401911],["enroll",-11.305876019489737],["Hua",-11.306196865624358],["Tali",-11.306196962229395],["merit",-11.306407779256713],["coordinator",-11.306575436517685],["Kil",-11.306595340637394],["Remember",-11.306958285521457],["mock",-11.3078579367322],["sentenc",-11.307879487358802],["reign",-11.308114879786192],["loop",-11.30815154398426],["Much",-11.30833191246752],["logg",-11.308904298962663],["discipline",-11.309653192671584],["Off",-11.310974058491226],["loving",-11.311807974026776],["reinforce",-11.312045139626154],["charm",-11.312159313844546],["spice",-11.312220166481204],["nerve",-11.312485392030624],["occasional",-11.314652130612494],["minimal",-11.314866338380941],["breathe",-11.315493363224878],["Michell",-11.31585068089395],["Rac",-11.316685204006923],["comb",-11.317247232006624],["Dian",-11.317825721854863],["Say",-11.318171603385224],["transparen",-11.318273309177846],["excite",-11.318430730461886],["Fur",-11.319285378269617],["Youth",-11.319309599757476],["CY",-11.319563836596918],["udi",-11.320380879381279],["Kir",-11.32133994647899],["salarie",-11.32149418494302],["ugh",-11.322238746507741],["Steel",-11.3224424839871],["fame",-11.322692870875983],["euro",-11.323145082908757],["Jak",-11.323157323338497],["avage",-11.324322268876449],["Partners",-11.325054785636732],["rob",-11.325102094931172],["toxic",-11.325545685091797],["resilienc",-11.326670725796438],["hence",-11.327286161017316],["Child",-11.328279037338051],["Key",-11.328279070729558],["disinfect",-11.328346809653214],["Lot",-11.32882077880171],["Beyon",-11.329096670996682],["aspir",-11.329760410709717],["Caribbean",-11.329982603009666],["authentic",-11.32998263327201],["condolence",-11.329982692190864],["expenditure",-11.32998269896786],["ambulance",-11.329982736417211],["inclusion",-11.32998283913282],["engaging",-11.329983569865332],["Friends",-11.329985402418462],["Missouri",-11.329987808493659],["Diamond",-11.32998844878599],["firing",-11.329990706314494],["Nichol",-11.329995230171317],["Policy",-11.329995636894246],["Digita",-11.33000215698859],["cheese",-11.33000963094899],["striking",-11.330017364811212],["Campbell",-11.33001928323982],["pizza",-11.330021529576072],["casino",-11.330030265710043],["constitute",-11.330035779938289],["buzz",-11.330050381940328],["Tyler",-11.330051316026637],["mysterious",-11.33007851323763],["Protection",-11.330090220202322],["radical",-11.330120310583952],["honey",-11.330125065010884],["Kennedy",-11.330125729467284],["Kur",-11.330164393852746],["Medicine",-11.330175027876898],["bankruptc",-11.330253212980224],["haul",-11.33041072998386],["depict",-11.330727490543625],["HING",-11.330729747815816],["realiz",-11.330834083858882],["Mom",-11.33093477835565],["impress",-11.331179204217623],["tire",-11.331203513115796],["Cho",-11.331897521258114],["FDA",-11.332037776572445],["centur",-11.332535718339374],["enix",-11.332812314100076],["assumption",-11.332820706230436],["Corn",-11.332920035866769],["castle",-11.333429127424912],["Dick",-11.3335967726768],["Shop",-11.333793421919138],["ruin",-11.333997995552094],["Step",-11.334176100320672],["awesome",-11.334374432280079],["Deb",-11.335090280226975],["Mack",-11.335880417366013],["Marine",-11.336144433173803],["Natural",-11.336647333620494],["originat",-11.336764929672016],["Front",-11.337130804595551],["facilitate",-11.337479081152939],["shocking",-11.339974018954216],["auke",-11.340069709707276],["HC",-11.341290550615463],["Pac",-11.342185085154732],["EV",-11.3424396118082],["Jess",-11.343329144856664],["clu",-11.343681521877388],["Newsom",-11.345247009236065],["Shah",-11.345398333793025],["Dog",-11.345777604720531],["Communi",-11.346319680878565],["LT",-11.347290944837702],["gli",-11.347924875338947],["Xi",-11.34812449927798],["Olu",-11.348248604339018],["undergo",-11.348968798511955],["Sure",-11.350425647369164],["PF",-11.351210941726379],["butter",-11.351339330233726],["Jessi",-11.351354035449223],["Cole",-11.351492972618981],["notion",-11.351554252190752],["Rad",-11.351986059533285],["wrestl",-11.352885067083621],["pri",-11.353534669923556],["Wright",-11.353902285818203],["suburb",-11.353941688974666],["eau",-11.354857172947035],["clue",-11.355361401507231],["Latin",-11.355927004399808],["dual",-11.356279553251689],["ril",-11.356412482373667],["conscious",-11.356938753789484],["pine",-11.357212914060884],["philosoph",-11.357760379705931],["evacuate",-11.357760380526775],["kilometre",-11.357760380778931],["compensation",-11.357760383005445],["Veteran",-11.357760500912514],["Convention",-11.357760625087947],["Globe",-11.357762810053467],["eviction",-11.357763431880244],["stupid",-11.357763715994555],["Animal",-11.357768304880292],["examination",-11.357769861903165],["financing",-11.357781052489038],["Russell",-11.35778450033654],["kov",-11.357788420552295],["Weinstein",-11.35779619547101],["covid",-11.357796524626382],["swift",-11.357801830807524],["Queensland",-11.357811660682348],["Murra",-11.357818922719854],["contrar",-11.357840293378517],["abortion",-11.357841048527943],["Technologi",-11.357865573734045],["Vision",-11.357869505318522],["isdom",-11.357876369147093],["offender",-11.357943679132234],["bathroom",-11.358026105670831],["impression",-11.358038685633051],["wire",-11.358044557143106],["Spence",-11.358069165047171],["prosper",-11.358074475340626],["punishment",-11.358192582606778],["Sign",-11.358431718157856],["defendant",-11.35845612167718],["painful",-11.3585297581762],["Finn",-11.3585652873946],["Perry",-11.358761547923075],["melt",-11.35888786509398],["pointer",-11.35895659635711],["filmmaker",-11.35898777045529],["uz",-11.358997046532755],["motivation",-11.359096303257374],["demonstrator",-11.359186164783893],["alliance",-11.359222943800937],["steer",-11.359431554711751],["Gil",-11.35948966599461],["Buck",-11.359498389546804],["feat",-11.359511094642887],["decid",-11.359839472253855],["damn",-11.35989577201747],["allocation",-11.360599305013837],["gomer",-11.3607155281013],["1000",-11.36072524699223],["magn",-11.36084255266825],["anticipat",-11.360949394427987],["Rating",-11.361726710186936],["ETF",-11.36200195192229],["Dragon",-11.362181920173947],["representation",-11.362292202822584],["wrap",-11.362925840685133],["Baby",-11.363161501594234],["stranger",-11.363270220186095],["pie",-11.363389318748009],["connectiv",-11.363567135789161],["Store",-11.364552702784087],["skeptic",-11.364697993560895],["raj",-11.364933389236556],["endure",-11.36561344044052],["orbit",-11.365691505652894],["poiler",-11.36573081200972],["arrange",-11.366163917937627],["liqu",-11.366424268120616],["ragged",-11.366855402649682],["yder",-11.367398052286287],["fusion",-11.367998915966938],["venge",-11.36810617974771],["fisher",-11.368433729905622],["Farmer",-11.368611570560516],["ogether",-11.368794714059227],["Cav",-11.370856456042823],["Rio",-11.370878159775339],["kel",-11.371461103243279],["Brun",-11.373032787982625],["believ",-11.37436881450535],["DJ",-11.374459092068852],["bonus",-11.37466660202313],["positiv",-11.375815535183818],["secur",-11.376002220060457],["Member",-11.376751738265686],["notabl",-11.376835607213726],["Pop",-11.376966165156032],["trash",-11.377381803631003],["cru",-11.377561390154204],["echo",-11.37763994255932],["Hold",-11.378045141596978],["welcom",-11.378085892886455],["umble",-11.378351933717905],["bvious",-11.380009018830078],["ipping",-11.38014177714087],["nov",-11.380385653938612],["donor",-11.380551809143357],["disc",-11.381141652073989],["memo",-11.381604493052988],["Shu",-11.381640472273117],["patrol",-11.38197327040017],["cca",-11.382292780227028],["Salt",-11.384338906919414],["hack",-11.385028588649988],["overlook",-11.386270097403884],["Harrison",-11.386328007674877],["vaccination",-11.386331808281518],["affiliate",-11.386331825028664],["ophomore",-11.38633188140709],["frustrating",-11.386331925715293],["preliminar",-11.386331963450623],["prevail",-11.386331992193313],["vacation",-11.386332038326609],["Malaysia",-11.386332214863925],["rhetoric",-11.38633250115597],["plague",-11.38633252603498],["mechanic",-11.386332741711238],["deteriorat",-11.386332798154399],["definition",-11.386333138478827],["oxygen",-11.386333892210793],["Punjab",-11.386340866470618],["streak",-11.386344407840127],["Custom",-11.386344702481324],["Would",-11.386345276744192],["cruel",-11.386364074884407],["desert",-11.386370013289643],["foster",-11.386379912280445],["Tampa",-11.386458964258829],["wicket",-11.386574324572738],["Alliance",-11.386601938074122],["confrontation",-11.38681381999698],["Writ",-11.387097140096875],["Mohamm",-11.387240486996278],["realistic",-11.387251495717045],["Living",-11.387318623723749],["revolution",-11.38732541017791],["terminal",-11.3873982809829],["Run",-11.387454092099338],["suppress",-11.387462559773304],["Engineer",-11.38748650155282],["deployment",-11.387599353970177],["drown",-11.38767264852543],["Jamie",-11.387786420925547],["Belgi",-11.387847834420466],["bulk",-11.387898135026468],["coc",-11.38800440019294],["Helen",-11.38834225247323],["Drug",-11.38844248400903],["Horn",-11.388810843727578],["BL",-11.389086395505853],["specialize",-11.389221289349491],["Margar",-11.389287423951624],["Winter",-11.389398395330302],["Found",-11.389735728333894],["Theatre",-11.39029225238362],["GE",-11.390537041505027],["Poll",-11.390938328236205],["terror",-11.391108254639894],["oka",-11.391108630691926],["feeding",-11.391404239695241],["bane",-11.391735413412466],["TD",-11.391769050854052],["Learn",-11.39214753231842],["pipe",-11.392444981022413],["Grace",-11.393491656602489],["riders",-11.393528099000676],["Moh",-11.395133263552866],["cient",-11.395188191366483],["Pete",-11.39563343645168],["container",-11.396069547529267],["DF",-11.397138342147468],["boundar",-11.397225385819977],["Weather",-11.397236132206075],["okay",-11.397403211709491],["blog",-11.39776166559324],["grace",-11.39827791504829],["Him",-11.39844840470332],["induc",-11.398616670955217],["RAM",-11.400143172699012],["cargo",-11.400925684309506],["resumpti",-11.401162524468345],["stair",-11.401303334088942],["Use",-11.401474457820013],["Michel",-11.401955780403258],["tower",-11.402140650909445],["McCa",-11.402141555978176],["Code",-11.402359451383676],["awful",-11.402380328476974],["Intel",-11.402426472549369],["incorporate",-11.403908388249967],["EE",-11.40441174457505],["Cul",-11.404583474869892],["pants",-11.405291203040566],["worsen",-11.405411147227973],["choos",-11.40624167181527],["Macro",-11.406748756540274],["administrati",-11.406826430197482],["pron",-11.407725405761985],["iza",-11.408151701848693],["highway",-11.408625269341046],["lade",-11.409261112233185],["Ng",-11.409604711844043],["Coming",-11.410027067320728],["shopper",-11.411019897977695],["uana",-11.412750859562763],["prosecut",-11.412934599248432],["owing",-11.413055050723285],["Walm",-11.413270049799229],["rigg",-11.41344097416221],["Johnn",-11.413941901823373],["Clar",-11.41523963582042],["publisher",-11.415416268801449],["distinct",-11.415465389945245],["scholar",-11.41557522666853],["enthusias",-11.415647839871276],["differ",-11.41565083109629],["Belarus",-11.415690600600374],["structural",-11.415742724488997],["ridiculous",-11.415743573021993],["legislature",-11.41574357306169],["Nebraska",-11.41574357420165],["supervisor",-11.415743745563939],["Samuel",-11.415743979178178],["variant",-11.415744129946367],["embark",-11.41574417654926],["Lawrence",-11.415744387300569],["parallel",-11.415744701071585],["pepper",-11.415744727290331],["concise",-11.415744963180522],["lobby",-11.415747962899847],["stagger",-11.415753929769735],["surrender",-11.41575628688907],["Legend",-11.41575635010816],["monument",-11.415758974978665],["Celebr",-11.415762744066331],["Arsena",-11.415764258364963],["LGBTQ",-11.41577710313842],["elevate",-11.415784652292595],["Budget",-11.415827630816494],["logistic",-11.415828479039831],["implication",-11.415828488369863],["cafe",-11.415842954033103],["Limited",-11.415847907251502],["crown",-11.415889821361485],["Left",-11.415892173343858],["Madison",-11.415903644096858],["exemption",-11.415941591798116],["distress",-11.415968393740576],["surpass",-11.415981834962018],["Bishop",-11.416049977104333],["corrupt",-11.41625353341473],["laughter",-11.416310498289043],["sheriff",-11.41634029367394],["Link",-11.416355078272804],["Oil",-11.416360639363013],["Face",-11.416443642043186],["attractive",-11.416534192784805],["contestant",-11.41661040559897],["evaluate",-11.416734951125804],["brows",-11.41679023658805],["thankful",-11.416929309767081],["OR",-11.417027392711251],["consent",-11.417208149960699],["ladi",-11.417247691077835],["garage",-11.417272504367368],["facial",-11.417353816960421],["accusation",-11.417723786633992],["brave",-11.41826345363154],["survival",-11.418403170435536],["farming",-11.418593640414215],["Jose",-11.41888034774799],["Sid",-11.418957082601397],["Lynn",-11.419623337832485],["Box",-11.419645962422798],["stabiliz",-11.419711289836648],["liance",-11.419739918240822],["Environmental",-11.420067960250083],["spy",-11.420651603247823],["Wind",-11.42066695807462],["batt",-11.420720154796529],["damag",-11.420771199522532],["igh",-11.421279906331545],["Father",-11.421371302403681],["thru",-11.421830011548034],["BT",-11.421847478711417],["Gregor",-11.422943679125368],["disable",-11.423431861327717],["interi",-11.424302101751746],["Nine",-11.424487951333074],["WAS",-11.42468471876915],["Sel",-11.424787221989396],["Arn",-11.42522326280766],["photographer",-11.425239109772118],["Hur",-11.425774784650583],["Nanc",-11.425963726421026],["hunter",-11.4276938909498],["Uber",-11.42793546085262],["EL",-11.428231463016362],["lude",-11.428295205372681],["Flo",-11.428607736483908],["broker",-11.430259885607459],["criticise",-11.430669133385736],["bind",-11.431233039283239],["Sim",-11.431316445028992],["parliamentar",-11.431543625522481],["Jar",-11.431787089211921],["Ghos",-11.431870781094329],["remarkabl",-11.432258673969816],["uncle",-11.43283491144029],["immer",-11.43347831857616],["logy",-11.433569879071623],["Kadu",-11.433992059340056],["accelerat",-11.43453527972949],["cement",-11.436456614058734],["leverage",-11.437201617111722],["availabilit",-11.438009675210218],["withdraw",-11.439237428333877],["servant",-11.439415433014094],["demo",-11.43947890836185],["Full",-11.440205072373448],["bully",-11.440492960952],["ambitio",-11.441798063965287],["Arc",-11.443543637285133],["peg",-11.443843493911467],["afterward",-11.443916520945743],["output",-11.4440218868555],["Barne",-11.444334273326104],["sink",-11.444420485633097],["controvers",-11.445815810468893],["certifi",-11.446042462360476],["evacuation",-11.446046603355512],["embarrass",-11.44604660342602],["Restaurant",-11.446046604071146],["collision",-11.446046624514862],["awkward",-11.446046659094094],["cautious",-11.446046666505609],["Organisation",-11.446046668390014],["Consumer",-11.446047404590558],["Liberal",-11.44604846509599],["Hopkin",-11.446049861857972],["purple",-11.446050087578604],["Peace",-11.446053820473242],["Grammy",-11.44605452315603],["Bennet",-11.446059126277277],["Fraser",-11.446059747945451],["pronounce",-11.446060410066387],["devastate",-11.446066036480877],["competitor",-11.446070038349355],["Secret",-11.446082292202341],["Keith",-11.446090944418597],["Dublin",-11.446093304503421],["testimon",-11.446120357915035],["Bailey",-11.44612429836602],["graduation",-11.446175918111596],["tighten",-11.44621270817905],["filter",-11.446285153563418],["protein",-11.44631185896348],["excessive",-11.446314651757316],["inventor",-11.446333318775753],["jack",-11.446363811831567],["benchmark",-11.446365744301636],["weaken",-11.446367807496156],["Mann",-11.446367860919619],["childhood",-11.446384063156945],["disclosure",-11.446462426266265],["Mission",-11.446502523978744],["Larr",-11.446518909666633],["galler",-11.446546510220198],["Villa",-11.4466970986941],["organic",-11.446700092259741],["installation",-11.446735770501583],["sandwich",-11.44684025654172],["Eight",-11.446911648639643],["Silver",-11.447360961635557],["Cel",-11.447367937629517],["chant",-11.44739625577977],["withdrawal",-11.44753418022051],["Beck",-11.447671779805818],["nightmare",-11.448120437744667],["Dav",-11.448427901559217],["froze",-11.448603306471533],["Connecti",-11.449213401723158],["Fisher",-11.449297048586535],["ova",-11.450239689308601],["humor",-11.450935312733984],["flexib",-11.45113635978138],["enact",-11.451248501782963],["lore",-11.451328361877376],["notification",-11.451337634617355],["Kenn",-11.452106301252776],["recogniz",-11.452145678589622],["elective",-11.452326821385466],["void",-11.452454797057747],["charter",-11.453177558597577],["enne",-11.453231922955162],["salt",-11.453282050593337],["glo",-11.453394399088374],["QB",-11.454274199842324],["unrest",-11.455197121358536],["Till",-11.457271130983036],["Pope",-11.457644523907108],["opez",-11.458147279130765],["neuro",-11.458235455763015],["pursuit",-11.458521006619575],["farmer",-11.459237878518362],["wrappe",-11.461334914843164],["fro",-11.461467806667342],["Mosco",-11.46250408864019],["rope",-11.4629015316118],["quantit",-11.463326749401869],["affi",-11.463466650669465],["belonging",-11.46456050236694],["Victorian",-11.465069867258228],["Portug",-11.46707526982549],["elf",-11.467332534940292],["Fol",-11.467349568452997],["heim",-11.46775905896196],["doubl",-11.46837128622387],["accommodate",-11.4688512417891],["Patt",-11.469515043345924],["Moon",-11.469520660299294],["cub",-11.470238800573206],["Rug",-11.470375530438195],["satisfie",-11.470604626756248],["endless",-11.470916658497039],["surviv",-11.47107887041603],["medal",-11.471300349444807],["adhere",-11.472186755277264],["functional",-11.472278663637528],["ister",-11.472432370262812],["allege",-11.473791673147153],["Bright",-11.475929234962656],["Zen",-11.47687246943654],["Bab",-11.476908908098277],["commend",-11.477046024470448],["utum",-11.477088068923294],["Azerbaijan",-11.477296603286264],["convenient",-11.477296603301298],["Jerusalem",-11.477296603302596],["explicit",-11.477296607248324],["accurac",-11.477296609904538],["glimpse",-11.477296610770084],["description",-11.47729667755749],["Soviet",-11.477297144872896],["scrambl",-11.477297436671547],["explanation",-11.477297986684032],["pupil",-11.47729902942039],["immense",-11.477299094199635],["precise",-11.477302294745371],["intervene",-11.477305651709518],["wrist",-11.477312804249795],["Wonder",-11.477313772954876],["gesture",-11.47731966039715],["Standard",-11.477330664358965],["Golf",-11.477338734694529],["fitting",-11.477350720470623],["linebacker",-11.477375604664353],["anonymous",-11.477383232004888],["blanket",-11.477387555591553],["bishop",-11.477398275609499],["jacket",-11.477422404083905],["landlord",-11.477436979713627],["tariff",-11.477442522902454],["doom",-11.47745656267712],["monster",-11.477462699562],["Metropolitan",-11.477477759788885],["elve",-11.477489289529842],["consultant",-11.47750881267658],["licence",-11.47752174914929],["anchor",-11.477533347204941],["intersection",-11.477549862681723],["AFP",-11.477601716884337],["rifle",-11.477770854466183],["grandfather",-11.477789028005393],["grandmother",-11.477849719417735],["prioritize",-11.47789789170752],["cousin",-11.477937951964662],["Winni",-11.478035478604552],["flatten",-11.478125712318663],["ierra",-11.478129263123378],["ulu",-11.478152785982942],["Fight",-11.478156294780138],["adaptation",-11.47815887548895],["respondent",-11.478236568298868],["mainstream",-11.47852693028637],["stamp",-11.478630419847418],["Raider",-11.478896133433338],["bounce",-11.479192485022201],["leap",-11.47935237087303],["plunge",-11.479441856386126],["Nash",-11.479790261104284],["Qual",-11.480302140545884],["schedul",-11.480431933555058],["Boss",-11.480566132150331],["conventional",-11.48080709128752],["rink",-11.481010760842182],["triple",-11.481050925718169],["brick",-11.481448521722623],["Soft",-11.481661394400671],["Industr",-11.481961212693122],["Cash",-11.48285099362593],["indicator",-11.482867264800737],["Maha",-11.483467024407037],["mobili",-11.483488780597547],["Prior",-11.483500282687114],["Mobile",-11.483620125105976],["Eye",-11.483648732403504],["cock",-11.483926102351477],["wig",-11.483996605701458],["elli",-11.484409287255492],["Cance",-11.48447792458711],["habitat",-11.485931868746817],["Clo",-11.486127689733546],["municipal",-11.487512318124228],["mainl",-11.48815920560832],["CoV",-11.488275468135171],["Dame",-11.488287514793148],["gui",-11.488880458831035],["110",-11.489147046152286],["corp",-11.489662855104523],["regain",-11.490368095513507],["Ev",-11.490451407482206],["Nik",-11.490545899692512],["CARE",-11.491142557425274],["firework",-11.491676171207171],["Carlo",-11.49205320869853],["keeper",-11.494261768313052],["Grow",-11.49438886020237],["dev",-11.495342869378364],["Const",-11.495481787348325],["McG",-11.495654683621018],["Blas",-11.495796933200364],["practic",-11.496176014640982],["Clay",-11.497143527666193],["Bachelor",-11.497543758426037],["lik",-11.497842821955361],["popp",-11.498445943848566],["chel",-11.499406364359205],["layoff",-11.499897787805189],["assumed",-11.500020394059884],["stack",-11.500112766295324],["evaluation",-11.50038451526892],["125",-11.500752103993698],["Kill",-11.500857291268542],["Eddi",-11.501184937998477],["Ferr",-11.502403495652734],["LG",-11.502407124701184],["physi",-11.503661199681776],["linger",-11.504166489449432],["tcher",-11.504795053684472],["flexibl",-11.505730847016919],["upside",-11.506512289006082],["dock",-11.507167579673574],["drag",-11.507308190942885],["trader",-11.507481658849407],["anuel",-11.508669233206927],["sequence",-11.509390270423015],["assurance",-11.509403811752067],["ndeed",-11.509406416019406],["Ukrain",-11.509481196590434],["predecessor",-11.509554667809985],["convenience",-11.509554667813632],["recipient",-11.509554668773665],["Hurricane",-11.509554669175417],["chronic",-11.509554766589684],["chocolate",-11.509554887588253],["cultivat",-11.50955489713772],["Arthur",-11.509555888587766],["intimidat",-11.509556197011694],["Tesla",-11.509556880602325],["clerk",-11.509566147613244],["Abdul",-11.509570190186725],["Qatar",-11.509570475999706],["Duches",-11.509575034290028],["Snap",-11.509583021938985],["Ronald",-11.50958409925212],["Ridge",-11.509600035609306],["lodg",-11.509600592175774],["Appeal",-11.509609629196143],["poison",-11.509620120864962],["Bernard",-11.509630034112472],["superhero",-11.509631470216009],["Celtic",-11.509652470474876],["Gandhi",-11.509709958154339],["scholarship",-11.50977802554274],["Tower",-11.509787362445573],["tense",-11.509787827032149],["procure",-11.509792110076306],["Stefan",-11.509843018229189],["telephone",-11.50986046658642],["invitation",-11.510023569390965],["inclusiv",-11.510240297666261],["Speed",-11.510304108263517],["Holdings",-11.51047937998815],["Lauren",-11.510628041621512],["tonne",-11.510640235691913],["Jeffers",-11.510720892984656],["passport",-11.510950576269543],["exploration",-11.511559968168765],["firearm",-11.51177483663687],["potato",-11.51184528718404],["rocket",-11.511884123980176],["Rabbi",-11.512468161943692],["oming",-11.512560358602727],["CAR",-11.512687199158393],["allocate",-11.513067493387684],["cular",-11.513070419212536],["epic",-11.514376750773089],["adoption",-11.514414970478418],["prolong",-11.515170323339962],["CBD",-11.515206176454514],["Kel",-11.51676547033434],["witch",-11.516773223931313],["unnecessar",-11.516956551106073],["nderson",-11.516978387178037],["dragon",-11.518831785451479],["Guil",-11.519139554517912],["valuation",-11.51998911815144],["Fu",-11.519995793278024],["Jimm",-11.520335031617273],["nav",-11.520870942276126],["buri",-11.521182436001641],["rban",-11.522412621416702],["ffer",-11.523127554437336],["130",-11.52340029658763],["penn",-11.52526714657407],["salon",-11.526145186808009],["stitution",-11.52717822221657],["traveller",-11.527523588350597],["uster",-11.52771690898998],["ampton",-11.52782855276757],["retreat",-11.528525415515771],["arena",-11.52878428587915],["Song",-11.52938031718897],["boil",-11.529884929737177],["dishe",-11.530641528786505],["bur",-11.531682639799687],["cleaner",-11.532549361687444],["lace",-11.532815571765944],["patien",-11.533912907229485],["240",-11.534367786539734],["disciplin",-11.53443863138086],["Barry",-11.53537144511833],["Task",-11.535578241836362],["Dom",-11.53604416976436],["Jam",-11.536241311715525],["amend",-11.53642728679652],["Made",-11.5366012659656],["leaning",-11.53770583764051],["ethic",-11.538021566672693],["Count",-11.53889376558562],["evolution",-11.539556955253659],["wag",-11.539762127204385],["fortunate",-11.54203130167497],["speculat",-11.542636184717313],["distract",-11.54272970669276],["cigarette",-11.542888002193761],["artificial",-11.54288800220399],["perception",-11.542888004283295],["Buttigi",-11.5428880067883],["Kashmir",-11.54288802839822],["plasma",-11.54288803008161],["Namibia",-11.542888031724164],["delicious",-11.542888055893963],["Hundred",-11.542888098894739],["fascinat",-11.542888115577268],["smuggl",-11.542888147881118],["frustrate",-11.542888170998044],["horrifi",-11.54288825053935],["absurd",-11.542888415648648],["verdict",-11.542888446007723],["Freedom",-11.542888977319803],["tuition",-11.542889368864937],["modifie",-11.542889557352453],["consolidate",-11.542892083922588],["sensation",-11.54289357605861],["bipartisan",-11.542895042470157],["fierce",-11.542896094789281],["vasive",-11.542903740334284],["Embass",-11.542904040942823],["stomach",-11.542914707395868],["diabet",-11.542916016742378],["contagio",-11.542920894598245],["Sussex",-11.542928464028103],["interfere",-11.542928643075479],["notorious",-11.542929617411989],["billionaire",-11.542930338830413],["Derek",-11.542940829684273],["Expert",-11.542943130648723],["Cambridge",-11.543001056492448],["bacteria",-11.543002818861511],["manifest",-11.543011650369905],["Connor",-11.543028069172175],["interception",-11.543048946015718],["sneak",-11.543054695958674],["golden",-11.543141258061826],["tribal",-11.54326850254702],["disadvantage",-11.543316116982721],["Guardian",-11.543320008199961],["tropic",-11.543379995596382],["Hanna",-11.543440426187829],["authorize",-11.543458925623316],["endorsement",-11.543485841243239],["queen",-11.54371834509],["gig",-11.544246389050123],["insult",-11.544338628345697],["uction",-11.544611738477897],["Trail",-11.54466230625907],["Penta",-11.544711308170042],["candle",-11.544814236447088],["payroll",-11.544952154920344],["Universal",-11.545309247714224],["glu",-11.5454786606437],["undermine",-11.54549657312461],["pardon",-11.545707495886447],["deferr",-11.545883318024588],["profound",-11.545963331775743],["Stewar",-11.547300948662693],["taxi",-11.547461234813628],["hardship",-11.54814855004626],["UCL",-11.548239394033118],["Mask",-11.548427833555525],["hungr",-11.548559342118605],["Vir",-11.548729768779072],["smell",-11.54886429202278],["Chase",-11.549334230782884],["storyline",-11.550014285886542],["censu",-11.550605684539487],["3D",-11.551005011303037],["Palm",-11.551336159210827],["restrain",-11.551778627524143],["casualt",-11.55192846084034],["propaga",-11.552592172414496],["prox",-11.553364965353937],["logic",-11.554157338024513],["corona",-11.55427780503009],["regulate",-11.554538042225836],["demon",-11.555470170967372],["memorabl",-11.556688211690108],["fax",-11.55723421316301],["jar",-11.558113348738011],["journalis",-11.558118234437067],["Lau",-11.558210595773557],["Crew",-11.55864012676258],["Clare",-11.559542024826897],["ERS",-11.56038231075057],["blessing",-11.56096335180277],["char",-11.560999041237798],["Cohe",-11.561099201832905],["rebuild",-11.561396316973987],["estimat",-11.561492170811412],["captur",-11.562161542983448],["Sav",-11.56278858939885],["execute",-11.564407513458855],["rabbi",-11.565305205550633],["preventi",-11.566165122630409],["Bang",-11.567634701852551],["arij",-11.568570095953273],["Morris",-11.56922368532742],["geni",-11.569663767857998],["PAC",-11.569862958841831],["Tel",-11.570505310676436],["Roh",-11.5730215180559],["Vot",-11.573110751772742],["smok",-11.574932076321756],["uperior",-11.575110019007727],["Dominic",-11.576034218710525],["oalition",-11.576255209704057],["uneral",-11.576816953756186],["excess",-11.577097021190204],["interpret",-11.577116646938817],["horizon",-11.577252920450817],["algorithm",-11.577370759768026],["Tanzania",-11.577370759890039],["Progressive",-11.577370760507506],["reluctant",-11.577370760630618],["legislator",-11.57737076091078],["pedestrian",-11.57737077116052],["Manhattan",-11.577370807436843],["Magistrate",-11.577370825776105],["companion",-11.577370860725976],["reconcil",-11.577370896823876],["Switzer",-11.577371283700135],["Chancellor",-11.577371422061763],["hazard",-11.577371850088479],["Disaster",-11.577379284336448],["ordinance",-11.577384273307135],["drift",-11.577406767025973],["Zambia",-11.577418571199749],["motorcycle",-11.577463694726159],["burglar",-11.577481522594727],["skirt",-11.57753751177107],["distraction",-11.577651838753996],["Rangers",-11.577654535832526],["Multi",-11.577690535740016],["Quinn",-11.577749581711107],["Retail",-11.577754774612899],["hirty",-11.577786697981288],["Battle",-11.57783096998489],["Arena",-11.577883037117385],["resignation",-11.577897356536706],["Owen",-11.577967483321682],["tolerate",-11.578149049758828],["temple",-11.578152784004311],["attraction",-11.578200186653026],["Rocket",-11.57831235688666],["Express",-11.578458135266652],["attendee",-11.578603134425304],["tenure",-11.57875012764015],["spotlight",-11.578929755176311],["snake",-11.579023572667964],["NW",-11.579140515464438],["cooperate",-11.579289051826901],["Cloud",-11.579554169285963],["modest",-11.579598672433423],["mourn",-11.579874144740607],["artistic",-11.581038282236044],["Ashle",-11.581252186164106],["formula",-11.581291182734418],["swab",-11.581616422696735],["proving",-11.582397554366073],["VER",-11.582806635957596],["passage",-11.58312371679562],["Delta",-11.583562951860397],["colon",-11.58375724858261],["breakdown",-11.584185134886766],["Tur",-11.584340027047565],["medic",-11.584558594238468],["hedge",-11.584702775646523],["Nether",-11.58517609462412],["pollut",-11.585520511497387],["Cut",-11.58589811771736],["Mega",-11.58633164300683],["beate",-11.587274450765953],["rude",-11.588350383910555],["Fift",-11.590534349946832],["Elle",-11.591149670530584],["NAS",-11.592052894044947],["Lam",-11.592114771623997],["luc",-11.592487277723714],["Sharm",-11.593017152833006],["transparent",-11.593018582285701],["rque",-11.593428653456552],["ulation",-11.593504399684702],["pond",-11.593518225817192],["nko",-11.593563285637865],["enberg",-11.594165728974174],["vegan",-11.5946712061515],["nell",-11.597554108744479],["Bird",-11.599047779069],["Lac",-11.599611006891475],["McCo",-11.59996258783929],["Mario",-11.600446925314131],["Tay",-11.60076083394309],["infant",-11.601417401552848],["formation",-11.60203744004994],["steadi",-11.602420124322688],["densit",-11.60247107270937],["Batm",-11.603045593412403],["Charge",-11.60342245695207],["retir",-11.603826759944916],["Parad",-11.603866363901687],["prolif",-11.606149987588399],["CIA",-11.606857031378528],["Row",-11.608414459909543],["Bolt",-11.610786708131219],["Command",-11.610848000848563],["swim",-11.610852936505982],["ntelligence",-11.610921333813522],["Tem",-11.611030078639304],["105",-11.611775322256582],["festiv",-11.61239854662773],["mpire",-11.61261153145012],["academ",-11.612710227917535],["Egypt",-11.61301900264049],["‚",-11.6130850454707],["Kardashian",-11.613085050523082],["cliff",
[...]
