{"version":"1.0","truncation":null,"padding":null,"added_tokens":[{"id":0,"special":true,"content":"<UNK>","single_word":false,"lstrip":false,"rstrip":false,"normalized":false},{"id":1,"special":true,"content":"<SEP>","single_word":false,"lstrip":false,"rstrip":false,"normalized":false},{"id":2,"special":true,"content":"<MASK>","single_word":false,"lstrip":false,"rstrip":false,"normalized":false},{"id":3,"special":true,"content":"<CLS>","single_word":false,"lstrip":false,"rstrip":false,"normalized":false}],"normalizer":null,"pre_tokenizer":{"type":"Whitespace"},"post_processor":null,"decoder":null,"model":{"type":"WordPiece","unk_token":"<UNK>","continuing_subword_prefix":"##","max_input_chars_per_word":100,"vocab":{"<UNK>":0,"<SEP>":1,"<MASK>":2,"<CLS>":3,"!":4,"\"":5,"$":6,"%":7,"&":8,"'":9,"(":10,")":11,"*":12,"+":13,",":14,"-":15,".":16,"/":17,"0":18,"1":19,"2":20,"3":21,"4":22,"5":23,"6":24,"7":25,"8":26,"9":27,":":28,";":29,"<":30,">":31,"?":32,"A":33,"B":34,"C":35,"D":36,"E":37,"F":38,"G":39,"H":40,"I":41,"J":42,"K":43,"L":44,"M":45,"N":46,"O":47,"P":48,"Q":49,"R":50,"S":51,"T":52,"U":53,"V":54,"W":55,"X":56,"Y":57,"Z":58,"`":59,"a":60,"b":61,"c":62,"d":63,"e":64,"f":65,"g":66,"h":67,"i":68,"j":69,"k":70,"l":71,"m":72,"n":73,"o":74,"p":75,"q":76,"r":77,"s":78,"t":79,"u":80,"v":81,"w":82,"x":83,"y":84,"z":85,"~":86,"¡":87,"¢":88,"£":89,"¤":90,"¥":91,"¦":92,"§":93,"¨":94,"ª":95,"«":96,"¬":97,"®":98,"¯":99,"°":100,"±":101,"²":102,"³":103,"´":104,"·":105,"¹":106,"º":107,"»":108,"¼":109,"½":110,"¾":111,"¿":112,"À":113,"Á":114,"Ä":115,"Å":116,"Ç":117,"È":118,"É":119,"Ê":120,"Í":121,"Î":122,"Ï":123,"Ñ":124,"Ò":125,"Ó":126,"Ô":127,"Ö":128,"×":129,"Ø":130,"Ú":131,"Û":132,"Ü":133,"Þ":134,"ß":135,"à":136,"á":137,"â":138,"ã":139,"ä":140,"å":141,"æ":142,"ç":143,"è":144,"é":145,"ê":146,"ë":147,"ì":148,"í":149,"î":150,"ï":151,"ð":152,"ñ":153,"ò":154,"ó":155,"ô":156,"õ":157,"ö":158,"ø":159,"ù":160,"ú":161,"û":162,"ü":163,"ý":164,"Ā":165,"ā":166,"ă":167,"ć":168,"Č":169,"č":170,"ē":171,"ę":172,"ě":173,"ğ":174,"Ġ":175,"ġ":176,"ħ":177,"İ":178,"ı":179,"ĳ":180,"ķ":181,"ļ":182,"Ľ":183,"ł":184,"ń":185,"ņ":186,"Ō":187,"ō":188,"Œ":189,"œ":190,"ř":191,"ś":192,"ş":193,"Š":194,"š":195,"ţ":196,"ū":197,"Ÿ":198,"Ż":199,"ż":200,"Ž":201,"ž":202,"ƅ":203,"ș":204,"ț":205,"ȼ":206,"ɑ":207,"ʏ":208,"ʻ":209,"ʼ":210,"˚":211,"˜":212,"˝":213,"̀":214,"́":215,"̂":216,"̃":217,"̈":218,"̧":219,"̶":220,"α":221,"β":222,"γ":223,"μ":224,"ν":225,"ο":226,"ς":227,"υ":228,"Ё":229,"Ђ":230,"Ѓ":231,"І":232,"Ј":233,"Њ":234,"Ў":235,"А":236,"Г":237,"П":238,"Р":239,"Т":240,"У":241,"Ш":242,"Щ":243,"Ъ":244,"Ь":245,"Э":246,"Ю":247,"Я":248,"а":249,"б":250,"г":251,"д":252,"е":253,"ж":254,"н":255,"о":256,"с":257,"т":258,"у":259,"ю":260,"я":261,"ђ":262,"ѓ":263,"ѕ":264,"і":265,"њ":266,"ќ":267,"ў":268,"џ":269,"қ":270,"һ":271,"օ":272,"א":273,"ב":274,"ד":275,"ה":276,"ו":277,"י":278,"ל":279,"ם":280,"מ":281,"נ":282,"ע":283,"צ":284,"ק":285,"ש":286,"ת":287,"ن":288,"ߋ":289,"ं":290,"अ":291,"क":292,"घ":293,"च":294,"ट":295,"ड":296,"त":297,"न":298,"ब":299,"म":300,"य":301,"र":302,"ल":303,"श":304,"स":305,"ा":306,"ि":307,"ी":308,"ु":309,"े":310,"्":311,"က":312,"င":313,"ည":314,"တ":315,"န":316,"ပ":317,"ဖ":318,"မ":319,"ရ":320,"လ":321,"သ":322,"အ":323,"ါ":324,"ာ":325,"ိ":326,"ု":327,"ေ":328,"်":329,"ြ":330,"ွ":331,"ှ":332,"ᥙ":333,"ᴠ":334,"ᵃ":335,"ᵉ":336,"ḥ":337,"ễ":338,"ỗ":339,"‎":340,"‐":341,"‑":342,"‒":343,"–":344,"—":345,"―":346,"‘":347,"’":348,"‚":349,"“":350,"”":351,"„":352,"†":353,"‡":354,"•":355,"․":356,"…":357,"‪":358,"‰":359,"′":360,"″":361,"‹":362,"›":363,"‼":364,"⁠":365,"⁣":366,"₁":367,"₂":368,"₡":369,"₦":370,"€":371,"₵":372,"₹":373,"℃":374,"™":375,"ⅼ":376,"⇧":377,"−":378,"≈":379,"⌘":380,"⏩":381,"⏰":382,"⏱":383,"─":384,"├":385,"┬":386,"╕":387,"╖":388,"▌":389,"▪":390,"▶":391,"◆":392,"☀":393,"★":394,"☆":395,"☕":396,"☝":397,"☹":398,"☺":399,"♦":400,"⚠":401,"⚽":402,"⛓":403,"✅":404,"✊":405,"✍":406,"✓":407,"✔":408,"✨":409,"❉":410,"❌":411,"❗":412,"❣":413,"❤":414,"➡":415,"➢":416,"➤":417,"⬇":418,"⭐":419,"【":420,"】":421,"ー":422,"化":423,"地":424,"帽":425,"暖":426,"期":427,"温":428,"煤":429,"球":430,"脕":431,"茅":432,"谩":433,"贸":434,"铆":435,"静":436,"默":437,"":438,"":439,"":440,"ﬁ":441,"ﬂ":442,"️":443,"﻿":444,"＊":445,"－":446,"ｅ":447,"##a":448,"##n":449,"##o":450,"##r":451,"##c":452,"##e":453,"##l":454,"##d":455,"##i":456,"##m":457,"##t":458,"##s":459,"##u":460,"##f":461,"##g":462,"##p":463,"##h":464,"##v":465,"##z":466,"##w":467,"##R":468,"##E":469,"##N":470,"##b":471,"##q":472,"##5":473,"##2":474,"##8":475,"##é":476,"##á":477,"##í":478,"##C":479,"##L":480,"##A":481,"##O":482,"##k":483,"##j":484,"##ó":485,"##S":486,"##P":487,"##y":488,"##D":489,"##T":490,"##è":491,"##6":492,"##I":493,"##G":494,"##U":495,"##M":496,"##ô":497,"##4":498,"##3":499,"##0":500,"##W":501,"##x":502,"##ñ":503,"##1":504,"##ë":505,"##H":506,"##ç":507,"##X":508,"##ï":509,"##Y":510,"##ú":511,"##9":512,"##F":513,"##â":514,"##Z":515,"##V":516,"##B":517,"##J":518,"##7":519,"##œ":520,"##î":521,"##́":522,"##ğ":523,"##É":524,"##K":525,"##(":526,"##а":527,"##…":528,"##ђ":529,"##ю":530,"##ş":531,"##ö":532,"##Q":533,"##ü":534,"##ō":535,"##ê":536,"##«":537,"##Р":538,"##Ў":539,"##å":540,"##\"":541,"##,":542,"##À":543,"##'":544,"##ã":545,"##̀":546,"##È":547,"##û":548,"##ä":549,"##š":550,"##º":551,"##~":552,"##Í":553,"##-":554,"##Á":555,"##à":556,"##$":557,"##ª":558,"##̂":559,"##贸":560,"##?":561,"##£":562,"##*":563,"##:":564,"##.":565,"##Ó":566,"##̈":567,"##ū":568,"##)":569,"##“":570,"##ေ":571,"##ာ":572,"##က":573,"##်":574,"##တ":575,"##ွ":576,"##င":577,"##»":578,"##帽":579,"##”":580,"##+":581,"##ù":582,"##—":583,"##ߋ":584,"##’":585,"##!":586,"##ā":587,"##´":588,"##¡":589,"##;":590,"##‘":591,"##Ä":592,"##ø":593,"##/":594,"##ᵃ":595,"##̃":596,"##у":597,"##ў":598,"##Ġ":599,"##Ï":600,"##č":601,"##%":602,"##&":603,"##ò":604,"##ă":605,"##™":606,"##̧":607,"##ﬁ":608,"##﻿":609,"##€":610,"##°":611,"##ı":612,"##–":613,"##ᵉ":614,"##õ":615,"##铆":616,"##ĳ":617,"##ł":618,"##ễ":619,"##>":620,"##æ":621,"##ē":622,"##¬":623,"##ž":624,"##茅":625,"##ð":626,"##Ÿ":627,"##Ö":628,"##¿":629,"##默":630,"##期":631,"##ʻ":632,"##ြ":633,"##န":634,"##မ":635,"##လ":636,"##ိ":637,"##ု":638,"##ရ":639,"##ှ":640,"##ပ":641,"##ါ":642,"##သ":643,"##ည":644,"##े":645,"##ं":646,"##ע":647,"##צ":648,"##מ":649,"##א":650,"##ו":651,"##ת":652,"##А":653,"##Ь":654,"##т":655,"##Э":656,"##ń":657,"##·":658,"##ć":659,"##‚":660,"##о":661,"##ì":662,"##ț":663,"##„":664,"##⁣":665,"##ś":666,"##һ":667,"##і":668,"##Î":669,"##″":670,"##<":671,"##Ñ":672,"##д":673,"##я":674,"##е":675,"##ל":676,"##ם":677,"##ý":678,"##ु":679,"##श":680,"##्":681,"##क":682,"##ि":683,"##ल":684,"##¯":685,"##Ú":686,"##̶":687,"##ķ":688,"##џ":689,"##ř":690,"##ș":691,"##ħ":692,"##煤":693,"##¨":694,"##ß":695,"##У":696,"##н":697,"##‰":698,"##ट":699,"##ी":700,"##ｅ":701,"##【":702,"##ा":703,"##य":704,"##★":705,"##☆":706,"##ż":707,"##Щ":708,"##Ü":709,"##Ô":710,"##ţ":711,"##谩":712,"##²":713,"##ʼ":714,"##Û":715,"##Å":716,"##ỗ":717,"##Ľ":718,"##Ā":719,"##ġ":720,"##┬":721,"##Я":722,"##Ш":723,"##‹":724,"##ѕ":725,"##¦":726,"##с":727,"##›":728,"##⌘":729,"##˜":730,"##ο":731,"##υ":732,"##ς":733,"##¢":734,"##қ":735,"##±":736,"##ד":737,"##י":738,"##נ":739,"##ה":740,"##ḥ":741,"##`":742,"##¥":743,"##球":744,"##温":745,"##暖":746,"##化":747,"##Ž":748,"##ļ":749,"##г":750,"##³":751,"##Ê":752,"##₹":753,"##⇧":754,"##®":755,"##च":756,"##न":757,"##❤":758,"##ー":759,"##ņ":760,"##Ѓ":761,"##Ђ":762,"##ѓ":763,"##І":764,"##Т":765,"##ж":766,"##ќ":767,"##Њ":768,"##њ":769,"##Ъ":770,"##Г":771,"##Ј":772,"##ʏ":773,"##ě":774,"##Ю":775,"##ȼ":776,"##ק":777,"##ב":778,"##ę":779,"##†":780,"##օ":781,"##‡":782,"##ब":783,"##र":784,"##त":785,"##म":786,"##ड":787,"##en":788,"##er":789,"##es":790,"de":791,"##on":792,"##an":793,"##ar":794,"##or":795,"##in":796,"##at":797,"##as":798,"##al":799,"##os":800,"##is":801,"##it":802,"##re":803,"##ent":804,"##ou":805,"##he":806,"##el":807,"##et":808,"en":809,"la":810,"##ue":811,"##ic":812,"in":813,"##ad":814,"##om":815,"##st":816,"##le":817,"##ur":818,"the":819,"##ed":820,"##id":821,"##ion":822,"##il":823,"##ing":824,"##ac":825,"un":826,"##ro":827,"##ec":828,"##ij":829,"que":830,"an":831,"##em":832,"to":833,"##am":834,"con":835,"##ie":836,"##ol":837,"##te":838,"el":839,"##us":840,"##ir":841,"##ig":842,"le":843,"of":844,"##un":845,"##ra":846,"al":847,"##ut":848,"##ch":849,"##and":850,"par":851,"##ers":852,"##iv":853,"##im":854,"se":855,"est":856,"##ant":857,"and":858,"on":859,"##est":860,"##our":861,"th":862,"##ci":863,"com":864,"##ot":865,"pr":866,"##ag":867,"des":868,"is":869,"pro":870,"##ón":871,"re":872,"##ter":873,"##aar":874,"##end":875,"##ul":876,"qu":877,"##ab":878,"##ay":879,"su":880,"van":881,"##ation":882,"et":883,"##ist":884,"een":885,"##ver":886,"##oor":887,"st":888,"##de":889,"##ct":890,"be":891,"les":892,"het":893,"##ans":894,"los":895,"op":896,"##qu":897,"es":898,"##ill":899,"no":900,"##ens":901,"##ce":902,"##ier":903,"##op":904,"pl":905,"##ort":906,"##ión":907,"del":908,"##ment":909,"ex":910,"##ien":911,"for":912,"he":913,"##ado":914,"##res":915,"##se":916,"##av":917,"##io":918,"##ia":919,"##és":920,"du":921,"##if":922,"##ak":923,"##ire":924,"##mp":925,"##der":926,"##oc":927,"te":928,"##ap":929,"##que":930,"las":931,"au":932,"av":933,"por":934,"##ont":935,"20":936,"tr":937,"##me":938,"as":939,"ver":940,"##ta":941,"##ient":942,"we":943,"ge":944,"dé":945,"##ib":946,"##ud":947,"##ly":948,"##ne":949,"##lo":950,"##ect":951,"dat":952,"pour":953,"ne":954,"pas":955,"mo":956,"##ge":957,"##ement":958,"that":959,"##tre":960,"me":961,"##den":962,"une":963,"wh":964,"##ip":965,"##ht":966,"##ru":967,"para":968,"##ación":969,"at":970,"##ijn":971,"ch":972,"ap":973,"De":974,"##ok":975,"voor":976,"##ía":977,"##ere":978,"##ér":979,"##ais":980,"##ijk":981,"##iet":982,"##iz":983,"per":984,"una":985,"lo":986,"ac":987,"##gen":988,"##ous":989,"##au":990,"##ain":991,"##ith":992,"was":993,"met":994,"so":995,"##out":996,"rec":997,"The":998,"je":999,"cont":1000,"##od":1001,"##ven":1002,"comp":1003,"La":1004,"sa":1005,"##ow":1006,"##ate":1007,"sur":1008,"##ait":1009,"##ente":1010,"##ies":1011,"dans":1012,"##ond":1013,"it":1014,"##um":1015,"ar":1016,"En":1017,"##ek":1018,"##ée":1019,"##idad":1020,"fr":1021,"with":1022,"ser":1023,"af":1024,"qui":1025,"##art":1026,"res":1027,"El":1028,"##ub":1029,"part":1030,"##ás":1031,"or":1032,"##les":1033,"In":1034,"##ust":1035,"##ard":1036,"##ve":1037,"##ik":1038,"gr":1039,"##urs":1040,"zijn":1041,"wor":1042,"##ada":1043,"niet":1044,"il":1045,"##ial":1046,"pre":1047,"ad":1048,"##th":1049,"Le":1050,"##ine":1051,"die":1052,"##to":1053,"##lic":1054,"aan":1055,"##bre":1056,"##og":1057,"##ure":1058,"##orm":1059,"exp":1060,"##all":1061,"##én":1062,"##ido":1063,"ab":1064,"##tr":1065,"sp":1066,"##ces":1067,"##oun":1068,"##té":1069,"##eg":1070,"##00":1071,"ré":1072,"cu":1073,"go":1074,"##che":1075,"er":1076,"##ique":1077,"##ld":1078,"##ive":1079,"##ite":1080,"##ang":1081,"##du":1082,"##ave":1083,"##ions":1084,"tra":1085,"has":1086,"imp":1087,"son":1088,"om":1089,"##ore":1090,"##ux":1091,"cl":1092,"##iones":1093,"aut":1094,"over":1095,"not":1096,"##cl":1097,"##emp":1098,"als":1099,"pe":1100,"are":1101,"##ich":1102,"man":1103,"##ff":1104,"##ice":1105,"##aj":1106,"##ft":1107,"plus":1108,"##go":1109,"Al":1110,"##ten":1111,"do":1112,"##ell":1113,"pers":1114,"##uer":1115,"202":1116,"##ales":1117,"dis":1118,"##iè":1119,"ha":1120,"##do":1121,"act":1122,"pol":1123,"##gr":1124,"##ante":1125,"##uss":1126,"ont":1127,"##ale":1128,"##ace":1129,"##we":1130,"##iss":1131,"##ando":1132,"Un":1133,"fin":1134,"inter":1135,"pres":1136,"ce":1137,"##ons":1138,"##ber":1139,"##ast":1140,"have":1141,"mu":1142,"##ès":1143,"said":1144,"##án":1145,"min":1146,"##ance":1147,"sh":1148,"más":1149,"ter":1150,"pos":1151,"##port":1152,"##age":1153,"##ult":1154,"##eld":1155,"##act":1156,"##cia":1157,"Ch":1158,"##pr":1159,"##ity":1160,"##aire":1161,"ve":1162,"##era":1163,"##able":1164,"am":1165,"##ité":1166,"person":1167,"##elijk":1168,"##ios":1169,"##ken":1170,"inf":1171,"##vo":1172,"uit":1173,"##ados":1174,"will":1175,"ag":1176,"##ele":1177,"##aat":1178,"##ord":1179,"##ica":1180,"mar":1181,"##ción":1182,"##ong":1183,"Th":1184,"entre":1185,"don":1186,"como":1187,"##ug":1188,"##per":1189,"19":1190,"from":1191,"##ind":1192,"cas":1193,"car":1194,"##ins":1195,"cons":1196,"An":1197,"ook":1198,"##ors":1199,"##mer":1200,"##uis":1201,"##amb":1202,"cr":1203,"##ide":1204,"##ern":1205,"##ign":1206,"avec":1207,"by":1208,"##ations":1209,"##anc":1210,"##ico":1211,"##ident":1212,"##ess":1213,"##ould":1214,"##int":1215,"##amp":1216,"##ear":1217,"##ille":1218,"maar":1219,"##ma":1220,"##mo":1221,"ze":1222,"##ech":1223,"app":1224,"##ome":1225,"##ste":1226,"##ores":1227,"bij":1228,"##ert":1229,"##rij":1230,"##ise":1231,"##ió":1232,"ob":1233,"acc":1234,"##ep":1235,"##elle":1236,"si":1237,"##ack":1238,"été":1239,"##ost":1240,"##ette":1241,"off":1242,"all":1243,"##ile":1244,"sus":1245,"reg":1246,"inv":1247,"##ero":1248,"##ight":1249,"enc":1250,"##und":1251,"añ":1252,"##land":1253,"##iqu":1254,"##eren":1255,"this":1256,"##oy":1257,"##erd":1258,"ind":1259,"##aron":1260,"had":1261,"##ob":1262,"##az":1263,"##ime":1264,"##cr":1265,"##ual":1266,"##nen":1267,"vol":1268,"##ass":1269,"Mar":1270,"201":1271,"zo":1272,"##uest":1273,"hab":1274,"este":1275,"Het":1276,"cor":1277,"##oup":1278,"##ays":1279,"her":1280,"comm":1281,"ma":1282,"##ach":1283,"Fr":1284,"dan":1285,"##eft":1286,"his":1287,"##one":1288,"##ov":1289,".”":1290,"heb":1291,"conf":1292,"sol":1293,"##ze":1294,"##ian":1295,"med":1296,"nog":1297,"##iend":1298,"##itu":1299,"##ées":1300,"##ional":1301,"##ina":1302,"esp":1303,"”,":1304,"out":1305,"you":1306,"can":1307,"sont":1308,"br":1309,"##uit":1310,"emp":1311,"resp":1312,"##pt":1313,"##aan":1314,"##ière":1315,"but":1316,"ann":1317,"##be":1318,"inc":1319,"Il":1320,"ten":1321,"their":1322,"##gan":1323,"vo":1324,"##la":1325,"##ende":1326,"##ida":1327,"co":1328,"##ame":1329,"##min":1330,"##ige":1331,"##oug":1332,"##ose":1333,"ou":1334,"Les":1335,"##lect":1336,"##vel":1337,"they":1338,"##ble":1339,"dur":1340,"sch":1341,"##ours":1342,"##acht":1343,"ik":1344,"door":1345,"produ":1346,"##her":1347,"##ence":1348,"##ingen":1349,"col":1350,"##iento":1351,"##co":1352,"##éd":1353,"soci":1354,"seg":1355,"tot":1356,"mill":1357,"##leg":1358,"hij":1359,"##je":1360,"up":1361,"wel":1362,"dif":1363,"##vent":1364,"us":1365,"##ric":1366,"ret":1367,"St":1368,"wat":1369,"»,":1370,"real":1371,"##eder":1372,"dire":1373,"who":1374,"##ants":1375,"Est":1376,"##con":1377,"##man":1378,"mil":1379,"naar":1380,"##air":1381,"##ke":1382,"##cht":1383,"bl":1384,"##ieu":1385,"waar":1386,"##ijd":1387,"We":1388,"mat":1389,"##ros":1390,"heeft":1391,"##ambi":1392,"aux":1393,"##elf":1394,"year":1395,"been":1396,"gen":1397,"He":1398,"rel":1399,"##aciones":1400,"##uel":1401,"##ets":1402,"po":1403,"##omm":1404,"##nes":1405,"##ix":1406,"##ana":1407,"ho":1408,"##ied":1409,"fam":1410,"It":1411,"gro":1412,"As":1413,"##ition":1414,"##ific":1415,"##ui":1416,"##ible":1417,"##ben":1418,"fe":1419,"##ner":1420,"cent":1421,"meer":1422,"pub":1423,"sec":1424,"##ks":1425,"sal":1426,"##erc":1427,"bet":1428,"dec":1429,"sin":1430,"int":1431,"mis":1432,"000":1433,"fue":1434,"##ario":1435,"##va":1436,"##unt":1437,"tod":1438,"mak":1439,"onder":1440,"##añ":1441,"##ora":1442,"prop":1443,"##atie":1444,"##use":1445,"##ras":1446,"##aal":1447,"##up":1448,"##app":1449,"dep":1450,"Es":1451,"rep":1452,"##ambién":1453,"dit":1454,"##ings":1455,"##icip":1456,",”":1457,"##ura":1458,"##els":1459,"dem":1460,"pré":1461,"just":1462,"##ade":1463,"men":1464,"prim":1465,"##ias":1466,"\",":1467,"##wo":1468,"##ress":1469,"Ar":1470,"Par":1471,"Je":1472,"##aux":1473,"pue":1474,"trans":1475,"##ois":1476,"##erk":1477,"##red":1478,").":1479,"cette":1480,"##ople":1481,"##omen":1482,"##are":1483,"loc":1484,"were":1485,"##za":1486,"On":1487,"##amos":1488,"mais":1489,"##br":1490,"inst":1491,"prem":1492,"mom":1493,"##amente":1494,"fait":1495,"##istr":1496,"more":1497,"deux":1498,"bo":1499,"much":1500,"##tim":1501,"##ase":1502,"##ivers":1503,"éta":1504,"##adas":1505,"10":1506,"sem":1507,"tien":1508,"also":1509,"##ound":1510,"##ated":1511,"cap":1512,"ass":1513,"ent":1514,"##af":1515,"hebben":1516,"##ther":1517,"##no":1518,"##ital":1519,"##uc":1520,"serv":1521,"##encia":1522,"prés":1523,"moet":1524,"ses":1525,"about":1526,"Con":1527,"people":1528,"one":1529,"##vern":1530,"cre":1531,"##ures":1532,"moment":1533,"sup":1534,"bien":1535,"pero":1536,"##ough":1537,"rem":1538,"##tes":1539,"tout":1540,"jaar":1541,"may":1542,"mon":1543,"eur":1544,"arr":1545,"déc":1546,"”.":1547,"##ún":1548,"inform":1549,"##ones":1550,"##own":1551,"##ior":1552,"##ical":1553,"##dt":1554,"##baj":1555,"dos":1556,"import":1557,"##ativ":1558,"pa":1559,"vers":1560,"##ues":1561,"##lar":1562,"##oir":1563,"incl":1564,"años":1565,"##antes":1566,"im":1567,"##fic":1568,"rest":1569,"daar":1570,"week":1571,"prov":1572,"ins":1573,"##mente":1574,"##cent":1575,"##its":1576,"##par":1577,"vis":1578,"bel":1579,"hac":1580,"oc":1581,"polit":1582,"##ouw":1583,"esta":1584,"##quip":1585,"##zo":1586,"##iel":1587,"alle":1588,"##ike":1589,"worden":1590,"##uur":1591,"##ank":1592,"famil":1593,"temp":1594,"##ará":1595,"which":1596,"),":1597,"être":1598,"new":1599,"##ís":1600,"kun":1601,"red":1602,"em":1603,"eff":1604,"hel":1605,"att":1606,"dr":1607,"nous":1608,"fir":1609,"##ats":1610,"she":1611,"##pl":1612,"##ely":1613,"ref":1614,"##cul":1615,"mens":1616,"también":1617,"##ink":1618,"##ese":1619,"##aba":1620,"##ction":1621,"contin":1622,"commun":1623,"organ":1624,"##ême":1625,"tro":1626,"##ista":1627,"grand":1628,"ya":1629,"##emos":1630,"its":1631,"##ents":1632,"##fr":1633,"##entes":1634,"prof":1635,"sc":1636,"cal":1637,"would":1638,"##erv":1639,"##ary":1640,"##ense":1641,"##heid":1642,"##ador":1643,"Dat":1644,"##ét":1645,"Br":1646,"está":1647,"tou":1648,"sobre":1649,"##ez":1650,"elle":1651,"const":1652,"kan":1653,"wordt":1654,"##idos":1655,"##gel":1656,"nou":1657,"##iers":1658,"##iques":1659,"Los":1660,"work":1661,"##low":1662,"pass":1663,"##ussi":1664,"han":1665,"##jet":1666,"Ik":1667,"##los":1668,"##igen":1669,"##aut":1670,"fil":1671,"plan":1672,"apr":1673,"contr":1674,"time":1675,"geen":1676,"##embre":1677,"bes":1678,"##irus":1679,"Se":1680,"Wh":1681,"ans":1682,"##olog":1683,"dev":1684,"2022":1685,"Com":1686,"desde":1687,"Ne":1688,"##lijk":1689,"situ":1690,"##ts":1691,"nue":1692,"##als":1693,"##tra":1694,"mes":1695,"trabaj":1696,"nom":1697,"##él":1698,"##erg":1699,"##iste":1700,"nu":1701,"##rol":1702,"dern":1703,"get":1704,"bu":1705,"public":1706,"nos":1707,"Ad":1708,"##ick":1709,"leur":1710,"##ég":1711,"##ister":1712,"était":1713,"after":1714,"##idades":1715,"##ict":1716,"mont":1717,"##ular":1718,"avait":1719,"va":1720,"che":1721,"comme":1722,"##ieron":1723,"conc":1724,"##na":1725,"perm":1726,"##cial":1727,"##ische":1728,"##ivo":1729,"##vol":1730,"ét":1731,"##jo":1732,"##cess":1733,"Gr":1734,"##oord":1735,"##lement":1736,"sub":1737,"Eur":1738,"there":1739,"##aine":1740,"when":1741,"sy":1742,"No":1743,"##vers":1744,"15":1745,"vous":1746,"##ational":1747,"aussi":1748,"invest":1749,"même":1750,"##ito":1751,"##conom":1752,"##ath":1753,"hay":1754,"some":1755,"ni":1756,"##pos":1757,"sou":1758,"direct":1759,"ke":1760,"##arg":1761,"##ías":1762,"##ère":1763,"camp":1764,"12":1765,"##emb":1766,"##ree":1767,"art":1768,"##ning":1769,"##ino":1770,"zich":1771,"##ief":1772,"bec":1773,"##gram":1774,"hist":1775,"eer":1776,"##alement":1777,"bus":1778,"twe":1779,"##xim":1780,"cer":1781,"##arios":1782,"fuer":1783,"def":1784,"our":1785,"\".":1786,"##lam":1787,"##ari":1788,"##ph":1789,"Qu":1790,".\"":1791,"##ret":1792,"##aten":1793,"pod":1794,"##elen":1795,"na":1796,"##aren":1797,"kunnen":1798,"kn":1799,"them":1800,"esc":1801,"##aires":1802,"30":1803,"Des":1804,"And":1805,"##til":1806,"minist":1807,"zou":1808,"tak":1809,"##led":1810,"ph":1811,"##ull":1812,"##pe":1813,"##ourn":1814,"».":1815,"coun":1816,"hom":1817,"##icial":1818,"##icht":1819,"alg":1820,"tegen":1821,"##lu":1822,"après":1823,"##ates":1824,"##ater":1825,"der":1826,"faire":1827,"##urr":1828,"##arr":1829,"##teur":1830,"2020":1831,"ro":1832,"prot":1833,"Europ":1834,"##ger":1835,"goed":1836,"##da":1837,"activ":1838,"than":1839,"muy":1840,"##form":1841,"even":1842,"##irm":1843,"bas":1844,"##ustr":1845,"##ano":1846,"ca":1847,"sign":1848,"long":1849,"intern":1850,"veel":1851,"##orte":1852,"##of":1853,"like":1854,"##lev":1855,"##ock":1856,"##pen":1857,"##mes":1858,"hun":1859,"gener":1860,"##day":1861,"ste":1862,"país":1863,"Re":1864,"mun":1865,"play":1866,"deze":1867,"Maar":1868,"##ider":1869,"todo":1870,"other":1871,"##enta":1872,"##idente":1873,"ben":1874,"ci":1875,"Por":1876,"##bo":1877,"ju":1878,"##po":1879,"best":1880,"pat":1881,"##ltim":1882,"##eces":1883,"val":1884,"##ced":1885,"##uk":1886,"##éc":1887,"ces":1888,"my":1889,"##elon":1890,"hor":1891,"##inci":1892,"##iden":1893,"mensen":1894,"CO":1895,"dest":1896,"coron":1897,"##ves":1898,"##let":1899,"##ara":1900,"##onn":1901,"##acional":1902,"aff":1903,"Pr":1904,"pand":1905,"form":1906,"program":1907,"what":1908,"tu":1909,"##iment":1910,"mal":1911,"##ild":1912,"##ici":1913,"##onder":1914,"enf":1915,"##vis":1916,"##ques":1917,"hasta":1918,"report":1919,"Car":1920,"##iendo":1921,"nieu":1922,"first":1923,"tiene":1924,"##dag":1925,"Et":1926,"now":1927,"ren":1928,"tijd":1929,"land":1930,"Pro":1931,"Jo":1932,"##open":1933,"gaat":1934,"##arse":1935,"two":1936,"##gens":1937,"##udad":1938,"want":1939,"parte":1940,"##ail":1941,"##igh":1942,"##ederland":1943,"add":1944,"point":1945,"depuis":1946,"any":1947,"11":1948,"vot":1949,"into":1950,"Russ":1951,"test":1952,"##ject":1953,"2021":1954,"wer":1955,"##osp":1956,"Nederland":1957,"Am":1958,"mot":1959,"##ít":1960,"avoir":1961,"##ares":1962,"##ca":1963,"##ish":1964,"18":1965,"back":1966,"den":1967,"hand":1968,"vac":1969,"##ena":1970,"contra":1971,"##alth":1972,"##tain":1973,"otr":1974,"lib":1975,"##ecial":1976,"##cer":1977,"##ato":1978,"##ting":1979,"bed":1980,"lleg":1981,"personas":1982,"##imiento":1983,"##ron":1984,"año":1985,"dom":1986,"##ool":1987,"geb":1988,"sim":1989,"##zen":1990,"##ema":1991,"##very":1992,"##wn":1993,"nat":1994,"##omp":1995,"##endre":1996,"Pl":1997,"##emás":1998,"zeg":1999,"place":2000,"##ities":2001,"##icos":2002,"últim":2003,"proble":2004,"##ements":2005,"if":2006,"##val":2007,"dij":2008,"##iol":2009,"pop":2010,"end":2011,"last":2012,"##ages":2013,"##nel":2014,"str":2015,"donde":2016,"sl":2017,"autor":2018,"mi":2019,"##clar":2020,"werd":2021,"##oci":2022,"##ton":2023,"lui":2024,"dist":2025,"sent":2026,"desp":2027,"Si":2028,"particip":2029,"cuando":2030,"mod":2031,"##elt":2032,"200":2033,"Is":2034,"##ités":2035,"##ición":2036,"##ierno":2037,"hum":2038,"could":2039,"prom":2040,"##akt":2041,"dro":2042,"dép":2043,"##ator":2044,"final":2045,"id":2046,"pays":2047,"weer":2048,"##ID":2049,"##oud":2050,"need":2051,"ég":2052,"##uy":2053,"diff":2054,"Een":2055,"mej":2056,"##ty":2057,"Min":2058,"##ouv":2059,"##une":2060,"##ém":2061,"##abil":2062,"25":2063,"##amen":2064,"num":2065,"##ange":2066,"him":2067,"gra":2068,"##adores":2069,"fun":2070,"##ument":2071,"##iek":2072,"leg":2073,"14":2074,"princi":2075,"tras":2076,"ant":2077,"Tru":2078,"##ating":2079,"cour":2080,"##duc":2081,"##iente":2082,"##pp":2083,"##erm":2084,"But":2085,"This":2086,"cond":2087,"très":2088,"cel":2089,"deb":2090,"Ce":2091,"##chter":2092,"gaan":2093,"##cion":2094,"##ga":2095,"##amiento":2096,"demand":2097,"fl":2098,"contre":2099,"realiz":2100,"your":2101,"servic":2102,"kw":2103,"##ían":2104,"##vert":2105,"how":2106,"Pour":2107,"ti":2108,"haar":2109,"él":2110,"##ismo":2111,"##bar":2112,"##ax":2113,"again":2114,"##úb":2115,"##ah":2116,"##ember":2117,"amb":2118,"porque":2119,"##sch":2120,"##jes":2121,"show":2122,"ils":2123,"kom":2124,"Or":2125,"##iter":2126,"13":2127,"zelf":2128,"Mais":2129,"terr":2130,"##ef":2131,"##kra":2132,"##idas":2133,"##úblic":2134,"stud":2135,"beg":2136,"Tr":2137,"##VID":2138,"kl":2139,"##hing":2140,"##icas":2141,"jou":2142,"compr":2143,"quien":2144,"social":2145,"result":2146,"thr":2147,"Man":2148,"wil":2149,"COVID":2150,"port":2151,"Me":2152,"dijo":2153,"##vi":2154,"rég":2155,"##oles":2156,"cin":2157,"lors":2158,"start":2159,"Amer":2160,"equip":2161,"nombre":2162,"New":2163,"tant":2164,"##ciones":2165,"##ables":2166,"##ecto":2167,"group":2168,"total":2169,"##bl":2170,"disp":2171,"##oot":2172,"16":2173,"present":2174,"peu":2175,"##vernment":2176,"##old":2177,"##udi":2178,"under":2179,"pandem":2180,"product":2181,"princip":2182,"##ution":2183,"##agn":2184,"##ués":2185,"open":2186,"nuest":2187,"avant":2188,"ges":2189,"##ita":2190,"##itar":2191,"##agen":2192,"elect":2193,"##ié":2194,"expl":2195,"ciudad":2196,"entr":2197,"##arm":2198,"verd":2199,"Las":2200,"##ges":2201,"Er":2202,"##cept":2203,"disc":2204,"peut":2205,"##érie":2206,"som":2207,"##ín":2208,"local":2209,"todos":2210,"vie":2211,"##unto":2212,"##velop":2213,"super":2214,"##avirus":2215,"##imin":2216,"autres":2217,"poss":2218,"encore":2219,"main":2220,"##orn":2221,"##jer":2222,"##urn":2223,"déb":2224,"24":2225,"##gent":2226,"being":2227,"##ause":2228,"vra":2229,"tal":2230,"puede":2231,"fac":2232,"Bl":2233,"17":2234,"##cal":2235,"sans":2236,"Pol":2237,"only":2238,"fut":2239,"##ory":2240,"team":2241,"##tern":2242,"through":2243,"Trump":2244,"ven":2245,"durante":2246,"rap":2247,"##itt":2248,"##cias":2249,"viol":2250,"comun":2251,"##allen":2252,"##get":2253,"ah":2254,"werk":2255,"##istas":2256,"film":2257,"déf":2258,"Sh":2259,"ay":2260,"lang":2261,"trois":2262,"win":2263,"##echo":2264,"Cent":2265,"bon":2266,"##uent":2267,"##kt":2268,"##dat":2269,"##edi":2270,"viv":2271,"gel":2272,"hacer":2273,"sera":2274,"##zoek":2275,"cam":2276,"andere":2277,"tiemp":2278,"posit":2279,"##ances":2280,"dus":2281,"##iver":2282,"organis":2283,"oper":2284,"##ys":2285,"police":2286,"mayor":2287,"##ja":2288,"during":2289,"gez":2290,"util":2291,"##ibil":2292,"Als":2293,"##anz":2294,"ple":2295,"##oul":2296,"##ards":2297,"##rait":2298,"Une":2299,"years":2300,"100":2301,"Go":2302,"##alis":2303,"##uch":2304,"##uego":2305,"mov":2306,"##ospital":2307,"every":2308,"##echn":2309,"##omb":2310,"solo":2311,"did":2312,"méd":2313,"hier":2314,"##estion":2315,"également":2316,"via":2317,"##ative":2318,"quel":2319,"moeten":2320,"##seg":2321,"##ruct":2322,"##reg":2323,"most":2324,"##fore":2325,"##ede":2326,"##wij":2327,"ris":2328,"où":2329,"Can":2330,"lead":2331,"jug":2332,"##ament":2333,"premier":2334,"coronavirus":2335,"millones":2336,"##ième":2337,"##rá":2338,"##itter":2339,"uno":2340,"##redi":2341,"50":2342,"Daar":2343,"están":2344,"So":2345,"help":2346,"twee":2347,"down":2348,"##oria":2349,"président":2350,"tre":2351,"##enn":2352,"##ête":2353,"##ason":2354,"##ontr":2355,"sig":2356,"##att":2357,"##rag":2358,"trava":2359,"algun":2360,"##arn":2361,"Ro":2362,"comb":2363,"primer":2364,"occ":2365,"cir":2366,"##ission":2367,"##ines":2368,"coup":2369,"##mar":2370,"##van":2371,"##óm":2372,"##oth":2373,"Bel":2374,"net":2375,"##lex":2376,"##ata":2377,"because":2378,"many":2379,"hoe":2380,"neces":2381,"##ba":2382,"respons":2383,"monde":2384,"alt":2385,"Col":2386,"##andid":2387,"countr":2388,"##ering":2389,"##iens":2390,"mejor":2391,"gu":2392,"Su":2393,"día":2394,"##vir":2395,"##loy":2396,"nieuwe":2397,"##ruik":2398,"merc":2399,"2019":2400,"know":2401,"Rus":2402,"econom":2403,"club":2404,"##org":2405,"day":2406,"gén":2407,"blij":2408,"Be":2409,"##unes":2410,"ai":2411,"event":2412,"vr":2413,"government":2414,"krij":2415,"##oss":2416,"gem":2417,"rés":2418,"eigen":2419,"investig":2420,"##tro":2421,"##king":2422,"make":2423,"look":2424,"ed":2425,"sect":2426,"Sp":2427,"##any":2428,"##isión":2429,"energ":2430,"trad":2431,"##alen":2432,"##aje":2433,"lug":2434,"Gu":2435,"##elijke":2436,"##wer":2437,"gar":2438,"ens":2439,"minut":2440,"##ife":2441,"record":2442,"dont":2443,"liv":2444,"##uso":2445,"before":2446,"doen":2447,"priv":2448,"##ender":2449,"pet":2450,"tiempo":2451,"euros":2452,"sido":2453,"##ran":2454,"##ño":2455,"##ision":2456,"##ited":2457,"##aats":2458,"21":2459,"ese":2460,"##iqué":2461,"##ry":2462,"those":2463,"##anç":2464,"##cé":2465,"##voor":2466,"señ":2467,"##ussen":2468,"##insi":2469,"##ket":2470,"arm":2471,"vez":2472,"##ps":2473,"She":2474,"##innen":2475,"norm":2476,"##ho":2477,"##ises":2478,"##ites":2479,"Van":2480,"##xt":2481,"##oute":2482,"ide":2483,"won":2484,"tous":2485,"##ieurs":2486,"##stand":2487,"requ":2488,"state":2489,"zal":2490,"while":2491,"Sch":2492,"home":2493,"##pect":2494,"##aria":2495,"##ocr":2496,"##ule":2497,"sept":2498,"support":2499,"##ren":2500,"hou":2501,"well":2502,"actual":2503,"leurs":2504,"gas":2505,"mas":2506,"fois":2507,"ged":2508,"vier":2509,"##men":2510,"gew":2511,"dol":2512,"Op":2513,"where":2514,"France":2515,"22":2516,"face":2517,"milit":2518,"##lig":2519,"should":2520,"toch":2521,"##ker":2522,"##idd":2523,"empres":2524,"laat":2525,"##ovid":2526,"For":2527,"Seg":2528,"tom":2529,"lig":2530,"##ministr":2531,"momento":2532,"gre":2533,"tit":2534,"dir":2535,"maken":2536,"lim":2537,"Ze":2538,"##less":2539,"exper":2540,"imm":2541,"health":2542,"##aison":2543,"fa":2544,"suc":2545,"##isch":2546,"##rist":2547,"##bal":2548,"##emen":2549,"techn":2550,"##ôt":2551,"against":2552,"mijn":2553,"##ionn":2554,"Die":2555,"##read":2556,"mois":2557,"##ona":2558,"##jà":2559,"##iness":2560,"month":2561,"non":2562,"Dans":2563,"ev":2564,"annon":2565,"Cl":2566,"Sin":2567,"polít":2568,"gou":2569,"##uir":2570,"##onden":2571,"##anos":2572,"finan":2573,"candid":2574,"includ":2575,"##son":2576,"##voir":2577,"année":2578,"cada":2579,"##ork":2580,"sm":2581,"repr":2582,"##aient":2583,"##rug":2584,"Ind":2585,"Co":2586,"Vol":2587,"##ië":2588,"school":2589,"nouve":2590,"otros":2591,"Lo":2592,"high":2593,"tres":2594,"##erde":2595,"##eden":2596,"##endant":2597,"##kken":2598,"going":2599,"Nous":2600,"así":2601,"moins":2602,"##iteit":2603,"heel":2604,"Sal":2605,"mag":2606,"##illa":2607,"especial":2608,"publ":2609,"préc":2610,"ej":2611,"##iva":2612,"cual":2613,"temps":2614,"see":2615,"équip":2616,"pot":2617,"##fe":2618,"##gelijk":2619,"san":2620,"Pres":2621,"vrij":2622,"zit":2623,"Esp":2624,"después":2625,"president":2626,"confirm":2627,"second":2628,"##oit":2629,"stat":2630,"zegt":2631,"##ientes":2632,"pes":2633,"presidente":2634,"hace":2635,"##imes":2636,"déjà":2637,"##cio":2638,"cult":2639,"##las":2640,"##anten":2641,"tend":2642,"##cción":2643,"##izo":2644,"di":2645,"##eds":2646,"syst":2647,"pu":2648,"personnes":2649,"Oek":2650,"##ett":2651,"##cran":2652,"Ge":2653,"vida":2654,"San":2655,"##rem":2656,"incre":2657,"##oto":2658,"##ains":2659,"ur":2660,"vide":2661,"días":2662,"mus":2663,"Ook":2664,"##hed":2665,"At":2666,"llev":2667,"Oekra":2668,"match":2669,"conn":2670,"##ima":2671,"embar":2672,"say":2673,"baj":2674,"doc":2675,"##iles":2676,"Ex":2677,"Hij":2678,"##ler":2679,"gran":2680,"perio":2681,"eerste":2682,"##ko":2683,"char":2684,"rele":2685,"##ización":2686,"made":2687,"##orme":2688,"mee":2689,"Met":2690,"##dig":2691,"##endo":2692,"trav":2693,"journ":2694,"##ícul":2695,"##jours":2696,"##ral":2697,"komt":2698,"fol":2699,"encuent":2700,"##ved":2701,"##anda":2702,"Af":2703,"##oi":2704,"év":2705,"dernier":2706,"##aña":2707,"eng":2708,"industr":2709,"still":2710,"##hip":2711,"##appen":2712,"bre":2713,"era":2714,"##arán":2715,"##ua":2716,"##urg":2717,"ru":2718,"lugar":2719,"fal":2720,"beh":2721,"había":2722,"##istes":2723,"complet":2724,"take":2725,"pasado":2726,"auto":2727,"fav":2728,"these":2729,"ident":2730,"rép":2731,"##ecut":2732,"three":2733,"spe":2734,"##ws":2735,"40":2736,"##aur":2737,"##itor":2738,"##ural":2739,"##orth":2740,"##mpl":2741,"cos":2742,"fem":2743,"Joh":2744,"públic":2745,"##ival":2746,"They":2747,"appro":2748,"accord":2749,"primera":2750,"##ames":2751,"première":2752,"komen":2753,"mismo":2754,"hospital":2755,"donc":2756,"tour":2757,"##ienne":2758,"Dan":2759,"##ande":2760,"sé":2761,"conoc":2762,"##oco":2763,"alleen":2764,"desc":2765,"ante":2766,"##ières":2767,"Apr":2768,"##way":2769,"##arc":2770,"Ukra":2771,"##ientras":2772,"Además":2773,"señal":2774,"##ivid":2775,"##eter":2776,"repres":2777,"maand":2778,"tar":2779,"extra":2780,"cab":2781,"##izar":2782,"way":2783,"pens":2784,"ministre":2785,"municip":2786,"iss":2787,"post":2788,"wet":2789,"ing":2790,"polic":2791,"##bij":2792,"Te":2793,"plusieurs":2794,"Ac":2795,"alors":2796,"guer":2797,"Ab":2798,"##vie":2799,"toujours":2800,"Oekraï":2801,"eso":2802,"##outh":2803,"bal":2804,"vend":2805,"##ieux":2806,"simp":2807,"mujer":2808,"fact":2809,"##ments":2810,"Au":2811,"partic":2812,"dej":2813,"US":2814,"carr":2815,"##eng":2816,"##ood":2817,"provin":2818,"rus":2819,"##isis":2820,"##baar":2821,"popul":2822,"right":2823,"##oe":2824,"##ientos":2825,"cuenta":2826,"terug":2827,"podr":2828,",\"":2829,"own":2830,"autre":2831,"##ots":2832,"ainsi":2833,"cro":2834,"staat":2835,"anal":2836,"##ivos":2837,"##ather":2838,"indic":2839,"sort":2840,"Dep":2841,"caus":2842,"ép":2843,"##aines":2844,"chang":2845,"sous":2846,"##opt":2847,"aj":2848,"caso":2849,"constru":2850,"23":2851,"pou":2852,"effect":2853,"gouvern":2854,"ext":2855,"recib":2856,"cases":2857,"Europe":2858,"##line":2859,"##ires":2860,"good":2861,"##ars":2862,"##werk":2863,"##bol":2864,"##anche":2865,"explic":2866,"##amer":2867,"##unci":2868,"then":2869,"##ijkt":2870,"nation":2871,"horas":2872,"says":2873,"##ateg":2874,"very":2875,"det":2876,"abs":2877,"country":2878,"think":2879,"Val":2880,"gest":2881,"##cy":2882,"proy":2883,"##ake":2884,"gebruik":2885,"Tw":2886,"euro":2887,"tanto":2888,"##abor":2889,"##hel":2890,"##other":2891,"menos":2892,"Pero":2893,"hem":2894,"administr":2895,"media":2896,"fund":2897,"gan":2898,"selon":2899,"virus":2900,"##onde":2901,"##fect":2902,"##igr":2903,"##agne":2904,"génér":2905,"##éb":2906,"##iller":2907,"##unque":2908,"pandemic":2909,"conv":2910,"jo":2911,"top":2912,"##adre":2913,"##aban":2914,"memb":2915,"eens":2916,"##ful":2917,"achter":2918,"bro":2919,"##cil":2920,"00":2921,"lí":2922,"Zo":2923,"##eling":2924,"There":2925,"Comm":2926,"##itions":2927,"##icia":2928,"##ever":2929,"pris":2930,"élect":2931,"##elo":2932,"##ançais":2933,"entrepr":2934,"ons":2935,"exc":2936,"million":2937,"##ches":2938,"favor":2939,"##lie":2940,"##oren":2941,"Inst":2942,"notre":2943,"##iger":2944,"forma":2945,"ahora":2946,"set":2947,"##ades":2948,"##ché":2949,"procent":2950,"Univers":2951,"jue":2952,"##quier":2953,"equipo":2954,"Sant":2955,"hecho":2956,"cha":2957,"##ellen":2958,"Fin":2959,"début":2960,"zien":2961,"##ently":2962,"##ceso":2963,"consider":2964,"propos":2965,"business":2966,"trabajo":2967,"##uridad":2968,"iets":2969,"dés":2970,"né":2971,"Covid":2972,"##anse":2973,"##teurs":2974,"weg":2975,"aseg":2976,"##inder":2977,"##ri":2978,"sab":2979,"vic":2980,"##sp":2981,"##pend":2982,"quar":2983,"anim":2984,"otro":2985,"##ancia":2986,"continue":2987,"##amment":2988,"##usqu":2989,"prix":2990,"##ago":2991,"around":2992,"##át":2993,"omdat":2994,"##rijk":2995,"##ama":2996,"Elle":2997,"Cor":2998,"does":2999,"##ils":3000,"##ience":3001,"To":3002,"rac":3003,"China":3004,"later":3005,"estos":3006,"déclar":3007,"Este":3008,"cele":3009,"ça":3010,"##arrol":3011,"##ics":3012,"##log":3013,"##ateur":3014,"personal":3015,"pró":3016,"situation":3017,"Gen":3018,"##ece":3019,"Don":3020,"esa":3021,"##illeurs":3022,"fueron":3023,"Ukraine":3024,"Wat":3025,"tip":3026,"##zelf":3027,"##ibles":3028,"grote":3029,"##arly":3030,"##erse":3031,"##rict":3032,"If":3033,"##ball":3034,"acuer":3035,"oct":3036,"toe":3037,"##bor":3038,"##auc":3039,"##uesto":3040,"##ellement":3041,"Voor":3042,"lar":3043,"John":3044,"ll":3045,"##uiten":3046,"##iso":3047,"objet":3048,"##woon":3049,"Cette":3050,"##gest":3051,"según":3052,"Mo":3053,"rond":3054,"such":3055,"stand":3056,"fond":3057,"sex":3058,"tener":3059,"Ju":3060,"##idé":3061,"bek":3062,"qual":3063,"soit":3064,"importante":3065,"kil":3066,"##ked":3067,"##ives":3068,"Ét":3069,"##uid":3070,"toute":3071,"##ela":3072,"gev":3073,"pay":3074,"world":3075,"gob":3076,"gouvernement":3077,"##eros":3078,"##inos":3079,"recon":3080,"termin":3081,"sport":3082,"zw":3083,"Ver":3084,"miss":3085,"##ash":3086,"##isme":3087,"antes":3088,"offic":3089,"mucho":3090,"sens":3091,"rece":3092,"dollar":3093,"mult":3094,"##ourd":3095,"##illes":3096,"##ected":3097,"follow":3098,"You":3099,"dag":3100,"##atur":3101,"manera":3102,"##ivel":3103,"orig":3104,"Av":3105,"##pro":3106,"Minister":3107,"ir":3108,"national":3109,"ess":3110,"general":3111,"problem":3112,"embargo":3113,"bar":3114,"##ween":3115,"game":3116,"capac":3117,"vacc":3118,"mundo":3119,"27":3120,"Gob":3121,"##ward":3122,"dra":3123,"##aría":3124,"trou":3125,"gru":3126,"##uesta":3127,"##untos":3128,"Mart":3129,"##ateurs":3130,"##rir":3131,"ment":3132,"##uv":3133,"since":3134,"train":3135,"tienen":3136,"##ling":3137,"class":3138,"##isten":3139,"Mad":3140,"nuevo":3141,"26":3142,"##êt":3143,"##terior":3144,"That":3145,"##icio":3146,"question":3147,"term":3148,"Cal":3149,"hard":3150,"##car":3151,"##ann":3152,"28":3153,"dou":3154,"Ph":3155,"control":3156,"##ane":3157,"##elde":3158,"sector":3159,"##ección":3160,"próxim":3161,"habit":3162,"Para":3163,"Ste":3164,"jour":3165,"groot":3166,"qued":3167,"service":3168,"Gobierno":3169,"Just":3170,"altijd":3171,"neg":3172,"company":3173,"500":3174,"hal":3175,"run":3176,"##ague":3177,"será":3178,"politie":3179,"Dr":3180,"univers":3181,"concl":3182,"veh":3183,"semana":3184,"dar":3185,"##ré":3186,"##ños":3187,"##ium":3188,"adv":3189,"Rep":3190,"##ying":3191,"Dit":3192,"How":3193,"mor":3194,"envir":3195,"partido":3196,"manif":3197,"##uro":3198,"millions":3199,"document":3200,"six":3201,"##isation":3202,"inm":3203,"##ensa":3204,"important":3205,"agr":3206,"##off":3207,"##ged":3208,"toen":3209,"stra":3210,"##ajor":3211,"##rit":3212,"##ijf":3213,"##cher":3214,"jusqu":3215,"##ald":3216,"années":3217,"family":3218,"financi":3219,"##oon":3220,"binnen":3221,"echt":3222,"##ought":3223,"Em":3224,"kle":3225,"##este":3226,"##xico":3227,"##iser":3228,"##ouwen":3229,"wereld":3230,"divers":3231,"four":3232,"conse":3233,"##ams":3234,"##eker":3235,"##gt":3236,"continu":3237,"##ients":3238,"##abl":3239,"hoy":3240,"mid":3241,"come":3242,"Mon":3243,"##empre":3244,"##aken":3245,"dim":3246,"dig":3247,"compet":3248,"May":3249,"camb":3250,"samen":3251,"##anger":3252,"##ieve":3253,"Sur":3254,"sav":3255,"##ield":3256,"obs":3257,"##uses":3258,"pal":3259,"##gev":3260,"impact":3261,"actu":3262,"including":3263,"llam":3264,"season":3265,"##ally":3266,"qué":3267,"big":3268,"##ody":3269,"possible":3270,"Ben":3271,"##isé":3272,"retr":3273,"##ème":3274,"##aucoup":3275,"put":3276,"autom":3277,"poder":3278,"##over":3279,"##aint":3280,"##ude":3281,"##hou":3282,"##ute":3283,"nivel":3284,"##yp":3285,"Ass":3286,"Coun":3287,"##ck":3288,"zoals":3289,"Twitter":3290,"celebr":3291,"lot":3292,"##lag":3293,"##zet":3294,"plat":3295,"compl":3296,"air":3297,"concern":3298,"acuerdo":3299,"jam":3300,"next":3301,"partir":3302,"2023":3303,"old":3304,"##uren":3305,"##imos":3306,"aud":3307,"##inds":3308,"cost":3309,"tussen":3310,"faut":3311,"gewoon":3312,"care":3313,"présent":3314,"All":3315,"life":3316,"vari":3317,"waren":3318,"diffic":3319,"##ram":3320,"blo":3321,"quier":3322,"##ene":3323,"geld":3324,"##ortun":3325,"mientras":3326,"##ómo":3327,"##iday":3328,"minder":3329,"services":3330,"réc":3331,"somet":3332,"Mal":3333,"jours":3334,"lu":3335,"##ased":3336,"crit":3337,"medio":3338,"nouveau":3339,"##atro":3340,"plaats":3341,"infl":3342,"joue":3343,"Mac":3344,"desarrol":3345,"notamment":3346,"call":3347,"##atique":3348,"versch":3349,"certain":3350,"pap":3351,"##ept":3352,"Jul":3353,"##iene":3354,"onze":3355,"let":3356,"official":3357,"##ifs":3358,"##ley":3359,"death":3360,"aur":3361,"major":3362,"grande":3363,"West":3364,"nuev":3365,"apro":3366,"bedrij":3367,"60":3368,"##echos":3369,"nive":3370,"declar":3371,"##duct":3372,"employ":3373,"permet":3374,"##arias":3375,"2018":3376,"##ross":3377,"quelques":3378,"child":3379,"##ower":3380,"Son":3381,"mand":3382,"##ides":3383,"##ionales":3384,"estado":3385,"Mr":3386,"##atar":3387,"##uls":3388,"cré":3389,"estar":3390,"35":3391,"##ai":3392,"vert":3393,"##ardi":3394,"onderzoek":3395,"ayud":3396,"##uen":3397,"##tains":3398,"curr":3399,"##osten":3400,"told":3401,"opt":3402,"really":3403,"Mor":3404,"ig":3405,"somm":3406,"##err":3407,"##ager":3408,"##ération":3409,"arriv":3410,"##yn":3411,"##ijken":3412,"là":3413,"##lad":3414,"proch":3415,"keer":3416,"represent":3417,"cit":3418,"cerc":3419,"rapp":3420,"gobierno":3421,"manifest":3422,"esper":3423,"mogelijk":3424,"individ":3425,"tempor":3426,"video":3427,"tur":3428,"cant":3429,"##éric":3430,"front":3431,"Mé":3432,"mij":3433,"través":3434,"##rez":3435,"##ijs":3436,"bill":3437,"sac":3438,"##velle":3439,"##itos":3440,"Nacional":3441,"cours":3442,"##str":3443,"between":3444,"pér":3445,"rev":3446,"beaucoup":3447,"##aug":3448,"199":3449,"cat":3450,"number":3451,"Pa":3452,"pel":3453,"##ious":3454,"anci":3455,"rad":3456,"both":3457,"##eral":3458,"esto":3459,"vir":3460,"##aff":3461,"nouvelle":3462,"##ril":3463,"##ott":3464,"stop":3465,"##crib":3466,"jaren":3467,"##asion":3468,"prob":3469,"log":3470,"attend":3471,"willen":3472,"destac":3473,"Cu":3474,"Sec":3475,"points":3476,"Biden":3477,"same":3478,"rapport":3479,"puis":3480,"sour":3481,"##tegr":3482,"minister":3483,"##ader":3484,"##ope":3485,"plac":3486,"aqu":3487,"jun":3488,"algo":3489,"fig":3490,"##komen":3491,"##iding":3492,"quat":3493,"asegur":3494,"rend":3495,"##enne":3496,"respect":3497,"gol":3498,"recht":3499,"además":3500,"mort":3501,"init":3502,"period":3503,"29":3504,"31":3505,"##uw":3506,"intent":3507,"pueden":3508,"steeds":3509,"dip":3510,"contact":3511,"water":3512,"glo":3513,"use":3514,"##ullen":3515,"##erent":3516,"verw":3517,"##ection":3518,"français":3519,"soir":3520,"##ublic":3521,"educ":3522,"donn":3523,"App":3524,"##ney":3525,"cho":3526,"##achten":3527,"elk":3528,"##aro":3529,"logr":3530,"##ness":3531,"siempre":3532,"##ución":3533,"##rijd":3534,"comunic":3535,"sel":3536,"President":3537,"fort":3538,"jeu":3539,"##ika":3540,"div":3541,"##lor":3542,"perd":3543,"civ":3544,"##oten":3545,"aant":3546,"También":3547,"mater":3548,"base":3549,"fra":3550,"##ism":3551,"Fe":3552,"wij":3553,"sea":3554,"##iest":3555,"##kom":3556,"##iscal":3557,"Una":3558,"volgens":3559,"coll":3560,"##por":3561,"aument":3562,"situación":3563,"projet":3564,"Tod":3565,"cet":3566,"sle":3567,"allow":3568,"##ists":3569,"équipe":3570,"verk":3571,"##ativa":3572,"tele":3573,"cela":3574,"##ús":3575,"##ids":3576,"Ag":3577,"##aiss":3578,"partie":3579,"##iff":3580,"huis":3581,"##lin":3582,"crisis":3583,"collect":3584,"snel":3585,"##isl":3586,"##cha":3587,"profess":3588,"vind":3589,"##undi":3590,"belang":3591,"cou":3592,"days":3593,"##ices":3594,"##aving":3595,"oblig":3596,"organiz":3597,"krijgen":3598,"geme":3599,"Res":3600,"ban":3601,"##itut":3602,"preci":3603,"aug":3604,"##urt":3605,"another":3606,"##undo":3607,"vin":3608,"##ham":3609,"éc":3610,"##ront":3611,"laten":3612,"Pat":3613,"cle":3614,"Bar":3615,"##eken":3616,"##ature":3617,"ellos":3618,"##venir":3619,"tan":3620,"project":3621,"Dur":3622,"##lec":3623,"##beeld":3624,"dém":3625,"chef":3626,"Según":3627,"keep":3628,"Jos":3629,"luego":3630,"##enz":3631,"funcion":3632,"México":3633,"Pe":3634,"aunque":3635,"profes":3636,"##ène":3637,"##apt":3638,"capital":3639,"Belg":3640,"perform":3641,"vuel":3642,"##edere":3643,"##gelopen":3644,"Europa":3645,"Part":3646,"cô":3647,"process":3648,"suis":3649,"niveau":3650,"##itie":3651,"Christ":3652,"Pal":3653,"due":3654,"##oort":3655,"apoy":3656,"##écur":3657,"##jourd":3658,"##emand":3659,"avons":3660,"##ederal":3661,"meses":3662,"Ha":3663,"hui":3664,"todas":3665,"protest":3666,"travail":3667,"eu":3668,"nueva":3669,"##ña":3670,"##ount":3671,"##elling":3672,"got":3673,"jan":3674,"sout":3675,"expert":3676,"vict":3677,"clos":3678,"distr":3679,"doit":3680,"Bo":3681,"web":3682,"York":3683,"ville":3684,"otras":3685,"##ky":3686,"##emble":3687,"##una":3688,"##iven":3689,"ord":3690,"Friday":3691,"found":3692,"otra":3693,"déclaré":3694,"Afr":3695,"pan":3696,"##uvo":3697,"##áb":3698,"##osa":3699,"salud":3700,"Sa":3701,"drie":3702,"##vr":3703,"économ":3704,"##fois":3705,"##eno":3706,"lanc":3707,"##íst":3708,"Ils":3709,"besch":3710,"Americ":3711,"meet":3712,"compar":3713,"##arl":3714,"##ira":3715,"##ogra":3716,"##ha":3717,"étaient":3718,"España":3719,"Selon":3720,"##door":3721,"brand":3722,"##rab":3723,"proc":3724,"espac":3725,"##iar":3726,"Jan":3727,"past":3728,"dispos":3729,"encontr":3730,"Mond":3731,"sche":3732,"algunos":3733,"Oekraïne":3734,"stre":3735,"clim":3736,"sociales":3737,"Na":3738,"sn":3739,"integr":3740,"jamais":3741,"##ole":3742,"##óg":3743,"Dav":3744,"##ences":3745,"develop":3746,"hoog":3747,"tijdens":3748,"foot":3749,"##oire":3750,"community":3751,"defin":3752,"nov":3753,"expres":3754,"différ":3755,"jud":3756,"##ential":3757,"verb":3758,"##view":3759,"Net":3760,"Per":3761,"##echa":3762,"##conóm":3763,"Mc":3764,"ailleurs":3765,"ra":3766,"unos":3767,"##iencia":3768,"##hor":3769,"##ostr":3770,"haber":3771,"politique":3772,"Dem":3773,"canc":3774,"emer":3775,"site":3776,"casa":3777,"##maal":3778,"appel":3779,"dirig":3780,"fé":3781,"##rim":3782,"##een":3783,"Rusland":3784,"##nem":3785,"cru":3786,"##anas":3787,"natuur":3788,"uur":3789,"nad":3790,"added":3791,"din":3792,"##eta":3793,"champ":3794,"kinder":3795,"estaba":3796,"Après":3797,"pouvoir":3798,"kon":3799,"##dic":3800,"##sen":3801,"sum":3802,"Estados":3803,"larg":3804,"##cteur":3805,"Po":3806,"oor":3807,"##été":3808,"##ately":3809,"##down":3810,"information":3811,"##undial":3812,"sen":3813,"##vin":3814,"jeudi":3815,"##uela":3816,"##rain":3817,"restaur":3818,"##ray":3819,"groupe":3820,"70":3821,"##élé":3822,"laatste":3823,"vent":3824,"head":3825,"Québ":3826,"tipo":3827,"Om":3828,"##iciones":3829,"too":3830,"inde":3831,"online":3832,"Med":3833,"hon":3834,"één":3835,"##erson":3836,"##agement":3837,"law":3838,"Argent":3839,"semaine":3840,"%.":3841,"Bij":3842,"nacional":3843,"few":3844,"dernière":3845,"mercredi":3846,"ton":3847,"##rop":3848,"quand":3849,"lieu":3850,"##sten":3851,"##amedi":3852,"##akte":3853,"visit":3854,"##joen":3855,"estim":3856,"fall":3857,"seguridad":3858,"##aties":3859,"Prem":3860,"##ola":3861,"comment":3862,"##pre":3863,"##echt":3864,"réalis":3865,"facil":3866,"grandes":3867,"verder":3868,"Unidos":3869,"contrib":3870,"dimanche":3871,"porte":3872,"mardi":3873,"nam":3874,"announ":3875,"renc":3876,"80":3877,"##oeg":3878,"aliment":3879,"dévelop":3880,"cuatro":3881,"different":3882,"lundi":3883,"far":3884,"jur":3885,"##ways":3886,"leven":3887,"##illo":3888,"cómo":3889,"hizo":3890,"##by":3891,"muer":3892,"##aard":3893,"##érc":3894,"nú":3895,"debe":3896,"##aring":3897,"obten":3898,"sí":3899,"sist":3900,"##rid":3901,"##ester":3902,"case":3903,"muchos":3904,"vendredi":3905,"saison":3906,"staan":3907,"##ape":3908,"##icha":3909,"great":3910,"##aim":3911,"##ío":3912,"##isc":3913,"trop":3914,"45":3915,"prepar":3916,"action":3917,"origin":3918,"fans":3919,"##cep":3920,"commer":3921,"##ota":3922,"find":3923,"##pir":3924,"##thing":3925,"system":3926,"exist":3927,"job":3928,"##alt":3929,"##rage":3930,"oppos":3931,"each":3932,"sever":3933,"##bert":3934,"miljoen":3935,"Face":3936,"fon":3937,"deel":3938,"##enten":3939,"across":3940,"homme":3941,"city":3942,"poco":3943,"toda":3944,"here":3945,"##edad":3946,"read":3947,"decid":3948,"ví":3949,"##inc":3950,"##elles":3951,"market":3952,"reported":3953,"issue":3954,"près":3955,"Ucran":3956,"##woord":3957,"registr":3958,"Estado":3959,"chez":3960,"Intern":3961,"director":3962,"##ules":3963,"extr":3964,"auc":3965,"casos":3966,"centre":3967,"estas":3968,"##iano":3969,"human":3970,"##han":3971,"press":3972,"When":3973,"Austr":3974,"##qué":3975,"Russie":3976,"tir":3977,"ello":3978,"Ucrania":3979,"écr":3980,"##inet":3981,"compañ":3982,"##veel":3983,"State":3984,"económ":3985,"sécur":3986,"appr":3987,"accus":3988,"Del":3989,"rol":3990,"##ift":3991,"difer":3992,"Tur":3993,"##ird":3994,"mob":3995,"kwam":3996,"représ":3997,"##vest":3998,"##termin":3999,"aange":4000,"PS":4001,"##idence":4002,"begin":4003,"South":4004,"compte":4005,"Will":4006,"familia":4007,"principal":4008,"Volgens":4009,"Sen":4010,"pon":4011,"effet":4012,"technolog":4013,"##ément":4014,"trib":4015,"vooral":4016,"último":4017,"Aut":4018,"Ed":4019,"##ster":4020,"oficial":4021,"lég":4022,"things":4023,"prior":4024,"used":4025,"autoridades":4026,"Saint":4027,"vor":4028,"##arige":4029,"##ination":4030,"##ubl":4031,"toutes":4032,"Ah":4033,"##ired":4034,"##mee":4035,"##ruk":4036,"circ":4037,"gebe":4038,"weten":4039,"proyecto":4040,"Den":4041,"côté":4042,"##issement":4043,"##ouse":4044,"adm":4045,"quatre":4046,"##entro":4047,"##ingo":4048,"argent":4049,"consum":4050,"pen":4051,"##mos":4052,"zonder":4053,"##ôle":4054,"améric":4055,"##oney":4056,"return":4057,"comenz":4058,"Esta":4059,"##ging":4060,"Brit":4061,"samedi":4062,"##abr":4063,"verl":4064,"réf":4065,"journal":4066,"zie":4067,"ofre":4068,"estad":4069,"##oman":4070,"reun":4071,"nooit":4072,"jeunes":4073,"Conse":4074,"zij":4075,"’.":4076,"verh":4077,"seguir":4078,"##emaakt":4079,"environ":4080,"dó":4081,"mond":4082,"##alité":4083,"##rea":4084,"without":4085,"order":4086,"manten":4087,"zona":4088,"##vier":4089,"able":4090,"##erencia":4091,"enk":4092,"voir":4093,"decir":4094,"mer":4095,"remp":4096,"##ily":4097,"quarter":4098,"dólar":4099,"plant":4100,"came":4101,"mess":4102,"##etje":4103,"##ijden":4104,"##reso":4105,"Of":4106,"gente":4107,"##idents":4108,"transport":4109,"eerder":4110,"##èt":4111,"##ula":4112,"##iza":4113,"sino":4114,"númer":4115,"anunci":4116,"left":4117,"ko":4118,"afin":4119,"##ativo":4120,"région":4121,"tent":4122,"seront":4123,"dispon":4124,"##uf":4125,"alles":4126,"histor":4127,"Apple":4128,"lik":4129,"##artes":4130,"2017":4131,"working":4132,"##ofd":4133,"atta":4134,"effort":4135,"buiten":4136,"night":4137,"##ám":4138,"##iana":4139,"according":4140,"sk":4141,".’":4142,"Ser":4143,"cier":4144,"fer":4145,"##ères":4146,"##ût":4147,"##oca":4148,"never":4149,"object":4150,"##nerg":4151,"Russische":4152,"Ma":4153,"alc":4154,"bez":4155,"##artment":4156,"quienes":4157,"cualquier":4158,"Austral":4159,"##weg":4160,"##ilig":4161,"avaient":4162,"United":4163,"associ":4164,"##ready":4165,"grupo":4166,"City":4167,"série":4168,"ruim":4169,"russe":4170,"Ol":4171,"##uite":4172,"##orr":4173,"level":4174,"redes":4175,"months":4176,"Rec":4177,"##atis":4178,"frente":4179,"Jean":4180,"Gre":4181,"##ala":4182,"##ctor":4183,"enfants":4184,"nada":4185,"afgelopen":4186,"reste":4187,"Ke":4188,"ble":4189,"rob":4190,"March":4191,"permit":4192,"agen":4193,"ning":4194,"friend":4195,"iedere":4196,"pur":4197,"sing":4198,"##side":4199,"suite":4200,"charg":4201,"##ize":4202,"##bres":4203,"Ital":4204,"devant":4205,"ley":4206,"prec":4207,"votre":4208,"má":4209,"##ieuw":4210,"ún":4211,"##sy":4212,"labor":4213,"##estival":4214,"aantal":4215,"Québec":4216,"##unda":4217,"assur":4218,"something":4219,"enter":4220,"partij":4221,"blijven":4222,".»":4223,"One":4224,"hit":4225,"tor":4226,"##iez":4227,"already":4228,"geh":4229,"change":4230,"##ression":4231,"Isra":4232,"guerre":4233,"Mos":4234,"Reg":4235,"bless":4236,"wo":4237,"estable":4238,"casi":4239,"’,":4240,"##des":4241,"##adora":4242,"##iev":4243,"afect":4244,"##azo":4245,"##ony":4246,"##aden":4247,"prog":4248,"members":4249,"belangrijk":4250,"proceso":4251,"zelfs":4252,"exemp":4253,"90":4254,"##aise":4255,"annoncé":4256,"Monday":4257,"sit":4258,"##AN":4259,"##resp":4260,"voit":4261,"students":4262,"nodig":4263,"##goci":4264,"##anco":4265,"Cas":4266,"hu":4267,"198":4268,"##aza":4269,"power":4270,"trat":4271,"deuxième":4272,"better":4273,"half":4274,"##emaal":4275,"garant":4276,"elkaar":4277,"kind":4278,"##iving":4279,"aura":4280,"must":4281,"dise":4282,"##ically":4283,"historia":4284,"##iera":4285,"Ant":4286,"##earch":4287,"invol":4288,"información":4289,"litt":4290,"tax":4291,"zat":4292,"##inas":4293,"stad":4294,"##ieren":4295,"certains":4296,"ep":4297,"hele":4298,"##won":4299,"until":4300,"extre":4301,"Así":4302,"course":4303,"Was":4304,"lunes":4305,"##ention":4306,"cumpl":4307,"fur":4308,"ici":4309,"persona":4310,"##vious":4311,"política":4312,"pob":4313,"vast":4314,"zullen":4315,"##opé":4316,"heures":4317,"data":4318,"However":4319,"Mic":4320,"Serv":4321,"suiv":4322,"signific":4323,"vraag":4324,"sant":4325,"position":4326,"nuestro":4327,"Alex":4328,"##ólo":4329,"reduc":4330,"comprom":4331,"beter":4332,"##atives":4333,"Sc":4334,"pendant":4335,"tel":4336,"##quer":4337,"gek":4338,"hacia":4339,"países":4340,"eind":4341,"turn":4342,"##éh":4343,"jeune":4344,"Alle":4345,"##rel":4346,"quer":4347,"mettre":4348,"##ikk":4349,"didn":4350,"comer":4351,"apar":4352,"build":4353,"cause":4354,"Rusia":4355,"##gue":4356,"spé":4357,"viernes":4358,"##xic":4359,"##itional":4360,"lev":4361,"puntos":4362,"zeker":4363,"##onse":4364,"inté":4365,"##tera":4366,"equ":4367,"##unta":4368,"onge":4369,"With":4370,"ball":4371,"design":4372,"mañ":4373,"called":4374,"voy":4375,"ster":4376,"##cho":4377,"cher":4378,"vehícul":4379,"Sm":4380,"##enci":4381,"##igo":4382,"grow":4383,"últimos":4384,"popular":4385,"podría":4386,"might":4387,"deal":4388,"##atal":4389,"pours":4390,"Mus":4391,"##acter":4392,"anders":4393,"prendre":4394,"weet":4395,"datos":4396,"serie":4397,"##ume":4398,"##gos":4399,"##éré":4400,"histoire":4401,"nationale":4402,"gl":4403,"augment":4404,"Que":4405,"aujourd":4406,"départ":4407,"bekend":4408,"Lib":4409,"hold":4410,"jarige":4411,"mass":4412,"##ety":4413,"enqu":4414,"cur":4415,"ger":4416,"happen":4417,"##oso":4418,"##book":4419,"##anne":4420,"aller":4421,"Sy":4422,"da":4423,"five":4424,"rien":4425,"claim":4426,"nuestra":4427,"minutes":4428,"distrib":4429,"##atic":4430,"##igd":4431,"helemaal":4432,"mujeres":4433,"Bro":4434,"Dire":4435,"Not":4436,"always":4437,"stock":4438,"##action":4439,"werden":4440,"sáb":4441,"production":4442,"Canada":4443,"excl":4444,"rése":4445,"europé":4446,"houden":4447,"aurait":4448,"former":4449,"surpr":4450,"allemaal":4451,"tuvo":4452,"County":4453,"Ces":4454,"junto":4455,"pag":4456,"particular":4457,"Air":4458,"hog":4459,"inn":4460,"##ontre":4461,"ocurr":4462,"lat":4463,"##cle":4464,"zeggen":4465,"32":4466,"Bor":4467,"bat":4468,"##gl":4469,"##olo":4470,"niets":4471,"away":4472,"##rice":4473,"##itaire":4474,"entra":4475,"vu":4476,"lado":4477,"perman":4478,"Nov":4479,"Pas":4480,"##omas":4481,"access":4482,"sold":4483,"absol":4484,"zet":4485,"suff":4486,"##rum":4487,"cinco":4488,"circul":4489,"Cons":4490,"##ban":4491,"##aker":4492,"##bern":4493,"court":4494,"conten":4495,"Hoe":4496,"pourrait":4497,"abord":4498,"##berg":4499,"##portun":4500,"dio":4501,"##uras":4502,"news":4503,"Sund":4504,"##ép":4505,"took":4506,"##ulp":4507,"date":4508,"##acto":4509,"##ander":4510,"seen":4511,"prev":4512,"Black":4513,"300":4514,"##uper":4515,"enfr":4516,"##ilar":4517,"staff":4518,"##urity":4519,"##ending":4520,"##oper":4521,"trata":4522,"moy":4523,"##iale":4524,"Thurs":4525,"2016":4526,"arrest":4527,"internation":4528,"children":4529,"##oph":4530,"heure":4531,"intens":4532,"valor":4533,"hot":4534,"##enen":4535,"dispar":4536,"General":4537,"mañana":4538,"pud":4539,"##ecer":4540,"dét":4541,"positive":4542,"énerg":4543,"##ya":4544,"victim":4545,"observ":4546,"ped":4547,"##ris":4548,"##iam":4549,"ella":4550,"sug":4551,"##venue":4552,"retour":4553,"celui":4554,"discuss":4555,"EU":4556,"aún":4557,"sci":4558,"posible":4559,"based":4560,"kinderen":4561,"TV":4562,"##idelijk":4563,"secret":4564,"While":4565,"programa":4566,"##30":4567,"##iner":4568,"##itte":4569,"fre":4570,"rech":4571,"zitten":4572,"Thursday":4573,"Cour":4574,"oportun":4575,"Entre":4576,"##egd":4577,"What":4578,"víct":4579,"My":4580,"National":4581,"veces":4582,"##ël":4583,"Ven":4584,"##AS":4585,"##gré":4586,"Health":4587,"Cap":4588,"rent":4589,"opportun":4590,"##ually":4591,"Cong":4592,"ging":4593,"expos":4594,"pobl":4595,"ukra":4596,"##ór":4597,"atte":4598,"series":4599,"##crip":4600,"Plus":4601,"Hay":4602,"tw":4603,"zorg":4604,"oorlog":4605,"##ware":4606,"ill":4607,"ukrain":4608,"varios":4609,"sábado":4610,"hub":4611,"##icult":4612,"conduct":4613,"##utte":4614,"197":4615,"directeur":4616,"weeks":4617,"empresa":4618,"sécurité":4619,"Do":4620,"##isse":4621,"##icit":4622,"##oms":4623,"##ized":4624,"maakt":4625,"famille":4626,"Nederlandse":4627,"kre":4628,"moder":4629,"meille":4630,"##voorbeeld":4631,"chaque":4632,"dentro":4633,"##ué":4634,"##elden":4635,"##irá":4636,"##aven":4637,"Paul":4638,"Act":4639,"Satur":4640,"Tues":4641,"##aign":4642,"inici":4643,"bene":4644,"blijft":4645,"público":4646,"Madrid":4647,"número":4648,"food":4649,"##dan":4650,"special":4651,"##erence":4652,"simple":4653,"particul":4654,"spec":4655,"volg":4656,"vaak":4657,"36":4658,"mant":4659,"corre":4660,"retrou":4661,"75":4662,"early":4663,"foc":4664,"##ners":4665,"##dez":4666,"##urso":4667,"finale":4668,"gesch":4669,"Avec":4670,"Duit":4671,"eux":4672,"matin":4673,"temper":4674,"fonction":4675,"##éf":4676,"##thers":4677,"install":4678,"sentido":4679,"bedrijf":4680,"Ter":4681,"money":4682,"##iés":4683,"##wh":4684,"##aart":4685,"agua":4686,"centr":4687,"Fern":4688,"##igue":4689,"shares":4690,"centro":4691,"tweede":4692,"Desde":4693,"Argentina":4694,"Ay":4695,"ach":4696,"##iance":4697,"pret":4698,"short":4699,"Sunday":4700,"jul":4701,"##heden":4702,"cosas":4703,"dólares":4704,"Tuesday":4705,"pil":4706,"##AR":4707,"buen":4708,"Saturday":4709,"went":4710,"##acy":4711,"Franc":4712,"Paris":4713,"janvier":4714,"David":4715,"Ten":4716,"zon":4717,"stay":4718,"segundo":4719,"making":4720,"##ibilidad":4721,"igual":4722,"##rer":4723,"deber":4724,"##licht":4725,"agit":4726,"Amerika":4727,"##eler":4728,"inj":4729,"misma":4730,"lock":4731,"institu":4732,"domingo":4733,"Dec":4734,"Hol":4735,"eas":4736,"luch":4737,"deten":4738,"##ieden":4739,"beso":4740,"mainten":4741,"cerca":4742,"emergen":4743,"bud":4744,"elles":4745,"expect":4746,"tenemos":4747,"remain":4748,"statement":4749,"Acc":4750,"##venu":4751,"erg":4752,"interest":4753,"##ienda":4754,"feel":4755,"normal":4756,"small":4757,"moest":4758,"why":4759,"international":4760,"pandemia":4761,"whe":4762,"women":4763,"##asse":4764,"challen":4765,"hombre":4766,"ancien":4767,"global":4768,"vinden":4769,"lijkt":4770,"migr":4771,"altern":4772,"doet":4773,"##itch":4774,"##estre":4775,"aplic":4776,"consid":4777,"election":4778,"population":4779,"Wor":4780,"tard":4781,"times":4782,"##illet":4783,"nouvel":4784,"Che":4785,"line":4786,"raison":4787,"##éro":4788,"personn":4789,"Esto":4790,"besl":4791,"##abilidad":4792,"future":4793,"##rupt":4794,"##auv":4795,"##ubre":4796,"preg":4797,"impos":4798,"corresp":4799,"transform":4800,"little":4801,"##fl":4802,"##ento":4803,"##imientos":4804,"##isto":4805,"occasion":4806,"Democr":4807,"Red":4808,"Wed":4809,"live":4810,"oud":4811,"##erder":4812,"percent":4813,"large":4814,"santé":4815,"dich":4816,"along":4817,"Over":4818,"gens":4819,"##blo":4820,"##équ":4821,"conj":4822,"noche":4823,"vrouw":4824,"##orge":4825,"prest":4826,"##ijna":4827,"##iales":4828,"cust":4829,"hy":4830,"##huis":4831,"##unca":4832,"vote":4833,"##gether":4834,"34":4835,"band":4836,"mise":4837,"martes":4838,"éch":4839,"##li":4840,"Deze":4841,"ceux":4842,"virt":4843,"benefic":4844,"##edst":4845,"##oung":4846,"today":4847,"cinq":4848,"##wijl":4849,"empresas":4850,"développ":4851,"parents":4852,"##iled":4853,"##ève":4854,"##row":4855,"probl":4856,"milli":4857,"bajo":4858,"sistema":4859,"%,":4860,"##érer":4861,"efect":4862,"League":4863,"##eel":4864,"##ems":4865,"Char":4866,"natuurlijk":4867,"##racht":4868,"##ined":4869,"resol":4870,"mars":4871,"crimin":4872,"informó":4873,"diferentes":4874,"full":4875,"rat":4876,"quart":4877,"recent":4878,"interes":4879,"idea":4880,"Off":4881,"Port":4882,"free":4883,"ém":4884,"##hand":4885,"##jos":4886,"conserv":4887,"##émie":4888,"rue":4889,"##bed":4890,"##eme":4891,"##ércoles":4892,"homm":4893,"##eth":4894,"##aking":4895,"bijvoorbeeld":4896,"Tor":4897,"give":4898,"Marc":4899,"coach":4900,"ub":4901,"##for":4902,"appear":4903,"patients":4904,"servicio":4905,"ele":4906,"voet":4907,"transm":4908,"kans":4909,"convers":4910,"##enda":4911,"hoofd":4912,"muchas":4913,"assist":4914,"tarde":4915,"jueves":4916,"Phil":4917,"##ál":4918,"area":4919,"tenía":4920,"firm":4921,"Wednes":4922,"##ete":4923,"forces":4924,"conditions":4925,"Super":4926,"cambio":4927,"##jets":4928,"##chien":4929,"##aald":4930,"conte":4931,"less":4932,"cy":4933,"##tout":4934,"##icle":4935,"##emt":4936,"together":4937,"##anto":4938,"influ":4939,"iedereen":4940,"kunt":4941,"##ols":4942,"##ienen":4943,"ejemp":4944,"Jap":4945,"##fer":4946,"##orter":4947,"##unal":4948,"asked":4949,"spread":4950,"juin":4951,"miércoles":4952,"ensemble":4953,"dollars":4954,"Wednesday":4955,"sinds":4956,"##ived":4957,"##verage":4958,"cuer":4959,"peque":4960,"doing":4961,"werken":4962,"dice":4963,"instal":4964,"leaders":4965,"fais":4966,"##ka":4967,"afirm":4968,"relations":4969,"prév":4970,"##zelfde":4971,"bén":4972,"##imo":4973,"##izado":4974,"Rod":4975,"##iga":4976,"##ormais":4977,"respecto":4978,"terror":4979,"peuvent":4980,"officials":4981,"Facebook":4982,"españ":4983,"objetivo":4984,"kilom":4985,"État":4986,"bor":4987,"mur":4988,"éd":4989,"##ases":4990,"##ension":4991,"analy":4992,"Juan":4993,"wr":4994,"alm":4995,"##opp":4996,"Unis":4997,"décembre":4998,"several":4999}}}