{"version":"1.0","truncation":null,"padding":null,"added_tokens":[{"id":0,"special":true,"content":"<UNK>","single_word":false,"lstrip":false,"rstrip":false,"normalized":false},{"id":1,"special":true,"content":"<SEP>","single_word":false,"lstrip":false,"rstrip":false,"normalized":false},{"id":2,"special":true,"content":"<MASK>","single_word":false,"lstrip":false,"rstrip":false,"normalized":false},{"id":3,"special":true,"content":"<CLS>","single_word":false,"lstrip":false,"rstrip":false,"normalized":false}],"normalizer":null,"pre_tokenizer":{"type":"Whitespace"},"post_processor":null,"decoder":null,"model":{"type":"Unigram","unk_id":0,"vocab":[["<UNK>",0.0],["<SEP>",0.0],["<MASK>",0.0],["<CLS>",0.0],["s",-2.556595597492743],["e",-2.9949789854593014],["a",-3.414478590545018],["l",-3.5660984466025933],["de",-3.595553258913787],["r",-3.5987498114578553],["t",-3.7276270683916355],[",",-3.812765443154893],["d",-3.84279170753514],["i",-3.8791865569711863],[".",-3.950216037844159],["é",-3.9950950659208537],["’",-4.115089430319868],["n",-4.122761765326571],["u",-4.228571197933736],["le",-4.267640020605208],["c",-4.283496343477836],["la",-4.2880467872766665],["en",-4.420390763123324],["à",-4.7330145557642265],["o",-4.836695233073227],["et",-4.873819667631922],["p",-4.8941962569389315],["les",-4.973771706570247],["'",-4.998408035379203],["un",-5.095771942376437],["in",-5.128597474962568],["est",-5.161948796008131],["du",-5.204861216881497],["ment",-5.233891668691362],["que",-5.2422168897106936],["-",-5.273350126962145],["ce",-5.300726545755776],["f",-5.307625957415972],["des",-5.359817098127978],["au",-5.3853749470116075],["ou",-5.41586158196287],["on",-5.429345131438982],["pour",-5.430002003913513],["il",-5.446370977458258],["m",-5.45926283387594],["ant",-5.488233089829558],["une",-5.514767510035645],["y",-5.519034025601515],["ont",-5.543233432238534],["g",-5.579205514931655],["par",-5.5840890677356985],["A",-5.612562262352101],["ent",-5.626226420800656],["v",-5.629058036267448],["qui",-5.640845433008801],["dans",-5.7129605585482555],["qu",-5.744235878224552],["b",-5.747680230050756],["x",-5.75575146983965],["C",-5.7604744674000905],["S",-5.805419217701928],["sur",-5.838869749481809],["ur",-5.849444787457056],["ation",-5.905084081648587],["ré",-5.926082750276757],["pas",-6.000372072687631],["«",-6.0165377809766],["P",-6.036073453150053],["or",-6.03614157571732],["L",-6.0401493433649325],["con",-6.045763147947133],["h",-6.083971340412136],["it",-6.115848947013937],["vi",-6.120651748285949],["che",-6.146947433563206],["elle",-6.175861707735459],["D",-6.184224354663604],["Le",-6.186294100110857],["ri",-6.19726416773716],["B",-6.213258119738326],["plus",-6.2417918025043555],["ma",-6.266717612793984],["\"",-6.271362156428614],["T",-6.2780939789384895],["son",-6.27881335056081],["aux",-6.294319569536173],["ch",-6.305576734668298],["M",-6.312486966580568],["j",-6.312513239940877],["me",-6.363233115448772],["k",-6.364150155938013],["avec",-6.397266688993019],["age",-6.402566942409075],["été",-6.409368337588173],["im",-6.423266981846838],["F",-6.473107795912389],["La",-6.4753995766286],["ter",-6.501195122617293],["G",-6.501549115998742],["pro",-6.508380521256875],["tion",-6.523558640391148],["nt",-6.534329395516574],["R",-6.5366434792545824],["ci",-6.5415317174511145],["(",-6.541638543547185],["z",-6.591535991273197],["ve",-6.613960912001529],["mi",-6.618615660726741],["2",-6.63594124699738],["ro",-6.644035884257624],["aire",-6.645484761944855],["N",-6.648536385130795],["I",-6.660260173397996],["ion",-6.668344184750735],["té",-6.689488411760678],["E",-6.699961806319132],["tre",-6.703867855976487],["mo",-6.7059772948519445],["com",-6.7091798813369685],["va",-6.717597885891115],["mé",-6.7408549494913785],["ier",-6.745812799527897],["V",-6.748827150428465],["ai",-6.7494760575891775],["Il",-6.750914648429157],["leur",-6.75957153684246],["O",-6.774465746970614],["mais",-6.796902130722778],["no",-6.80716077166956],["ance",-6.815873834223257],["man",-6.823985256449687],["tra",-6.825898742268022],["fait",-6.84169301014753],["ga",-6.845767649426648],["ge",-6.84817964588235],["ir",-6.876003827714571],["ba",-6.880455120932101],["Les",-6.905492923156592],[":",-6.908422212664071],["ité",-6.909187507048912],["pa",-6.918479726249606],["étai",-6.924197322140934],["cette",-6.928311109881745],["pré",-6.92950319112],["20",-6.930033045718639],["puis",-6.936761640985628],["H",-6.938630364477083],["eur",-6.943431575098833],["ig",-6.943818295495051],["comme",-6.946389847162365],["3",-6.955881421152592],["»",-6.95943997313706],["eux",-6.966782522085369],["po",-6.969417739642177],["»,",-7.003293562955804],["ique",-7.0043182966172335],["entre",-7.004955737526963],["ait",-7.011983525202103],["vo",-7.0133226349180084],["tout",-7.021228217995537],["pri",-7.026104438531219],["ser",-7.033320828382427],["jour",-7.044144648427119],["per",-7.044155124023483],["è",-7.047712345498045],["fin",-7.052696735308899],["ans",-7.056396042072883],["w",-7.062352120695783],["J",-7.070280852285466],["5",-7.071215103306875],["ire",-7.076650625173539],["vou",-7.085897049255541],["1",-7.094990730733578],["4",-7.098102693066636],["être",-7.100873151053344],["En",-7.104720434087358],["lors",-7.1055929716894735],["port",-7.107647792093642],["iste",-7.118512292907992],["co",-7.130380849376731],["cha",-7.137142850462734],["nous",-7.14833292836949],["able",-7.158096456867302],["vers",-7.171051392014672],["ées",-7.208901160055877],["deux",-7.209181224624617],["6",-7.209444461393909],["tant",-7.217289319100079],["ère",-7.220396434063735],["ces",-7.22457790813089],["K",-7.231894629113974],["mar",-7.235805067115303],["min",-7.237381734581989],["7",-7.238702881950962],["Ce",-7.240045604854698],["0",-7.245230828149973],[")",-7.246703314385464],["même",-7.255264923988182],["autre",-7.257994065284125],["gé",-7.259070645096765],["rait",-7.265975390710997],["avait",-7.274062304912098],["lui",-7.277236128170795],["9",-7.311815559532848],["aussi",-7.31939454656707],["8",-7.319847711571104],["op",-7.321151064273025],["fa",-7.32997200983719],["eurs",-7.330451410930458],["faire",-7.336883627070682],["Ma",-7.34145628577016],["ine",-7.343187975820893],["De",-7.350727588502712],["avoir",-7.3633712270584954],["tique",-7.366053010972914],["ite",-7.370250251522247],["ab",-7.378432797606152],["vent",-7.380662971701923],["ver",-7.399430827658174],["gi",-7.408650680174174],["ph",-7.40962159496473],["bien",-7.409833322735593],["ière",-7.410705988066321],["déc",-7.413677896836364],["fi",-7.428713677124747],["après",-7.431349335187667],["th",-7.436229885580107],["je",-7.448714631618591],["ob",-7.463330615918643],["Ch",-7.472491230415512],["année",-7.474270457394064],["ho",-7.488020736080991],["19",-7.489123213602707],["peu",-7.490776583723237],["app",-7.4948369737919736],["col",-7.511532335585231],["rès",-7.514498928162776],["ez",-7.524559365486268],["%",-7.526122981743715],["grand",-7.527870812677241],["fois",-7.537090204699054],["oit",-7.542051475132954],["personne",-7.5441084207629565],["and",-7.5445887812869765],["coup",-7.544687298373401],["avant",-7.553868401508282],["temp",-7.557244095463858],["â",-7.566125067294918],["car",-7.569599975190785],["W",-7.571356823004149],["ég",-7.57600598992609],["ard",-7.579942870820702],["gue",-7.583736498863865],["cri",-7.59222096473578],["inter",-7.59308917530083],["ici",-7.606374292907689],["contre",-7.609102703185603],["présent",-7.623403761952824],["pays",-7.627031301458913],["ive",-7.6309152816512205],["om",-7.64143689784146],["tif",-7.643708282458477],["ois",-7.644415692550398],["rie",-7.6444323979077495],["tour",-7.648568925052305],["Un",-7.649733136288726],["On",-7.656904218588663],["pris",-7.659831755186316],["mon",-7.665882123116432],["Pour",-7.66965884970103],["ateur",-7.685037570851578],["ali",-7.69023480024849],["dit",-7.696520390071128],["mis",-7.696950331592119],["aient",-7.697341286542384],["Mais",-7.7014981484444345],["ha",-7.705199941909817],["Au",-7.716004209633909],["tte",-7.728520626900706],["ront",-7.735749256860336],["près",-7.736249636088662],["place",-7.739653354988259],["Je",-7.755334783043064],["égale",-7.76077270038126],["tri",-7.763884035562855],["président",-7.763974944742458],["art",-7.767289774066492],["ôt",-7.76893055146796],["ette",-7.773545934147944],["moin",-7.777365812856766],["encor",-7.778383425873321],["ing",-7.78026899230241],["peut",-7.78085262981614],["Mar",-7.784445557335162],["gra",-7.791328153790333],["voi",-7.793978450387805],["dernier",-7.798648968905013],["cours",-7.79969402473152],["ck",-7.800665978702491],["bo",-7.80309636560439],["tou",-7.8048699839747515],["».",-7.807022503995172],["ang",-7.809866186152805],["sera",-7.81661740170837],["Par",-7.82306196218906],["bou",-7.825837966645184],["appel",-7.8297559951891555],["ran",-7.83024653895014],["premier",-7.830905750982794],["ù",-7.836552852084723],["travail",-7.839297984202049],["porte",-7.840620388286241],["bi",-7.84695499094671],["ux",-7.851163286508913],["loi",-7.864654224409848],[").",-7.867673920775271],["mes",-7.869990545396202],["igne",-7.873089112451296],["toute",-7.877533530931192],["vie",-7.877656098529505],["part",-7.883449714071042],["Une",-7.88739511623533],["sans",-7.897748484596725],["Et",-7.909000253223888],["non",-7.910633956549703],["voir",-7.911560622766981],["onne",-7.912164136016639],["U",-7.912401984804697],["venu",-7.916121098696266],["rem",-7.918928131189165],["monde",-7.919175900686014],["hi",-7.92289045389381],["elon",-7.93211803570204],["alité",-7.932876903728892],["cré",-7.933383214391626],["\",",-7.93581199575298],["vol",-7.9466196048017395],["bre",-7.947002562869823],["première",-7.9517339757836245],["tro",-7.957563082789846],["…",-7.958695723001983],["ons",-7.959621822187853],["for",-7.961666397543798],["Sa",-7.964733785199801],["ête",-7.970595358080227],["vrai",-7.971624734566941],["2022",-7.979301734089862],["parti",-7.981280138437429],["ib",-7.987123479550107],["vis",-7.990369156558692],["heure",-7.9919787707155505],["mois",-8.004330811545962],["cor",-8.00583038551654],["trans",-8.011805741493482],["men",-8.012394969438327],["nouveau",-8.016313769617941],["Mo",-8.018209679137982],["ministre",-8.019343230342532],["val",-8.02189721164266],["lieu",-8.023544337901274],["Dans",-8.024407647347074],["sort",-8.032454817699001],["cour",-8.03295228545165],["jeune",-8.039234520217928],["Nous",-8.039299048852463],["nouvelle",-8.039348919950235],["10",-8.040031427788467],["mer",-8.040257616406379],["ienne",-8.04026615293268],["vre",-8.041237098319762],["certain",-8.04190646727951],["cas",-8.051575273145453],["“",-8.052056156098676],["déjà",-8.052715675717618],["cro",-8.053205457446767],["direct",-8.053614177260116],["droit",-8.055533042694357],["ndre",-8.060401550151544],["long",-8.063514475896273],["ner",-8.065039255518863],["semble",-8.065664479005513],["point",-8.071790659598745],["ça",-8.073453787233992],["tous",-8.078791175538203],["quelque",-8.079370849434863],["gne",-8.082234780500936],["”",-8.085880517584101],["aine",-8.089337796977059],["trois",-8.092042652051543],["000",-8.092263746164658],["ville",-8.093022055199583],["Ro",-8.09881719581523],["?",-8.099200727356418],["fer",-8.103707258790056],["),",-8.105509149637822],["Elle",-8.105693482065703],["go",-8.106431428305694],["No",-8.108790307001541],["donc",-8.112671783978485],["France",-8.115589758260736],["pli",-8.125316041710708],["bon",-8.125962120648687],["suite",-8.130712071476427],["plusieur",-8.132520700728858],["hui",-8.134232092119717],["ê",-8.136551326145627],["resse",-8.144745685983477],["Co",-8.146197386745392],["ger",-8.14622775660158],["équipe",-8.14678112841148],["beau",-8.148007442897196],["semaine",-8.149599225628652],["sol",-8.149853340696268],["dernière",-8.153648953653942],["ainsi",-8.15486690867781],["cou",-8.156806538738369],["pu",-8.16149013527242],["faut",-8.16487518272083],["À",-8.176537296807895],["début",-8.177523367866037],["nombre",-8.17801893429843],["tenu",-8.17862634031317],["jeu",-8.183038481870987],["fort",-8.18338952578874],["projet",-8.184784399135602],["00",-8.187828603968494],["auto",-8.191063003121785],["sous",-8.192080368393594],["homme",-8.19338592500771],["emp",-8.1948830441943],["national",-8.201352053674853],["ène",-8.203031419421325],["organis",-8.205202800464512],["fond",-8.215911015977511],["commun",-8.217147870197284],["gouvernement",-8.218703304820243],["Com",-8.221217962702209],["politique",-8.223254195011464],["nom",-8.223732630954512],["ouvert",-8.224515089471442],["fil",-8.226394976591592],["action",-8.230276040370468],["venir",-8.230972250643225],["amb",-8.256345261422878],["compte",-8.257681817587757],["mont",-8.25775559829382],["russe",-8.262522014300185],["main",-8.265239859769625],["Qu",-8.276393185682881],["Y",-8.282662718060127],["position",-8.28499546896331],["jusqu",-8.289197534599372],["Ukraine",-8.290750128397354],["cap",-8.291136955878475],["û",-8.291454033432064],["face",-8.29434731205631],["prendre",-8.2963827260807],["confi",-8.296883951616145],["public",-8.30300522326367],["groupe",-8.312919886706842],["ç",-8.313636798270693],["ban",-8.319912607624449],["reste",-8.320183711970053],["omb",-8.321622620389768],["ber",-8.323895190245905],["embre",-8.32689053029707],["î",-8.328731859668704],["Uni",-8.329307811223076],["tar",-8.330549992350173],["petit",-8.330988934670073],["suiv",-8.331387363667965],["femme",-8.336458566141822],["État",-8.338158606831186],["million",-8.33985485153945],["région",-8.341748185011607],["15",-8.34196633690287],["ative",-8.342865280796186],["soir",-8.345844648558778],["mission",-8.350397394956687],["pendant",-8.350498263868284],["formation",-8.351016700622829],["plan",-8.366306972820338],["30",-8.367226192843862],["habi",-8.36955770357583],["isé",-8.372375676233954],["É",-8.37718916996582],["uff",-8.382210448503493],["asse",-8.383760755017866],["service",-8.3870950296587],["avai",-8.397649602083668],["entreprise",-8.397892954848214],["notamment",-8.399590392187704],["18",-8.406004247183082],["propos",-8.412540928814476],["off",-8.422281822792549],["match",-8.42465123832218],["passe",-8.427167999507592],["prochain",-8.428173045793518],["2021",-8.430862104878099],["donné",-8.437229682878613],["forme",-8.440659533295879],["attend",-8.44303078208775],["oli",-8.446804546233516],["Z",-8.44686507925498],["tribu",-8.448090730559695],["rend",-8.45564980013474],["moment",-8.464181281158822],["ï",-8.465064813921934],["question",-8.465352971826078],["éli",-8.465506878473747],["somme",-8.467874185585796],["change",-8.46959308807586],["Jo",-8.470485522820663],["amp",-8.474139159573276],["français",-8.47575491790165],["avon",-8.476009345820273],["général",-8.47839715441025],["raison",-8.48653966041057],["saison",-8.48718827847366],["isation",-8.491806204286746],["force",-8.49352738217939],["emb",-8.494031678948891],["suis",-8.495316351667023],["rapport",-8.498549604174393],["mettre",-8.498937805893695],["déclaré",-8.499624937855263],["olo",-8.500878212937234],["côté",-8.507061021469015],["pér",-8.507470951826381],["effet",-8.512628718202343],["réalis",-8.51591172660735],["ancien",-8.517071240830443],["sept",-8.529685964633472],["différe",-8.529971088666812],["isme",-8.540259096767386],["important",-8.542442658079796],["ailleur",-8.548154743082282],["aff",-8.550758214528845],["pose",-8.564808372792754],["demande",-8.56492996724719],["famille",-8.567807514459108],["14",-8.579437172820947],["euros",-8.581471422848999],["série",-8.585721000493503],["joueur",-8.590830412651261],["17",-8.592644898323611],["pouvoir",-8.596151944626728],["jeudi",-8.596735191637654],["film",-8.604237226976732],["but",-8.606198417124258],["50",-8.606899566430027],["situation",-8.607171305878285],["mort",-8.613129972151107],["trouve",-8.613298429380512],["mercredi",-8.613832877413103],["posé",-8.614344857523436],["connu",-8.615865088623059],["annoncé",-8.618330195177851],["dimanche",-8.61833604164239],["mesure",-8.618744082772722],["fra",-8.621479907843753],["lundi",-8.625552585642284],["chose",-8.625597678323146],["mardi",-8.626128667655106],["niveau",-8.628802173527399],["vendredi",-8.631944303163696],["produit",-8.632116614660099],["yer",-8.634270491725605],["ô",-8.634830756428261],["trop",-8.639219527249764],["pense",-8.641147243846628],["arrêt",-8.65765337699958],["Saint",-8.66024988182306],["Russi",-8.662105424233427],["16",-8.662809618888886],["permet",-8.665248153873446],["–",-8.66562809032023],["igné",-8.66987446986909],["élection",-8.6715867553064],["12",-8.678076243546208],["aucun",-8.681921257341331],["bonne",-8.685602394887011],["/",-8.68712145247271],["meilleur",-8.687193989912053],["samedi",-8.68834202676939],["quatre",-8.691537860867736],["particip",-8.698851825036744],["américain",-8.702936891196266],["cinq",-8.704676895514726],["média",-8.706322376082424],["guerre",-8.711673563235468],["soci",-8.714052183593056],["ète",-8.7189553592274],["finale",-8.72151717827838],["possible",-8.725256831140115],["continu",-8.726574986827574],["histoire",-8.731545811489944],["fonction",-8.73154874708073],["24",-8.74356579761644],["arme",-8.743902780030549],["X",-8.74680354168802],["retour",-8.751234210732516],["accord",-8.755904163992557],["membre",-8.756313055426897],["quan",-8.756990754698133],["Québec",-8.758401676218877],["13",-8.764780314423719],["conseil",-8.766538785155621],["deuxième",-8.766934121556245],["marché",-8.771596394691375],["police",-8.772844270597183],["anim",-8.779664556196542],["sécurité",-8.784667523348942],["explique",-8.791344651094667],["vision",-8.796451806226028],["jui",-8.797251284535948],["haut",-8.812917004444996],["jama",-8.81404488770798],["Tout",-8.81440723439702],["pression",-8.817124881884606],["départ",-8.819928583242522],["aujourd",-8.821899314074475],["total",-8.830589499161935],["candidat",-8.830965342921406],["européen",-8.830966623925423],["ième",-8.831817241884032],["moyen",-8.858259055288721],["réseau",-8.858525918670214],["!",-8.869322289802168],["rencontre",-8.870572052266766],["ë",-8.870771565164487],["Etat",-8.872998605924359],["social",-8.88305523869324],["ukrainien",-8.883910618615388],["arrivé",-8.891286778885984],["annonce",-8.891299297006437],["matin",-8.896547596664748],["second",-8.897223081882562],["Q",-8.898952008073357],["occasion",-8.901702268420081],["Jean",-8.903623145312743],["agit",-8.907568521380927],["janvier",-8.90770350417462],["quoi",-8.910317089528611],["affaire",-8.910414919130615],["opération",-8.910757778113663],["activité",-8.913741164399253],["enquête",-8.916880878201592],["mètre",-8.91706605804135],["franc",-8.918750333504208],["cadre",-8.919986053202631],["investi",-8.922921756513325],["décision",-8.925938358209574],["accus",-8.927528488309772],["victime",-8.930536404047501],["titre",-8.932777535227043],["retrouve",-8.940170133839906],["milliard",-8.942929202617155],["international",-8.948704681674926],["besoin",-8.949188584285448],["charge",-8.950244679196064],["source",-8.956414572873861],["système",-8.960225101039716],["aller",-8.969057746383086],["pouv",-8.972480656768997],["décembre",-8.993650274396778],["assure",-8.997149483909089],["souven",-8.999259693701575],["bilité",-9.003910794304574],["Selo",-9.007556135637476],["bilis",-9.014691962992597],["indiqué",-9.017338221493304],["juste",-9.019068184271205],["responsable",-9.020701023294762],["secteur",-9.022416340662385],["autorité",-9.022465749833582],["local",-9.022706273469215],["uillet",-9.028542267310137],["cause",-9.03570779308551],["militaire",-9.035983227413091],["période",-9.03941915670719],["octo",-9.046544254466035],["publique",-9.049736526881155],["simple",-9.053431699088687],["clair",-9.053453576898832],["accueil",-9.054980476741875],["population",-9.063737314062562],["prévu",-9.064191978569426],["problème",-9.06726114374098],["répond",-9.0697785037781],["profit",-9.072228745187356],["respect",-9.079696589075446],["souhait",-9.079731619633442],["mondial",-9.090495926030787],["vaccin",-9.09230753539424],["évrier",-9.092313520803597],["route",-9.094361949530754],["€",-9.095911256387808],["lancé",-9.096775083465873],["minute",-9.097849630064635],["soutien",-9.097867524233127],["Europe",-9.103205277016379],["arrière",-9.103549759310033],["véhicule",-9.106870270037932],["logique",-9.109434038610349],["réussi",-9.116491193870168],["objectif",-9.123537339584978],["nature",-9.123804548089097],["œuvre",-9.12540999545234],["spécial",-9.127284524622112],["exemple",-9.129163809840207],["culture",-9.131037195540134],["hausse",-9.133325376980117],["armée",-9.137276865002267],["trouvé",-9.138606944083476],["prêt",-9.143806097760823],["arrive",-9.149356569090024],["permettr",-9.149617713020088],["combat",-9.15066549771216],["club",-9.1521158171646],["coût",-9.156040868193461],["événement",-9.1577287193061],["principal",-9.159663040250127],["rapide",-9.161643115224189],["champion",-9.16549812720518],["condition",-9.165525211649847],["communiqué",-9.171351003334259],["environ",-9.17138910993779],["économique",-9.173308636628892],["programme",-9.175273047798214],["traîne",-9.179240403990052],["difficile",-9.191130991546977],["Covid",-9.195285298984388],["texte",-9.197205530015239],["ajoute",-9.203255346570357],["vidéo",-9.205284887649881],["député",-9.217450587862519],["client",-9.223940223348684],["istan",-9.224186222488456],["production",-9.229833789696482],["développement",-9.231910941162708],["défense",-9.23191848794714],["victoire",-9.236082011474029],["sujet",-9.240749839595015],["énergie",-9.24447873860415],["officiel",-9.244565694161015],["ajouté",-9.250824104742719],["ministère",-9.252942426640388],["solution",-9.25514034530333],["août",-9.25721826356721],["ouvrir",-9.257235812001543],["photo",-9.259359851418093],["terrain",-9.26166614445627],["constat",-9.26614985732439],["voiture",-9.27012143219713],["libér",-9.271794624450296],["campagne",-9.280961590765195],["multi",-9.280976673437443],["Conseil",-9.291957231483412],["résultat",-9.294162793540558],["2023",-9.294176119926469],["$",-9.296380067688368],["connaît",-9.298604025923522],["édition",-9.29887472980641],["reçu",-9.300882093056032],["juge",-9.303679056598948],["Afrique",-9.307548649038024],["Macron",-9.312096389952167],["contrôle",-9.312171339142804],["pandémie",-9.318827754843635],["dollars",-9.330244995796061],["preuve",-9.337158298937752],["génér",-9.341075438564964],["territoire",-9.353473187282624],["décidé",-9.358260278195324],["professionnel",-9.365293635011193],["succès",-9.365294497926813],["façon",-9.370089164999136],["Canada",-9.37966559055183],["intérêt",-9.391801224023022],["maintenan",-9.404263622241725],["Suisse",-9.411533868549693],["fourni",-9.411537092847787],["qualifi",-9.424087487805927],["structure",-9.431657015850295],["œ",-9.434151632960315],["hôpita",-9.434201643082126],["chiffre",-9.4367576370656],["citoyen",-9.43931047350582],["association",-9.444459685966686],["justice",-9.452196950730809],["dépend",-9.453812814094146],["central",-9.45574038266519],["́",-9.460009411984414],["dossier",-9.465267614773666],["atteint",-9.465287371941496],["baisse",-9.47115154350719],["Belgi",-9.473214496385975],["intégr",-9.481437895820388],["regard",-9.486680958811348],["publié",-9.489189514289109],["nécessaire",-9.489189660888073],["fédéral",-9.502739614498495],["Emmanuel",-9.51095874713986],["utilise",-9.51927167290032],["sanitaire",-9.527604703976014],["expérience",-9.533212772053865],["élève",-9.534464382895642],["économie",-9.536030410995373],["particulière",-9.538854548346482],["modèle",-9.54170179712284],["impact",-9.54454811057331],["accept",-9.544603988291563],[";",-9.547377304400936],["technique",-9.555973861135838],["personnage",-9.555974106850677],["naissance",-9.555978962790887],["industrie",-9.561756031290916],["journaliste",-9.56464406824809],["disponible",-9.5704663376491],["quotidien",-9.576323309747373],["précédent",-9.576323368848666],["circul",-9.585189937124941],["affirme",-9.586389897766582],["sanction",-9.594113673320098],["+",-9.603110161256819],["Ç",-9.609161612323373],["mouvement",-9.612205564453475],["capacité",-9.615252190205176],["accident",-9.627540487774308],["étudiant",-9.6368558460907],["extrême",-9.646260119470625],["établi",-9.652590117794084],["Français",-9.655753857938228],["majorité",-9.658938730175368],["Montréal",-9.658939054611682],["policier",-9.658939507268824],["établissement",-9.658940193377857],["plateforme",-9.662133903284417],["exploit",-9.662134771079],["document",-9.662136294142229],["conférence",-9.678262830571766],["dirigeant",-9.688067055507553],["bénéfici",-9.691356289056648],["compagnie",-9.69465661878511],["expliqué",-9.694656669949202],["chaîne",-9.69797789342675],["africain",-9.718069535979605],["construction",-9.721458867244522],["employé",-9.731697949012123],["progress",-9.74909822188394],["mauvais",-9.763061392798827],["véritable",-9.773735638281373],["complète",-9.773736285579513],["Bruxelles",-9.780916949112225],["incendie",-9.780917694273878],["historique",-9.78452702148028],["administration",-9.7917865361729],["individu",-9.791787185047983],["performance",-9.795436262297184],["possibilité",-9.810169665069768],["conséquence",-9.813886958252626],["supplémentaire",-9.817618201418611],["football",-9.81761820193666],["israélien",-9.821366506094225],["particulier",-9.828896547571922],["résidence",-9.83649456066586],["François",-9.844134876255225],["—",-9.851842032549762],["populaire",-9.855718457416547],["efficac",-9.859609224413248],["application",-9.863515589933126],["propriétaire",-9.871373929932592],["canadien",-9.883297114790366],["compétition",-9.891294832489201],["difficulté",-9.907522344140924],["numérique",-9.915736165497783],["pompiers",-9.919868275154915],["électrici",-9.936570406337431],["technologie",-9.940789397168551],["enregistré",-9.940789399003322],["q",-9.943055325350755],["accompagne",-9.962157704028721],["spectacle",-9.966486706920001],["judiciaire",-9.966486711998101],["manifestation",-9.97520138122906],["nucléaire",-9.975201395067728],["Sénégal",-9.97958734806458],["institution",-9.983992607983126],["condamné",-9.983992657130347],["°",-10.019951462766969],["britannique",-10.029146913737641],["négociation",-10.047795461071235],["responsabilité",-10.052512420163302],["cérémonie",-10.086169388421272],["extérieur",-10.086169420304438],["effectué",-10.141459725046357],["électoral",-10.141459816969679],["diplomati",-10.15708501696119],["syndicat",-10.178305913664772],["‘",-10.211006293381947],["Philippe",-10.303826240160252],["démocratie",-10.34098209818395],["accompagné",-10.379571962414506],["̀",-10.386150909742776],["&",-10.4197109802069],["ü",-10.82688158903699],["ö",-11.056453476666043],["Î",-11.109445231236746],["̂",-11.50474867661352],["·",-11.567266768956841],["™",-11.589005899391625],["ä",-11.681020732104132],["´",-11.865744024497513],["*",-11.988966884022556],["²",-12.022300217355887],["Ê",-12.022300217355891],["á",-12.338595310180215],["•",-12.488845936746635],["ã",-12.54440149230219],["ó",-12.732391688380638],["È",-12.732391688380638],["️",-12.880743336732348],["❤",-13.054985760975145],["﻿",-13.154985760975919],["í",-13.266096872089502],["Ö",-13.391096872098604],["ø",-13.391096872098606],["Ô",-13.391096872098608],["ñ",-13.391096872098608],["ᵉ",-13.391096872098608],["®",-13.700620681662377],["−",-13.700620681662379],["×",-13.900620681662378],["″",-13.900620681662378],["³",-14.150620681662378],["̈",-14.150620681662378],["‹",-14.150620681662378],["ā",-14.483954014955753],["Ÿ",-14.483954014955753],["ō",-14.483954014995708],["å",-14.483954014995708],[">",-14.48395401499571],["₂",-14.48395401499571],["Š",-14.48395401499571],["›",-14.48395401499571],["Œ",-14.48395401499571],["‑",-14.48395401499571],["õ",-14.48395401499571],["ć",-14.48395401499571],["с",-14.983954014955755],["ş",-14.983954014995701],["′",-14.983954014995708],["―",-14.98395401499571],["Å",-14.98395401499571],["ē",-14.98395401499571],["➤",-14.98395401499571],["‐",-14.98395401499571],["ș",-14.98395401499571],["ă",-14.98395401499571],["ð",-14.98395401499571],["ū",-14.98395401499571],["‡",-14.98395401499571],["‒",-14.98395401499571],["Û",-14.98395401499571],["☹",-14.98395401499571],["♦",-14.98395401499571],["а",-14.98395401499571],["ğ",-15.98375401499571],["ž",-15.98385401499571],["Á",-15.983954014955756],["ń",-15.9839540149957],["č",-15.9839540149957],["ﬂ",-15.983954014995705],["£",-15.98395401499571],["̧",-15.98395401499571],["ř",-15.98395401499571],["ļ",-15.98395401499571],["✍",-15.98395401499571],["º",-15.98395401499571],["▶",-15.98395401499571],["ì",-15.98395401499571],["Ō",-15.98395401499571],["е",-15.98395401499571],["ł",-15.98395401499571],["",-15.98395401499571],["◆",-15.98395401499571],["Ø",-15.98395401499571],["➢",-15.98395401499571],["~",-15.98395401499571],["¼",-15.98395401499571],["Ä",-15.98395401499571],["ú",-15.98395401499571],["`",-15.98395401499571],["✓",-15.98395401499571],["ﬁ",-15.98395401499571],["α",-15.98395401499571],["‰",-15.98395401499571],["æ",-15.98395401499571],["▪",-15.98395401499571],["Ï",-15.98395401499571],["š",-15.98395401499571],["½",-15.98395401499571],["¦",-15.98395401499571]]}}