{"version":"1.0","truncation":null,"padding":null,"added_tokens":[{"id":0,"special":true,"content":"<UNK>","single_word":false,"lstrip":false,"rstrip":false,"normalized":false},{"id":1,"special":true,"content":"<SEP>","single_word":false,"lstrip":false,"rstrip":false,"normalized":false},{"id":2,"special":true,"content":"<MASK>","single_word":false,"lstrip":false,"rstrip":false,"normalized":false},{"id":3,"special":true,"content":"<CLS>","single_word":false,"lstrip":false,"rstrip":false,"normalized":false}],"normalizer":null,"pre_tokenizer":{"type":"Whitespace"},"post_processor":null,"decoder":null,"model":{"type":"Unigram","unk_id":0,"vocab":[["<UNK>",0.0],["<SEP>",0.0],["<MASK>",0.0],["<CLS>",0.0],[".",-3.1145969915493836],["de",-3.224325646946639],["en",-3.346682219621764],[",",-3.767441590723342],["van",-3.9804180586895654],["een",-4.0384686693251],["het",-4.06978969940565],["s",-4.1252801331709925],["in",-4.139004022838504],["e",-4.219535287789524],["t",-4.356347365748142],["is",-4.506278786232606],["dat",-4.543978370208427],["op",-4.5577323571425],["te",-4.734376317688598],["n",-4.778278232593896],["voor",-4.8643359945214915],["er",-4.936605151465097],["met",-4.9626430867039115],["zijn",-4.975735801571853],["niet",-5.031621015523761],["die",-5.033819390578987],["je",-5.114177163408453],["-",-5.119995692517792],["De",-5.128000197482741],["om",-5.140476879789011],["aan",-5.217603103597442],["ook",-5.465116653443477],["als",-5.480644874322222],["bij",-5.53432576380129],["maar",-5.550984164689709],["al",-5.55925349124292],["uit",-5.612500919585534],["ze",-5.623668356738364],["Het",-5.711526890566422],["nog",-5.723487541070968],["’",-5.741742442884268],["zo",-5.762236999261425],["dan",-5.79131410097931],["ik",-5.804140793310571],["over",-5.828826044557321],["wel",-5.884950478042493],["door",-5.889484702984843],["naar",-5.897318242397688],[":",-5.91677291655029],["heeft",-5.936377731867523],["ge",-5.950352224102225],["of",-5.978374520986627],["'",-5.981918407566182],["was",-6.024282256274679],["d",-6.058108829623439],["\"",-6.073483530747938],["(",-6.076580150819728],["meer",-6.084967823142035],["hij",-6.10387677870351],["?",-6.105810584626825],["“",-6.125000259696661],["hebben",-6.131447890716823],["moet",-6.146535102151283],["jaar",-6.194001134604692],["we",-6.20714071751447],["worden",-6.208092927482147],["wat",-6.266692851505622],["word",-6.273825568489482],[")",-6.283654600187383],["waar",-6.295251022979924],["‘",-6.3027460591009845],["kan",-6.303391637023484],["na",-6.332750911462272],["Dat",-6.353879514051588],["Ik",-6.36882592013421],["In",-6.38351566650541],["dit",-6.391847716889213],["a",-6.415412739623569],["geen",-6.425478612253677],["zich",-6.460041796085493],["daar",-6.4613469490496325],["werd",-6.474706470897463],["tot",-6.491390167300503],["kunnen",-6.512648168131662],["nu",-6.514928630566098],["veel",-6.523438818006488],["gaan",-6.591819049800871],["Maar",-6.605694557597637],["gaat",-6.605919487745081],["hun",-6.617403510205234],["had",-6.618841347802268],["mensen",-6.620916390612584],["onder",-6.646179692570575],["En",-6.651019991640537],["zou",-6.671169874671132],["tegen",-6.693036491978825],["weer",-6.693710812120873],["deze",-6.6939813316696135],["mee",-6.7117190559874125],["af",-6.7156422474063024],["dus",-6.722223767212184],["i",-6.733748476488596],["o",-6.7566879703188185],["Een",-6.75756568333006],["haar",-6.799761203794306],["1",-6.829481231239814],[".”",-6.8489024999676325],["alle",-6.859031478464561],["heb",-6.882933083146372],["goed",-6.887920879838976],["m",-6.892487079262045],["komen",-6.898751534563617],["z",-6.904211188525985],["zelf",-6.910331078967878],["twee",-6.932578596145261],["r",-6.935505339460614],["andere",-6.941182366200398],["l",-6.965375753016252],["doen",-6.975951316538505],["g",-6.97872832298557],["kom",-7.00165171319974],["maken",-7.001779046018936],["2",-7.0316673505816905],["nieuwe",-7.031980859678577],["krijg",-7.03544641683813],["k",-7.0400030016508675],["ing",-7.056336915352728],["land",-7.064642065605548],["tijd",-7.066961203368945],["wil",-7.068791685640892],["f",-7.070542099998259],["toch",-7.071981357852482],["zal",-7.08263648488066],["Als",-7.086751932054871],["Daar",-7.088339844349959],["hier",-7.097787201998106],["staat",-7.097889163645253],["”",-7.110738501769307],["me",-7.115147507544727],["vind",-7.130683158931717],["volgen",-7.13093817437093],["weg",-7.131001226936025],["mijn",-7.132229047688648],["maal",-7.13245819271219],["ver",-7.162997018811605],["man",-7.164820306042965],["heel",-7.1662245295606875],["zegt",-7.18359244649678],["Er",-7.19457314534999],["Ook",-7.198035480205565],["Van",-7.199904682399877],["hoe",-7.202195441702745],["eerste",-7.20290683876186],["hele",-7.207841340818169],["We",-7.2102395080040385],["Hij",-7.219673039688762],["lopen",-7.221189207133472],["Ze",-7.231719733661631],["on",-7.23272833769971],["be",-7.2391456792414095],["toe",-7.246634196170492],["iets",-7.247728694817863],["Op",-7.254309806987714],["zien",-7.271364598368274],["A",-7.279493894645474],["20",-7.286052242743552],["even",-7.287808941655601],["tussen",-7.298700425572675],["Nederland",-7.305188895911949],["alleen",-7.310896440275747],["grote",-7.313612932798669],["heid",-7.321806146720942],["ons",-7.325348378792209],["u",-7.3294437426610815],["auto",-7.345175076072719],["Die",-7.347717368863584],["procent",-7.352221427430229],["Zo",-7.352520720278746],["”,",-7.363439967187355],["ooit",-7.3752607046827015],["hem",-7.3787173814221845],["h",-7.392657541872527],["euro",-7.409301117610764],["houden",-7.42152327322542],["S",-7.421767118848631],["dag",-7.431227552497914],["Je",-7.432124379223814],["kun",-7.437134566186582],["D",-7.437310845071606],["3",-7.445681023364344],["B",-7.4578959963167675],["echt",-7.461817469024224],["altijd",-7.462407005567123],["keer",-7.465292989401946],["Dit",-7.47180874224127],["leven",-7.472162426305606],["kwam",-7.475778463657827],["gewoon",-7.484458908232183],["waren",-7.489125504106218],["K",-7.50176700511785],["eigen",-7.504507058820803],["laten",-7.509471154947037],["le",-7.514648313986892],["!",-7.5157632416758045],["zij",-7.516485093392505],["v",-7.518343563283623],["mogelijk",-7.522602290745992],["uur",-7.535972605990896],["terug",-7.538914511745328],["binnen",-7.5417086195399525],["ben",-7.556788349477465],["week",-7.569781240180812],["per",-7.573150975485044],["staan",-7.574843725734839],["willen",-7.576699867476083],["y",-7.581294054986584],["b",-7.5863479209939415],["onze",-7.587032736175404],["mij",-7.591985692895879],["minder",-7.599370380155888],["steed",-7.603337408623661],["E",-7.604053479517438],["V",-7.609516247366515],["tijden",-7.612682234383952],["politie",-7.616005915077371],["5",-7.61727949519739],["net",-7.618957329368096],["Voor",-7.6249605504587565],["toen",-7.638306852107094],["geld",-7.642674748464846],["eens",-7.658059961803652],["afge",-7.660273297528118],["jaren",-7.660550441783586],["drie",-7.667125309274219],["el",-7.669834083973237],["Met",-7.680919841103384],["werk",-7.682399397270698],["lang",-7.6906931440865565],["O",-7.691678409998144],["want",-7.692975846026392],["moment",-7.69512301102498],["Oekraïne",-7.695288112345827],["Wat",-7.704256068848749],["laatste",-7.705727835369969],["achter",-7.707254692915834],["één",-7.708589905999869],["Rusland",-7.722599774670665],["rond",-7.723543875629021],["Bij",-7.728410129224252],["wereld",-7.735939822534692],["4",-7.736889963074654],["huis",-7.741072893159699],["plaats",-7.7420890665656845],["p",-7.750753047476327],["Russisch",-7.751423166954519],["verder",-7.7621585338286305],["I",-7.771053796356044],["zit",-7.77124176359716],["Volgen",-7.771276277926415],["202",-7.781559716526029],["voorbeeld",-7.787147339316776],["/",-7.7900507978177655],["gebruik",-7.791748249099725],[".\"",-7.7943371805112],["weten",-7.795320522013751],["mag",-7.7998827878940125],["kinder",-7.804614113154982],["nodig",-7.80741229484837],["deel",-7.813096546823174],["Nederlands",-7.814328295162505],["zonder",-7.814948620268295],["Na",-7.817258911468249],["onderzoek",-7.819833609824412],["gemaakt",-7.82588494803876],["blijven",-7.826522783457337],["aantal",-7.851023185595102],["snel",-7.851657821871591],["maakt",-7.860919346502274],["nieuw",-7.863639873556325],["jarige",-7.8658088858851345],["W",-7.866900846908299],["vooral",-7.873262914023408],["geven",-7.874250884119499],["P",-7.876928706050304],["G",-7.8822463209622065],["beter",-7.896528628014858],["000",-7.897557630910734],["ullen",-7.902898313533422],["ging",-7.903031692294853],["6",-7.903268507143446],["elkaar",-7.90327051701075],["laat",-7.903694069645135],["weet",-7.905738664040123],["miljoen",-7.908864280674605],["alles",-7.911634249559731],["zitten",-7.912458840951724],["bedrijf",-7.91454223666471],["Dan",-7.917592317525028],["anders",-7.931420582124714],["Hoe",-7.9325220929168205],["zeggen",-7.933380816779703],["zeker",-7.937322805528437],["gemeente",-7.937604777572852],[").",-7.943204562837604],["zelfs",-7.943443516238605],["werken",-7.94430760284136],["stad",-7.948805605740863],["eerder",-7.953262509924358],["avond",-7.955267447404172],["nemen",-7.957693055285827],["groot",-7.965913159334926],["bekend",-7.966947550851648],["T",-7.974521268437789],["Zij",-7.975997446055811],["M",-7.980609041763557],["via",-7.987765369379081],["19",-7.988938633674304],["blijft",-7.992952975889053],["–",-7.9937605673695895],["doet",-8.001280262551502],["kon",-8.00207967240855],["samen",-8.005805575036902],["ren",-8.006161930703227],["oorlog",-8.008694706245503],["10",-8.00898262072441],["us",-8.013457359215685],["naast",-8.018129257426217],["lijkt",-8.023010837802282],["vaak",-8.024434010834362],["boven",-8.037307836463619],["energie",-8.044839468013745],["C",-8.051102254986976],["8",-8.058135620376557],["N",-8.062780661905526],["moest",-8.068607250688228],["0",-8.070982806275484],["vrij",-8.072995997797722],["zetten",-8.074746366076903],["wij",-8.076345827726945],["vier",-8.083730979933982],["natuurlijk",-8.083909527692462],["vol",-8.083930820336754],["Om",-8.086327528870484],["w",-8.097075910295342],["vraag",-8.112027397469696],["sinds",-8.11580363219735],["vrouw",-8.119985170749116],["soort",-8.124726450892904],["iedere",-8.13052993216648],["iemand",-8.13089706115769],["zei",-8.135118320126768],["erg",-8.14290874442657],["later",-8.144635433780998],["Deze",-8.149351674661737],["ken",-8.161465350316533],["juist",-8.163226643571235],["duidelijk",-8.17040723386273],["genomen",-8.180545410876729],["eerst",-8.183169255796454],["kijken",-8.18356794715839],["vast",-8.185150714974363],["hoofd",-8.188372287581505],["dagen",-8.18938066683533],["water",-8.189826783990217],["j",-8.192073755803493],["goede",-8.197504342141862],["tweede",-8.198829996768989],["landen",-8.200722102357442],["genoeg",-8.20613934069478],["geef",-8.207053574468002],["woning",-8.211449429296039],["licht",-8.211715134606369],["wie",-8.212343821795386],["manier",-8.212909368169347],["paar",-8.214719714039072],["Nu",-8.214903394260347],["der",-8.215692716480689],["buiten",-8.22212177363806],["gezien",-8.223380916168914],["blijk",-8.223726271937833],["enkele",-8.229348101008252],["Amerikaans",-8.230169839787887],["bijna",-8.234653954179684],["denk",-8.235734964399693],["wedstrijd",-8.240242376595848],["7",-8.245117895400949],["maanden",-8.246894596413588],["extra",-8.247387560180897],["ie",-8.247555454297459],["weinig",-8.262264458925879],["stond",-8.265085141679265],["breng",-8.265621706407083],["gedaan",-8.26661176868855],["Europe",-8.267494966214011],["H",-8.269923642491463],["F",-8.275435331999132],["bedrijven",-8.281694686156893],["leden",-8.282230647753767],["lig",-8.28297719477883],["amelijk",-8.284254581167591],["30",-8.285213695933471],["gas",-8.285391595755833],["Al",-8.287192947911839],["R",-8.289847004090802],["minister",-8.292151876978629],["corona",-8.300695397074142],["beetje",-8.306608191353824],["eigenlijk",-8.310503650768556],["partij",-8.31332318573418],["ja",-8.313724511181166],["Waar",-8.314571829533733],["hand",-8.31460086906232],["kree",-8.314796392080849],["pas",-8.322160688751008],["rijden",-8.32587748113605],["verwacht",-8.326590273297668],["straat",-8.327859092092227],["Of",-8.32804485432343],["ga",-8.330389760500623],["verschillen",-8.334164928193701],["geval",-8.334549893795504],["vond",-8.335308689614976],["vijf",-8.339117885879343],["weest",-8.343804074809519],["prijs",-8.346449796911788],["wege",-8.347721358694148],["weken",-8.350346445903053],["gek",-8.350515175308258],["halen",-8.354002892918032],["neer",-8.356181678429126],["ter",-8.363254305028722],["seizoen",-8.363323912548537],["ander",-8.364324788248858],["Europa",-8.367092617766403],["ziet",-8.367772288932734],["groep",-8.369485090502423],["9",-8.370767071656452],["prijzen",-8.372676082818014],["maakte",-8.379265362630983],["gelede",-8.38034329047233],["vanaf",-8.381086931580956],["Door",-8.383625640476115],["markt",-8.387653973704055],["probleem",-8.390292158460326],["eind",-8.392184496703756],["media",-8.393592227943241],["vandaag",-8.394634447782867],["…",-8.396342390529366],["reden",-8.396803468934124],["Dus",-8.397168446729705],["niets",-8.40110037713706],["eren",-8.40297432415472],["mogen",-8.40475446522093],["vragen",-8.408798122696503],["maand",-8.409027013971066],["15",-8.409366206643345],["EU",-8.409612613200492],["Ja",-8.416814312953715],["Niet",-8.42285910088723],["zoude",-8.424812235557198],["zie",-8.428246389527864],["kans",-8.431495513609981],["hoor",-8.431637946187273],["terwij",-8.43525668767603],["stellen",-8.43675381857826],["middels",-8.440015766642315],["problem",-8.44286959887894],["zorgen",-8.443762270665882],["gebied",-8.44446821667199],["foto",-8.44527477083494],["meest",-8.445680791811007],["thuis",-8.44657079682684],["vrouwen",-8.448993234310272],["U",-8.450089058558984],["ieder",-8.451776684692701],["enige",-8.452808249922718],["%",-8.453575196409801],["zaterdag",-8.454192721920297],["ruim",-8.454309773008436],["president",-8.456405958909128],["basis",-8.467078214782015],["denken",-8.468314122232371],["recht",-8.469379010058637],["vorig",-8.471546394151375],["heden",-8.47182634996027],["best",-8.473460989727213],["kosten",-8.477057737788812],["Poetin",-8.477418458581202],["echter",-8.478725601693013],["men",-8.482069774790494],["woensdag",-8.484610494265524],["hard",-8.487026171136357],["kant",-8.48976090218724],["druk",-8.492417702131789],["mannen",-8.495320783521873],["maandag",-8.496061050151503],["zaak",-8.49708742867669],["rol",-8.499511510751274],["„",-8.500764683804174],["team",-8.501711185710374],["bent",-8.501888083415956],["isschie",-8.505882847253126],["hoger",-8.50895221503949],["zat",-8.51273524957006],["baar",-8.516877242367396],["vrijdag",-8.518528631061894],["werkt",-8.520370027548722],["grootste",-8.52879879796028],["regering",-8.529419811829037],["kabinet",-8.53107824306175],["betalen",-8.53456070885796],["18",-8.535989533914107],["spelen",-8.538202799390195],["at",-8.539168446093292],["graag",-8.539711262571231],["tien",-8.540266323581573],["regen",-8.541935248085625],["club",-8.542709991583418],["overheid",-8.543080917014851],["nieuws",-8.543406490561857],["beste",-8.544569928827137],["begin",-8.547851782778292],["elke",-8.562564723834388],["c",-8.566304156304561],["hoog",-8.56788198023796],["idee",-8.568426895377534],["naam",-8.571044918549102],["langs",-8.571438296056396],["totaal",-8.572668013838115],["ton",-8.573275424768337],["gevolg",-8.573734910786289],["valt",-8.574422582924846],["neem",-8.57629427632757],["app",-8.576735299911377],["dinsdag",-8.580114319728018],[";",-8.580128845971212],["he",-8.58134723970197],["hoge",-8.584297010793028],["Apple",-8.585335182855289],["gelijk",-8.58954761203783],["kort",-8.591254689993537],["langer",-8.598264390991044],["ers",-8.600434349069271],["gegeven",-8.606579318654378],["plan",-8.611490004835478],["gekomen",-8.614323322048186],["familie",-8.618411312920426],["dienst",-8.619002925495273],["zondag",-8.619392287036941],["Wij",-8.620605272086614],["donderdag",-8.622289631693825],["verhaal",-8.622629635458258],["Oekraïens",-8.62796621319088],["volledig",-8.629628946569433],["heen",-8.634434071021015],["ruimte",-8.636087845019663],["uiteindelijk",-8.638145564725527],["houdt",-8.642841146759654],["17",-8.64379329580111],["stuk",-8.645611113507353],["ongeveer",-8.646912106026718],["jij",-8.646969328075453],["gebruikt",-8.647316252863511],["12",-8.647792840934358],["an",-8.648250221277758],["Is",-8.648773160994198],["Rutte",-8.64969977176154],["zorg",-8.650659440764782],["liggen",-8.658400678976257],["welke",-8.658452183882403],["plek",-8.660442700565792],["leggen",-8.6609317391455],["Hier",-8.661108035270384],["miljard",-8.66166685684017],["ploeg",-8.663579692280514],["wilde",-8.665467746362092],["dood",-8.666078475322891],["oud",-8.66610286398015],["derde",-8.667608386843957],["programma",-8.668150634466304],["L",-8.671348281923901],["situatie",-8.674805072244997],["periode",-8.677618580600061],["start",-8.677961728590109],["waardoor",-8.68195558257434],["200",-8.682402133844512],["mooi",-8.68263967510142],["school",-8.686493799464566],["vallen",-8.697869888656415],["regel",-8.700369458890556],["belangrijk",-8.700802075335524],["bied",-8.70437872972184],["loopt",-8.705010448254905],["punten",-8.706270141912068],["25",-8.70717734311388],["waarom",-8.707194128236477],["zoveel",-8.708028783502392],["beleid",-8.71373068595581],["zaken",-8.713917112650424],["Aan",-8.714485179560086],["niks",-8.714899332297998],["boeren",-8.716419273080902],["50",-8.716790551127794],["kleine",-8.717056474288432],["wan",-8.718165736420694],["vorige",-8.719565077544011],["helpen",-8.719804385638655],["beteken",-8.720098596723986],["100",-8.720811984495125],["ste",-8.721182382126115],["16",-8.726222282286392],["zeer",-8.727197537063393],["zomer",-8.727435082309151],["da",-8.729305551516594],["richting",-8.729541283855383],["organisatie",-8.732290085819518],["eten",-8.741594103258699],["um",-8.741681843946612],["kopen",-8.74499460985973],["én",-8.74674299017968],["acht",-8.748224518930598],["einde",-8.749790212134041],["21",-8.751753558801347],["moeder",-8.753742883731803],["bezig",-8.760439608984424],["Wel",-8.760612185168256],["00",-8.76064703782611],["hoop",-8.76127328307756],["Toen",-8.761558544155601],["&",-8.76372490962809],["groter",-8.764894344347512],["systeem",-8.767098144051939],["lekker",-8.76755750169521],["grond",-8.769191105829936],["rechts",-8.772644128273875],["maatregelen",-8.773472588501086],["veld",-8.775883186833958],["Wie",-8.777412892279216],["beeld",-8.779267269391706],["centrum",-8.779400570675445],["Uit",-8.783512498635615],["Amsterdam",-8.785146616041203],["Mijn",-8.786243470724772],["meeste",-8.786296374565069],["flink",-8.789020084699757],["Want",-8.789210081098542],["huidig",-8.78931863406594],["precie",-8.794040317765488],["vertelt",-8.796014260280483],["’,",-8.798030230066319],["ma",-8.79904141952989],["middag",-8.80085604398695],["Duitsland",-8.801729160040193],["rgens",-8.803171864792436],["actie",-8.804907930901814],["vak",-8.80826950903056],["honderd",-8.809182381841602],["ouders",-8.810893161911876],["Russen",-8.811486834299469],["daad",-8.812607201831629],["daarom",-8.813544006069282],["dollar",-8.817882978506567],["direct",-8.818439153148088],["doel",-8.819914191837043],["delen",-8.821502765492802],["zelfde",-8.823091259916485],["22",-8.823180309386018],["eel",-8.82329988377981],["ochtend",-8.82441380662879],["relatie",-8.82467191798903],["gedrag",-8.824758254657645],["klaar",-8.824821527430341],["sector",-8.824850766408684],["rij",-8.825237734566882],["rest",-8.825492947771505],["bare",-8.833563938710284],["China",-8.834443837084988],["meerdere",-8.834712538933307],["hulp",-8.834823170788813],["finale",-8.837667857191743],["hoeveel",-8.838609751408594],["daarna",-8.83926200562102],["leuk",-8.841076936703773],["klimaat",-8.84170674117172],["regio",-8.845037808236956],["cijfer",-8.84567234639217],["sociale",-8.846056204981462],["rechter",-8.852883994779248],["pen",-8.855793028588021],["gebracht",-8.856055369015627],["soms",-8.858437233625242],["2020",-8.860803926100948],["gevallen",-8.86205429760001],["oplossing",-8.863968842638645],["liet",-8.864170295260688],["partijen",-8.86494756471268],["meter",-8.865369941897765],["slag",-8.866157136267045],["ar",-8.866852945765281],["trekken",-8.868074227768165],["nacht",-8.87096455336972],["dicht",-8.871294085355181],["inflatie",-8.8715538929624],["wind",-8.87254481859054],["bank",-8.876915531747663],["politiek",-8.879935522836409],["waarschijnlijk",-8.881460177746153],["The",-8.882267901208948],["brand",-8.882705081573274],["kilometer",-8.883692651152922],["strijd",-8.88540091641508],["Toch",-8.885598030070536],["stand",-8.887778969340937],["punt",-8.8877888481205],["gesloten",-8.887912769962092],["zag",-8.894781714317977],["rekening",-8.89483048141437],["ari",-8.895638883943587],["vorm",-8.896362122509725],["vader",-8.897403943115119],["aange",-8.90008166693549],["horen",-8.901255954004705],["half",-8.902351571901676],["24",-8.90382529335562],["ogen",-8.908100482858917],["olie",-8.908415066341696],["meld",-8.909419848410426],["voel",-8.91056366323995],["dingen",-8.912964331612432],["ziekenhuis",-8.91344414522532],["beide",-8.914266268486001],["mis",-8.914515960147892],["stelt",-8.915254440614785],["nou",-8.917463418643859],["VS",-8.917614073352262],["niemand",-8.918533471954067],["voorzitter",-8.921209811927874],["Groningen",-8.921240305404325],["huizen",-8.921619428578751],["grens",-8.921906040418545],["minuten",-8.924989721257017],["reactie",-8.925112818795899],["ve",-8.92511503298119],["blij",-8.931596639750481],["duizend",-8.932853536231654],["lange",-8.933278040843884],["11",-8.933453138588385],["jonge",-8.936179374717273],["Verenigd",-8.939582129563394],["gezet",-8.940234428357153],["mooie",-8.943531322198986],["vervolgen",-8.9438428997267],["Duitse",-8.944105772238629],["muziek",-8.945279696304315],["moeilijk",-8.947500501430884],["boek",-8.949157682822591],["toekomst",-8.950055374267937],["slechts",-8.950525806376959],["dezelfde",-8.95234895811901],["belasting",-8.952527466184133],["gemiddeld",-8.952547228545974],["buurt",-8.952662025274535],["lezen",-8.95387729072733],["Kamer",-8.954440440338704],["gevoel",-8.955601813371093],["betrokken",-8.958807110633018],["bleek",-8.959523801468023],["vroeg",-8.961474199986256],["pakken",-8.962367866102122],["klein",-8.964553496783857],["niveau",-8.965709823442172],["helft",-8.965948461116097],["medewerker",-8.968147296881554],["nummer",-8.970920614258475],["deur",-8.975499426994062],["zoek",-8.975622833160143],["elk",-8.975951271133194],["kind",-8.976746342038759],["€",-8.977223259379883],["weekend",-8.977615282131335],["Ter",-8.980066551223896],["gesprok",-8.980750717483652],["won",-8.981439337105208],["Over",-8.981995669005633],["bijzonder",-8.982403078455238],["anderen",-8.983774446031887],["sommige",-8.984961476130785],["mocht",-8.985162773068485],["wachten",-8.995159675052225],["201",-9.002095131898923],["lijn",-9.003631199185278],["vakantie",-9.005821903179786],["België",-9.008426199996364],["aard",-9.008612562276],["Jan",-9.008728967950246],["sport",-9.009284323240935],["aanwezig",-9.009426585447374],["kond",-9.010180413528946],["inder",-9.010775690306133],["gebeurt",-9.012227631134028],["januari",-9.012385216372788],["lid",-9.013908204706343],["halve",-9.014112295219835],["woordvoerder",-9.016401041107024],["aandacht",-9.016738059882243],["40",-9.016767748603813],["schade",-9.016856666594453],["voetbal",-9.018268840775878],["oude",-9.018297437012638],["14",-9.018810353887842],["terecht",-9.021845105781122],["functie",-9.022003644511724],["project",-9.022084494316765],["handen",-9.027312450829974],["spel",-9.027617329703592],["uw",-9.028722455261306],["Geen",-9.031449852040144],["begon",-9.032217872826347],["FC",-9.032406928595194],["lever",-9.035057726594523],["denkt",-9.036437389152407],["planne",-9.037015520824774],["enkel",-9.0381405604072],["Onder",-9.04325785374141],["gezegd",-9.043325418940794],["winnen",-9.044026878842699],["leef",-9.051065486355995],["Tot",-9.053351138444665],["gang",-9.055768475242946],["winst",-9.056596859393878],["risico",-9.060039603736001],["beginnen",-9.061787252458593],["voorbij",-9.062601592937405],["sterk",-9.065627344005781],["begint",-9.066192738346189],["13",-9.068675299470634],["gesprek",-9.069705049752923],["Noord",-9.070410673283572],["fiets",-9.071085913926309],["strak",-9.075423764157998],["speelt",-9.076348753538442],["dank",-9.076406472734558],["23",-9.076982298259068],["dacht",-9.077515310616457],["informatie",-9.079582492421077],["liep",-9.079917261901548],["verschil",-9.080310857548167],["vlucht",-9.084198434187137],["Z",-9.08468189810346],["voldoende",-9.088219142029457],["lijst",-9.08858480174049],["beelden",-9.08905648969072],["film",-9.089336256189066],["wegen",-9.090920561961475],["ën",-9.09096338147586],["leger",-9.091045643309439],["Veel",-9.091645753825578],["ële",-9.091648229081223],["verantwoordelijk",-9.091855412299847],["eindelijk",-9.092824976974605],["slecht",-9.09388398068086],["wonen",-9.095449099083535],["ulli",-9.096907946310195],["Franse",-9.097585037463904],["slachtoffer",-9.098457977096198],["zin",-9.09921902625059],["verkiezing",-9.101036746624008],["Britse",-9.101105731056665],["lucht",-9.101824685767717],["verdachte",-9.102021520279635],["viel",-9.102564507872506],["juni",-9.10386418633975],["Vlaams",-9.103962051623519],["zoeken",-9.104141632516527],["gaf",-9.108316636873699],["kost",-9.109029419676403],["voorkomen",-9.111757694210404],["trokken",-9.113767003088203],["Zuid",-9.117828956514629],["spraak",-9.118071025277356],["begrijp",-9.118450760350274],["crisis",-9.118725496010544],["natuur",-9.118931267506166],["vertrouwen",-9.12074661224075],["Be",-9.124162255134877],["500",-9.124270683250758],["steun",-9.124436880810652],["len",-9.12456435323115],["gebeur",-9.124745834301441],["personeel",-9.124846602135042],["VVD",-9.127207236571714],["lager",-9.128665555442712],["Belgisch",-9.131966693049312],["uren",-9.132863778931313],["D66",-9.134202339123696],["legt",-9.137549981034834],["politieke",-9.13803169950806],["Net",-9.138393478955722],["september",-9.139405007751208],["grad",-9.140589011749158],["stroom",-9.143438680637058],["personen",-9.145883162212598],["Ben",-9.145944578961887],["elektrisch",-9.148535163908045],["online",-9.148585489810372],["korte",-9.149397219027119],["ë",-9.150311539522185],["los",-9.151317874712488],["zwaar",-9.15162864920352],["bedrag",-9.152128926243925],["ut",-9.154163286545405],["echte",-9.154293012280327],["vluchtelingen",-9.155142002275818],["mens",-9.155301242049294],["locatie",-9.15533324465406],["zes",-9.156056163620708],["Sinds",-9.157632354580125],["zware",-9.158151448205992],["stemmen",-9.158352555856043],["noem",-9.158608620097084],["belangrijke",-9.160048359895708],["baan",-9.160803306643452],["slot",-9.161630060874362],["contract",-9.161669177992337],["x",-9.161932713896828],["macht",-9.1624250140058],["CO",-9.162484154691207],["premier",-9.162526855357683],["hoeft",-9.162703897720888],["ebru",-9.162975159679641],["klanten",-9.163300064919998],["stappen",-9.164133622034225],["voormalig",-9.166955333990344],["mei",-9.167004324295814],["aar",-9.16866600018246],["international",-9.170351540269309],["Alleen",-9.170841224669559],["zeg",-9.171121255189103],["Alle",-9.172829820312547],["winkel",-9.173857478879121],["belang",-9.174375705187945],["rust",-9.174615902528217],["On",-9.177950946989585],["ij",-9.179953278971201],["woord",-9.184078768668105],["publiek",-9.18562353504785],["verbod",-9.186346551624215],["kieze",-9.187216441410992],["video",-9.188098074245548],["vele",-9.190112667655711],["Boven",-9.190483144467908],["ronde",-9.191023684541507],["bepaalde",-9.191322579199706],["normaal",-9.192661500366711],["Haag",-9.193148214794206],["kamer",-9.193165683948616],["opge",-9.194875366484478],["schrijft",-9.195278407572072],["rechtbank",-9.196916379613647],["antwoord",-9.19765999810371],["wist",-9.199178571642364],["hart",-9.199739010471978],["enorm",-9.200274194735279],["ministerie",-9.200950846090004],["vlak",-9.201253467769284],["studenten",-9.201781938327326],["afstand",-9.202793201815048],["lijk",-9.204615130809119],["Frankrijk",-9.20471403377801],["wijk",-9.20557511493034],["stoppen",-9.205650873963222],["bezoek",-9.20593419862021],["contact",-9.207985222623684],["prima",-9.208547292742091],["economisch",-9.209528182128409],["klink",-9.209903356421524],["positie",-9.212340839151846],["voeren",-9.21285111626122],["80",-9.213863478365255],["oog",-9.214975425888195],["liefst",-9.219429095530154],["links",-9.219526365130521],["volk",-9.219598401976913],["inwoners",-9.220991062838035],["He",-9.220996130725045],["keuze",-9.227676577903754],["trein",-9.22800374832276],["hoogte",-9.228545757611052],["omgeving",-9.228567338020568],["League",-9.22908754439323],["Heb",-9.229115191382311],["directeur",-9.229217316045006],["persoonlijk",-9.229299676255994],["geweld",-9.232789156700683],["Ajax",-9.23404321194922],["spreken",-9.237484202820202],["collega",-9.23902133054753],["termijn",-9.239336359854434],["Nederlanders",-9.242393276097943],["jouw",-9.242800637904619],["betref",-9.24412021406481],["Ge",-9.24448379881913],["race",-9.244854257757854],["zoon",-9.245352776937395],["ster",-9.24626486754002],["besluit",-9.2472129681797],["ontwikkeling",-9.247556324305704],["jongeren",-9.247623459196593],["schrijven",-9.248310568047632],["Misschie",-9.24976752091909],["sprake",-9.251805305680893],["wijl",-9.253506387053356],["ktober",-9.253526276906014],["liever",-9.25394472618861],["Twitter",-9.253971851355614],["spelers",-9.25725512161412],["kracht",-9.257871571019178],["band",-9.264592106508323],["groei",-9.26590615397999],["Tijden",-9.266175953663536],["é",-9.267129074043304],["bevolking",-9.26824030849475],["productie",-9.268632961593507],["maatschappij",-9.269279964877759],["dochter",-9.26933073731522],["juli",-9.26939529521703],["Nog",-9.269684548364234],["persoon",-9.272490165630952],["Twee",-9.27308693826219],["tjes",-9.273497030583162],["gratis",-9.27455672255265],["proces",-9.276237028916796],["ex",-9.278712752292023],["koers",-9.279344643951248],["serie",-9.281378116843662],["lokale",-9.281414750588363],["prob",-9.282843335791142],["melding",-9.283458506905347],["camera",-9.283815342376382],["economie",-9.284939659577836],["twintig",-9.288197741182815],["dorp",-9.288298454145341],["rapport",-9.289761314118259],["enorme",-9.291224408594745],["stikstof",-9.292249172663325],["PS",-9.294900377642051],["producten",-9.295047245173496],["provincie",-9.29513814987024],["35",-9.295420597115678],["Staten",-9.298041783010959],["wet",-9.298070360206832],["succes",-9.298802830769318],["politic",-9.29903172208082],["bouwen",-9.299148919758698],["artikel",-9.30030805054448],["november",-9.300892810258233],["cultuur",-9.30109562382663],["NAV",-9.30260744468048],["zorgt",-9.302753973538575],["dragen",-9.303073834587051],["geschr",-9.30752452558805],["kennen",-9.308275170749415],["loos",-9.308717896385751],["doe",-9.312964554735972],["leider",-9.314184974886313],["namen",-9.314590289764798],["diensten",-9.316700215676377],["voorlopig",-9.316836674916058],["Verder",-9.317091116111428],["Ver",-9.317091116283025],["trainer",-9.317217471480182],["zeven",-9.318240786353474],["leren",-9.319205930229451],["ven",-9.319436494368754],["geldt",-9.321142344955959],["advies",-9.322278468489008],["bouw",-9.32235321952135],["ont",-9.32498498538677],["verlies",-9.325438880579824],["plaatsen",-9.32558547787492],["sloot",-9.32647306242297],["morgen",-9.3278838699943],["kop",-9.328817580326014],["kijkt",-9.329696358528128],["last",-9.329742903770814],["val",-9.330561662271386],["Trump",-9.333077054598832],["financië",-9.333316373926941],["Mark",-9.335210776796039],["Brussel",-9.338571020363023],["verandering",-9.338989889755597],["Chine",-9.339139472130508],["mening",-9.34148426159203],["geschiedenis",-9.342068117270536],["geraakt",-9.342269484893329],["sprak",-9.342416507478537],["voertuig",-9.343536505838145],["sche",-9.345779966939805],["reed",-9.345892351615053],["draaien",-9.34746549393417],["toernooi",-9.349404017151826],["kozen",-9.350703881102227],["lastig",-9.351298106588244],["wagen",-9.351833046387991],["J",-9.352531719027816],["militaire",-9.352584389432211],["tafel",-9.352633693431347],["woon",-9.353400819169245],["versie",-9.353454151390647],["nam",-9.3539918697064],["sturen",-9.354770593300426],["woorden",-9.3557409051096],["speelde",-9.35626358132278],["burgers",-9.357020798982358],["hield",-9.35998945396208],["gevon",-9.360487321303676],["raad",-9.361375359148742],["rente",-9.361439648256908],["overigen",-9.363163221976912],["bericht",-9.363489160080707],["winter",-9.363821266703596],["geloof",-9.36526750769313],["park",-9.365657169694],["jou",-9.36651211987586],["sneller",-9.36925587001306],["verwachting",-9.370015445514081],["gingen",-9.370786558331739],["Nee",-9.372061228595948],["opvang",-9.37294070406887],["gehaald",-9.374121912592145],["volle",-9.374904228218353],["april",-9.377947975794736],["dagelijks",-9.378038648453076],["leiden",-9.379461364544174],["bal",-9.379462836759027],["tekort",-9.379861704695871],["tegenover",-9.38098259627769],["model",-9.383472144222608],["iPhone",-9.38365347867521],["volgend",-9.384122329253678],["70",-9.384268447433985],["Antwerpen",-9.3843453414729],["60",-9.38574200923037],["ervaring",-9.387543406300981],["slachtoffers",-9.387653261714437],["Mensen",-9.387944452547849],["gesteld",-9.388053982340487],["dak",-9.389416591965315],["december",-9.389451228769376],["praten",-9.389813461267076],["fout",-9.39008239574402],["platform",-9.39011423061844],["burgemeester",-9.39048753369056],["duur",-9.39316820747684],["ou",-9.393793601451325],["test",-9.395509788763631],["scherm",-9.397772278615001],["name",-9.398535254379617],["verdacht",-9.399586182120586],["90",-9.401037104156888],["Kan",-9.402177307637842],["noemen",-9.403297106473001],["Oost",-9.404148482062823],["stap",-9.404259643491468],["website",-9.404556474693836],["motor",-9.40501092187629],["post",-9.405713353244089],["bestaan",-9.406758119578626],["kwaliteit",-9.407626949634725],["schuld",-9.408079996285128],["feit",-9.408757676696975],["sprong",-9.41254946183658],["middel",-9.414003971683407],["vrienden",-9.414440265655522],["OS",-9.41668001998376],["kaart",-9.417645589809856],["verkeer",-9.419504584184317],["kwartaal",-9.424035139871588],["rs",-9.424616983783192],["Verstappen",-9.424951121899834],["laag",-9.427666148402805],["lichaam",-9.43026084799915],["roepen",-9.430540540481568],["agent",-9.431096455027514],["gevraagd",-9.43177073261117],["gen",-9.432231623372378],["getroffen",-9.433506042572517],["loop",-9.435742735930152],["leiding",-9.436530337505165],["ugust",-9.436649837773077],["pandemie",-9.436972277979415],["27",-9.437051792963123],["verleden",-9.437957515054382],["NL",-9.438101735385107],["sanctie",-9.438425550371448],["eken",-9.438516831688906],["bestaa",-9.43895286153508],["leeftijd",-9.439581843401879],["Tweede",-9.440222392186996],["kerk",-9.4427302170979],["28",-9.44504654539778],["overleden",-9.446915996755813],["sluiten",-9.448472486042554],["tijdelijk",-9.44881784091135],["veiligheid",-9.4488625645613],["â",-9.449148866811589],["controle",-9.449562683348482],["titel",-9.450239728704503],["straf",-9.450831989294791],["onderzoeker",-9.451605425925607],["Rotterdam",-9.452308435963001],["verkoop",-9.45317857778864],["verkopen",-9.456474143171988],["samenleving",-9.46155092554688],["orde",-9.462234343143477],["26",-9.464564830201311],["vertelle",-9.464737236920389],["va",-9.467311120191445],["beslissing",-9.467785457398731],["gewon",-9.46923112127262],["veilig",-9.469816463746866],["Onze",-9.47275839120644],["stijgen",-9.47295665954262],["actief",-9.47336439371577],["bestuur",-9.473594926582676],["di",-9.473964804058717],["Nou",-9.474044174424222],["burger",-9.476653191891124],["ieso",-9.476845647012427],["taal",-9.477142100275838],["45",-9.478422826558887],["ondank",-9.479581732412388],["gegevens",-9.479968158119066],["dieren",-9.480082164225873],["belangrijkst",-9.480796527630197],["stil",-9.482219310903456],["samenwerking",-9.483033470962585],["expert",-9.483730022464492],["voelen",-9.486097071507356],["akkoord",-9.486758860913788],["kennis",-9.48686721829116],["begonnen",-9.487267398218727],["volgt",-9.488473397420407],["bewoners",-9.490453782394246],["Max",-9.491896304907423],["tegenwoordig",-9.493865791592658],["ra",-9.494375456245278],["wapens",-9.494909483153819],["vliegtuig",-9.495290550610648],["kijk",-9.495739403236195],["makkelijk",-9.4957587664687],["midden",-9.498322733646791],["Utrecht",-9.498629550961926],["beschikbaar",-9.498986657396497],["duel",-9.49983293557456],["keren",-9.499928054085235],["immers",-9.50137803989243],["coach",-9.501827689819027],["telefoon",-9.502104699122677],["draagt",-9.50556045093806],["allerle",-9.506227802481618],["vrije",-9.50647617636324],["West",-9.507499979597684],["asielzoekers",-9.507989804610839],["nood",-9.508966942774054],["stem",-9.511117666530268],["invloed",-9.512192912399357],["onge",-9.512744625547885],["Eerder",-9.513650789675168],["gebeurde",-9.515781078093678],["wijzen",-9.516072498949207],["werknemers",-9.516097117257274],["maxima",-9.51843155322995],["brief",-9.518749246675618],["vroeger",-9.518894888207004],["Naast",-9.519288019466801],["trouwens",-9.519321242849426],["verklaring",-9.519642202237746],["patiënten",-9.519849548418183],["feest",-9.519861143465175],["waarde",-9.521437653499435],["industrie",-9.521907565026089],["X",-9.52275554664752],["atie",-9.523252303329663],["reis",-9.525040155238322],["Vorig",-9.52586684065195],["Vlaanderen",-9.52587273004341],["kritiek",-9.525914869325444],["generatie",-9.525930772063498],["waard",-9.526598845549485],["verkocht",-9.529092123412639],["omzet",-9.531277537489078],["heet",-9.53170273966115],["Oranje",-9.532535037697087],["duurder",-9.533807756833093],["merk",-9.534235526061448],["wereldwijd",-9.534398429154148],["vierde",-9.538342682670715],["commissie",-9.539251735746912],["positief",-9.540425950806299],["Tour",-9.540579883294265],["merken",-9.540799402676626],["fans",-9.541671251130568],["mond",-9.543064624985663],["+",-9.543859799591452],["aandeel",-9.544257108898275],["él",-9.54549871786254],["raakte",-9.546072109839491],["tekst",-9.546621385732639],["hoogste",-9.546910726848232],["brandweer",-9.549260415647808],["milieu",-9.551415959433143],["krant",-9.551590278260015],["gelukkig",-9.551919722567913],["poging",-9.552966026719],["vraagt",-9.553719399370449],["overwinning",-9.55380089322242],["probeer",-9.5540330222653],["hof",-9.554758600670379],["Ga",-9.55508954494584],["gewond",-9.555813827666903],["gebouw",-9.556384910450072],["OM",-9.557511212297953],["kwijt",-9.557695293151845],["Iedereen",-9.558437887525551],["aanval",-9.55879720904644],["lag",-9.559002852277755],["koop",-9.560646764299252],["tuin",-9.560906244116946],["overal",-9.56327164442707],["kwestie",-9.566587840609856],["boete",-9.567522987919284],["vriend",-9.568399397563194],["vertelde",-9.568559864328869],["ding",-9.570265027479426],["drugs",-9.570929723792322],["to",-9.571108485073022],["hangen",-9.571155037108515],["krege",-9.571564576788296],["slaan",-9.57217852579987],["bewust",-9.572474395910598],["incident",-9.57441360012333],["gewone",-9.575776431851999],["qua",-9.575857394387345],["kunst",-9.576133720716317],["rode",-9.579112872206377],["pensioen",-9.58032900128069],["sow",-9.580541140584339],["gewerkt",-9.580906497397496],["organisaties",-9.581716007991584],["omstandighe",-9.58228803388102],["groeien",-9.582797747849657],["angst",-9.583947079068068],["29",-9.584006896696454],["vermogen",-9.586220267824029],["kent",-9.586241495893603],["virus",-9.586708734457872],["leed",-9.587802463827552],["gebeurd",-9.587811838983331],["bracht",-9.589745888781673],["uitge",-9.589881400752674],["Pro",-9.590299141792324],["Nederlander",-9.59141822960851],["TV",-9.592596081346938],["levert",-9.593190074137182],["massa",-9.593925782718944],["eigenaar",-9.594378843519028],["fijn",-9.59472382164694],["vergeten",-9.59481240555289],["interview",-9.595071436186966],["jeugd",-9.595710366356277],["berichten",-9.595928664106427],["Zaken",-9.597066879744462],["Frans",-9.597912984492723],["El",-9.598274206818697],["leek",-9.59981898829217],["ische",-9.59993224662512],["duren",-9.601009019374192],["treden",-9.601247364546467],["gelegd",-9.601432318575002],["Biden",-9.601831185967455],["plein",-9.603340507849213],["pijn",-9.603593697679269],["Vooral",-9.606371733270947],["maak",-9.608328846091315],["dra",-9.608466008367317],["behoorlijk",-9.609014180235352],["raken",-9.610308022168706],["genoot",-9.610383393154649],["ho",-9.610532678142652],["Suriname",-9.61133793533532],["bewijs",-9.61137702683068],["netwerk",-9.611732690256886],["veranderen",-9.612791889525163],["simpel",-9.615417684556341],["vuur",-9.616082948283266],["bus",-9.617027538729715],["Unie",-9.618593677497751],["Daarna",-9.619839161440199],["sta",-9.620149045939622],["bang",-9.620894670436233],["hout",-9.623000194930093],["variant",-9.623161545630268],["Kaag",-9.623546702062342],["definitie",-9.623569533926789],["selectie",-9.623672812572437],["vrijheid",-9.623783023439863],["onderwijs",-9.623829153655173],["stijging",-9.625996246997456],["spreekt",-9.626061813905604],["gisteren",-9.62686252526547],["La",-9.628226804197785],["gezicht",-9.62863411052211],["schree",-9.629001058358897],["moeite",-9.630857613626503],["trekt",-9.630861049145505],["liefde",-9.630921090364819],["centrale",-9.631421161945568],["gezin",-9.631947773006168],["snelheid",-9.632902358203669],["doden",-9.634269293560806],["Zelfs",-9.634702754947325],["negen",-9.634760711060625],["hopen",-9.637131818279421],["meerderheid",-9.638273034611874],["algemeen",-9.638750814860273],["bezoekers",-9.638813000090378],["cel",-9.638877378838457],["Sint",-9.640209977811395],["betaald",-9.64349095698071],["ziekte",-9.645215308481484],["wapen",-9.64628427979208],["deels",-9.646406661260029],["schap",-9.649226696329784],["lijken",-9.649695368635223],["populair",-9.651788337303286],["code",-9.651802086316154],["gevaar",-9.653435877288203],["optie",-9.653891491229249],["75",-9.655244188439104],["dergelijk",-9.657574618321117],["mede",-9.65819062415359],["witte",-9.658464971835519],["eisen",-9.659718774667425],["jaarlijks",-9.659806984514399],["Pas",-9.660944745472456],["werkelijk",-9.662015147872719],["Open",-9.663021826349564],["afhankelijk",-9.66341882410443],["bloed",-9.663814158467849],["kleur",-9.664156491449795],["voren",-9.664608774607675],["daarvan",-9.66617389597469],["eeuw",-9.666731634322653],["wijze",-9.667272637216804],["genoemd",-9.668381235488198],["bestuurder",-9.668649680057857],["operatie",-9.66878032831011],["speler",-9.67132115624],["bak",-9.672384884324618],["national",-9.674251496356582],["diverse",-9.674567474482767],["uwelijks",-9.675703709270639],["Google",-9.6761455682804],["verliezen",-9.676283199622684],["ontstaan",-9.68023170135628],["hoeven",-9.681303080454029],["Berg",-9.681628633399065],["verhalen",-9.682234630054035],["reeks",-9.682243562776335],["training",-9.683078904384502],["groen",-9.683729436051314],["Feyenoord",-9.68392086273606],["wijst",-9.684041587602994],["maat",-9.685286130760506],["Wanne",-9.685498749002884],["Zou",-9.686714540258116],["tegelijk",-9.687242284149075],["temperatuur",-9.689273095930542],["steden",-9.689621154486781],["regelmatig",-9.691263273988575],["ontvangen",-9.692195405443545],["helpt",-9.69319257911098],["baas",-9.693326919525678],["bepaald",-9.694215852620397],["goud",-9.694474882037689],["haalt",-9.695102010115296],["stel",-9.695196866308086],["gebruikers",-9.695754387139246],["Le",-9.696089353368272],["beurs",-9.696716488232799],["zwart",-9.697339720882052],["Jong",-9.698338878634885],["vaccin",-9.6990291994615],["boom",-9.699761226060634],["omhoog",-9.701521709201423],["Wil",-9.703406617487843],["optreden",-9.703556257650284],["beroep",-9.703958362166503],["show",-9.704190820021806],["dader",-9.70552416643429],["kamp",-9.705694207328339],["betere",-9.706982847465547],["technologie",-9.707528481107797],["leid",-9.708582175494078],["Even",-9.708820569319258],["podium",-9.709114804955808],["Vandaa",-9.70961220063521],["gericht",-9.709649242266295],["militair",-9.711283431209267],["bestaande",-9.712531836098226],["elukkig",-9.71454937396793],["vlees",-9.715917170017402],["aandelen",-9.720039156025795],["Meer",-9.721169305851014],["stemming",-9.721511013181459],["advoca",-9.721588451765207],["verbruik",-9.723017616007354],["Qatar",-9.723587830310953],["geloven",-9.72391354711399],["Europees",-9.724645574230557],["blauw",-9.725803281822142],["ongeluk",-9.725903562419948],["Air",-9.72815589744831],["studie",-9.728392803480613],["gelaten",-9.731863147342013],["prachtig",-9.731883020218294],["standaard",-9.732004702691718],["co",-9.73204119925836],["zagen",-9.732559380523181],["haven",-9.732671472073836],["rijdt",-9.73319869280982],["passen",-9.73378940173517],["jongen",-9.735526191666256],["buitenland",-9.73565900473712],["la",-9.736889397456169],["effect",-9.736949854717263],["moord",-9.73942685956899],["terrein",-9.73946657501966],["pro",-9.739494175706223],["voordeel",-9.739618817877787],["zege",-9.739669518552255],["Schiphol",-9.73991845918243],["Musk",-9.739972021851305],["Spanj",-9.740274140419668],["geheel",-9.740357573678743],["verdienen",-9.741096607042017],["bekijk",-9.741843885829097],["ka",-9.742105817494036],["komst",-9.742780117275391],["anti",-9.74304758127942],["John",-9.74326835968222],["voedsel",-9.744431329878147],["offici",-9.74453281280685],["troepen",-9.745528173777124],["Red",-9.745655673873559],["stelde",-9.745884493140007],["raden",-9.746738262523415],["Afrika",-9.746777708238362],["carrière",-9.748176416077197],["scholen",-9.748243358752827],["boeken",-9.748481487310281],["debat",-9.749161103605603],["gebrek",-9.749453492336338],["kampioen",-9.749463002302269],["zette",-9.750226798367294],["geplaatst",-9.75074648016859],["helaa",-9.752031898843395],["Denk",-9.752687328595453],["berg",-9.752987052581524],["her",-9.753860716696565],["festival",-9.756160916871522],["museum",-9.756509335996018],["twaalf",-9.75660260825256],["Zeker",-9.756854465594659],["klachten",-9.758608252099656],["voet",-9.759023922204108],["zwarte",-9.759113959080391],["Som",-9.761361898074789],["for",-9.76368365969799],["sch",-9.763842361828928],["fase",-9.763965371675248],["ervoor",-9.763998759194799],["Kom",-9.764830316191707],["resultaa",-9.764912610710414],["afdeling",-9.765032522763452],["Lat",-9.765826663087037],["meisje",-9.766686097444264],["Q",-9.766688086559583],["geweldig",-9.766741707031489],["New",-9.767186454645188],["ny",-9.767518674713429],["hoopt",-9.768235737443316],["schoten",-9.768556733869008],["type",-9.769275976631258],["geleverd",-9.769632192117335],["comple",-9.771960015669798],["ingezet",-9.772409224852474],["Polen",-9.77265566140866],["melden",-9.772720992242899],["hotel",-9.773202677414865],["papier",-9.773292757355886],["serieus",-9.773948767697057],["discussie",-9.774154377396949],["les",-9.77449567826242],["uitstoot",-9.77459934364908],["hangt",-9.775353731837956],["regeling",-9.77589144671947],["record",-9.776020784410811],["geluid",-9.77606854380717],["update",-9.776143861761788],["leeg",-9.776965478558546],["minste",-9.778977634799134],["bekende",-9.77963139214086],["site",-9.780748109748933],["jongens",-9.781782489815171],["autoriteit",-9.782179157409256],["Sport",-9.782777021863566],["brug",-9.784800763358334],["wacht",-9.786237851889407],["apps",-9.78748746240949],["ch",-9.788090520258752],["vereniging",-9.78851210146282],["modellen",-9.788694821974921],["pad",-9.788818288653278],["product",-9.789351676110362],["steken",-9.790062902926312],["bureau",-9.790069246645356],["onderwerp",-9.79054029613207],["Sommige",-9.790556972731732],["lees",-9.790848663005725],["vormen",-9.79160476012164],["waarvan",-9.792015903722088],["rug",-9.793114979058977],["internet",-9.79412462855675],["bed",-9.797340976125112],["Tesl",-9.797415682116497],["college",-9.7982313649076],["pand",-9.798725507936052],["sterke",-9.799305283244884],["geboren",-9.799329468845844],["Parijs",-9.799475980591197],["33",-9.799582561162698],["fabriek",-9.799735785671832],["gebouwd",-9.800173102529083],["past",-9.80031344458152],["schieten",-9.801863116324432],["gehoord",-9.80323597421712],["veiligheids",-9.80381771619755],["slapen",-9.804047325045707],["talië",-9.80449476706633],["horeca",-9.805368932799505],["resultaten",-9.80802237565409],["activiteiten",-9.808142529019825],["Rond",-9.80833944575619],["Ro",-9.80875631714392],["Laat",-9.80875858902155],["gespeeld",-9.812000158911449],["grenzen",-9.812840819651111],["bier",-9.81304030910506],["kantoor",-9.81359917294595],["groene",-9.81382793401194],["etc",-9.81542533879214],["Haar",-9.816400074855178],["praktijk",-9.81687196402134],["Mercedes",-9.816873704727048],["impact",-9.816916620638366],["invasie",-9.816955288971354],["broer",-9.816967009814277],["speciale",-9.817004707586436],["kapot",-9.817124885669326],["or",-9.817999737632777],["opdracht",-9.818769632979848],["vliegen",-9.819005427698414],["betaal",-9.820067807408893],["Ho",-9.822201310961727],["raakt",-9.823960854226426],["voorzien",-9.824721006619953],["diep",-9.825043850803173],["Kijk",-9.825151047677672],["baby",-9.825553637837068],["minima",-9.825691367791809],["PvdA",-9.82585948636416],["bedoeld",-9.826375474613425],["concert",-9.826933307420852],["eventue",-9.827040091581235],["ce",-9.827422069186463],["genieten",-9.82778708315362],["verband",-9.828519575278763],["aanbod",-9.828693815230615],["aarde",-9.828892697504278],["Grote",-9.832951706645808],["Co",-9.83326029774216],["twijfel",-9.83395555211139],["ijs",-9.834264121425623],["minuut",-9.834809636175805],["supermarkt",-9.834965064511731],["deelnemers",-9.836463851241993],["pak",-9.836970775890311],["wezen",-9.840455457779205],["Te",-9.840938916161797],["gesteg",-9.842038774314515],["protest",-9.84260927890233],["Peter",-9.84296307935464],["toont",-9.843052853438486],["kleding",-9.843278533260591],["liter",-9.843723226307363],["filmpje",-9.844052212541527],["opzichte",-9.844220094568367],["goedkoper",-9.844574368870411],["stijds",-9.8448202840599],["verschijn",-9.845728144784369],["CDA",-9.84586651091071],["2014",-9.846621896948056],["wijn",-9.847330482881404],["Ju",-9.848117866935059],["up",-9.849038455392098],["schoon",-9.849431898331334],["jarenlang",-9.849874719922147],["32",-9.851081660176563],["sluit",-9.85116249524332],["Willem",-9.851301178254609],["tip",-9.851504202417757],["Amerika",-9.851844504703568],["conflict",-9.853074734162107],["tegenstander",-9.853145939397374],["zone",-9.853582770516772],["schepen",-9.85406428355664],["mogelijke",-9.85407917302484],["wetenschapper",-9.854297372856008],["campagne",-9.85474720021576],["handel",-9.855597102557109],["duurt",-9.8559893501832],["veroorzaakt",-9.857491061150792],["consumenten",-9.858263631641762],["broek",-9.858330709232302],["banken",-9.858624240133807],["game",-9.85911835586107],["digital",-9.859750870389563],["verzoek",-9.863429383260298],["winnaar",-9.86386211408238],["beweging",-9.864877188783058],["warm",-9.865211268020317],["vriendin",-9.865283196723238],["bomen",-9.866083647880224],["budget",-9.866541730775555],["gooien",-9.866891695821353],["roept",-9.867343009583278],["doorgaan",-9.867677782811562],["gereden",-9.871420084609507],["total",-9.871872667003945],["brandstof",-9.875634752292925],["31",-9.87702904413457],["criminele",-9.878177726740148],["tank",-9.8782894133175],["sfeer",-9.879889604821525],["gesprekken",-9.880016063693112],["kwart",-9.880921111692896],["pers",-9.8813748722811],["daadwerkelijk",-9.881432241081445],["westers",-9.881732527022214],["reizen",-9.88195747974995],["Putin",-9.882458400955704],["toegang",-9.882634756128116],["bereid",-9.883636809500963],["sloten",-9.8848853714799],["laas",-9.884992958305514],["stukje",-9.88519040511636],["Kie",-9.885884710215908],["ondernemers",-9.886704800192128],["kern",-9.887126793230802],["plezier",-9.88714507032836],["Was",-9.887264606222658],["Oekraïner",-9.887915762161533],["Leiden",-9.889993118480223],["asiel",-9.89041094650547],["geslag",-9.890983113371638],["Bank",-9.890984274580532],["aangekondigd",-9.891512942773934],["tientallen",-9.892128339747682],["draait",-9.8924783031493],["landse",-9.894318763414553],["199",-9.894520751670708],["loon",-9.894846599239084],["openbaar",-9.895161139986792],["Mosk",-9.895445949911771],["kerst",-9.896626051785265],["ester",-9.89782435361251],["Kort",-9.898053596204708],["gezondheid",-9.900366581365342],["partner",-9.902288813032973],["spits",-9.902318869044793],["pelijk",-9.902358341201774],["vertrekken",-9.902668312982257],["Alles",-9.904923486145453],["danks",-9.904926461044074],["rustig",-9.905138790509532],["blessure",-9.905819647429706],["rit",-9.909375058801267],["letter",-9.909379543215273],["reageren",-9.909962049290149],["editie",-9.910276453465869],["?”",-9.910835258554718],["vergelijking",-9.912241788296223],["stoken",-9.912758488086698],["droom",-9.913600235764417],["overleg",-9.914733189573717],["eerlijk",-9.915552345371214],["stuur",-9.915680404627853],["miljoenen",-9.916965657645381],["Wereld",-9.917043710987098],["opvallend",-9.917788849665888],["spoor",-9.91885908832076],["City",-9.919785431500792],["historisch",-9.919802111242083],["haalde",-9.920158228377659],["behandeling",-9.920840277404345],["Moet",-9.921169948550007],["as",-9.921541122777729],["zak",-9.922153317828101],["trok",-9.922760043436863],["gestuurd",-9.924078550264534],["herstel",-9.925153640116928],["US",-9.925297380076923],["Ten",-9.925338999945179],["westen",-9.925379696099414],["indruk",-9.926360731181099],["route",-9.926608457336675],["lage",-9.927426891800632],["dertig",-9.927906407947532],["nieuwd",-9.928415166191655],["conclusie",-9.929666593978304],["feiten",-9.930390580519155],["Spaans",-9.930478208815458],["greep",-9.930703864376301],["Dank",-9.930831911949644],["ertijd",-9.932545711728427],["og",-9.933157750985522],["eeft",-9.933291392913278],["vervangen",-9.933504966603461],["live",-9.933633421478934],["beperkt",-9.934019705286687],["drinken",-9.93705007704241],["techniek",-9.937457952576986],["Doe",-9.939028568859346],["Instagram",-9.939104556470554],["instantie",-9.93967122583205],["BMW",-9.939765055271405],["afscheid",-9.941307444572027],["EK",-9.941449416332361],["Italiaanse",-9.94177928626096],["werkte",-9.942842913392546],["ongeval",-9.943172162610665],["handig",-9.944706284583386],["bescherming",-9.945149396633136],["rekenen",-9.946914357293089],["ig",-9.947150166279418],["trots",-9.948181484143948],["hoek",-9.949035427630031],["bos",-9.949256130697972],["dossier",-9.949771997832872],["Formule",-9.949856048494244],["aangifte",-9.949892758316155],["aflevering",-9.950646153403873],["Overige",-9.950720677488736],["voorstel",-9.951735345167686],["400",-9.9519566737835],["spulle",-9.952467362192625],["combinatie",-9.953102197700142],["hond",-9.954322000220024],["300",-9.955211365774954],["testen",-9.956355888607224],["Me",-9.957175334557379],["extreem",-9.957255125899927],["ha",-9.957530698581113],["koning",-9.957612184862203],["middelen",-9.957718259617138],["ziek",-9.957838240079724],["hoef",-9.95848810423885],["democratie",-9.958830347803023],["dikke",-9.959892605198135],["Facebook",-9.959978265782752],["Paul",-9.961073129362855],["Naar",-9.96203934598238],["36",-9.96392279906577],["beurt",-9.964733996698467],["EC",-9.96941436183284],["Buiten",-9.970433528045364],["luchthaven",-9.970667383236638],["voorstellen",-9.97116924681092],["vaste",-9.972051269686395],["huishouden",-9.973064575277352],["vechten",-9.973568868124541],["clusief",-9.975662008827355],["go",-9.977737856802403],["ernstig",-9.978448944747626],["Gent",-9.978751096622364],["vergunning",-9.97960342945315],["inzet",-9.979798500546508],["leuke",-9.980121274776138],["kansen",-9.980604008454272],["perfect",-9.980677224405945],["excuse",-9.981046114446372],["Watch",-9.98126754835154],["landelijk",-9.981342853257287],["vuurwerk",-9.982405466469942],["ouder",-9.982406316427774],["leidde",-9.98264992358624],["37",-9.9836115311376],["competitie",-9.983632231834118],["vijftien",-9.984392380883687],["schip",-9.984547033865415],["slechte",-9.984642023987035],["ov",-9.987321680508126],["acties",-9.990007682466583],["Johan",-9.991217488400325],["verplicht",-9.99128980922205],["Groot",-9.991347623999538],["Beide",-9.99134954262858],["beslag",-9.994124530897093],["lukt",-9.994870307227998],["koffie",-9.996368930924271],["Zelf",-9.996399353169139],["aanvallen",-9.99852263882784],["gerekend",-9.998806303791989],["wild",-9.998918187549414],["vertrek",-9.998980112461332],["bereikt",-10.000777555094544],["VV",-10.001286040135971],["bereiken",-10.00135864670808],["Minister",-10.00161311700365],["Samen",-10.001847376821011],["hou",-10.001925384752017],["bodem",-10.002033351540042],["geluk",-10.002066759100725],["gelegenheid",-10.002403712257669],["bedoeling",-10.002684446089361],["mail",-10.00291756174892],["rijk",-10.00336755743198],["golf",-10.003941028491578],["beleggers",-10.004445834276666],["gebrok",-10.004765314001176],["Eindhoven",-10.005392452787827],["38",-10.005455910333357],["wisten",-10.005739252813207],["inkomsten",-10.005813469670361],["verloo",-10.006012767451221],["buitenlands",-10.006548298082095],["waarden",-10.008752901847995],["besmetting",-10.010056652144176],["linkse",-10.010186459086285],["verbeter",-10.010771346594323],["levens",-10.011278442290141],["televisie",-10.011802896394776],["beschermen",-10.012444321739778],["bondscoach",-10.012688372762266],["stadion",-10.012710444011823],["steeg",-10.01276756848775],["soldat",-10.013467943109518],["am",-10.013494153233454],["station",-10.019185140564725],["investering",-10.019317495652434],["boer",-10.020336489530735],["pk",-10.020434484403374],["klant",-10.02063632459041],["staats",-10.021610647700768],["rood",-10.022313307119218],["koppel",-10.022429801517914],["prestatie",-10.023146700364157],["Spel",-10.023521117318257],["uitdaging",-10.023581189352086],["eiland",-10.0239019996046],["zichtbaar",-10.023906003865285],["apart",-10.024310852087392],["verschillend",-10.025720783541752],["super",-10.027332717541423],["cent",-10.028379592999686],["eerd",-10.030522872713593],["veroordeeld",-10.030718878174879],["aller",-10.030959541245732],["logisch",-10.031078815252492],["noemde",-10.031530565640711],["leeft",-10.03230376609361],["Bart",-10.033742212073694],["jammer",-10.03419432630361],["maatschappelijk",-10.034476754143284],["dwong",-10.034705692279388],["scenario",-10.03477885225235],["55",-10.036096073279046],["ko",-10.039050351172309],["bord",-10.039481595355323],["red",-10.040171684555926],["welkom",-10.04088259142024],["herinner",-10.042223915657033],["gedacht",-10.042703051646908],["zorgde",-10.043321591934905],["aanslag",-10.044408998906475],["universiteit",-10.04460724968893],["Raad",-10.045195384285194],["Defensie",-10.045585632312212],["vrachtwagen",-10.045605599562721],["Oekraine",-10.045756684625125],["fractie",-10.04682876769646],["minsten",-10.04695159264973],["zekerheid",-10.04786712301221],["pakket",-10.048023459907498],["Tom",-10.048370151865404],["vertegenwoordig",-10.04931590122212],["uitkering",-10.049334777108738],["mo",-10.049687608212995],["erger",-10.050688464501064],["geschikt",-10.051036741138795],["gevangenis",-10.05179886425928],["snap",-10.051892252814898],["coalitie",-10.052413564395696],["gekocht",-10.05290028769151],["fietsen",-10.052951046354199],["schot",-10.053037794147713],["breken",-10.05368530629747],["hi",-10.055736024780561],["positieve",-10.055954215701961],["opleiding",-10.055995280074455],["interessant",-10.056084735420004],["klopt",-10.056290761633534],["$",-10.056820574700502],["Koninkrijk",-10.056820574849375],["NPO",-10.056866719929028],["boel",-10.057294778191075],["Commissie",-10.057787134864308],["afloop",-10.05819003409227],["jong",-10.058232617712441],["achtergrond",-10.058465724183264],["stelling",-10.058768124832245],["eerdere",-10.060976686028159],["wens",-10.061102789859962],["klap",-10.062467674370245],["bron",-10.062825078366348],["dalen",-10.065038907286882],["nek",-10.066238173132657],["winkels",-10.066454334664755],["Elke",-10.067037823903114],["Groen",-10.067126612511302],["praat",-10.067428706376074],["fabrikant",-10.067503109262695],["Club",-10.068189189864432],["errari",-10.068290744133062],["uniek",-10.068497223548519],["software",-10.069252262089933],["volgde",-10.070297753359455],["oproep",-10.070774205663405],["uitgevoerd",-10.071725140279993],["centra",-10.072375355330712],["Afge",-10.072402500271512],["amper",-10.073158855138669],["150",-10.07322313118096],["index",-10.074256786844003],["bijdrage",-10.074270164834529],["aanpak",-10.074582567291854],["Echt",-10.074970310607569],["Had",-10.075056225798592],["ineens",-10.075910742075951],["Anders",-10.076433662657205],["banden",-10.077900291084188],["voelde",-10.078420160921352],["Binnen",-10.078577301499825],["tevreden",-10.07905292898544],["elf",-10.079304928040578],["negatieve",-10.079678473744977],["Natuurlijk",-10.079731269226425],["woke",-10.080152709402409],["zetel",-10.080237437974148],["principe",-10.080309895323602],["café",-10.081959773655695],["mir",-10.083097120579577],["leerlingen",-10.083771430439228],["Londen",-10.084185348378831],["medische",-10.084840179288264],["mate",-10.08550540710337],["alternatie",-10.085728352490893],["God",-10.086073377507825],["bevestig",-10.086385036056903],["boot",-10.086400563211011],["wethouder",-10.08670798964554],["Joe",-10.086896511802749],["zieken",-10.089919009349412],["boos",-10.089967806829225],["stijl",-10.090776646260924],["privé",-10.09106700615498],["beperking",-10.091306651674502],["Euro",-10.091386979636038],["verkeers",-10.091592382343954],["elders",-10.09200296871143],["spanning",-10.092439047904854],["gedragen",-10.093524901348411],["afval",-10.095616944046341],["schaal",-10.095893674851503],["onduidelijk",-10.096147323096428],["vervoer",-10.09615706576502],["vakbond",-10.096882445953362],["zuiden",-10.09790954634683],["Rob",-10.098007407361322],["ring",-10.099102694754897],["zulk",-10.099512667948803],["redelijk",-10.099529561959791],["Bull",-10.100757901142044],["loog",-10.100963547327927],["Rijks",-10.101354497274183],["opgepakt",-10.101456011499284],["dijk",-10.101500955538043],["aangepast",-10.101579808266616],["verre",-10.101648631058161],["wit",-10.101764840192148],["lockdown",-10.102785438496788],["zolang",-10.10292101421465],["gebaseerd",-10.103125938713895],["Manch",-10.103702536131864],["Heel",-10.105187858040676],["vlag",-10.105262996633705],["woont",-10.107826881820262],["AD",-10.108824901291182],["voldoen",-10.10883558975003],["verlo",-10.110740899828158],["34",-10.111061354998238],["alcohol",-10.111244627501545],["gemeenschap",-10.111368473210042],["Westen",-10.112397749299458],["daling",-10.113543301947386],["Jumbo",-10.114992143333891],["play",-10.11507377216029],["vermoedelijk",-10.115246727655542],["Ministerie",-10.115300074925145],["vergelijk",-10.115421707253208],["gemakkelijk",-10.115724175663878],["Antwerpse",-10.116743025692642],["focus",-10.117086676643703],["vijftig",-10.117831629382717],["vrijwilligers",-10.118339270235431],["LM",-10.118379810991298],["oosten",-10.118389840291183],["fonds",-10.118504475242904],["legde",-10.118636007026046],["Holland",-10.118801792393835],["behoefte",-10.119155923447483],["verdwijnen",-10.120394956695336],["burg",-10.121434205173731],["slagen",-10.1216538646939],["Da",-10.12226354676931],["geland",-10.125237672329916],["groepen",-10.125350484864214],["account",-10.127021280256091],["coureur",-10.127024046106188],["materiaal",-10.127024058680467],["automatisch",-10.127052079759714],["Baudet",-10.127076247964384],["kilo",-10.127089485216823],["begrip",-10.127212562536794],["onderzocht",-10.128117645343217],["voorkeur",-10.128242453098471],["beschikk",-10.129203228343783],["thema",-10.12991204256192],["probeerd",-10.13015785399638],["verspreid",-10.131009069704348],["gepland",-10.131056433230825],["vaccinatie",-10.133180142901754],["geleid",-10.133621975436093],["respect",-10.134061577433833],["ijn",-10.134443013250209],["zakken",-10.135056928603149],["plaatsvind",-10.135850864496625],["kanker",-10.136241623098707],["gemeld",-10.136270752663112],["ic",-10.136393390100817],["VA",-10.136422985690793],["riep",-10.13717612691714],["sloeg",-10.137674361498833],["seks",-10.138339863626975],["out",-10.138482181523518],["Arnhem",-10.138734316252801],["€™",-10.13922462515432],["financieel",-10.139240789339304],["verhogen",-10.139251834164583],["York",-10.139256422985124],["Live",-10.1394254370051],["stukken",-10.139436061021993],["gevoerd",-10.141386066772922],["verkeerde",-10.141790971702871],["oudere",-10.142448628057245],["erd",-10.142768279001388],["ervaren",-10.143080746030378],["arm",-10.1448722262567],["bezit",-10.146426340316431],["Mol",-10.147662181783817],["gat",-10.147988780649627],["sprint",-10.149647076859384],["tellen",-10.15029123465995],["defensie",-10.151315073280806],["lachen",-10.151472005825738],["Hamil",-10.151580705681477],["écht",-10.151589586227477],["status",-10.151857872027957],["openbare",-10.152956655245402],["gezondheids",-10.153037387852894],["diesel",-10.15341680591879],["harde",-10.154178417007698],["telt",-10.154458026648712],["hersen",-10.155235694925345],["gepakt",-10.155483246847396],["meldde",-10.155899776523558],["starten",-10.156740899305436],["stichting",-10.156987306016706],["bond",-10.157214685928441],["plaatse",-10.15782779681805],["loze",-10.15785549407948],["manager",-10.160093991090534],["gedeeld",-10.160618157509813],["vloer",-10.161322172760002],["Dijk",-10.161823868858288],["bedoel",-10.162110092839132],["crypto",-10.162293955462182],["oor",-10.163582094689428],["armoede",-10.163827958970018],["officie",-10.164538246162937],["subsidie",-10.164742904206747],["huur",-10.165568614490159],["Mac",-10.166628920801305],["gezond",-10.166662552161986],["bedrijfs",-10.166930372696399],["Mag",-10.167134948988096],["publieke",-10.167159908560746],["laden",-10.168292748894117],["system",-10.168983549174513],["daalde",-10.169758169117358],["speel",-10.170703864623789],["verzet",-10.170713383622346],["gewicht",-10.17153000273133],["Ander",-10.172000473503633],["pakt",-10.172177988278627],["georganiseerd",-10.17408029505002],["gemeenteraad",-10.174160215337723],["snelle",-10.174241946509937],["Drie",-10.17430174312511],["duurzame",-10.17544819458825],["kleuren",-10.176180101930239],["argument",-10.17619236019779],["2000",-10.176426687989283],["gaten",-10.176536789934655],["kandidaat",-10.176723100020645],["strand",-10.176857592000587],["Tegen",-10.176901119083595],["oorzaak",-10.176947082336948],["vrede",-10.17723639007858],["coronacrisis",-10.177443641844267],["reizigers",-10.178490025507934],["Turki",-10.178768581386763],["blijf",-10.179217256765593],["iteit",-10.179897722242522],["ry",-10.180188329871594],["absolu",-10.18043997476438],["bepalen",-10.180800828651854],["onmogelijk",-10.181382141536272],["zul",-10.181511260864063],["richten",-10.182571914896178],["eenvoudig",-10.183345555268989],["Limburg",-10.184534456098397],["capaciteit",-10.185173329462486],["eentje",-10.186784089125652],["leiders",-10.18724450122845],["boodschap",-10.187862638191383],["stop",-10.187924033395841],["Frank",-10.188210126497694],["aanleiding",-10.188216993095656],["decennia",-10.188334917914165],["Nieuw",-10.189072505095004],["kust",-10.189085323801125],["piek",-10.189250602940124],["zonnepanelen",-10.189555852449455],["ontdekt",-10.189594718436293],["gezellig",-10.189828267312802],["Brugge",-10.19034981576644],["lui",-10.190565994115182],["zogenaamd",-10.191043949959276],["herinnering",-10.191521771354388],["snelweg",-10.19239471861983],["luxe",-10.193001835048918],["betaalt",-10.19487555469523],["ham",-10.194952330764487],["bronnen",-10.195113135783284],["Ha",-10.195533243283622],["buren",-10.195570293198195],["waarna",-10.195851367332434],["vrees",-10.195909385666416],["proef",-10.196181437868399],["NS",-10.19624005877932],["belangen",-10.196420223677295],["Re",-10.196545026863054],["overlast",-10.196585485279893],["Man",-10.196770580951775],["boord",-10.197759444811492],["Hug",-10.198354357453873],["werking",-10.198676533817622],["acteur",-10.19896648560185],["vo",-10.199796316878182],["Eerst",-10.20011496929273],["gevangen",-10.200144505395201],["eindigde",-10.20021692519054],["65",-10.201040853211904],["leraar",-10.20162760752018],["communicatie",-10.201893587798036],["CB",-10.201954416523177],["slaap",-10.202216683102405],["journalist",-10.202444821651822],["procedure",-10.202473556767643],["strategie",-10.202527082290148],["speciaal",-10.202530595915277],["Zelensky",-10.202534395498983],["United",-10.202591828066366],["second",-10.202618441629388],["aanzienlijk",-10.202680094401394],["ontstond",-10.203193133008202],["Via",-10.203886229991177],["ige",-10.204515563045074],["Huis",-10.204596695412278],["bedacht",-10.20587511863302],["99",-10.206672300095924],["Go",-10.207200045480842],["Zie",-10.20756282757623],["Bo",-10.208015635700654],["brood",-10.209062128283787],["complex",-10.209384114298913],["culture",-10.213634254892844],["probeerde",-10.213809764643464],["Ma",-10.214394922965091],["wakker",-10.21465477193965],["verkeerd",-10.214675798785425],["Champions",-10.215688617091544],["schoot",-10.215701577591911],["Michael",-10.215706727704564],["ontzettend",-10.21571911494683],["eemt",-10.215816947712584],["Johnson",-10.215832727991177],["coronavirus",-10.2161783625106],["goal",-10.216573294876309],["factor",-10.216577635568989],["uitgebreid",-10.217026353143716],["redden",-10.217331388671475],["geboden",-10.21780898877467],["films",-10.21781716997241],["Premi",-10.218315084617775],["supporters",-10.218485817911745],["veranderd",-10.218770100043802],["Gelderland",-10.219326030382296],["ambitie",-10.21941271989753],["Weet",-10.219713250299666],["gestart",-10.220892735633186],["teams",-10.221676430608431],["ingen",-10.221788530391887],["velen",-10.222008564500964],["ontwikkelen",-10.223065202793059],["wiel",-10.223511446251852],["knop",-10.223636562706123],["achtste",-10.224720565086137],["front",-10.224744684683783],["richt",-10.22522320753032],["oorlogs",-10.225445414580278],["600",-10.226022774730307],["Japan",-10.226152689773269],["parlement",-10.226519599923265],["match",-10.226815143171978],["onderhandeling",-10.227084907313124],["Amerikan",-10.228385568388445],["kiest",-10.22860328223287],["wereldkampioen",-10.228703971526546],["*",-10.229021814162014],["iPad",-10.229097365586856],["uiter",-10.229738037636864],["achterstand",-10.230710631041495],["twijfeld",-10.231062309341818],["ontwerp",-10.231291417978028],["Vervolg",-10.231506140017727],["plastic",-10.231613320262984],["benzine",-10.232335845612443],["benadrukt",-10.232386377697207],["stijg",-10.232602352809813],["AZ",-10.233641555779753],["analyse",-10.233730590370634],["ernstige",-10.23418609543021],["66",-10.23480517738211],["droeg",-10.235538104679394],["koningin",-10.236448908332886],["stof",-10.237403321857954],["planten",-10.237712306227674],["bar",-10.238360265986127],["misbruik",-10.238648030415845],["geb",-10.240198470864868],["reageer",-10.24022472998129],["werkgever",-10.240435999770222],["nië",-10.241325729781552],["talent",-10.241673288107481],["Nieuwe",-10.241718058395474],["BS",-10.242344633492067],["chauffeur",-10.24244862827489],["Zweden",-10.242538147073455],["Vroeger",-10.242586538443827],["slaat",-10.243073691177997],["categorie",-10.243253004001039],["honden",-10.244348795425323],["Zorg",-10.244531032601076],["normale",-10.24512988743468],["detail",-10.24518176359345],["vermoord",-10.245284089707672],["dichter",-10.245959156240694],["verdient",-10.246033604789085],["storm",-10.24607333056126],["F1",-10.246277631354577],["landbouw",-10.246337047097446],["ca",-10.247626240359223],["39",-10.247823313642783],["Jonge",-10.249470239683664],["and",-10.251569814481527],["verbinding",-10.252417560450446],["keuken",-10.252459382948715],["Centra",-10.25290309772404],["recente",-10.252931721621502],["noord",-10.25363185474989],["Welke",-10.254615275452156],["glas",-10.255186546985534],["collectie",-10.255495442217878],["juridisch",-10.256236114069338],["creër",-10.256236961579667],["realiteit",-10.25625232305618],["beneden",-10.256335803751409],["uitzending",-10.256422484641238],["initiatief",-10.25646012311881],["Tegelijk",-10.256535010397773],["Henk",-10.256584030017784],["Iet",-10.256687504064164],["neus",-10.256772414863072],["justitie",-10.257064662013814],["voetballer",-10.257254970677035],["gevaarlijk",-10.257849248231153],["NA",-10.258020328001928],["opgelost",-10.258136170112621],["sporen",-10.258301856116345],["mini",-10.258415878759795],["verbonden",-10.259270375173722],["pot",-10.259590843504586],["onafhankelijk",-10.26024021556691],["rijke",-10.260399929094978],["Charles",-10.261138198432178],["Hun",-10.261576953482496],["wint",-10.261838932109073],["ley",-10.262616374736847],["onderzoeken",-10.262884120284351],["geroep",-10.263551593538594],["federal",-10.264724287886319],["elft",-10.265498214300473],["II",-10.266501667764013],["rand",-10.266820415539483],["rechten",-10.267010248206763],["paard",-10.26727002296132],["rakette",-10.267556137644196],["Eind",-10.268376605975426],["pleit",-10.268741501235677],["drama",-10.268794232623991],["Goed",-10.268838657234351],["Aert",-10.26955129653249],["geboorte",-10.26971092585162],["agina",-10.269728572535817],["geregeld",-10.269864084269415],["Vitesse",-10.270122867326076],["aardig",-10.270139535701238],["Team",-10.270197932867127],["clubs",-10.270385877411748],["zaal",-10.270449720145328],["42",-10.270507658052717],["Robert",-10.271346748605698],["kader",-10.271967557217405],["chef",-10.274189596173382],["beslist",-10.274199008011035],["reken",-10.274700420348001],["teken",-10.274740242798217],["reclame",-10.275225518174551],["Belg",-10.276007231162346],["produceren",-10.276569120457244],["Ali",-10.277166154529834],["maatregel",-10.277325934687553],["hal",-10.278173527076461],["stads",-10.278605111756654],["bellen",-10.278970712943822],["off",-10.2792571505647],["avonds",-10.279632207200986],["vic",-10.280213574951322],["gaven",-10.281346652265324],["lossen",-10.281677871370352],["sterren",-10.28323961711228],["jury",-10.284058882257959],["keihard",-10.284207762277495],["opmerking",-10.284238330194285],["Thomas",-10.284241960933663],["ambulance",-10.284243890504182],["daarop",-10.284300672239965],["fors",-10.28445943034594],["Apel",-10.284545787892213],["lkens",-10.284555640661498],["kijker",-10.284563598053007],["gast",-10.284796531453726],["gelegen",-10.285904349742054],["makkelijker",-10.287006164610874],["veertig",-10.287306381015274],["volks",-10.287764830803551],["slim",-10.28892804353779],["vreemd",-10.289119450443152],["doelman",-10.290826285856554],["overschrijdend",-10.291510213808913],["Bos",-10.29170214180213],["inzicht",-10.29178073165868],["GS",-10.292975316936495],["sociaal",-10.293794506844153],["leverde",-10.293881482352973],["huwelijk",-10.296130216291008],["machine",-10.296512013605888],["?’",-10.297541868230804],["weiger",-10.297939428783295],["gezamenlijk",-10.298493102716694],["Universiteit",-10.298495582801085],["GroenLinks",-10.298503452798382],["vangen",-10.298572264931273],["smartphone",-10.298624226686004],["Nijmegen",-10.298936037241575],["Gaa",-10.299081882382756],["hoorde",-10.299252052684164],["aanvaller",-10.299333673537223],["technisch",-10.299373828646825],["zoekt",-10.299502837494245],["zanger",-10.299848655745508],["verdediger",-10.3005466843681],["verwijder",-10.3012707353878],["apparaten",-10.301293488688763],["nazi",-10.301383850164132],["raads",-10.30193549670157],["Kinder",-10.302010355523697],["blad",-10.302403272271306],["zocht",-10.302994521970923],["Zonder",-10.303098336248084],["Gewo",-10.303802177930184],["198",-10.303899453108489],["lijden",-10.30660823388797],["term",-10.3078123462725],["traject",-10.308347666876287],["welk",-10.308810215482769],["stoffen",-10.309678765069998],["arts",-10.310221418781875],["kleiner",-10.31039630019633],["EV",-10.311263018785354],["gele",-10.31220305845692],["verzekering",-10.312484054451255],["bevind",-10.312883545578373],["à",-10.312985821652557],["dronken",-10.313636242958484],["straten",-10.314133073299908],["plus",-10.316270857202483],["recent",-10.316362455117012],["heren",-10.318913868417713],["verdrag",-10.320200634700646],["feestje",-10.322620647130394],["uitzondering",-10.322728712621053],["behouden",-10.323557546207095],["klasse",-10.32404090706158],["ontslag",-10.32408738699152],["du",-10.324257451122014],["chip",-10.324848399859292],["betaling",-10.325028018088311],["ur",-10.325205237440851],["SP",-10.32537876324372],["Australië",-10.325479769444723],["250",-10.325825109588544],["vullen",-10.326314954740806],["interesse",-10.326358033621855],["gevuld",-10.326601431866923],["technische",-10.326788225403176],["Jo",-10.326969265086115],["etappe",-10.327630179387043],["temperatu",-10.32765237619817],["transport",-10.327664249396891],["vertraging",-10.327691846546355],["Porsche",-10.327694316497979],["46",-10.327915985261882],["muur",-10.328636213762074],["ck",-10.328907139587926],["inkomen",-10.3290906911066],["ramp",-10.329103024295733],["durf",-10.32915189235754],["specialist",-10.32932338588573],["stress",-10.329407360129318],["Y",-10.329689713022105],["exact",-10.329875285361108],["blik",-10.330587440555169],["toestand",-10.33077586311964],["drukken",-10.331002794086945],["pakte",-10.331047148112678],["Grand",-10.333867433185134],["netto",-10.334318814454676],["Mar",-10.334469940622299],["mars",-10.334604211513996],["radio",-10.335076629638824],["boodschappen",-10.335800298041852],["gedachte",-10.335920479214838],["it",-10.336823862510244],["versch",-10.338334766992709],["AM",-10.339836502619661],["fraude",-10.339991638952995],["overtuigd",-10.341045422627941],["car",-10.342209878448795],["Netflix",-10.342619759365533],["olympisch",-10.342662354334845],["fantastisch",-10.342671326106833],["Alexander",-10.34269307160234],["sneeuw",-10.342767969551872],["Gaal",-10.342985837326614],["theater",-10.343165337288458],["fietser",-10.343748674181581],["trap",-10.344214933934277],["Energie",-10.344594224422886],["stopt",-10.344990597146992],["grondstoffen",-10.345222897822833],["onzin",-10.345352490097792],["instellingen",-10.345438313718198],["ermee",-10.346320447379362],["Hans",-10.346441940398229],["opties",-10.346609496984197],["breed",-10.346610086207034],["kraan",-10.34789009275667],["harder",-10.349931499116297],["gestopt",-10.35016283457728],["verdeeld",-10.350517374338326],["Fin",-10.350532852532723],["onderhoud",-10.351535934793642],["gasten",-10.35433714011653],["dubbele",-10.354374308168426],["ondersteuning",-10.35482989469471],["keten",-10.356094768561398],["schuldig",-10.35621080641896],["comment",-10.356525218679442],["tallen",-10.357012477566293],["lief",-10.357192947880073],["organiseren",-10.357769994074442],["Iran",-10.357773108967779],["Morgen",-10.357905132873764],["Mocht",-10.357917973064918],["Word",-10.358197517994666],["verander",-10.358265379379333],["schakel",-10.358753664113326],["verbetering",-10.359675266533221],["France",-10.3598346578833],["verbied",-10.360606073727345],["beloof",-10.360820219300727],["stoel",-10.362301988491916],["opvolger",-10.363108491891088],["link",-10.363397255400049],["lening",-10.363505473046484],["National",-10.363520337631517],["IS",-10.364837861831356],["vlieg",-10.366383746714877],["rem",-10.367263792681793],["bevestigd",-10.367645134009665],["stevig",-10.368276532652892],["geving",-10.370260373830359],["meisjes",-10.370843672666865],["treffer",-10.371436200074212],["ling",-10.371480493940421],["za",-10.372178209755429],["schatting",-10.372644246985182],["aak",-10.37300623231965],["schijn",-10.373206941628926],["urven",-10.373320894050329],["Kerk",-10.373858475537101],["controleren",-10.374168754947743],["trui",-10.374224432166022],["Hoog",-10.374566095530271],["vis",-10.374575313549965],["moslim",-10.375677724228659],["allen",-10.375715942923822],["inch",-10.375883371519148],["dubbel",-10.376279278739066],["seksueel",-10.376282579310653],["waarheid",-10.378615220375666],["korting",-10.37912883695238],["43",-10.379404294388637],["onderdelen",-10.379536073413197],["drijven",-10.380021671122996],["stra",-10.380188628148355],["beker",-10.381164255827887],["Hoge",-10.38179154548234],["verrassend",-10.382225171917879],["voer",-10.382229399693422],["stak",-10.382366933246939],["overheids",-10.382959752050233],["Wout",-10.38305683972686],["aanpassen",-10.383584914910035],["il",-10.38369734873805],["Engels",-10.38388607970888],["elijk",-10.38390556068951],["journalisten",-10.38465746876647],["bedreiging",-10.384676920530936],["export",-10.386561734030789],["197",-10.386727588021872],["luisteren",-10.38684993927551],["goedkoop",-10.387048178206914],["VN",-10.387196109079186],["Kun",-10.38861137889174],["voorzichtig",-10.388611572302906],["privacy",-10.388778442564272],["William",-10.38878528786459],["seconde",-10.388958931108776],["Mogelijk",-10.389370499044631],["trek",-10.389799580276684],["line",-10.390587290157953],["toestel",-10.390697583306107],["werkgevers",-10.391268744293486],["Enkele",-10.392695208076988],["rijbewij",-10.39277866470421],["kondigde",-10.392929299402388],["missie",-10.393063977425012],["geopend",-10.393521064713262],["matige",-10.394260470861475],["box",-10.395877418268597],["beland",-10.396206769881733],["inval",-10.397728427262905],["Rode",-10.398070930431356],["file",-10.398345195036525],["knie",-10.398496071606843],["dreig",-10.39855347937339],["onbekende",-10.398749849112242],["erbij",-10.400017884409314],["vergoeding",-10.400396161701831],["Engelse",-10.401528060717826],["48",-10.402001298418107],["bewolkt",-10.40229675833252],["schappen",-10.402425707069067],["fan",-10.402740518259801],["Sovjet",-10.402812143198306],["invester",-10.404062368515072],["agenda",-10.404350913358314],["album",-10.40464114212067],["»",-10.404651223548973],["langzaam",-10.404788721519362],["44",-10.404852658741074],["concurrentie",-10.404862161405422],["Olympisch",-10.405239774266656],["braak",-10.405699851718499],["Amsterdamse",-10.405898712353427],["Andr",-10.406526960012538],["kandidaten",-10.40695187675302],["ontmoet",-10.407461780497929],["openings",-10.410022343595877],["spannend",-10.410231762481413],["levering",-10.410488366973038],["schoenen",-10.410702493883019],["staten",-10.411121069324626],["Canad",-10.411867714423817],["gevecht",-10.413458146042666],["laatst",-10.413468729786203],["warme",-10.414312136162717],["GP",-10.415090139646974],["advocaten",-10.415549318966473],["onzeker",-10.415910319367114],["helder",-10.415964419503375],["igenlijk",-10.41645179703831],["lagen",-10.417145113678291],["Si",-10.417852080765467],["ontmoeting",-10.41811240515033],["gevolgd",-10.41931356252729],["verminder",-10.419569712528393],["onderneming",-10.420047750957535],["betekenen",-10.420252450793793],["mist",-10.420270189174673],["57",-10.420452126165468],["kast",-10.420528657834623],["slimme",-10.420640096443092],["interieur",-10.420780270578762],["vergadering",-10.420802319283306],["wetenschappelijk",-10.420850540519568],["bizar",-10.420935649797995],["koopkracht",-10.420960278582525],["Poel",-10.421413327378163],["ney",-10.421758823331455],["verzamel",-10.421760283316395],["ontwikkeld",-10.422373290868322],["veertien",-10.422437119692898],["geest",-10.422678379904912],["verdw",-10.422755707352444],["Louis",-10.422986130867184],["voorwaarde",-10.422997287650022],["overlijden",-10.42351344193902],["fouten",-10.425506961523649],["mobiele",-10.425509149913161],["Cup",-10.425555712401724],["weder",-10.425747076746646],["ag",-10.425852600155213],["ware",-10.426008673551177],["brak",-10.427311567511198],["missen",-10.42733322960016],["design",-10.42756070886632],["Men",-10.428378242247549],["werkzaamhe",-10.429177950428622],["goederen",-10.430362322877336],["toekomstig",-10.430707953745387],["Martin",-10.43137822703705],["visie",-10.431601345298926],["ba",-10.43180581330735],["Noor",-10.431933538843076],["eek",-10.432018095539203],["oppositie",-10.432460690430755],["kocht",-10.433711045072648],["CD",-10.434079045354132],["uitsprak",-10.434196433165006],["Antwerp",-10.434344665010236],["tachtig",-10.434790081200056],["95",-10.434839087681473],["overname",-10.435559195758104],["pop",-10.435637828195176],["agressie",-10.436610682735589],["cliënt",-10.437180323406682],["restaurant",-10.437190198296467],["ontwikkelaar",-10.43720181026531],["Begin",-10.437234050536919],["Vladi",-10.437303039152857],["bestuurders",-10.437572724384665],["abortus",-10.437699261435473],["kaarten",-10.437717036411389],["Vrijdag",-10.437722056051163],["maker",-10.43772990880036],["verhouding",-10.437903563515],["tegenstelling",-10.438984241073427],["zus",-10.439520632117993],["blaze",-10.439608690686153],["fysiek",-10.44035627208012],["oefening",-10.44076925529218],["topman",-10.441040745070996],["realis",-10.441174738773391],["Post",-10.44155778960522],["ruil",-10.441873829375265],["ellende",-10.442149479117823],["arcelo",-10.44329111801563],["International",-10.443685946948026],["bedenk",-10.443743620860918],["vermoed",-10.443939591670745],["air",-10.444087893177965],["theorie",-10.445558737854459],["ski",-10.44623838157236],["raak",-10.44628280566739],["BB",-10.446470966879817],["Andere",-10.447887851165492],["houding",-10.448651314182731],["plaat",-10.449053813168833],["accu",-10.450292845244586],["advertentie",-10.450536483571213],["premie",-10.452730790166036],["bergen",-10.453010278322612],["voorbereiding",-10.453198114949949],["graven",-10.453653413299445],["Leclerc",-10.453847624099026],["vinger",-10.453913476326932],["negatief",-10.453923678210513],["rendement",-10.453933519126348],["bijeenkomst",-10.4539843668878],["kwartfinale",-10.45409988145883],["Maak",-10.454335119894962],["Brabant",-10.454335316627017],["Wit",-10.454473934154251],["klagen",-10.454981984877904],["Herman",-10.455099752204237],["haat",-10.45512263850986],["aankoop",-10.455215491288175],["huid",-10.455238935392952],["kanaal",-10.455815898325291],["degelijk",-10.45638745906444],["nederla",-10.456847506498233],["melk",-10.45695708174787],["Vier",-10.457254601221809],["David",-10.457541449657997],["stevige",-10.458211847434642],["bloemen",-10.4594271772229],["evenement",-10.459492603601637],["RS",-10.459584091287157],["uitvoeren",-10.45969276379883],["Ka",-10.459741005161005],["Turks",-10.460059017497816],["minst",-10.461172675840764],["schiet",-10.461174405651562],["Rome",-10.46359331893445],["Duitser",-10.463994406729796],["miljarden",-10.464695187416115],["houd",-10.465986584003339],["vrouwelijk",-10.466875928295817],["reageerde",-10.469326056443162],["aanbied",-10.469372426004224],["traditionele",-10.469529111334854],["podcast",-10.470179445220444],["zwakke",-10.470282019111139],["presentator",-10.470315753661218],["besparen",-10.470360338783305],["automobilist",-10.470801180504186],["Wilders",-10.471319189010922],["stal",-10.471639743184493],["wijken",-10.47196527454334],["Weer",-10.4721372808438],["Hebben",-10.4726910631673],["ambtenaren",-10.473507035947396],["lichte",-10.474799424261949],["adres",-10.474894352901],["leg",-10.475568122590982],["dient",-10.47566909763854],["bel",-10.475732572689495],["Let",-10.47698993726245],["merkt",-10.477503850109322],["scherp",-10.477814303883687],["homo",-10.47815412486651],["ministers",-10.479092496941941],["luid",-10.479269537522686],["41",-10.480880215485563],["verdedigen",-10.481169813363158],["streep",-10.481377332046419],["overeenkomst",-10.482234021071312],["toeslagen",-10.482788547382452],["India",-10.484319371109343],["lo",-10.484472822701367],["ontvang",-10.484480751326355],["belangrijker",-10.484511301181627],["1000",-10.48528142138527],["explosie",-10.485571669338114],["Dam",-10.485987595921117],["vet",-10.486562650078351],["blok",-10.486911540486066],["rook",-10.487165546337266],["zins",-10.487326379998382],["profit",-10.487723532709001],["omroep",-10.487772581998497],["Jette",-10.487942663342707],["anoniem",-10.488030941265983],["haupt",-10.48803205354546],["regime",-10.488033998177599],["Ronald",-10.488045251123978],["Harry",-10.488066426991278],["toegevoegd",-10.488177657759493],["succesvol",-10.488490432698367],["motie",-10.488558467370844],["noodzakelijk",-10.489000208144741],["plots",-10.489415446833164],["achttien",-10.490171274919302],["zestien",-10.490222308888905],["prik",-10.490609150277372],["San",-10.490846807770922],["nummers",-10.491680514952474],["Mooi",-10.491909793141751],["port",-10.492160983264382],["St",-10.492646323722589],["staatssecretaris",-10.49291531399688],["batterij",-10.494964629093783],["Land",-10.495357938565537],["aardgas",-10.496119337558328],["adem",-10.497800701006241],["behandeld",-10.497828416836903],["gezinne",-10.497993860491455],["draag",-10.498552853381522],["kleinere",-10.498774766069761],["opgelegd",-10.498854827874531],["Israël",-10.50136997869072],["verhoging",-10.504769208484426],["banen",-10.50483977157268],["raket",-10.504982147538826],["po",-10.505121756003264],["getuigen",-10.505206050255195],["Krim",-10.505404720912178],["Achter",-10.505415453103161],["verjaardag",-10.50554677308623],["kennelijk",-10.505580149875119],["garantie",-10.505615807406102],["traditie",-10.50564770268819],["beperken",-10.505670154833174],["transitie",-10.505896448634278],["Angel",-10.506249922568829],["Fi",-10.50657334454873],["Justitie",-10.506875742124354],["nul",-10.506890887234668],["wa",-10.507157386984822],["geleerd",-10.507538326182392],["adviseur",-10.507991991641306],["Wal",-10.5082890813081],["Pools",-10.509645588561785],["49",-10.509664387416345],["vergele",-10.511926170108497],["internationa",-10.512022961232212],["taak",-10.512151334194218],["moois",-10.512273776797247],["toren",-10.512278587318141],["geel",-10.51274463982412],["Li",-10.513400806306436],["las",-10.513800524276363],["IT",-10.514641285561762],["gok",-10.51532740633207],["leert",-10.515390974313739],["apparaat",-10.516466881330281],["eieren",-10.516741436382674],["schat",-10.518680726568437],["Rijk",-10.51869718352036],["800",-10.518855816861567],["documenten",-10.519728492868866],["Qua",-10.522025313617537],["plicht",-10.52270826322805],["kabel",-10.522984535833611],["schilder",-10.523265005894842],["prioriteit",-10.523432000907892],["World",-10.52343204540076],["persconferentie",-10.52346002837473],["propaganda",-10.52356054452759],["Macron",-10.523584092424535],["Shell",-10.523648308248182],["rpool",-10.52380944552898],["hybride",-10.523860843936],["Michel",-10.524024133240767],["Boris",-10.52409319860449],["ouderen",-10.524235986375128],["bod",-10.524402860182327],["zitting",-10.524696454720381],["Vrij",-10.524946049675455],["trend",-10.525598703040297],["vermoeden",-10.525807643282995],["geheim",-10.525884955367689],["eert",-10.526050518433397],["Ach",-10.526059800272883],["96",-10.526165054475683],["dames",-10.526634919077674],["Audi",-10.527209870711506],["Maas",-10.52753735285895],["makers",-10.52762536046626],["Hongar",-10.527876989165371],["bereik",-10.527906343284393],["tech",-10.527916048641943],["raam",-10.52837817653111],["Mo",-10.529345744109337],["Uiter",-10.52972880829968],["handels",-10.531298923286815],["uitkomst",-10.531490658780356],["drone",-10.531508613107455],["52",-10.531701677252801],["vervolg",-10.531869301392582],["beheer",-10.531906406158566],["Car",-10.532068713767154],["alternatieve",-10.532624173498213],["opslag",-10.532666015113389],["vogels",-10.533489901498134],["toon",-10.534193345533406],["verblijf",-10.534446952491804],["Oh",-10.534938885496533],["klok",-10.535154531593808],["scoorde",-10.536228576421934],["borst",-10.536607062355522],["moderne",-10.536893859178893],["lot",-10.537280453972826],["Anne",-10.537337019068598],["schrik",-10.537807716139607],["springen",-10.537818357981987],["fysieke",-10.538092667297349],["ot",-10.539592832918743],["serieuze",-10.54045414003048],["demonstratie",-10.54161372727036],["nucleair",-10.541613953554709],["verlaging",-10.54161621000226],["paniek",-10.54163277102192],["Jammer",-10.541647273976157],["oranje",-10.541647335318057],["vóór",-10.541649504523221],["personeelstekort",-10.541663553531196],["balans",-10.541683232292169],["actrice",-10.541688000902546],["fruit",-10.541702426025886],["persbureau",-10.541779460525149],["effectief",-10.54178421527048],["luchtvaart",-10.54184893826218],["verwonding",-10.541949767786662],["zangeres",-10.542019885926091],["toenmalig",-10.542261527117269],["toevallig",-10.54363743284499],["computer",-10.543660878973766],["ondernemer",-10.543909421051765],["85",-10.543988777480596],["kwalificatie",-10.54438141225846],["zestig",-10.545897692824473],["zingen",-10.546770109553616],["Politie",-10.546868118877743],["najaar",-10.546999337434801],["vocht",-10.549213476905031],["Brit",-10.551032048908226],["opening",-10.552379073355425],["aankomen",-10.552400044043063],["rollen",-10.55253140300294],["Geef",-10.552564440034292],["plat",-10.552850722951627],["salaris",-10.553180670193445],["nauw",-10.553216718922513],["waarschuw",-10.554452737351648],["Lees",-10.55448914411204],["schouder",-10.554716248994968],["Wi",-10.555821875015251],["voert",-10.55631944161762],["sterker",-10.557364068104684],["gesto",-10.557509204537988],["officier",-10.558309206172183],["gestemd",-10.558395671249343],["gan",-10.558672841007905],["tische",-10.559052116336645],["beur",-10.559067864959509],["zilver",-10.55930634355708],["liefhebber",-10.55937646538662],["kwetsbaar",-10.559809471380175],["laan",-10.559967347048435],["ment",-10.560005973546842],["concern",-10.560088693160301],["oren",-10.560101739965411],["Groninger",-10.560132340443774],["Eredivisie",-10.56013782550259],["Radio",-10.560225071736069],["afkomstig",-10.5602580002304],["Bosch",-10.560291363547709],["algemene",-10.560690728375594],["Gold",-10.560792495525781],["verloop",-10.562117916197066],["medaille",-10.562168157721501],["elektriciteit",-10.562751800087224],["grappig",-10.56310331938269],["getekend",-10.56352651046179],["ies",-10.563648622654123],["volwassen",-10.563996984923442],["ekt",-10.564542265429699],["zand",-10.564895841596261],["verteld",-10.566339774874063],["kies",-10.566346681896928],["kring",-10.566512980648465],["MI",-10.566532045502838],["commerci",-10.566647070341475],["lecht",-10.567120267394163],["Marokk",-10.567627043062505],["klappen",-10.568073257026443],["specifiek",-10.568413612151689],["stelsel",-10.568808311631637],["pan",-10.569547348564829],["gouden",-10.569909103764735],["puur",-10.569922706265098],["CE",-10.571469359580112],["oplopen",-10.57165815640588],["kwaad",-10.571729986360808],["geslaagd",-10.572554156559953],["stromen",-10.573617998380566],["son",-10.573916439936092],["terugkeer",-10.574174943720845],["veilige",-10.574742136856898],["dode",-10.57512390978226],["abonnement",-10.57528462255901],["verwijderd",-10.57534966451388],["onderzoeks",-10.575400329839978],["institu",-10.575597444255287],["jacht",-10.575994230958756],["kloppen",-10.576440033911759],["verantwoord",-10.577330515665604],["roep",-10.577389299115946],["haal",-10.577470000356183],["correct",-10.578566465715731],["lul",-10.578851255220147],["Donald",-10.578996626361253],["Portugal",-10.579000161119595],["slavernij",-10.579000161287738],["Covid",-10.57900050479471],["perspectie",-10.579001858758561],["Maandag",-10.579047536552384],["Lijk",-10.579093405830031],["oorspronkelijk",-10.579125832786346],["infrastructuur",-10.579294305365897],["Bol",-10.579332123482942],["Albert",-10.579684647482836],["veroorzake",-10.579722927570236],["gigantisch",-10.57999461684024],["gegooid",-10.580385220622357],["beveiliging",-10.580854300556737],["circuit",-10.581882278227145],["wensen",-10.582025108110136],["ballen",-10.582159306091498],["73",-10.58372483191908],["Mario",-10.583761461327127],["Patric",-10.584074997373722],["zonne",-10.585010329213205],["vijfde",-10.585277410298836],["Mechel",-10.585619629872756],["matig",-10.586183520435926],["scheiden",-10.586363032363954],["munt",-10.586788659243208],["vervelend",-10.586979178406272],["scoren",-10.58771094173568],["getoond",-10.588085930616504],["varen",-10.588435010916616],["specifieke",-10.589699981040916],["So",-10.589766621504925],["lokaa",-10.590175812696568],["gedaald",-10.590644502473648],["nep",-10.59069315653651],["aanloop",-10.591581656403756],["verstandig",-10.591848870923407],["Ruim",-10.591973234276228],["kampioenschap",-10.592112659519838],["dienen",-10.592306692737242],["voorstelling",-10.592324420223653],["overwegen",-10.594255165927201],["kut",-10.594816255999843],["democratisch",-10.595268333819517],["dividend",-10.596713574643907],["voeg",-10.596948767229218],["prins",-10.597197182500661],["Tim",-10.597417664744684],["verluid",-10.597639554638965],["koud",-10.597771607233334],["alarm",-10.598155713245383],["wijziging",-10.598198349907445],["recessie",-10.598231483678601],["54",-10.598261669465312],["individuele",-10.598271280526571],["hè",-10.598326794054428],["schilderij",-10.598350761606603],["ify",-10.598363797156747],["Kremlin",-10.598408471401878],["Fortu",-10.59842677567286],["gearresteerd",-10.598511672811586],["long",-10.5986236541267],["gevaarlijke",-10.598733895045362],["verklaarde",-10.598747627510193],["job",-10.59885940028319],["bespro",-10.59945507399103],["Tussen",-10.599797640402098],["RIV",-10.599822271341084],["overzicht",-10.599947857273525],["plekke",-10.600280781565523],["pauze",-10.600550027105879],["directe",-10.600807104418514],["58",-10.600871420981939],["percentage",-10.600978655895211],["Jeroen",-10.601914642683644],["gebeurtenis",-10.601989621825336],["Staat",-10.602010738628417],["kampen",-10.60208453737308],["keuzes",-10.602255818610223],["Ne",-10.602607195944152],["gelukt",-10.602826634514136],["zwaarder",-10.602933257763858],["eigenaren",-10.603242139368874],["toenemen",-10.603285653058958],["wees",-10.604333703478403],["Tja",-10.604756498898293],["plafond",-10.605106363252357],["drong",-10.606113168769951],["opgezet",-10.607916587898991],["Belgen",-10.60842487954012],["aantrekkelijk",-10.608538642352844],["extreme",-10.608745061388682],["time",-10.608776363713373],["getest",-10.6092349857688],["raar",-10.609522742298983],["dure",-10.60979186217414],["Rus",-10.610381558143127],["Hag",-10.610641117675089],["gevoelig",-10.61074908391192],["sluiting",-10.611843800883259],["ly",-10.612854877400911],["oplossen",-10.612892521843037],["score",-10.61328768535562],["overleven",-10.61375380938188],["NV",-10.61486774377897],["aanwijzing",-10.614988937859756],["doelpunt",-10.615622856139458],["mensenrechten",-10.616388315472285],["waarschuwing",-10.616749334062245],["netjes",-10.616915446511042],["afspra",-10.617245153456057],["˜",-10.617838773048566],["medicijn",-10.617842541540497],["über",-10.617843239378663],["kwetsbare",-10.617844092920176],["zwembad",-10.617862510836051],["Financië",-10.617877955116219],["Breda",-10.617902264745577],["Waarschijnlijk",-10.617914844048457],["check",-10.617936560153144],["diefstal",-10.61794465416129],["typisch",-10.618046368545688],["arbeidsmarkt",-10.618058840109512],["rechtstreeks",-10.61822766271447],["toezicht",-10.618261581339475],["Jij",-10.618346124552145],["kende",-10.618419648139017],["Ra",-10.618514383215185],["biliteit",-10.619169922228533],["gerecht",-10.62002699384758],["grid",-10.620673285754869],["vrijdagavond",-10.62073775970356],["uitslag",-10.6214380892333],["Witte",-10.62175341711555],["hoogst",-10.621832974784798],["GT",-10.62189606730738],["Japans",-10.622126323802677],["stier",-10.62264366631635],["bestand",-10.622884876054126],["ingediend",-10.623179086750115],["seksuele",-10.623620069420577],["afspraak",-10.623730986044563],["Kuiper",-10.625138663431802],["Markt",-10.625310515065634],["doelen",-10.625455565004176],["verrassing",-10.625968833976945],["igheid",-10.626256859191832],["voeten",-10.626521176112497],["bezorgd",-10.627091594193399],["gebouwen",-10.62721025872482],["rot",-10.628296786052355],["brede",-10.628819488478026],["afgerond",-10.631093505231057],["ING",-10.631137928301019],["Djoko",-10.632390940342697],["jongst",-10.632469535897638],["hitte",-10.633084175274405],["leer",-10.63330179986414],["ruzie",-10.634813421763118],["winning",-10.634887272490275],["steunen",-10.635017682792068],["claim",-10.635271218293715],["haast",-10.635699949318226],["management",-10.636803761298996],["branche",-10.63713201448035],["favoriete",-10.637486141655218],["portemonnee",-10.637838773052497],["beïnvloed",-10.637838773053234],["Elizabeth",-10.63783877360808],["Barneveld",-10.637839952548319],["lidmaatschap",-10.637842404009902],["toepassing",-10.637861088621458],["opbrengst",-10.637880347470613],["wolf",-10.637915321279538],["kerncentrale",-10.637979279120144],["racisme",-10.638022613274044],["Corona",-10.63806472592401],["Leuk",-10.638209084993386],["bek",-10.638244313780678],["verlichting",-10.638451368555733],["nemark",-10.638651601841616],["herstellen",-10.638671931310995],["schietpartij",-10.638710384200895],["degene",-10.639307200773846],["vastgesteld",-10.639958815386537],["emotione",-10.640168187819267],["deelt",-10.64035512706664],["Do",-10.640384712526085],["moeilijke",-10.6405055621295],["drukte",-10.640538380952671],["schrijver",-10.641190341345093],["branden",-10.641275138114551],["doelstelling",-10.641539233133592],["gevestigd",-10.641560005436954],["knal",-10.64186112153789],["Zwitser",-10.642017545816467],["onderweg",-10.642198734610446],["toeristen",-10.642318912445402],["gedrukt",-10.644353986813815],["gerust",-10.645664206968581],["handelen",-10.645973207322015],["mans",-10.64600776924598],["allebe",-10.64630415015689],["droog",-10.64651115878241],["dam",-10.646682048600738],["anse",-10.648240747859036],["lijke",-10.648407757131691],["gehol",-10.64847254282142],["stuurde",-10.648848247323226],["lieden",-10.64901104787005],["groeit",-10.649028536394656],["overstap",-10.649421603928914],["FA",-10.650378160424282],["53",-10.650414633788715],["uiterst",-10.650654571233037],["hypotheek",-10.650903777377195],["dreigen",-10.651257786143761],["ipv",-10.652194907698158],["Erik",-10.652676538425634],["woonde",-10.653276517573772],["Real",-10.653348458962412],["ique",-10.65359703276933],["bad",-10.653738114646908],["wend",-10.654904518794885],["blijkbaa",-10.654958092857893],["onafhankelijke",-10.656912565611481],["reageerd",-10.657017365171303],["Jans",-10.657407542036074],["ID",-10.657506760393836],["droge",-10.657879703655157],["hé",-10.657891178031141],["concurrent",-10.657977788150422],["kwartier",-10.657994524176436],["Surinaams",-10.658247076530339],["Sticht",-10.65825127699587],["Vries",-10.658265267452752],["profiel",-10.658280528110424],["compensatie",-10.658293862921154],["vrezen",-10.658317484558323],["signaal",-10.658417654934922],["ontdekk",-10.658554347972103],["vaart",-10.658644824992676],["duo",-10.658764813852265],["noodzaak",-10.658882180800994],["regulier",-10.659049217763343],["schuive",-10.65950750241585],["zoge",-10.659629019450755],["tarief",-10.659791537674835],["BN",-10.66011816620188],["dertien",-10.660912573859765],["verstand",-10.660985308436826],["lidsta",-10.661138159473161],["grijpen",-10.661224353033033],["genodigd",-10.661241465095872],["trainen",-10.661280619298864],["hoogtepunt",-10.661302787290982],["verwarming",-10.661740871664666],["aanhouden",-10.661774751289096],["arbeids",-10.661979705929156],["lege",-10.662022028165818],["Grieken",-10.662543177547196],["Di",-10.66266305839904],["!’",-10.663383792626295],["way",-10.66364781175448],["uitgaven",-10.665184967334602],["pomp",-10.66523078354694],["Wim",-10.665283255810076],["wetgeving",-10.6656320509932],["ontslagen",-10.66668179980191],["Jam",-10.666863765994067],["zeventien",-10.667343423499872],["Ons",-10.667833357251268],["besteed",-10.668112790587921],["lessen",-10.66818926555412],["Lew",-10.669377156768725],["complete",-10.669407497925544],["behoud",-10.670080034175033],["parke",-10.67040057478722],["betaalde",-10.670862072184194],["partners",-10.67115446476466],["doelpunten",-10.671346514831786],["eking",-10.672042289186747],["51",-10.672063176902757],["gewezen",-10.67221968044806],["dringen",-10.67227024902072],["Ba",-10.673129235646181],["istan",-10.673515594010098],["uitgesteld",-10.675819725393822],["bruin",-10.676981408449212],["verklaar",-10.67735734381428],["spijt",-10.678792351294062],["beroemd",-10.67900779429868],["Zaterdag",-10.679081290393317],["TikTok",-10.679081555269702],["Partij",-10.67908705129173],["generaal",-10.67910811254404],["ontving",-10.679116733746103],["vooraf",-10.679190434283804],["Vraag",-10.679253753783078],["tunnel",-10.6793026786493],["toilet",-10.679308353665327],["Smith",-10.679323629521857],["topic",-10.679435822974984],["Kees",-10.679625383214521],["Ford",-10.68020728037214],["Mi",-10.680244989434108],["tennis",-10.68115305122246],["stapt",-10.682604705137758],["tempo",-10.682826457425676],["beschermd",-10.6834316777098],["GL",-10.683469543594702],["migratie",-10.683524864434025],["Vijf",-10.68355252576125],["normen",-10.683813721648775],["Marc",-10.684170142597232],["bio",-10.684303970439336],["uitvoering",-10.68474360881295],["nabij",-10.684816280187576],["gedreven",-10.685802670731706],["bonus",-10.685994558134047],["oudste",-10.687561271211498],["meneer",-10.68783055812134],["tekenen",-10.68907602963821],["63",-10.689094467257327],["Neem",-10.689494391525868],["standpunt",-10.690472316945417],["AI",-10.690689434100376],["bevat",-10.690892278256998],["ontstaa",-10.691895816935933],["Lind",-10.693014828147085],["roze",-10.6932533770403],["Brazili",-10.6938092477209],["celstraf",-10.693992970475028],["stuurt",-10.695451108127],["Boer",-10.696529554867036],["oost",-10.69668527406629],["schijnt",-10.696973020287226],["inhoud",-10.69751008963771],["ff",-10.697616402555731],["koos",-10.698326651793458],["ak",-10.698719756201543],["emotie",-10.698757669737244],["verklar",-10.699263992775593],["onbekend",-10.699505644917338],["drank",-10.699812449777404],["humor",-10.70018370620219],["Precie",-10.700357191674218],["Burgemeester",-10.700357282584362],["gezelschap",-10.700374083767272],["ranglijst",-10.70039292656006],["laptop",-10.700417156143587],["Media",-10.700514322466155],["tentoonstelling",-10.700532077695366],["Kim",-10.700533418933396],["klonk",-10.700564569133789],["RTL",-10.700574026039142],["botsing",-10.700621367202373],["elite",-10.700828309140466],["god",-10.701058456565507],["IC",-10.70136272180071],["toenam",-10.701411895971678],["Leidse",-10.701543188068056],["graan",-10.702065541783664],["provincies",-10.702190409304105],["Normaal",-10.70258461060198],["passagiers",-10.703037963439382],["verplichting",-10.703182560917579],["com",-10.703211146223385],["herkenn",-10.703293872818564],["AS",-10.703331502701394],["EX",-10.704105088508118],["transfer",-10.704208215943117],["ontbre",-10.704307091694732],["donker",-10.704671313885498],["gezocht",-10.705332130948475],["Afrikaans",-10.706030877923405],["verklaard",-10.706390773410432],["afwachten",-10.707224595048912],["Goud",-10.708311514921066],["zogenoemd",-10.709419485638692],["voetballen",-10.709770876721675],["%.",-10.710266407946639],["kritisch",-10.711792836807442],["64",-10.711961668230494],["67",-10.712204325934422],["reserve",-10.7124101222654],["ussen",-10.71319871563145],["bevatte",-10.715582841034694],["noteerde",-10.715675390227368],["breek",-10.718521914959577],["Sch",-10.71923411855536],["Sa",-10.720234751858978],["Madri",-10.720311251536003],["gezonde",-10.720462225945907],["schulden",-10.720526204940874],["bestemming",-10.720711807477768],["gestelde",-10.720716306951545],["jongere",-10.721654011483592],["ok",-10.721785974626656],["verenigingen",-10.721892693997049],["Lekker",-10.722034147529289],["studio",-10.722096001586134],["Gronings",-10.722096038267749],["cursus",-10.722107737578927],["wekelijks",-10.722119448125294],["onmiddellijk",-10.722120429383223],["Momente",-10.722164390648109],["aanpassing",-10.72228154330197],["discriminatie",-10.72234025342748],["bussen",-10.722713405553371],["dreiging",-10.722826749990144],["okken",-10.722838215824485],["Jezus",-10.722896155702651],["mentale",-10.722917462503009],["zakt",-10.723118887255376],["katten",-10.723158016582758],["idiote",-10.72354441995823],["ophef",-10.723614029177941],["chao",-10.723930350582314],["wisselen",-10.723993837599721],["lukken",-10.724001824016153],["buik",-10.724158055390712],["middenvelder",-10.72511973807763],["migranten",-10.725225782728701],["gecontroleerd",-10.725317283960305],["sleutel",-10.725480534208721],["Mart",-10.725622814681884],["bewegen",-10.72658637040946],["wonder",-10.72659415464512],["uitgang",-10.726735458703242],["omvang",-10.726925879724027],["Koning",-10.727448314534971],["spannen",-10.727861728519011],["actieve",-10.72803587718384],["ideale",-10.72817676707297],["inspectie",-10.72821935890261],["wetenschap",-10.728385513656363],["effecten",-10.728864013136723],["69",-10.729065393315341],["malen",-10.730345041597301],["consument",-10.731091152983833],["Steven",-10.73166991526404],["Spot",-10.731968175186303],["toevoegen",-10.732012324338944],["lieten",-10.732468367931714],["Pieter",-10.732557022475975],["bestuurs",-10.733115188791071],["Stel",-10.733612037173193],["gegroeid",-10.73405708807714],["digita",-10.734099109881207],["eindig",-10.734498187331907],["verhoogd",-10.734863990733599],["Fed",-10.734977088235976],["gedachten",-10.736255084045034],["AC",-10.736938481509826],["domme",-10.737755809205776],["menselijke",-10.737795794902398],["rie",-10.73799989406449],["bi",-10.738448061420137],["herfst",-10.73874383886821],["verleng",-10.73938452461629],["afsluiten",-10.739519925660613],["enthousiast",-10.739990018630298],["Har",-10.74031822419483],["blanke",-10.740505936108175],["import",-10.74082627339521],["overige",-10.740935503249457],["forse",-10.741238930601606],["72",-10.741653621163005],["vel",-10.742032595855258],["finish",-10.743065254778806],["Gemeente",-10.743338988039033],["stemt",-10.743377900989111],["genoemde",-10.743500511800507],["omlaag",-10.743892601955451],["Dinsdag",-10.744322599588433],["Donderdag",-10.744339933272947],["moeilijker",-10.74438186745347],["zoektocht",-10.744387399243315],["gedeeltelijk",-10.744739866435971],["assistent",-10.744948882031276],["ruime",-10.745289606805919],["verlagen",-10.745459648766303],["gras",-10.74659015373559],["straffen",-10.747342377972855],["achteraf",-10.747425431910205],["tie",-10.748127533383727],["vieren",-10.748167335378387],["Meta",-10.74837822984969],["toegankelijk",-10.748386189427933],["uitbreiding",-10.748638955384545],["behulp",-10.748973834249108],["waterstof",-10.749659348532305],["voorzieningen",-10.750652532008706],["Oud",-10.750666034204492],["groeide",-10.751129425337606],["lacht",-10.752063794705723],["conservatieve",-10.752674971457292],["graf",-10.75302696744662],["gelden",-10.753464423978102],["heus",-10.753703491683664],["methode",-10.753856626619227],["potentie",-10.754563771571592],["koude",-10.75594546882781],["kindje",-10.757527326363642],["ehalve",-10.758511755732226],["Luc",-10.758893749457451],["mi",-10.759249824924016],["Midden",-10.759909480332183],["terras",-10.760684642651666],["Stra",-10.760764559246958],["voorganger",-10.761074732200047],["jarig",-10.76118820488435],["wer",-10.761338669137395],["held",-10.76215914985184],["Sterk",-10.762363642572708],["kruis",-10.762372493765586],["wandelen",-10.762631535994643],["76",-10.76265602869342],["Los",-10.76469087476699],["oordeel",-10.765257799737935],["social",-10.765860142376969],["leveranciers",-10.765866880497489],["lied",-10.765945799699727],["zelfstandig",-10.766031478255604],["Ri",-10.766341096666178],["vingers",-10.766435238437415],["Ron",-10.766703057266298],["Kleine",-10.766936365155377],["docent",-10.767035991030198],["Twente",-10.767057131634095],["Black",-10.767058891685291],["content",-10.767082652429533],["schaats",-10.767186592943206],["Onderwijs",-10.76719307864218],["mishandeling",-10.767402565958161],["Maria",-10.767503599455875],["Mathi",-10.76761067774922],["Kamerlid",-10.767792747244698],["gedeelte",-10.767796956364338],["lijf",-10.76781048896958],["unnen",-10.768007718075683],["wettelijk",-10.768020214522952],["uiterlijk",-10.768452468249423],["genot",-10.768915976842216],["drome",-10.769035065559558],["Marokkaans",-10.769280604359947],["uitstekend",-10.769478958382914],["artiesten",-10.769942907795706],["ervaringen",-10.769968400379213],["aanvraag",-10.770173795746832],["linker",-10.771166045181243],["berekening",-10.772326572022191],["huren",-10.77361209003833],["staking",-10.774030242275778],["deug",-10.774201324836437],["beslissen",-10.77437175938418],["toeslag",-10.774585143430816],["trappen",-10.775500411637852],["vervuil",-10.775531978256435],["inspanning",-10.775741330984461],["bezocht",-10.775922605775182],["paspoort",-10.775968284656361],["aansluiting",-10.776342880651054],["wi",-10.776623116416246],["kou",-10.776905541673244],["appartement",-10.777724249467482],["werkzaam",-10.777947227454286],["plant",-10.778057536326555],["Hof",-10.778325694279925],["verricht",-10.778761558345131],["iek",-10.779052234941986],["bedreigd",-10.779716009182295],["experiment",-10.78008793423643],["games",-10.780343552774843],["vereist",-10.78034888871339],["beschadigd",-10.780382811352014],["Vl",-10.781373306444246],["grap",-10.78188234132242],["vestiging",-10.782272004480316],["thans",-10.78322481176977],["honger",-10.783236452021818],["aanmeld",-10.783398271375033],["reeds",-10.785511579559307],["circ",-10.78560088753987],["gevangenisstraf",-10.78584093298149],["ach",-10.786026400557045],["vergelijken",-10.787063679404534],["cadeau",-10.787212698120324],["geheime",-10.78738738361018],["Prins",-10.787697958055698],["opeens",-10.787854756251768],["booster",-10.788673625077724],["innovatie",-10.789405131106928],["betrouwbaar",-10.789648260790306],["taken",-10.789659939268557],["overtuigen",-10.789839840577073],["confronteer",-10.790301697959794],["Parlement",-10.790303031844832],["aanrijding",-10.790320272099535],["Group",-10.790322074289543],["organisator",-10.79034437148492],["Zwolle",-10.79034662778911],["Vlaming",-10.79036472187882],["preventie",-10.790586639350456],["warmte",-10.79065843883102],["gedur",-10.790769477471438],["liberale",-10.79087928915578],["Plus",-10.791170559611453],["Play",-10.79125485477185],["evenementen",-10.791343725969949],["redactie",-10.791449371103294],["scheel",-10.792983340353743],["hing",-10.793163208365462],["iet",-10.793180297614922],["lek",-10.793260489069162],["vul",-10.793730020289024],["label",-10.793816931892415],["buurland",-10.793835126976115],["eigendom",-10.794282784697842],["Berlijn",-10.795054117215026],["Amazon",-10.796346318473866],["bleke",-10.796365554577289],["samenwerken",-10.796372218707196],["!”",-10.796430231062638],["rapper",-10.7973287363378],["paal",-10.797651129108505],["GB",-10.798529024577316],["woede",-10.79900977780295],["stapte",-10.79908659078364],["schermen",-10.799687433459358],["klas",-10.80043020491639],["Britt",-10.800697210981586],["kanten",-10.80076038970987],["droogte",-10.800775600168809],["):",-10.801547760712406],["gevaccineerd",-10.801874995644681],["Green",-10.80373001906282],["rondje",-10.80382784110587],["ubai",-10.804895918188635],["crash",-10.805458322885602],["duik",-10.806063409009015],["bocht",-10.806101055465177],["Bert",-10.80620580156997],["accepte",-10.806358671557847],["leest",-10.806634646780216],["achteruit",-10.808256884271842],["activisten",-10.808584536449173],["aal",-10.808725984375396],["ior",-10.808831029336005],["nader",-10.80921720169971],["gister",-10.810753234627443],["drang",-10.812320212033383],["tas",-10.812341475996273],["koste",-10.81252966037721],["spoed",-10.812878160861377],["figur",-10.813237913607384],["commissaris",-10.814110911159478],["George",-10.814111902864338],["affaire",-10.814174704267371],["goedgekeurd",-10.814199359552576],["goeie",-10.814215087772135],["Zondag",-10.814292454880352],["concept",-10.814350333400311],["journalistiek",-10.81465550170841],["Slecht",-10.814927702022697],["Nick",-10.814931619122373],["goedkope",-10.81497419232369],["Jean",-10.816187820124012],["Korea",-10.81652833063561],["Kev",-10.816594168422004],["pijnlijk",-10.816610104090529],["fijne",-10.816664342748425],["ci",-10.817033286862461],["meent",-10.817199673703485],["Afghan",-10.817231771914706],["verwachte",-10.817470471441533],["NO",-10.817925704917325],["graad",-10.818033819109033],["halver",-10.818159702079717],["bezwaar",-10.818855265913886],["artsen",-10.819388030900086],["Rijn",-10.820246177365782],["130",-10.82109235028209],["Oisterwijk",-10.821234647420754],["tienduizend",-10.821254530202413],["betaalbaar",-10.82139780097164],["deelnemen",-10.821402228775042],["deelname",-10.821496100037077],["GG",-10.821528015683523],["ezorgd",-10.821586355168254],["heer",-10.821756504515804],["stapel",-10.822301735353411],["Lang",-10.82278406599439],["verkrijg",-10.82298518979641],["enigs",-10.82322054825865],["47",-10.823372768017602],["relevant",-10.823979772089732],["hersteld",-10.825192429209952],["kritische",-10.82553344821983],["esloten",-10.826164418011544],["pest",-10.82639653688716],["verdwijn",-10.826520905453506],["Will",-10.826734060290526],["epoel",-10.826741628570007],["steek",-10.826770898351436],["mevrouw",-10.827046773137088],["aat",-10.827578133328487],["emand",-10.827594194508317],["kilometers",-10.827859475212488],["soortgelijk",-10.828132851648117],["trad",-10.828237603126228],["wassen",-10.82918199054013],["Dag",-10.829212997991972],["ban",-10.829985770703322],["aankomst",-10.830013421599382],["treffen",-10.832415590459043],["nachts",-10.832436550350623],["Beste",-10.832660523877939],["Kroati",-10.833325872019572],["hevige",-10.833412470223886],["eeuwig",-10.833575010861052],["jagen",-10.833697218239955],["Belasting",-10.834001541013357],["plank",-10.83413768320031],["verdiend",-10.83438378798878],["lat",-10.834459894589939],["wijs",-10.835509771624526],["gooide",-10.835607241231674],["ME",-10.83561524831852],["figuur",-10.835988226640827],["wou",-10.836287025021244],["peil",-10.836852515361766],["merkte",-10.836976499411465],["vermijd",-10.837501648405397],["criminaliteit",-10.837637640285314],["sponsor",-10.837660219698321],["draai",-10.837915143958512],["boerderij",-10.838330791053135],["documentaire",-10.83850809913841],["covid",-10.838531308770502],["marketing",-10.83862174116883],["sensor",-10.838701257944969],["Schouten",-10.838839496701128],["Argenti",-10.838858529871354],["beschuldiging",-10.838924076793816],["religie",-10.839745983645312],["trouw",-10.84020214520364],["ium",-10.84029014756506],["laagste",-10.840337721530464],["Joris",-10.841517854895399],["regelen",-10.8416813161837],["zondagavond",-10.841774516538873],["Zweeds",-10.841989186004561],["kampt",-10.842134604579542],["suiker",-10.845839024232081],["FI",-10.845925308130276],["ingevoerd",-10.846657906748248],["Serie",-10.847026742809813],["rechters",-10.847341735273915],["armen",-10.848075247690918],["kat",-10.848234926107438],["vermeld",-10.848498402232654],["behandelen",-10.848666474039165],["Chris",-10.849568887177405],["beveiligings",-10.8499415688003],["negentig",-10.85155347539487],["mega",-10.851598849163215],["tref",-10.851730762673318],["smaak",-10.852026926559043],["120",-10.85252479911372],["Pri",-10.853175671703923],["Giro",-10.853727418936867],["rix",-10.853903251654392],["Iedere",-10.854231281599247],["NB",-10.854580828633765],["Leuven",-10.854935200058959],["aren",-10.855185584473455],["toonde",-10.855281261864192],["gram",-10.85563196108411],["aanleg",-10.85580719055101],["?\"",-10.855941709325155],["tegel",-10.855973190583017],["waarschuwd",-10.857852553509415],["diende",-10.857860161446876],["situaties",-10.86041479238338],["Geert",-10.86069772107636],["likken",-10.860753877170275],["Tien",-10.861814409993325],["Inter",-10.862340860566654],["verblijven",-10.862435828476094],["volwassenen",-10.862852748204606],["material",-10.86332640359868],["debuut",-10.863468420399315],["vacature",-10.863508884090463],["illegaal",-10.86351748315272],["maandelijks",-10.863573470062605],["corruptie",-10.863679930537337],["verbazen",-10.863760011812337],["wandeling",-10.864007150566524],["biologisch",-10.864095349784524],["sterven",-10.864115419755862],["uitgeschakeld",-10.86411783406731],["Thijs",-10.864180674303599],["getuige",-10.86418563739434],["tikken",-10.864208556553276],["richtlijn",-10.864379931567713],["leverancier",-10.86444636860141],["knap",-10.864738731668709],["statushouder",-10.864820105216763],["klassieke",-10.864871676711038],["Ol",-10.864914030516854],["Bekijk",-10.865063627079179],["renners",-10.865761120291971],["Zand",-10.865796908398478],["energierekening",-10.865828597088178],["maximal",-10.866633351320914],["onrust",-10.866708417794177],["lukte",-10.86845080981572],["Nieuws",-10.868685452495153],["reedt",-10.869845091254541],["server",-10.869917944356315],["ota",-10.870664683888876],["gemak",-10.870906661601328],["Water",-10.871764111076576],["organiseer",-10.872007537479217],["Su",-10.872111583200557],["besmet",-10.872244081041561],["sportieve",-10.872244787328857],["kenmerken",-10.8722800542957],["62",-10.87277036438994],["gun",-10.87293856178886],["all",-10.87321899649362],["knoppen",-10.873282965428569],["illegale",-10.874576545081265],["Rotterdams",-10.874746670196426],["wegge",-10.875159550100596],["praktisch",-10.875759718306092],["ul",-10.875789545297371],["scooter",-10.875872499012212],["slaven",-10.876078735105946],["hu",-10.876950147822448],["econo",-10.87757741493815],["BC",-10.878753421782735],["bot",-10.878822385777259],["lieve",-10.879314543233],["huisarts",-10.879382459391246],["geï",-10.879398384471484],["dé",-10.879652767747721],["Zwarte",-10.880484415265768],["zender",-10.88072194528715],["Tijd",-10.880989030696458],["belde",-10.881073497941749],["AN",-10.881804523205785],["tegemoet",-10.88374522794952],["analisten",-10.884223418016006],["%)",-10.884270604417228],["To",-10.8845147455099],["olksgezondheid",-10.885420896153622],["behoren",-10.885485766487356],["Mon",-10.885538437879221],["munitie",-10.88579734029475],["bon",-10.885861608822207],["wissel",-10.885981423397977],["gemist",-10.886133484866098],["meester",-10.886640093535197],["vroege",-10.88676314960474],["vijand",-10.886776216302628],["toegangs",-10.886819172474615],["beschikt",-10.887553229747418],["element",-10.887555942279235],["duurzaam",-10.887630906257922],["WhatsApp",-10.887787195266643],["oplever",-10.887891919375887],["pleegd",-10.888218230374763],["instelling",-10.888768903138683],["begre",-10.889052521946477],["verdriet",-10.889117927748142],["cocaïne",-10.889142098175132],["peloton",-10.88914223805551],["verschrikkelijk",-10.889142321227355],["gestorven",-10.889142328626384],["opkomst",-10.889142771332178],["continu",-10.889144771352331],["Museum",-10.889159605011727],["bruto",-10.889241211669432],["Gister",-10.889344310450161],["aankondiging",-10.889365813139412],["SUV",-10.889374609011064],["ontdekte",-10.889500609292263],["Spanjaard",-10.889546382269312],["begeleiding",-10.889644659019856],["neger",-10.889810139628604],["Ye",-10.88983604478501],["overtreding",-10.889939577028157],["prijsstijging",-10.889988048925382],["Eerste",-10.891312536236384],["Best",-10.891614043717173],["nest",-10.892150115268418],["beantwoord",-10.892170826155494],["uk",-10.89297258234987],["vonnis",-10.893410752860849],["Derksen",-10.89347201030545],["gespecialiseerd",-10.893529021910362],["Lo",-10.894098466456096],["Brusselse",-10.894305455076998],["ung",-10.894323190726082],["staf",-10.89465605195263],["stoelen",-10.894660407967153],["vorming",-10.894951728424287],["roken",-10.895697156436142],["Carlo",-10.895907719243793],["ET",-10.896467201984763],["buur",-10.89677815319387],["enig",-10.897012652747076],["kippen",-10.897149780670645],["ondersteunen",-10.89766252336229],["beperkte",-10.898788330911557],["kap",-10.89984861098818],["kernwapen",-10.900252763548409],["overval",-10.900412187919644],["heerlijk",-10.90063472652712],["arbeiders",-10.901047955403175],["more",-10.901539041749894],["klacht",-10.903083317859853],["service",-10.903343503610424],["demonstrant",-10.90380707714936],["enberg",-10.90402844425071],["klassement",-10.904331040654725],["Dieren",-10.904365664223963],["vastgoed",-10.904557479091698],["opmerkelijk",-10.90595900438234],["Oude",-10.906038342422763],["rouw",-10.906557423300855],["68",-10.907401463224382],["Or",-10.907529382293998],["Werk",-10.908084323913656],["onderhandel",-10.908177529681161],["Mexic",-10.908213758225475],["gebl",-10.908324798302512],["Hele",-10.910002477224225],["Pere",-10.91015894660382],["Wouter",-10.910604252508708],["constructie",-10.911513403608629],["77",-10.911608869891097],["teller",-10.91205762177396],["lading",-10.912444631633104],["71",-10.91270024343996],["Mel",-10.912725518298029],["Oostenrijk",-10.91348871988102],["ram",-10.9138896842013],["spiegel",-10.914223705526688],["professionele",-10.91433510893997],["promotie",-10.914556092709923],["slechter",-10.91494614605169],["klus",-10.915350312809942],["context",-10.915365673601519],["succesvolle",-10.915456247193905],["München",-10.915457887567067],["Chelsea",-10.91545791614074],["karakter",-10.915457931873673],["satelliet",-10.915457938009368],["Microsoft",-10.915459279916714],["plotseling",-10.91549580476934],["arrestatie",-10.915500538949297],["afbeelding",-10.915541417860016],["Sparta",-10.91555134728508],["tranen",-10.915562581242012],["geregistreerd",-10.915614152790083],["limiet",-10.915712174948455],["Voic",-10.915750349954582],["betrekking",-10.915875401509027],["sten",-10.916006049614664],["Union",-10.916052405222588],["toezichthouder",-10.91614915690984],["transactie",-10.91631918282624],["lost",-10.916320751946103],["remmen",-10.916484180701284],["hemel",-10.916888888834896],["hinder",-10.91718894853572],["Af",-10.917238266459757],["factuur",-10.917338650076275],["vervolgd",-10.917918703740957],["uitgebracht",-10.918037732002436],["bestrijding",-10.91862499048872],["brein",-10.91865330298233],["kaartje",-10.918717489861093],["Marco",-10.919010892056363],["Vind",-10.919152627908938],["directie",-10.919914504784408],["Vergee",-10.919953064237582],["blokkeren",-10.920088456219315],["vervanger",-10.920745936023952],["ku",-10.920770973855797],["ongekend",-10.92115782550619],["NU",-10.921369831134069],["beveiliger",-10.922306307099273],["Philips",-10.922349152151257],["feesten",-10.92249247546896],["tuig",-10.923123882692401],["subsidies",-10.923289401657648],["drukke",-10.924356956788104],["menselijk",-10.924991127121077],["aanvoerder",-10.925492848391027],["Simon",-10.925915443466304],["scheidsrechter",-10.926186947390052],["landschap",-10.926458183844497],["panelen",-10.926869652671957],["norm",-10.926918401182537],["Boe",-10.927094025301669],["diens",-10.92754725195843],["Super",-10.927608818198033],["volgers",-10.927809557753697],["bevoegd",-10.927918542042967],["gewenste",-10.9285301278839],["liedjes",-10.92860387251426],["raans",-10.929238558672386],["ticket",-10.929900193521455],["zwak",-10.930527871377336],["potenti",-10.930672897937356],["concrete",-10.93081743037222],["by",-10.931237264037431],["uitleg",-10.931796362992369],["crucia",-10.932019525597044],["begroting",-10.932054396425714],["Ni",-10.932176648926923],["Wester",-10.932351997459744],["Emma",-10.932843865977246],["bol",-10.932874723145902],["oven",-10.932940524627647],["belofte",-10.933320114947437],["operatione",-10.933680701224578],["KV",-10.934423566453814],["kar",-10.935764916705846],["ramen",-10.935957924522054],["getraind",-10.93602574984479],["vriendelijk",-10.936626635636966],["uitsluiten",-10.936996962680908],["nadenk",-10.937219960169351],["Du",-10.937397614522494],["bedien",-10.937567000698593],["draad",-10.939086290780178],["koopt",-10.93931364322446],["ritten",-10.93960296282578],["Bouw",-10.939999660527377],["88",-10.940102666592193],["ijzer",-10.940754182855143],["ans",-10.941116359611492],["column",-10.941469854891345],["storing",-10.94178780059028],["staal",-10.94198402242696],["creëer",-10.942123305001967],["helikopter",-10.94246962945461],["portefeuille",-10.942484914588393],["quarantaine",-10.94248491459588],["tribune",-10.942484915433738],["psychisch",-10.942484923518705],["Visma",-10.94256437838997],["verslaggever",-10.942571126749009],["koploper",-10.942575498534117],["presentatie",-10.942763580225682],["verdediging",-10.942798651539478],["Winter",-10.942819675193219],["loopbaan",-10.943049662080993],["inhoudelijk",-10.943333481449663],["hit",-10.943560194078582],["State",-10.943649943560237],["aanvankelijk",-10.943668510258977],["Opvallend",-10.943907488590817],["cellen",-10.944108631545618],["uitbreid",-10.944156999478551],["tanks",-10.944297503535314],["Vol",-10.944330127658004],["Canade",-10.944463024917516],["Per",-10.944553115606181],["shit",-10.944755396203403],["geruchten",-10.945040251656039],["Park",-10.94561906048746],["dwingen",-10.945703775499103],["Bas",-10.945860530782483],["slaagde",-10.946519161864849],["taxi",-10.946935176728989],["betrapt",-10.947068126743702],["gelijkheid",-10.947552466822986],["trof",-10.947948483283819],["Nord",-10.948399226864206],["bekek",-10.948470727687422],["Elk",-10.948653783346629],["offs",-10.948946343233768],["Emmen",-10.949582103964637],["lippen",-10.950208469438008],["vrijwillig",-10.950414668813856],["gepubliceerd",-10.950562072818702],["tweehonderd",-10.950869456734914],["huisvesting",-10.951791871579891],["ploegen",-10.952368968344029],["rez",-10.952484548960244],["Top",-10.952565325577241],["voorraad",-10.952693250699493],["verbaasd",-10.952723144172351],["handeling",-10.95306186915209],["strenge",-10.953783650403109],["Zeeland",-10.95383944455383],["valse",-10.953855027675784],["Taiwan",-10.954506012341962],["belegging",-10.954545415041432],["logo",-10.955120372370722],["puntje",-10.955374042856379],["Bu",-10.95636299995327],["bom",-10.956373423972178],["bepaal",-10.95650231335215],["Rij",-10.956814173001396],["zeventig",-10.957059113517097],["lijnen",-10.957987396891568],["Mil",-10.958935600472785],["trekkers",-10.959510281540819],["Zeg",-10.960113428208953],["brons",-10.960419666745661],["nationaal",-10.961989744485875],["nota",-10.962547911952912],["sma",-10.962802488545744],["fenome",-10.963166286376444],["schrap",-10.963433765662229],["bo",-10.963551203009208],["KN",-10.963974058844832],["lastige",-10.9646648762761],["islam",-10.964881644607942],["Time",-10.964958980713295],["vervolgt",-10.965444214713237],["instroom",-10.965764721812024],["materie",-10.965780518668055],["fossiele",-10.966072624542257],["Burg",-10.966172401875504],["fa",-10.966667713503798],["luister",-10.966745191955678],["verkoopt",-10.966765451016974],["graaf",-10.966964106461884],["voorgaande",-10.967045610165941],["Ger",-10.967289329241709],["put",-10.968410891913722],["immigratie",-10.969055330920341],["opgericht",-10.969162881694233],["herken",-10.96930213998581],["Brabants",-10.969459212326656],["aliteit",-10.969709151974335],["Australi",-10.970182269524454],["garage",-10.970227277997296],["Sinterklaas",-10.970262693662168],["Erdogan",-10.970262698118407],["Pogacar",-10.970263210570934],["Dirk",-10.970264051066259],["bitcoin",-10.970266488269854],["omikron",-10.970271162452143],["aanmerking",-10.970283670468111],["Volkskrant",-10.970307702030377],["segment",-10.970319649496924],["gewelddadig",-10.970358303038758],["district",-10.970465850835954],["toeschouwer",-10.970471826730007],["administratie",-10.970471837851287],["permanent",-10.970568995114862],["Zal",-10.970939755831392],["komend",-10.971067845639737],["betreffen",-10.971259696053233],["bezorg",-10.97129020951132],["KNV",-10.97156091528445],["plaatsge",-10.972376279673657],["parlements",-10.972668085801526],["Tag",-10.972751093194567],["onderling",-10.972764953567971],["Christian",-10.97277942579316],["lasten",-10.973245592939405],["Economisch",-10.973272073990593],["bakke",-10.973548383683347],["meermaals",-10.973670981080215],["Jack",-10.973718041804124],["steekt",-10.974137164095449],["vuurwapen",-10.974560929132842],["verliefd",-10.974732726790386],["student",-10.974937728272533],["onterecht",-10.975462462675104],["gelijke",-10.976197812291002],["fel",-10.976311818045158],["aandeelhouders",-10.97719025001608],["Queen",-10.977318119716166],["voegen",-10.977328692669712],["indien",-10.977657389870556],["tevens",-10.978931969244567],["uiting",-10.979174462582916],["aanhanger",-10.979191890739244],["beëindig",-10.979776441211309],["voorbereiden",-10.979817534100754],["kelder",-10.97983264335801],["Visser",-10.979900447804175],["breuk",-10.980367736420009],["Apeldoorn",-10.981015109138372],["ondersteun",-10.981084285057898],["Auto",-10.981134801085265],["adviseer",-10.981420853922506],["vlaggen",-10.981432989959226],["auteur",-10.981918543433302],["Sy",-10.983380057362385],["wereldtitel",-10.98349110346119],["brugge",-10.983654477076644],["700",-10.98372593587548],["griep",-10.983823230061867],["visse",-10.98416759597637],["vlogen",-10.984297766972166],["verrast",-10.984586903530793],["gedoe",-10.985728902167013],["opzet",-10.98604205735989],["gebruikte",-10.986920053971332],["thee",-10.986934880293889],["verhuis",-10.987797363015172],["stoten",-10.988302639097057],["inkomens",-10.990348864945995],["Boeren",-10.990700261795142],["donkere",-10.990707349628943],["producent",-10.990764545014732],["sporten",-10.99093713861744],["Stee",-10.991919830854977],["Alf",-10.992220392483508],["patiënt",-10.99228025595194],["optima",-10.99338362771078],["grep",-10.99367129051119],["Hollandse",-10.993709175892063],["Syrië",-10.99401295553355],["grijs",-10.994544414810251],["mooier",-10.994581388913723],["plaatste",-10.994658291039165],["zacht",-10.994772805400686],["afnemen",-10.9955641888093],["flat",-10.99647592170437],["uitgeven",-10.996498265759858],["eredivisie",-10.997276587691726],["diversiteit",-10.997762185954233],["gepast",-10.99835036678262],["interne",-10.998522062833826],["planeet",-10.998554533793108],["spectaculair",-10.998834120937698],["centimeter",-10.998835112252504],["valuta",-10.998835144405827],["vergeet",-10.99883990247418],["hectare",-10.998845442849834],["Disney",-10.998846769806168],["President",-10.998850991320854],["Verschillen",-10.998854409198863],["Woensdag",-10.998860652917317],["Volkswagen",-10.998886370151016],["Gelderse",-10.998955198682497],["Aziatisch",-10.99901338555439],["zwemmen",-10.999043371762653],["VRT",-10.99932721192182],["doos",-10.99936075888709],["vastge",-10.999474880487735],["negentien",-10.99967355557533],["Utrechtse",-10.99995097159701],["kruising",-11.000003856642447],["racistisch",-11.000095440862365],["waardering",-11.000440091849047],["voortdurend",-11.000459009408102],["peiling",-11.000548130989495],["papa",-11.0006093841229],["Eric",-11.00095682557054],["bevestigen",-11.001136307106643],["zië",-11.00147417666963],["Gi",-11.001612650008761],["zó",-11.001687434791837],["rabië",-11.00172651182703],["staakt",-11.001991769159089],["dwars",-11.001994400233217],["verlopen",-11.002431098213423],["doodge",-11.00244722308129],["hel",-11.00294593578759],["Ca",-11.00300678536084],["investeerders",-11.003437595047082],["lezing",-11.004647121872203],["Institu",-11.004968916639749],["prettig",-11.005594322978421],["HEM",-11.005977847380564],["jongetje",-11.005978330091073],["streek",-11.006148792940966],["illa",-11.006271592373384],["krachtig",-11.00639870615328],["boze",-11.006508047227912],["vierkante",-11.00752629332239],["elijke",-11.007625715269228],["Bar",-11.008529292661638],["interessante",-11.008604120027307],["contacten",-11.00870778645464],["emco",-11.008713663861247],["aangeven",-11.008773623538652],["moe",-11.008899314076682],["straling",-11.008990739258202],["kiezers",-11.010199137795293],["gepresenteerd",-11.011010885041111],["Haags",-11.011332538586519],["toegest",-11.01141116443257],["Vos",-11.011498110240375],["Geld",-11.012194992344842],["installatie",-11.012952030685165],["douche",-11.013716736651457],["koken",-11.014529299525275],["winnaars",-11.014935176434106],["Croo",-11.014993940569617],["loper",-11.016220688659088],["hobby",-11.016606305844064],["hielp",-11.016961150365981],["lonen",-11.016969478427542],["Hond",-11.01702632027759],["realistisch",-11.017844736000438],["aangevallen",-11.018139052618999],["kaas",-11.018718286959778],["beek",-11.01896148196277],["erkennen",-11.01953923260526],["aanhouding",-11.01968360745784],["li",-11.01992548148844],["bagage",-11.020002223407044],["Nation",-11.020308617689338],["planning",-11.020630598400876],["ieke",-11.020728728122632],["gezeten",-11.021248025997554],["Ah",-11.021780068028349],["Col",-11.022219463519164],["betekenis",-11.022222419343533],["regiona",-11.02227096984054],["schadelijk",-11.022345648789537],["apparat",-11.022466638530833],["Zwitsers",-11.022472397154935],["onverwacht",-11.02309176781078],["fles",-11.024862466924326],["nuttig",-11.025298754549851],["Xi",-11.026270452118661],["dringend",-11.02669423207098],["BO",-11.027003473386934],["voeding",-11.027420290973442],["drager",-11.027967357480911],["Turnhout",-11.028004240284249],["isolatie",-11.028224980834974],["horloge",-11.028245993583345],["Heerenveen",-11.028246283923934],["Portuge",-11.028246323385329],["ultiem",-11.028249353085476],["statement",-11.02825692484565],["kroeg",-11.02826144288879],["FIFA",-11.02827542091214],["langzamer",-11.02829572521919],["School",-11.028313314804919],["Forum",-11.028349303422544],["schadevergoeding",-11.028476002337083],["initiatie",-11.028493817645082],["nieuwkomer",-11.028518653558649],["War",-11.028856051104643],["gekoppeld",-11.02886967420366],["infectie",-11.02895355909202],["lift",-11.029014926404404],["bescheiden",-11.029330962634843],["verzekeraar",-11.029394041755019],["Joods",-11.029495164808454],["61",-11.030123511866634],["windmolen",-11.030206689451298],["heffing",-11.030259157346663],["Remk",-11.030319726579233],["elektriciteits",-11.03091772216303],["stiekem",-11.030968557054893],["té",-11.031074577051083],["lichting",-11.03148355245653],["Natuur",-11.032602178253876],["bewolk",-11.032692568145958],["vooruitzicht",-11.032849729724404],["terugkeren",-11.032869853832421],["lelijk",-11.032948462411785],["razend",-11.033406186275998],["vreemde",-11.034092981233696],["opgesteld",-11.035169747846407],["NEC",-11.036100984318617],["verplaats",-11.036509850044995],["Koen",-11.036721149054184],["aangewezen",-11.0367236934901],["knip",-11.036776372603018],["versterkt",-11.037187668788368],["oordelen",-11.037260147349018],["bevond",-11.03807263723818],["handelaar",-11.038464447520502],["dol",-11.03858301568422],["cher",-11.038760059014],["meiden",-11.039510709400904],["Nik",-11.039695370697721],["rey",-11.040062624654164],["richtte",-11.040697684058895],["druppel",-11.04072366834293],["identiteit",-11.04168435853513],["stemmer",-11.041997629168616],["bestrijd",-11.042015993336609],["56",-11.042290483780395],["Genk",-11.042314861636736],["q",-11.0424258671725],["oefenen",-11.042849935606949],["filter",-11.043121924425103],["pech",-11.043135738808505],["verzameld",-11.043293756500496],["achtige",-11.04332592579523],["Meest",-11.043392471997992],["BA",-11.0437077522997],["agentschap",-11.043828372218815],["snapp",-11.044727660219532],["busje",-11.044916327289474],["Mede",-11.044945949712138],["vreselijk",-11.045311881870653],["verlaagd",-11.045597128946355],["drijf",-11.045836320682247],["rice",-11.04598203603301],["mix",-11.046169102717764],["tenzij",-11.046359223972644],["gekend",-11.048158460016662],["gestapt",-11.048591065901661],["tanden",-11.049310424338447],["ongewenst",-11.049903543538722],["houder",-11.050063535354269],["Dor",-11.05008279172305],["streeks",-11.05081205472903],["behoor",-11.050938955370924],["Piet",-11.051850792475157],["Intussen",-11.052135131356138],["App",-11.053487889277026],["startte",-11.053693563214448],["vergrot",-11.054257758023898],["tallo",-11.055029316797192],["….",-11.055137822566527],["ance",-11.055336015512792],["geluids",-11.055938065670707],["ingang",-11.056132051176322],["groeps",-11.056191029442846],["78",-11.056663497295144],["tijdrit",-11.05690259181212],["Laatst",-11.057126664577503],["Wall",-11.05732068496638],["worstel",-11.05765431249801],["schuil",-11.057770875664454],["spreek",-11.057947753763145],["Sain",-11.058302886256378],["individu",-11.058310246520309],["ariev",-11.058341065613117],["penalty",-11.05843743517245],["intimidatie",-11.058548916039463],["ceremonie",-11.058548916223927],["koninklijk",-11.058549311572111],["letsel",-11.058556517951539],["Telegram",-11.058556998981198],["Stijl",-11.058557431654336],["volume",-11.058557569450127],["Donbas",-11.058558857698817],["beseffen",-11.05857943153703],["teleurgesteld",-11.058585106735165],["vanzelfsprekend",-11.058601680112737],["Arabisch",-11.058638144608548],["ideaal",-11.058638631494972],["hervorming",-11.058784643114635],["Milan",-11.058791150409991],["NIET",-11.059042110260517],["originele",-11.059057125651076],["stekker",-11.059085906472353],["lingen",-11.059100997048715],["symptom",-11.059107728018907],["Tay",-11.059140805246775],["Model",-11.05934034573196],["voorstander",-11.059819661709838],["versoepeling",-11.060071444660194],["Koreaans",-11.060433251696814],["Vincen",-11.060621853330023],["stok",-11.060665425502664],["gewen",-11.060735598157896],["drinkwater",-11.060737866454108],["zelde",-11.06084011720042],["beschik",-11.06142413532947],["lol",-11.061457903213045],["terugge",-11.06160304396713],["Klein",-11.061985492769164],["Jos",-11.062667851255423],["formatie",-11.062742777006266],["helm",-11.062810040002297],["geboekt",-11.063251961638253],["oid",-11.063876038540833],["vermeend",-11.064221396217906],["oppervlakte",-11.064338651523869],["OV",-11.064761123572282],["zondagmiddag",-11.064805303047642],["zuur",-11.06508151717324],["rock",-11.065896048201823],["Gra",-11.066731769817],["poort",-11.066804030002608],["OC",-11.067894052350375],["opnames",-11.068073885680496],["pre",-11.06829462979463],["worp",-11.068437036126609],["stations",-11.068862393018335],["dodelijke",-11.06914429567807],["Sta",-11.069398435775671],["opmerkelijke",-11.069624603253644],["drink",-11.070731870964423],["krachten",-11.0708813120027],["buigen",-11.071073034219491],["mondkapjes",-11.071172961939785],["object",-11.072067293799353],["verkoper",-11.072095679496659],["beschouwd",-11.072454414778413],["signal",-11.072558916674712],["kroon",-11.072797678693728],["dokter",-11.07293620466097],["Republikein",-11.07297915225409],["single",-11.073571626894122],["werknemer",-11.07361509034923],["llong",-11.074122705898281],["Stads",-11.074210065851107],["maximum",-11.074583695419285],["geldig",-11.074882761447736],["renner",-11.075153399763657],["appartementen",-11.0752376243533],["rel",-11.07647126155251],["tiener",-11.077075104122606],["stream",-11.077098356496451],["onnodig",-11.077131923114665],["chips",-11.077664075891175],["voorjaar",-11.077993014787994],["sporters",-11.078076034609285],["atten",-11.078311818509956],["verplaatst",-11.07846630491673],["gens",-11.07982703926274],["beschuldigd",-11.07984897629332],["gids",-11.079887106680545],["absolute",-11.080596806155617],["afgezet",-11.080598067096046],["lust",-11.081010024788894],["weigerde",-11.08303319931524],["Saint",-11.083736217761654],["burgemeesters",-11.084027800930347],["vergroot",-11.085453994298597],["nomen",-11.085652259436957],["artiest",-11.085817239594116],["verkiezings",-11.085885952036872],["Belang",-11.086001132048398],["activiteit",-11.086189286350116],["sterkst",-11.08635251524856],["uitkomen",-11.08644996167366],["keur",-11.086473221358718],["YouTube",-11.086475808384963],["opgehaald",-11.08677461807689],["Ko",-11.087091426847413],["toneel",-11.087207591355014],["rechtse",-11.087474686243395],["ius",-11.087994936839209],["schaduw",-11.088652679430671],["snapt",-11.089323266891597],["communic",-11.089408490611728],["poep",-11.08955205891511],["respectievelijk",-11.089803132799377],["Omtzigt",-11.089806985878916],["break",-11.089826459220824],["Vereniging",-11.089839607150788],["Window",-11.0900031616703],["vliegveld",-11.09012251171922],["Award",-11.090188459864649],["cryptomunt",-11.090295282030482],["beroeps",-11.090333077093078],["liegen",-11.090497878814052],["coronabesmetting",-11.090541392562315],["leerkracht",-11.090553757549394],["óg",-11.090557981234893],["Toy",-11.090718085141711],["strafbaar",-11.090760039973926],["ontbijt",-11.090998787363239],["VD",-11.091491550294277],["geteld",-11.091780294237003],["Donets",-11.092323915448736],["cao",-11.09254851597744],["koeien",-11.092620748020371],["Vooruit",-11.092955748504673],["Uni",-11.093139024983206],["velgen",-11.093567421227887],["ingrijpen",-11.093719795901102],["vi",-11.094162825826384],["Racin",-11.0943071586154],["bevinding",-11.094479418081168],["Son",-11.094501731760484],["Gas",-11.094583834642332],["gemerkt",-11.094624755315499],["wolven",-11.095134587186134],["ol",-11.095305869974217],["voorspel",-11.095764276510241],["plaatsvond",-11.096467066332199],["Kruis",-11.097083849591472],["vertrok",-11.09733305364659],["rare",-11.097836318716839],["ap",-11.097893949795655],["paarden",-11.09814474573808],["zwijgen",-11.098600481049754],["klassieker",-11.098607117133431],["Central",-11.099066202423739],["ngeveer",-11.099090889789004],["exemplar",-11.099772482403427],["Rechts",-11.100026578770857],["vertrekt",-11.100395726093367],["compens",-11.100473749939916],["kenteken",-11.101731106071812],["bestond",-11.102205283039595],["Thuis",-11.102420656433456],["aert",-11.103037955295365],["lichtingendienst",-11.10356957231582],["gender",-11.103689391867],["uurtje",-11.104079957585594],["éér",-11.104695680980647],["98",-11.105462990003513],["Blue",-11.105542420923662],["Maarten",-11.105936017399982],["EN",-11.106444624028299],["vrolijk",-11.1068034503637],["Tilburg",-11.106898868734483],["rap",-11.107980314167651],["troffen",-11.108022165363026],["plaatje",-11.10813622302885],["ansk",-11.108331525177412],["constant",-11.108598378610264],["MC",-11.108772704107707],["huilen",-11.109144100243896],["kamers",-11.109555877303757],["verlenen",-11.109747602055092],["Cent",-11.11027019250908],["stabiel",-11.110794711953023],["voorbereid",-11.110800787490643],["dodelijk",-11.111102435311194],["ras",-11.111121253082814],["kunstwerk",-11.11190020265736],["vice",-11.11207952741253],["ASM",-11.11221027554523],["Her",-11.11324363663661],["prinses",-11.113865696674631],["Zeven",-11.113968010027303],["lach",-11.114065204023612],["ix",-11.114078846800405],["monument",-11.114132702465382],["ingewikkeld",-11.114367793615193],["stapje",-11.11445714986433],["jurk",-11.115168526474864],["daalt",-11.115624227348057],["kinderopvang",-11.116018090462575],["doelgroep",-11.11678058041375],["marge",-11.117180692375126],["verton",-11.118176961845249],["geur",-11.118435420735958],["titels",-11.118597126318186],["trainings",-11.120149575925536],["trauma",-11.120840381161585],["mode",-11.120936503599342],["schuif",-11.121128762131976],["simpele",-11.12148885270203],["Krijg",-11.121643073972928],["grijze",-11.121839005059837],["bewer",-11.121924292912059],["strafschop",-11.121965333543715],["Noors",-11.12200543505961],["audio",-11.122024189626107],["Sophie",-11.122057408353765],["comfort",-11.122060966569009],["virtue",-11.122062563674444],["MacBook",-11.122063510803693],["Klimaat",-11.122069809227511],["presteren",-11.122096953642867],["opbouwen",-11.122101810573177],["achtervolging",-11.122126834387768],["installer",-11.122151614499803],["hekel",-11.122191987904216],["Klaver",-11.122202402657855],["aspect",-11.122203127730213],["warmtepomp",-11.122234394027487],["Messi",-11.1223079416582],["dingetje",-11.122331645935741],["consequentie",-11.122515515393335],["stunt",-11.12267922270139],["ontbreken",-11.122882637453145],["overgang",-11.123077050099095],["verkrachting",-11.123134418857434],["wond",-11.12330866288199],["spier",-11.123727594413857],["breder",-11.123853709133769],["families",-11.123926972358696],["extreemrechts",-11.124298375634401],["slepen",-11.12458139547376],["orry",-11.124701998978413],["achterban",-11.12483771680236],["gevel",-11.124952407534746],["stukjes",-11.125082182166572],["omgekeerd",-11.125173667840793],["Grieks",-11.125179397383665],["steunt",-11.125256491361924],["Klop",-11.125510737596315],["info",-11.125661187479919],["biertje",-11.125846103334926],["vriendjes",-11.126141710078775],["bommen",-11.126474003382526],["lijstje",-11.127086746427636],["voorgesteld",-11.12823466901865],["verplichte",-11.128352212318372],["84",-11.128481895488951],["bemoeien",-11.128753212963682],["trekker",-11.128813842213374],["strategische",-11.130230666882362],["1500",-11.130248575331382],["atlete",-11.13107365063916],["rijders",-11.131470896871171],["Camb",-11.13175255336394],["uitgedeeld",-11.132016120035725],["ang",-11.132022042572483],["tour",-11.132112101252556],["Marie",-11.132317182200836],["Lu",-11.13255306536455],["besef",-11.132729220670878],["350",-11.132775497736342],["Beet",-11.133144037636985],["vogel",-11.133295566289451],["leugens",-11.133865247559635],["koppen",-11.134009070432974],["benoem",-11.13420371436179],["knuffel",-11.13443813218309],["cruciaal",-11.134727761751584],["varkens",-11.134851190092867],["leuker",-11.135237635802287],["wethouders",-11.13526960294135],["vee",-11.13558252368636],["Staats",-11.13588828152503],["Bern",-11.13595711918154],["ergste",-11.136145856354986],["verliet",-11.137126044604376],["verpakking",-11.13716532398442],["stort",-11.137394215531078],["gered",-11.13749061442967],["lezers",-11.138208356424913],["ingericht",-11.138213460499834],["oprichter",-11.138334669315238],["ontken",-11.138683826074871],["verslaan",-11.139083123415162],["cilinder",-11.139093412822497],["robot",-11.139382738458616],["afgelegd",-11.139423275455243],["ambte",-11.139853680860947],["Amerikaan",-11.13985570155521],["kunstenaar",-11.139905091699053],["Store",-11.139957509515517],["Wh",-11.140254555969953],["behaald",-11.140469632128884],["ëren",-11.140525729242352],["gebruiker",-11.140690953519336],["zesde",-11.141165342065696],["geïnteresseerd",-11.141179946615969],["duw",-11.141300166433236],["dia",-11.141372277855352],["egenwoordig",-11.142394565144626],["dansen",-11.142579214981076],["reikt",-11.143775791553919],["mat",-11.144220205417618],["bewuste",-11.144420921433543],["900",-11.14505788958731],["exempla",-11.14516328021147],["erachter",-11.145727459396294],["Prima",-11.145761380274914],["Vrouwen",-11.146199455101497],["noch",-11.146376587492512],["versnelle",-11.14695314052821],["SV",-11.14719315619323],["dankbaar",-11.14738051042379],["bespreek",-11.147594248293778],["liedje",-11.147808096726413],["neef",-11.148311206165829],["opgebouwd",-11.148783350406177],["container",-11.14883466675755],["79",-11.149591773991125],["án",-11.149650304176163],["brieven",-11.149964636264027],["gemeentelijk",-11.150195989252053],["450",-11.150208861014463],["besprek",-11.150245412207795],["geschote",-11.150261149277647],["pa",-11.150857268180486],["bu",-11.150982164272527],["Christ",-11.151050427560724],["complexe",-11.151170471697938],["Bel",-11.151847879516708],["Ham",-11.152089934234185],["onderscheid",-11.152169278439402],["instrument",-11.15281082342125],["duurde",-11.152966499820089],["versterken",-11.153034698311744],["verbinden",-11.153193103421444],["aanbieder",-11.153226553010775],["maaltijd",-11.153938255224583],["zwem",-11.154445017231257],["óó",-11.15460351361317],["patroon",-11.154984456460209],["restaurants",-11.155083725121127],["verdeling",-11.155097910988555],["Amersfoort",-11.155129254978927],["plaatselijk",-11.155315399145342],["immuun",-11.155390316023682],["zorgvuldig",-11.1553903179639],["Koninklijk",-11.15539032131078],["kliniek",-11.155391576771288],["problematiek",-11.155391981231041],["commandant",-11.15539536441147],["Beleggers",-11.155403828330785],["geheugen",-11.155411097276232],["Space",-11.155417468762582],["letten",-11.155422237499742],["Nationaal",-11.155423432461046],["dictator",-11.155436276900021],["AOW",-11.155461328084264],["Cherson",-11.155543534698175],["renteverhoging",-11.155619468902124],["ambassadeur",-11.155694724920732],["islamitisch",-11.15570821184867],["studies",-11.155765524046332],["bitter",-11.155810945761544],["creatieve",-11.15607001211102],["huurwoning",-11.156140056524125],["zwaargewond",-11.156171992662244],["geopolitiek",-11.156275570970351],["voorspelling",-11.156439897892211],["polder",-11.156481287793245],["Mal",-11.15705910891132],["oo",-11.1571578888421],["protesteren",-11.157251107127987],["Zit",-11.15732457452175],["geestelijk",-11.157417222762712],["Drenth",-11.15751931583566],["Egypte",-11.158329638674152],["Amsterdammer",-11.158404052946384],["Mike",-11.159073106874782],["west",-11.159707362059411],["fit",-11.15978688203337],["regenbui",-11.16012327655929],["opname",-11.160420709350442],["59",-11.160544250100457],["Meerder",-11.160824796800703],["enquête",-11.161022982176055],["Mah",-11.161826532600717],["akken",-11.16222037543122],["dame",-11.163320040149626],["leken",-11.163477033503439],["reaguurders",-11.163614960864882],["ation",-11.16382577028909],["Kar",-11.164165377189384],["Valt",-11.1642744486759],["vers",-11.164280090849214],["Filip",-11.164482870740544],["kopje",-11.164663814909542],["baat",-11.164937617511937],["scheiding",-11.165100892868773],["gemeenteraads",-11.165272652835915],["groenten",-11.165479429062012],["Ok",-11.16608214010113],["versche",-11.166272803751149],["web",-11.166898112711488],["verwoest",-11.167230510434134],["tool",-11.167276842424938],["lor",-11.167717457225592],["welvaart",-11.167864885676064],["rellen",-11.168102831093538],["streng",-11.16834343267498],["gehakt",-11.168884204390832],["rijtje",-11.169373557745114],["Oorlog",-11.17098481899853],["zong",-11.171291033472588],["kunstenaars",-11.171410498284569],["Hitler",-11.171560664481841],["chema",-11.172188235154525],["SE",-11.173003794060886],["viert",-11.173555955532482],["handeld",-11.173769089288898],["monster",-11.173960671545343],["IV",-11.174038133257321],["medisch",-11.174473233473655],["ion",-11.175022124412957],["ova",-11.17550001671153],["baal",-11.17576601272442],["penbaar",-11.17579720151357],["ST",-11.175833425633718],["Sun",-11.175878186997389],["rado",-11.175923583334106],["stopte",-11.176161929024802],["BV",-11.17665827449642],["My",-11.177409830712083],["DP",-11.177823061473926],["voerde",-11.17784956292628],["belandde",-11.178156741871389],["lobby",-11.178232698602045],["volg",-11.178257779681791],["Rog",-11.179085620478407],["buitenspel",-11.179169010215668],["zuinig",-11.17930253916208],["MG",-11.17936395084709],["woningbouw",-11.179484653373155],["Engel",-11.179899156777735],["assist",-11.180257599867804],["verzin",-11.180410769676536],["excu",-11.18057100603495],["schaamte",-11.180643713878915],["Hou",-11.181111458384766],["openlijk",-11.181415315344127],["verwerkt",-11.181555733564625],["Von",-11.182467584716775],["midde",-11.182623864253065],["besmette",-11.182909318712815],["PV",-11.183116619528208],["externe",-11.183689521033001],["dreven",-11.183795416236572],["Che",-11.183825180850716],["schaars",-11.184093883582442],["Stad",-11.18477439266735],["emissie",-11.184926801706021],["vreten",-11.185951438959947],["mmers",-11.186054203029567],["bestorm",-11.186584938204419],["groepje",-11.187144880820835],["Sam",-11.187782388435139],["moeders",-11.188062050705],["ruimtes",-11.18812432482886],["Ooi",-11.188617627902733],["present",-11.1887118606039],["mits",-11.188766426664003],["bril",-11.189702271813996],["genaamd",-11.18971973165768],["bood",-11.189784965101493],["introductie",-11.189801383995167],["verbazing",-11.189863120480704],["logistiek",-11.189873137388625],["symbool",-11.18987315802475],["avontuur",-11.18987340917046],["Senegal",-11.189879104125216],["attractie",-11.189886508995153],["frustratie",-11.189890152245454],["Ziggo",-11.18989819862545],["stimuleren",-11.1898991144171],["chemisch",-11.189903228497345],["humanitair",-11.18990696487872],["strafrechtelijk",-11.189963769838542],["comité",-11.189974968067785],["lengte",-11.189983748288888],["NASA",-11.18999507753537],["regisseur",-11.190002700182992],["Golf",-11.190005280697944],["professor",-11.190022151954091],["gouverneur",-11.190062819707425],["glazen",-11.190067795146525],["NFT",-11.190123994859691],["McLa",-11.190133823142661],["Heijn",-11.190179155567023],["Excels",-11.19020067493158],["Vuel",-11.1902209719559],["Rabo",-11.190226412225327],["structureel",-11.190290386334592],["hardware",-11.190326927127018],["180",-11.190438219875125],["kuu",-11.190479545655036],["bezetting",-11.190498848884737],["plusser",-11.190589722838054],["gold",-11.190655512412475],["nationaliteit",-11.19129925707156],["bested",-11.191354650445925],["verlenging",-11.191514382428679],["ontkenne",-11.191615789065418],["mama",-11.191775452460043],["bevestigde",-11.191983942128019],["versloeg",-11.192047482264236],["Stop",-11.192050518639707],["mbledo",-11.192170373917483],["geschat",-11.192223962930829],["zitter",-11.192227521566915],["doelwit",-11.192273384601878],["Beter",-11.192526692036742],["verbeterd",-11.192534370786598],["Sara",-11.192615671602024],["handje",-11.192646292442104],["ders",-11.192870864723945],["Luik",-11.193333063567737],["Minder",-11.193807535405806],["triest",-11.193960457983364],["tijdig",-11.193966839560714],["voorspellen",-11.194064103647193],["verslag",-11.194588224677377],["Sven",-11.194702299429792],["geten",-11.19509207099873],["process",-11.195349234304842],["strijden",-11.195754353426754],["deskundigen",-11.19589232601552],["geweten",-11.19607245899182],["pond",-11.19641671028208],["Lil",-11.196728491219686],["geschikte",-11.196851951997697],["kranten",-11.197369437556095],["levend",-11.197610575633806],["Duits",-11.197647549347643],["Anton",-11.197831343371634],["sticker",-11.197862409988346],["Hart",-11.198452483652455],["handhave",-11.19845973686067],["geliefde",-11.199703745570805],["Scha",-11.20068776027233],["schijt",-11.201016359256654],["vernietigen",-11.201179628350854],["diepe",-11.201362732965071],["geklaag",-11.201377728857244],["stemde",-11.201787090244219],["kist",-11.202681891891338],["Ar",-11.202700023332126],["opgemerkt",-11.202798213027021],["rnacht",-11.202815010001661],["loods",-11.205437507625946],["zaamheid",-11.205790096000582],["particuliere",-11.205808993679252],["automaa",-11.205948664173695],["motoren",-11.206060624882838],["schr",-11.206245815825042],["pompen",-11.207126740918712],["Wa",-11.207306165813671],["gaard",-11.207536502996351],["sorry",-11.207625646447038],["menig",-11.207667040238283],["puzzel",-11.207766023253281],["zevende",-11.208069493306153],["waai",-11.209268494207407],["personeels",-11.209359319463221],["favoriet",-11.209557172612126],["onverwachte",-11.209675596394037],["duurzaamheid",-11.209681274646432],["toeval",-11.20992331905638],["tickets",-11.21052750837765],["grijp",-11.210531148375281],["inzittende",-11.210647700876518],["Steen",-11.210852712217447],["uitzonderlijk",-11.211327610350992],["eindigen",-11.211475958609713],["oontje",-11.211487273714392],["mislukte",-11.212077191432492],["!\"",-11.212249100590174],["Sal",-11.212763092808514],["platen",-11.213416983231133],["vulling",-11.213521674283482],["tand",-11.213683945307382],["blind",-11.213991120110709],["warming",-11.21470443413256],["86",-11.215199842354002],["Anna",-11.215291644435055],["verbaas",-11.215676328336473],["voetbalclub",-11.21595360343606],["vandaa",-11.216070974722989],["plege",-11.216365020182739],["lon",-11.216496775718362],["Pa",-11.2166759571332],["Fries",-11.218354587259444],["veer",-11.219367326707303],["Tel",-11.21954253658613],["kens",-11.219852881174864],["nadeel",-11.220330169776602],["schandaal",-11.22066308946751],["ondernemen",-11.22202007666818],["bouwt",-11.222172076510248],["uitgebreide",-11.222190851015105],["cross",-11.222500680514575],["wal",-11.222719830365829],["bescherm",-11.222903977694044],["waarschuwen",-11.22295327971117],["kostte",-11.223000381234638],["voorspeld",-11.223034609530412],["schop",-11.223363835714048],["jas",-11.223387794461809],["Ring",-11.224012014319989],["gevierd",-11.224137439846357],["Terug",-11.224510073518168],["medium",-11.224795973418807],["verdiende",-11.224916741667688],["erkenning",-11.225200672037198],["Test",-11.225406392799734],["muzika",-11.22546289292736],["sessie",-11.225572003759668],["speech",-11.22558832995592],["reality",-11.225588658589647],["bibliotheek",-11.225589670341508],["criminee",-11.225593468352816],["verdenking",-11.225603157912627],["evaluatie",-11.225606596964557],["onference",-11.225626511535404],["publicatie",-11.225637018202255],["volstrekt",-11.22564207787855],["tweedehands",-11.225645534961458],["Familie",-11.225654268086165],["lunch",-11.22566271509616],["fragment",-11.225679354567449],["radar",-11.225701097342675],["veiling",-11.22570378656825],["talkshow",-11.225704949430398],["Alpin",-11.225723690412433],["Ryan",-11.22576909545579],["VTM",-11.225778227345984],["WO",-11.225910953204105],["schorsing",-11.22594436610905],["rivier",-11.226134205148309],["Eva",-11.226302138271445],["expositie",-11.22633276895603],["Ziekenhui",-11.226422727461852],["vervanging",-11.226566315103653],["revolutie",-11.22665090980338],["Bakker",-11.226674026222978],["Janssen",-11.226695833744527],["gezondheidszorg",-11.22674876924222],["VID",-11.226883590235667],["potje",-11.227058084905586],["racle",-11.22715940558895],["Meijer",-11.227662428076819],["bit",-11.227773029013418],["paleis",-11.227888585147248],["badkamer",-11.228383943343259],["benoemd",-11.22844854557464],["Christen",-11.22862717670912],["Pé",-11.228629352688499],["pure",-11.228629837204032],["Peet",-11.228682890749864],["feestelijk",-11.228716635859545],["versneld",-11.229025911945946],["ingeschakeld",-11.22909913556604],["Bayer",-11.229484384344476],["prikk",-11.230326461821672],["Federal",-11.230451229596042],["mbo",-11.230768669781543],["getrouwd",-11.230928075600605],["run",-11.231804488627652],["Big",-11.231927569541142],["verlengd",-11.231967091588377],["rooster",-11.232400019114962],["Star",-11.232404996852704],["kogel",-11.232522213250988],["laad",-11.232620232208442],["geproduceerd",-11.23265268414153],["opstand",-11.233269265964589],["modu",-11.233383101870995],["langdurige",-11.233625691976908],["schakeling",-11.233761714814605],["koffer",-11.233994013454431],["ingesteld",-11.234145484578299],["bedden",-11.234208425466791],["tests",-11.234573851244951],["Prijs",-11.234782421263208],["eilanden",-11.235073634846662],["vlot",-11.23517282338676],["stoer",-11.235249554444712],["RB",-11.235271079272916],["Haas",-11.235526362287558],["Limburgs",-11.235732787992545],["erland",-11.236131518178961],["regenboog",-11.236255419057736],["bereikte",-11.237617962837364],["zakelijke",-11.238222978162064],["pit",-11.238482085303403],["kassa",-11.238746831494172],["gooit",-11.238931121006505],["koper",-11.238951552733033],["shirt",-11.239358916945081],["gelanceerd",-11.239407879893717],["nagedacht",-11.240113426070373],["feite",-11.240404720689842],["gekke",-11.240524295804454],["AH",-11.240613117669508],["Ub",-11.241272474222637],["parkeer",-11.241277523456212],["PF",-11.241330982489362],["ontvlucht",-11.241701839040587],["schaffe",-11.241733447597642],["evolutie",-11.241906510519335],["Cel",-11.242323757982403],["camping",-11.242685617185584],["krachtige",-11.24282738227796],["download",-11.24302763374543],["hoven",-11.243443424811527],["zwanger",-11.243564859008343],["beloofd",-11.24363286699252],["MA",-11.243669822485716],["buis",-11.243849673858548],["Natie",-11.24424470199648],["weekeinde",-11.244289139252098],["MR",-11.244425350611456],["ië",-11.245076477912813],["lezer",-11.245077411609671],["therapie",-11.245972726390999],["Gerrit",-11.24603745237132],["gaaf",-11.246927081297798],["Just",-11.247060114784148],["miljardair",-11.24724621873931],["afwezig",-11.247288566734891],["storten",-11.247510043552653],["aanvoer",-11.247935561951564],["buien",-11.248073359301442],["dy",-11.248364049511313],["bestur",-11.24858728966115],["flessen",-11.248616304671877],["back",-11.248959167576409],["grootschalige",-11.249040754351288],["keeper",-11.24917455129826],["Sams",-11.2492059431802],["gebruikelijk",-11.24961986263203],["geslacht",-11.249732546749126],["wo",-11.250777077329788],["spuit",-11.25117710450396],["che",-11.251782371342937],["doek",-11.251971186270106],["bloot",-11.25202456405859],["82",-11.252099980066362],["verbrand",-11.252160320630162],["wijd",-11.252455433711283],["passie",-11.252578489436441],["leraren",-11.25263367675373],["lampen",-11.252638843191072],["vliegt",-11.253028222436841],["aannemer",-11.253195642696529],["krap",-11.253305761872829],["bovenstaand",-11.25409598337538],["Kies",-11.254466077261647],["ard",-11.254596300058948],["eur",-11.254671953726133],["tak",-11.254700106733187],["Internationa",-11.254864032001512],["shop",-11.25544179815062],["AF",-11.256091795408741],["onschuldig",-11.256499270094405],["schadelijke",-11.256780685091362],["Las",-11.25682276439658],["age",-11.257995572653378],["dachten",-11.258475701951152],["verdwe",-11.258716398452053],["belangstell",-11.25873449246683],["lenen",-11.25873699654267],["wachting",-11.258775535694937],["cirkel",-11.258877301139322],["star",-11.258944550141031],["SC",-11.25983750561702],["war",-11.2599632832467],["horst",-11.260115397846626],["idd",-11.260620942653576],["epol",-11.260678366409463],["HR",-11.260918119361087],["versoepel",-11.26119717726487],["Moeder",-11.262077977825555],["ouwe",-11.262121029597127],["Stream",-11.262157796279823],["Roemeni",-11.262360204224594],["depressie",-11.262433179662537],["hernieuw",-11.26254340698348],["—",-11.26262439516668],["Festival",-11.26262439544692],["Studio",-11.262624412382726],["Hongkong",-11.262624453589746],["Milieu",-11.262624690884845],["continent",-11.262633014793028],["cash",-11.26264359407175],["Centrum",-11.262648280462706],["boycot",-11.262655063687411],["Oscar",-11.262684637330707],["koel",-11.262789062202035],["ARN",-11.262796657477137],["streven",-11.262803371717403],["hausse",-11.262831721373555],["geëist",-11.262872111935977],["uniform",-11.26288199207375],["Dick",-11.262901825104109],["conferentie",-11.263177696748254],["Gerard",-11.263219213425419],["hub",-11.263450346197498],["geschrapt",-11.263485171920387],["Slot",-11.264169542817688],["eenmalig",-11.264343065513765],["Rotterdammer",-11.264348948904455],["vastgelegd",-11.264395888454041],["Blind",-11.264437994145942],["natuurgebied",-11.264498240681702],["Mars",-11.264781824588638],["feitelijk",-11.265082431450605],["uitgezet",-11.265173567030658],["basisschool",-11.265443498778271],["krediet",-11.266072611816401],["kantoren",-11.266144628388588],["Gir",-11.266247722407133],["European",-11.266616977961077],["massale",-11.26693300574025],["bestuurlijk",-11.267195274545044],["terreur",-11.267634732163412],["omring",-11.267688927471045],["MH",-11.267764945218094],["ondervind",-11.269493643483347],["werven",-11.269617379564927],["Houd",-11.27065045125351],["vermist",-11.270968352564672],["can",-11.27114464698598],["blond",-11.271405631098492],["hoefde",-11.271698156488014],["Bal",-11.272079854127895],["deeltjes",-11.273425238030462],["grondig",-11.273488292072713],["behal",-11.273491784397823],["sparen",-11.273664317995628],["opbouw",-11.273854503374082],["Bob",-11.274354099701625],["Matt",-11.274811272888247],["Am",-11.27489616892177],["Koop",-11.27501087181654],["tekende",-11.27555095922273],["Tor",-11.275882264487503],["AP",-11.276043641178216],["Lee",-11.276285677921637],["ghan",-11.276735265842506],["pet",-11.277076752753821],["schreeuwen",-11.278132208012495],["secretaris",-11.278409915877178],["vecht",-11.279137078058941],["rechtvaardig",-11.279761835747998],["uitstel",-11.280035315494263],["Wijn",-11.280073478370163],["arme",-11.280457848123058],["torenho",-11.280691805436692],["Francisc",-11.28072657972711],["faillissement",-11.280947840073743],["repen",-11.281831645781791],["Weg",-11.281842759241696],["divisie",-11.282310195214423],["Ley",-11.282984668293086],["inspiratie",-11.284169852924366],["kleuter",-11.28434815604097],["kstra",-11.284403434772413],["wappie",-11.284705382886115],["congres",-11.284930106136983],["keel",-11.28532515363649],["beweer",-11.28550548544275],["bedank",-11.285900759364647],["oordeelde",-11.285918124549111],["Westers",-11.287185223655989],["my",-11.287257497872012],["nauwkeurig",-11.287375556695718],["Plan",-11.288061185390633],["moraal",-11.28822091086286],["release",-11.28880058002599],["Est",-11.289081874341257],["wieler",-11.289103544645105],["concre",-11.289151721834202],["explosief",-11.289228819717714],["Waal",-11.289586466655894],["voorkom",-11.289647231635819],["head",-11.28989813575637],["klim",-11.289947591486834],["Ecuador",-11.28999606461179],["lente",-11.290219912451441],["breid",-11.290256454087578],["Take",-11.290319775322939],["zielig",-11.290473950228826],["pikke",-11.290480865638628],["strategisch",-11.291397591765316],["Democrati",-11.29143756831021],["schapen",-11.291737994896934],["ongelijk",-11.291867956999958],["03",-11.292754456799505],["structuur",-11.293238203160644],["plas",-11.293294982155002],["Lei",-11.294179556870144],["poten",-11.294376288471081],["zwangerschap",-11.295953008151843],["blog",-11.296164214105582],["Marine",-11.29633879546341],["steen",-11.296490343832378],["91",-11.296715234303374],["NC",-11.296942130095934],["kapitaal",-11.29729269630551],["maag",-11.297307514957723],["gewisseld",-11.297427529727045],["schone",-11.297823317979512],["groente",-11.298295608129813],["kussen",-11.299480790070263],["minimum",-11.299493319856309],["voorziening",-11.299525906996243],["worst",-11.299934644394469],["intensieve",-11.30007142645985],["bezuinig",-11.300199464199316],["Daarin",-11.300489119109765],["concentratie",-11.300618557254822],["koepel",-11.300691316421544],["examen",-11.300880870443276],["corrupt",-11.300931829589452],["expliciet",-11.301085933628654],["Curaçao",-11.301085933630231],["parcours",-11.301085933696175],["Californi",-11.301085941905303],["adviser",-11.301086202821036],["Tokio",-11.301094909311251],["eenzijdig",-11.301095786434464],["reputatie",-11.301109800570009],["Zelenski",-11.301114007365602],["Quick",-11.301122855334214],["artillerie",-11.301123562979178],["elektronisch",-11.301124304579735],["mentaliteit",-11.301128703349967],["begraafplaats",-11.301130321796023],["donatie",-11.301131494230845],["dialoog",-11.301132783493221],["renovatie",-11.301138457420581],["display",-11.301179468732855],["Jones",-11.301186840685366],["regie",-11.301188154186638],["gemengd",-11.301193888451618],["Russell",-11.301234458594875],["individueel",-11.301277644548685],["NRC",-11.301277828997922],["aanbeveling",-11.301288146903785],["beleving",-11.30132333528659],["invoering",-11.301424963647722],["89",-11.301461984037529],["akpo",-11.301510235023665],["paus",-11.301543395738896],["big",-11.301547930219334],["VAR",-11.301554604161172],["grafiek",-11.301805888783804],["stilstand",-11.301874769960968],["importeren",-11.301964840656721],["Walter",-11.302063288826933],["item",-11.302067294873364],["persbericht",-11.302439519509319],["Depp",-11.302506623932931],["Blijf",-11.302591559191779],["bezighoud",-11.302895403730624],["Wageningen",-11.30332535349946],["Colleg",-11.303325361231588],["woestijn",-11.30336951713075],["amateur",-11.303491486047678],["verbruikt",-11.303871216636294],["leerde",-11.304112807042063],["verspreiding",-11.30412236074738],["Theo",-11.304304380239277],["woonwijk",-11.304410667342605],["truck",-11.304463849949354],["Duivels",-11.304680169292851],["Niels",-11.305342988552981],["Brand",-11.306333382481753],["verliep",-11.306452391356416],["buit",-11.30648070256711],["tablet",-11.306720585729916],["financier",-11.307476626726702],["ri",-11.307817707265617],["plekje",-11.307871352435662],["benadrukte",-11.30806742089423],["AA",-11.308821559758636],["stokje",-11.308874072310644],["Peters",-11.308888582636705],["Thier",-11.30910374023016],["zeik",-11.309184316847166],["ondersteund",-11.310446235571817],["verse",-11.310766009465205],["Nada",-11.311015381251817],["blokken",-11.311040353903028],["Volod",-11.31120203371487],["puin",-11.311293595575922],["eco",-11.312255284231036],["fiscal",-11.312775599464674],["weergave",-11.313180973619547],["stikke",-11.313402515731134],["wolde",-11.314196550702853],["Wees",-11.31457371547041],["nier",-11.314956000268333],["wetsvoorstel",-11.315231986450247],["talige",-11.316042092935644],["196",-11.316425247985064],["han",-11.316488426816033],["grootte",-11.316736075261653],["aire",-11.317148639149806],["87",-11.317270812436488],["levenslang",-11.317557674901662],["wille",-11.3177174515834],["Roos",-11.318187663367684],["dwang",-11.318394440177078],["rommel",-11.31889990290474],["stam",-11.319189508687534],["Mont",-11.31952567964363],["staart",-11.319596984024365],["nvesteerd",-11.31967906447135],["uiterste",-11.319735097220715],["machts",-11.319764462716591],["zucht",-11.31986790878878],["Algeme",-11.320953423645994],["Volt",-11.321244202765065],["Ton",-11.321422367321636],["Light",-11.321640779674812],["Demir",-11.321983854821806],["beheers",-11.322334996790971],["roman",-11.322854173690342],["versterking",-11.323255541781261],["handhaving",-11.323266829331029],["inlever",-11.323267252359916],["weeg",-11.32350631114181],["roer",-11.324002864713346],["verwerken",-11.324028482373006],["helden",-11.324038335125943],["Hasselt",-11.324091624556381],["JA",-11.324375967191527],["Loe",-11.324410077366295],["ontdekking",-11.32453485495349],["mondkapje",-11.32459089201091],["Veiligheid",-11.324597844771585],["talenten",-11.325009171502922],["Ji",-11.327721127859833],["bezet",-11.327892856759634],["sleep",-11.328001520552021],["ego",-11.32874504296995],["stroming",-11.329913975091527],["mé",-11.330345143434355],["ashing",-11.330442129454207],["heilig",-11.330668857804454],["onderuit",-11.330806610406468],["verzekerd",-11.330946109912539],["katholieke",-11.33141830730782],["Not",-11.332113243210344],["bestaand",-11.332640770942916],["con",-11.332787501809104],["kondig",-11.33297633281319],["gedood",-11.333882123376798],["Richard",-11.334219841657772],["Rock",-11.334397555622003],["hack",-11.334577008290058],["maten",-11.335536877419592],["deugen",-11.335627587081795],["wisseling",-11.335812217644964],["fietspad",-11.335857844326787],["yr",-11.336631856694805],["vernieuwd",-11.336863868133104],["zuidelijke",-11.33697528771213],["intern",-11.337937855048771],["strook",-11.338435351893756],["verkracht",-11.339195848178464],["vorst",-11.339437946928005],["mobilis",-11.340001058356574],["drempel",-11.340036222315204],["knappe",-11.340141032635781],["structure",-11.340547672818266],["geduld",-11.340662274872102],["reet",-11.34074941405717],["personage",-11.340906209753236],["verdieping",-11.340995248871053],["Haarlem",-11.341021610480617],["business",-11.341075538514943],["É",-11.341085933627586],["Kardashian",-11.341085933628268],["demonstreren",-11.341085933877782],["vreugde",-11.341085945238392],["asfalt",-11.341086213417658],["herhaling",-11.341086333596156],["criteri",-11.341086980144755],["Bitcoin",-11.341087518071976],["America",-11.341087724415685],["scène",-11.341090053613707],["motivatie",-11.341095123751698],["Leeuwarde",-11.341139571772139],["macro",-11.34117581584248],["Randstad",-11.341182196008349],["imago",-11.341182454689948],["Stijn",-11.341209782260353],["Lely",-11.34122434109293],["Sky",-11.34122968598094],["Veiligheids",-11.341241759633663],["kermis",-11.341280278445904],["handtekening",-11.341314131893693],["willekeurig",-11.34135044783188],["Bedrijven",-11.341381649144427],["verzuim",-11.341398172537321],["Voetbal",-11.34146106975616],["cannabis",-11.341484838906915],["vieze",-11.341527096712793],["Tiel",-11.341560527326196],["brandstoffen",-11.341584826209345],["tactiek",-11.341685583160288],["veroordeling",-11.34172532463233],["technologisch",-11.341801491634588],["masker",-11.341820806300532],["hypotheekrente",-11.341855433279886],["suggestie",-11.341876928169274],["full",-11.342236604450495],["verplaatsing",-11.342252596914879],["symbolisch",-11.342294204462771],["moed",-11.34233899625162],["aflopen",-11.342441893798501],["tankstation",-11.342475082773806],["kernenergie",-11.342485840149795],["Pay",-11.342488924638063],["mannelijk",-11.342531228210795],["honderdduizend",-11.342778715723489],["hol",-11.3428297020829],["stempel",-11.343014716638548],["parlementair",-11.343466580652123],["omwonende",-11.343921488528444],["fuck",-11.344493491190716],["Groene",-11.34543191974393],["achtig",-11.345708697641516],["rennen",-11.34579891524633],["invoer",-11.346055596503582],["werf",-11.346832433267132],["blank",-11.348069069305978],["getuig",-11.348236227418642],["aftrap",-11.34866930775899],["stelen",-11.348861640500473],["klem",-11.350064480838371],["Ur",-11.35017730655015],["betrouwba",-11.350255730775718],["efficiënt",-11.350275287989874],["AB",-11.35033691906569],["Ligt",-11.35042688474366],["miste",-11.350522156985734],["83",-11.351253972836572],["ya",-11.352439675127966],["allereerst",-11.353101486899456],["Roy",-11.353413784780134],["Brun",-11.353620163550795],["Game",-11.353626793555783],["houdbaar",-11.353693578066625],["eenvoudige",-11.35371090348957],["bewoner",-11.353897797075511],["arbeid",-11.354276096709675],["Vera",-11.354683727738083],["lam",-11.3550785387693],["que",-11.356379298939842],["juichen",-11.35673345351559],["Cor",-11.357069637034162],["May",-11.358147650405684],["Lier",-11.358333643650203],["Jaren",-11.358441923751446],["Dome",-11.359438445014817],["Gu",-11.360152872257895],["regerings",-11.361253714347038],["klik",-11.362447482614183],["lei",-11.362894711792762],["mails",-11.363173588474757],["praatje",-11.363193866290773],["haken",-11.363259442606552],["plaatjes",-11.363430647411045],["rukt",-11.365259495978005],["financiering",-11.365501873802314],["bankier",-11.365645650184922],["Luka",-11.3659183322839],["vergoed",-11.366575185957116],["herdenking",-11.366600357139191],["Kamp",-11.36671616706263],["diploma",-11.36759706035643],["deskundige",-11.368264541319048],["Vo",-11.368353718395241],["anno",-11.368592486417551],["begrijpelijk",-11.368622824212812],["ong",-11.369244711869428],["regelgev",-11.36931742564149],["schoen",-11.369558420552663],["jonger",-11.369734437590377],["Ab",-11.370039431627628],["stoom",-11.370238370258416],["danig",-11.370396346727713],["fusie",-11.370945260313151],["Surinamer",-11.370968402762637],["Agent",-11.371095157913643],["gedicht",-11.371253435478355],["overduidelijk",-11.372141089912523],["nieuwbouw",-11.372336372502975],["erkend",-11.372450530206173],["gevoeld",-11.372725901094222],["langdurig",-11.373428084629928],["bijstand",-11.373577741955202],["haren",-11.374089535966528],["sters",-11.374402384229635],["Volgend",-11.37510404912686],["Nova",-11.375161213403498],["erkende",-11.3756944523119],["AT",-11.375856158537996],["tassen",-11.37620153306688],["binnenlands",-11.376262518882426],["''",-11.376427244959054],["Ferr",-11.376694552419263],["uitkom",-11.376814593717096],["ier",-11.376867978505066],["gooi",-11.377150212314447],["Saoedi",-11.377181634758767],["ym",-11.377323330297676],["assen",-11.37822203433312],["zonnige",-11.37837342232764],["beest",-11.378970443399826],["menu",-11.379013082313898],["heldere",-11.379202747269993],["oorlogsmisdad",-11.380784402685023],["ros",-11.380879759003031],["besliste",-11.38139062893284],["sius",-11.381561186367483],["neutra",-11.381567675078099],["Sander",-11.381747292982757],["beweeg",-11.382171418687948],["haalbaar",-11.382203547266252],["presentat",-11.382493574800883],["waanzin",-11.382561951505657],["discipline",-11.382752600298767],["confrontatie",-11.382752605419016],["Gündo",-11.382752832992482],["oligarch",-11.382753015935643],["Mohammed",-11.38275330855522],["Dutch",-11.382753447499372],["Management",-11.38276066823931],["apenpokken",-11.38276169022963],["concurreren",-11.382761724970408],["Rafael",-11.382788462153346],["arrogant",-11.382794165887061],["referendum",-11.382803764975758],["bubbel",-11.382807230235759],["mondmasker",-11.382828869724937],["federatie",-11.382842033413217],["Jonas",-11.38286255690395],["intentie",-11.382898778372926],["Argentijn",-11.382911198716794],["functioneren",-11.382943780225396],["hekken",-11.382971276444321],["schommel",-11.38299613695943],["smerig",-11.383016985657868],["afschaff",-11.383035974160315],["ruimtevaart",-11.383095540194004],["exclusief",-11.383148682739272],["schijf",-11.383158213689201],["registratie",-11.38334910698996],["bez",-11.38336935900611],["wachtrij",-11.383493120110117],["Stree",-11.383494837004422],["tractor",-11.383574041120088],["mund",-11.3836861763309],["cruise",-11.383727115050966],["steekpartij",-11.383781983209344],["strijk",-11.384078636332188],["Gerw",-11.384150063791349],["parkeerplaats",-11.38415285426032],["campus",-11.384506822510208],["Strak",-11.384521496258289],["rolstoel",-11.384524171364909],["tijdstip",-11.384764002090463],["misdaad",-11.384816610145783],["snijd",-11.385116018621149],["01",-11.385168042728003],["(!)",-11.385173951550943],["riskeer",-11.38540383371606],["woordvoer",-11.385443508310672],["twitter",-11.385618064435477],["schatte",-11.386538964512962],["huurders",-11.386691598214238],["legende",-11.387338912882026],["straal",-11.387341758939685],["geble",-11.38759111988254],["landgenote",-11.387801029883414],["camper",-11.3878070989668],["Heist",-11.387892197348545],["verhoogde",-11.3879671824081],["intensie",-11.387976680372986],["Braziliaans",-11.388343361482788],["iloot",-11.38843410868531],["prikkel",-11.38863128709112],["afkomst",-11.388800510599589],["schudd",-11.38897574473673],["gebel",-11.389387568338105],["Dekker",-11.389483982537786],["Blijk",-11.389718677671706],["analist",-11.38972315957496],["boekje",-11.389761107566677],["day",-11.389990000897553],["bonden",-11.390702341843804],["Pol",-11.390721382147484],["erzijds",-11.39087755219255],["Pelo",-11.391085753699727],["verf",-11.391194552599668],["boss",-11.391870742524453],["uitbrak",-11.392584757233351],["gemeenschappe",-11.3927088006743],["Israëlisch",-11.392933623223026],["interactie",-11.393124014736344],["meters",-11.393378473399808],["falen",-11.393398203279075],["races",-11.393404612124183],["sluitend",-11.393842758215158],["Laur",-11.394084085654926],["Wever",-11.394994261419498],["balk",-11.395613007022554],["Home",-11.396070017685853],["ddy",-11.397433670978227],["verwarmen",-11.397699575653064],["Consumenten",-11.39794817660739],["UMC",-11.39805167547555],["oefen",-11.398094641924711],["musical",-11.398999806518134],["troost",-11.399428362359789],["bereken",-11.400685915693625],["Za",-11.400782908698666],["besparing",-11.401102321329338],["maals",-11.401328120081216],["ich",-11.401504354001341],["verrassen",-11.401509631461742],["voegde",-11.401545279735203],["wolken",-11.40229482274174],["Ukraine",-11.402436678887376],["zonde",-11.403100605941356],["presenteerde",-11.403292889775718],["minderjarige",-11.40449989167008],["NM",-11.405182363807455],["binden",-11.405731348519641],["populariteit",-11.406213884379069],["leefde",-11.406220571597816],["OK",-11.406302821830268],["particulier",-11.40640458677052],["Ieder",-11.406408443779181],["sterf",-11.407173247855797],["pijl",-11.40748745027937],["Winterswijk",-11.408063015086089],["fris",-11.408600234043844],["mmy",-11.408939777361413],["sentiment",-11.409273013149166],["overstroming",-11.40939577845287],["Wale",-11.409706104564801],["solidariteit",-11.409887585790793],["meren",-11.41001120475661],["cancel",-11.411850603258213],["ro",-11.412389164355474],["verdienmodel",-11.412448527173884],["Maz",-11.412981536014119],["privat",-11.413632753146102],["OP",-11.413745822473429],["enburg",-11.413959823309558],["kwalijk",-11.4139975349632],["verg",-11.41416629562683],["teelt",-11.41443872247709],["begeleiden",-11.41450491780896],["kraam",-11.414605376668904],["besteld",-11.414622454461439],["moedig",-11.415053693770085],["Kempen",-11.415256826090284],["gehoor",-11.415782559990062],["jongeman",-11.41588673596762],["át",-11.41593522945352],["Australia",-11.41613695100129],["ima",-11.416450113202211],["dramatisch",-11.416504870457112],["boy",-11.416557999478789],["lease",-11.4165586361151],["Hein",-11.416745661527289],["Bak",-11.416876750906386],["beta",-11.41698017082167],["bewegingen",-11.417564239280676],["draaide",-11.41770355152135],["Hear",-11.418393371765523],["verslagen",-11.41932172220934],["Vel",-11.419622573246619],["visum",-11.41972186113837],["kiezer",-11.41990076144048],["slechtste",-11.420361751907738],["Kerst",-11.421670669805359],["trekking",-11.421879611654582],["Delft",-11.423695742085005],["hype",-11.42383685693978],["gigant",-11.423940216395678],["mest",-11.423996853741677],["racist",-11.42435077027106],["kerel",-11.424493626816929],["offensie",-11.424686950591578],["kers",-11.42504768646931],["nipt",-11.425112057202911],["noten",-11.425213515585698],["grappen",-11.42570301702352],["gar",-11.4260645228705],["jubileum",-11.426230861173423],["diagnose",-11.426230906089009],["provider",-11.426230934155415],["marathon",-11.426230965923668],["licentie",-11.426231734464167],["korps",-11.426234434346608],["bombardement",-11.426239704037458],["toetreding",-11.426240245732492],["Heuvel",-11.426247362415413],["Autoblog",-11.426252425914463],["mededeling",-11.4262637506265],["absurd",-11.426267325031636],["correspondent",-11.42627908934314],["applaus",-11.426282293194248],["zuurstof",-11.426285322364343],["Theater",-11.426290025421448],["Suzan",-11.426290059831215],["Probeer",-11.426296493549659],["musea",-11.426299519333071],["Nijkerk",-11.426309513995223],["schuur",-11.426319132256967],["louter",-11.426358356941265],["ongelooflijk",-11.426380174036145],["ó",-11.426424396554193],["Hoofd",-11.426498113874203],["gewijzigd",-11.426501309092618],["dictat",-11.426506043480524],["loterij",-11.426551542381484],["trainers",-11.426607440264998],["tijdschrift",-11.426609128437462],["Kortrijk",-11.426627548379276],["tennisser",-11.426676699469244],["onacceptabel",-11.426694749866249],["Bommel",-11.426730511333448],["kloof",-11.42674497801458],["Noordzee",-11.426823782609965],["Gelre",-11.42687086763782],["merendeel",-11.426890564182887],["voorafgaand",-11.426902057520744],["gewapend",-11.426931143062749],["IND",-11.426979855778326],["perk",-11.427026321021632],["aanklager",-11.427074148735127],["pap",-11.427095769408487],["soep",-11.427101213378474],["webwinkel",-11.427187311724806],["genre",-11.427466408621306],["Mechelse",-11.427477470584812],["benoeming",-11.427638764281587],["fraaie",-11.427892618646137],["kolonial",-11.427952326494838],["korter",-11.428307625183898],["communistisch",-11.428447686280355],["verborg",-11.428482719234138],["gel",-11.428490839440887],["genez",-11.428504527603435],["Landelijk",-11.42850488514379],["poets",-11.428566666426228],["natte",-11.428790625765117],["anderhalve",-11.428800925264794],["insecten",-11.428904352329303],["bezette",-11.42920987624521],["billen",-11.429389331271816],["fluit",-11.429547800588198],["overweeg",-11.429707396126698],["burn",-11.42973885701135],["soldaat",-11.429839052394593],["wachtwoord",-11.429851913882684],["schepp",-11.429973834527836],["molen",-11.430067480749386],["lamp",-11.430683273990322],["Snap",-11.430892182037002],["document",-11.431622633196662],["train",-11.431651744370336],["Reken",-11.431677938936254],["veiliger",-11.431728076012595],["vuren",-11.431902273395096],["zakelijk",-11.432517531324896],["gracht",-11.433079391444002],["vernieuw",-11.433196123472886],["tekening",-11.433370695359296],["kunstmatig",-11.433747561449739],["roet",-11.433788006146589],["Boom",-11.433888164903797],["Les",-11.434045550485935],["Lucas",-11.434182214158906],["koek",-11.434431425625789],["efficiënter",-11.434632309653646],["ongelukk",-11.434706839648808],["Paris",-11.435715137700583],["onveilige",-11.435995281018654],["Stalin",-11.436019210645544],["Pim",-11.436519523488968],["piloten",-11.437080672189301],["machtig",-11.437674461823157],["Toe",-11.437737022101942],["aanklacht",-11.437831853208252],["stoot",-11.438430412306529],["DC",-11.438605910703862],["drankje",-11.439035229457401],["letje",-11.439865665111217],["Ont",-11.43993859342533],["beloofde",-11.440050385444952],["nny",-11.44006636026688],["Uw",-11.44045345690322],["Hal",-11.440684535708236],["gewenst",-11.440865059266509],["bijbehorend",-11.441779583619303],["vasthouden",-11.44200611412608],["nlangs",-11.442729097846732],["ara",-11.442783506501334],["mislukt",-11.443879259876791],["talen",-11.44477415364738],["stilte",-11.445261312687167],["vernietigd",-11.445504506008353],["pol",-11.445615982710777],["Direct",-11.445952700551683],["semi",-11.446832873748509],["WA",-11.446895846480626],["erry",-11.447245990483626],["ering",-11.449071288680221],["spin",-11.449427431084443],["resulteer",-11.449734714880686],["Camp",-11.450020192174978],["rijken",-11.450062404607397],["waarschuwde",-11.450664963090638],["tering",-11.450689964893687],["rek",-11.45130439173195],["essentie",-11.451633436184094],["egers",-11.452122317312398],["VW",-11.452559365237441],["opletten",-11.452771753270591],["studeren",-11.452862422594489],["Flori",-11.453094897284728],["ure",-11.453693754453163],["aardbeving",-11.453988825442273],["Els",-11.454109331122357],["asso",-11.454545996017886],["CP",-11.455096824709086],["overtuiging",-11.455146165340707],["leugen",-11.455176908703557],["Charle",-11.455888508535203],["dracht",-11.455895231523922],["kolen",-11.45612851856691],["inwoner",-11.456799853374417],["fatsoenlijk",-11.457466935873395],["gewaardeerd",-11.457840958494451],["Nij",-11.458321822850959],["2G",-11.45839543354815],["noodopvang",-11.458815683037457],["tegels",-11.459074038891481],["!)",-11.459093757338568],["wereldbeker",-11.460281606119441],["toeren",-11.46036630115003],["wekken",-11.46058606373573],["aanvang",-11.460962587106176],["190",-11.461866384836629],["vriendelijke",-11.46279836778389],["zakte",-11.46287591050687],["opvanglocatie",-11.462930132565464],["mac",-11.463085274584376],["vaardighe",-11.463632073737928],["verstopt",-11.463743921757032],["aardappel",-11.463745426429611],["opladen",-11.464553387867074],["kip",-11.464723138724402],["intens",-11.465441229282652],["belast",-11.465756433795287],["organiseerde",-11.465854711033218],["sterkte",-11.466156808172222],["Islam",-11.466612104535745],["Mer",-11.467222377765575],["zelfmoord",-11.467614549482624],["kleed",-11.467756552430401],["briefje",-11.467767356078962],["friet",-11.4693509491315],["afreken",-11.469925105268583],["ketting",-11.47003451732936],["reist",-11.470133209894657],["neerge",-11.47014855326524],["strooi",-11.470222599868851],["evenwicht",-11.470230182084533],["UW",-11.47052192722682],["Vader",-11.470836540334798],["vracht",-11.470867557411857],["origine",-11.470921113506733],["oorlopig",-11.471184230990154],["«",-11.471685406618997],["Kosovo",-11.47168540902416],["prestigieu",-11.471685415067483],["première",-11.471685419450964],["spektakel",-11.471686667954039],["Bureau",-11.47168897515579],["compromis",-11.47168905400351],["comeback",-11.47168951857732],["Cross",-11.471690975702767],["teleurstelling",-11.471696441561292],["delegatie",-11.471697365938489],["Kyiv",-11.471700089709854],["Muziek",-11.47170924726303],["conditie",-11.471709756528595],["compliment",-11.471719903981983],["kalender",-11.471720529808564],["slogan",-11.47174295122812],["Erasmus",-11.471748528328717],["Ridder",-11.471750700906348],["toerisme",-11.471755597971299],["onthulling",-11.471767424373539],["opzettelijk",-11.471817192213038],["uitnodiging",-11.471836023294795],["integratie",-11.47187901110259],["Daniel",-11.471914128389725],["kleedkamer",-11.471924539412509],["Aston",-11.471927715502456],["strepen",-11.47197177782817],["somber",-11.472008985305267],["domein",-11.472026857062184],["Wopk",-11.47207890092114],["enthousiasme",-11.472098056193913],["King",-11.472135212749233],["gegarandeerd",-11.472152866600098],["slaapkamer",-11.472209471032905],["wachtlijst",-11.472308557080215],["streamingdienst",-11.472631312107062],["Irak",-11.472719548492655],["rechtszaa",-11.47285420086198],["populistisch",-11.472951129323205],["Serge",-11.473015444276909],["Bram",-11.473058015086401],["Param",-11.473127449506027],["Sergi",-11.473161852930065],["voornaam",-11.47332508149775],["Joost",-11.473753361088718],["speelster",-11.473886125849598],["noordoost",-11.474110405004826],["dorps",-11.47413664562969],["Marcel",-11.474269357930563],["05",-11.474303229755066],["opereren",-11.475351691799926],["voorhand",-11.475429601682206],["speelgoed",-11.475522466039328],["slaaf",-11.475868379174006],["SL",-11.476063196290902],["passeren",-11.476152400585384],["Nor",-11.476945606966531],["felle",-11.477040162884983],["voorrang",-11.477086324270388],["vervelende",-11.47755696208009],["roi",-11.477646953804852],["Tata",-11.477985753876826],["mar",-11.47802461801388],["Bi",-11.47845825011316],["fundamente",-11.478477349823201],["LED",-11.478533184675385],["populairst",-11.478686341801616],["presenteer",-11.47914736819731],["issan",-11.479381389507004],["poll",-11.479519560368404],["cha",-11.47973551684272],["professional",-11.479762111890528],["harte",-11.479993564902909],["Arj",-11.480026327176665],["taks",-11.480129005262471],["Ch",-11.480129667551184],["gedraaid",-11.480282781674862],["Carolin",-11.480456098798326],["Marokka",-11.480478810806188],["rijder",-11.481091327874235],["93",-11.481157626949436],["Lien",-11.481187701375234],["Alex",-11.481315160226881],["krimp",-11.481491503019676],["Conn",-11.482019677534035],["bestemd",-11.482071955876647],["boei",-11.482469064885347],["Vleute",-11.482483885883003],["Eat",-11.48272769542709],["Vega",-11.482841815122557],["beleggen",-11.483464167507766],["oever",-11.483550901038958],["signale",-11.483667296155684],["vaardig",-11.483725172426569],["schutter",-11.48379050372708],["prof",-11.48409720188855],["wette",-11.484589120712084],["gunstige",-11.484611913326223],["Tur",-11.484811512658037],["misbruikt",-11.48490308358357],["Leeuw",-11.48511586711072],["uitmaakt",-11.485696237255961],["Day",-11.486323514407854],["aanstaand",-11.486586826924006],["minderheid",-11.486743770878096],["Royal",-11.48676000169185],["bewinds",-11.486933588030308],["werkers",-11.486968949444403],["FB",-11.487208178240385],["piet",-11.48754908690367],["CU",-11.488217973299179],["Ouder",-11.489357088138945],["klopte",-11.489419206776443],["ago",-11.489755160644782],["97",-11.48976027050276],["beschadig",-11.490156906622369],["Kost",-11.490171850083428],["Heer",-11.490276216955674],["voorwerp",-11.49032225820037],["Leg",-11.49044597887276],["pols",-11.490639618615361],["verover",-11.490752034116468],["vrijwillige",-11.491032030121502],["uijs",-11.491431380469338],["wappies",-11.491475596573704],["ervaart",-11.491926661311654],["Chark",-11.492245352362902],["bui",-11.492256197070887],["Democrate",-11.492281095997928],["benodigd",-11.49254329810818],["Free",-11.492823450457582],["gasprij",-11.493031430415414],["oorzake",-11.493402091955973],["houders",-11.493454019920971],["ire",-11.49354657156984],["unie",-11.493950437484568],["appel",-11.494011984292841],["ierre",-11.494212604630164],["scanne",-11.494283417988244],["74",-11.494524043080567],["aanschaf",-11.494752280015259],["clubje",-11.495356914312048],["boten",-11.495660567907729],["hervat",-11.496282850659492],["und",-11.496669000930222],["ngo",-11.497222397607333],["oekstra",-11.497223156878718],["Waals",-11.49768064431822],["Gil",-11.498052651595714],["waarts",-11.498267479002939],["sms",-11.4983859352302],["BT",-11.498589086862063],["ola",-11.499089836355317],["bootje",-11.499109564408698],["halfjaar",-11.499333787299893],["beloning",-11.499668928539856],["beleggings",-11.499820242117332],["hip",-11.499903134461317],["Aalsmeer",-11.500050280515914],["sier",-11.50030352799995],["ontwor",-11.5003252249099],["Belarus",-11.500535141215071],["platteland",-11.500845425731889],["ping",-11.501312180593777],["tekent",-11.50163366911176],["vloei",-11.501905625971107],["hamer",-11.502012593141382],["ooth",-11.502171652194884],["Hoef",-11.502482696071077],["schel",-11.502532246064643],["mannetje",-11.502584767555513],["lijsttrekker",-11.5026264092294],["Stefan",-11.502705899525042],["ritme",-11.503551272824701],["log",-11.503582057698553],["garde",-11.503636479599603],["Lange",-11.503771336176943],["ray",-11.504060820688375],["Maxim",-11.50448884348929],["feestdagen",-11.504641846646766],["TP",-11.504701831384436],["ezen",-11.504935631521743],["tante",-11.505199334427584],["ondiale",-11.505296720022978],["Tu",-11.505463348069664],["aardige",-11.506170377229475],["versnelling",-11.50730665595162],["dienstverlen",-11.507607401269633],["betalings",-11.50786818640255],["verhoor",-11.508129254038213],["sukkel",-11.508546163375588],["beleids",-11.5087770471258],["UE",-11.509278054100097],["aribo",-11.509848967373376],["stage",-11.51026629626209],["Alpe",-11.51029297160871],["oppervlak",-11.510337599877271],["Kram",-11.510700996080326],["195",-11.511057305611121],["dorpje",-11.511134059295399],["Dia",-11.511831117238907],["Mooie",-11.51187869456681],["strikt",-11.51191463072616],["zoet",-11.512932663731299],["hecht",-11.513102851813967],["Burger",-11.513325319345281],["late",-11.513571083809165],["zang",-11.51357503372445],["Recht",-11.513636683473242],["havens",-11.514161875332055],["temin",-11.514162187188784],["Texa",-11.514302366120804],["Britta",-11.514425613035536],["comfortabel",-11.514450967401519],["opinie",-11.51455282952958],["Lan",-11.514764964761723],["verschijnsel",-11.515016226543763],["lap",-11.51507403631395],["oprecht",-11.515080636283558],["CN",-11.515137627685094],["micro",-11.515198414973536],["Eerd",-11.51527348196322],["schijnen",-11.515385384033745],["indrukwekkend",-11.51544881806981],["You",-11.51547653742076],["vertegenwoordigd",-11.515994246389072],["saai",-11.516134305912674],["verminderd",-11.51619077953347],["grof",-11.51624173974963],["blunder",-11.516278174316994],["gezellige",-11.518229682139507],["immun",-11.51829171552881],["Haha",-11.518307451330928],["Zoek",-11.51852478209669],["reisd",-11.518631760414186],["Hey",-11.518809366955868],["wijf",-11.51888163510733],["protocol",-11.519014909660704],["uitzien",-11.51909401500463],["atmosfe",-11.519219494088741],[">",-11.519304454238044],["Cruijff",-11.519304454692348],["consumptie",-11.51930445505844],["Frankfurt",-11.519304455813504],["interventie",-11.519304475784761],["tribuna",-11.519304503415148],["browser",-11.519304797824823],["maffia",-11.519304882834408],["Mohamed",-11.519305631078577],["Dylan",-11.519306105750033],["chemie",-11.519316356678415],["Capitool",-11.519316764787385],["onvermijdelijk",-11.51931810478758],["AirPod",-11.51932102843636],["failliet",-11.519323193097222],["Linux",-11.519328304573897],["Video",-11.519338931819576],["millimeter",-11.519347288992716],["Voormalig",-11.519364526004265],["monetair",-11.519375368002972],["Scott",-11.51937814313327],["René",-11.519393666689945],["historie",-11.519397764090943],["contant",-11.519398899392836],["influencer",-11.519399523850929],["toonaangevend",-11.519412418704098],["Fox",-11.519425834668933],["timing",-11.519426201748168],["kartel",-11.519434589865917],["vroegtijdig",-11.519494165416349],["koorts",-11.519519556081274],["verwijzing",-11.51955121330327],["Saudi",-11.519668931101055],["alencia",-11.519690934218588],["Mij",-11.519749177939364],["ecologisch",-11.519757186815177],["Arena",-11.519806048904481],["Japanner",-11.519809066181297],["geschorst",-11.519893647768871],["leiderschap",-11.519911252698872],["initiatiefnemer",-11.51994266957336],["spaargeld",-11.519973173996163],["Santo",-11.519987134494098],["stro",-11.520079376680554],["Rousse",-11.520096160170464],["Reuter",-11.520222730471737],["reativiteit",-11.52034596901693],["dealer",-11.520380175830704],["Ruu",-11.520386899861425],["transparantie",-11.520470580839396],["prijskaartje",-11.520578196258777],["langetermijn",-11.52068668971095],
[...]
