{"version":"1.0","truncation":null,"padding":null,"added_tokens":[{"id":0,"special":true,"content":"<UNK>","single_word":false,"lstrip":false,"rstrip":false,"normalized":false},{"id":1,"special":true,"content":"<SEP>","single_word":false,"lstrip":false,"rstrip":false,"normalized":false},{"id":2,"special":true,"content":"<MASK>","single_word":false,"lstrip":false,"rstrip":false,"normalized":false},{"id":3,"special":true,"content":"<CLS>","single_word":false,"lstrip":false,"rstrip":false,"normalized":false}],"normalizer":null,"pre_tokenizer":{"type":"Whitespace"},"post_processor":null,"decoder":null,"model":{"type":"Unigram","unk_id":0,"vocab":[["<UNK>",0.0],["<SEP>",0.0],["<MASK>",0.0],["<CLS>",0.0],["s",-2.772288810529602],["de",-3.0674664981514663],["a",-3.371533922187865],[",",-3.4313465821055207],["la",-3.6221316145819014],[".",-3.66968293918068],["e",-3.8327405404860535],["en",-3.8813624412135823],["que",-3.8910259012900568],["el",-3.963383588869558],["y",-4.01988731058562],["es",-4.217257560338416],["o",-4.461257336397923],["n",-4.496493498571683],["los",-4.707329649762579],["ó",-4.759476039010655],["un",-4.857439400437396],["con",-4.917796101456709],["del",-4.939402746287115],["ción",-4.9763006604077304],["l",-5.008529096081002],["r",-5.0719015988240415],["por",-5.1300751039885135],["para",-5.172208676175069],["al",-5.190134301204667],["no",-5.248597809632537],["una",-5.291107218786648],["su",-5.291520884757178],["las",-5.325679834156958],["lo",-5.447093333199392],["d",-5.460802464143169],["do",-5.592672379370207],["El",-5.725506221416211],["más",-5.799238294535247],["A",-5.824419403894479],["“",-5.836018662893391],["ha",-5.8522174847155615],["La",-5.878164915680044],["t",-5.901311145269288],["c",-5.912126484041979],["u",-5.9950243457552475],["mente",-6.019502228600555],["\"",-6.0292116660096475],["como",-6.040558839770238],["i",-6.046230481092607],["re",-6.099313142898215],["p",-6.165821501125544],["m",-6.211450690087046],["ón",-6.227775231461891],["este",-6.233273903244596],["En",-6.260486695040829],["S",-6.28823018807501],["ar",-6.317193049609131],["dos",-6.340830789525329],["in",-6.364864863243856],["si",-6.3869502361260935],["(",-6.419016707254],["esta",-6.422242915517987],["mos",-6.441758087531134],["te",-6.462622585663128],[":",-6.467614124744227],["ta",-6.470443620705254],["T",-6.5001002170191295],["ciones",-6.529507332821609],["fue",-6.5295225285727305],["á",-6.555027984230703],["ado",-6.557344064236434],["co",-6.567495572677702],["C",-6.599586702472502],["on",-6.609078717810467],["di",-6.616706838734858],["z",-6.627505440714872],["sus",-6.630453718152561],["ron",-6.658832492371474],["mi",-6.687550965916582],["”,",-6.72564652956172],["pero",-6.727545745184797],["-",-6.736144154578252],["to",-6.759992036701815],["ti",-6.762130131801365],["años",-6.765005801330693],["me",-6.765129032761225],["ca",-6.7877320203181615],["g",-6.79275091934695],["tiene",-6.793140958531049],["ndo",-6.8044509644106],["ada",-6.815384995069275],["P",-6.826116761406961],["ro",-6.840907707312324],["ba",-6.868001629887253],["va",-6.8714898984177175],["también",-6.8748741702477485],["está",-6.878201599317652],["f",-6.87997162075456],["día",-6.880214421246366],["E",-6.884141208682367],["é",-6.908782356058936],["sobre",-6.912364740601264],["entre",-6.91238454726831],["F",-6.923668347679307],["son",-6.9427987886675115],["R",-6.945555958708777],["han",-6.9465417017727],["b",-6.977662626846257],["1",-6.99528424565654],["ser",-7.001045346885771],["L",-7.003477175013494],["ver",-7.037736830880231],["”.",-7.042628405971648],["ma",-7.044493262349894],["«",-7.053086530721048],["Los",-7.058148960113993],["vi",-7.060004783101851],["»",-7.06213213193854],[")",-7.063536490097892],["N",-7.065080579149884],["”",-7.068336114838887],["ra",-7.08178878309409],["20",-7.095445529728636],["todo",-7.099907702217113],["ni",-7.107145832311787],["puede",-7.1115757726257485],["G",-7.113052912732451],["ante",-7.11639782226163],["ando",-7.121379685126449],["desde",-7.127048212757185],["parte",-7.127900551086807],["%",-7.1305274816155135],["idad",-7.133488684512823],["No",-7.149850760709011],["h",-7.154395379745002],["muy",-7.156076625018001],["año",-7.161478254648622],["Por",-7.167098648552478],["país",-7.172710140373502],["O",-7.182280933086742],["ci",-7.184483529818422],["ía",-7.18575411268232],["ex",-7.1956543033442735],["De",-7.197470215102954],["I",-7.2015330037932],["Es",-7.216508309228497],["í",-7.2173133149935715],["tu",-7.2174066705367625],["hasta",-7.225152333179877],["2",-7.230873738525583],["ri",-7.242848969144581],["D",-7.258214064767499],["era",-7.260119668402659],["contra",-7.279032098482177],["Al",-7.288512148836503],["sin",-7.2940125350157885],["er",-7.301252784989346],["go",-7.309730165759294],["personas",-7.311140065170848],["donde",-7.315241776348562],["hay",-7.322376719636367],["cuando",-7.327462036555936],["M",-7.339314926404228],["les",-7.354625305053104],["3",-7.3547784993793135],["dij",-7.355079831274893],["án",-7.355094186630814],["forma",-7.357590536124772],["caso",-7.362887244901687],["ten",-7.36783447269686],["Y",-7.370656907197545],["ve",-7.3846285020953735],["das",-7.394890254344135],["eron",-7.401133701896845],["5",-7.40153299736526],["Con",-7.405151412598845],["hora",-7.4077403696822195],["toda",-7.42093887817657],["mo",-7.430468551022012],["nos",-7.432938970020041],["Se",-7.437797944454702],["quien",-7.444355571701342],["B",-7.448102263871705],["egún",-7.449191283343688],["ico",-7.458626668366949],["k",-7.464158413730123],["ir",-7.469000679592768],["19",-7.480377012615369],["v",-7.494266396992442],["mejor",-7.495854149099948],["pa",-7.498703440011819],["6",-7.50682149732747],["ras",-7.509113660341034],["cu",-7.511139333487362],["?",-7.514833694330371],["momento",-7.5170027341773515],["durant",-7.527445515644918],["tiempo",-7.528228894089756],["¿",-7.528726251891679],["és",-7.533603057123757],["4",-7.542180236736553],["había",-7.55454171632335],["8",-7.561492782795932],["'",-7.564844113840887],["rá",-7.567412106594976],["pi",-7.574153132598085],["\",",-7.575326001591528],["aron",-7.57730235299184],["millones",-7.5784063154502],["tras",-7.579650820122437],["todos",-7.582600940455566],["cada",-7.588720794041064],["ja",-7.591482313176792],["U",-7.603256813388069],["hacer",-7.605261992921055],["están",-7.6090968579548575],["solo",-7.61012900435266],["tra",-7.617765094896261],["porque",-7.631115474850748],["emos",-7.634936040713976],["Si",-7.636360208306194],["vez",-7.6407738590438],["cuenta",-7.643068502098957],["9",-7.644469789661369],["vida",-7.64833967763975],["hace",-7.653180375715781],["partido",-7.653356099158869],["rse",-7.6544119991943775],["lugar",-7.654760012753163],["equipo",-7.657602731103852],["nuevo",-7.665582500856649],["7",-7.668702055528767],["gran",-7.669025290905748],["Estado",-7.674139464340369],["V",-7.6746107328579685],["mismo",-7.676509323213263],["ga",-7.679233720190623],["uno",-7.680587611550398],["mil",-7.688295585698371],["ido",-7.693659510794615],["ría",-7.696213320308835],["mayor",-7.697925094950132],["semana",-7.705378874632446],["primera",-7.7094043802107555],["za",-7.715717354951148],["bien",-7.7176698799894154],["antes",-7.725342930904932],["sido",-7.731582803595697],["otros",-7.731665933594798],["\".",-7.731970436449342],[";",-7.733123309038378],["presidente",-7.736824548174994],["tres",-7.7441921044698026],["per",-7.744869036106198],["Esta",-7.745711060367322],["final",-7.748186714658164],["iendo",-7.750976618365231],["tan",-7.758176645786606],["im",-7.759710381227793],["pre",-7.760890186313014],["así",-7.7619820992108925],["medio",-7.771523879962508],["después",-7.771866583638117],["último",-7.774319628279617],["nueva",-7.783402682834603],["pasado",-7.7841204787785205],["embre",-7.7876383461167356],["ida",-7.791249714657247],["10",-7.79135612108804],["Re",-7.800271172003054],["Lo",-7.804063284062572],["or",-7.808712137533655],["social",-7.809522330365277],["tanto",-7.814511879874443],["bi",-7.821729815309043],["esto",-7.830537778491018],["será",-7.8353441937089],["sión",-7.837737221697682],["ciudad",-7.840661062295715],["dor",-7.8410441763063465],["fi",-7.846725101463401],["tener",-7.855979452765687],["Ademá",-7.856776269461452],["hecho",-7.867629705823052],["trabajo",-7.868880491248556],["0",-7.878636336966686],["otro",-7.8865572290656045],["Ma",-7.8900524857738015],["qui",-7.89397891037419],["Pero",-7.899568811719167],["menos",-7.901776402026611],["2022",-7.908509238236488],["000",-7.917905562487262],["uego",-7.9181531039217905],["empresa",-7.919239351025049],["ter",-7.92174823111348],["punto",-7.922329561351742],["Su",-7.928727106438901],["car",-7.9315115701911685],["Las",-7.938722029282069],["w",-7.940415399996809],["mucho",-7.943532716752946],[").",-7.947587730897039],["situa",-7.949209897126189],["primer",-7.951524245379743],["man",-7.957384505632748],["importante",-7.957859274637874],["Este",-7.959399012683637],["),",-7.965719971928363],["res",-7.9675601562417215],["acuerdo",-7.97069808761488],["tar",-7.971217448913781],["rán",-7.9736170794804595],["manera",-7.980873268398667],["qué",-7.98569999291733],["mundo",-7.9881542544677835],["ña",-7.98899252697201],["pro",-7.989245316840698],["Para",-7.989458937203613],["bo",-7.989556826317331],["ahora",-7.990751371937189],["miento",-7.992030260161427],["‘",-7.999879663762349],["ión",-8.002013507213816],["familia",-8.004172511901157],["tuvo",-8.007265060698472],["mar",-8.00958095216744],["estos",-8.010311211657786],["empre",-8.01405004440004],["30",-8.018462352297302],["tal",-8.027837443202431],["fin",-8.028094014696977],["San",-8.028097568375147],["zona",-8.028961861255716],["estaba",-8.030547292141677],["zo",-8.034011520553207],["informa",-8.034421801934869],["gobierno",-8.034899532591984],["estado",-8.035369099224617],["Gobierno",-8.0382204109919],["estar",-8.039626081103503],["ch",-8.039805794506929],["embargo",-8.046571225382728],["dar",-8.0540439149872],["ista",-8.054337938399508],["proyecto",-8.056078473258063],["rio",-8.061506331574357],["vo",-8.062707379282156],["Sin",-8.063439314676664],["servicio",-8.06433899741176],["trav",-8.066005890072173],["Un",-8.06669882789619],["nuestro",-8.069473190144981],["jo",-8.072113321000256],["Me",-8.0770732795918],["ban",-8.078605709814772],["ing",-8.079717107791243],["ria",-8.082179701253041],["Ca",-8.082698850346903],["Cu",-8.083235815331346],["x",-8.084999791469462],["nivel",-8.085145780027581],["casa",-8.08546154325423],["H",-8.086955550206774],["trata",-8.088001633789506],["hoy",-8.088177235258566],["él",-8.08842835362366],["W",-8.091873764885301],["algo",-8.097429334773992],["ven",-8.098246875871833],["hi",-8.100217684871504],["cual",-8.105674345606484],["poder",-8.108364569996667],["18",-8.113459095938179],["K",-8.114234187820381],["grupo",-8.117815453010934],["debe",-8.120883342331261],["dio",-8.125732089300332],["política",-8.126858541421067],["ncia",-8.127082269856874],["ú",-8.129614437169199],["ju",-8.1330850576018],["poco",-8.141048784894767],["Nacional",-8.145282126670043],["com",-8.14636295485062],["ur",-8.14652792337445],["mient",-8.146617902998479],["programa",-8.147980338352504],["cio",-8.151268267739269],["par",-8.153606765955615],["In",-8.154353469438053],["tipo",-8.156247108862836],["12",-8.160022485416967],["ones",-8.164160986950026],["nada",-8.173285604847935],["po",-8.180975681359266],["can",-8.181779401361915],["podría",-8.182202583118105],["total",-8.193097158698581],["hombre",-8.194522643484843],["ent",-8.195871628041399],["15",-8.19726235496595],["’",-8.197573923395803],["Esto",-8.203396397433359],["sector",-8.204648543574685],["ambién",-8.211439945087914],["ín",-8.21238225953283],["problema",-8.214159649476128],["Una",-8.216421784490434],["endo",-8.217854340138171],["autoridad",-8.222411335306916],["mucha",-8.22334554270738],["J",-8.226746807743995],["otra",-8.226855919417183],["Mi",-8.227134952108809],["ismo",-8.227659374354506],["haber",-8.228872247020902],["alguno",-8.231321883922437],["cómo",-8.231744298983754],["vía",-8.231940047157984],["gi",-8.237164562216982],["seguridad",-8.237237249750589],["tos",-8.237441565779417],["medida",-8.237579637809256],["Méx",-8.248454642003297],["cri",-8.250852642852626],["produc",-8.250859504032483],["cho",-8.255115414843573],["cre",-8.25849147816502],["cambio",-8.261340865069883],["je",-8.262152902636213],["nuestra",-8.267101906755808],["Ro",-8.267552078853514],["agua",-8.267869594041315],["gente",-8.268665320730255],["it",-8.27398294664827],["actividad",-8.275581270051418],["nacional",-8.277414113346387],["meses",-8.281889540144658],["proceso",-8.282041009098167],["Ar",-8.282253145363297],["bajo",-8.283231284375116],["encia",-8.283430583485142],["centro",-8.28636419229898],["última",-8.291679275469725],["aba",-8.293167207731965],["España",-8.296808644025864],["sigue",-8.299720433030737],["historia",-8.302214094006914],["principal",-8.304375614669919],["investiga",-8.305617501969081],["junto",-8.30794382341682],["tenía",-8.31097003691551],["especial",-8.314596969895874],["local",-8.315139995941252],["cosa",-8.315897093931339],["gu",-8.318528265463044],["general",-8.319580663244135],["cha",-8.323676156964504],["2021",-8.327906280970842],["/",-8.332996167265994],["tor",-8.336759880382607],["señal",-8.340240731687013],["Pa",-8.34246949974939],["Vi",-8.34454197730988],["adas",-8.34513653081722],["otras",-8.34653884593282],["gan",-8.346897021314952],["cuatro",-8.347633089124226],["X",-8.347860776029073],["público",-8.351024822693041],["alguna",-8.35344826694827],["salud",-8.35558044174197],["11",-8.362714188225652],["Unidos",-8.36630245492347],["pas",-8.369934343257242],["oficial",-8.370543539156618],["ab",-8.372010071537158],["amos",-8.373816358628648],["mes",-8.375018184655751],["dato",-8.377098518269626],["valor",-8.377157521495853],["casi",-8.379654737833313],["inform",-8.386279424979517],["Ucrania",-8.38690829904149],["resultado",-8.387273800743966],["ntro",-8.389965670673238],["14",-8.391084365970158],["hiz",-8.391745624024313],["ble",-8.39378994991498],["ello",-8.393892599861093],["posible",-8.39836474211317],["personal",-8.39836769025571],["puesto",-8.401362843366808],["mb",-8.40205547802059],["frente",-8.40405036345799],["próximo",-8.409555270926557],["iz",-8.410023163500746],["nte",-8.410746783402917],["mu",-8.41098109170106],["Z",-8.415502772354095],["gra",-8.419069082895291],["decir",-8.419898220082024],["17",-8.421340936227658],["derecho",-8.423042650749236],["inter",-8.425707607349263],["actual",-8.429672857012775],["tado",-8.429685066503158],["mal",-8.430162238515202],["número",-8.432727118176595],["uso",-8.43338030454764],["ley",-8.434223347797085],["encuentra",-8.435198627461368],["16",-8.435927590161313],["persona",-8.436450041093138],["dólar",-8.436569570817795],["sino",-8.436616351305057],["quiere",-8.441243358420671],["euros",-8.441529567034632],["ho",-8.442392405274134],["van",-8.44242661661345],["grande",-8.445368113355359],["misma",-8.446238015377073],["sistema",-8.448999425523091],["obra",-8.45118509960842],["niño",-8.453076009841666],["Ha",-8.453238236615013],["tema",-8.453491853331451],["objetivo",-8.453924952409123],["edad",-8.454304851166825],["tivo",-8.454472017180114],["cualquier",-8.458121029499864],["cor",-8.458449549678992],["unos",-8.458932909913948],["segundo",-8.458980822083003],["Po",-8.46031499777595],["busca",-8.461319245376762],["muchos",-8.46488484863394],["13",-8.467925227545399],["marca",-8.473448161962594],["decisi",-8.476549100424768],["noche",-8.48107462052398],["redes",-8.483138015005052],["cer",-8.4843087966291],["Di",-8.485060764215753],["Co",-8.485637675176005],["sí",-8.489338319127262],["ita",-8.490616958015403],["minuto",-8.492466124199474],["primero",-8.496607755166139],["aten",-8.5000163740786],["50",-8.500380101331938],["jugador",-8.505731567273873],["24",-8.509397575900518],["viern",-8.50968466202012],["Así",-8.510715758472472],["00",-8.513070604287847],["plan",-8.513170367726511],["dado",-8.514277357099688],["llegar",-8.515488262670786],["tiva",-8.51684217414948],["lunes",-8.517745202596949],["fuera",-8.519949241880223],["Mar",-8.520785116325396],["media",-8.521043435772807],["expres",-8.521668424005789],["onces",-8.522517560501615],["varia",-8.5247327743439],["hijo",-8.524861710530605],["cia",-8.525898982167254],["ieron",-8.526341721960817],["parece",-8.529489168874752],["che",-8.529753377083996],["usia",-8.531322434726352],["200",-8.532663282082115],["vehículo",-8.533915029011126],["tendrá",-8.53560107146011],["Car",-8.537235992022355],["mujer",-8.538395544591719],["…",-8.539384387174298],["mercado",-8.540646372873729],["auto",-8.541802602637528],["cinco",-8.542260336568752],["producto",-8.554383374447983],["cal",-8.556008079901712],["j",-8.557507427864358],["participa",-8.561797076724769],["ciento",-8.562554363821675],["sentido",-8.564500989718319],["seguir",-8.566640986410379],["mujeres",-8.56689862424058],["pueda",-8.567070315053728],["ina",-8.567514147320498],["alta",-8.569154584357168],["paso",-8.569590033109465],["presenta",-8.570095365789758],["cerca",-8.571224969980562],["mañana",-8.571472196808855],["Des",-8.571798830959377],["ob",-8.573430168883176],["haci",-8.575663744912083],["real",-8.576955346038403],["temporada",-8.577157623419769],["sábado",-8.577160394659542],["edi",-8.57825117822359],["chi",-8.580366152738923],["juego",-8.583158613779801],["espera",-8.58438028062437],["falta",-8.58678036115591],["respect",-8.58747047315023],["amiento",-8.587584815201476],["cargo",-8.589955107613282],["vario",-8.590344250599657],["causa",-8.592420010102662],["eves",-8.594335404811346],["víctima",-8.595863035735439],["veces",-8.597908586593439],["ig",-8.599281510605788],["alto",-8.599440092692827],["aún",-8.599779390447244],["ros",-8.600525325935262],["lado",-8.60059169096819],["tica",-8.604901969479801],["cción",-8.606104842026227],["Bo",-8.60706402777657],["25",-8.610856483722166],["domingo",-8.612160721401423],["baja",-8.615027949143283],["ito",-8.617649534180963],["Argentina",-8.620864345002845],["tri",-8.621131643243615],["pandemia",-8.622356416473469],["gas",-8.62375580035678],["encuentro",-8.626839584559947],["fuero",-8.627483225674599],["$",-8.628338207309746],["Mo",-8.630247213191488],["Ba",-8.63108299197554],["sub",-8.63127238979317],["ck",-8.631632201492883],["partir",-8.63368391380085],["fecha",-8.634391441417797],["ministro",-8.638220630159237],["dici",-8.641436247657662],["comunidad",-8.642182610796834],["ero",-8.644469226425024],["ayuda",-8.646336026436515],["tas",-8.646803765727288],["llega",-8.647190111603507],["anunci",-8.648985558118888],["pública",-8.652207780786146],["buena",-8.652939685047631],["bar",-8.653841519792536],["mento",-8.657133000090678],["dice",-8.659479936581079],["poner",-8.660682646663284],["agreg",-8.666797332012575],["marte",-8.671241014343382],["control",-8.672704742173936],["oportunidad",-8.672824227128483],["realizar",-8.677563093366391],["op",-8.67812953242062],["podrá",-8.683819366648876],["iércol",-8.683866623508292],["fo",-8.688519717384716],["carrera",-8.688658839020922],["cuerpo",-8.690231023799786],["fer",-8.693620357274632],["mor",-8.693783818059751],["segunda",-8.695029615321559],["diferentes",-8.695238523157178],["igual",-8.696588089497624],["fuerza",-8.703108008582236],["orden",-8.70454020221397],["provincia",-8.70587606416494],["acto",-8.706518456691306],["tro",-8.707573486928386],["explica",-8.707579085171567],["conocer",-8.707652639465874],["indic",-8.710277391278582],["considera",-8.712056735450219],["queda",-8.713050006817442],["internacional",-8.716251621648546],["mer",-8.717241555208357],["posición",-8.720902089499605],["importa",-8.722273473025625],["Li",-8.722404293086628],["for",-8.72273062856352],["regi",-8.725127094235376],["ran",-8.726329350161063],["inclus",-8.727313584740287],["genera",-8.728520130528613],["viene",-8.73000574806023],["ber",-8.733070207173924],["entrega",-8.734029098015666],["asegur",-8.735040563330806],["iza",-8.738753385346829],["prueba",-8.740888480751142],["bor",-8.74182173305364],["ización",-8.743086980207302],["largo",-8.743410678688308],["ez",-8.744943246359142],["tarde",-8.745879910332345],["ment",-8.746942171073243],["istas",-8.747266565147022],["40",-8.749960206615501],["serie",-8.751096111302457],["logr",-8.752460063528865],["muestra",-8.752836171377684],["joven",-8.755113420935714],["Jos",-8.756413483745707],["fiscal",-8.756436281969378],["Todo",-8.756689966959645],["ario",-8.75731520665841],["línea",-8.759622990447664],["padre",-8.75971171807537],["simismo",-8.76167671365176],["precio",-8.764754089832124],["legó",-8.765921068995816],["capital",-8.767457569852866],["nunc",-8.769068792793568],["pueblo",-8.76994044192571],["novi",-8.77093055791137],["dura",-8.7725645085089],["red",-8.775284371206052],["sabe",-8.775406871711787],["Juan",-8.77554408647908],["Ministerio",-8.778620382789383],["arse",-8.780238541909542],["trabajador",-8.781133202280278],["ador",-8.782122440626065],["representa",-8.783195895776348],["muerte",-8.78386725553857],["apoyo",-8.783878463416361],["enero",-8.785328637441244],["Como",-8.786482365557529],["población",-8.7891383619328],["riesgo",-8.789188885283721],["municipio",-8.790901230430094],["fuerte",-8.791010535476374],["debido",-8.791521066431264],["pan",-8.794406067911206],["guerra",-8.79674281310447],["pasa",-8.797055789424423],["evento",-8.803465172636198],["ejemplo",-8.806915843446227],["mayoría",-8.80968105268921],["jornada",-8.812315547206907],["mí",-8.813361881251456],["tura",-8.813915426902646],["mensaje",-8.814120226439861],["pues",-8.817394310341216],["aria",-8.819995741079538],["nombre",-8.821404666365398],["illa",-8.82355494790189],["Do",-8.82697186727632],["22",-8.827304220851452],["espacio",-8.828167180396486],["Hay",-8.828249284412724],["aje",-8.828409304918608],["calle",-8.828545899378664],["venta",-8.82935095556693],["Pi",-8.83550961099963],["recurso",-8.836396807277978],["uela",-8.840534812473704],["cont",-8.841963474632724],["suma",-8.843279627779857],["tomar",-8.843416640895143],["seis",-8.846679621993474],["tre",-8.847853250174012],["denuncia",-8.853224192132938],["dicho",-8.85349656439995],["pod",-8.853759838767758],["tenga",-8.854802005918184],["organiza",-8.854996345136527],["bu",-8.858055040734396],["pesos",-8.858392441471146],["líder",-8.860359433865174],["epti",-8.8605201570848],["director",-8.860930745380294],["sol",-8.861739091848392],["junio",-8.862250979864257],["jó",-8.863419108946108],["unidad",-8.865222660218953],["profesional",-8.86793396296206],["propuesta",-8.868131683456603],["ataque",-8.870017163998844],["manifest",-8.871753864019935],["propio",-8.871767656301834],["policía",-8.871777100658745],["remos",-8.872134100567779],["Ja",-8.873093389414304],["dinero",-8.874960733018158],["lleva",-8.87641050035377],["metro",-8.878506967798877],["comenz",-8.88274905520294],["Europ",-8.882808216282537],["21",-8.883731178281295],["mano",-8.885051600174616],["dejar",-8.885865383940002],["arte",-8.886060762612448],["Madrid",-8.887182912899275],["ruso",-8.888147146694454],["club",-8.889128537594058],["octubr",-8.889128812295592],["tenido",-8.889482731725707],["comunicado",-8.891881883546038],["2020",-8.892186309225508],["lucha",-8.892433970325],["th",-8.893259188015087],["Fue",-8.894584264273249],["precios",-8.895932320028558],["llevar",-8.899218323839683],["bal",-8.90140242439543],["anterior",-8.904480611713748],["encontrar",-8.904601185776102],["cara",-8.906440239576927],["izar",-8.90658534215547],["opera",-8.91137058574563],["Hu",-8.911682301926517],["video",-8.911983618273164],["desarrollo",-8.915052427875612],["toma",-8.915559203732201],["evitar",-8.916267987502055],["necesario",-8.916770799535776],["gesti",-8.917669596433278],["ton",-8.917959047500684],["Mundial",-8.918775022201602],["anti",-8.91928707966434],["compañía",-8.920782718501185],["futuro",-8.920784753437786],["mat",-8.921843338536554],["pez",-8.924306667220918],["Policía",-8.924811025016444],["hemo",-8.927969390939998],["realidad",-8.928078788063342],["bra",-8.928656352708753],["–",-8.928855410765962],["experiencia",-8.928855488927383],["ólo",-8.93110632450686],["pri",-8.932615319101425],["ño",-8.93331257453685],["sería",-8.934517399362836],["illo",-8.934745269034735],["60",-8.93507104046266],["inten",-8.935456461115415],["eran",-8.936309288149866],["Entre",-8.940867172586803],["reciente",-8.943192606003727],["super",-8.943668819890611],["ñ",-8.944212163806004],["estas",-8.944323133812224],["ambo",-8.944983906209888],["accione",-8.946451445506025],["funciona",-8.94659520357358],["Per",-8.946812692854584],["modelo",-8.948515671134853],["Pro",-8.949033599081215],["100",-8.94943832552024],["rela",-8.951022116690204],["amor",-8.95190278032378],["comunica",-8.952661341715713],["aumento",-8.954737531171332],["Que",-8.955640012690509],["municipal",-8.95763436521392],["pareja",-8.957820027508097],["gracia",-8.958366086832687],["gr",-8.960370551089468],["her",-8.960532425924669],["estará",-8.960638738764494],["able",-8.961282731886985],["necesita",-8.96169674590695],["cabo",-8.961885610774528],["Luis",-8.96194848195864],["habla",-8.965621154964557],["termin",-8.967001497340906],["rez",-8.967384607638976],["lista",-8.967834346184704],["económica",-8.968116659604869],["administra",-8.970306832817949],["posibilidad",-8.970329244591401],["cabeza",-8.970943945290855],["juli",-8.974702442404217],["llev",-8.976337777513931],["gosto",-8.977006911092467],["celebra",-8.978073228122264],["ces",-8.9784151341931],["resto",-8.981522762525977],["dad",-8.981889712049298],["fu",-8.982771761609019],["respuesta",-8.983340621559144],["eta",-8.983837020080685],["torio",-8.984392883478552],["capacidad",-8.985161652026267],["idea",-8.985702043423828],["necesidad",-8.989416967516766],["To",-8.990824130047544],["Cor",-8.991406114329443],["Tras",-8.992398139061466],["campaña",-8.993731820489218],["esos",-8.995318559752825],["grave",-8.995358490386916],["prensa",-8.996078389395278],["camino",-8.996091238583869],["inicio",-8.996595560526032],["explicó",-8.998065397457523],["carga",-8.998570267267281],["val",-8.999440821580796],["Com",-9.000178695769012],["trabajar",-9.003230639837462],["crea",-9.003331629072388],["destac",-9.003645613757012],["Yo",-9.005358830723004],["afirm",-9.00598989359818],["recibi",-9.007462219733554],["pasar",-9.00802569230223],["gún",-9.008731312116579],["difícil",-9.008982523277655],["elección",-9.009995275341076],["2023",-9.011973482817123],["demanda",-9.01213795085433],["calidad",-9.012345755770635],["Go",-9.012841175766894],["mas",-9.013041237405488],["estadounidense",-9.013382968788818],["completa",-9.013407667867153],["propia",-9.013730263349514],["nosotros",-9.01464775261785],["bilidad",-9.015382863968396],["dora",-9.01574080978272],["cifra",-9.016138667684444],["Jo",-9.016850403337074],["familiar",-9.017022634628344],["amigo",-9.018038662360402],["cul",-9.018932302313688],["vecino",-9.020071069767829],["curso",-9.020341633602008],["viaje",-9.020897057992222],["Gu",-9.022078425142674],["miembro",-9.022246084409652],["mayo",-9.025171261397237],["energía",-9.026701817586055],["pon",-9.02785045580483],["esté",-9.028431356603729],["dic",-9.02906144889741],["claro",-9.02956681966484],["compra",-9.03017263715502],["volver",-9.03357411554892],["mon",-9.035509854758345],["visita",-9.035581900548372],["palabra",-9.03795715551115],["Ho",-9.038567862194386],["gui",-9.03959105924698],["sociedad",-9.040201209151927],["entidad",-9.044876597489147],["ocurri",-9.044954032158047],["vacuna",-9.045102266950318],["let",-9.04574864894619],["Par",-9.04689930294887],["presente",-9.048031350578658],["militar",-9.049322749646256],["Día",-9.049401923488565],["madre",-9.049407763179648],["abril",-9.050818813649844],["Salud",-9.051622320056246],["duda",-9.052228589055364],["ili",-9.053163124457637],["ntes",-9.054688560873547],["permite",-9.056248431431687],["ific",-9.056485036146753],["Bar",-9.057127073879617],["reg",-9.057993213187576],["violencia",-9.060797364744246],["libre",-9.060860305786706],["plaza",-9.061069781342525],["indica",-9.061772619315988],["ki",-9.061949510985363],["23",-9.062097568390472],["decidi",-9.062849356828302],["¡",-9.06311070641906],["Lu",-9.063317265727328],["pu",-9.064630133534216],["base",-9.065930992145281],["gol",-9.066033182116016],["present",-9.072008135534642],["iente",-9.073974412620595],["Centro",-9.07488035401742],["pesar",-9.075546074892777],["Val",-9.076824256530088],["lin",-9.077152591482509],["vivienda",-9.077798397686834],["mantener",-9.078888580695956],["prepara",-9.080894414224877],["febrero",-9.081824710483193],["acceso",-9.084190632992192],["gar",-9.08452317061608],["luz",-9.085363708101784],["conjunto",-9.085970071813486],["favor",-9.085991997567625],["pued",-9.089062123059644],["delito",-9.089911892895758],["Ru",-9.090298803949636],["área",-9.091409603897304],["Durant",-9.091583990790369],["tí",-9.092018096709733],["hub",-9.092447397184904],["Or",-9.092694845202724],["hospital",-9.094917484227809],["asegura",-9.09583763490076],["pidi",-9.096724365163254],["único",-9.098811183619873],["Ju",-9.099295680497832],["instala",-9.099322985742592],["Ya",-9.101863312177558],["imp",-9.10497229333511],["presencia",-9.105139979076696],["alrededor",-9.108144601590858],["ingreso",-9.108182499837596],["golpe",-9.108356109994144],["clara",-9.109214648094447],["mostr",-9.109603921576277],["sur",-9.109628226987425],["español",-9.110370730685482],["enfermedad",-9.110569193354916],["Qué",-9.110570220428235],["fun",-9.111173498949967],["color",-9.11152224729718],["cierto",-9.112963021693538],["26",-9.114212225241662],["Bi",-9.114749657818493],["27",-9.115310371202035],["Br",-9.115932840944826],["izado",-9.11673879374175],["afecta",-9.116863697123065],["gue",-9.117588495126526],["diferencia",-9.117886788823814],["llí",-9.118375850593143],["rec",-9.118642700620683],["pago",-9.118894492521244],["arma",-9.119034214914265],["28",-9.119921964188524],["cuanto",-9.120346009310193],["anda",-9.12038370972449],["plataforma",-9.120464104013003],["ahí",-9.121226592175109],["condicione",-9.121957942840993],["haya",-9.122130472878592],["preocupa",-9.123316249880645],["eleccione",-9.124124103882497],["menor",-9.12447233157938],["campo",-9.125613035830948],["económico",-9.127726486061295],["Venez",-9.12774771877218],["Pu",-9.128171735492868],["vista",-9.128389996638663],["Ló",-9.129962340729175],["informe",-9.130195293850402],["cantidad",-9.130210619021273],["publica",-9.132594512990302],["efecto",-9.132684732732411],["bles",-9.132741019744827],["salir",-9.13284751400602],["buen",-9.133251620978257],["plazo",-9.133935409081293],["cita",-9.135449480971722],["ará",-9.136097217153015],["mundial",-9.140165903991225],["victoria",-9.140166312478573],["jefe",-9.140296577169302],["Santa",-9.14242492360037],["General",-9.142671823412703],["gobernador",-9.1430582729439],["motivo",-9.143766670504306],["inflación",-9.145186348206254],["mis",-9.145286837524234],["Be",-9.145373360739153],["!",-9.145741553446136],["artista",-9.146060820822822],["inc",-9.146555732047984],["aquí",-9.14700832428202],["usuarios",-9.147181863683604],["humano",-9.147849947591036],["ayer",-9.149185060604673],["ciudadano",-9.149312052846899],["Twitter",-9.15022738821971],["central",-9.155167137616884],["trabaja",-9.155636500055028],["aban",-9.158261033269808],["lograr",-9.158664282413087],["Pre",-9.159503355261208],["Ante",-9.160147278760572],["ganar",-9.160377796073103],["perdi",-9.161589656637254],["haciendo",-9.163698363138973],["deben",-9.164488096122762],["registr",-9.170314181258032],["pregunta",-9.170465170338977],["noticia",-9.170676493219416],["visto",-9.170914557363872],["principio",-9.173246293844008],["película",-9.173246303287304],["compromiso",-9.173246311558508],["responsable",-9.17583697559716],["ningún",-9.175872605153385],["vol",-9.178762340983411],["pequeño",-9.181039646795359],["ofrece",-9.18296408100787],["Fi",-9.1833647543618],["ag",-9.185787296526328],["jóv",-9.186143896700973],["grado",-9.186566290801434],["reuni",-9.188604070152003],["iete",-9.190273252034576],["Ciudad",-9.191128424733432],["negocio",-9.19152402180189],["realiza",-9.191711509442609],["sali",-9.192340745942563],["aplica",-9.19358798116803],["utiliza",-9.194760548105673],["planta",-9.195653200438121],["cr",-9.195811074047938],["habría",-9.196820462574856],["ic",-9.197161047645164],["ant",-9.197220553527824],["Villa",-9.197666780667017],["gen",-9.199310706052724],["ller",-9.199652402520822],["tru",-9.20066357327828],["nadie",-9.201189261637204],["80",-9.203134478253947],["hor",-9.205806024363264],["pec",-9.207541720293268],["mina",-9.209850299904232],["extra",-9.210853258527433],["construc",-9.212868777807849],["cat",-9.216747427578861],["iba",-9.21825973061213],["economía",-9.218481370512103],["añadi",-9.219125885006349],["comp",-9.219159490937729],["Carlo",-9.223107805945343],["próxima",-9.223654813613331],["ino",-9.224769991243601],["ernández",-9.228799976911954],["popular",-9.231853122668127],["puerta",-9.231854822705959],["Ri",-9.232272106297499],["ré",-9.232902893270087],["gusta",-9.233684274075552],["cas",-9.23428676338111],["territorio",-9.234599175343023],["adelant",-9.235202192041799],["Bu",-9.2353348279416],["Liga",-9.23587043585368],["interven",-9.23669972865865],["anza",-9.23961344480097],["fútbol",-9.2403808737423],["señala",-9.240643874327485],["Gran",-9.241010638083328],["reunió",-9.241497276389953],["María",-9.243493188309769],["llama",-9.244414375980712],["70",-9.24551071584661],["única",-9.245720757891863],["paciente",-9.24572291842021],["periodista",-9.245916528561168],["29",-9.247396015637516],["escenario",-9.248599405988559],["pudo",-9.248886181169748],["elemento",-9.249204759259653],["pudi",-9.249694909031316],["ama",-9.249838609816802],["entrada",-9.250590660973902],["jugar",-9.25094057184239],["técnico",-9.251242765962086],["Después",-9.251242949410592],["tarjeta",-9.251244731294541],["clave",-9.251786875190657],["siguiente",-9.251950578567802],["entrevista",-9.252485116829423],["estudio",-9.252881169831017],["izada",-9.253301915069947],["hablar",-9.2558931969015],["Ten",-9.256474642957263],["amenaza",-9.256853895877715],["ion",-9.259616725185216],["práctica",-9.259669769593835],["ocupa",-9.259791302379606],["modo",-9.262182278122687],["titular",-9.26249949412069],["amplia",-9.26253917011971],["record",-9.263504708626165],["ánche",-9.264217785987505],["tercer",-9.264536186525909],["crecimiento",-9.265455106641042],["zar",-9.266665514855951],["asocia",-9.268331490317106],["pone",-9.269029548257329],["fic",-9.269603445320639],["tribu",-9.270109593677834],["político",-9.270988401729694],["realiz",-9.271062210624727],["recupera",-9.273456852368561],["Congreso",-9.273874770552021],["pens",-9.27494163285062],["acerca",-9.276459013281631],["presión",-9.280608670440792],["Eso",-9.2834489714268],["ampoco",-9.285387718923403],["figura",-9.285406191590791],["música",-9.288284178443448],["foto",-9.28831270617049],["sexual",-9.288356209591562],["pr",-9.28920743326803],["var",-9.28932978869912],["seguro",-9.290469150065626],["conocido",-9.29081124714801],["tur",-9.291369612446363],["máximo",-9.29410642947935],["accidente",-9.294106450728705],["habrá",-9.294174417989378],["90",-9.294243955782267],["Universidad",-9.294310836984973],["distinto",-9.295481272158291],["vin",-9.295560658289968],["ult",-9.296492306556999],["vuelta",-9.297030938372089],["curr",-9.29705219248098],["vio",-9.29783738921434],["República",-9.297848589323273],["mag",-9.299714923344606],["impacto",-9.299784047353707],["defensa",-9.299986381529152],["oferta",-9.300048395248776],["hija",-9.300132477097034],["ayudar",-9.300256528674305],["cliente",-9.302925455156927],["bol",-9.303057664555642],["pagar",-9.303960688196774],["mantiene",-9.304472042350612],["localidad",-9.30512297390358],["mejorar",-9.305643968193724],["movimiento",-9.305960347528707],["arzo",-9.307042285682499],["confirm",-9.308256941015575],["Mient",-9.310353879873126],["500",-9.311369857909266],["coment",-9.31155384235692],["eros",-9.312056747672676],["Hoy",-9.31510902707237],["voto",-9.31569299541861],["Aun",-9.315982009641312],["hicier",-9.316722297763471],["material",-9.318816161332022],["alcalde",-9.319225368367071],["Qui",-9.319384494760214],["termina",-9.323176080649008],["consecuencia",-9.3246696564702],["activa",-9.324900286276005],["terminar",-9.32602201298566],["Hi",-9.326278723422169],["bur",-9.326504537593738],["opin",-9.32711578966833],["interés",-9.328218765839935],["actor",-9.329517196545579],["volvi",-9.330822086067334],["bio",-9.33129855281615],["trabajan",-9.331788891732426],["kilómetro",-9.332801713684374],["mont",-9.33296644278183],["Gi",-9.333710800109131],["marcha",-9.334967777885366],["esfuerzo",-9.335841767849521],["éxito",-9.335841871483115],["interior",-9.335844334233506],["Du",-9.337228525738757],["ger",-9.338087108862432],["candidato",-9.338891025435249],["libertad",-9.33892469001068],["detalle",-9.34057156837342],["Can",-9.341923088029322],["Colombia",-9.341948108681517],["título",-9.341991725688048],["ka",-9.34240003985336],["escribi",-9.342743759912214],["corre",-9.34378761576161],["digital",-9.345018021205412],["Consejo",-9.34501846170535],["autor",-9.345269319629885],["obst",-9.34602954839115],["Comisi",-9.348831307874676],["directa",-9.349553163019138],["legal",-9.35083884850643],["bueno",-9.350874757321828],["responsabilidad",-9.351178929012633],["argentino",-9.351178957190893],["pide",-9.35337686805028],["lic",-9.353478797735113],["ocho",-9.353592023480434],["escuela",-9.354553453532716],["vivir",-9.354568224910743],["contrato",-9.356256696609183],["tecnología",-9.357380534950998],["fuego",-9.35752002387766],["delante",-9.357626147718715],["costa",-9.35825877148925],["positivo",-9.358807112480052],["marco",-9.358921228140314],["saber",-9.360008059069933],["iniciativa",-9.360507582966775],["obliga",-9.361013118780946],["toria",-9.36187917948396],["trans",-9.362602855645779],["década",-9.363646463528674],["Son",-9.366805865213022],["tero",-9.367635038834788],["labor",-9.368683480989326],["emp",-9.36876535542024],["guien",-9.368875543891376],["eguridad",-9.369880864953906],["bloque",-9.370873005947553],["Casa",-9.370899837517117],["debería",-9.371605663245942],["of",-9.372380744106309],["Manuel",-9.373213417617311],["papel",-9.373359504645267],["norte",-9.373784071495795],["mandatario",-9.376251764506764],["For",-9.376323991781554],["ninguna",-9.376437724136114],["quiera",-9.377416861680425],["anual",-9.378664376045844],["mostrar",-9.378986513116772],["sitio",-9.381104947446369],["hacen",-9.382919106891228],["cambiar",-9.383203696447602],["Ni",-9.383430578123743],["hechos",-9.384775061382499],["América",-9.385773549630557],["Bueno",-9.38639359817169],["Va",-9.3874648603306],["contar",-9.387624987639818],["fácil",-9.38897880182757],["peligro",-9.388978897622223],["firma",-9.389006035766554],["Chi",-9.390714472685955],["35",-9.391499762008458],["leg",-9.393516690374067],["Mari",-9.393529831191564],["temperatura",-9.395419914053704],["lluvia",-9.395419950267598],["particular",-9.395421625406433],["juicio",-9.395577222627713],["Real",-9.396872353709764],["mediante",-9.396923264241295],["negocia",-9.3986569710742],["ándose",-9.39894882742383],["llamado",-9.402029571329845],["31",-9.405454201507805],["ió",-9.405863594379332],["barrio",-9.405883231204854],["significa",-9.4074171690756],["fra",-9.407980201553478],["deja",-9.41061680921193],["secretario",-9.411707159336519],["tivos",-9.412842599535752],["colabora",-9.413826392458303],["puesta",-9.414104907539642],["recib",-9.414187794413202],["contacto",-9.414682889648255],["empez",-9.415091430136382],["clase",-9.415605992678568],["institu",-9.417450523021454],["disponible",-9.418296714491209],["mexicano",-9.418296724639621],["diputado",-9.41830021822009],["Mon",-9.418379936042847],["consulta",-9.418631702902678],["ang",-9.419371760110913],["salida",-9.419842112329992],["representante",-9.42055695444733],["justicia",-9.421608029433317],["destino",-9.42198241243779],["arios",-9.422135572329857],["comercial",-9.423311890701092],["protec",-9.425272325323673],["fac",-9.425940494243024],["sean",-9.426822133463414],["pul",-9.426976317958214],["fundamental",-9.428312044156009],["cam",-9.428316353891184],["detenido",-9.42862661229233],["Ahor",-9.428801871980443],["diario",-9.429925083775164],["Sal",-9.431300875244883],["ático",-9.43244875629096],["ivo",-9.432472870905588],["observa",-9.432596018731967],["genes",-9.433234709625836],["allá",-9.434741076337016],["pus",-9.435051322772525],["imagen",-9.43505937143028],["reserva",-9.437356274567012],["estudiante",-9.438331979302749],["agente",-9.43890487844555],["rechaz",-9.439061601608394],["distinta",-9.439725163476945],["cep",-9.440316644226534],["Copa",-9.440330398764154],["industria",-9.442175813456183],["cuidado",-9.442487546355],["recibir",-9.443232807452556],["iones",-9.44341186837638],["pedir",-9.443876048989132],["Man",-9.443969110831505],["integra",-9.444895916644741],["estrategia",-9.445098960699376],["laboral",-9.445597221184514],["China",-9.445724367573911],["PP",-9.446701510254563],["categoría",-9.448500334085505],["isla",-9.45050091390561],["inversi",-9.4507372236321],["suficiente",-9.451913990591308],["Pedro",-9.451914676574168],["etapa",-9.452113609558516],["gri",-9.452918961639977],["reforma",-9.453064790794272],["cumplir",-9.45325903525459],["buscar",-9.453638867287482],["probable",-9.455341447254948],["Cal",-9.456189142735411],["mitad",-9.458198129139916],["Ver",-9.458252492580245],["esión",-9.458470325972982],["documento",-9.458779038206467],["esas",-9.459765161060215],["conductor",-9.45980053189172],["sufri",-9.460712811270053],["resulta",-9.461069494859451],["emergencia",-9.462222662880166],["juez",-9.463161140585392],["Ex",-9.463681687409672],["acusa",-9.464235979710068],["compara",-9.464355565170116],["Ci",-9.464789913473128],["conflicto",-9.465682869575119],["materia",-9.467926194148841],["calles",-9.468504229745989],["declara",-9.469504455356207],["duc",-9.469600298832573],["cree",-9.470477257651897],["fiesta",-9.470964601045235],["jar",-9.471316727578635],["afirma",-9.471676898619029],["Más",-9.473406357980146],["llegada",-9.474661937825996],["costo",-9.475893637995082],["torneo",-9.476145175917202],["rusa",-9.47723554485777],["Instituto",-9.479847072093829],["tasa",-9.480182559377027],["cur",-9.480480699312125],["Ley",-9.480733551644043],["pasada",-9.481185033332896],["char",-9.48133780971372],["consumo",-9.48263715183365],["libro",-9.483177122488133],["civil",-9.483368925616784],["Fiscalía",-9.483404311039184],["franc",-9.483546659902103],["judicial",-9.486703732937887],["estatal",-9.487797832200108],["impuls",-9.49016303332277],["destaca",-9.491375599304838],["Ber",-9.491580957786663],["EE",-9.491637156487464],["Final",-9.493686693725106],["realizado",-9.49461631190512],["penal",-9.494632800742867],["Mu",-9.49577320156827],["pol",-9.49703236344904],["ús",-9.497055275519779],["normal",-9.499141337573171],["plante",-9.499490590207607],["disfrutar",-9.500248059596384],["empleo",-9.500961721847093],["federal",-9.50180711066603],["participar",-9.503895049742741],["Ángel",-9.504557184225147],["web",-9.504651599456432],["pedido",-9.504758046427535],["rico",-9.504920742222035],["encontraba",-9.505390296939996],["45",-9.505739682489779],["ruta",-9.50747813938855],["circula",-9.508171251081302],["Ram",-9.50821153311852],["tierra",-9.508239979950964],["supuesto",-9.509103885760215],["Garc",-9.511192183767669],["rápida",-9.511799758190499],["public",-9.51397840834212],["estructura",-9.515426466077276],["policial",-9.515435368882624],["deberá",-9.51581850215932],["cuestion",-9.516994821230352],["desarroll",-9.517845138073561],["land",-9.518570003189463],["continúa",-9.519076313990691],["referencia",-9.51909722377001],["impuesto",-9.520378160682416],["pin",-9.521894840014571],["Aire",-9.521927633441493],["manos",-9.52248296508186],["apunta",-9.522505554193293],["cultura",-9.523208790647764],["natural",-9.525899924338825],["cámara",-9.52641682835113],["Social",-9.526420060971756],["ica",-9.527547312425128],["Hast",-9.527648233044678],["cumpli",-9.528307943423016],["cent",-9.52974374486217],["organismo",-9.530106202877018],["Civil",-9.530113377098633],["jug",-9.53203047509832],["umbr",-9.532220629337687],["contenido",-9.53306078029327],["—",-9.533809476695701],["Nueva",-9.533810136984492],["aspecto",-9.533818961344394],["hogar",-9.534211700525614],["post",-9.534339271226202],["ier",-9.534919324621727],["regional",-9.53748205886356],["Rodríguez",-9.537526948814673],["Cruz",-9.537527342135316],["tarea",-9.537626487309243],["imá",-9.537669196741962],["superior",-9.541262680976335],["dirigente",-9.541699398267703],["Chile",-9.541741066447639],["fan",-9.542761543431887],["emiti",-9.542764410249072],["habl",-9.54321134031002],["enfrenta",-9.543893197783191],["mental",-9.544173213134979],["peor",-9.544842182485874],["Miguel",-9.545023328120953],["verdad",-9.54533729459251],["clasifica",-9.545984956125317],["crear",-9.549220429842318],["incremento",-9.550105165979328],["cine",-9.551280713562072],["electoral",-9.552604397582236],["Río",-9.552651665125616],["encontr",-9.55288949061056],["direc",-9.55411701895223],["declar",-9.554949254344026],["ministra",-9.556195573000807],["Secretaría",-9.556324475001237],["similar",-9.556374777437657],["reduc",-9.557052972169636],["rol",-9.557409467550379],["bus",-9.557925913943265],["armas",-9.558060520842837],["ónica",-9.558944003154195],["hacerlo",-9.55902241583946],["tercera",-9.559462027784342],["cumple",-9.560126883690334],["dolor",-9.560150213270909],["Cabe",-9.56371821863682],["Justicia",-9.563943749049342],["transporte",-9.563955238214774],["Brasil",-9.563955678743964],["cuarto",-9.563980935686548],["reducir",-9.565805017053195],["menores",-9.566136530071232],["regular",-9.566774787710006],["muri",-9.567009535612328],["ducación",-9.567019587197299],["existe",-9.567298165018546],["artículo",-9.567775061162127],["razó",-9.571868432294139],["pos",-9.572717201730049],["mira",-9.572937289072403],["defini",-9.573339136860241],["podía",-9.573700867720616],["Col",-9.574673226485608],["Ayuntamiento",-9.575482129399791],["COVID",-9.575482150957463],["incendio",-9.575491861994127],["Presidente",-9.576115489333818],["solu",-9.57645829928985],["creo",-9.579602661872848],["aquello",-9.58014256605431],["implica",-9.581720268081952],["luc",-9.583124206891881],["lógica",-9.58329659902638],["avance",-9.583386024031185],["cantante",-9.583456506981097],["aire",-9.583841822586516],["pena",-9.584564807265059],["conocimiento",-9.58506814410823],["Ti",-9.585968903990668],["Cámara",-9.587155753529622],["medi",-9.588246006851094],["ventaja",-9.588341398079429],["ería",-9.589602618314498],["permiti",-9.589603226238639],["divi",-9.590347573684376],["Putin",-9.59112995551154],["operativo",-9.59280798745802],["pic",-9.592975757478484],["vota",-9.593950357607557],["sostuv",-9.594326891715356],["consider",-9.59606336036533],["incluye",-9.597059317805],["mán",-9.598476379330592],["animal",-9.598782804672883],["conseguir",-9.599298357645349],["audi",-9.599361592721742],["Uno",-9.59988841775963],["Inter",-9.600108514723903],["alcanzar",-9.600365668236686],["dedica",-9.600889334099758],["entr",-9.601480176098004],["entrar",-9.60279630668363],["retir",-9.60280083654256],["Mor",-9.602839767520736],["Ejecutivo",-9.60293479293771],["concluy",-9.602934875548002],["acompañ",-9.603545877878778],["campe",-9.605002626176361],["atrás",-9.606329195423495],["usar",-9.606358786142644],["lica",-9.606372421252157],["periodo",-9.606421217564204],["herramienta",-9.606918875734285],["edificio",-9.606919407931127],["distribu",-9.607034649385131],["subray",-9.607158275187388],["niña",-9.607209418353673],["perder",-9.607325414695072],["empleado",-9.608739248563285],["socio",-9.610366077063823],["lisi",-9.610504534971506],["bastante",-9.611020002527084],["evalua",-9.61186577358527],["contexto",-9.61323066956863],["ucraniano",-9.614934920521993],["televisi",-9.615041717729493],["Del",-9.615869129761101],["comparti",-9.617782833764394],["estrella",-9.618984979612215],["tivas",-9.619306958641026],["paz",-9.619388690418361],["Internacional",-9.619431399188482],["sacar",-9.6208104920496],["limita",-9.620937380407625],["deuda",-9.62186890913455],["Francisc",-9.622036451308663],["mencion",-9.622091232967335],["iv",-9.622663441820105],["cadena",-9.623171833792274],["Moren",-9.623226272627175],["fuentes",-9.623414808096124],["ira",-9.62364619995228],["tic",-9.624551183414761],["generar",-9.624602234588938],["Ch",-9.62514117403014],["pase",-9.625393154212667],["verano",-9.625742958171863],["gasto",-9.628328024133836],["cena",-9.630353277833759],["conoce",-9.63056166841219],["Barcel",-9.631258137178643],["Albert",-9.631337600445605],["reporte",-9.63192344266291],["seguido",-9.632247554566325],["tina",-9.634604794099076],["oficina",-9.635267180194148],["convertir",-9.635296089296865],["estima",-9.635425311968891],["ctor",-9.635454027156316],["tuvier",-9.636407182084147],["mesa",-9.636595102969814],["aporta",-9.637050270614095],["presentar",-9.637757549941842],["conocida",-9.638206165974953],["presentado",-9.63892812848808],["máxima",-9.639376022038189],["término",-9.639376100285721],["frontera",-9.63937643382183],["caída",-9.639397163646182],["financia",-9.639431159719564],["ejercicio",-9.639446169989899],["junta",-9.639903020176003],["Juli",-9.640646685561986],["declaraciones",-9.641269036965873],["precis",-9.642481585240265],["°",-9.643508253213428],["competencia",-9.643508369442088],["premio",-9.643603281547893],["incorpora",-9.644430544837245],["hermano",-9.644673659201349],["robo",-9.644948176838657],["ji",-9.646634242696049],["vivi",-9.64736677751954],["pérdida",-9.647657632049787],["Cómo",-9.647769778703672],["Valencia",-9.648127502810723],["interna",-9.648127790911758],["meta",-9.648649893155032],["gua",-9.651178533136136],["Á",-9.651737753844607],["género",-9.651824359628623],["llamada",-9.652697885748854],["apena",-9.653176991898881],["tratar",-9.653240696524579],["triunfo",-9.654157102208444],["Her",-9.655535634855225],["pensar",-9.65679713918148],["line",-9.658459175620415],["peso",-9.658601743109564],["34",-9.659464205688835],["cobr",-9.65951854595659],["diálogo",-9.660210165188527],["médico",-9.660610806842822],["integrante",-9.661297145724491],["solicit",-9.661447105910833],["CO",-9.661976843512743],["tratamiento",-9.662052316443123],["Franci",-9.6634044095575],["entes",-9.663705811950425],["completo",-9.664431891221792],["rica",-9.665490927745719],["coloca",-9.666856744649209],["provoca",-9.667434034981603],["Tra",-9.668161608395094],["estadio",-9.668409835573401],["pet",-9.66847439693507],["Jorge",-9.66866710562045],["mari",-9.669166498983069],["int",-9.66945431176638],["banda",-9.6695173341336],["The",-9.670931798447567],["tán",-9.672921215902587],["amarilla",-9.672969435251442],["Wi",-9.673693056251665],["alerta",-9.673823518100084],["productor",-9.67477350674993],["lanza",-9.675118844067473],["río",-9.676132270531522],["Banco",-9.677268463414432],["afectado",-9.677809765151899],["derrota",-9.678042737549095],["pelea",-9.678300657374194],["tendencia",-9.678789595463794],["inst",-9.679269232331084],["form",-9.679587575687062],["alimentos",-9.681490304456235],["confianza",-9.681575445754923],["iniciar",-9.68197327815954],["funcionarios",-9.6847344111309],["continuar",-9.68530616739493],["US",-9.685611766129584],["disminu",-9.685797844584478],["cé",-9.687143187007386],["corte",-9.688922156315773],["guarda",-9.689132045605561],["amba",-9.689709349509128],["lógico",-9.69012826153054],["Defens",-9.690143430202534],["cierre",-9.690164044310986],["enfrentar",-9.691331406631448],["cultural",-9.691452521007104],["Cer",-9.692207761241903],["Otro",-9.692226032924065],["pie",-9.692515344559094],["sueño",-9.694200493867829],["Martín",-9.694431706820296],["Servicio",-9.694474874978894],["Qatar",-9.694484004261893],["Pablo",-9.69451619792329],["coche",-9.695059605204396],["tienda",-9.695906275342018],["traslad",-9.696132657688723],["rival",-9.696802492075301],["ología",-9.697470762643931],["quería",-9.698117343994152],["parecer",-9.69813271626528],["teléfono",-9.698841433747795],["pequeña",-9.6988465726931],["fren",-9.699864179215346],["Camp",-9.7002536975033],["He",-9.700939890194949],["vive",-9.703186471573893],["necesaria",-9.70322750407422],["protesta",-9.703413876683255],["error",-9.705200759235225],["transforma",-9.705766500399623],["dará",-9.70614532212064],["ubica",-9.706215345618412],["continu",-9.707032794646947],["dosi",-9.70715330232342],["abogado",-9.707648389596581],["fase",-9.708860554295725],["diferente",-9.711480351669929],["vuelo",-9.712098389452898],["Biden",-9.713170521206946],["registro",-9.713513902983568],["banco",-9.715424354164643],["alcanza",-9.715741655994922],["deporte",-9.715769694428111],["Ka",-9.716175578608652],["ocasione",-9.716185948851237],["crítica",-9.716502176469927],["tradicional",-9.716513538702166],["quién",-9.71656779705277],["Torre",-9.716627352352017],["Sh",-9.716635105861915],["paga",-9.717108598820772],["llena",-9.717177115747697],["té",-9.717586049640358],["debate",-9.718956519884406],["avanza",-9.719961979081784],["institucion",-9.720442978567517],["diez",-9.720604699210815],["abierta",-9.720967814591447],["covid",-9.721051130855018],["André",-9.72107302228719],["Cha",-9.721112299807361],["encima",-9.721218477178486],["común",-9.72126412325077],["cuál",-9.721276375349897],["exporta",-9.72153767774273],["dispar",-9.723323884517217],["González",-9.725450497477576],["muerto",-9.725460141571038],["Antoni",-9.725461684948858],["global",-9.725463770163486],["ff",-9.725904078380502],["Vo",-9.726166037853794],["personaje",-9.726445945059243],["tir",-9.726978201677252],["met",-9.727597984634127],["36",-9.727986378073798],["entorno",-9.728401647702807],["flu",-9.728659702540334],["llegado",-9.728694274695414],["posicion",-9.728938908679494],["cuadr",-9.729056228864671],["abierto",-9.729956129122028],["Covid",-9.729968566399648],["comisi",-9.73145078193815],["ice",-9.731558878310828],["hue",-9.732319707335595],["gener",-9.733479592853445],["página",-9.734479907246929],["física",-9.73447998697159],["discurso",-9.734644093708484],["obtener",-9.735765916907496],["dur",-9.735816570969774],["Hace",-9.736148394856073],["CE",-9.736782790288874],["cida",-9.738074987763131],["Ben",-9.738398415855592],["iana",-9.73853719076091],["móvil",-9.738834141613495],["imos",-9.739749595317166],["espacios",-9.740359153352253],["factor",-9.740529601138206],["cía",-9.742006002096588],["turno",-9.74219864470382],["olvid",-9.743474610195948],["tráfico",-9.743591606717976],["futbolista",-9.743981460081642],["Perú",-9.744250610310747],["virus",-9.744776225882138],["ib",-9.745575169118531],["compr",-9.745938716211425],["micro",-9.746618652144479],["aprob",-9.746932644392803],["gal",-9.747049766773591],["pese",-9.747265362464772],["tario",-9.74804275825057],["tía",-9.748217413450917],["presupuesto",-9.748735289209886],["herido",-9.749228368232735],["ambiente",-9.749347251696687],["ofrecer",-9.749615604547685],["Sol",-9.750310969515137],["199",-9.750378444752245],["ocurrido",-9.751602594277617],["recordar",-9.751868448752688],["º",-9.752787004345102],["beneficia",-9.752787009522649],["Hospital",-9.752787033420084],["entrenador",-9.75283156905098],["tranquil",-9.752847507935426],["competi",-9.753057158451448],["bri",-9.753365306391501],["migrante",-9.754337282849054],["supone",-9.754580924060107],["intenta",-9.754964716415355],["corta",-9.75501479377139],["Gar",-9.755927327704782],["liga",-9.756030624024799],["quí",-9.756104567742671],["quedar",-9.756151633992257],["disposición",-9.75764281964371],["pobre",-9.75878842762753],["abrir",-9.759909344630959],["revis",-9.75998318314964],["Ur",-9.760187996604113],["Flor",-9.760437368377508],["rigen",-9.760740316687746],["Alemania",-9.762067811051235],["departamento",-9.762068106532322],["nueve",-9.762074369995954],["proporcion",-9.76220105667366],["Direc",-9.764103607597637],["texto",-9.764134133563255],["requiere",-9.766306789864974],["desarrollar",-9.766323592804426],["Alejandr",-9.766740754103546],["usted",-9.767128003129798],["ign",-9.767486162058141],["cabe",-9.767883969437142],["cero",-9.76857112301326],["gole",-9.769815420941448],["larga",-9.769820376084493],["75",-9.770061571862776],["vuelve",-9.771439600719951],["Cultura",-9.771442388486822],["chu",-9.771770831393159],["potencia",-9.772444273410606],["abri",-9.772596150817341],["cuyo",-9.773462544000967],["convoc",-9.774487844667895],["investigador",-9.77547336715332],["compromet",-9.775496828319852],["Obrador",-9.776154596474644],["Está",-9.777901126637111],["ún",-9.778705520416636],["promedio",-9.778706793795607],["motor",-9.778989525120501],["Municipal",-9.780083503146784],["canal",-9.780773242658144],["técnica",-9.78089185424348],["correspondiente",-9.780891984208273],["políticos",-9.780940129494244],["doble",-9.781322578843664],["acaba",-9.781556466079234],["realizará",-9.782332542441399],["comida",-9.78314233583674],["Ent",-9.783907790293917],["aumenta",-9.784539782343263],["tren",-9.785228419663365],["iento",-9.785371421625463],["habitual",-9.78565384495305],["posterior",-9.785653904857977],["mínimo",-9.785676241350188],["Sur",-9.785949266242723],["justa",-9.786069659073004],["quil",-9.7861302384583],["altura",-9.787379484571485],["precisa",-9.788370434533135],["diseño",-9.790214680912126],["profesor",-9.790438506000417],["aprovech",-9.790469283407276],["corrup",-9.790621101332714],["eleva",-9.790687935220735],["confirma",-9.791840100703798],["agresi",-9.793440905388517],["tividad",-9.794309673456372],["terna",-9.794387989649309],["PS",-9.794498712000145],["probar",-9.794926345384066],["venezolano",-9.795246147329305],["Mal",-9.796374214056641],["funcione",-9.797932898449067],["conduc",-9.799766438688474],["Puerto",-9.800079742840794],["teng",-9.800245169475408],["enorme",-9.800458380114417],["talló",-9.800894083610533],["recibido",-9.801285166299193],["salva",-9.801543293435543],["comprar",-9.80249688239017],["tores",-9.804435149177518],["libera",-9.804462150736038],["carretera",-9.804932012700014],["argument",-9.80498950826875],["Martínez",-9.805144303527776],["hará",-9.805429991405092],["hotel",-9.805571550213708],["Plan",-9.806139624024334],["lejo",-9.806739504220355],["’,",-9.80732383367501],["empresario",-9.807409708274928],["pendiente",-9.80761384317627],["coraz",-9.807862799910119],["moto",-9.809080527172448],["objeto",-9.809812470447582],["%)",-9.809876569016042],["evolu",-9.810058426799817],["Unió",-9.810593023862003],["sancione",-9.811377797794034],["33",-9.812163685651576],["efectivo",-9.812814450498003],["registrado",-9.813292367659265],["directo",-9.814609291968068],["conferencia",-9.814717232220158],["dispositivo",-9.814839921197272],["agradeci",-9.815023460256494],["legi",-9.816102101003958],["dando",-9.816128712440708],["funcionario",-9.816694562438204],["acumula",-9.81712179767031],["ist",-9.818283301263651],["PA",-9.819419503340779],["continua",-9.82021034559828],["provincial",-9.820992060929228],["nota",-9.821312864259735],["asistencia",-9.822519808693897],["aná",-9.822528631725909],["razon",-9.823096113908196],["32",-9.823557651575186],["ubicado",-9.824489478834867],["izquierda",-9.824588034210063],["Federal",-9.824588852129118],["38",-9.825922783576129],["reto",-9.826925142029975],["hacía",-9.827845943320638],["darle",-9.827951648743834],["concentra",-9.828747271864788],["combustible",-9.829563157946243],["Santiago",-9.829563437576358],["poli",-9.83058109911099],["vaya",-9.834084561397669],["trás",-9.834192810874129],["garantizar",-9.834399826239574],["propiedad",-9.834563911801354],["negro",-9.8345858974849],["privado",-9.834601184358576],["comercio",-9.834706644686676],["Norte",-9.834722914128797],["española",-9.835003984221665],["funda",-9.835547459502315],["dona",-9.83634772051958],["derecha",-9.839603168284722],["poca",-9.839659682487966],["ix",-9.842074375038585],["confi",-9.842226373746026],["domicilio",-9.842341066067565],["terra",-9.842774421625812],["infec",-9.843649300039575],["Central",-9.844651352196596],["pantalla",-9.84468670679587],["cruz",-9.84472512462565],["publicado",-9.8456798605984],["actualidad",-9.84795355930821],["comenzar",-9.84885406471069],["velocidad",-9.849715125503785],["Sobre",-9.849760669123718],["esperar",-9.849824062066528],["terreno",-9.849849177857514],["documenta",-9.849850851994358],["Fernand",-9.850286076952258],["agencia",-9.850423273816737],["esperan",-9.85099021771056],["acusado",-9.851264571395541],["ko",-9.851487900821454],["cerr",-9.853656070808768],["cuesti",-9.854172981304787],["médicos",-9.854330585444377],["Instagram",-9.854816971513152],["pronto",-9.85496491822724],["ular",-9.855174004662821],["tuvi",-9.855285770634612],["renta",-9.856682303145035],["Cristi",-9.85704028358401],["anuncio",-9.857420640113158],["cerrar",-9.857478643097561],["65",-9.858901670023524],["tele",-9.85891350891879],["tti",-9.859014171900846],["estilo",-9.859363283214453],["relacione",-9.85980971478361],["naturale",-9.860684597548351],["herida",-9.86095608717005],["sentir",-9.86141663609343],["Leó",-9.862567066552295],["fondo",-9.862777440962493],["voy",-9.864775444070682],["presidenta",-9.865058742887912],["empezar",-9.865403564398765],["pira",-9.865809167233985],["adapta",-9.865943399161779],["siglo",-9.866065107180237],["época",-9.866147579248153],["señor",-9.86668808267755],["’.",-9.867037147197525],["MI",-9.868189548899547],["300",-9.868410432553606],["droga",-9.868461392226088],["querido",-9.86982044072386],["alimenta",-9.870043425675785],["Pública",-9.870281162987066],["histórico",-9.870281163866096],["infraestructura",-9.870281369650971],["rápido",-9.870323896856771],["constante",-9.8707916778685],["48",-9.871007574166944],["Costa",-9.871129454543572],["Educación",-9.871661810350126],["presta",-9.87306970201989],["lesion",-9.874138373794151],["Ser",-9.875291140276648],["Asocia",-9.875499507107438],["visitante",-9.875536098141456],["peri",-9.875754132343499],["critic",-9.877286305423077],["Pr",-9.877555094752768],["esposa",-9.878505971411993],["contrario",-9.879858399579607],["promo",-9.880370200374166],["eléctrica",-9.8807250984956],["Partido",-9.880738521858305],["solicitud",-9.880913639122724],["justo",-9.881186225651728],["Min",-9.881833311985869],["Ob",-9.882318906312223],["Dios",-9.883697368409067],["haga",-9.885044991872],["hua",-9.885605251961433],["previa",-9.88623385267716],["aumentar",-9.886267462638791],["salario",-9.886444393666235],["proces",-9.886660714961778],["recuerda",-9.886899025287558],["reclama",-9.88748071124066],["mando",-9.888585073672793],["mini",-9.89011103908829],["respond",-9.890560087404207],["expertos",-9.891925395557141],["dict",-9.892157300171807],["plantea",-9.892276053529022],["asunto",-9.892307587940058],["domin",-9.893194481078357],["falleci",-9.895250396233168],["bió",-9.895821259839185],["eléctrico",-9.896598410609949],["búsqueda",-9.896598699385766],["Club",-9.896598811852591],["experiment",-9.896600535347293],["construir",-9.896601234302743],["Pérez",-9.896601284046113],["docente",-9.89763724899068],["multi",-9.898283103896045],["Toda",-9.89854665270841],["400",-9.89890508356828],["dicha",-9.899531569635702],["migra",-9.899564180367324],["dejado",-9.900213295802303],["pista",-9.900630904895083],["americano",-9.900879928309642],["compañeros",-9.901571750000059],["horario",-9.901651957508534],["voca",-9.901911499234629],["recomenda",-9.90218845126811],["elabora",-9.902758321778379],["utilizar",-9.902970148765597],["quiero",-9.903543410983282],["descubri",-9.904136526082002],["actuar",-9.904408736327198],["atender",-9.904842744382856],["acudi",-9.905303346018776],["Fu",-9.905557749972093],["Medi",-9.90570934872172],["apareci",-9.905848680896336],["cap",-9.905974716906066],["límite",-9.90732258227036],["blanco",-9.907330418057995],["síntoma",-9.90737748409607],["aquella",-9.908232722015313],["áreas",-9.909456114713931],["deportivo",-9.910866079360204],["encuesta",-9.911022647579301],["trat",-9.912003669454062],["produj",-9.91272926319205],["ofreci",-9.91289980585154],["acceder",-9.913269994276572],["afectada",-9.913309810867128],["part",-9.914487519563062],["depende",-9.914526111573391],["comentario",-9.915117188135882],["crim",-9.915312626062294],["coste",-9.916105460315514],["norma",-9.916840743083569],["apoya",-9.91706526774178],["beneficios",-9.917860522965778],["apunt",-9.918114133531432],["madrugada",-9.918162537108074],["exterior",-9.918162651028574],["report",-9.91826060878183],["habitantes",-9.9182619502011],["portavo",-9.918327902401115],["bomba",-9.918907319464552],["tomó",-9.91910867107779],["previsto",-9.91923326872095],["dicen",-9.919522345535885],["partida",-9.919565306061154],["trasladado",-9.920207368523354],["Corte",-9.922829794201355],["puerto",-9.923634266661672],["distancia",-9.923636389028903],["privada",-9.923642002653228],["mostrado",-9.923679226189467],["Pas",-9.9240481745116],["inició",-9.924706803350428],["ciclo",-9.92476503105657],["ciencia",-9.925302003014984],["Nicol",-9.926069142551473],["miedo",-9.926150539818453],["Jes",-9.927267251459124],["reconocimiento",-9.927304359191952],["identific",-9.92822322058852],["PC",-9.92871422235752],["+",-9.929121522187447],["respeto",-9.929130563665247],["vacunación",-9.929385588959056],["establecimiento",-9.929395220099755],["actri",-9.929457428788098],["respondi",-9.929555553543267],["tendría",-9.929575724626027],["UE",-9.929608507957639],["rendimiento",-9.929718513440719],["villa",-9.929858424590542],["regres",-9.930049085506663],["result",-9.930332321117664],["entender",-9.930417234666244],["corto",-9.93068177301792],["azul",-9.930708199821616],["bot",-9.930715033464669],["toca",-9.930717518777058],["reporta",-9.931171488834927],["provoc",-9.931211066878955],["carta",-9.934409358143597],["Grupo",-9.934655480817167],["diverso",-9.934663604867275],["diversa",-9.934697382501781],["modifica",-9.934719584073385],["participante",-9.935457966348253],["tú",-9.936578190217173],["Europea",-9.936767445517418],["quis",-9.937062258317974],["tion",-9.938362706151217],["ance",-9.938575478349364],["adolescente",-9.940202262742755],["adulto",-9.9402053212506],["escala",-9.942692437234797],["ganador",-9.943487492933533],["suelo",-9.944612441736664],["aut",-9.945139070203899],["audiencia",-9.946144313975072],["seguirá",-9.946203839060903],["invita",-9.946284616193331],["concreta",-9.946580452697336],["delantero",-9.948380591367055],["existen",-9.948553576118876],["ejecut",-9.948713711519744],["potencial",-9.95036326498452],["cay",-9.9510507442836],["democracia",-9.951406510201945],["especie",-9.951419450472612],["sujeto",-9.951484481115768],["reconoci",-9.951580126526892],["exige",-9.951700104679468],["agenda",-9.951933582956581],["pieza",-9.952453908465388],["ocurre",-9.95246366771905],["nacionales",-9.952705707350624],["fondos",-9.952889730743856],["revel",-9.953578343406217],["arle",-9.954092259131349],["sigui",-9.954221348570034],["Tri",-9.954587186069798],["conversa",-9.95513758000664],["revela",-9.956663881590078],["alumno",-9.957063976373279],["combina",-9.95737631413736],["ritmo",-9.957386441984239],["seguidor",-9.957453685974153],["rina",-9.957595180203189],["esperanza",-9.957645424295844],["Ana",-9.957661322118149],["ética",-9.958092715203787],["resalt",-9.9583686151228],["hí",-9.959755389404894],["Cuba",-9.959862955589792],["especialista",-9.960033007099831],["escrito",-9.960066548635641],["ible",-9.960162651800998],["recuperar",-9.96045555902598],["198",-9.960745002489908],["punt",-9.96086000208997],["Q",-9.961618137930728],["Mat",-9.962381091994148],["escolar",-9.962940345913236],["trabajos",-9.962979822334622],["viola",-9.96458655999717],["vino",-9.964893891944644],["prisi",-9.965362735592995],["Desarrollo",-9.968452335195359],["permanece",-9.96845298403932],["coronavirus",-9.968473143183061],["Dieg",-9.969168981370593],["corresponde",-9.969317577322379],["resolu",-9.972635974964206],["actualiza",-9.972689933441],["activos",-9.973209902290034],["cimiento",-9.973300742736694],["médica",-9.97419973270091],["período",-9.974200292120189],["piloto",-9.974306886382875],["camina",-9.974343388631036],["estuvier",-9.974685159080344],["ejecu",-9.976422432361119],["ucraniana",-9.979979805542232],["europeo",-9.979980246667132],["Derecho",-9.979990632233498],["Pri",-9.980008090170953],["aproximada",-9.980064615932804],["refiri",-9.980404809105176],["invasi",-9.98130619156418],["fas",-9.982574217392852],["rup",-9.982961759715533],["transi",-9.984155980737313],["extranjero",-9.985793790830247],["Tribunal",-9.98579385756899],["ámbito",-9.98579513424966],["musical",-9.985812455666412],["sentencia",-9.98602826880369],["guer",-9.986496555062818],["exigi",-9.98726696135354],["disfrut",-9.987405840469378],["abandon",-9.987750656379346],["parque",-9.988481575851111],["inicial",-9.989215419170964],["tenta",-9.989433633795874],["alza",-9.989928722668733],["ilegal",-9.990270932296067],["intentar",-9.990765648618396],["Guardia",-9.991641950474083],["talento",-9.992033356743812],["segura",-9.99335722047569],["DE",-9.99355793187939],["ES",-9.995382137251426],["ético",-9.996232130064815],["cubr",-9.996703162163],["graba",-9.997135432043734],["nega",-9.997301521112718],["advirti",-9.997524272336651],["apertura",-9.99757379541822],["plena",-9.998157554306243],["pareci",-9.998189192117774],["incidente",-9.998359263755642],["torno",-9.998702478921363],["viento",-9.99942114357429],["dañ",-9.99960453478294],["MA",-10.00177287771131],["Bal",-10.002223064412643],["marc",-10.00236683074332],["37",-10.002692468735574],["crédito",-10.00344125964222],["consumidor",-10.003452553643534],["hubiera",-10.003464553333737],["Palacio",-10.003491854618481],["concierto",-10.003583302640253],["lidera",-10.003600541060619],["recorrido",-10.003737880031398],["gimen",-10.00454937203402],["intento",-10.004667347447215],["solidar",-10.006128986106308],["Rosa",-10.00699642422186],["chico",-10.007530296924456],["manda",-10.00787831103072],["ambi",-10.008615910721288],["CI",-10.008726877961141],["cierta",-10.009478139876872],["lanzamiento",-10.009869663597662],["turismo",-10.010005279029125],["extrem",-10.010120360758766],["fallecido",-10.011089329710256],["duro",-10.011150448551502],["mez",-10.01337415145353],["test",-10.014380187524754],["característica",-10.015381633209941],["porcentaje",-10.015383169644986],["ciudadanía",-10.015384271485356],["Creo",-10.015934897434184],["Plata",-10.016411188054565],["uli",-10.017542664767245],["informado",-10.018817821495109],["viendo",-10.019126859062483],["coordina",-10.019607719681584],["moviliza",-10.019765793937411],["respald",-10.020136488854517],["conoci",-10.020877074137037],["York",-10.021426217364777],["tribunal",-10.021552638212198],["respeta",-10.021748890904636],["Hernández",-10.022095286857216],["organizado",-10.022682678091023],["jer",-10.022943577559246],["interpreta",-10.023834227166557],["escucha",-10.024039874142218],["siente",-10.024061231225481],["original",-10.025701416626202],["dependencia",-10.026065655066395],["perdido",-10.026220547268728],["Público",-10.027466330787913],["presidencial",-10.027669531218475],["estim",-10.027820313996799],["podi",-10.028615721284634],["Unido",-10.028762763811041],["directora",-10.029302574736839],["Cre",-10.031119672829448],["Santo",-10.032870102717336],["resolver",-10.033571782783532],["OTA",-10.033640819287372],["anticip",-10.03365793476903],["superar",-10.034007789328093],["relacionado",-10.034118876412759],["segui",-10.034276807889558],["iste",-10.034570664052122],["FC",-10.036788410430102],["alifornia",-10.03969894591733],["vuelto",-10.039699762219204],["perfil",-10.039907366440767],["escuchar",-10.039990115407075],["rama",-10.040045617776917],["gira",-10.041776158896553],["movil",-10.043656989072648],["centra",-10.044651961194159],["viajar",-10.044808574701808],["Solo",-10.045486793876773],["Constitu",-10.04587241110402],["presunto",-10.045886467483392],["procedimiento",-10.045992575099262],["misiones",-10.046059070801663],["impact",-10.047151176628201],["incluyen",-10.047333440233992],["traer",-10.048313469452221],["trato",-10.048959399590903],["destacado",-10.049326582983152],["detect",-10.049475083244063],["solucione",-10.049511520744778],["supuesta",-10.049804593364493],["ocas",-10.049953698595653],["intent",-10.050166831906612],["Sab",-10.051048665344968],["goberna",-10.051278029801036],["peti",-10.051490895970947],["fotografía",-10.052083253155141],["permanente",-10.052083723720749],["orgullo",-10.052084272819853],["85",-10.052293077768198],["orienta",-10.05231440298931],["establecer",-10.052452843727375],["arriba",-10.052628679638785],["colectivo",-10.052675795068414],["jada",-10.052689249111248],["tramo",-10.052838377567042],["vivo",-10.053149967105846],["maneja",-10.053194618191878],["señalado",-10.053384403006849],["autoriza",-10.054338953340654],["compart",-10.054445127043943],["frac",-10.054453252237696],["interese",-10.056687303122438],["protagonista",-10.058332880847404],["Departamento",-10.05833288754748],["comienza",-10.058333460412237],["prohibi",-10.058334972810005],["inmediata",-10.058347265806542],["tabl",-10.059542051533164],["IN",-10.05976216140878],["oro",-10.06019226002062],["coincid",-10.06080717488312],["VI",-10.061213135489089],["Fer",-10.063714431398813],["compartir",-10.063732941682431],["tus",-10.063856478899458],["homicidio",-10.064622190383584],["incluido",-10.064622207670741],["beneficio",-10.064971953070847],["peg",-10.065042540948625],["igualdad",-10.06513491815378],["felic",-10.065992881825554],["sufr",-10.065999107455491],["condi",-10.066678367505666],["Tele",-10.067331084367979],["inversion",-10.068521670306662],["elimina",-10.069858502694101],["alcanz",-10.069913846728832],["Ki",-10.07011679585436],["calor",-10.070802237588861],["espectáculo",-10.07095130279043],["Nuevo",-10.070951643169694],["legislador",-10.070954471613582],["restric",-10.070967226927543],["instancia",-10.070968485115959],["identidad",-10.070979083802781],["suerte",-10.071114225205108],["captura",-10.071196823013402],["vídeo",-10.0713849015855],["tista",-10.07158507786702],["suministro",-10.07379863740825],["39",-10.074392687780076],["pac",-10.07440514315551],["emocion",-10.07458892223585],["dina",-10.076232570264388],["implemente",-10.076322663592059],["comienzo",-10.077321128693306],["trimestre",-10.077321503355336],["convocatoria",-10.07732543599882],["alternativa",-10.07732618162418],["Álvar",-10.077327391184223],["David",-10.077331476399742],["respectiva",-10.077342701959145],["combate",-10.077376766368701],["independiente",-10.077427969919661],["Alguno",-10.07745187211054],["anunciado",-10.077628005942003],["44",-10.07868721673055],["55",-10.07993505025204],["apoyar",-10.081385942941878],["Sam",-10.082899564245746],["escena",-10.082905606589602],["Castillo",-10.082925860623753],["Monte",-10.083704438429029],["múltiple",-10.083730985951487],["dificultad",-10.083730997158971],["récord",-10.083733315140737],["reiter",-10.083954933980724],["pretende",-10.084081296074302],["llevado",-10.08459224581075],["sumar",-10.08466022681558],["ampli",-10.084965249093036],["vacacion",-10.086166197206751],["menes",-10.086652657641267],["anima",-10.089291479020915],["adicional",-10.090175235800682],["contempla",-10.09019539062306],["meter",-10.0907894401926],["estable",-10.09082407803944],["lateral",-10.09170158633612],["pur",-10.09205537696674],["subida",-10.092166356160348],["River",-10.092361829645716],["Regi",-10.093571400365633],["detalla",-10.094295408928446],["estaría",-10.094311635084592],["permitirá",-10.095700216271105],["Federación",-10.096676287900525],["asesinato",-10.09667658975336],["sorpresa",-10.096676850970681],["defendi",-10.096739160911303],["discusi",-10.096849725648156],["asegurado",-10.096985702417163],["Sergi",-10.097044321653206],["igi",-10.0970535277208],["dejan",-10.097155453543227],["contagios",-10.097165911194027],["regreso",-10.09731708705361],["condicion",-10.097520742265957],["Reino",-10.098064416934697],["Tiene",-10.098516892150853],["marg",-10.0990728950883],["perro",-10.099103396534055],["piso",-10.09945539131782],["avanzar",-10.099925048656118],["ólogo",-10.099956214415798],["brindar",-10.100255056036492],["logrado",-10.101046901590484],["Senado",-10.101282782708317],["anota",-10.101984063327059],["avenida",-10.102034433718696],["Fin",-10.102244618238128],["financiero",-10.103212055142542],["temporal",-10.1032149729863],["Javier",-10.103215994900381],["pleno",-10.103335098101606],["pondrá",-10.103374174066289],["ojos",-10.104460119830286],["Sala",-10.104801560441942],["planeta",-10.10485822789638],["And",-10.105007105736263],["feria",-10.105253919943516],["ropa",-10.10736981163102],["region",-10.108098676184937],["realizan",-10.10838901048569],["proteger",-10.10881916269491],["frica",-10.109074211627696],["histórica",-10.10979100176203],["demasiado",-10.109794498552095],["prevé",-10.109796878560145],["cielo",-10.109800720923834],["rueda",-10.109808179361544],["criminal",-10.109823262327383],["Italia",-10.109836491929173],["denunci",-10.109910964510746],["factura",-10.110100086073928],["vir",-10.110822844630064],["BA",-10.111054574930144],["AM",-10.112540184579458],["II",-10.112762412192541],["residente",-10.113231438303073],["firmado",-10.113302829744711],["conect",-10.11340468544889],["tería",-10.114763249402472],["relat",-10.115577512652967],["ístico",-10.116331109982733],["virtual",-10.11641890086834],["inmediato",-10.116425379752137],["mensual",-10.116458445139296],["colec",-10.116609503550006],["previo",-10.117504605359834],["boca",-10.118048540136854],["habita",-10.118610343949616],["fuente",-10.121406602998007],["deseo",-10.121522530932921],["vice",-10.122490346196475],["46",-10.12262366097724],["convirtió",-10.123080272017305],["absoluta",-10.123080952487678],["Actual",-10.123087061226425],["actuación",-10.123232200692904],["42",-10.123241369868639],["senador",-10.12379249665145],["asesor",-10.124200351753966],["elegir",-10.125067703633512],["cancha",-10.125145525575647],["acepta",-10.126184990599095],["Otra",-10.128833055969498],["util",-10.1297676547149],["consciente",-10.129799019739648],["once",-10.130814387757816],["cter",-10.130900506417658],["colonia",-10.132026902670642],["ronda",-10.132319125111714],["cará",-10.132506219148105],["disparo",-10.133738934499078],["realizada",-10.13425067231362],["disco",-10.134666363617814],["guía",-10.135121972361334],["Valle",-10.13607000121462],["culpa",-10.136519094189733],["petróleo",-10.136548349942526],["Fuerza",-10.136559355233809],["capacita",-10.136776335794487],["restaurante",-10.137023514280674],["establece",-10.137454095728057],["anteriores",-10.137798711739457],["wi",-10.139808284500997],["monto",-10.14098047802512],["localiza",-10.1424754754056],["convertido",-10.14335251969106],["feliz",-10.143460224019723],["concreto",-10.143466101661023],["permita",-10.14358617178514],["dirigido",-10.14529034029464],["libra",-10.145405906400018],["bajar",-10.14686633727527],["arranc",-10.147420178414812],["rum",-10.14757283879122],["rus",-10.148048964966108],["turista",-10.149259063122887],["terminado",-10.149365558528686],["testigo",-10.150207592923255],["Daniel",-10.150247001302079],["complejo",-10.15033483575685],["Paul",-10.15105377485393],["lleno",-10.151259030576902],["brazo",-10.151378541897518],["cocina",-10.151849031849073],["cuya",-10.15208463974216],["subir",-10.152125822924333],["levant",-10.152632857627374],["condena",-10.153511893212801],["onda",-10.154092445029594],["solicitar",-10.154943933090092],["km",-10.156577474079413],["individual",-10.15709693788309],["expectativa",-10.157096940574483],["actitud",-10.157097028739871],["Inclus",-10.157099147630507],["John",-10.15712297296611],["clima",-10.157224690445974],["innova",-10.157565921725686],["corri",-10.160825531469209],["Kar",-10.161138120577178],["sucede",-10.163247322868358],["doctor",-10.163471513702639],["distrito",-10.164042111897503],["secuestr",-10.16404352198574],["episodio",-10.164048726110977],["pasajero",-10.164052598342977],["concepto",-10.164076030151032],["conomía",-10.16444280168371],["Comunidad",-10.164517518212783],["destacar",-10.165207683558673],["transmisi",-10.166344649776464],["euro",-10.166766784324977],["comet",-10.167677920206206],["Mosc",-10.169033216096516],["industrial",-10.170067325005904],["colombiano",-10.17103438918772],["cárcel",-10.1710344206396],["básico",-10.171035749488645],["referente",-10.171051115278043],["Organiza",-10.171052851866918],["certifica",-10.171053853878025],["limpia",-10.17126409614188],["Junto",-10.171349289744319],["residencia",-10.172280926483442],["roga",-10.174451506321173],["comenta",-10.174899422027707],["organizacion",-10.175125339086927],["aporte",-10.175468287047707],["opcion",-10.177603866471166],["cambi",-10.177645028328492],["órdoba",-10.178082227242612],["asistente",-10.178084087867346],["pronunci",-10.17808525886866],["cáncer",-10.178086197699468],["insisti",-10.178118672380567],["registrar",-10.179716269789834],["Poder",-10.179933250754148],["celebr",-10.180649140267324],["efectiv",-10.180812608065068],["consum",-10.180818003527694],["empate",-10.181123627234161],["agro",-10.181996269077985],["operacion",-10.184416930769663],["esperaba",-10.184539855117185],["sanitario",-10.18517213064554],["difundi",-10.185180278398093],["dueño",-10.185182111945945],["éndose",-10.185222133491777],["parcial",-10.185232217442259],["app",-10.185404665794742],["honor",-10.185504682591873],["sostenible",-10.185759752888991],["usuario",-10.186722158695979],["Unidad",-10.1873397145493],["sangre",-10.187677808716167],["hidr",-10.188549794033236],["ubicada",-10.188734245583454],["viaj",-10.189186596656846],["tabilidad",-10.189228439256226],["RE",-10.191045856028074],["Im",-10.192151697488143],["requisito",-10.19231307230947],["cuarta",-10.192361772701815],["garantiza",-10.192569285798584],["excep",-10.193926051308429],["cercano",-10.195102603427301],["permitir",-10.196110272063873],["cast",-10.196414690074118],["reconoce",-10.196769892154556],["variante",-10.196837087098002],["43",-10.199320502881047],["nuclear",-10.199505943599794],["Escuela",-10.199530479617929],["sustitu",-10.199543047005537],["consejo",-10.19958722547612],["Puebl",-10.199605156497192],["Protecció",-10.199609261404468],["duelo",-10.199730940089498],["Bor",-10.200420152776061],["celebrar",-10.202344920534486],["mandato",-10.205932753547367],["constitucional",-10.206752340100104],["trámite",-10.206752409396515],["amonestado",-10.206793046608013],["Paz",-10.20709717456776],["playa",-10.207902198599779],["hum",-10.209624712706713],["ificación",-10.210380756386238],["600",-10.211048780209833],["ker",-10.211344487999348],["inaugura",-10.213302033602034],["Uruguay",-10.214051595774727],["desafío",-10.214051613865234],["renuncia",-10.214070552692199],["Messi",-10.216128726175523],["raí",-10.21704708871751],["voce",-10.217864655823249],["hayan",-10.218311210386911],["reconocido",-10.219606226833527],["bolet",-10.220198802792591],["mexicana",-10.221404533816996],["evidencia",-10.221412150719251],["memoria",-10.221412755934455],["inglés",-10.221438216186717],["cambia",-10.221473503250305],["conserva",-10.221501621638728],["visa",-10.223647322799694],["lamenta",-10.223684468878922],["abuso",-10.223871047389482],["imposible",-10.22400794785067],["BC",-10.224014699665034],["Tur",-10.224358193303601],["viven",-10.225033420324584],["Fren",-10.226487455521418],["DI",-10.228666308611224],["científico",-10.228811938556486],["educativo",-10.228813067061347],["alianza",-10.228848578979303],["Robert",-10.228891838581376],["acelera",-10.22890167943756],["cumplimiento",-10.229506626890291],["juega",-10.229900101539043],["trabaj",-10.230560632881033],["refleja",-10.231303368917356],["acompañado",-10.231870915569615],["cerrado",-10.232349936225976],["identificado",-10.232423149905268],["top",-10.232870133253012],["99",-10.233739681289688],["firm",-10.234213405968017],["Don",-10.234669663411236],["financiera",-10.236274627316844],["http",-10.236274965777817],["tránsito",-10.236274979595768],["tormenta",-10.236326604226502],["adecuada",-10.236333155661342],["Gracia",-10.236475495258992],["bolsa",-10.236748617834678],["pregunt",-10.236853742804362],["regula",-10.239137882751251],["ambiental",-10.239499377976555],["caja",-10.240827202471348],["sosteni",-10.242370083984234],["fabrica",-10.242943403450816],["aument",-10.243790202497294],["Washington",-10.243793421999616],["homenaje",-10.243793475594348],["sanitaria",-10.243793545695045],["presunta",-10.243806609926786],["colegio",-10.243818520089619],["progres",-10.243840104380244],["defender",-10.243878631296731],["invierno",-10.243907431168076],["New",-10.244016460512801],["Trum",-10.244566473660665],["49",-10.244718004981532],["otorga",-10.244970442149057],["aplicar",-10.246580433584828],["necesitan",-10.24661461294869],["explicado",-10.24689437688043],["asisti",-10.248151927568927],["cuador",-10.248227781230455],["siga",-10.249129653164776],["vigente",-10.249929212787489],["Mujer",-10.251481150308265],["compensa",-10.251657747877179],["tanta",-10.251835799516726],["percib",-10.251841706083207],["fija",-10.252045747447095],["gica",-10.253998515225206],["consta",-10.254179177183092],["Ant",-10.255320851251835],["acá",-10.25585430137845],["Super",-10.25620811001398],["debut",-10.256751487288977],["órgano",-10.259013560460502],["celular",-10.259081311978381],["hermana",-10.259122567752279],["Turismo",-10.259287742040225],["aliado",-10.259845802925632],["PSO",-10.260272118279442],["presencial",-10.261163872456823],["capaz",-10.261690765686357],["sucedi",-10.261957309948372],["complicado",-10.264454655437286],["llegará",-10.265563037069436],["interesa",-10.265985095295491],["recién",-10.266380117268191],["Tierra",-10.266704636209877],["Gabriel",-10.266727114779279],["campeonato",-10.26673359489386],["Igual",-10.26677338163178],["discut",-10.266794384080805],["lanzó",-10.266811694281717],["caer",-10.26722287974617],["Mucho",-10.267275779597309],["ejecutivo",-10.26750001071192],["visible",-10.267529311570687],["consigui",-10.267695019539644],["52",-10.267794339601293],["ganado",-10.268437487045585],["integr",-10.268479708018843],["sirve",-10.268735817685549],["ideal",-10.26882248707061],["cercana",-10.268849637770193],["recuerdo",-10.274447548859431],["parecía",-10.274463535815155],["transmiti",-10.274464326801583],["Administra",-10.274472574486431],["llegue",-10.274490547892686],["traje",-10.275833265184314],["confirmado",-10.276811115660099],["patr",-10.277418322590396],["delega",-10.277776665963337],["Plaz",-10.278833323689156],["ística",-10.278969215022485],["conexi",-10.280555312636881],["plicación",-10.281286496090349],["Rafael",-10.282260197302307],["Fundació",-10.282281025723677],["vicepresidenta",-10.282321118884866],["ingresar",-10.2824380151883],["tamaño",-10.282511458631163],["Petro",-10.283813087291133],["ocasion",-10.28522157560325],["venir",-10.289082861408225],["cubrir",-10.289367877445166],["astro",-10.290105391476242],["refuerzo",-10.290133739672445],["alcohol",-10.290133898289518],["convenio",-10.290136671794318],["mínima",-10.290140056657396],["tarifa",-10.290162566700545],["empieza",-10.290194721915613],["Suprem",-10.290304443359751],["cancela",-10.290546827848189],["bandera",-10.290887958713139],["Enrique",-10.290973013748225],["corpora",-10.29103747127125],["47",-10.293973497103863],["firmar",-10.294775877492837],["deportiva",-10.295401194165795],["avión",-10.295460521297638],["57",-10.295814507351164],["meti",-10.295824865475026],["68",-10.297437375183872],["Pese",-10.297718093642342],["infantil",-10.29807022787254],["mantenimiento",-10.298070930552985],["físico",-10.298070999221533],["alcance",-10.298110568371921],["sabía",-10.298466630580435],["dispuesto",-10.298615422945007],["vecina",-10.298731289829448],["puente",-10.299151683192415],["continuará",-10.299164498818605],["pelota",-10.29955053204802],["TV",-10.30053841926393],["asegurar",-10.30075548955399],["tendido",-10.300883085174412],["Mont",-10.301164905366614],["41",-10.3011709945027],["Mundo",-10.301291853500729],["diaria",-10.30240020986265],["aprobació",-10.302859508319177],["Trans",-10.304729655012904],["150",-10.30602320018024],["aficionado",-10.306070063224997],["comportamiento",-10.306070092736903],["prioridad",-10.306071689700564],["explota",-10.30607416460705],["fenómeno",-10.306076619649657],["novedad",-10.306103704092376],["alegría",-10.306108553110354],["cruce",-10.306154283570717],["show",-10.30621546853368],["rural",-10.306434704871995],["definitiva",-10.306547728477462],["cuota",-10.306595114141968],["institucional",-10.309078106775559],["Madur",-10.309191294881888],["Puede",-10.309552679602461],["mamá",-10.311349689980013],["fuga",-10.312161417259254],["temática",-10.312536657181944],["particip",-10.313296259227442],["800",-10.313538915953348],["olonia",-10.313725689467523],["armado",-10.314041422291238],["ví",-10.314083473531607],["circunstancia",-10.314134552851481],["perspectiva",-10.314134594071373],["justifica",-10.314135654434725],["quizá",-10.314155653354012],["Agencia",-10.314161898686447],["Trabajo",-10.314636929480212],["ografía",-10.314671800072123],["triste",-10.314987794403823],["UN",-10.31503239001366],["Rica",-10.315419981404215],["79",-10.315482457280616],["egó",-10.316437795475865],["analizar",-10.317437458533774],["Será",-10.317647526418638],["FE",-10.317665018311578],["marcado",-10.318074554736532],["carne",-10.319551572914841],["Ó",-10.322264634152111],["Dominican",-10.322264715123165],["complement",-10.322266804957279],["aeropuerto",-10.322275623945199],["árbol",-10.32229271938916],["elegido",-10.322663201638754],["licencia",-10.322939466982554],["tiro",-10.32308127730692],["viral",-10.323283141585776],["multa",-10.323748038667127],["reaccion",-10.323979141552286],["Diputado",-10.324100815313916],["estableci",-10.324126012859757],["Ger",-10.324615835985705],["chica",-10.32484820712758],["Debe",-10.32503439545831],["Él",-10.326453412034716],["flor",-10.328289342635866],["ocup",-10.328306003631125],["Selección",-10.329201357717285],["americana",-10.330215292213893],["humana",-10.330476944333565],["piensa",-10.331203831169244],["perfecto",-10.331338778745977],["interesante",-10.331506667123957],["cuadro",-10.332540726886762],["esencial",-10.333071041527283],["58",-10.334071481468714],["exposi",-10.33409657195645],["dirige",-10.334123341352178],["Latina",-10.336264682699323],["proyec",-10.336639456395021],["nació",-10.33678192053166],["dign",-10.33685125082275],["propósito",-10.338725821071886],["américa",-10.338725962046343],["Regional",-10.338737655542737],["Ricardo",-10.338757366911274],["Isabel",-10.338759137526974],["intendente",-10.338815707599599],["preven",-10.339875776119005],["simple",-10.3405035004981],["prima",-10.341302573681313],["Roja",-10.342795299219166],["78",-10.343926661448336],["signo",-10.344399836812146],["increment",-10.345528897990674],["invitado",-10.346286281316852],["reina",-10.346800503629217],["sospechoso",-10.347059151641076],["bebé",-10.347061112447122],["concejal",-10.347061284311923],["Gustav",-10.347069339361994],["efectu",-10.347121619845787],["jubila",-10.34720072736074],["Junta",-10.347238517341513],["Sistema",-10.347267855134872],["automóvil",-10.34741953537554],["escrib",-10.348061454192411],["debía",-10.3481266549969],["apari",-10.348352764960138],["dispone",-10.348977595835255],["descuento",-10.34918358692708],["considerado",-10.3493054164205],["66",-10.349484995094828],["Agua",-10.350012555289249],["establecido",-10.35089628314936],["cogi",-10.351145278599304],["qu",-10.35248263091793],["sibilidad",-10.35265768284705],["llamó",-10.354451922091918],["rojo",-10.354677527113699],["aprovechar",-10.355408912019652],["Ejército",-10.35546251295143],["ejército",-10.355462512952716],["increíble",-10.355462521982453],["guardia",-10.356374033655712],["narco",-10.356484193727777],["expresidente",-10.357350129975682],["finalizar",-10.35768736386655],["surgi",-10.358009345520806],["conciencia",-10.358437660083789],["llevará",-10.359303930398017],["motiva",-10.359744821362463],["vender",-10.36383543933188],["argentina",-10.363937623221243],["Zaragoza",-10.363975890469785],["regresar",-10.364141370853211],["producir",-10.364272231596313],["enviar",-10.365175263047476],["festej",-10.365506781608177],["responder",-10.36756261056875],["fallo",-10.368655912850109],["plato",-10.369503831781621],["Facebook",-10.37248409776971],["específica",-10.372484097913823],["candidatura",-10.372484100574262],["satisfac",-10.372484530993358],["voluntad",-10.372484594415937],["Blanca",-10.372491521282505],["turístico",-10.37261651654638],["ilusi",-10.372672692303944],["moneda",-10.372734184210781],["contribuye",-10.372756563596205],["asumi",-10.373164760367764],["güe",-10.374282703241379],["filia",-10.374737793357466],["legado",-10.374822799191822],["desarrollado",-10.374937372102957],["origin",-10.375010435056017],["baño",-10.379038150708206],["Luc",-10.379618921713554],["ett",-10.38047627420109],["mecanismo",-10.381107934210615],["Arte",-10.381382321385],["contento",-10.381825953220904],["radio",-10.38411582134642],["controlar",-10.385877845069777],["mática",-10.386543459551405],["Bru",-10.387394911793637],["ME",-10.3880555504227],["scribir",-10.389745012167639],["protocolo",-10.38980161667957],["sentimiento",-10.389820270463261],["Canad",-10.389820898637488],["impulsar",-10.390084083838488],["perfecta",-10.390723197389928],["recalc",-10.391892940698328],["frío",-10.391951057951225],["decidido",-10.393002164509966],["usan",-10.393542096698319],["formato",-10.394045566389309],["Aquí",-10.395253117528881],["bet",-10.395363307225821],["identificar",-10.395751409840791],["integral",-10.396338395889067],["preparado",-10.396951991099588],["evoluciona",-10.398055866490662],["recoge",-10.398078662057191],["mirada",-10.398497199520024],["ceremonia",-10.398572375376641],["garantía",-10.398572968714689],["sorprendi",-10.398593936140212],["contamina",-10.398718534034057],["ick",-10.39942330295654],["vivencia",-10.399483481174428],["aprender",-10.399743847794722],["definir",-10.400143193522993],["evita",-10.400509200605729],["presidencia",-10.404185652044534],["obtuv",-10.405825379845362],["encontrado",-10.406073838346595],["Marco",-10.40661931256501],["76",-10.406705324934975],["Kirchner",-10.407421926988649],["Investiga",-10.407421927579787],["propietario",-10.407421981303685],["Comité",-10.407424316456863],["sencillo",-10.407440641599031],["construy",-10.407448956938365],["trayectoria",-10.407576523769936],["exclusiva",-10.408156499949964],["inscrip",-10.408195010449182],["reclamo",-10.40888663896646],["índice",-10.409171943745031],["89",-10.411754787075683],["mantuv",-10.413834734310182],["brill",-10.415593869451168],["Clar",-10.416317139460281],["Iglesia",-10.416350500215387],["sorprende",-10.416350830005072],["defensor",-10.41635205501694],["europea",-10.416352529707094],["Popular",-10.416353077873591],["Judicial",-10.416354539946617],["toneladas",-10.416385110137476],["Haciend",-10.416424057600164],["negativa",-10.417181525865125],["soldado",-10.417406088517692],["IB",-10.417759706802435],["rostro",-10.417760810879386],["Rosari",-10.421301613021079],["ponga",-10.421783578392496],["tomado",-10.422150378515589],["App",-10.42455282949206],["extremo",-10.424591921735349],["constituye",-10.424994721997864],["disciplina",-10.425359507855376],["secretaria",-10.425359519832407],["Libertad",-10.42536353434263],["correcta",-10.42537505275523],["urbano",-10.425486176734314],["analista",-10.425548694789308],["érre",-10.425832612428877],["compañero",-10.42599148624333],["encargado",-10.426149932520602],["listo",-10.426254318316499],["batería",-10.426874803322281],["interne",-10.427128696339079],["ich",-10.427287485516281],["mueve",-10.427325611818807],["ille",-10.42830377203231],["cotiza",-10.428386475002924],["coopera",-10.429171339311702],["embr",-10.430116325121428],["escuch",-10.431178538799841],["Franc",-10.431258372603928],["contará",-10.431708807608947],["eliminar",-10.43226131807667],["Gra",-10.434392586905624],["Primera",-10.434465723757235],["sustancia",-10.434487101381073],["Cuál",-10.434856050452279],["interesado",-10.435295224089458],["inteligencia",-10.435344497029947],["empat",-10.436149929779432],["litro",-10.436479693646202],["Era",-10.437096823316915],["aprobado",-10.437783348303453],["ç",-10.443624728400437],["Asamblea",-10.443624732014811],["aniversario",-10.443624739577231],["climático",-10.443625110276383],["reforzar",-10.443626789496516],["vital",-10.443856773150722],["cartera",-10.443876065160993],["asever",-10.445046894117487],["relacionada",-10.446558136850413],["Juego",-10.44709335422337],["crecie",-10.447858900515786],["hospitaliza",-10.448163569289685],["69",-10.448885049608865],["admiti",-10.450110712714324],["preso",-10.45100361768243],["desconoce",-10.45160886388664],["energética",-10.452884018560862],["gratuita",-10.452885215983109],["convierte",-10.452886607394358],["tropa",-10.452906217896334],["destinado",-10.452996705581517],["empresarial",-10.453021013169064],["ahorro",-10.453118834575179],["batalla",-10.4533933413155],["hincha",-10.453413008588617],["postura",-10.453464064453396],["promover",-10.454539577014788],["parti",-10.457487072024305],["comenzará",-10.457523643287418],["inmun",-10.460833121975687],["universidad",-10.462229816164307],["diversidad",-10.462231818940356],["Victoria",-10.46223190201881],["Guerra",-10.462239720573429],["descanso",-10.462252198473736],["Premio",-10.462283918877482],["ayud",-10.462345311460645],["electric",-10.462716950057237],["afec",-10.463400789430288],["juec",-10.464638172375254],["descarga",-10.466200694721353],["remarc",-10.467545640000887],["expone",-10.468256590176189],["esperada",-10.468519417088944],["umó",-10.470446464240291],["electrónico",-10.471664811013746],["festival",-10.471665546500288],["silencio",-10.471666363506678],["adquisi",-10.471667777339674],["maestro",-10.471751411539685],["Ambient",-10.471751806021171],["famoso",-10.471784297163357],["habido",-10.471895190483716],["fallecimiento",-10.472283739024338],["suceso",-10.472576808249201],["distin",-10.472841352123638],["Unida",-10.473393138494925],["marcador",-10.474186659101488],["Provincia",-10.474232307251906],["volverá",-10.474514061418258],["vendi",-10.475236406366463],["87",-10.477613285303676],["merece",-10.477763570968037],["Exp",-10.478017908235909],["acional",-10.478221131718872],["́",-10.48118755384018],["seleccionado",-10.481187553926613],["protagoniz",-10.481187559250213],["Especial",-10.481187609998987],["superficie",-10.481187670883639],["inmueble",-10.481187794374085],["básica",-10.481187937886887],["Jalisc",-10.481189197449313],["bombero",-10.48119220926364],["vuelva",-10.481194127111255],["semifinal",-10.481213373892917],["ajuste",-10.481254746997074],["permiso",-10.481289617469322],["inspira",-10.481416821644629],["Ambo",-10.481532455989687],["conquista",-10.481755861474639],["consolida",-10.483504352695405],["actuacion",-10.484011723802087],["rompe",-10.484186468872718],["calific",-10.485095590322484],["Jim",-10.485269439633127],["Guti",-10.486243184284586],["coger",-10.486259450115242],["aprend",-10.486802663374542],["caus",-10.488694201901442],["contagi",-10.49023727442598],["Mart",-10.490644318279072],["polémica",-10.490802944676384],["Nuestro",-10.49080314519037],["enfatiz",-10.490803523976567],["educativa",-10.490804292056755],["Guatemal",-10.490828207232497],["explosi",-10.490927383004777],["propone",-10.49096715049125],["acab",-10.493159174640734],["trasladar",-10.493194045602856],["Hemo",-10.493249188298376],["IM",-10.496115699847701],["planifica",-10.496809750676597],["Provincial",-10.497876141238319],["ü",-10.498471325716736],["designa",-10.498700128345828],["acó",-10.4990387936768],["aceptar",-10.49963050821959],["Var",-10.500110667438001],["recomienda",-10.500511677663466],["energético",-10.500511707474171],["clásico",-10.5005117119367],["Atlético",-10.50051176371242],["Sebasti",-10.500513609384743],["urgencia",-10.50069691135185],["País",-10.500970780951697],["enfrentamiento",-10.501426299206653],["castig",-10.502027340832733],["sombr",-10.502994884527546],["paquete",-10.503596164435777],["prometi",-10.503700202776834],["llevaba",-10.505532297787367],["Ingl",-10.5081596081942],["consiste",-10.509387924663493],["iego",-10.510030576057563],["sistencia",-10.510181254916663],["cubierto",-10.510315615241991],["Eduard",-10.51031584164938],["cobertura",-10.510316869763333],["Salvador",-10.510317407610806],["modalidad",-10.510321177128537],["gasolina",-10.510321725165545],["antiguo",-10.510329260545157],["Respect",-10.51033038344344],["sufrido",-10.510348033990764],["entrenamiento",-10.510413300341295],["nutri",-10.510513295584765],["relevante",-10.510764412713892],["recorr",-10.51199325321996],["700",-10.512008684062966],["breve",-10.512542482591755],["vencer",-10.51279715791004],["confes",-10.513808878408117],["acompañar",-10.514177469735895],["aposta",-10.514772027653965],["posee",-10.515135719560519],["ruido",-10.515568058871775],["Sport",-10.51690032964364],["naciones",-10.51750994396995],["lujo",-10.519365905519066],["Nació",-10.51984492621671],["británico",-10.520216670204203],["gráfica",-10.520216867960002],["embajador",-10.520216884017966],["pertenece",-10.520217845271752],["Felip",-10.520220034510565],["criterio",-10.520221833732606],["ONU",-10.520228591422391],["empuj",-10.52032508514251],["Musk",-10.520390062863388],["eficiente",-10.520825686289868],["prevenir",-10.521486817672852],["sostiene",-10.522133990296865],["berg",-10.52229408599299],["crece",-10.522976583523539],["Boca",-10.523008576602109],["ísimo",-10.523921335040658],["crecer",-10.52479388595491],["pesca",-10.526044058060936],["letra",-10.52615665957017],["sancio",-10.52763455453675],["sucedido",-10.529229332681853],["diagnóstico",-10.530216587987447],["medicamento",-10.530217196164173],["diputada",-10.530222324754167],["ogle",-10.530287753235777],["evidente",-10.530363348858032],["útil",-10.530468110398623],["existi",-10.530547986656607],["Produc",-10.53060195139475],["culmin",-10.533119473314393],["enseñ",-10.535069673912318],["terror",-10.535118948363111],["asigna",-10.535850874347172],["recuper",-10.535940575683151],["Humano",-10.536325234855859],["&",-10.540317598088288],["ausencia",-10.540368654786107],["aventura",-10.540410003458797],["limpieza",-10.54041224436969],["método",-10.540652506321944],["Deporte",-10.540671242908555],["constitu",-10.540741493404159],["articul",-10.540751802446554],["ight",-10.540800680070669],["normativa",-10.541019192227335],["Ciencia",-10.54111305526046],["aviso",-10.541238249315548],["espalda",-10.542564850630992],["mortal",-10.5426812551025],["enfoca",-10.545319723467458],["etc",-10.546564048026461],["moda",-10.55040702884439],["Tamaulipas",-10.55052167981013],["clínica",-10.55052202040876],["vínculo",-10.55052235276025],["archivo",-10.550528235585974],["delincuente",-10.550536135736204],["Dan",-10.551439742800381],["Presidencia",-10.552109429486821],["venido",-10.55224240226248],["amiga",-10.553083119250001],["racha",-10.553421083355868],["misil",-10.554020627371049],["film",-10.554393859545424],["presentada",-10.554767226466467],["seguida",-10.555094680580645],["reac",-10.55531047537731],["kov",-10.555723147373646],["extensi",-10.557095548280719],["serio",-10.557897704141084],["fortalecer",-10.560605100687841],["Posterior",-10.560830960342743],["blanca",-10.560848671870247],["adecuado",-10.560905379871514],["rescate",-10.560954833374772],["Armada",-10.560971635116008],["teatro",-10.561192601044029],["dirigi",-10.561639143073235],["negativo",-10.56201418735305],["camioneta",-10.562110912913042],["obligatori",-10.562385383715128],["despleg",-10.562659893256612],["logía",-10.564240222993153],["reconocer",-10.565189498056263],["urgente",-10.565203561989204],["arroj",-10.56593633623492],["diseñado",-10.566784372318981],["cuidar",-10.56903454808553],["hectáreas",-10.571247625007752],["Guillerm",-10.571247784070284],["Mexican",-10.571248188008575],["rumbo",-10.571805828773686],["preventiva",-10.571829709390771],["actu",-10.573058010977189],["eficiencia",-10.573337091555773],["verdadera",-10.57345334715595],["Bajo",-10.573503152718077],["ilidad",-10.575935325834951],["puntualiz",-10.577786090124086],["involucr",-10.579519757752724],["elevado",-10.580006606243348],["version",-10.580901848233395],["indígena",-10.581773941425821],["Domingo",-10.581774056710554],["Ministro",-10.581774422149778],["recauda",-10.581786093180181],["desaparecido",-10.581866375789335],["Amazon",-10.58194222881837],["fanático",-10.582001797274074],["linda",-10.582487830199042],["mezcla",-10.583731575927075],["acta",-10.5840386219961],["resistencia",-10.584336295991314],["INE",-10.585437718349883],["dirigida",-10.585449195089502],["operador",-10.585856876672864],["250",-10.588263227789545],["leer",-10.588346922498577],["comer",-10.590219693748658],["planea",-10.591247950273821],["placa",-10.592340326360038],["advierte",-10.592412297241175],["gráfico",-10.592412306137481],["Programa",-10.592414430922405],["abinete",-10.592414706245297],["Whats",-10.592418234591115],["Andaluc",-10.592418723080183],["Panam",-10.592430645390625],["sorteo",-10.59243426684142],["cuánto",-10.592443805202441],["Agreg",-10.592524412284131],["Fuente",-10.592548122713158],["vulnerable",-10.593355533883434],["verifica",-10.59359122194979],["coordinador",-10.595609760084177],["lesionado",-10.596666896205884],["aúl",-10.597309755809597],["emplea",-10.59896278927171],["pasará",-10.60087728261757],["servir",-10.601197004711892],["terapia",-10.603176705473853],["nacido",-10.603339060961225],["Peña",-10.60349075789296],["Fondo",-10.60398384021123],["abordar",-10.604138926678017],["enviado",-10.60448192093336],["Reye",-10.606487657798468],["lector",-10.607067099296977],["esquema",-10.608895983309466],["Estatal",-10.609463338471611],["presentará",-10.60953465685823],["estrena",-10.610251774785894],["gasta",-10.611247625002505],["divisi",-10.61192355749927],["proyecta",-10.61374959212889],["Industria",-10.614034492270461],["hallazgo",-10.614034514789546],["proveedor",-10.614034617086356],["código",-10.614035308879895],["influencia",-10.614035575425302],["componente",-10.614040035179402],["Navidad",-10.614045398454664],["caracteriza",-10.614047862825363],["discapacidad",-10.614450516239522],["primaria",-10.614496072934928],["Catalu",-10.614774855887035],["entiende",-10.615045828850675],["existencia",-10.615429596233145],["pot",-10.61676053644424],["incidencia",-10.61918433737803],["sesione",-10.619952279794624],["complica",-10.620578850793738],["detectar",-10.621246461189429],["Xi",-10.622674755637284],["temor",-10.623155965682784],["electr",-10.62467301630274],["amante",-10.62476256500904],["incertidumbre",-10.625023502778603],["matrimonio",-10.625023502881048],["brasileño",-10.625023506053836],["crítico",-10.625023517227277],["máquina",-10.625023520087938],["conclusi",-10.625024968407967],["exhibi",-10.625033548849338],["ratific",-10.625063328743444],["salarial",-10.625085735365628],["volum",-10.625109773290777],["Aragó",-10.625342835238683],["inspec",-10.625472433896762],["sindicato",-10.625969811552912],["caliente",-10.626009182993052],["invit",-10.626569998028458],["patria",-10.627239273427127],["cartel",-10.627544792010962],["inunda",-10.62794941543978],["comune",-10.628436004921529],["rill",-10.630613353664208],["recibirá",-10.632852888414973],["útbol",-10.635068945180262],["introduc",-10.636137546608865],["descenso",-10.636139586036908],["piedra",-10.636196266711632],["Carmen",-10.636590496693907],["Record",-10.636604929736158],["Mucha",-10.636974490124086],["Tanto",-10.637381716892214],["carbon",-10.637821071974397],["envió",-10.638428168757958],["campeon",-10.642480712786064],["ceder",-10.642503307646956],["Quier",-10.642834466616232],["frase",-10.644051196596841],["Martin",-10.645607317227547],["licita",-10.646815240512165],["Municipio",-10.647370568960445],["bonaerense",-10.647370569425984],["individuo",-10.647370569529858],["inferior",-10.64737059268364],["incluida",-10.647370598289935],["préstamo",-10.647370665099842],["parlamentario",-10.64737075699642],["cerebro",-10.647370807695449],["opositor",-10.647371525635135],["camiseta",-10.647372368237969],["Interior",-10.647373770246698],["plantilla",-10.647376478112259],["aparente",-10.647412048839973],["prolong",-10.647454267569886],["deterior",-10.647465564257143],["monitor",-10.647520051435448],["balance",-10.647676890960128],["competitiv",-10.647781908044129],["falsa",-10.647909640534113],["notifica",-10.648079763611982],["exacta",-10.64820400370528],["agrava",-10.648286391975798],["procede",-10.648373778533035],["coali",-10.648772279021724],["Castro",-10.64946286901796],["liber",-10.64952626141097],["tesis",-10.649860098673923],["independencia",-10.650612196112338],["déficit",-10.658734209891472],["territorial",-10.658734222769848],["árbitro",-10.658734231419778],["capítulo",-10.65873426259595],["antecedente",-10.658734357047917],["mascarilla",-10.658734643003474],["Festival",-10.65873525453966],["sospecha",-10.658736268969811],["Bombero",-10.658737297457325],["estadística",-10.658744466939282],["almacena",-10.658755032978242],["cubano",-10.659055734961873],["profunda",-10.659517691614418],["leve",-10.659566585455847],["Massa",-10.660898841217072],["fall",-10.662089305939194],["composi",-10.66387668196601],["Debid",-10.664018393982433],["oscur",-10.664074615970108],["Jer",-10.66415390610458],["existente",-10.666016698045858],["adquiri",-10.666216456459289],["licia",-10.666822664331175],["Univers",-10.669423207518037],["píritu",-10.670228499447418],["FIFA",-10.670228548364749],["Comercio",-10.670230243113286],["Nuestra",-10.670231369070857],["PRI",-10.670262184414373],["Señor",-10.670329502260131],["Segund",-10.670505861591309],["Nadi",-10.671924579336444],["lcaldía",-10.67210385950926],["mencionar",-10.672625512718993],["reflexion",-10.672741253746604],["impus",-10.673182926519432],["Baja",-10.674066925220604],["Romer",-10.674556457652125],["Fiscal",-10.681129319916444],["acostumbra",-10.681856384089961],["ministerio",-10.681856450679781],["ofensiva",-10.681856548849517],["consejero",-10.681856868191705],["combatir",-10.681857370304058],["conmemora",-10.681862227968868],["Parlamento",-10.681879492397387],["litera",-10.682100527144328],["carril",-10.682206962593824],["aprecia",-10.682213792811062],["Radio",-10.682316750191855],["Tom",-10.68254811752223],["impresion",-10.682708270085676],["nacimiento",-10.682939554157475],["ándole",-10.683578578403683],["Hora",-10.68469242113056],["conducir",-10.685848140375098],["box",-10.686555109179368],["producido",-10.6870627260008],["conversacion",-10.687999485676631],["cerrada",-10.688232738646658],["pension",-10.688544795558576],["prevista",-10.688683736598314],["cuento",-10.69193260889565],["Netflix",-10.693621071042804],["ambulancia",-10.69362132441076],["excelente",-10.693621392695084],["discrimina",-10.693621839159817],["arquitect",-10.69362191948676],["explora",-10.693622396157583],["liderazgo",-10.69362286035403],["músico",-10.693625973778442],["Colegio",-10.69362757754583],["billete",-10.69362929718708],["variedad",-10.693630505896177],["asesinado",-10.693632551321766],["Cambio",-10.693655820020673],["gradua",-10.693715495702639],["Oliv",-10.693914855823271],["cumpla",-10.693979097547633],["Vox",-10.694509770239293],["electo",-10.694586252491252],["conozc",-10.694781769664022],["ñez",-10.694797509604236],["sext",-10.695027166160731],["Víct",-10.695343152529144],["abandonar",-10.696406230733658],["Max",-10.698718350221931],["bell",-10.699321807988944],["retirar",-10.702230582983496],["atrac",-10.705213140516785],["tecnológica",-10.705525904298389],["Juventu",-10.705527497252326],["recinto",-10.705550202327009],["Transporte",-10.705554576024795],["instruc",-10.705558283334621],["agrupa",-10.705576586125886],["ciudadana",-10.705755572137951],["extender",-10.705810947475879],["transporta",-10.706041366825264],["gerente",-10.706188999337023],["Caraca",-10.706416529361888],["activista",-10.706530649031055],["verdadero",-10.707018227681477],["traduc",-10.707212717184273],["capit",-10.708384035007583],["brind",-10.709151107511488],["gricultur",-10.713190792117413],["Dij",-10.713950823691741],["panor",-10.715396528608771],["Champions",-10.717574026085128],["Australia",-10.717574026150182],["Occident",-10.717574054819554],["incluir",-10.71757442376727],["bebida",-10.717576925486188],["Rodrig",-10.71757761726812],["espacial",-10.717577977988814],["chileno",-10.717598921401681],["deportista",-10.71817484482731],["Canaria",-10.718225519420718],["expuls",-10.718861918032832],["Barrio",-10.719329205874692],["Punta",-10.719693032744313],["olid",-10.720391194210233],["eague",-10.723895767366962],["revisar",-10.724073535096647],["Cristian",-10.724940196259306],["visit",-10.72724563611134],["guard",-10.727319641284673],["eiro",-10.728228270932085],["experto",-10.728297205643063],["acept",-10.728626779448508],["occidental",-10.729769147940008],["Bolivia",-10.729769189379182],["vigilancia",-10.72976924101012],["cadáver",-10.72976944627925],["probabilidad",-10.729771163404902],["agresor",-10.72977369940061],["violenta",-10.729776257149927],["reivindica",-10.72978341055679],["maniobra",-10.729784896739048],["acredit",-10.729849309548653],["viejo",-10.730024104587988],["nube",-10.73020989945105],["famosa",-10.730231965327947],["humor",-10.73058704113993],["Vega",-10.730803294741367],["significativa",-10.731312610772992],["saludable",-10.731559706306133],["Emili",-10.731662618001325],["flujo",-10.731878077667737],["fundador",-10.73211809814402],["prendi",-10.73302446772784],["directivo",-10.73317596594196],["Corea",-10.734804307341218],["diseñ",-10.735907695555797],["celebrará",-10.73647557221015],["entendi",-10.737243488549609],["equilibrio",-10.742114828066732],["circuito",-10.7421148569885],["ilumina",-10.742115282709372],["Castell",-10.74215260825563],["Israel",-10.742157277795874],["Museo",-10.742170202349623],["Claudi",-10.742189483991936],["papá",-10.74219638982975],["renovación",-10.74244086597174],["lamentable",-10.742709209943783],["enlace",-10.743624720425888],["Municipalidad",-10.744231641465024],["intercambio",-10.744750027579382],["basta",-10.744871280423357],["Espera",-10.746118884291004],["prenda",-10.746769804182478],["plata",-10.74678742171898],["cultivo",-10.747425569744014],["novela",-10.748605002109588],["Pet",-10.75056354961224],["refiere",-10.751300175620422],["Just",-10.751568178161477],["acced",-10.753091737045967],["presidi",-10.753158708772787],["formul",-10.753739931563334],["expediente",-10.754614875048407],["violento",-10.754616590477815],["comerciante",-10.75462117930093],["alquiler",-10.754630397203908],["profundo",-10.754634879090716],["Patrici",-10.754645742253686],["Londr",-10.754658794633908],["café",-10.754716024045226],["Krem",-10.754769764261784],["hecha",-10.75482362274213],["filtra",-10.754878636411163],["intensidad",-10.754921272831993],["cariño",-10.755018368495602],["corriente",-10.755203697625234],["esposo",-10.75540145902091],["pensamiento",-10.755477379266786],["correcto",-10.756173959985368],["desaparici",-10.757572435252591],["arregl",-10.757751555510058],["ott",-10.759009443273678],["brió",-10.759235750453888],["apela",-10.761538845903406],["peda",-10.762418413498633],["Manch",-10.765034057512622],["bicicleta",-10.767273055280853],["femenino",-10.767273069502615],["residuo",-10.767273084682122],["precipita",-10.767273140130811],["transferencia",-10.767273226526372],["canciller",-10.767274149537947],["fortaleci",-10.767278068490615],["gigante",-10.767368980574652],["quinto",-10.76752579693412],["agredi",-10.76774919650549],["vicepresidente",-10.768116161105299],["favorable",-10.768152075190626],["ejerce",-10.768228000757249],["Guzm",-10.768248702784117],["Feria",-10.768379451894702],["promesa",-10.768569259930308],["Tru",-10.771502629814073],["colaborador",-10.772566935179231],["É",-10.773508229019575],["extendi",-10.773908075628725],["suspensi",-10.7757272236995],["incrementar",-10.777874420216627],["venció",-10.77881514905728],["exclusi",-10.779028334288284],["Nunc",-10.779749916019469],["William",-10.780093567372049],["dinámica",-10.780093570930719],["Feijóo",-10.78009357127908],["frecuencia",-10.780093587565396],["concluir",-10.780093656100377],["instrumento",-10.780093674276072],["Familia",-10.780093781247613],["Lorenzo",-10.780094719607007],["lectura",-10.780096322717412],["aragon",-10.780259487996423],["nominado",-10.780502474288738],["Semana",-10.78053624670472],["Gobernador",-10.780634971556974],["Gerard",-10.780822110686772],["sacado",-10.780982653247152],["ium",-10.781195019728733],["supermercado",-10.781328887590734],["otorg",-10.782029361469991],["supervis",-10.782870727844449],["venga",-10.78643068282184],["Destac",-10.787326877605672],["necesit",-10.788947932230556],["retorn",-10.790604053118514],["inteligente",-10.793080627510076],["nervios",-10.79308338414531],["pierna",-10.793098788304256],["republicano",-10.793223369542382],["evacua",-10.79344023495753],["envío",-10.793481244021148],["extin",-10.793742539158545],["procura",-10.794259311889373],["Señal",-10.794700454522323],["pierde",-10.79542549776999],["conforme",-10.79596343893863],["narra",-10.796803571123636],["promocion",-10.800258596970945],["federa",-10.803213479574858],["cirugía",-10.806238903209476],["uanajuat",-10.806238947614041],["séptim",-10.806239494578776],["cotidian",-10.806239526179347],["subsidio",-10.806243700972065],["invertir",-10.806250044279686],["enemigo",-10.806257059033179],["vestido",-10.806276670246149],["medicina",-10.806377653637508],["Marian",-10.806998721657589],["Vicent",-10.807175846717158],["Castill",-10.807919929870657],["India",-10.808427638524126],["alega",-10.808996883769904],["futbol",-10.818430783133891],["patrimonio",-10.819571808609787],["Guadalajara",-10.8195718089931],["pronóstico",-10.819571809128934],["testimonio",-10.819571809545813],["venezolana",-10.819571809867131],["tecnológico",-10.819571880325896],["Sociedad",-10.819571985439215],["consecutivo",-10.819571987545133],["Caribe",-10.81959807909561],["olívar",-10.819749796532284],["Boric",-10.819852913475405],["antigua",-10.820091796865047],["cometido",-10.820518588146799],["repent",-10.820601088983077],["Virg",-10.821239163995664],["extraña",-10.821422729575332],["conservador",-10.821493347476544],["period",-10.8224588750275],["concesi",-10.825518859642123],["rdene",-10.82624176921102],["sustent",-10.82880486631097],["oblig",-10.829406933569068],["Leg",-10.829922803476947],["fortuna",-10.832249370203485],["colega",-10.832423930175239],["´",-10.833085321920699],["espectacular",-10.833085321990314],["Zelenski",-10.833085355886618],["candidata",-10.833085376035958],["Constitucional",-10.833085381904658],["Energía",-10.833085391149329],["periódico",-10.833085464892616],["tragedia",-10.833085533021105],["gratuito",-10.833086875965526],["dictadura",-10.833101462647043],["Deportivo",-10.833151092829638],["ninguno",-10.833196361861066],["sitúa",-10.833252584087218],["desempeña",-10.833525339984472],["detenida",-10.833791424673624],["alimentaria",-10.833971566834958],["Divisi",-10.834686706434852],["realice",-10.834734594177448],["Bull",-10.83622924480267],["tramita",-10.838392487915979],["cuerda",-10.844466222430986],["emplaz",-10.84477919212709],["arís",-10.845043792859963],["abund",-10.845306396264554],["cuente",-10.845477554567088],["presiona",-10.846037308306338],["secundaria",-10.846783953336091],["numeroso",-10.846783962224283],["jurisdicci",-10.846784267454193],["afrontar",-10.84678490884129],["aceite",-10.846786036426366],["contundente",-10.846786304217364],["semestre",-10.846796214605803],["triple",-10.84683304182921],["idioma",-10.846847962863524],["medalla",-10.846880140156049],["amistad",-10.846894251785363],["rompi",-10.846915858968766],["referido",-10.847044002368945],["Existe",-10.847187250108274],["lengua",-10.847263708470798],["leyenda",-10.84738681686526],["encuentre",-10.847457057552013],["favorece",-10.848048375076562],["Ciudadano",-10.84878716629462],["invent",-10.853725715954095],["€",-10.860672840946574],["problemática",-10.86067296372871],["comunicó",-10.86067296842403],["profundiz",-10.860673537421903],["Teatro",-10.860682606596104],["Oaxa",-10.860687183127185],["poblado",-10.86069650762437],["Comunita",-10.860698703091359],["tiroteo",-10.860708473076048],["hurac",-10.860760556067412],["brote",-10.860769755334264],["consenso",-10.861036002170593],["soporte",-10.86105288114987],["ertamen",-10.861087921431956],["dialog",-10.861411901021578],["obtenido",-10.86209374733792],["terrorista",-10.862725943849703],["incluy",-10.864122702865046],["liano",-10.872207879644218],["diagnostic",-10.874757360550923],["aprendizaje",-10.874757474425284],["Núñez",-10.874757651319232],["dominicano",-10.874759382473357],["héroe",-10.874763870230687],["aéreo",-10.874807166003412],["equivoc",-10.874927122147817],["City",-10.875301424639389],["Zona",-10.875593984931164],["Oscar",-10.875686172665537],["oculta",-10.876988559146781],["ligera",-10.877453865211578],["despert",-10.88022873957339],["comercializa",-10.881698093552142],["anul",-10.884347580550948],["pusier",-10.885367754577011],["exam",-10.885520621829468],["q",-10.886718049243026],["Somo",-10.888681812681883],["Relacion",-10.888984976897117],["artificial",-10.889043063320937],["agrícola",-10.889043079966182],["álbum",-10.889043505912184],["solucionar",-10.889043522839014],["humanidad",-10.88904371377904],["criptomonedas",-10.889044754145505],["Portugal",-10.889045184527525],["continente",-10.889046932369428],["estabiliza",-10.889050184977808],["autonomía",-10.889083638293844],["agradece",-10.889356925392967],["ecosistema",-10.889395229320671],["aborto",-10.889529110645771],["organizada",-10.889667640644085],["Silva",-10.889802982775924],["fortunada",-10.890081418636886],["quinta",-10.890147581816288],["favorito",-10.890213790407469],["ganancia",-10.890424736116785],["Mauri",-10.890833897052387],["Inici",-10.890947856291188],["contact",-10.892801906725017],["postul",-10.893113780161219],["Morale",-10.896241861830685],["iño",-10.897451724117953],["elevada",-10.897642028631953],["admira",-10.898623266479333],["transcur",-10.898751300571274],["sirvi",-10.899313733309121],["TikTok",-10.903535816079984],["plástico",-10.903535816172477],["escándalo",-10.903535826170797],["fábrica",-10.903535829046191],["Juzgado",-10.903536313520844],["Empresa",-10.903538041562513],["vinculado",-10.903539227734452],["Primero",-10.903546241858557],["manejo",-10.90366485731847],["Marru",-10.90370223710265],["italiano",-10.90376774503866],["repetir",-10.904323431097012],["atractivo",-10.904375108698627],["basura",-10.904812735547546],["procedente",-10.905214688484387],["taxi",-10.905741129808685],["fabricante",-10.90576010542106],["escapar",-10.909036264310576],["calenta",-10.909664453159985],["coge",-10.913077515374084],["restaura",-10.917239360151811],["Í",-10.918241698250672],["universitario",-10.918241698464932],["científica",-10.918241698655457],["calendario",-10.918241932423838],["autónoma",-10.918242078371678],["Oficina",-10.918243186946714],["eventual",-10.918243365328747],["Capital",-10.918245442854278],["inversor",-10.918245786606878],["gremio",-10.918246032329565],["clip",-10.918246435473225],["Veracruz",-10.918250643764956],["Carolina",-10.918251016966948],["despacho",-10.918268521419822],["Azul",-10.918442996595562],["urbana",-10.918444797812587],["Chris",-10.918469370778105],["caído",-10.918729983741972],["fraude",-10.91877538712512],["rebote",-10.919395244786553],["estreno",-10.91969501076068],["Auto",-10.92066800728339],["tendr",-10.920684091922084],["camione",-10.921594295460292],["Orient",-10.929248199082894],["mobiliario",-10.93316707386392],["numerosa",-10.93316710422934],["masculino",-10.933167258993183],["Universitario",-10.933167411367291],["Comunica",-10.933171937613409],["Electoral",-10.933177314201478],["desempeño",-10.93319297250662],["extraordinaria",-10.93321642020722],["dominio",-10.933371765927305],["falso",-10.933409755190363],["Euro",-10.933573546767706],["MLO",-10.933726677669005],["jefa",-10.933977280375604],["defiende",-10.934203630103786],["cuid",-10.93515765803174],["reúne",-10.938473023172138],["place",-10.94325424909928],["atriz",-10.943758566783595],["académico",-10.948318586565469],["democrático",-10.948318602013103],["Distrito",-10.948318754734917],["siniestro",-10.948319123360868],["Academia",-10.948319201811076],["Merced",-10.948320051806622],["Digital",-10.94832049067025],["Superior",-10.948321485318179],["Mercado",-10.948322647242097],["patrocin",-10.948325012629198],["célula",-10.948334981172515],["belleza",-10.948340003847733],["Bogot",-10.94834599483436],["rutina",-10.948378373653558],["OMS",-10.948380001908617],["(…)",-10.948389206848454],["exceso",-10.948446772939363],["estré",-10.948712096262682],["ógeno",-10.949118823802621],["calcula",-10.949233303929816],["premia",-10.950290854495243],["menud",-10.952349102221191],["Política",-10.96370321329995],["millonario",-10.963704220425814],["ingeniero",-10.963704489657772],["patrulla",-10.963706014883076],["voluntario",-10.96370618030612],["aprehen",-10.96371723827368],["Seguro",-10.963717947979315],["comprender",-10.963765667780088],["egislatura",-10.963778790423191],["aérea",-10.963864566903258],["jurado",-10.964000037910278],["Rural",-10.964104659702311],["quince",-10.965823507132697],["aspirante",-10.965831669776268],["prefier",-10.968214584137078],["ábam",-10.976783174863332],["Profesional",-10.979328201997024],["específico",-10.979328202073223],["democrática",-10.97932820239414],["estratégica",-10.979328204704029],["prestigio",-10.979328210446672],["refugiado",-10.97932821326381],["izquierdo",-10.979328217637718],["comisaría",-10.979328511369946],["vacío",-10.979329591045882],["expansión",-10.979331086488797],["Negro",-10.979331239526932],["embarca",-10.979336961296754],["artística",-10.979339383355693],["Había",-10.979341190050933],["ciclista",-10.979347106071254],["persecu",-10.979347929658925],["Quién",-10.979386557923785],["ésped",-10.979429728272528],["destinada",-10.979442996998396],["dibuj",-10.979550116509653],["Hondur",-10.979798219779024],["destruc",-10.97982651838489],["potente",-10.979987472836632],["colectiva",-10.980356708145303],["promete",-10.980862235010317],["Mál",-10.983318444888418],["viviend",-10.984564754198278],["Muñ",-10.986275736759211],["imputa",-10.986641389223479],["fruto",-10.995038060743298],["à",-10.995201217794145],["profundidad",-10.99520122669226],["Guerrero",-10.995201246598285],["muchísimo",-10.995201337014146],["custodia",-10.995201808845856],["universo",-10.995202016832167],["infancia",-10.99520405715977],["Alfred",-10.995238597697178],["masiva",-10.995348969924901],["cosecha",-10.99538901572264],["recicla",-10.995420598811307],["Control",-10.995457915375418],["Integr",-10.995509334518768],["ruptura",-10.99562352762316],["activ",-10.999383610333703],["sentenci",-11.011118213365272],["demócrata",-11.011330251061695],["juventud",-11.011330279711174],["climática",-11.01133034207266],["ayuntamiento",-11.01133055348901],["transparencia",-11.011330640804003],["precedente",-11.011331091781546],["interrumpi",-11.011331513693714],["Torneo",-11.011334824368005],["sencilla",-11.01137855010386],["especula",-11.011393521516318],["museo",-11.01154132136427],["Unite",-11.01155171177974],["arrastr",-11.011854463056011],["traído",-11.013047935013738],["Cuenta",-11.013913129992442],["pagand",-11.013922690507911],["engañ",-11.017352529808107],["dependien",-11.018489129718454],["revoluci",-11.022402762105678],["resume",-11.022703101560271],["creció",-11.022864955898672],["motocicleta",-11.02772369271742],["jurídico",-11.02772369315229],["Argentino",-11.027723712493096],["diplomática",-11.02772371530994],["iPhone",-11.027723727388086],["cubierta",-11.02772372973742],["equipamiento",-11.027723970854609],["mérito",-11.027724011203276],["iglesia",-11.027724494270448],["perjudica",-11.027728656334144],["Ourens",-11.027741987317889],["emprendedor",-11.027742238000714],["vegeta",-11.027745819288217],["comité",-11.027746400339474],["terrestre",-11.027766765747232],["mascota",-11.027778554209863],["lausura",-11.027791337526011],["sugiere",-11.027803198173565],["enseñanza",-11.027884228381545],["encargada",-11.028004468146516],["estrecha",-11.028030734944032],["colaps",-11.028035095634344],["conocía",-11.028074500757675],["riqueza",-11.028170280577463],["teoría",-11.028285379280975],["obvia",-11.028301909540762],["bailar",-11.028318797430671],["insiste",-11.0351754752508],["ormalidad",-11.037129937739675],["urge",-11.041701653944251],["cripto",-11.042676310104525],["embarazo",-11.0443903753962],["diligencia",-11.044390394992757],["agricultor",-11.044390423466172],["acontecimiento",-11.044391913058366],["dulce",-11.04439442648957],["manipula",-11.044397830668824],["Blanco",-11.044406212551255],["huelga",-11.04441654224446],["Herrera",-11.044420503017932],["Español",-11.044439327338893],["Mejor",-11.044452950187132],["piscina",-11.044458233344315],["intercept",-11.044471150110736],["PRO",-11.044499591387504],["aterriz",-11.044499592038989],["Orteg",-11.044568866658906],["Alguna",-11.044656084396989],["renovable",-11.044738611054532],["oficio",-11.044756946252534],["Consult",-11.044886733544804],["Explic",-11.045214825626736],["restante",-11.045771985472612],["inaugur",-11.04611210189604],["incaut",-11.048049362782024],["soporta",-11.052409299300201],["insumo",-11.05830445720786],["vulnera",-11.059833732053463],["observ",-11.06117025747073],["humanitaria",-11.061339512053422],["jurídica",-11.061339512427859],["núcleo",-11.061339512788592],["nublado",-11.06134004594146],["derrumb",-11.061356100560381],["bancaria",-11.061356232596836],["Jujuy",-11.061377879045974],["Campeonato",-11.061380261729548],["sequía",-11.0615094759764],["sensible",-11.061722892485864],["abuelo",-11.061844246859732],["especific",-11.061877193304525],["profesi",-11.062110819664875],["gastr",-11.06506930717628],["padece",-11.065556647444044],["gestione",-11.066045458113138],["intencion",-11.067141578841758],["ísima",-11.071864421040832],["habitacion",-11.07437601385386],["ª",-11.078580891194544],["columna",-11.078580892493045],["Vladimir",-11.078580903366761],["voluntaria",-11.078580948454029],["temprano",-11.078581014149695],["Oficial",-11.078581082628073],["neutral",-11.078581261385091],["compleja",-11.078581330954956],["juvenil",-11.078581342775642],["agradable",-11.078581479066463],["hipoteca",-11.078582288762725],["frecuente",-11.07858407110541],["concilia",-11.078601809058828],["atleta",-11.078613914053513],["tejido",-11.078660200319842],["excusa",-11.07877247773808],["vigor",-11.0790607666391],["actúa",-11.079632012889885],["ignora",-11.080315812962882],["iraní",-11.081621386003182],["ejerci",-11.081744290050409],["mbul",-11.083076188262044],["puntual",-11.08523251603977],["Nicarag",-11.085690625361845],["•",-11.096124750843668],["intérprete",-11.096124750898952],["extraordinario",-11.096124750923405],["colombiana",-11.096124756653621],["espectador",-11.096125573609797],["Vázque",-11.096125953881431],["juzgado",-11.096126504219152],["exitosa",-11.096145806279075],["aerolínea",-11.096201427217483],["indaga",-11.096238606186922],["cercanía",-11.096238857032368],["Michel",-11.096412342561404],["tolera",-11.096842391714805],["caballo",-11.097398260524985],["onomía",-11.09959038504461],["indigna",-11.100029315119148],["procedi",-11.10704582188462],["tension",-11.108153901836523],["veinte",-11.1090541139768],["avione",-11.109126452092436],["Olímpico",-11.113981893702167],["software",-11.113981893756879],["estratégico",-11.113981893791056],["Autónoma",-11.113981893799584],["magistrado",-11.113981919430518],["magnitud",-11.113981934855865],["Médico",-11.113982143337209],["Código",-11.113982590094412],["naranja",-11.113984369139501],["American",-11.11398585780343],["derivado",-11.114029731304282],["ígeno",-11.114078148723696],["Donald",-11.114133803589706],["barrera",-11.114149328809381],["externo",-11.114170813723875],["ndroid",-11.114235182247565],["rumore",-11.11455812276021],["forestal",-11.114592476168909],["Charl",-11.1166181437135],["Asegur",-11.118134805843116],["Habr",-11.121308208212525],["posesi",-11.121929808457987],["hambr",-11.124039078487193],["ánimo",-11.127621351968685],["consultor",-11.128611741654439],["amparo",-11.13037730071408],["Goberna",-11.131401497567738],["fórmula",-11.132163749389663],["entretenimiento",-11.132163784413367],["compatible",-11.132163977906224],["economista",-11.13216407516106],["depósito",-11.132164636056451],["absoluto",-11.13217179277542],["Alianza",-11.132174781010274],["Quizá",-11.132175505830093],["Arabia",-11.13218035710268],["asesinada",-11.132186153422644],["proclam",-11.132208244804733],["Monterre",-11.132228576637763],["Bolson",-11.132255267049658],["parezca",-11.132285052318004],["enfermer",-11.132311178179004],["amarillo",-11.132340892891762],["Consider",-11.132451661818681],["cierra",-11.13255066134271],["reloj",-11.132799979958998],["arbitra",-11.134085938103805],["viviente",-11.135920799223593],["Llega",-11.138153295618142],["transacci",-11.139457605732318],["reflej",-11.144863135867697],["Cháv",-11.14961762085058],["recomend",-11.14985207799919],["Ú",-11.150682230401145],["perteneciente",-11.150682230773755],["YouTube",-11.15068223222611],["británica",-11.150682252332656],["comunitario",-11.150682296693718],["temprana",-11.150682328683905],["extranjera",-11.150682467800582],["monetaria",-11.150682820081428],["congresista",-11.150683858989693],["Alfons",-11.150693393120559],["laboratorio",-11.150709943723331],["Historia",-11.150715999358885],["Reserva",-11.150724722334324],["precau",-11.150774985029631],["Balear",-11.150888709053557],["Federic",-11.151165295247125],["Asunto",-11.151252768629075],["ógrafo",-11.15172982783136],["deposit",-11.151899425269987],["Campeon",-11.15214972985648],["accionar",-11.161595445069993],["presione",-11.167438567357626],["gnacio",-11.169188264984669],["helicóptero",-11.169550154929844],["Emergencia",-11.169550158849738],["accesible",-11.169550226096991],["vestuario",-11.169551698720333],["atraviesa",-11.169551706287237],["amistoso",-11.169551890203042],["débil",-11.169553368504365],["Generalitat",-11.169554719115558],["reemplazado",-11.169555388578996],["certeza",-11.169562052725919],["brutal",-11.169593599036531],["carpeta",-11.169617733011329],["Añadi",-11.169651930683688],["porteño",-11.169687432254307],["etiqueta",-11.16998093175098],["atólica",-11.170099145933015],["resisti",-11.170264045661233],["stream",-11.170679340031414],["ènci",-11.174889445596827],["relaciona",-11.18245572486078],["Joaqu",-11.18265244186205],["Circ",-11.188339502252077],["trayecto",-11.188443385473066],["Proyecto",-11.18878094324089],["hábito",-11.188781085281441],["protegido",-11.188781129496416],["delincuencia",-11.188781152912867],["acífico",-11.188781440379522],["Secretario",-11.188781636807493],["ingrediente",-11.18878283974533],["Movimiento",-11.18878490050841],["autónomo",-11.188785855496711],["Precisa",-11.18879933280575],["peruano",-11.18880317930608],["desfile",-11.188907164560746],["resolvi",-11.189222145660574],["saldrá",-11.190064817962604],["rendir",-11.190815626208437],["desbord",-11.200974251054229],["académica",-11.208388767323617],["Facultad",-11.208388770338457],["franquicia",-11.208388777932484],["Estudiante",-11.208389206776939],["módulo",-11.208389691666653],["pulgadas",-11.208392718851677],["valenciano",-11.208419178308544],["Representante",-11.208425434584298],["rodilla",-11.208474067823412],["delictivo",-11.208666391411585],["reduj",-11.20898658129818],["Patria",-11.209063918357694],["inyec",-11.209488880804907],["cintur",-11.209796810483418],["gubernamental",-11.2283887673768],["Metropolitan",-11.22838876748332],["Chihuahua",-11.228388783911935],["ejemplar",-11.22838878522728],["telefónica",-11.228389066321196],["Trabajador",-11.22838938907022],["Disney",-11.228393023397725],["pertenencia",-11.228394617162852],["vertida",-11.228395556360569],["Michoac",-11.22840099399522],["artístico",-11.228405442588679],["sometido",-11.228416946252938],["Jaime",-11.228570272915881],["Aguilar",-11.228589474404526],["abasteci",-11.228654825330175],["Micro",-11.228754566454295],["macro",-11.229111387585288],["extorsi",-11.229715861948145],["honest",-11.232119963387595],["atrev",-11.236032177088791],["recibiero",-11.236848456162152],["reflexi",-11.244331219771983],["imprescindible",-11.24879693056286],["uruguayo",-11.248796931497111],["Atlántic",-11.248796935149606],["privilegio",-11.24879693601331],["vehicular",-11.248796939107974],["compañera",-11.248796959946379],["catálogo",-11.248796966023743],["excepcional",-11.248797010158876],["refugio",-11.24879701212925],["suicidio",-11.24879718945855],["molestia",-11.248798289058659],["market",-11.248798577023143],["rubro",-11.248799218303944],["Taiw",-11.248800251384482],["Autoridad",-11.248804520746273],["misterio",-11.248806919448983],["Global",-11.248840186942438],["militante",-11.248857089983026],["broma",-11.249001223121677],["Jefe",-11.249063296829284],["rescatar",-11.249123120354056],["Ferrar",-11.249825739266011],["Misione",-11.250482096312059],["duplic",-11.250884459270718],["empeñ",-11.254974216740758],["multiplic",-11.26363069241687],["Institu",-11.268420124132751],["despliegue",-11.269630263915342],["kirchneris",-11.26963026399969],["vergüenza",-11.26963027643653],["Criminal",-11.269630331665686],["consecutiva",-11.269630515308107],["Mbapp",-11.269632330168866],["abogada",-11.269633288192665],["pronostica",-11.269640293451074],["cruci",-11.269656906999971],["moderno",-11.269751675295169],["Usted",-11.269916820921235],["baile",-11.270186139848626],["sensacion",-11.270645310563484],["protege",-11.272886942694075],["referir",-11.273816557429544],["calzad",-11.275299403764384],["domicili",-11.279240756731031],["acumul",-11.280444377348898],["éndole",-11.289885258712674],["embarazada",-11.290906859997708],["auxilio",-11.290906862417431],["auxiliar",-11.290906867293184],["Económico",-11.290906874762584],["feminista",-11.290906921417982],["Eugeni",-11.290906922846203],["ingeniería",-11.29090702546784],["israelí",-11.29090702980654],["décima",-11.290907212352955],["canadiense",-11.290907734241769],["paisaje",-11.290907950491668],["símbolo",-11.29091012137948],["alojamiento",-11.290910541009561],["alumna",-11.290912646377489],["recopila",-11.290913469619419],["veterano",-11.290914891871141],["expandi",-11.290925935529106],["valioso",-11.2909267194858],["entusiasm",-11.290932436829243],["Cualquier",-11.290969445801476],["pierda",-11.291262955103],["Adam",-11.291306976132589],["privaci",-11.299490953280756],["antander",-11.307294331443831],["universitaria",-11.312645990095389],["religiosa",-11.312646002836352],["advertencia",-11.312646003972779],["mecánica",-11.312646005134704],["cálculo",-11.312646069947245],["ilustra",-11.312646085206506],["soberanía",-11.312646107859718],["mercancía",-11.312646251083041],["pertinente",-11.312646501102645],["flexibili",-11.312646534804287],["Legislativ",-11.312649194247108],["trascendi",-11.312650905318879],["Cristo",-11.31265643631064],["italiana",-11.312664067911731],["Gonzal",-11.312681575384367],["virtud",-11.312795938930439],["intimida",-11.312804393923043],["humild",-11.312839721641494],["aplaud",-11.312887724590357],["liminatoria",-11.323364299972548],["diplomático",-11.334868212461469],["femenina",-11.334868237064791],["permaneci",-11.334868530816232],["líquido",-11.334869842810175],["terrible",-11.334887998613674],["atropell",-11.334911283706399],["debilit",-11.334966491450693],["Monument",-11.33510137960259],["puñal",-11.335174809839186],["agallane",-11.335194260846324],["replic",-11.356254310192902],["ilícito",-11.357595487552327],["Guadalup",-11.357595489489874],["Sputnik",-11.357595492687825],["Emple",-11.357595537489598],["asamblea",-11.357595590634128],["estacionamiento",-11.357595611196892],["cerebral",-11.357596432847423],["facultad",-11.35759959865918],["construido",-11.357600273416065],["sentimental",-11.357605104311274],["patología",-11.357605430716994],["tubería",-11.357607969348324],["editorial",-11.357620353481481],["Embajad",-11.357623198691012],["absorb",-11.357623691844125],["Zapat",-11.357998942830438],["fectó",-11.363798541588885],["eccional",-11.380668982450652],["indispensable",-11.380851299165007],["círculo",-11.380851320666686],["contabiliza",-11.380851344858014],["maquinaria",-11.380851348988525],["sacerdote",-11.380851557333475],["proveniente",-11.38085238383611],["Christian",-11.38085448097536],["comandante",-11.380855285422516],["Alexand",-11.380855656946054],["Colorado",-11.380857247326947],["confronta",-11.380860628552776],["Segura",-11.38087383821474],["segmento",-11.380874468326022],["hubiese",-11.38094315600619],["poblacion",-11.380969801645819],["enmienda",-11.381095517729703],["Mirand",-11.381895308220157],["medioambient",-11.38905508560867],["ponien",-11.391707192835515],["secuencia",-11.397246778164796],["nteligencia",-11.402305793970678],["feminicidio",-11.40466082290148],["fronterizo",-11.404660822984248],["convencional",-11.404660828985964],["Democrátic",-11.404660837116348],["dirigía",-11.404661038388717],["universal",-11.40466148719435],["Concejo",-11.40466330156369],["Zacate",-11.404663709276855],["Funciona",-11.40466965999494],["liquida",-11.404669951475704],["WWE",-11.404670178170427],["suspender",-11.404689943433855],["advertid",-11.405029378290937],["ielorrus",-11.407434033478951],["doméstico",-11.429050782039699],["intelectual",-11.429051066828736],["divulga",-11.429051078747081],["Georgi",-11.429051384474846],["Vivienda",-11.429051496097742],["divertido",-11.42905232418337],["anfitri",-11.429053598862584],["Militar",-11.429054124737144],["reanuda",-11.429055111212696],["eficaz",-11.429061045013826],["curioso",-11.429063356471715],["convirtie",-11.429088326319782],["Músic",-11.429099126505369],["legitim",-11.429525857564304],["obispo",-11.436703624874092],["aproxima",-11.453680820938267],["disponibilidad",-11.454051067182569],["secundario",-11.45405107559916],["televisor",-11.454051283126157],["Gallardo",-11.454051366625833],["petrolera",-11.454051483500585],["psicológica",-11.454051606844303],["obstáculo",-11.454051646747718],["transparente",-11.454051890116816],["cautelar",-11.454052053339025],["agujero",-11.454052072972049],["World",-11.454052152048689],["requerimiento",-11.454052229069756],["angustia",-11.454052312644523],["prudencia",-11.454052645975146],["optimiza",-11.454054365914178],["víspera",-11.454054385026799],["Junior",-11.454055586652691],["vinculada",-11.454056156438549],["psicólog",-11.454056919898344],["Lamentable",-11.454057030373106],["contenedor",-11.454059339628278],["Rubé",-11.454060926807971],["propicia",-11.454061692546114],["manifiesta",-11.454062806738872],["inflama",-11.454069169821636],["prevision",-11.454289407095908],["pugna",-11.454319399670641],["confecci",-11.454426193872274],["adoptad",-11.456219054543096],["humeda",-11.465332300740208],["贸",-11.479692092331549],["produzca",-11.479692098905737],["concluido",-11.479692106068311],["Tijuana",-11.479692120414231],["influencer",-11.479692135799134],["proteína",-11.479692612879798],["trofeo",-11.479696327686398],["inflacion",-11.479702988838184],["retroced",-11.480251107282589],["Patrimoni",-11.490440078122798],["éram",-11.495624218944972],["*",-11.506007881805232],["ollywood",-11.506007881811907],["madrileño",-11.506007881891948],["fertilizante",-11.5060078821036],["autonómico",-11.506007887459262],["humanitario",-11.506007888925545],["muchísima",-11.50600799748479],["inminente",-11.506008102016835],["psicológico",-11.506008393447448],["centímetro",-11.506008708464265],["parroquia",-11.50600889965171],["Encuentro",-11.506008920206432],["tremenda",-11.506008999567571],["ranking",-11.50601093067109],["Clínic",-11.506011063729087],["solitario",-11.506011785708896],["amplon",-11.50601569944195],["Natural",-11.50601616649759],["bservatorio",-11.525451666108038],["compatriota",-11.533034912043867],["flexible",-11.53303493534618],["protegida",-11.53303500074005],["ilícita",-11.533035037883433],["transportistas",-11.53303507243196],["despedida",-11.533035107962691],["Aprovech",-11.53303541599173],["Brown",-11.533035690953039],["décimo",-11.533035887267204],["ofensivo",-11.533036136236019],["garantice",-11.53303942659268],["desaparecida",-11.533117231294977],["decepcion",-11.537634395950947],["atmósfera",-11.560812686679757],["provisional",-11.56081268813336],["maravillosa",-11.560812689148388],["auténtica",-11.560812698604426],["Gimnasi",-11.560812724903627],["Género",-11.560813050831634],["rgánica",-11.560813288208609],["bolivian",-11.560813541924077],["Ingenier",-11.560813860634703],["apellido",-11.560814784625661],["Periodis",-11.56081494093558],["divorci",-11.56082185326627],["ódromo",-11.560830367018555],["Coahu",-11.560848280266468],["Básic",-11.560912102067475],["smartphone",-11.589384115207725],["matrícula",-11.589384117056445],["religioso",-11.589384120883771],["fronteriza",-11.589384124505985],["visibiliz",-11.589384153252924],["LGBT",-11.589384187461935],["fortaleza",-11.589384217776193],["defensiva",-11.589384343158127],["lágrima",-11.589384349064993],["parlamentaria",-11.589384538494604],["diploma",-11.589385727405263],["estricta",-11.589386125468499],["recogida",-11.589411825985215],["bacteria",-11.589515316522375],["ictamen",-11.592159997176589],["protagonismo",-11.618795880040803],["príncipe",-11.618795880283969],["Zelensky",-11.618795886259424],["longitud",-11.61879591171504],["Comisaría",-11.618795995697415],["mecánico",-11.6187960199692],["trágico",-11.618796040628904],["respiratoria",-11.618796168010341],["adversario",-11.618796608239524],["hosteler",-11.618840369597386],["Ernest",-11.61905072607081],["positiv",-11.638183219306143],["è",-11.640534084848731],["quirúrgica",-11.649098910207517],["complejidad",-11.649098910460104],["clásica",-11.649098934374127],["gasoducto",-11.64909896866295],["Caballero",-11.649099027516744],["semejante",-11.649099068865505],["peticion",-11.660204370377576],["olímpica",-11.680348910234372],["satisfecho",-11.680348910296733],["emblemático",-11.680348910392617],["tráiler",-11.680348912321707],["autonómica",-11.680348916289477],["pacífica",-11.680348925492314],["Eléctric",-11.680348927753792],["Secretaria",-11.680348932929242],["comunitaria",-11.680348941186688],["inquietud",-11.680349021125219],["navideño",-11.680349139197796],["empiece",-11.680350071323593],["Cívic",-11.680356546037515],["comience",-11.680362099869765],["diversifica",-11.680367281765596],["prestacion",-11.709177406238677],["®",-11.712606974706507],["hondureño",-11.712606975956257],["Histórico",-11.712606977522615],["controversia",-11.712607017689844],["rtillería",-11.71260804331997],["moderniza",-11.712611893357991],["ultraderech",-11.712615243177993],["Panamerican",-11.713293532323874],["ö",-11.745940308039842],["`",-11.745940308039842],["respetuoso",-11.74594030815283],["simpatizante",-11.745940308623537],["brasileña",-11.745940309580972],["práctico",-11.745940309723164],["espiritual",-11.745940311371035],["Tecnología",-11.745940317123775],["sacrificio",-11.745940319967568],["Meteorológic",-11.745940329087258],["Bernabé",-11.745940336920375],["George",-11.74594034857255],["almuerzo",-11.745940353096694],["manifiesto",-11.745940369482335],["portátil",-11.745940383603067],["Tecnológic",-11.745940546078511],["indemniza",-11.745944204592718],["ascendente",-11.749213340794968],["′",-11.78042306666053],["referéndum",-11.780423066660543],["Cancillería",-11.78042306785892],["Querétaro",-11.780423077007269],["neumático",-11.780423079202562],["satélite",-11.780423079785884],["Económica",-11.780423087056795],["prórroga",-11.780423097925874],["horizonte",-11.780423103360995],["ecuatoriano",-11.780423111533029],["auricular",-11.780423246684391],["persistente",-11.780423304701566],["suplement",-11.780424889803458],["Sostenib",-11.780446825637025],["Ñ",-11.816137352374817],["¢",-11.816137352374817],["Biblioteca",-11.816137352374822],["micrófono",-11.816137352617144],["cláusula",-11.816137354779073],["propietaria",-11.816137356889486],["ostarricense",-11.816137360237619],["Secundari",-11.81613745443019],["biblioteca",-11.853174389411889],["olímpico",-11.853174389455566],["cómplice",-11.853174389588833],["dinámico",-11.853174402400027],["Operativ",-11.85324182577671],["atrimonial",-11.875625596058157],["hidrocarburo",-11.891635927910741],["plebiscit",-11.891635928019113],["femicidio",-11.891635928845174],["Compañía",-11.891635929005542],["maravilloso",-11.891635929073047],["Técnica",-11.891635929119374],["anécdota",-11.89163592973202],["Máximo",-11.89163592983636],["Estrategia",-11.891635929906183],["cronograma",-11.891635930481579],["Participa",-11.891635994166183],["catástrofe",-11.931635927883935],["innumerable",-11.93163592816297],["fármaco",-11.93163592967349],["achillerato",-11.93163603568025],["Efectiv",-11.931636629969661],["Vicepresident",-11.931667844540108],["farmacéutica",-11.973302594540597],["fantástico",-11.97330259455784],["guatemalteco",-11.973302594590603],["gastronómico",-11.973302594646],["penitenciario",-11.97330259472279],["Athletic",-11.973302630710558],["″",-12.016780855409625],["cardiovascular",-12.016780855410584],["inmobiliaria",-12.016780855414678],["madrileña",-12.016780855431731],["simultánea",-12.01678085565679],["Latinoamerican",-12.026068560617677],["gastronómica",-12.06223540094014],["auténtico",-12.062235401296002],["farmacéutico",-12.109854448483231],["frigorífico",-12.109854448483262],["contemporáneo",-12.159854448492169],["Agropecuari",-12.159854448498933],["leccione",-12.174481129978808],["penúltim",-12.208614206164594],["Lewandowsk",-12.2124860274319],["️",-12.268041582986143],["·",-12.268041582986143],["estupefaciente",-12.326865112399002],["responsabiliz",-12.326865112402631],["¨",-12.45603177906459],["ã",-12.45603177906459],["―",-12.778625851659097],["ò",-12.989736962773454],["ä",-13.114736962782558],["â",-13.11473696278256],["ê",-13.11473696278256],["谩",-13.257594105679662],["茅",-13.257594105679663],["™",-13.257594105679663],["×",-13.257594105679663],["ë",-13.42426077230637],["Ö",-13.424260772306372],["✅",-13.42426077234633],["‎",-13.42426077234633],["❤",-13.42426077234633],["ï",-13.624260772306371],["】",-13.62426077234633],["【",-13.62426077234633],["⬇",-13.62426077234633],["煤",-13.874260772306371],["铆",-13.874260772306373],["˜",-13.87426077234633],["£",-13.87426077234633],["ć",-13.87426077234633],["₂",-13.87426077234633],["À",-14.207594105639705],["ş",-14.20759410567966],["Ç",-14.207594105679663],["ō",-14.207594105679663],["å",-14.207594105679663],["ę",-14.207594105679663],["н",-14.707594105639705],["î",-14.707594105639707],["ā",-14.707594105639707],["Ü",-14.707594105639707],["Š",-14.707594105679654],["û",-14.707594105679659],["帽",-14.707594105679659],["Å",-14.707594105679659],["ı",-14.707594105679659],["ô",-14.707594105679664],["✨",-14.707594105679664],["＊",-14.707594105679664],["─",-14.707594105679664],["~",-14.707594105679664],["−",-14.707594105679664],["▶",-14.707594105679664],["¼",-14.707594105679664],["Ä",-14.707594105679664],["⭐",-14.707594105679664],["➡",-14.707594105679664],["★",-14.707594105679664],["²",-14.707594105679664],["✔",-14.707594105679664],["ē",-14.707594105679664],["у",-14.707594105679664],["ğ",-15.707394105679663],["̃",-15.707494105679663],["Ò",-15.707594105679652],["ø",-15.707594105679652],["⏩",-15.707594105679663],["Ÿ",-15.707594105679663],["✊",-15.707594105679663],["❉",-15.707594105679663],["ﬁ",-15.707594105679663],["ì",-15.707594105679663],["Î",-15.707594105679663],["✓",-15.707594105679663],["",-15.707594105679663],["ỗ",-15.707594105679663],["˝",-15.707594105679663],["ń",-15.707594105679663],["ð",-15.707594105679663],["³",-15.707594105679663],["̀",-15.707594105679663],["§",-15.707594105679663],["¦",-15.707594105679663],["▌",-15.707594105679663],["ś",-15.707594105679663],["<",-15.707594105679663],["℃",-15.707594105679663],["⚽",-15.707594105679663],["☀",-15.707594105679663],["❣",-15.707594105679663],["⏱",-15.707594105679663],["⏰",-15.707594105679663],["ᵃ",-15.707594105679663],["₡",-15.707594105679663],["†",-15.707594105679663],["½",-15.707594105679663],["脕",-15.707594105679663],["☕",-15.707594105679663],["❗",-15.707594105679663],["‡",-15.707594105679663],["ł",-15.707594105679663],["¯",-15.707594105679663],["ă",-15.707594105679663],["⚠",-15.707594105679663],["◆",-15.707594105679663],["☝",-15.707594105679663],["İ",-15.707594105679663],["ß",-15.707594105679663],["¾",-15.707594105679663],["õ",-15.707594105679663],["ễ",-15.707594105679663],["μ",-15.707594105679663],["➤",-15.707594105679663]]}}