{"version":"1.0","truncation":null,"padding":null,"added_tokens":[{"id":0,"special":true,"content":"<UNK>","single_word":false,"lstrip":false,"rstrip":false,"normalized":false},{"id":1,"special":true,"content":"<SEP>","single_word":false,"lstrip":false,"rstrip":false,"normalized":false},{"id":2,"special":true,"content":"<MASK>","single_word":false,"lstrip":false,"rstrip":false,"normalized":false},{"id":3,"special":true,"content":"<CLS>","single_word":false,"lstrip":false,"rstrip":false,"normalized":false}],"normalizer":null,"pre_tokenizer":{"type":"Whitespace"},"post_processor":null,"decoder":null,"model":{"type":"Unigram","unk_id":0,"vocab":[["<UNK>",0.0],["<SEP>",0.0],["<MASK>",0.0],["<CLS>",0.0],["s",-2.60214237072565],["e",-2.6774335792291986],["d",-3.329715313532912],[",",-3.4289986087823667],["l",-3.516672463195352],[".",-3.583053405529551],["’",-3.743869946895691],["a",-3.773388944776965],["t",-3.865957889499102],["n",-3.976364729839533],["de",-4.00952927522782],["u",-4.121933839357206],["à",-4.361293881782608],["la",-4.392654639469468],["'",-4.626793063032746],["les",-4.753632958687117],["-",-4.901565643176831],["des",-4.943499696895955],["le",-5.028898990473566],["i",-5.09373997697093],["est",-5.119601534415802],["pour",-5.1663714531793286],["r",-5.202395981070344],["c",-5.245140530078846],["que",-5.2851393276452665],["une",-5.349351840842909],["ont",-5.379625362473593],["qui",-5.393563164596841],["dans",-5.403412292096508],["un",-5.4950081367751356],["en",-5.505972940432594],["L",-5.589272176981542],["sur",-5.606397405276358],["par",-5.612121545348069],["«",-5.649694360551926],["o",-5.701565908631514],["pas",-5.753618597712835],["ment",-5.856854718235972],["plus",-5.894141637605108],["C",-5.895844702070855],["\"",-5.923959457725079],["qu",-5.933179789563978],["on",-5.996781089588483],["et",-6.015427221487018],["son",-6.032344902124567],["avec",-6.034073072312681],["es",-6.05550264050771],["été",-6.110242526993991],["aux",-6.1145032049506],["il",-6.122725020002827],["(",-6.20113272734633],["é",-6.205829102860164],["du",-6.223345690973128],["au",-6.330038915049373],["Le",-6.372103929254745],["m",-6.390032740239832],["x",-6.39821971637045],["nt",-6.415217828286993],["La",-6.415940549994854],["y",-6.4318267548460195],["A",-6.436424714578822],["ce",-6.436900192490777],["p",-6.453772985140285],["»",-6.454426769814962],[":",-6.536512505495672],["ent",-6.538620843209387],["v",-6.566868401811304],["mais",-6.582821068400317],["leur",-6.584183840484785],["Les",-6.589192690340102],["cette",-6.589930899431781],["fait",-6.612327253357906],["tout",-6.652671310730533],["Il",-6.656158313657816],["ans",-6.71914406320985],["être",-6.761430290962597],["»,",-6.764130357104403],["elle",-6.78255057617562],["puis",-6.795195724787897],["ou",-6.8010709698758784],["étai",-6.809020775485916],["j",-6.812421858682528],["eux",-6.82052506394866],[")",-6.861762256197844],["deux",-6.8997092576758],["nous",-6.904624552373132],["même",-6.921549612002677],["avait",-6.921642911732043],["comme",-6.934652051873755],["aussi",-6.966392870294015],["D",-6.975059159464227],["jour",-6.999645168800717],["faire",-7.035936187570327],["autre",-7.036988968643123],["ne",-7.044401128303569],["En",-7.052751901944098],["M",-7.058783845571068],["après",-7.063550934347575],["vou",-7.0780745618735335],["S",-7.0982728163165545],["ement",-7.104479675543566],["bien",-7.126265372179146],["avoir",-7.144567308266725],["J",-7.1680949828128036],["année",-7.169092415447837],["fois",-7.174282296991477],["f",-7.203023116296241],["entre",-7.23126966389006],["ant",-7.244223522607342],["E",-7.255861157552424],["lors",-7.259881414777115],["pays",-7.297927261110316],["2",-7.3026306990673175],["Pour",-7.306261985347361],["%",-7.322709281108181],["contre",-7.331744954932235],["z",-7.333966809553668],["près",-7.360664534042487],["personne",-7.360900040398161],["1",-7.367385237893895],["20",-7.367446021583902],["Un",-7.367533542317302],["P",-7.397925843328106],["avant",-7.402150972613516],["peut",-7.405029683668277],["Mais",-7.406308712116231],["I",-7.40848180721558],["rès",-7.4161802587822505],["dernier",-7.429161853826967],["coup",-7.429266825413023],["temp",-7.442244610594266],["On",-7.445370447648971],["encor",-7.453980195092987],["fin",-7.458286537861048],["premier",-7.459856562676183],["ù",-7.464643144916324],["ces",-7.506305763565805],["3",-7.514821749429971],["lui",-7.52121721123434],["monde",-7.555743494341516],["sera",-7.56194409387516],["ux",-7.569324742475884],["oit",-7.574985979063849],["4",-7.577696453284654],["première",-7.580020359894203],["5",-7.584553952615384],["moin",-7.59305174732291],["aient",-7.594139852371139],["Une",-7.597223296349449],["président",-7.5987317572186965],["2022",-7.607840649317617],["place",-7.633744108004987],[").",-7.6353627743223305],["grand",-7.645905664400592],["mois",-7.6639203283902475],["ette",-7.671203940756692],["Nous",-7.678005583954545],["Dans",-7.680491491919332],["“",-7.681947115133738],["déjà",-7.682773979813186],["…",-7.685441419114794],["toute",-7.691266268623694],["ministre",-7.691308817665829],["nouveau",-7.6937389029037515],["nouvelle",-7.711594792794325],["O",-7.715056113801612],["ous",-7.7155583320224785],["h",-7.727609543597296],["».",-7.729252431162429],["quelque",-7.733369805862682],["trois",-7.7438090409978315],["Elle",-7.753121371327269],["ait",-7.757469039445382],["plusieur",-7.7605519169498125],["peu",-7.76743775089837],["France",-7.777744735950768],["dernière",-7.7839897119722545],["semaine",-7.784707827811971],["point",-7.7860993809376176],["?",-7.791466793182924],["À",-7.804627589639496],["ville",-7.8057460036285145],["19",-7.82252105842064],["g",-7.8231899387384765],["ainsi",-7.830494837106966],["0",-7.833700468780763],["6",-7.835543517846728],["projet",-7.838870277657748],["homme",-7.847158614844443],["ez",-7.848238152796773],["De",-7.850592146855808],["donc",-7.855038011356575],["7",-7.857287712336395],["ur",-7.857587762663675],["Et",-7.86271920702404],["tou",-7.863460352342046],["000",-7.87918949765952],["politique",-7.885013341443532],["équipe",-7.885426847448895],["ça",-7.887087624254496],["heure",-7.887313599860579],["201",-7.891240968785853],["ation",-7.89463121541657],["beau",-7.902254919726306],["vie",-7.902703952588579],["\",",-7.906178029880429],["B",-7.906815547728049],["Je",-7.909902391431121],["gouvernement",-7.91407492967839],["jusqu",-7.91746365634278],["),",-7.929449085307954],["an",-7.932324277498382],["voir",-7.932393314389652],["Ukraine",-7.933337476904204],["”",-7.946089601180564],["début",-7.9629702550527774],["femme",-7.96486367597771],["État",-7.973152962068987],["million",-7.973417625566884],["faut",-7.9752470884225035],["9",-7.978687721635956],["je",-7.980123463270835],["re",-7.984068900874804],["dit",-7.987934589981242],["8",-7.994191375078379],["certain",-7.994237039479464],["tant",-7.998494887323977],["T",-8.001451226378569],["elon",-8.006657782745418],["pendant",-8.01891026006578],["service",-8.019932291177039],["groupe",-8.022883935584696],["partie",-8.02559828059795],["notamment",-8.03004975915541],["ons",-8.033680100968276],["Si",-8.043780243599175],["entreprise",-8.050932042302765],["match",-8.052110243534795],["cours",-8.053357227906416],["tous",-8.054490778776332],["2021",-8.059631756493937],["Des",-8.062798740154223],["moment",-8.06782700090218],["égal",-8.069098300507662],["venir",-8.072092885108397],["ses",-8.079346966419962],["droit",-8.086331322387139],["R",-8.087793401916018],["part",-8.09187061025242],["vers",-8.112250956261665],["tre",-8.119130439968648],["10",-8.119906241558514],["hui",-8.120565010440533],["face",-8.124202551934626],["er",-8.130049556383108],["déclaré",-8.132497045536471],["côté",-8.135406343172376],["cas",-8.136642328269403],["N",-8.140077720519246],["travail",-8.141259956747186],["question",-8.14377710508382],["compte",-8.151559634838554],["ai",-8.166954526682456],["jeu",-8.167793495711445],["saison",-8.181822372514759],["effet",-8.187418824544295],["b",-8.190877489899993],["lieu",-8.195674052733505],["famille",-8.196446496217536],["ailleur",-8.210331314814905],["alor",-8.210821547836204],["région",-8.211684589280246],["nombre",-8.212841536672254],["va",-8.216704484609625],["ils",-8.219393033825327],["jeudi",-8.224612121181995],["pouvoir",-8.225104496344557],["me",-8.231009869051002],["cela",-8.231328312886834],["Au",-8.233416957629881],["avon",-8.235030782849968],["situation",-8.240169494474781],["mercredi",-8.242216085140868],["joueur",-8.246125982026923],["mi",-8.246135647575638],["long",-8.24652413689928],["sans",-8.248316030955774],["dimanche",-8.250813514398347],["euros",-8.251275225392844],["Selo",-8.252429623389933],["mardi",-8.258912479160163],["vendredi",-8.26014041338422],["sous",-8.260177298178707],["lundi",-8.260694595337508],["film",-8.261501592725669],["ôt",-8.261942054621233],["niveau",-8.263221724059251],["se",-8.264490434263374],["suite",-8.27139461075386],["grande",-8.273158847888036],["quan",-8.28167552169575],["porte",-8.28629499295954],["public",-8.286343046220273],["chef",-8.288629093989677],["U",-8.290161421302379],["chose",-8.292877736787068],["–",-8.29371838315183],["Russi",-8.29436450465693],["F",-8.294666010992136],["mis",-8.295614113655283],["produit",-8.295923820868124],["mesure",-8.297866001159445],["annoncé",-8.2980959680538],["raison",-8.314972760104492],["/",-8.31521174530431],["russe",-8.319573847197091],["pourrai",-8.320134061213679],["vrai",-8.322019372766313],["G",-8.324699448086147],["samedi",-8.32677991577185],["rapport",-8.327577008647223],["quatre",-8.335117142135484],["30",-8.339257063734273],["reste",-8.34975072756604],["car",-8.35249262338752],["Saint",-8.356084376799863],["devant",-8.358098506225476],["jeune",-8.361309863288483],["guerre",-8.363943781699758],["té",-8.367684291830674],["devrai",-8.36924116315462],["histoire",-8.369300474838823],["avai",-8.372433999433593],["Ce",-8.372875036928965],["petit",-8.373020585194457],["mettre",-8.378656637963356],["ici",-8.378886686211555],["in",-8.379849475849925],["série",-8.384301640789104],["Uni",-8.387085978195106],["Québec",-8.387548244207206],["centre",-8.391640552865013],["pri",-8.393201746897061],["but",-8.393409426637273],["aurai",-8.394260579609629],["deuxième",-8.395908382677622],["membre",-8.399844987882542],["it",-8.400602045135452],["15",-8.402595468473008],["parti",-8.40420413172562],["ancien",-8.417829911408994],["dire",-8.418442398481421],["bonne",-8.41910147362211],["police",-8.41914762332227],["bon",-8.419228457216523],["force",-8.419734231808222],["enfants",-8.424137625859029],["prendre",-8.424849061095472],["hez",-8.42728764837812],["pris",-8.42946837303276],["celle",-8.434043899618628],["vo",-8.43427003960496],["mai",-8.436067080317745],["mort",-8.436099407209994],["aujourd",-8.463994574581687],["sécurité",-8.467740561189343],["pa",-8.468850560375966],["demande",-8.469620838122315],["mon",-8.474566489530917],["rien",-8.476216852483692],["18",-8.478939395308668],["rix",-8.486412117716633],["français",-8.491199848363044],["général",-8.495004791269071],["Etat",-8.505901855625678],["jama",-8.506751318873402],["Ils",-8.509407596869009],["lement",-8.511349261167695],["soir",-8.514830039276738],["ité",-8.526301459708119],["mise",-8.528646084790202],["janvier",-8.536318938902486],["somme",-8.536750605182295],["possible",-8.542385776700186],["important",-8.544406899075877],["réseau",-8.545030124275389],["affaire",-8.553129006668769],["plan",-8.562082828070789],["décision",-8.56803090597965],["activité",-8.56858326405871],["Jean",-8.570030257331315],["st",-8.572063767119037],["risque",-8.573465266251981],["occasion",-8.574077667726822],["k",-8.574434326832023],["cinq",-8.576502305635817],["besoin",-8.57732171569591],["victime",-8.578801668217771],["prochain",-8.580728131262369],["marché",-8.584930474792358],["eurs",-8.586155089711195],["retour",-8.588949114805875],["jeunes",-8.589423019805661],["ma",-8.589732496186265],["embre",-8.590145675023527],["ient",-8.5936514403569],["rait",-8.59828787514164],["quoi",-8.598813659741133],["information",-8.599217445050943],["passé",-8.60198751310222],["trop",-8.604918020434233],["égale",-8.607898986247145],["aura",-8.609748228169277],["titre",-8.60977003761748],["tête",-8.610634031133495],["finale",-8.61410016286414],["société",-8.61569878692669],["24",-8.617727546939758],["nationale",-8.619361210999838],["décembre",-8.621789512980076],["appel",-8.62257017616368],["chaqu",-8.623137849211766],["ès",-8.62360905711066],["ligne",-8.627126845116049],["agit",-8.631004117580789],["afin",-8.634745629112018],["explique",-8.6367946555943],["cadre",-8.64233990819354],["milliard",-8.645245964097535],["indiqué",-8.648189280649992],["site",-8.64989797317639],["200",-8.65017430410373],["autorité",-8.653437041933856],["12",-8.65730349917067],["ensemble",-8.657332025881152],["25",-8.664815202837053],["14",-8.66520530284128],["crise",-8.666744074503944],["annonce",-8.667056531716728],["elles",-8.670457735423508],["journée",-8.67051245574966],["maison",-8.670606613313119],["mal",-8.6713571827426],["système",-8.672000840519827],["Par",-8.67401463524672],["plu",-8.675182591997952],["militaire",-8.67614112229859],["matin",-8.67789284310604],["Ave",-8.680415093657967],["national",-8.684335971353159],["17",-8.684365245126553],["période",-8.685196369188251],["jui",-8.686150668762572],["dan",-8.68991237464828],["population",-8.691974130147843],["rencontre",-8.6939267272753],["responsable",-8.694193013776712],["problème",-8.695666341273633],["semble",-8.696265332909842],["202",-8.696778169320709],["suis",-8.697616792653909],["permet",-8.697916996018016],["moi",-8.69821116656226],["fort",-8.698524294099908],["Sur",-8.700244091820958],["secteur",-8.70055915842077],["désor",-8.708858237946693],["V",-8.712951456242504],["not",-8.713530915543362],["enquête",-8.714636479791876],["meilleur",-8.714850637392956],["non",-8.715217713776482],["cause",-8.71628531912702],["main",-8.718058941099203],["évrier",-8.722191669963678],["uillet",-8.722528394603323],["!",-8.722554215822543],["16",-8.722864155961929],["offre",-8.724226522492568],["è",-8.725663298925323],["tait",-8.727215222825881],["nom",-8.730284868645217],["élection",-8.735142424988977],["publique",-8.73608738801476],["age",-8.74389257892527],["américain",-8.743904655761638],["mars",-8.746772426230063],["directeur",-8.750016449792746],["objectif",-8.752344522945682],["nos",-8.755876794220205],["vez",-8.758753111754224],["minute",-8.759692297624785],["gens",-8.765223986345054],["image",-8.766234106402681],["Europe",-8.767816710295655],["Cela",-8.768469511897688],["€",-8.7716679316982],["soutien",-8.7747514315124],["13",-8.776995132749523],["presse",-8.777931888575555],["K",-8.778722603028001],["présent",-8.779234392101392],["club",-8.78064266422129],["is",-8.78066102237784],["zone",-8.787007274726315],["exemple",-8.789131777351255],["total",-8.790165337448332],["accord",-8.791206829369468],["souven",-8.794410906946835],["tour",-8.794985258608552],["H",-8.797137471786602],["no",-8.800262689371682],["actuelle",-8.802798930712981],["communiqué",-8.804022954927142],["Tout",-8.80670363052199],["événement",-8.807279976811518],["vent",-8.809489917327552],["aucun",-8.811408339134978],["lorsqu",-8.812923367641922],["donné",-8.81538526632638],["candidat",-8.81627008046131],["utant",-8.816631214023818],["armée",-8.819985502191194],["11",-8.820337037266068],["hausse",-8.82103342385484],["fil",-8.821581800963227],["difficile",-8.822832241028006],["bre",-8.824458635502243],["Paris",-8.824491163608508],["Covid",-8.824826895480477],["économique",-8.828581930213598],["passer",-8.830575018516782],["mment",-8.832588315464365],["environ",-8.83345921673849],["partir",-8.835096301438565],["état",-8.83809097794003],["troisième",-8.839347637061692],["50",-8.83966530853857],["programme",-8.840572945965725],["sept",-8.84482599568547],["organisation",-8.84763368661372],["attaque",-8.850324555042718],["octo",-8.852999095741996],["vi",-8.8532053891397],["uvent",-8.853889089085689],["trè",-8.856043291139994],["parole",-8.858651291149007],["haut",-8.859309001829315],["scène",-8.862578051452939],["développement",-8.863329027960475],["victoire",-8.864238409767662],["ront",-8.867888109203744],["font",-8.869442293191838],["nov",-8.870451937956476],["seul",-8.871865730828581],["seron",-8.873034122165981],["action",-8.874866657689028],["œuvre",-8.881061743185732],["ministère",-8.881219474303556],["passe",-8.883463750764651],["anté",-8.885084008234298],["simple",-8.8871071961113],["production",-8.888252387336266],["elui",-8.888828935639292],["opération",-8.890249762512564],["ir",-8.891357017912377],["député",-8.894814200551853],["tard",-8.895027961858332],["jeux",-8.895073538209893],["aller",-8.895771421888506],["autour",-8.896032302246986],["quelle",-8.898423918254036],["aide",-8.898774588127921],["manière",-8.900681558182912],["ajouté",-8.90132790685309],["Son",-8.90366606647245],["dont",-8.903940006953354],["sujet",-8.904232481075274],["école",-8.904696964386691],["énergie",-8.906822252706295],["conseil",-8.910848744734166],["avantage",-8.915346638523612],["voiture",-8.916530441287009],["rôle",-8.918149960189083],["Comme",-8.918393290830437],["août",-8.919017748946917],["campagne",-8.920236249074406],["2023",-8.923440296107296],["condition",-8.924309124366694],["fond",-8.925641823981818],["recherche",-8.925878006748142],["résultat",-8.926284916831953],["connu",-8.929114023887887],["route",-8.935223468046004],["Afrique",-8.935662435252915],["formation",-8.939637304006515],["Macron",-8.940219296102319],["Conseil",-8.944456631534369],["loi",-8.944725164516665],["abord",-8.945227435017229],["jouer",-8.948554897730144],["terrain",-8.949712649241391],["ing",-8.952059312503298],["$",-8.955633519671863],["prochaine",-8.957962190630642],["forme",-8.959463042711526],["permis",-8.960640968554442],["trouver",-8.96256788425547],["ayant",-8.963928259335905],["départ",-8.964680854913842],["donner",-8.965436721045943],["parce",-8.96666883754437],["reçu",-8.966832005323456],["pandémie",-8.967060231067348],["savoir",-8.967095672032501],["dollars",-8.971154645774789],["charge",-8.972826066560913],["édition",-8.975527048280231],["nuit",-8.978765429896704],["source",-8.98039255922497],["territoire",-8.983560088430389],["moyen",-8.987023272461203],["rapide",-8.989867871148636],["ensuit",-8.993391297593835],["seule",-8.993392367679032],["père",-8.994212287587104],["direction",-8.996262470405926],["voi",-9.002516514559428],["arrivée",-9.004274416770128],["choi",-9.005859754775726],["juste",-9.005982473462845],["succès",-9.007244851826634],["décidé",-9.010061010967778],["Canada",-9.011978988113345],["100",-9.013945968255218],["Vou",-9.01395043738993],["attend",-9.0145636985923],["sa",-9.015857072272132],["vot",-9.016516336555743],["22",-9.018681897318057],["terme",-9.01887154338666],["intérêt",-9.020588015825876],["proche",-9.020618480756724],["serai",-9.020629059781585],["certaine",-9.022122240079344],["prise",-9.02753184366847],["ukrainien",-9.029285265247161],["client",-9.029672488972288],["plein",-9.029877863548021],["idée",-9.031343987288043],["vidéo",-9.035105106601081],["gaz",-9.040072082072868],["petite",-9.040806960773466],["ci",-9.041302773102185],["base",-9.041391090410976],["21",-9.042351136069945],["indique",-9.05476810179346],["maintenan",-9.055313681999554],["façon",-9.056092151322222],["lancé",-9.056169255962018],["qualité",-9.058309994078385],["fille",-9.059063989264628],["travers",-9.06213919609675],["hôpita",-9.06229617609712],["ais",-9.063368324390503],["veu",-9.06366587812687],["pense",-9.065892425046394],["habitant",-9.066843286621435],["trouve",-9.070335492428763],["40",-9.07124941842388],["milieu",-9.074732175939165],["association",-9.07539462914831],["acteur",-9.07723996034785],["W",-9.080285767431453],["européenne",-9.082397534692916],["marque",-9.083317239248686],["feu",-9.086981288991538],["valeur",-9.08887005218814],["coût",-9.089689253167757],["ouvert",-9.09338069268006],["midi",-9.094394712437952],["sortie",-9.095005913479739],["dossier",-9.09517451569429],["média",-9.097090490797157],["nombreu",-9.0992399391763],["cœur",-9.101451918942223],["Plus",-9.10225200877145],["propos",-9.106103522632116],["loin",-9.106699799002],["Suisse",-9.109404765638875],["urant",-9.111108969931724],["étude",-9.117019437900609],["port",-9.11732714444424],["nécessaire",-9.118375427533884],["râce",-9.11860635329449],["nombreuse",-9.120560053890342],["rendre",-9.127771144106976],["prévu",-9.129374126551365],["contrôle",-9.129572619510801],["belle",-9.131252273635367],["espace",-9.131699216800511],["commune",-9.137814723514468],["ui",-9.138081354681958],["Emmanuel",-9.139050528031934],["matière",-9.139257730717144],["précisé",-9.139362449168932],["justice",-9.140829099677891],["combat",-9.141417308988526],["violence",-9.144695837737801],["changement",-9.145702383024268],["23",-9.146086799458889],["lutte",-9.14927300412332],["corp",-9.149856763649087],["peine",-9.15060830143771],["solution",-9.15076790091879],["pied",-9.152700940717342],["argent",-9.15395191923103],["communauté",-9.156384193249913],["doive",-9.156501624240965],["mère",-9.161693524621956],["quartier",-9.164247741807955],["gauche",-9.164874955328163],["ordre",-9.16685683647329],["particulière",-9.168387096079972],["propre",-9.169796731037824],["modèle",-9.170004046721257],["eptemb",-9.17013980415623],["livre",-9.170375137536798],["expérience",-9.170747928895047],["sanitaire",-9.171803709422903],["Nord",-9.17229935255733],["ré",-9.175510491661594],["27",-9.178522610436595],["utres",-9.178890407774372],["ulement",-9.178910369677073],["donnée",-9.180588076058678],["carte",-9.182229239818462],[";",-9.182332873523542],["Belgi",-9.18416185729431],["train",-9.184271615535021],["commun",-9.18775452111473],["our",-9.188732537630226],["russes",-9.194391803787509],["26",-9.195084153490134],["chance",-9.195771733963914],["République",-9.198567281903465],["estime",-9.200231974822858],["disponible",-9.200611356691542],["permettr",-9.201329544903995],["prêt",-9.201632694908486],["ix",-9.202357138936105],["sûr",-9.202475673732668],["objet",-9.205893762996546],["aucune",-9.206411550327061],["journaliste",-9.207713037505904],["ch",-9.208216870706963],["mission",-9.209953206928292],["présence",-9.210638185217753],["comment",-9.210652821975987],["Premier",-9.213430186210052],["avion",-9.21543198270171],["relation",-9.21566153560267],["28",-9.21655658423682],["citoyen",-9.217996311832925],["maire",-9.218878066739064],["parler",-9.219392023082893],["Grand",-9.22097304254724],["économie",-9.222049707893428],["auteur",-9.223161785622299],["Quan",-9.223531201969553],["fonction",-9.223972973178878],["donne",-9.225768935919602],["rend",-9.225867382765742],["ve",-9.226859833638473],["puisqu",-9.226921347454761],["technique",-9.22713015418325],["juge",-9.227193175668688],["appelé",-9.227582587856897],["poste",-9.22941065048244],["manque",-9.229820372521008],["pratique",-9.231564791516917],["perdu",-9.233093438497649],["Union",-9.233135261222767],["atteint",-9.23377819624088],["époque",-9.23458845452409],["montre",-9.238523100649314],["élève",-9.239077581278668],["écrit",-9.240360382831103],["Coupe",-9.241003581612443],["prend",-9.242394905047552],["internationale",-9.243082411274713],["propose",-9.243257175484349],["capacité",-9.24368717078108],["entrée",-9.244156473368818],["bas",-9.244756135658657],["insi",-9.246161414685265],["enfant",-9.246370856881047],["artiste",-9.247183525017215],["Ces",-9.251945075444796],["européen",-9.253169568348358],["carrière",-9.254506747210444],["Maroc",-9.261432715622103],["500",-9.26200357511588],["clair",-9.262776196755308],["rendu",-9.264036262763252],["défense",-9.266573462164946],["Poutin",-9.271526612358063],["transport",-9.273648496665977],["arrêt",-9.276500764271026],["gros",-9.278231832898566],["soi",-9.278284508498768],["visite",-9.278394610806423],["plut",-9.279063755489702],["demandé",-9.280638054274261],["écran",-9.281893554668788],["différents",-9.281914187617488],["parent",-9.283653788932181],["eur",-9.283683117322276],["Pierre",-9.283752718681068],["longue",-9.284624437329237],["extrême",-9.285147233047292],["forte",-9.28539312973768],["emploi",-9.286040672974554],["60",-9.28711350944152],["établissement",-9.287256916827578],["majorité",-9.287278122197339],["policier",-9.287384461924304],["réussi",-9.290470343077928],["armes",-9.290967423060025],["garde",-9.291156157372695],["retrouve",-9.291692742843665],["revenu",-9.293395578003192],["bout",-9.295690992674931],["précise",-9.296670245038008],["mouvement",-9.301776863282713],["Mosco",-9.30243928919137],["nord",-9.303040418785187],["message",-9.304497244245075],["terre",-9.304685449502795],["Sa",-9.305205960745592],["impact",-9.305654145450646],["date",-9.30826485683022],["199",-9.308519647467097],["différente",-9.308830386109477],["créer",-9.310539679387993],["plateforme",-9.312612485442108],["international",-9.313836214852461],["reprise",-9.314001444325084],["Même",-9.319888757638928],["errière",-9.321711067091233],["peuple",-9.321851588145403],["Ville",-9.322368766756854],["compagnie",-9.32316974844096],["étant",-9.327008903196802],["accusé",-9.328145848762784],["arrêté",-9.329149603639435],["dû",-9.330267422841754],["arrive",-9.331407683792902],["ter",-9.331458931280242],["réalité",-9.33332494971501],["devenu",-9.334060205875137],["bureau",-9.334407880686676],["origine",-9.335088194256919],["publié",-9.338034340395884],["version",-9.338372509317772],["Ma",-9.339105657682909],["affirmé",-9.341196002607997],["accident",-9.341347233301583],["expliqué",-9.342674087907074],["véhicule",-9.342713853286352],["seconde",-9.343544295367312],["course",-9.343884231277787],["âge",-9.343915273156316],["aider",-9.345510744021386],["mètre",-9.345542894581406],["capitale",-9.345614194573914],["AFP",-9.346245108792903],["Montréal",-9.349068863442422],["X",-9.349762180788314],["construction",-9.350172703077142],["prison",-9.353097786122106],["Français",-9.353247919895347],["réponse",-9.3542251493818],["répond",-9.355004237813993],["importante",-9.35701384890696],["dizaine",-9.357263022616195],["direct",-9.360720565149528],["co",-9.361918162928202],["dirigeant",-9.36984872237014],["or",-9.370890713448196],["ajoute",-9.371083434663488],["réalisé",-9.371119595864034],["vivre",-9.371391624130343],["personnel",-9.372535292326535],["Ça",-9.372893171584687],["continue",-9.375309958312503],["étudiant",-9.375772892169188],["mondiale",-9.37591351192],["vril",-9.376267923694119],["presqu",-9.3782010286163],["soirée",-9.378577335044394],["conflit",-9.37920103111043],["présenté",-9.382030197248467],["augmentation",-9.382810713589345],["genre",-9.383621578741465],["sein",-9.384016709550053],["rester",-9.384313872814545],["unique",-9.386113136530469],["voit",-9.387978498810853],["étape",-9.388102337313285],["ois",-9.389465984774807],["social",-9.39092342608248],["officielle",-9.395345024400811],["second",-9.39655668690683],["professionnel",-9.39785280456579],["village",-9.398549041958773],["conférence",-9.39903634475617],["allait",-9.400858440555501],["ouverture",-9.400931939419845],["véritable",-9.401859408366896],["commencé",-9.403727067472861],["baisse",-9.40430404602989],["29",-9.405035457484866],["souligne",-9.405756977608078],["\".",-9.4059817440329],["gestion",-9.406077672599784],["km",-9.40651880131539],["voyage",-9.407098929908429],["ion",-9.407631870277978],["hors",-9.408342927733774],["Bruxelles",-9.409074017611768],["sanction",-9.410410743718632],["sociale",-9.412614846178053],["court",-9.413735768297741],["Chine",-9.413843058229553],["travailler",-9.414197229266037],["retrouver",-9.414432028533742],["grave",-9.416471203069964],["historique",-9.417573029984364],["Twit",-9.417740147859373],["domaine",-9.418132278736511],["camp",-9.419630586070607],["affirme",-9.420572391222988],["privé",-9.420602848069457],["profit",-9.420806472262282],["achat",-9.422145061233495],["mot",-9.423075164455067],["administration",-9.423079761768157],["position",-9.424193169954846],["agent",-9.424662451322515],["ukrainienne",-9.424694480668553],["éviter",-9.425449908924028],["réunion",-9.425612650637397],["avocat",-9.426974388601348],["générale",-9.427274044892364],["meilleure",-9.42790434341153],["américaine",-9.429865746486142],["vol",-9.43040801436674],["Car",-9.430990775267905],["française",-9.431582583305808],["création",-9.433300300755132],["employé",-9.43449095470649],["ël",-9.434747242488015],["critique",-9.435785962671],["incendie",-9.438894965599314],["liste",-9.43993572980493],["conséquence",-9.442376270031552],["gne",-9.442600120397788],["liberté",-9.443634864926484],["cet",-9.444500689035133],["cour",-9.444926480834894],["éga",-9.44566280924679],["frontière",-9.445772754490765],["ire",-9.446163963250005],["inflation",-9.446368864614314],["moyenne",-9.446559580239045],["Isra",-9.446976951746343],["ar",-9.447089137396805],["Centre",-9.447780583601887],["tion",-9.448106038251257],["supplémentaire",-9.44877841159629],["70",-9.450353902286121],["av",-9.450364691982744],["viru",-9.450472564690873],["humain",-9.45290193200534],["doute",-9.453133684407177],["soci",-9.45542795027443],["particulier",-9.4571642934266],["rappel",-9.45805967266163],["si",-9.458444317936593],["six",-9.45944548258921],["droite",-9.460294016912751],["urgence",-9.461232221163545],["venu",-9.461811877185193],["avance",-9.462726097213565],["air",-9.464330532107127],["PS",-9.464491195584237],["partenaire",-9.464851194472832],["record",-9.4659154313945],["New",-9.46737970419732],["principal",-9.468254212603316],["fédéral",-9.468530776805395],["décè",-9.468850250798251],["province",-9.469277498396576],["contrat",-9.469716140805524],["Z",-9.470002517754939],["dix",-9.470064920748944],["François",-9.472232730812511],["80",-9.473389621507255],["ujour",-9.474484708830719],["Est",-9.474728985654277],["vue",-9.475342335428294],["tribuna",-9.476359372481134],["élément",-9.476700414808919],["—",-9.479932325381363],["souhaite",-9.48133676087862],["obteni",-9.482908850391986],["cinéma",-9.483957138645106],["pourra",-9.484018193450941],["investissement",-9.48472100008906],["Deux",-9.485139234583873],["arrivé",-9.485364552693449],["rouge",-9.485490786945718],["souligné",-9.48633468361665],["possibilité",-9.487784805844685],["chacun",-9.488004435095213],["PC",-9.48891764343037],["demi",-9.4892203914079],["Malgr",-9.489229660338424],["type",-9.490548601875691],["pou",-9.492701305440566],["élevé",-9.49316206973523],["mondial",-9.493261533418178],["application",-9.493931110084453],["assure",-9.494532822519776],["che",-9.49510314840494],[".\"",-9.49589408735283],["centaine",-9.497106449548529],["Lors",-9.49845387874264],["climatique",-9.499736806739357],["maladie",-9.500513402979255],["q",-9.500814371474995],["assurer",-9.501166435765734],["représentant",-9.50168745984542],["inscrit",-9.502122872227586],["populaire",-9.503461557860245],["présente",-9.50422122898085],["compris",-9.508703708763724],["Or",-9.510115924243065],["banque",-9.510794910124911],["huit",-9.510806714410698],["hiver",-9.511038499703915],["étranger",-9.511043846667418],["otr",-9.511633577045613],["champion",-9.511815136727888],["bord",-9.51292939243995],["assuré",-9.513487158120384],["passage",-9.513505953269124],["texte",-9.513516490242948],["rez",-9.514114736146581],["physique",-9.515536305361094],["émission",-9.516470414839745],["millier",-9.516859185891892],["locale",-9.517240067170428],["musique",-9.519535574267714],["opposition",-9.520178323888423],["représente",-9.522133394093999],["Sud",-9.522450192138832],["mandat",-9.52487771868882],["centrale",-9.528676066442161],["compétition",-9.528894705573824],["principale",-9.529594786690762],["31",-9.530065359271177],["bâtiment",-9.531766346427364],["actuel",-9.53300534709706],["initiative",-9.533107403938143],["week",-9.535272999824004],["faudra",-9.535629905382118],["difficulté",-9.537316491531062],["sort",-9.538096371413136],["voulai",-9.538361290374183],["quotidien",-9.538449916802595],["trouvé",-9.538635130848302],["Bien",-9.53897504912795],["marqué",-9.539175607466415],["scolaire",-9.539643005391852],["effort",-9.54005342940825],["véhicules",-9.540320834534736],["vite",-9.5421382660092],["numérique",-9.545731979259852],["présidentielle",-9.54741053143326],["protection",-9.54774880889256],["continuer",-9.547778961753732],["propriétaire",-9.54788574159826],["Cha",-9.550531739263812],["ère",-9.551253760022007],["Allema",-9.552274409009748],["art",-9.553858671978105],["épisode",-9.554124332940152],["pompiers",-9.557223487328574],["mode",-9.55898070367559],["expert",-9.560766728549224],["montant",-9.56083825258394],["signé",-9.561854985157343],["belge",-9.564302046656634],["Y",-9.565000628833026],["mer",-9.565099970090346],["35",-9.568645034219038],["oi",-9.568724102766193],["tenu",-9.56941931519519],["double",-9.569533128615369],["hier",-9.56995020354696],["voie",-9.570359978298749],["Q",-9.571125470833586],["faisant",-9.572007838669894],["joué",-9.572698063575164],["article",-9.573224658846623],["vote",-9.577402452328856],["chaîne",-9.577535094973815],["rappelle",-9.57844751123385],["preuve",-9.58110870354809],["final",-9.581278159936037],["culture",-9.581995972871038],["suivi",-9.587693444915953],["vien",-9.588712805047553],["%)",-9.588742291407744],["The",-9.589627357938674],["endroit",-9.589826407274188],["électrique",-9.590917126772748],["quart",-9.591118183774483],["vente",-9.591743367066169],["facile",-9.592687106397893],["sortir",-9.593212654911744],["retrouvé",-9.593219198524938],["ancienne",-9.593645772864491],["football",-9.594674036782763],["Côte",-9.594771244499],["âgé",-9.596194833672701],["logement",-9.59729203749226],["porté",-9.597901769062435],["civil",-9.598544795476531],["spectacle",-9.599816918400242],["Ligue",-9.601811823117103],["technologie",-9.603409056987026],["manifestation",-9.603443252155397],["agence",-9.604369659111502],["intervention",-9.604805297351799],["nucléaire",-9.605128179798534],["attendr",-9.605773279692126],["atteindr",-9.607055171463973],["judiciaire",-9.607684135122861],["fête",-9.608462993513546],["men",-9.609121678065952],["parle",-9.609295609637634],["médecin",-9.609724309469648],["eau",-9.611461680258648],["pouvai",-9.614572971698934],["gagner",-9.615308826932225],["Paul",-9.615901373073985],["touché",-9.618578998363144],["cité",-9.620273883988709],["invasion",-9.621783524302657],["Certain",-9.622725849373403],["échange",-9.623251372431902],["transition",-9.62391050454111],["franc",-9.624392978282366],["Pas",-9.626708599244203],["document",-9.626891805659884],["communication",-9.627301639756285],["régime",-9.628141294945888],["confirmé",-9.630671630382],["respect",-9.631560333201175],["oir",-9.632094621913541],["procè",-9.633385898110042],["conclu",-9.633610093080035],["1er",-9.63543758095552],["table",-9.63580231797129],["chemin",-9.635973273208423],["vingt",-9.635973520179345],["alement",-9.63612166130996],["découvrir",-9.636341018050912],["Santé",-9.6363959713135],["plainte",-9.637111426679057],["changer",-9.642988486122547],["département",-9.644562515211383],["probable",-9.645829187908154],["utilisé",-9.646125632631065],["choisi",-9.646461104353731],["remporté",-9.646584453996116],["avri",-9.646642269894375],["déclaration",-9.646807875105837],["budget",-9.6480795359017],["45",-9.648992420984392],["intérieur",-9.649651261274164],["règle",-9.65172948899901],["affiche",-9.653334181011115],["°",-9.653646173449777],["faisai",-9.654721693949611],["+",-9.656338776486367],["option",-9.656654007056925],["photo",-9.656798201730021],["estimé",-9.657156760245314],["britannique",-9.657242639964533],["situé",-9.659352825420559],["puissance",-9.65944922155742],["pression",-9.659558356039726],["contact",-9.659952863321614],["sommet",-9.660003256435294],["Louis",-9.660613546116704],["laisse",-9.661506194045073],["entretien",-9.661589197469208],["vague",-9.663925986358738],["interne",-9.665038876370184],["No",-9.66672911410599],["salle",-9.666772952327712],["tir",-9.668376104206349],["salaire",-9.668993634647077],["personnage",-9.669418865441491],["vert",-9.669825421769398],["ujourd",-9.670146646147742],["neuf",-9.671026029559568],["Cour",-9.672424139150724],["out",-9.672827220489122],["sait",-9.674330468722102],["Not",-9.674497270603943],["parc",-9.674938383663374],["oins",-9.675315256038715],["quant",-9.676560945907646],["trav",-9.676820311084935],["libre",-9.679659686117866],["langue",-9.679664231777283],["kilomètre",-9.680618596020135],["électrici",-9.680974051208981],["responsabilité",-9.681254975713387],["existe",-9.681347017043322],["danger",-9.682481501309478],["espoir",-9.682711214164367],["réforme",-9.68290292566726],["alimentaire",-9.682983666576185],["Michel",-9.68458580553292],["process",-9.685012918765167],["espère",-9.685476614003022],["aine",-9.686653196738316],["contexte",-9.686691643194838],["environnement",-9.687656595978417],["invité",-9.687691926114585],["négociation",-9.689410080009086],["Toute",-9.68974190787075],["discour",-9.692028711456516],["utiliser",-9.695756864229113],["chiffres",-9.697781357750348],["nature",-9.697940562634535],["concerne",-9.698490236169821],["ét",-9.700764278266941],["poursuit",-9.700972414292576],["Mon",-9.70264874321254],["phase",-9.704339800789686],["tournoi",-9.70475493114725],["secrétaire",-9.704788017285024],["commerce",-9.707144187990181],["acte",-9.707656266910014],["aventure",-9.70787445585432],["répondr",-9.708503911755447],["Tour",-9.709266455336014],["É",-9.709382654486372],["étrangère",-9.70954678826497],["rang",-9.70971821686087],[".»",-9.710327363597592],["appareil",-9.71133049945],["commence",-9.71137068337114],["noir",-9.711463234955023],["cher",-9.711608245604292],["patient",-9.713077598371967],["volonté",-9.715262680642063],["génération",-9.717874934184948],["condamné",-9.718404291132803],["Marc",-9.718500312840309],["sorti",-9.720074212359874],["ouverte",-9.720444268738948],["soldat",-9.720771364539258],["siècle",-9.72317564500581],["festival",-9.72401222661849],["cérémonie",-9.724553875497715],["courant",-9.726263512306588],["ra",-9.727342897802346],["”.",-9.727523159895403],["malg",-9.728201283179246],["Go",-9.730104782288308],["championnat",-9.730799443460953],["raconte",-9.731079054429063],["90",-9.731420760940107],["vaccin",-9.732256188291291],["Algérie",-9.732920427799788],["unité",-9.733277483005393],["frère",-9.734128111707232],["géant",-9.73505760872812],["isme",-9.735381953474329],["numéro",-9.73572366494211],["Van",-9.73667917768748],["engagement",-9.737846939374133],["lon",-9.73815782980629],["figure",-9.738323131290276],["énergétique",-9.739066407718386],["financier",-9.739104104215293],["198",-9.739399795854538],["débat",-9.739834470281615],["entraîneur",-9.740159385781634],["régulière",-9.740601864949642],["augmenter",-9.741792530233544],["approche",-9.742678986812727],["endant",-9.742962012674946],["Avant",-9.743168994726831],["consommation",-9.744261060008364],["croissance",-9.744315819747495],["contraire",-9.744411067571505],["épreuve",-9.745013205948744],["capable",-9.746174123791643],["actions",-9.747681571150505],["couleur",-9.747745540487795],["défi",-9.748244559185396],["appelle",-9.748644671743389],["quatrième",-9.749103996854592],["proposition",-9.749311978126464],["commission",-9.749466751110898],["perte",-9.750668300069734],["précédent",-9.75166017150866],["blessure",-9.754310792179252],["devien",-9.754613120292472],["vitesse",-9.754985707303561],["offrir",-9.7552306437086],["enregistré",-9.755572519830048],["institution",-9.756021589824623],["comprendre",-9.75658209919283],["rêve",-9.7572373748939],["balle",-9.757355630036425],["outre",-9.758118589798226],["instant",-9.75899781513126],["marche",-9.759493114745755],["andis",-9.761494176027938],["piste",-9.762190208329347],["reconnu",-9.762967416069042],["lancer",-9.763810171093617],["célèbre",-9.764504135540584],["organisé",-9.765990213620118],["financière",-9.767969377358096],["comité",-9.770103037451635],["participer",-9.773911229384277],["anti",-9.774270899430952],["compter",-9.775482462728455],["bilan",-9.777253318642096],["ions",-9.777820977269974],["vait",-9.77866109968004],["to",-9.779057222207452],["stade",-9.779106415705403],["John",-9.779855114333003],["York",-9.779943846986011],["patron",-9.780467109672815],["placé",-9.780521845525943],["industrie",-9.780577885834234],["engagé",-9.781029679731235],["veille",-9.781503136643275],["so",-9.782508560442635],["aire",-9.783062249723098],["remise",-9.78403101787671],["moitié",-9.78522585364027],["intention",-9.786062722940123],["confian",-9.786512531135493],["limite",-9.786513294639729],["David",-9.786741573909993],["officiel",-9.787729397520032],["fut",-9.788752128647115],["évolution",-9.788933613180326],["revien",-9.79056807869917],["Du",-9.79109523491367],["absence",-9.791701357604676],["ser",-9.792436758486804],["Parm",-9.792910876831488],["ouest",-9.793245631556662],["pleine",-9.793513494981493],["Face",-9.79501043895956],["tendance",-9.796448638449606],["classe",-9.797068311040405],["ressource",-9.797341494993951],["prévue",-9.797500390393942],["porter",-9.79752767538613],["parcours",-9.798100272228123],["profiter",-9.79875665769099],["regard",-9.798888362418595],["oujou",-9.798973224461367],["travaille",-9.800326573971802],["Vladimir",-9.801048662012894],["mes",-9.801318566062314],["Al",-9.802242257190354],["obtenu",-9.803060835912305],["siège",-9.803452376519093],["élu",-9.803517137569774],["tension",-9.803545109225247],["Sénégal",-9.805954285979698],["sant",-9.806226265752503],["Assemblée",-9.80643288647692],["Martin",-9.807813388957852],["analyse",-9.808317804103083],["surprise",-9.809058918095637],["attente",-9.809648943498054],["pré",-9.810705815923438],["hauteur",-9.810860216478778],["stratégie",-9.811371547070273],["suivr",-9.811418351224786],["travailleur",-9.812241796730483],["esprit",-9.814595409812583],["Ben",-9.815907490919134],["fera",-9.81622359127121],["page",-9.81734858503455],["doi",-9.818454924463385],["station",-9.82075591355622],["durée",-9.822070161495322],["large",-9.823131785376972],["avis",-9.823726297119666],["conseiller",-9.824375466790286],["terminé",-9.824525266719647],["devra",-9.825396758231872],["comprend",-9.826003265106753],["arme",-9.827008252099464],["Président",-9.827248069982339],["2015",-9.827450183184057],["financement",-9.827528383389156],["menace",-9.827743493928773],["domicile",-9.827982254674843],["bande",-9.828369848984185],["classique",-9.82839877318823],["participation",-9.828554943033833],["quitter",-9.828624323783416],["détail",-9.829216199741762],["vis",-9.831421863741745],["quasi",-9.832901920503566],["scientifique",-9.83314488072861],["couple",-9.833518867590154],["réce",-9.833635485998546],["uis",-9.833971204858923],["forcé",-9.83533889345905],["envie",-9.835460389776777],["lusieur",-9.835546569328502],["structure",-9.837312686845532],["lor",-9.838919378537177],["Noël",-9.838964283849428],["ête",-9.840610608115766],["laisser",-9.84115697112709],["contenu",-9.841288730362237],["payer",-9.841751774755924],["san",-9.84231960464712],["blessé",-9.843741982383197],["sens",-9.844385098153726],["Nic",-9.844865601881466],["réaction",-9.845757394350034],["évidem",-9.846643605855844],["don",-9.84810520430009],["voisin",-9.848989010008427],["mbre",-9.849108329669129],["grève",-9.850806932528684],["300",-9.85112643317072],["catégorie",-9.852583898773299],["Trois",-9.853979001329831],["UE",-9.85409666859665],["lien",-9.854126611531777],["réduir",-9.856311629997371],["lance",-9.856719722096209],["téléphone",-9.857562319010619],["sport",-9.857608674878403],["arrière",-9.857944316953537],["nouvel",-9.858953065202574],["lumière",-9.859957937776791],["classement",-9.860467810191308],["souten",-9.861218261417832],["outil",-9.861463672857901],["Kie",-9.861709050779258],["attention",-9.861867058185215],["crime",-9.86190968643786],["discussion",-9.86235177072636],["restaurant",-9.86281615742337],["particip",-9.863212405802072],["troupe",-9.863977829422987],["terroriste",-9.864599487662382],["argement",-9.865001709209896],["proposé",-9.866404737050534],["197",-9.867625982042737],["procédure",-9.868094384419141],["attendu",-9.868568332638402],["Nation",-9.869583159935953],["asse",-9.870481507926204],["futur",-9.871842157264647],["extérieur",-9.872581558554083],["dispose",-9.87360095118557],["militant",-9.874010861106292],["chiffre",-9.87424188821468],["créé",-9.874459180514265],["man",-9.875605043554174],["Parti",-9.875838560752122],["note",-9.876975430204851],["ba",-9.876995923113524],["accè",-9.877325207411314],["Quant",-9.878746232043913],["%.",-9.878749978756773],["exercice",-9.879353360177825],["matériel",-9.88219759831351],["ns",-9.883016064505284],["île",-9.883267854447311],["importe",-9.884758605657584],["entendu",-9.885227152514236],["habitude",-9.885756023656167],["agression",-9.885936141225113],["tué",-9.886193208485867],["infrastructure",-9.886561882882953],["hôtel",-9.888085548194212],["chambre",-9.88868686576644],["prévenu",-9.889104829176226],["Sans",-9.889783637542095],["prévoi",-9.889802479806402],["local",-9.890002227292591],["plaisir",-9.890404611710451],["adversaire",-9.89154772650045],["importan",-9.892301654029076],["arriver",-9.892531543382049],["blanc",-9.892944943134436],["ferme",-9.893476081460973],["tenue",-9.895859961122511],["Commission",-9.896201744352876],["cha",-9.896332378777393],["complètement",-9.897425938039719],["dénonce",-9.898268703611972],["Entre",-9.89829538911297],["lié",-9.899121694093475],["met",-9.900456622745551],["univers",-9.900855196349873],["circuit",-9.902211219664691],["revanch",-9.902372127578388],["olympique",-9.90289399548698],["protéger",-9.903282168324985],["positif",-9.903506761905629],["accusation",-9.904191019086788],["Affaire",-9.904649587107244],["Pen",-9.906314947098444],["accueillir",-9.906803659728828],["faveur",-9.908603600796322],["via",-9.908757259913687],["installation",-9.908877579144109],["retraite",-9.909053411759905],["super",-9.909629942980889],["tentative",-9.909825683196061],["Charles",-9.91008887432411],["gen",-9.912658067901994],["sorte",-9.913494131314877],["Pro",-9.913826867843458],["enir",-9.914945232699445],["température",-9.915456503150782],["lettre",-9.918182458449934],["gré",-9.919419823689186],["réaliser",-9.920112797398552],["parquet",-9.923556039242357],["frappe",-9.924661373550661],["laissé",-9.92555396430492],["entendre",-9.926985308239075],["suspect",-9.927759045191074],["connaîtr",-9.928305931729081],["entend",-9.929080396073648],["us",-9.929217595070664],["principe",-9.929369930996709],["passant",-9.930035869584476],["issue",-9.931648638101244],["honneur",-9.931965007699802],["magasin",-9.932280702463922],["remis",-9.932370121419396],["réfugié",-9.932579851371809],["organisme",-9.932752796026877],["présenter",-9.934011406957957],["fi",-9.934363624324533],["professeur",-9.936776253027313],["aime",-9.9381552961659],["nation",-9.938895365939887],["disposition",-9.9392967645932],["individu",-9.93941679119552],["utilisation",-9.939994588220278],["effectué",-9.942048984824227],["chargé",-9.942987660022085],["75",-9.944773160047372],["traitement",-9.946037254730374],["référence",-9.946838760150833],["incident",-9.94711038860061],["cherche",-9.947176377400545],["able",-9.948169495329036],["ca",-9.948838441313859],["po",-9.949642045798793],["lle",-9.950418428551107],["gardien",-9.950819052145366],["performance",-9.95240443152152],["vacance",-9.952436212930866],["ccès",-9.95259624988741],["mo",-9.95267949099793],["amour",-9.954408306708498],["ave",-9.954736562212927],["poursuivi",-9.956046373315178],["Olivier",-9.956689411127225],["circulation",-9.956808147975291],["touche",-9.957975692765388],["actif",-9.958488265810082],["thème",-9.959463206671742],["TV",-9.959624127887121],["partage",-9.960766009013946],["montrer",-9.96128234585268],["africain",-9.96152171371374],["Philippe",-9.961764032317777],["liée",-9.961939559359752],["leader",-9.962478999055346],["rythme",-9.963039432014362],["majeur",-9.96320396162669],["blessés",-9.96327958472849],["procureur",-9.963327119624672],["ément",-9.964110363808924],["pilote",-9.964499995206438],["université",-9.964961263910054],["iers",-9.96661890729792],["déplacement",-9.970329644278937],["vision",-9.971209320413546],["ajouter",-9.971362788350469],["salarié",-9.975985926068079],["bois",-9.976276936768446],["Guinée",-9.978137250325972],["ouvrir",-9.9782873093672],["concerna",-9.978462366805953],["vais",-9.979017099112358],["frais",-9.979396491716965],["concert",-9.979645918555887],["potentiel",-9.980579895283427],["llement",-9.98112510910893],["Espagn",-9.981311452147352],["nou",-9.981563602642275],["abilité",-9.982216698364699],["participant",-9.983156293507935],["peur",-9.983728858261571],["erreur",-9.986129553360296],["lesquel",-9.986150453952405],["Mali",-9.986191935309202],["obligation",-9.988439703018827],["accueil",-9.989420262408427],["ier",-9.989525691161155],["offert",-9.989840240671843],["Marine",-9.989903892685579],["Genè",-9.990100724813821],["aéroport",-9.990172214580843],["Que",-9.990898667738442],["légère",-9.992429857401472],["visible",-9.992518411402632],["lancement",-9.992735848830868],["exposition",-9.993763658000454],["mené",-9.993822423051576],["démocratie",-9.994167324813125],["maximum",-9.994677246403942],["Amazon",-9.99515850538508],["Université",-9.995249745873842],["Tous",-9.995430244738836],["absolu",-9.99609545493751],["améliorer",-9.996490206522289],["Luc",-9.997538523117996],["défaite",-9.998794709660705],["faible",-9.999039351938332],["quelqu",-10.000456085424936],["phénomène",-10.001349477881124],["Aucun",-10.002404297711621],["réduction",-10.002820858650011],["anglais",-10.002829545552604],["fer",-10.007152820778156],["pétrole",-10.008199565694508],["réalisateur",-10.008429520371271],["commencer",-10.009254288421758],["relève",-10.009745550448567],["cible",-10.009786260904978],["Lorsqu",-10.010639922287432],["continu",-10.010695014716052],["mauvais",-10.011342823485387],["400",-10.012791163753331],["haute",-10.01364640720048],["nfin",-10.014192857209245],["hommage",-10.014487212725424],["essus",-10.015275710433123],["devoir",-10.015409396740656],["poursuivr",-10.015864872264341],["jou",-10.017851089853785],["allemand",-10.017961527661068],["touj",-10.018522078925095],["ulent",-10.019497525545102],["Qu",-10.019518278570306],["box",-10.020424540965173],["studio",-10.020837594515994],["producteur",-10.021225862386888],["civile",-10.022248516781385],["Beau",-10.023581256056374],["enseignant",-10.024539413304634],["chute",-10.024687698128645],["arbre",-10.026161054689155],["examen",-10.027230494914022],["Marie",-10.027236013177474],["consommateur",-10.027777450957228],["joue",-10.028177842319769],["pire",-10.029145464746499],["spectateur",-10.030164908200867],["32",-10.030584580889744],["sportif",-10.0316162674352],["reprendr",-10.031801301949011],["arrêter",-10.032542827432152],["alerte",-10.03287680022127],["Apple",-10.034464185424216],["audience",-10.035483012480425],["Canadien",-10.036913220364061],["augmenté",-10.037161195456001],["amis",-10.038828807359602],["demander",-10.040164855605365],["Mari",-10.041338220772877],["collectif",-10.041397985044377],["priorité",-10.041733851865608],["99",-10.0420333158582],["quel",-10.042898781413705],["agricole",-10.043288342907537],["essentiel",-10.043302059332584],["manche",-10.043496828791714],["Enfi",-10.045957053475458],["demeure",-10.046378879344417],["&",-10.047801273038502],["rencontré",-10.05058415353703],["quitté",-10.05160433669116],["Maison",-10.051965054266034],["suisse",-10.052360366092689],["sentiment",-10.053520818348849],["développer",-10.054629891566083],["voulu",-10.05663706306948],["post",-10.05694826522588],["barre",-10.05741303924352],["smartphone",-10.057491373865421],["envers",-10.057997602844893],["impression",-10.058612557890577],["défenseur",-10.060245599284627],["COVID",-10.061547184832081],["mar",-10.061639955100327],["collègue",-10.06191906377671],["ouloir",-10.061946550118684],["ami",-10.06273440339438],["interdit",-10.062768682204918],["comportement",-10.063411995733185],["permettra",-10.06410102258382],["manifestant",-10.064640819581523],["visage",-10.066709441050914],["pluie",-10.067024933736029],["durable",-10.067057030281074],["ien",-10.067191723492012],["dialogue",-10.06755065910221],["vice",-10.069157067328918],["vélo",-10.069283828477314],["précis",-10.07125358383653],["socia",-10.072213686363444],["précédente",-10.072936976026385],["puisse",-10.072946387589155],["FC",-10.073173427559087],["surface",-10.073705721394663],["Patric",-10.075746947250604],["33",-10.078017465379666],["climat",-10.080516139831172],["Ouest",-10.08093762635771],["spécialiste",-10.081454386869177],["Laurent",-10.081801875514257],["tenter",-10.081982474372603],["degré",-10.082569892102356],["2000",-10.082570323996762],["bras",-10.084196003152302],["constaté",-10.084657305714192],["Parlement",-10.08469064158115],["usine",-10.085476470726764],["ton",-10.085892873832819],["israélienne",-10.087249597214237],["Ni",-10.087465828878592],["résidence",-10.088791249839126],["refusé",-10.089407532958525],["candidature",-10.090583135918674],["journal",-10.090670964263545],["envoyé",-10.092987796896153],["ard",-10.093026617063273],["décédé",-10.094397525113864],["Italie",-10.094916491386481],["pourron",-10.095000594871628],["conservateur",-10.096207224030262],["identité",-10.097856019266608],["ashington",-10.097950035479396],["vos",-10.098280573644054],["permett",-10.098484032006027],["différence",-10.099568238084363],["Russe",-10.100486245361314],["ours",-10.101072666648037],["Ivoir",-10.101186644302281],["médaille",-10.103306477102558],["Royaume",-10.103964938846474],["collaboration",-10.104290091205222],["vienne",-10.104519316567576],["ON",-10.10583482637805],["installé",-10.10647473052845],["36",-10.10761418837877],["rappelé",-10.108555378682587],["sélection",-10.109838563475789],["changé",-10.110325824304862],["commis",-10.11035033486807],["w",-10.110909375678155],["prenne",-10.111078985800795],["gagné",-10.111436833284015],["connaissance",-10.111859779795523],["tenté",-10.111932298345497],["achete",-10.112274888690868],["assurance",-10.113602046251678],["ance",-10.11429692071791],["chercher",-10.114721065675411],["vit",-10.11482130919444],["connaît",-10.11551058965628],["missile",-10.11572120506283],["LR",-10.115952937828867],["lourd",-10.117331249727874],["préparer",-10.11744762439432],["Défen",-10.117639378669535],["souvenir",-10.117701431044445],["souhait",-10.118252678170958],["carburant",-10.118711443627483],["parlementaire",-10.11880891695004],["anim",-10.119724144837576],["dispositif",-10.120294862941758],["croir",-10.121039291515288],["onc",-10.12234723832192],["fini",-10.122446095909488],["réserve",-10.124117534148784],["professionnelle",-10.124170743800018],["démarche",-10.124288054991496],["ski",-10.125113120872731],["appui",-10.126064426792865],["vaccination",-10.126305080738511],["mainten",-10.126565602639507],["décennie",-10.126637403213115],["RT",-10.127015933314027],["visiteur",-10.127486116952984],["Nicola",-10.127763434995309],["appris",-10.127764367887599],["rejoindr",-10.128339216926483],["détention",-10.128365259490526],["attaquant",-10.129613543815392],["atelier",-10.129741290570497],["Ukrainien",-10.12983938904278],["tient",-10.12986116232197],["constat",-10.130845979981725],["scénario",-10.131704455235958],["héro",-10.132630859329437],["exploitation",-10.13269675635782],["directrice",-10.134996310054317],["canadien",-10.136572142661672],["allon",-10.136769712757959],["proposer",-10.137686797201884],["énorme",-10.138079428530872],["gamme",-10.138307780298053],["corona",-10.139548892611671],["supérieur",-10.140535428534285],["chantier",-10.141122487585532],["opportunité",-10.141161378652331],["Qatar",-10.14166851096194],["entier",-10.14227591127531],["devai",-10.143540443659894],["personnages",-10.14422642437828],["garder",-10.146031213281121],["Quelque",-10.146129736255203],["Netflix",-10.148243625129798],["Facebook",-10.148256741273455],["offensive",-10.148633748512047],["immeuble",-10.149013090356213],["tomber",-10.149085351637677],["constitue",-10.149327316073926],["vec",-10.149624557465874],["nécessité",-10.150229248874506],["livraison",-10.150375413469558],["construir",-10.150747011108065],["retrait",-10.151195818772635],["jeunesse",-10.152089675079527],["renforcer",-10.152213862513324],["Robert",-10.153559597254478],["tiré",-10.15382238181336],["réagi",-10.15533804124112],["retard",-10.155347788822517],["subi",-10.155488323138197],["métier",-10.155998785328858],["personnalité",-10.156025522905235],["éducati",-10.156119506892862],["concerné",-10.156133398047157],["55",-10.156665359148963],["émotion",-10.157557571463077],["ménage",-10.158064215867508],["34",-10.158470945935349],["échec",-10.159176682166674],["Tou",-10.159283101909068],["apporter",-10.160728025014487],["pe",-10.161159527467344],["menée",-10.162262454265237],["promotion",-10.164719208207],["trafic",-10.165300192955607],["jardin",-10.165834294791027],["change",-10.165994521576527],["législative",-10.166097340169411],["chanson",-10.166427748614087],["Vincent",-10.166982770992005],["mauvaise",-10.167036885838677],["réduit",-10.167324997087213],["ciel",-10.168067108689625],["Dan",-10.1684122119505],["stratégique",-10.168912328171407],["confirme",-10.170313806218058],["Fédération",-10.171149116569756],["Zelensky",-10.171174286555207],["mémoire",-10.171242877853544],["proximité",-10.171316761120057],["vendu",-10.171663131836484],["telle",-10.171738437086239],["partenariat",-10.173257873357393],["statut",-10.174833102839653],["penser",-10.175014873212735],["séance",-10.17539263833933],["recour",-10.176358929493354],["sondage",-10.17650345367162],["œ",-10.176504547934602],["mêmes",-10.176576494533336],["Anne",-10.178467037497686],["solidarité",-10.178621493980199],["repris",-10.178674370750274],["battu",-10.179683891560082],["armé",-10.179735084803346],["tarif",-10.180002992198773],["lever",-10.183487074642144],["star",-10.184500108564519],["sexuelle",-10.18546047884929],["perdre",-10.18555607328775],["possède",-10.186782791316286],["médicament",-10.187074784786716],["organisateur",-10.187180356415823],["impôt",-10.187552643397979],["naissance",-10.188114597388516],["vécu",-10.188164535972625],["venue",-10.188609800330493],["FA",-10.189401624950603],["trimestre",-10.189942332920316],["Claude",-10.19073133822466],["res",-10.191520201716177],["Parc",-10.191794305802695],["ie",-10.191856129774132],["chercheur",-10.192685690221554],["considéré",-10.192826932841658],["billet",-10.193632061480058],["complexe",-10.194038112231013],["Donc",-10.194234012574672],["montré",-10.194252844252906],["û",-10.19483700137069],["utilisateur",-10.195931559099622],["efficace",-10.19599397141234],["logique",-10.197640727950375],["Iran",-10.199399458098304],["te",-10.199964832547636],["défendr",-10.202740215128493],["cabinet",-10.203368190506811],["coopération",-10.203615225823622],["affronter",-10.204317849318686],["neige",-10.205363690265386],["divers",-10.20569770543246],["camion",-10.206004110495746],["pénurie",-10.206127460106075],["moindre",-10.206769743375446],["israélien",-10.20689726960314],["chaleur",-10.20757530793042],["rare",-10.20869439173914],["adjoint",-10.210895667750847],["soutenu",-10.211364620203463],["servir",-10.212388187651012],["dépense",-10.212917452855983],["entraînement",-10.214156431334212],["installer",-10.21422705623533],["normale",-10.215103237333295],["éta",-10.215261539906427],["signe",-10.21568997026214],["violent",-10.215690224823192],["cel",-10.216936797324983],["poi",-10.217169407594465],["régional",-10.217590400207142],["jugé",-10.217683149686138],["pprovisionnement",-10.218347595000107],["usage",-10.219059978313012],["exprimé",-10.220429469231942],["caméra",-10.220858205520756],["rue",-10.22178902723689],["électorale",-10.222165256992923],["nommé",-10.222936137097818],["adresse",-10.223306627223337],["ain",-10.223371456133616],["pauvre",-10.22500390466664],["pièce",-10.22557891739606],["fermé",-10.226079064952106],["réelle",-10.226757316911684],["conducteur",-10.226945532454907],["pièces",-10.22826999015843],["rentrée",-10.228944002556553],["coalition",-10.229000558474755],["vivant",-10.229076667955216],["détenu",-10.229965783434693],["trava",-10.229998864963694],["fans",-10.230229046150612],["commande",-10.231078852069597],["tombé",-10.232963096082303],["témoin",-10.232980642752633],["lancée",-10.234717708505896],["aérienne",-10.234919611635249],["garçon",-10.234926447248885],["hockey",-10.23501031334368],["chinois",-10.23512117244693],["cinquième",-10.235286137512976],["tâche",-10.235382862517266],["théâtre",-10.235464489276552],["organisée",-10.237247471183508],["instance",-10.237513189180852],["mains",-10.237621278697251],["Eric",-10.238180603752292],["Puis",-10.238620326526739],["code",-10.239212242492707],["For",-10.239537520635674],["adulte",-10.23955322656267],["excellent",-10.241676466513873],["li",-10.241894749436621],["vise",-10.243087020402722],["talent",-10.243254308642488],["Première",-10.243598385509028],["ri",-10.243599209073885],["restriction",-10.243942011677117],["Institut",-10.243962099515358],["athlète",-10.244780388599573],["album",-10.24506259165019],["découvert",-10.24514998949692],["jaune",-10.245722858102866],["chien",-10.245961513093956],["musée",-10.247081071876913],["efficac",-10.247081356308215],["mond",-10.247721867936647],["crois",-10.248960933540754],["utilise",-10.249002114955971],["masque",-10.249324867159128],["ennemi",-10.249724860743907],["humanitaire",-10.2515167718404],["fermeture",-10.251579781015984],["planète",-10.251829856512947],["prime",-10.251845542215424],["présidence",-10.252427136294214],["expliquer",-10.252711580545668],["oute",-10.253908137789377],["II",-10.253997753055328],["inter",-10.254107815649913],["Éri",-10.255592329986381],["pro",-10.255928941373353],["front",-10.256439727187578],["bénéfice",-10.256660434143173],["ène",-10.25819671913034],["fuite",-10.258610106530941],["volontaire",-10.259289209023251],["San",-10.259483495862817],["papier",-10.260386649047069],["incroyable",-10.260826417239166],["00",-10.261524833731585],["ambition",-10.26154854362278],["37",-10.262535565055057],["ég",-10.263260823306645],["régionale",-10.264188274155543],["photos",-10.264221442812094],["différent",-10.265633348559387],["devron",-10.267706957529498],["Luxembourg",-10.268357252820703],["Comment",-10.26844920843994],["échelle",-10.26930040108249],["délégation",-10.270999208233212],["révélé",-10.271013349262077],["accessible",-10.271604482106914],["auron",-10.271950430733336],["Otan",-10.272754664544],["Joe",-10.273419372232597],["établi",-10.2735143010418],["connue",-10.274500374719862],["variant",-10.275404597283062],["trouvai",-10.275502672241078],["Festival",-10.277006803573201],["War",-10.278265781649978],["console",-10.278322599665316],["partisan",-10.278627527098248],["publication",-10.279041881984554],["soleil",-10.279296029937797],["évoqué",-10.279583463769914],["̀",-10.27996237504972],["oublier",-10.280008165805665],["normal",-10.280320833784716],["naturel",-10.282024489770322],["Américain",-10.28238061217369],["49",-10.282837566021367],["taille",-10.28326510926628],["résident",-10.283619583757652],["38",-10.285331482497579],["tourner",-10.285904444870281],["Association",-10.285905126966114],["resté",-10.286284549522895],["indépendance",-10.28661246644398],["champ",-10.287936240225115],["finance",-10.287940735709455],["ouvre",-10.288121090099676],["score",-10.28919827383591],["remettr",-10.289235630569909],["impossible",-10.28945357569478],["Bo",-10.289678452269246],["fruit",-10.289819267326656],["diplomatique",-10.289859239478169],["séjour",-10.290889629822097],["totale",-10.29147314663903],["âgée",-10.293140954394964],["Fond",-10.293342480758845],["accompagné",-10.293373296012692],["solide",-10.293735485723296],["promis",-10.294497211943042],["choisir",-10.295024841110614],["portée",-10.295679723059475],["déposé",-10.297056153577834],["urs",-10.297704411694337],["distance",-10.298191699640274],["automn",-10.299682636467116],["explosion",-10.300790616352362],["ague",-10.30096759032455],["exception",-10.302405020963233],["pose",-10.302687929171853],["dynamique",-10.303394330194099],["réalisation",-10.303691966939436],["foule",-10.303781925726888],["Banque",-10.304858220417083],["privée",-10.305242588670666],["portant",-10.305588344944507],["allié",-10.305872242090494],["battre",-10.30618156984513],["Oui",-10.307231154584015],["immense",-10.308270493369063],["écart",-10.308443959323403],["Qui",-10.309064117076455],["com",-10.309307132668811],["nove",-10.3099016339699],["DG",-10.309918112635685],["favorable",-10.311552062968621],["bénéficier",-10.311586091445854],["perspective",-10.31205068281226],["obligatoire",-10.312272430560302],["paiement",-10.313441124108365],["radio",-10.313963251085777],["partager",-10.31414075604378],["développé",-10.317233735497927],["municipal",-10.317586678188158],["di",-10.317834934948685],["performances",-10.318132972500013],["humaine",-10.31834989381468],["quinz",-10.318453890044308],["eu",-10.318760408298678],["chasse",-10.318926622276944],["maintien",-10.319663846170634],["concour",-10.319666819362673],["tirer",-10.31968754723838],["influence",-10.320623513226376],["forêt",-10.320879760846541],["équipement",-10.32143677572795],["mobile",-10.322125099293412],["roman",-10.322592906551304],["anniversaire",-10.32304491879447],["apprendre",-10.323520724539804],["Agenc",-10.323910500926994],["compétence",-10.324226731895099],["ONG",-10.325165494239869],["iège",-10.326639663839298],["espèce",-10.326874963770631],["gérer",-10.328463184245699],["Pays",-10.32895405545289],["tombe",-10.32909208213476],["recette",-10.32924900284694],["supporter",-10.329692967485474],["Stéphan",-10.329824558900796],["suffi",-10.329833536941258],["essence",-10.330338682650273],["Jusqu",-10.330347953294865],["spéciale",-10.330470881850363],["reine",-10.330581163095175],["canadienne",-10.3311417620072],["Autre",-10.331439249106747],["qualifié",-10.331739813559906],["animation",-10.331884138670453],["surpris",-10.331977526066488],["écrir",-10.33205769602009],["passion",-10.332222215275621],["similaire",-10.332608778858146],["196",-10.33285548069954],["récent",-10.333426677952303],["récente",-10.333462311721403],["intéressant",-10.333546834340282],["passager",-10.334326742557336],["montagne",-10.33451398999281],["rejoint",-10.334530535688081],["moteur",-10.334670530931188],["secondaire",-10.3352083756878],["concurrence",-10.336298233688897],["crédit",-10.336763903690168],["immédiate",-10.33916658664963],["ées",-10.339453767860961],["établir",-10.3398259454356],["signifie",-10.339873581497505],["amateur",-10.339930813315984],["découverte",-10.340104081820911],["adopté",-10.34016219309478],["ique",-10.341161300412018],["respecter",-10.342741028714215],["Québécois",-10.342882577979834],["Star",-10.344611517564765],["style",-10.345456777103546],["Pa",-10.345633034686964],["Jacque",-10.347547632489317],["choc",-10.348102726637853],["qualification",-10.34827084027999],["colère",-10.34829634888085],["drame",-10.348534000591188],["écol",-10.348675811529372],["municipalité",-10.349222102657556],["immédiat",-10.349466340333116],["autr",-10.349578635341059],["destination",-10.3503503091369],["Celle",-10.350988961229305],["Burkina",-10.351064538278312],["ung",-10.351151605587729],["récit",-10.351164334620714],["attentat",-10.351762974920257],["roi",-10.352308092361465],["as",-10.35291709605212],["rassemblement",-10.353459051247942],["goût",-10.35367385898456],["entrer",-10.35563711237521],["directe",-10.355746702796909],["navire",-10.35595289761524],["confié",-10.356085694017889],["bio",-10.356108375906805],["micro",-10.356111786315264],["agissai",-10.356278511186165],["opérateur",-10.357939919882458],["quantité",-10.358068321373642],["témoignage",-10.359083797593273],["artistique",-10.359431634828033],["déclare",-10.359486040793271],["48",-10.35971831493275],["industriel",-10.360500953448618],["Mo",-10.361688272368113],["Mont",-10.36193663575009],["marge",-10.36265066559804],["Goo",-10.363348805527854],["facture",-10.36341310760902],["tr",-10.364684502248508],["égard",-10.365000026214279],["située",-10.365969203164756],["continent",-10.366225690411081],["diversité",-10.366396640175884],["enseignement",-10.36657261814356],["présentation",-10.367833848992408],["exécutif",-10.368618440843019],["bi",-10.369382914580843],["auto",-10.370191326021281],["Alexandr",-10.370699214335474],["dénoncé",-10.370760396728379],["multiple",-10.370797062090325],["fournir",-10.3713423706836],["accepté",-10.371346965023292],["fondateur",-10.371675867083765],["socialiste",-10.3718365518342],["étoile",-10.372822761071992],["150",-10.373456890398238],["ck",-10.373882536108368],["réussite",-10.375573130544595],["circonstance",-10.376305442703206],["cation",-10.37672652153682],["quête",-10.376744586547641],["appartement",-10.37743545897569],["isation",-10.377547626728333],["Brun",-10.377561086380565],["accompagner",-10.377662366316489],["volet",-10.37806125821221],["Christian",-10.378257849805212],["Man",-10.378574666235501],["43",-10.378722051967337],["complet",-10.379092134884576],["Bre",-10.379678462041657],["conduit",-10.3797687067398],["métrage",-10.380488209648838],["sang",-10.381049213858496],["Su",-10.381174681305138],["profond",-10.381245835978651],["imposer",-10.382854034245792],["Val",-10.382942569409208],["souci",-10.383057139093685],["ver",-10.383622459711912],["pouce",-10.384760814299199],["séquence",-10.38528110122586],["ologne",-10.385676502703486],["francophone",-10.386130159661864],["capitaine",-10.386159855275208],["fournisseur",-10.386239716388559],["prestation",-10.386262755067655],["alité",-10.386743460706896],["rapid",-10.387101608446383],["partis",-10.387611312063314],["déroule",-10.387949332632141],["mineur",-10.388327045542212],["expression",-10.388661000562514],["sensible",-10.38879583830808],["meurtre",-10.391618754110167],["ault",-10.391743102537164],["complète",-10.392877719097424],["Valérie",-10.393442973658287],["lus",-10.39356828867274],["Moham",-10.393610102046189],["grosse",-10.394194834990886],["dose",-10.39484237449848],["bar",-10.394915197788645],["Justice",-10.395639804675863],["égalité",-10.395805714563718],["télé",-10.396023656665452],["résolution",-10.396556459612125],["doigt",-10.397105015284009],["George",-10.397140147574728],["coin",-10.397147953186552],["sauver",-10.397623879798118],["temporaire",-10.397764769708871],["ambiance",-10.398091763873982],["concept",-10.39823405633117],["électeur",-10.399165461577343],["dédié",-10.400225349320621],["clé",-10.400397548925278],["sol",-10.400457523353161],["simpl",-10.400833927928257],["ex",-10.401053163934602],["ge",-10.401223100711041],["secret",-10.401236327843526],["tte",-10.401754789383762],["science",-10.402121336141507],["composé",-10.402388014308425],["rest",-10.403276649071845],["ballon",-10.403539988124514],["devenue",-10.404490666773166],["cancer",-10.404594483930076],["aix",-10.404734463940734],["mari",-10.404777117222926],["Simon",-10.405266614998425],["interdiction",-10.405853251950889],["Non",-10.405891310130427],["Grâce",-10.406026561715882],["limiter",-10.406301649794065],["spécial",-10.407626936129203],["Krem",-10.4080033697774],["eaux",-10.408251571557065],["47",-10.408302771299308],["adaptation",-10.408382808496325],["‘",-10.408776251321328],["sœur",-10.40923754396069],["spécifique",-10.409399434470881],["provoqué",-10.40942260249326],["amende",-10.410193638338606],["Thomas",-10.410236419025082],["tonne",-10.410811883773007],["ajout",-10.411247426324717],["con",-10.412291923992086],["Co",-10.412759287581189],["bataille",-10.412918757255964],["automobile",-10.413553862000379],["personnelle",-10.413671440232381],["dommage",-10.413802045080502],["Cameroun",-10.414709746007054],["gratuit",-10.414865132838056],["coupable",-10.415611157577592],["immobilier",-10.41590616042038],["vérité",-10.415990551803453],["frappé",-10.416265932111493],["monter",-10.416705777638406],["Prix",-10.41721850000056],["sportive",-10.418781700586317],["ordinateur",-10.418798016627258],["faux",-10.418955413273093],["Ha",-10.419458637349177],["fixé",-10.419470710066324],["lecture",-10.420161343074627],["central",-10.4203054038021],["sourire",-10.420618519883638],["ine",-10.42081033518551],["abonné",-10.42120491692546],["44",-10.422248847001748],["finir",-10.423824890188449],["interview",-10.423940890357493],["André",-10.424489866546537],["Tunisie",-10.424625729928152],["propriété",-10.424662101635896],["pierre",-10.424745332765724],["bleu",-10.424809872368236],["vainqueur",-10.424836272085981],["mobilisation",-10.424880042777508],["témoigne",-10.425864734395187],["actrice",-10.426991743506768],["accéder",-10.428016186040182],["65",-10.429217800238824],["diffusé",-10.429911955123922],["Mar",-10.431768130015712],["Nouvelle",-10.431775696986495],["facteur",-10.432029423130222],["invite",-10.432048716218455],["tier",-10.433855458049912],["Voic",-10.434125248546568],["malheureuse",-10.434132657608943],["organiser",-10.434396961282532],["juridique",-10.434689563872062],["gouverneur",-10.434990905513278],["grâ",-10.435415925855287],["évènement",-10.435680686117061],["réuni",-10.436739281121689],["dépôt",-10.436909505631316],["capital",-10.437424876823908],["causé",-10.438111051443897],["isent",-10.438452593770709],["froid",-10.438658816543608],["travaillé",-10.439158195093345],["rapporté",-10.439203621352561],["préparation",-10.439689287785972],["filet",-10.43970133978886],["défaut",-10.440425315340683],["côte",-10.44083706162677],["aspect",-10.440855272721555],["Occident",-10.441037869243],["Peu",-10.44118726988031],["essentielle",-10.441634405637389],["évoque",-10.443024227775656],["palais",-10.443077107606662],["imposé",-10.443330267956974],["étage",-10.443983384589057],["Red",-10.44434604600634],["Terre",-10.444566771339101],["fais",-10.4446179431961],["batterie",-10.444800764808],["migrant",-10.444850678446445],["ball",-10.444860286105191],["circonscription",-10.44486986581136],["Japon",-10.446048026476063],["emmour",-10.446112770131839],["écologique",-10.446201192406695],["Gabon",-10.446367840543017],["conscience",-10.446497180694362],["parfaitement",-10.44681665736106],["800",-10.447320456027697],["Australie",-10.447352650366218],["fédérale",-10.448120568545463],["déterminer",-10.448326905407395],["massive",-10.448550627757058],["euro",-10.449579631228438],["définitive",-10.449686210997129],["infection",-10.450061119046504],["convainc",-10.451377678080686],["Air",-10.451391624894342],["norme",-10.451411068700278],["600",-10.45233217681185],["drapeau",-10.452701796968014],["passée",-10.452732463266734],["malade",-10.453390695617246],["Ba",-10.453560475593157],["livré",-10.453818053833874],["surveillan",-10.454667064937226],["Denis",-10.454682094373318],["algérien",-10.454815826168534],["promesse",-10.455241845283657],["révèle",-10.455307012963127],["récupérer",-10.455599278017992],["originaire",-10.456256309909357],["rencontrer",-10.456427971202402],["machine",-10.456515751525945],["décide",-10.456679678263765],["télévision",-10.456884554269575],["mobilité",-10.457275775092679],["vaut",-10.457278444925397],["saisi",-10.457495200256929],["fermer",-10.45890269316907],["bus",-10.459024011608644],["compliqué",-10.461323363197351],["plage",-10.461679694112735],["écrivain",-10.462312531370102],["animal",-10.46271264739753],["contribu",-10.464936232825854],["utile",-10.46516334166268],["destiné",-10.465207706629625],["collective",-10.465232280942223],["Macky",-10.465393170920457],["calendrier",-10.465526127679379],["Chambre",-10.466542339525631],["église",-10.466736303398793],["dégât",-10.466785749478149],["néan",-10.466794135235443],["investisseur",-10.466852247262647],["affrontement",-10.467362869974911],["démocratique",-10.468501278948278],["quotidienne",-10.468852896478072],["nnée",-10.469333441483084],["signature",-10.470154876173575],["profil",-10.470473255891823],["gar",-10.47073461071056],["locau",-10.473201668112146],["Rouge",-10.473280313691387],["Re",-10.47520587375098],["foyer",-10.476284104813152],["enjeu",-10.476289654109772],["patrimoine",-10.4768525515694],["localité",-10.47719400549332],["suivant",-10.47723121736643],["dévoilé",-10.47757752610773],["coach",-10.47788606144524],["culturel",-10.478145788539898],["analyste",-10.47866715372066],["aut",-10.478700514796126],["puissant",-10.478806153361905],["noter",-10.479336663504082],["Jo",-10.479937312601628],["produir",-10.480145742265194],["transfert",-10.48044014223728],["ièrement",-10.480697163234986],["US",-10.480804390761763],["Outre",-10.481073958526817],["annuel",-10.481227586034233],["bateau",-10.481536266658845],["syndicats",-10.481756405213645],["existence",-10.482341265846433],["recul",-10.48310021898636],["ombre",-10.483236139370042],["entière",-10.483291826008633],["pensai",-10.483645205535385],["of",-10.485091572168557],["canton",-10.48572972816548],["active",-10.485757045177916],["National",-10.485964793247314],["disparu",-10.48605085462463],["considère",-10.486318063002768],["Intérieur",-10.48649659198992],["vendre",-10.486532186842762],["conclusion",-10.486700277921361],["Ki",-10.487110218696927],["épouse",-10.487588815413233],["mairie",-10.487703657497278],["collection",-10.488020408707339],["distribution",-10.488247804500137],["mène",-10.48831626518475],["amélioration",-10.4885064101296],["formule",-10.489284008740507],["Sall",-10.489382812451069],["iste",-10.489742948694275],["réel",-10.490348808621878],["détruit",-10.490596137625197],["nomination",-10.490946025621119],["accueilli",-10.49094730287943],["heur",-10.491755285545942],["Play",-10.492547485119527],["occupe",-10.492852121223832],["awa",-10.494574660458277],["Haut",-10.495086966758052],["saga",-10.495760841319168],["formé",-10.496402366522629],["ultra",-10.496461294650224],["évaluation",-10.497328600718053],["apporté",-10.497576358479286],["primaire",-10.497821894176564],["concurrent",-10.497974429552688],["calme",-10.498259686284268],["refus",-10.498379957487453],["concern",-10.498404810808534],["jam",-10.499857938196172],["marocain",-10.501543432081652],["parlé",-10.502098906271288],["minim",-10.502119754197114],["issu",-10.502254797789021],["pouv",-10.502699944396287],["réjoui",-10.502922028966807],["Daniel",-10.503025398360132],["faute",-10.503713700400084],["cuisine",-10.504304617580544],["ins",-10.505967748463057],["bruit",-10.506653273770686],["agir",-10.506906612999465],["investir",-10.507116245596364],["riche",-10.507146057507212],["Service",-10.508421837469978],["bénévole",-10.508715076958808],["parfait",-10.509086591113341],["essayer",-10.510514304346419],["claire",-10.510520185225293],["Bas",-10.511129740883149],["So",-10.51147195864543],["St",-10.512482154748204],["ambassadeur",-10.512854856791371],["naturelle",-10.513684366302757],["règlement",-10.51397992987247],["foi",-10.515072735250326],["sortant",-10.51582267782355],["Ro",-10.5163135573653],["trouble",-10.51653246788863],["tent",-10.517651373086132],["souhaité",-10.517926694598332],["Corée",-10.51824250230607],["tienne",-10.518867183098447],["confinement",-10.518957304808938],["portable",-10.519101717490422],["64",-10.519115761168619],["interpellé",-10.520640182027789],["arrestation",-10.521075333505223],["instruction",-10.521515808658602],["déchet",-10.522100729890527],["adolescent",-10.523829831749207],["préfère",-10.524484792664222],["explication",-10.52511571927814],["africaine",-10.525548254372673],["tournée",-10.526423170955418],["méthode",-10.526516429904131],["accuse",-10.526697045808001],["micron",-10.528132348783844],["griculture",-10.528158085705913],["voyageur",-10.528952319346097],["délai",-10.52947516919814],["caractère",-10.529566049255726],["préoccupation",-10.529607432727245],["1000",-10.529710149953655],["opinion",-10.529972781567679],["traité",-10.530602269661538],["entrepreneur",-10.530689694570281],["islamique",-10.530690623546398],["commentaire",-10.530869170797665],["considérable",-10.531045743001778],["dirigé",-10.53114504835215],["content",-10.531543878886119],["pêche",-10.53312141109093],["vigue",-10.5354876748762],["marquer",-10.535930112469682],["habitation",-10.536279490147898],["Turqu",-10.537591569395016],["insist",-10.538327192565998],["59",-10.538956459275813],["fallu",-10.539012424321113],["syndicat",-10.540389795464158],["Disney",-10.54058899694881],["glace",-10.54092553312091],["réflexion",-10.541293198987058],["informatique",-10.541901571093506],["42",-10.54206524817451],["anné",-10.542320243565731],["statistique",-10.543527460640705],["montée",-10.543769605685469],["To",-10.54423067350725],["gare",-10.544485703088878],["tradition",-10.544539853886592],["dé",-10.544699333536089],["associé",-10.54499837696752],["libération",-10.54691088864934],["Sport",-10.547039626606335],["mettant",-10.547086299215675],["Franc",-10.547874924098908],["gain",-10.549022724382976],["taxe",-10.549736073284851],["drogue",-10.550316646902521],["marchés",-10.551091951212669],["pu",-10.551758808040587],["fidèle",-10.551845635136045],["électronique",-10.551901302316375],["mariage",-10.552101305295121],["ouvrage",-10.552156028240812],["élenchon",-10.552210408666426],["inquiète",-10.552584890221617],["effectuer",-10.55327677525518],["isant",-10.553430923435617],["dev",-10.553690433846796],["ière",-10.55382529321404],["fonctionnement",-10.553870104570239],["justement",-10.55431397136551],["prévision",-10.554636928824351],["présidente",-10.554687241123531],["poser",-10.555567238257282],["oix",-10.556863749113045],["Seul",-10.557672720595338],["catastrophe",-10.558009906929357],["vant",-10.558625421621848],["division",-10.560217551541015],["tennis",-10.561877810658359],["Lausann",-10.562832200699354],["intéresse",-10.562876791070059],["soft",-10.56321098433142],["Guerre",-10.563643282838974],["identifié",-10.56380321743671],["regarder",-10.563861304339259],["souvien",-10.564186620653611],["Sams",-10.564362390618935],["Richard",-10.564739112842272],["ntendo",-10.565885491721396],["automatique",-10.566106195241524],["posé",-10.566716075644347],["intégr",-10.567025515710577],["mont",-10.567079863649438],["commercial",-10.567767094944376],["préfet",-10.567813942452906],["pause",-10.567840879012193],["scrutin",-10.568079327334711],["menaces",-10.568197408027881],["gagne",-10.56874343999025],["indépendant",-10.568827176174846],["Leur",-10.568876692593008],["enseigne",-10.56897089530985],["ite",-10.569023741232941],["Voil",-10.569035550272442],["déplore",-10.569333339458861],["Open",-10.56973501182663],["familiale",-10.571293625143522],["fonctionne",-10.571448262677656],["stock",-10.572062259926302],["éventuelle",-10.572976235430822],["von",-10.573318554037598],["poursuite",-10.573913031422686],["levée",-10.574079347685371],["62",-10.57453840317767],["quarantaine",-10.574703218747821],["Amérique",-10.574754964214229],["bonheur",-10.57507419577046],["podium",-10.575116092043281],["opposant",-10.575319013763064],["Nouveau",-10.575524626442068],["Aux",-10.575593378808424],["apparition",-10.575873857939607],["écriture",-10.575904365407915],["indice",-10.57591258124435],["maître",-10.576314596846597],["partagé",-10.577414650646187],["session",-10.578886505282757],["tableau",-10.579375919604807],["solidaire",-10.579447983118513],["Se",-10.579467873283274],["mérite",-10.579680285379048],["empêcher",-10.580271914132592],["emain",-10.58060273535896],["fier",-10.581308606358803],["Fas",-10.581647291778655],["opposé",-10.581689753044552],["auquel",-10.581737335305984],["élevée",-10.581778761846689],["ème",-10.581969170340525],["Bernard",-10.582015936252121],["alternative",-10.58212135803053],["volume",-10.583032638100914],["occupé",-10.583739501755804],["term",-10.58417688372753],["communautaire",-10.586516632663791],["Marseill",-10.586844066432526],["Alpe",-10.586909739830457],["décret",-10.588240198686925],["automobiliste",-10.588511266922072],["Super",-10.588641458658127],["constructeur",-10.589088690138146],["tempête",-10.589451715409698],["intégrer",-10.58965780943107],["demand",-10.59004776770348],["secour",-10.590198834304264],["Phon",-10.590941531723633],["(+",-10.591031766942532],["blanche",-10.592012601562754],["Cet",-10.59358954751565],["eth",-10.594243692381085],["lo",-10.594876926152974],["Yve",-10.594879048142007],["Bi",-10.595070266606896],["Syrie",-10.596094552406672],["signalé",-10.596214467878838],["manqué",-10.597109727589865],["relevé",-10.597157215714978],["Vi",-10.59804900160347],["huitième",-10.598103281415982],["gendarme",-10.598140703230479],["41",-10.598718979812174],["construit",-10.599335660545474],["Ott",-10.59940453873544],["City",-10.599491721532434],["confie",-10.599911447097368],["ley",-10.59999868449403],["déployé",-10.602158187513044],["h30",-10.603414973953232],["urtou",-10.60377827366422],["démontre",-10.603906650397171],["voter",-10.604172703185675],["lourde",-10.604180870846106],["top",-10.60568431634055],["ixième",-10.605694299817998],[".”",-10.60577146252351],["annuelle",-10.60734999963995],["abri",-10.607479535111807],["250",-10.60772169151825],["Dieu",-10.60787931386468],["débuté",-10.608214922128496],["café",-10.608530195283883],["Mondial",-10.60853661156171],["accordé",-10.608606535981373],["MR",-10.608644277097188],["ni",-10.608988803115112],["excuse",-10.609367652746993],["terminer",-10.609512731661152],["Monaco",-10.610010649213294],["Musk",-10.610091094359321],["Comité",-10.610216585796483],["enquêteur",-10.610514860614284],["disparition",-10.610696866256681],["procédé",-10.610961945277005],["innovation",-10.611083362687493],["prendra",-10.611727433385852],["positive",-10.611806564017233],["adapté",-10.611899599113803],["acquisition",-10.612282514880723],["pass",-10.613220010112697],["municipale",-10.613880865619693],["actualité",-10.61433135016691],["décrit",-10.615209358539524],["inverse",-10.615320558152593],["intense",-10.616134655756452],["récolte",-10.616949421117692],["banc",-10.617801760434707],["Christophe",-10.618233415668266],["précision",-10.618633153397138],["maman",-10.619689060403694],["autorisé",-10.620038505344965],["vaste",-10.621026850446277],["ronde",-10.621279459265718],["intéressé",-10.622132692487558],["plastique",-10.622215076927686],["avortement",-10.623721466207632],["sou",-10.623825547779067],["Frédéric",-10.623895050754724],["augmente",-10.624211533001233],["vide",-10.624277015591613],["contraint",-10.624381752979286],["iens",-10.624493655942306],["ultime",-10.625473216981307],["bloc",-10.625729554154292],["présentée",-10.626387721299263],["allant",-10.626737976432604],["croit",-10.627134550609181],["couverture",-10.62728313581631],["lie",-10.627740892916517],["aérien",-10.628565186419543],["Haute",-10.6298953982906],["averti",-10.630233781561431],["Black",-10.630567993890377],["viol",-10.631208533959093],["plateau",-10.631992899393875],["communal",-10.63276692463529],["Petit",-10.63424278966069],["humanité",-10.634431068404552],["Alex",-10.634486693062438],["bombardement",-10.63455137298976],["remporter",-10.634712294116962],["oup",-10.635717195950757],["Mario",-10.635906180721502],["Angle",-10.636042825022265],["salon",-10.636173963305277],["alcool",-10.636718086245612],["épidémie",-10.638136818165602],["juif",-10.638376316806788],["fai",-10.638482299232841],["féminin",-10.639070369741066],["Me",-10.639702526790195],["carré",-10.640139528403257],["commerçant",-10.640292542645762],["réalisée",-10.640639053449274],["horizon",-10.641736655044522],["sacré",-10.642336660990015],["décor",-10.643093251959602],["exceptionnelle",-10.643112463861979],["quitte",-10.643585809844092],["cheffe",-10.644347901465137],["office",-10.645057914439114],["vêtement",-10.645391271723138],["marin",-10.645405007743175],["majeure",-10.64606006054351],["Dakar",-10.646635122543584],["Merci",-10.647097378841753],["Photo",-10.647150285091737],["contribution",-10.64717208285299],["effectif",-10.64775057106375],["confronté",-10.647847791071637],["collecte",-10.64798016883446],["autorisation",-10.648928089314996],["suspendu",-10.649356449000134],["constate",-10.650225086125207],["reconnaissance",-10.650268592362238],["perd",-10.650287590268345],["oin",-10.650420170677185],["nombr",-10.650805673900972],["apprend",-10.651824755820233],["ro",-10.653200591088886],["viv",-10.653244074446823],["défend",-10.654148094758277],["ncor",-10.654455494214691],["adapter",-10.654682260128176],["Finance",-10.654857075745422],["baisser",-10.65520475626817],["québécois",-10.655850220908555],["présumé",-10.656557006505395],["Don",-10.656749006817204],["rement",-10.65778358774985],["impliqué",-10.657853335296634],["pouvant",-10.659082341089812],["bébé",-10.659086958093987],["magnifique",-10.659150672296182],["Madri",-10.659189417244292],["chaud",-10.659902234146495],["Angel",-10.659947587823424],["négatif",-10.660025691624131],["château",-10.66042194331628],["bruxellois",-10.662595106337587],["autonomi",-10.662819466917442],["Justin",-10.663299258038876],["magistrat",-10.66334828854788],["convaincu",-10.66351800845277],["avancé",-10.6640372964658],["comm",-10.664056457760381],["lu",-10.665212156984765],["rie",-10.666326204754736],["léger",-10.666480897971496],["Tom",-10.667020628469167],["défis",-10.667541019761602],["Région",-10.66818624192484],["respective",-10.669632129371603],["servi",-10.670101642866786],["Ali",-10.670164014973837],["investi",-10.670498848450231],["46",-10.670539788236859],["Maxim",-10.671353589964784],["uprême",-10.671354815364365],["impose",-10.672034431315748],["entré",-10.672723971299195],["bel",-10.672835119130365],["54",-10.6728921769916],["avancée",-10.673551134933803],["profondeur",-10.673673815152807],["Lyon",-10.674055713207004],["Duran",-10.675690354091895],["arrondissement",-10.675878054461684],["Wi",-10.676003079641404],["era",-10.676166417132595],["lycée",-10.67650406349157],["85",-10.676512933297015],["52",-10.676991496290224],["rumeur",-10.677803514467858],["licence",-10.677963395617477],["fourni",-10.67803473344708],["symbole",-10.678339178531289],["Charler",-10.679002579996897],["attendai",-10.679495800339204],["ç",-10.680462800104301],["play",-10.680565421281873],["chôm",-10.680653675740375],["moto",-10.680877839825511],["tiendra",-10.681305883820611],["âme",-10.681392733054189],["devienne",-10.681580599327578],["Vert",-10.681767359800006],["Bon",-10.682292938935227],["découvre",-10.683932387156167],["coeur",-10.68427083223725],["acquis",-10.684498272877308],["humour",-10.68473482041229],["fonctionnaire",-10.685356680007764],["rivière",-10.685708463889501],["cadeau",-10.686146066319417],["attendue",-10.686480792198228],["voul",-10.68652744367609],["transformation",-10.68665567917527],["accueille",-10.687863522810147],["Sam",-10.689016896045745],["ône",-10.689300675092104],["discuter",-10.689684321658643],["cesse",-10.689867001373909],["tourné",-10.691535472495412],["ka",-10.691643305539028],["empêche",-10.691886273156314],["relative",-10.692747718117147],["inscrir",-10.694142495997779],["bénéfici",-10.694257708224828],["ï",-10.694744492466732],["violation",-10.697821050820924],["menacé",-10.697887602177053],["progression",-10.698004610852795],["occupation",-10.698108924761993],["vacciné",-10.698234870528243],["terres",-10.698315906421643],["William",-10.69846420814136],["traditionnel",-10.69850259146752],["MS",-10.698838490911008],["assemblée",-10.698907944980187],["laboratoire",-10.698948902112765],["mobilisé",-10.69978142803689],["documentaire",-10.699782029801085],["argument",-10.700150340158856],["sécuritaire",-10.700223162082082],["Wallon",-10.700332464894274],["logiciel",-10.700559061849116],["é",-10.701539777455555],["vive",-10.701560013605654],["voil",-10.702125966629538],["admis",-10.70224215705326],["salué",-10.703408947942552],["67",-10.7041612500889],["aimé",-10.704459137783186],["boutique",-10.705034037608183],["spécialisé",-10.705152168595202],["venai",-10.705353032565434],["chargée",-10.705824117358887],["envoye",-10.705834172522966],["reveni",-10.705923885529627],["Côt",-10.706124821150667],["terroris",-10.707062073786053],["Port",-10.707146389756211],["officier",-10.7074787105431],["constater",-10.70758578373354],["initial",-10.70761278930129],["plat",-10.70774329695566],["rump",-10.70953653722355],["voté",-10.709803876529069],["préfecture",-10.710975157064148],["convien",-10.711017660882913],["Société",-10.711192805165279],["inondation",-10.711518121817791],["(…)",-10.711625301956236],["resse",-10.711900275570889],["administrative",-10.712471105287326],["masse",-10.715773010300667],["Ri",-10.715953299790204],["couteau",-10.716084030982428],["préféré",-10.716427298959081],["prince",-10.71694248513261],["fausse",-10.716951216208326],["Jame",-10.717039479770033],["viven",-10.718955356167147],["prenant",-10.719609918202408],["conduite",-10.7197021531885],["retourner",-10.719762518323432],["vu",-10.720953458790706],["Sébasti",-10.721132872973564],["silence",-10.72199824600209],["infraction",-10.722314568562592],["équilibre",-10.722490315147766],["pousser",-10.723141223105891],["tente",-10.723279374208524],["diplomati",-10.724043514072626],["fédération",-10.724088921272578],["contamination",-10.724149328203186],["policière",-10.724217334341446],["corruption",-10.72448675357975],["inquiétude",-10.72459142443881],["parking",-10.724706482466164],["branche",-10.725160222511958],["fleur",-10.725397794214118],["touristique",-10.72553739172166],["douleur",-10.725682307447665],["prépare",-10.725726251038532],["délégué",-10.726223642651288],["commerciale",-10.726251681940543],["Inter",-10.726519591686227],["Di",-10.727190021018227],["homologue",-10.72752481596093],["osité",-10.728106910242484],["77",-10.7283058138993],["57",-10.728615282606727],["bo",-10.728874756470864],["do",-10.729078765863022],["Vo",-10.729117035734733],["élite",-10.729745574957679],["résume",-10.730040788999439],["Henri",-10.730048771289734],["candidate",-10.73022512389292],["insiste",-10.730840883066872],["animé",-10.731048252387033],["Gabriel",-10.731239794954204],["and",-10.73127707548429],["renseignement",-10.73134760217316],["reçoi",-10.731431489599832],["guide",-10.732271136878357],["58",-10.732984229762824],["extraordinaire",-10.734322022763184],["off",-10.734821394950618],["payé",-10.73503009515495],["sent",-10.73546653742112],["enceinte",-10.736054324500703],["Switch",-10.737542479036229],["Antoine",-10.737570699604678],["monnaie",-10.73776450580652],["Michael",-10.737879916256865],["prévention",-10.738354950670645],["médicale",-10.738817476385098],["universitaire",-10.73905852798235],["soumis",-10.73938182534792],["assassinat",-10.739700619570925],["maillot",-10.739709828914828],["2008",-10.739908872955578],["matinée",-10.740363165163398],["exacte",-10.740836074281804],["geste",-10.740874865827871],["immigration",-10.74092083460717],["poussé",-10.742147009226986],["subvention",-10.742325198371564],["sauvage",-10.742325336183724],["Blue",-10.742804506922745],["décider",-10.74368524281359],["exportation",-10.743985931112094],["dè",-10.743993366334283],["OM",-10.744026788448265],["bons",-10.744410072111119],["RN",-10.744639530911666],["criminel",-10.744703287146134],["conçu",-10.746024909018274],["Mi",-10.746687487027963],["conduir",-10.74714589738731],["classes",-10.747172024852283],["assister",-10.747639999813885],["prononcé",-10.747669446631058],["53",-10.748469703629556],["isait",-10.748531188564868],["chanteur",-10.748725184989869],["chant",-10.74912028851137],["exigence",-10.749239857600362],["reconnaît",-10.749362932985981],["ressenti",-10.749450194054793],["érusal",-10.750320093523158],["émis",-10.750794572477066],["gratuite",-10.751119003909356],["remarque",-10.751139885218203],["Rivière",-10.751302100495572],["cinéaste",-10.751316204706331],["39",-10.751525656199089],["moral",-10.751929828907938],["recommandation",-10.75211127231358],["sauf",-10.752144966717223],["Club",-10.752250350059434],["évident",-10.752497258583306],["limité",-10.75274741386676],["commissaire",-10.752761011298368],["test",-10.753045088219338],["essai",-10.753648504618955],["cap",-10.753693109617167],["publiée",-10.754551483995147],["joie",-10.754557038988088],["plongé",-10.754572583321382],["Mainten",-10.754822219507997],["suffisam",-10.754909126925314],["crainte",-10.75574479029154],["aliment",-10.755847050082723],["enfan",-10.755962652233265],["interrogé",-10.756379262761786],["visé",-10.756740156251396],["700",-10.756809631814585],["Sony",-10.756846875189078],["oire",-10.757678409575359],["OS",-10.75816541174525],["jugement",-10.7583017804442],["urbain",-10.758339585790734],["entraîné",-10.75950862139055],["rappele",-10.75981451830701],["franchise",-10.759930271809395],["républicain",-10.760484077599468],["raconté",-10.761126030771951],["récompense",-10.76201522341626],["remonte",-10.762544953073018],["avancer",-10.76349730329057],["Guy",-10.763890820020853],["Var",-10.764568060605026],["Instagram",-10.765134204282479],["Eliza",-10.765165668453704],["provisoire",-10.765184477243713],["gendarmerie",-10.765251582973322],["Palestinien",-10.765388190016278],["Ou",-10.765508055318275],["fenêtre",-10.765694756288408],["Néan",-10.766024606108855],["discipline",-10.76642949592571],["berg",-10.766901965295949],["Libre",-10.768131607329334],["Vers",-10.768709961683873],["souffre",-10.768881204157513],["exprimer",-10.769949611046915],["acheté",-10.770622631750465],["chat",-10.770637092637394],["ga",-10.77103013515006],["dame",-10.771287874258881],["principau",-10.772176656786726],["accepter",-10.772345137025042],["dérouler",-10.772930099838373],["120",-10.773841434899643],["Volod",-10.773951423263128],["annulé",-10.77405826978772],["sexuel",-10.774296317601339],["!»",-10.774404299853451],["exceptionnel",-10.774672335461425],["bombe",-10.775298964317194],["oeuvre",-10.776925361533282],["employeur",-10.777248417049353],["énorm",-10.777487342679425],["Brésil",-10.777701720221025],["end",-10.777736644923976],["supérieure",-10.777952442111165],["envisage",-10.778527095153265],["désir",-10.778687918921515],["Brunswick",-10.778923689915421],["dimension",-10.779358203452034],["collaborateur",-10.77947411376887],["extension",-10.779577726402568],["oupol",-10.780243966285502],["Lega",-10.780540809358751],["Sous",-10.780550093678196],["cache",-10.780921856551181],["traditionnelle",-10.781705089883772],["lin",-10.781791405593387],["démocrate",-10.782288888328306],["doublé",-10.782955194936951],["igne",-10.783121039463502],["diffusion",-10.783819415143526],["écoute",-10.783978213520081],["armi",-10.784887637396839],["arabe",-10.78572309941325],["exploit",-10.785793673279368],["équipé",-10.786962196448552],["Force",-10.787062091308158],["global",-10.787708624644662],["attirer",-10.787711881986763],["aison",-10.788018756356735],["myr",-10.788344561476796],["informé",-10.788776631237416],["rentrer",-10.789253402140313],["Euro",-10.789454622797885],["engage",-10.789813951932942],["compt",-10.790981097368945],["trace",-10.791664586742085],["financer",-10.791681411960502],["rempli",-10.791790233516393],["faite",-10.791921157756509],["Blanche",-10.791934226767781],["Max",-10.792022667704423],["sérieuse",-10.792100666295429],["volant",-10.792566203090642],["for",-10.79305924044344],["Samu",-10.793260889915022],["intervien",-10.793505581608155],["Lion",-10.79360026801248],["problématique",-10.793696028706544],["confrère",-10.793765038125091],["rénovation",-10.79415181982243],["concertation",-10.7941655572542],["éditeur",-10.794334811187642],["résistance",-10.794336184308381],["Cap",-10.79461726014014],["vidéos",-10.794780874681434],["ors",-10.794811679115195],["cycliste",-10.794978563490954],["combattant",-10.795146869861304],["juive",-10.795333829763866],["assistance",-10.795700977343774],["World",-10.795715621374544],["Personne",-10.796105308694603],["publicité",-10.796505383275043],["adopter",-10.797282433805755],["identifier",-10.797509815412617],["Domini",-10.79794318675886],["Office",-10.798484504725815],["fixe",-10.799078949955904],["Bar",-10.79926593056346],["Bourse",-10.799511669926437],["suspension",-10.799617265916002],["bloqué",-10.799704992400198],["os",-10.799881660586891],["vraie",-10.800875242389331],["vic",-10.801037904626199],["Micro",-10.801139394515168],["pensé",-10.801189736935749],["atrice",-10.801755452340092],["espagnol",-10.801815564732058],["essayé",-10.801903468487732],["és",-10.802376790614913],["récolté",-10.802857249288984],["comédie",-10.802994021667383],["auxquel",-10.803071867054577],["exprime",-10.803095964256832],["aimerai",-10.803955577476316],["transformer",-10.804328452410939],["Pék",-10.805314737562814],["usager",-10.805320508365595],["loyer",-10.805648020118802],["gagnant",-10.805718237368797],["Péc",-10.80600632852397],["63",-10.806354862330299],["72",-10.8068994907423],["ô",-10.807261371419903],["parvenu",-10.807645457855418],["exposé",-10.80764823063934],["apporte",-10.807708756320832],["Vendredi",-10.808017552557402],["critère",-10.808328367570397],["consultation",-10.809185877625834],["importation",-10.809186434798834],["Jeudi",-10.809341734983967],["alliance",-10.81026226854106],["Île",-10.810300724100639],["nourriture",-10.810395799582064],["accompli",-10.810681560850949],["ha",-10.810882014314238],["éventuel",-10.810898510195813],["Roy",-10.811782392179762],["assis",-10.81178912174488],["heureuse",-10.811961961985247],["symbolique",-10.81234868620145],["annoncer",-10.812665489153218],["Canne",-10.813136682524679],["retenu",-10.813482482202929],["ambassade",-10.813681317077634],["encontre",-10.81395275291236],["remplacé",-10.814025311508425],["oui",-10.81427162793059],["Lundi",-10.814657062964908],["cyber",-10.81499095338668],["engager",-10.815643805162678],["confort",-10.815700018166751],["Bid",-10.816459031858926],["garantie",-10.817175918731493],["NH",-10.817904982385581],["Adam",-10.818749687787868],["basé",-10.820494665787784],["familial",-10.82097264661201],["Interne",-10.821435548238753],["imanche",-10.821438782715814],["inscription",-10.82154775230627],["moderne",-10.82186207655532],["tweet",-10.821970639726347],["casque",-10.821978820149528],["mini",-10.822184790997806],["go",-10.8223473494818],["Anderlecht",-10.822365054377205],["Constitution",-10.822461277511463],["bourgmestre",-10.822712762461158],["maritime",-10.822780775607889],["Pascal",-10.822851970408678],["mécanique",-10.822887636229703],["conversation",-10.823136063067338],["bidjan",-10.82326710749781],["tournage",-10.823710182444655],["contribuer",-10.823799147559011],["sélectionneu",-10.824128404081948],["pic",-10.824312996168942],["ministr",-10.82512297745615],["restera",-10.826092037462875],["culturelle",-10.82616956503119],["collège",-10.826764175068678],["foulée",-10.82691401763335],["confi",-10.826974421353661],["stockage",-10.827406255314067],["crée",-10.82753716749924],["douce",-10.82755150277724],["constitutionnel",-10.828528832508146],["libéré",-10.828963577117904],["Tchad",-10.829796678934775],["escalade",-10.830681892152686],["manger",-10.83137052115563],["électoral",-10.831603872614703],["morceau",-10.83167347480874],["réagir",-10.831867486775412],["Thierr",-10.832206153033303],["Sports",-10.83277460391159],["débats",-10.832942973446862],["the",-10.833070313702834],["isolé",-10.833264753117234],["génér",-10.835200248934246],["réunir",-10.83590335644572],["Grande",-10.837418588422812],["attaqué",-10.83745416399005],["voudrai",-10.837565400886685],["Pokémon",-10.837632433342788],["fonctionnalité",-10.837664578307677],["évoluer",-10.83766582699501],["Marvel",-10.837710194667034],["dépassé",-10.837887786660218],["mécanisme",-10.837934226957149],["rupture",-10.837939914138527],["polémique",-10.838122123376936],["réussir",-10.838256165267287],["psychologique",-10.838508037249749],["chauffeur",-10.838922172174595],["78",-10.83921177668078],["Reste",-10.839216435052677],["huile",-10.83963410340068],["imaginer",-10.839728105715972],["dépend",-10.840442392441346],["Bureau",-10.840548491278415],["garantir",-10.842363716536923],["revue",-10.84244783493861],["globale",-10.843214925902712],["paraît",-10.844627192724293],["avenue",-10.845074137785057],["commenté",-10.845379804290765],["retirer",-10.845635650304738],["imentation",-10.846003491040754],["th",-10.846209377495518],["calcul",-10.846259556972615],["Elon",-10.846690261285781],["Laval",-10.846756053001588],["joueuse",-10.847289205202006],["â",-10.847683649093025],["gouvernementale",-10.847733289997121],["couper",-10.847813739258775],["palestinien",-10.848789993467458],["gle",-10.84937977678456],["recueilli",-10.849386520967236],["cellule",-10.850138676584226],["73",-10.851543415154715],["fa",-10.851616064674463],["usines",-10.852062144911478],["alheureuse",-10.852168381622729],["El",-10.852524226038355],["Britannique",-10.852824822999175],["majoritaire",-10.852904092254274],["piscine",-10.852914079353432],["allé",-10.852926091424225],["réclame",-10.853111565783443],["clinique",-10.853160842949308],["médiatique",-10.853584095073764],["comédien",-10.853941375544405],["communiste",-10.854118660749126],["cho",-10.854227707091692],["forfait",-10.854994350090864],["utilisée",-10.85569294502164],["mentionné",-10.855978311781467],["locataire",-10.856616362229254],["Peter",-10.856701719539547],["Belge",-10.856706199199875],["transformé",-10.856834468237995],["vaccinal",-10.857488137909009],["obligé",-10.859004209423507],["autoroute",-10.859431403423477],["lende",-10.85966264357618],["195",-10.859722264214145],["préciser",-10.860116488328332],["Julien",-10.860471851244366],["remerci",-10.860640754483683],["procéder",-10.860913344361803],["obre",-10.861178455081035],["Albert",-10.861492127362677],["51",-10.861791434421118],["tions",-10.863083475871358],["peau",-10.863680390563296],["Be",-10.864011425191329],["clientèle",-10.86436557808401],["Quatr",-10.865162893457244],["inspiré",-10.865623660986817],["rende",-10.86587705700699],["douz",-10.866443270112665],["exclu",-10.866723103705942],["culte",-10.867188571522696],["repos",-10.867361216461278],["Fin",-10.867547758247714],["ng",-10.86766264918566],["progr",-10.86785337097976],["italien",-10.868032435376291],["banlieue",-10.868162419598098],["évacuation",-10.868226221929724],["hospitalier",-10.868236436368797],["consacré",-10.868252787213853],["conjoint",-10.86838268155389],["Alliance",-10.86842677199467],["sénégalais",-10.868462103992481],["internaute",-10.868567626204415],["chinoise",-10.868629157271165],["phrase",-10.868793568786689],["thématique",-10.86889546371868],["chanteuse",-10.868900158527552],["administratif",-10.869438581668241],["intemp",-10.86964253726115],["fou",-10.869887378149382],["remplacer",-10.870496686786872],["istes",-10.870596740639865],["spectaculaire",-10.870767241541],["Game",-10.871002569635646],["libéral",-10.871166719475472],["amedi",-10.871369699818729],["fondation",-10.871963787376755],["représentation",-10.87232556573179],["représenté",-10.872337450890393],["abonnement",-10.872586696019287],["76",-10.873150954885826],["Quel",-10.873212496028867],["actionnaire",-10.873422465696121],["Tru",-10.874140926686495],["observé",-10.8748480036954],["suit",-10.874908147617186],["llez",-10.875055681993393],["touriste",-10.87539513553726],["dés",-10.876221930916046],["al",-10.877250729062414],["proposée",-10.878043578032745],["fraude",-10.878470461182154],["abattu",-10.878780575999667],["apprécié",-10.878918242914052],["biais",-10.878923215655838],["info",-10.87909950724476],["Diable",-10.87938629677314],["emblématique",-10.879590007404277],["déroulé",-10.880211976942402],["destin",-10.880966598600288],["attaquer",-10.881116985152728],["promet",-10.881386868836245],["renforce",-10.881647650787638],["ell",-10.881822880756468],["pouvo",-10.881873877363219],["suffisant",-10.881931923753445],["mille",-10.88220763932522],["ième",-10.88311756162199],["installée",-10.883149129227853],["core",-10.883540156422255],["nouveauté",-10.883671795786807],["hectare",-10.883779113508535],["boulevard",-10.883842569770568],["Tim",-10.883909754732684],["comparaison",-10.883979204174796],["coéquipier",-10.884109127098485],["indispensable",-10.884182271761436],["condamnation",-10.884212214039803],["Strasbourg",-10.8842625861111],["horaire",-10.884350480105066],["compagnon",-10.88450635601039],["incontournable",-10.884902973126055],["56",-10.885010231581017],["provenance",-10.885103417618902],["Fête",-10.885270597757687],["colonel",-10.885739702405846],["symptôme",-10.886218376347678],["verre",-10.88714866238576],["apprentissage",-10.887391994082478],["Actuelle",-10.88762249729982],["89",-10.88807155334273],["sévère",-10.888366877170862],["boîte",-10.889034397853028],["doté",-10.889286381958847],["suivante",-10.889493505589002],["néerlandais",-10.890031702210507],["AQ",-10.891766234019585],["couvert",-10.892519741673244],["tation",-10.892819621770538],["effective",-10.89354218141833],["95",-10.894125128191257],["format",-10.894382036911047],["observe",-10.895641732524282],["absent",-10.896087128923682],["congé",-10.896658860983413],["profession",-10.896869713432878],["su",-10.897039673917646],["Sénat",-10.897142266697454],["originale",-10.89820756201443],["ay",-10.89832516559325],["alle",-10.898466569073573],["certe",-10.898673949204438],["coordinat",-10.899575591796147],["compatriote",-10.89973470561813],["Organisation",-10.899849998291629],["Journée",-10.899859861851208],["musicale",-10.900321872988357],["filière",-10.900550761981366],["ham",-10.900591784267469],["abandonné",-10.900933912542245],["informe",-10.901350899160985],["trophée",-10.901636974511742],["intelligence",-10.901649939822278],["déficit",-10.901794715737513],["affiché",-10.90226787708016],["diverse",-10.90298664713387],["fasse",-10.903009788909593],["dépasse",-10.903182847854197],["engin",-10.903256948334416],["flamme",-10.904470690335348],["tourne",-10.904636095446081],["entité",-10.904906760260328],["levé",-10.905436155464152],["International",-10.906396410699752],["conséquent",-10.90660620136736],["reprend",-10.907472068260756],["ondre",-10.908338280881484],["vin",-10.908485086587296],["dessin",-10.90880484954576],["avère",-10.90902543894508],["permetta",-10.909460221233292],["survenu",-10.911058268628743],["autochtone",-10.911265408745209],["provenan",-10.911543001003695],["déplacer",-10.911753013312364],["reconnaîtr",-10.91200125485437],["Berlin",-10.912889865960636],["livrer",-10.91337158160137],["cou",-10.913391656048352],["convention",-10.915237850724765],["ignore",-10.915495750276026],["insta",-10.915673454159883],["chapitre",-10.91599648407694],["barrage",-10.91611262603844],["légende",-10.91638681611297],["interprète",-10.916458453090701],["souffle",-10.916680029296],["téléphonique",-10.916764831209704],["durer",-10.91718354651867],["flambée",-10.917577689393514],["triste",-10.917880782796832],["adhésion",-10.917898471549723],["Ga",-10.918109114342439],["Aussi",-10.918152027761945],["Quelle",-10.918230968898687],["envoi",-10.918578845001196],["iez",-10.918916315249378],["hasard",-10.919502618526423],["recevo",-10.9200920261429],["virtuelle",-10.92014753225105],["per",-10.920486435650911],["former",-10.920720905398781],["paysage",-10.920978998673956],["pompe",-10.921186788547388],["protocole",-10.921234878050196],["Heureuse",-10.921328382443981],["termine",-10.92275938836478],["pr",-10.922957901678963],["médical",-10.923159285766124],["savent",-10.923652437666686],["regrette",-10.924017805148152],["aménagement",-10.924435017330138],["88",-10.924665266794346],["correspond",-10.925373467342531],["Carlo",-10.925566719712421],["transporté",-10.925873042519399],["richesse",-10.925923472025104],["beauc",-10.926442691710648],["litre",-10.926525531400271],["lauréat",-10.92909779338753],["Portuga",-10.930438698645887],["sélectionné",-10.931955591326634],["ordinaire",-10.932130199403616],["Benjamin",-10.932174054103424],["fabrication",-10.932177020881443],["Toronto",-10.932226325979952],["écologiste",-10.9324337207338],["illustre",-10.932863311002166],["révélation",-10.933130339959323],["destinée",-10.93320217555281],["concrète",-10.933428442394352],["implication",-10.933527560887114],["occidentale",-10.933539769189172],["riches",-10.933715069029347],["terrible",-10.933955952732362],["coureur",-10.934503571067891],["Monde",-10.934724787804665],["semblai",-10.935839002650447],["Art",-10.936062379997242],["québécoise",-10.936425007436199],["Guilla",-10.936430982658202],["Belg",-10.936724801911062],["faciliter",-10.936725883594452],["pointe",-10.937023871319498],["aperçu",-10.93702649802876],["section",-10.937027591260705],["complété",-10.937119485369848],["susceptible",-10.937568291864466],["HD",-10.938028942001123],["critiqué",-10.938161788370312],["game",-10.939064235377856],["Sept",-10.93911419289822],["courage",-10.939213487634262],["connaiss",-10.939407403013242],["Cel",-10.939572413627076],["beauté",-10.939733708246935],["solaire",-10.941349329109542],["69",-10.94174944804255],["disque",-10.942032011275973],["coûte",-10.942349980344664],["web",-10.942412095843489],["autonome",-10.94287826774568],["brut",-10.943016829406474],["intégré",-10.943100129077305],["assaut",-10.943224160177826],["inédite",-10.94458290205617],["Groupe",-10.945078838205212],["chère",-10.94533072038311],["ains",-10.945817542125845],["carbone",-10.94586087530046],["prête",-10.945976078114738],["68",-10.947147179011026],["66",-10.947269819780168],["duel",-10.94750949785342],["pèse",-10.947770889814372],["profite",-10.947794589702326],["SSD",-10.948418973640358],["logistique",-10.949598377592672],["pai",-10.949722427965316],["attitude",-10.950060733015277],["basée",-10.950073931207864],["Blanc",-10.950076166070643],["Alger",-10.950621928186274],["Congo",-10.950873997888522],["religieu",-10.951329992069347],["titulaire",-10.951454088022409],["foot",-10.951533975964665],["Bel",-10.951571921827949],["Bou",-10.952791636270886],["franchi",-10.952902702041055],["excellente",-10.953605298119074],["Real",-10.9540166899978],["vocation",-10.954112452726077],["fumée",-10.955900547557658],["Déj",-10.956388258478615],["Cath",-10.956574048672774],["Ceci",-10.956603327137344],["organise",-10.95719793236458],["désert",-10.957460482614344],["déposer",-10.957528838672427],["sentir",-10.957635786193794],["verra",-10.95812431145019],["marquée",-10.958599883606261],["appliquer",-10.958856151289872],["signal",-10.95944135317638],["réserver",-10.960288544744456],["tranche",-10.960608444060682],["98",-10.960864472278086],["mention",-10.961251327384815],["location",-10.961323312731597],["participe",-10.961764199659257],["Kev",-10.962191023881513],["rock",-10.96283655665177],["religieuse",-10.963971332702613],["cris",-10.96460051137829],["occuper",-10.964693413394043],["encourager",-10.96492280547599],["nvironnement",-10.965267210960974],["consiste",-10.965455153138716],["Jonathan",-10.96579639916595],["parallèle",-10.96590984084208],["casting",-10.966322196623237],["prétend",-10.966372783095032],["fossile",-10.966497352524566],["manifeste",-10.966535008478886],["aur",-10.96664490575835],["expertise",-10.96671336228831],["recrutement",-10.966947139539386],["CAN",-10.967317239463386],["major",-10.967667603907238],["chaussée",-10.96770671079764],["ramene",-10.967962772861904],["matériau",-10.968002889732809],["sensibilisation",-10.968394654431618],["conscient",-10.96888874035028],["stream",-10.969290708182475],["ava",-10.969880142387279],["Académi",-10.969950825210432],["Trude",-10.970685248945603],["angle",-10.970917655839532],["démission",-10.971337502868538],["Serie",-10.972230541050951],["disputé",-10.97245411755571],["accompagne",-10.972604297192014],["haine",-10.972637317188259],["repas",-10.973864460401646],["épaule",-10.975530539858555],["limitée",-10.976114375294097],["Rappel",-10.976178841573288],["anneaux",-10.97755142375033],["championne",-10.977619870382425],["fan",-10.977787855178217],["loc",-10.978041939142013],["règne",-10.97871035047173],["mentionne",-10.97878435463062],["drone",-10.978793083307568],["conserver",-10.978849490117842],["monté",-10.97966472790462],["vedette",-10.980105992488063],["suscité",-10.980211015570802],["musulman",-10.980647163639365],["plaidé",-10.981576850997746],["classé",-10.982171015203678],["personn",-10.982530260024767],["ut",-10.983158273144104],["prolongation",-10.983268161605304],["vulnérable",-10.983294890347722],["collectivité",-10.983377132163533],["océan",-10.983453863661726],["Monsieur",-10.983563690641434],["fierté",-10.983776202136365],["jury",-10.983898123485632],["équivalent",-10.984188809731844],["échappé",-10.984257587002999],["retraité",-10.984319314280725],["signer",-10.98478081496227],["Maritime",-10.985260260114138],["trajet",-10.985491077595153],["technologique",-10.986211389862401],["favori",-10.986703615041968],["blessée",-10.986995280181755],["min",-10.987133202494515],["permanent",-10.987492085733425],["développeur",-10.987773718683757],["covid",-10.987956986884225],["sécheresse",-10.988629023006666],["Toulon",-10.988770924053611],["194",-10.989262266219963],["exécution",-10.989581280781149],["pensée",-10.989708763746394],["RD",-10.99023428759838],["relance",-10.990743656086334],["tournant",-10.991198661155865],["ass",-10.991804740965282],["disant",-10.9918085467975],["ja",-10.991917261075493],["illégale",-10.99231790141748],["stress",-10.992708159044424],["rachat",-10.993081075436397],["aissant",-10.99316721487741],["seuil",-10.993209724122448],["arabes",-10.993376941028284],["plaque",-10.9936329761939],["Manche",-10.993674376103328],["Boris",-10.993843913048334],["caché",-10.993923494990167],["oct",-10.994242076294729],["nécessite",-10.994761985638581],["brigade",-10.994934030716],["écouter",-10.995033600106076],["sombre",-10.99534537528892],["toucher",-10.996004152354216],["iranien",-10.996752895176765],["passionné",-10.997559761855591],["tô",-10.998290608991637],["refuse",-10.998301921390187],["défendu",-10.998650130015811],["occupant",-10.998864332409886],["cinquant",-11.000241940549381],["mélange",-11.000285084890116],["progressive",-11.000383555507273],["hypothèse",-11.000575305466846],["ong",-11.00058561351286],["catalogue",-11.000647119816193],["Donbas",-11.000757906457803],["modification",-11.000868520789698],["prisonnier",-11.00087628304503],["motif",-11.001428763407745],["annulation",-11.001717558492892],["destruction",-11.001735487209324],["japonais",-11.001772294047928],["mur",-11.002216758393352],["agréable",-11.002250558984867],["Street",-11.002667184294104],["françaises",-11.002809715296094],["rejet",-11.003003495044144],["conquête",-11.003165472686003],["parfaite",-11.003443532594108],["souri",-11.003942478603491],["Tel",-11.0046460010086],["éclairage",-11.004733372434806],["estiment",-11.00499756421953],["entraîne",-11.005253737945651],["fiction",-11.005343364983903],["libérer",-11.006629610147856],["assise",-11.006723725826507],["échapper",-11.006911094665416],["rs",-11.007736495341904],["apparaît",-11.007904103693257],["ressemble",-11.008136235440748],["terminée",-11.008730821368514],["habitué",-11.009044839956644],["tes",-11.009362193008958],["Savoi",-11.009435370037231],["aîné",-11.009472016578929],["réservé",-11.009889997321617],["appartenan",-11.009922327797906],["fiscale",-11.010205507113913],["Ch",-11.010240008742535],["reproche",-11.011083292125157],["satisfait",-11.011153331081953],["Ca",-11.011341676841592],["Bleus",-11.01227221875954],["dangereuse",-11.014186484321193],["Front",-11.015387588591274],["intervenu",-11.015850531494962],["hospitalisé",-11.016762097895718],["poisson",-11.01727264958254],["parlement",-11.01803240692536],["compatible",-11.018250468926944],["budgétaire",-11.018436268921892],["Roland",-11.018502588599176],["vétéran",-11.018548286508661],["artisan",-11.018726728207039],["référendum",-11.018755414891647],["Directeur",-11.019085006780745],["promo",-11.019120586614275],["intermédiaire",-11.019284984811978],["qualifier",-11.019521013565047],["18h",-11.019702332595102],["favoriser",-11.021500460879857],["apport",-11.021790294068712],["sensibiliser",-11.021823871769744],["scandale",-11.02210740430042],["feron",-11.022561641300051],["testé",-11.022700888396823],["animateur",-11.023363076595569],["valoi",-11.023567506253293],["raconter",-11.023684380882457],["sûre",-11.023772848018437],["jambe",-11.024987688091525],["coupure",-11.028150025219023],["Born",-11.02869177433374],["parvien",-11.028709865531123],["tenant",-11.028978589554288],["Gaza",-11.028995867113462],["rejeté",-11.030095102004804],["décédée",-11.030784282110275],["rice",-11.03110086689929],["modifier",-11.033378161140554],["entr",-11.033720547833964],["ang",-11.03381412656676],["manœuvre",-11.033856131575615],["ienne",-11.03412767681866],["météo",-11.034596253496531],["dépasser",-11.035292494536248],["composant",-11.03553836540441],["Smith",-11.036662920833532],["horreur",-11.036664534209372],["fusillade",-11.036703992248729],["ble",-11.036754839195977],["dangereu",-11.037048866305447],["Sainte",-11.037235327418696],["incertitude",-11.03738329248172],["GM",-11.038229826867868],["réputation",-11.038233858431255],["technicien",-11.038262678014501],["érie",-11.038357955279038],["ju",-11.038649971176651],["routier",-11.039240269531405],["entente",-11.03936573915707],["!\"",-11.039490095121444],["alentour",-11.039807296090679],["lles",-11.040254200494397],["future",-11.040284831723381],["PG",-11.040965104238781],["PME",-11.041877271427163],["Jack",-11.041982781687043],["disputer",-11.042807052501615],["RÉ",-11.043145895721153],["née",-11.044669099501487],["facil",-11.045251259895096],["Light",-11.045362699364443],["chronique",-11.045743206580074],["imposée",-11.045997641901364],["CF",-11.046667755427633],["conclur",-11.046714595045373],["clés",-11.04682522643708],["‘’",-11.047747453626638],["hydro",-11.048425468970821],["modeste",-11.049463605192937],["contr",-11.049479292827964],["citoyenne",-11.050093612080472],["musicien",-11.050555076814696],["rebelle",-11.051215011615486],["bouteille",-11.051370392220964],["cent",-11.052144216413556],["tuer",-11.052444518535081],["DF",-11.052712103856226],["ry",-11.05272344152801],["suicide",-11.052966130617133],["ord",-11.053108044477057],["rayon",-11.05313987854473],["Moi",-11.054721182954633],["Ibrahim",-11.055198001425746],["pollution",-11.055201799829144],["bancaire",-11.055425905419902],["résoudr",-11.0555276880846],["observation",-11.055768468924807],["pension",-11.055788394551342],["programmation",-11.05621114719909],["composition",-11.056258489501028],["CGT",-11.05685062229624],["Galax",-11.05697344283096],["gestes",-11.057024191396934],["garanti",-11.057096541748319],["pens",-11.057246363202006],["viande",-11.057348393032292],["régler",-11.057532004712426],["ort",-11.057758359061978],["Fabien",-11.058178393036112],["Josep",-11.058883847690224],["etsk",-11.058962638905538],["Xavi",-11.059042436381656],["pl",-11.059149005881146],["ko",-11.060180195145739],["septième",-11.060404171903963],["anima",-11.060447864858105],["recommandé",-11.060452929226717],["Loire",-11.061028377066894],["croi",-11.0610742653604],["Inde",-11.061793955507206],["AS",-11.061918630497306],["Dr",-11.061927462596682],["protégé",-11.062890395889738],["approuvé",-11.063210553938715],["ressort",-11.064792414055958],["onze",-11.06531345138373],["support",-11.065881183397828],["handicap",-11.066231154238253],["contrôler",-11.06662028449659],["Sein",-11.06674233896961],["original",-11.067123976738829],["visiter",-11.067826669397219],["épression",-11.068208871515226],["Royal",-11.068410887964887],["revers",-11.068491284974899],["ki",-11.068576891809638],["indépendante",-11.069250004844916],["situe",-11.069329200423871],["design",-11.069653364498565],["erine",-11.070173834220242],["regarde",-11.070421540034134],["idéal",-11.070609304943687],["96",-11.070807082105464],["composée",-11.07108145311649],["sapeur",-11.071234139305943],["réparation",-11.071313448331901],["Roger",-11.071598570381983],["vallée",-11.072097249022065],["existent",-11.072337526543748],["céréale",-11.072447182353145],["préparé",-11.07251660355495],["désigné",-11.072927748546809],["CI",-11.072986539764923],["zér",-11.073119578792063],["justifier",-11.073235899356073],["individuelle",-11.073600303907602],["possession",-11.073696475541503],["hélicoptère",-11.074011821961006],["pourcentage",-11.074055047466938],["éliminatoire",-11.074134685168334],["Juif",-11.07426137716547],["conception",-11.07443626081968],["correctionnel",-11.074503788772667],["défunt",-11.074571807948276],["infirmière",-11.074852391832952],["renouvelable",-11.074921499494405],["observateur",-11.07502560817484],["omme",-11.075120942415083],["Mai",-11.075417385486002],["um",-11.075477338076611],["solde",-11.075617305627096],["raté",-11.075876198298246],["ti",-11.07603690283919],["Général",-11.076155153261444],["standard",-11.07723362289015],["Alpha",-11.07723956826075],["Arabi",-11.077454713709276],["commandant",-11.077824652169484],["abus",-11.078570122883868],["géré",-11.07896201128187],["souveraineté",-11.079248469718632],["abandonner",-11.079658380189228],["engagée",-11.080321045335912],["Sah",-11.080635104946591],["interroge",-11.080744933402784],["BA",-11.08089952996949],["Park",-11.081515877019545],["orientation",-11.081754199886747],["accessoire",-11.081779298560228],["entrevue",-11.081840552776201],["empêché",-11.082475715770906],["ercredi",-11.082689996016375],["ambitieu",-11.082792686331384],["vaudois",-11.08340167799905],["révolution",-11.083664819325115],["poursuiv",-11.083697328543149],["craint",-11.083849877394996],["ot",-11.08400972729462],["bassin",-11.084033385531425],["deveni",-11.084205101723025],["87",-11.08424915788729],["ferai",-11.084339243081867],["accompagnement",-11.084424082805794],["luxe",-11.084870799380505],["soixant",-11.085017245373137],["exact",-11.085542345694622],["Va",-11.086281127293692],["Ontari",-11.086538865387945],["engagements",-11.086731967036606],["bient",-11.087448614950604],["Cert",-11.087542193618397],["dispute",-11.087900409056358],["GO",-11.089127950653337],["finit",-11.089339433506433],["fermée",-11.089768364421797],["baptisé",-11.089962954653888],["firme",-11.090077383380114],["Po",-11.090997768799639],["Alo",-11.091566537751815],["incarne",-11.091882767838145],["plante",-11.092045897099037],["affecté",-11.09317098059285],["hospitalisation",-11.093244928914402],["Républicain",-11.093259980816427],["consécutive",-11.093485765490462],["religion",-11.093831892565749],["créateur",-11.093877436833969],["Oscar",-11.093906175487685],["discrimination",-11.093915058722256],["rebond",-11.093954008057061],["invitation",-11.094414405366113],["apprête",-11.094421507751134],["contrainte",-11.094564149088734],["West",-11.094601321569309],["économiste",-11.094744594218064],["courrier",-11.094994242837647],["dramatique",-11.095008100277076],["réalise",-11.095181877914527],["volé",-11.095202304719733],["Lond",-11.096031299344519],["défilé",-11.09648233527409],["dinar",-11.097633709662581],["descente",-11.098084852348117],["doléance",-11.098451923627357],["emprunt",-11.098455046952346],["pay",-11.098953920578571],["repoussé",-11.099583494702637],["souligner",-11.100016053171991],["réception",-11.100642569057015],["sensation",-11.100663268586821],["dirige",-11.100667211398212],["hor",-11.101107335465091],["aidé",-11.101371805258221],["clos",-11.101416276171534],["trente",-11.101984903982249],["longueur",-11.102326397224962],["ourism",-11.10233619458241],["am",-11.102434982619462],["cercle",-11.102662462798474],["voyai",-11.102810577561664],["tandi",-11.102853867619151],["imagine",-11.103097311499358],["Soit",-11.103630299586978],["kilo",-11.103735664626136],["rapporte",-11.104302364309426],["comble",-11.104528543088744],["entraîner",-11.104641599756931],["impressionnant",-11.104679572743285],["placée",-11.106007866600752],["unanim",-11.106142276811754],["ic",-11.106485419835243],["porteur",-11.106922858149797],["viendra",-11.107045460594271],["politicien",-11.107669533497653],["étendr",-11.107688333782558],["montr",-11.10818609540137],["ster",-11.108354092780372],["mark",-11.108854633959597],["télétravail",-11.109264912191604],["ivoirien",-11.109531041217696],["folle",-11.109641831614642],["évolue",-11.11135637911105],["comporte",-11.111743065365388],["colonne",-11.111962265536235],["paraîtr",-11.1127489288107],["Théâtre",-11.112872495244153],["prédécesseur",-11.112885695025202],["obstacle",-11.113011166208885],["fréquence",-11.113075866581045],["célébrer",-11.113192371400983],["portefeuille",-11.113560802761242],["refuge",-11.113827906979862],["capteur",-11.113862610971463],["réservation",-11.11496954543135],["trouv",-11.114989972969232],["souffrance",-11.1153732452856],["Transport",-11.115430153160847],["Mathi",-11.115566987421952],["stationnement",-11.115771040352119],["ingénieur",-11.11611945130418],["Carolin",-11.11644194859549],["bière",-11.11668014346009],["soignant",-11.11672784800868],["cycle",-11.11707918499779],["écho",-11.117454267379813],["71",-11.118086991927946],["rai",-11.118898025185153],["René",-11.119072948104023],["évacué",-11.119310647974238],["Désor",-11.119483850539414],["Suite",-11.11952040740714],["couloir",-11.119610039912912],["estimation",-11.119705533941302],["assisté",-11.119863606293245],["convoi",-11.120572466263779],["détaille",-11.12079726283546],["délais",-11.120999781557103],["audition",-11.121304121346762],["TF1",-11.12200404327501],["exige",-11.122339859222734],["remonter",-11.123659868933869],["caisse",-11.123739921636314],["Chris",-11.123783435821764],["bouton",-11.124291493176793],["criminelle",-11.12457144658123],["entaine",-11.125259679135828],["Florid",-11.125295785342388],["marquant",-11.125639337033132],["gène",-11.125790663531774],["digne",-11.126058021128628],["Environ",-11.12633116625493],["arbitre",-11.126790712924107],["Games",-11.126839055571066],["urbaine",-11.126964171880239],["vigilan",-11.12753808247496],["900",-11.129281836365406],["isjordanie",-11.1302263661996],["métropole",-11.130380122256629],["gamer",-11.13039303175142],["King",-11.130890461565018],["monument",-11.131192758123866],["couvre",-11.131250652249719],["écurité",-11.13129272760792],["fibre",-11.131786846960953],["ligue",-11.132106866254475],["arrête",-11.132198593841025],["AIP",-11.132407649995672],["by",-11.132657793171534],["filiale",-11.132942801760196],["Taïwan",-11.133073490259918],["célébration",-11.133342755448535],["fondé",-11.133393779528603],["frein",-11.133432432836832],["projection",-11.133631487692982],["déposée",-11.133754594655457],["équipage",-11.133850425748003],["compléter",-11.134211101164952],["relancer",-11.134322153273088],["souverain",-11.134450659054217],["Liban",-11.134536950362268],["ouvrier",-11.134576760971779],["félicité",-11.134717459011913],["portrait",-11.134877643853322],["métro",-11.134947479778479],["Milan",-11.135323491860241],["condamne",-11.135771684194951],["bref",-11.135969232405374],["tech",-11.136059937027447],["tablette",-11.136270185496308],["Bay",-11.136404797483305],["couche",-11.136485447460323],["Colombie",-11.137762691862616],["excellen",-11.138320679055186],["créée",-11.13899711489746],["soviétique",-11.139470403046989],["Fa",-11.140346079110117],["van",-11.141028087685594],["négocier",-11.14142713633439],["Dona",-11.142358207507282],["bénéficie",-11.142850837013864],["courte",-11.1430485803884],["algérienne",-11.143530030092736],["provien",-11.143759984302278],["déçu",-11.144296674039584],["réfléchir",-11.144707022119336],["expulsion",-11.145304453346847],["mentale",-11.14538566135812],["oît",-11.145629316488996],["dominé",-11.14606865522114],["Allemand",-11.146090813574574],["tombée",-11.14662341128125],["hâte",-11.146746967314355],["lain",-11.146795399646646],["commercia",-11.147258066353306],["borne",-11.147313838666836],["Nos",-11.147512416204938],["bronze",-11.147618256100191],["Didi",-11.147620767140255],["puissante",-11.147873140247054],["bou",-11.148470488288822],["combattre",-11.148688471219566],["concentrer",-11.148970285001518],["inconnu",-11.149008331506586],["terrasse",-11.149161601176225],["iden",-11.149705838584508],["Nanc",-11.1497412804117],["noté",-11.149844071254826],["carton",-11.150060814548825],["ny",-11.150308197273148],["Hél",-11.150370545609086],["Andro",-11.151461147204197],["Mer",-11.152039302151804],["dollar",-11.152476845883314],["Finland",-11.152844051222946],["soin",-11.15290673088096],["confirmer",-11.15323425016187],["Djoko",-11.153257947212161],["Flandre",-11.153260496896397],["mythique",-11.153284235732192],["collision",-11.153312096285024],["évidence",-11.153467693277427],["pétrolier",-11.153527060665965],["Interrogé",-11.153689877970079],["conseillère",-11.153912935729949],["chèque",-11.154073089047676],["investigation",-11.154124370460778],["habituelle",-11.154230769278094],["bénéficiaire",-11.154387716351177],["basket",-11.154585592044084],["illustration",-11.155300182881348],["significative",-11.155802394075788],["partielle",-11.155917728944491],["llah",-11.156142100121835],["requis",-11.156234760267944],["rois",-11.156247183101877],["démontré",-11.156790667159152],["littérature",-11.156956005543222],["Jordan",-11.158174546442982],["fortune",-11.158666104613665],["loisir",-11.159129519788404],["aming",-11.15964059869],["nuage",-11.159751694553432],["retiré",-11.160858906174358],["Kon",-11.16126793781963],["Bell",-11.161389023131932],["voulo",-11.161945325689139],["accent",-11.162141693393117],["DC",-11.162173752828718],["diplomate",-11.162248229709721],["éhéra",-11.162415648635884],["pape",-11.162642506658248],["fonctionner",-11.162691323522068],["atteinte",-11.162754896162705],["venant",-11.1628621163484],["alarme",-11.163559887562121],["pourr",-11.163614081554137],["Prime",-11.165080012561813],["étrange",-11.165979915932606],["illégal",-11.168373763915959],["présidentiel",-11.168534130932525],["uit",-11.168914600261672],["musical",-11.16953921263825],["cor",-11.169694365889036],["migration",-11.169741818319412],["pousse",-11.170111904153764],["appartien",-11.170721353565527],["Rome",-11.171089892593045],["adressé",-11.173344606978382],["Ousman",-11.174145046995923],["élimination",-11.174251134161118],["Netanyah",-11.17425587568865],["magazine",-11.17427018912032],["perturbation",-11.17433754284679],["vestiaire",-11.174418623998818],["indicateur",-11.174715773463962],["législation",-11.174838553204259],["61",-11.174977984350829],["Ne",-11.175532605963554],["Plan",-11.175697951798316],["Espagnol",-11.175961454599497],["massif",-11.17596572435112],["mann",-11.176094435114425],["architecture",-11.17624133101883],["ND",-11.17636203551822],["évoquant",-11.176396586315747],["joli",-11.17651757731806],["déploiement",-11.176730656008662],["5G",-11.177200300395254],["tactique",-11.177271842543188],["proportion",-11.177399336630947],["amitié",-11.177623065096643],["«»",-11.17811850317313],["violente",-11.178119698987352],["masculin",-11.178182105378333],["district",-11.178212782367773],["Harr",-11.17828908487983],["Bois",-11.178489237210243],["potentielle",-11.178496993604385],["organe",-11.178676822709747],["nez",-11.179176387011605],["évolué",-11.179301650379426],["sénateur",-11.17958937929832],["Culture",-11.179682120247122],["Rh",-11.17977910413513],["Day",-11.180620102232428],["censé",-11.1815338566596],["contribue",-11.181741358343492],["onnant",-11.181903667390577],["évoquer",-11.181970818422421],["appuye",-11.18201306528412],["ag",-11.18227797949535],["feuille",-11.18239633555681],["sais",-11.182721333097739],["représenter",-11.182771562411688],["bouche",-11.183210814850291],["Frank",-11.183870055454157],["syndicale",-11.18442567424216],["84",-11.185783841802976],["édifice",-11.185890815172623],["contacté",-11.186172944302417],["baril",-11.186833899742915],["agenda",-11.187257157169883],["CD",-11.187266595623198],["poche",-11.18763934428354],["fameu",-11.187958527194077],["pont",-11.188765866114526],["artificielle",-11.189025357871035],["ombien",-11.189137641982814],["relai",-11.189280561066889],["observer",-11.189763119090767],["Gi",-11.190438370822942],["lire",-11.190825359622519],["Dami",-11.191230832769666],["Concern",-11.192211453865319],["correct",-11.192461761135457],["accepte",-11.193293859701999],["Tra",-11.193826000166062],["gouvernan",-11.193865595895778],["strict",-11.194292522100422],["inférieur",-11.19510557873553],["abandon",-11.1951871507331],["flotte",-11.195237429087516],["tranquille",-11.195268969531085],["·",-11.195357061788442],["Conakry",-11.195357073926486],["fabricant",-11.195367004065758],["Histoire",-11.195398769232206],["Sophi",-11.195399058054331],["motivation",-11.195408785748203],["héroïne",-11.195458022849692],["Ka",-11.19546012527356],["Sarah",-11.195509270611325],["Leclerc",-11.195626199174086],["Championnat",-11.195629992619192],["connexion",-11.195774184493391],["gérant",-11.195830249513445],["Musée",-11.195943224227484],["inacceptable",-11.19601580293828],["manager",-11.196090703680165],["prenai",-11.196191826401659],["touchée",-11.196253460676846],["vendeur",-11.197329842590761],["massacre",-11.197572258256287],["étendue",-11.197787899744608],["individuel",-11.197874124196783],["ussi",-11.197884433348364],["accélérer",-11.198029170249415],["market",-11.198174345515426],["Bénin",-11.198555458661327],["Seule",-11.198725765603463],["nationalité",-11.198750750388125],["Ho",-11.1987535441095],["lois",-11.198870248965385],["provincial",-11.199378583654505],["endent",-11.199540385142143],["entretenu",-11.199603155570827],["Borde",-11.199644021155446],["routière",-11.199886283853795],["théorie",-11.200049806833064],["TP",-11.200145984102154],["orange",-11.200317280854607],["diriger",-11.201093936473736],["stable",-11.201557690770322],["transféré",-11.201769117066092],["éclat",-11.20193442176382],["Group",-11.202556364977053],["voisine",-11.202683782368556],["Meta",-11.204536681209152],["amp",-11.204889118888865],["habituel",-11.205125463203062],["ordonné",-11.2053887835497],["survie",-11.205447471773144],["multiplie",-11.2056670035844],["mixte",-11.207104587915742],["union",-11.208961933204034],["lisab",-11.209260546852004],["flamand",-11.209698618606307],["130",-11.210127286161935],["instrument",-11.21019582379001],["Argentine",-11.210244304186197],["Diall",-11.210334350847287],["bruxelloise",-11.210990510935467],["amené",-11.211664222497198],["initiale",-11.21236501699595],["traduit",-11.213738547960357],["pénale",-11.214099048010633],["casse",-11.214528891351783],["Stan",-11.214935755240015],["extrait",-11.216001836988305],["craign",-11.21605336095961],["Serge",-11.21612099071003],["Claire",-11.216245891932825],["essaie",-11.216645759245637],["™",-11.217096192223226],["vertu",-11.21715539961014],["Pr",-11.217197243505536],["revendication",-11.217530673106161],["Chacun",-11.217624252215444],["Namur",-11.217667855444756],["cimetière",-11.217760073336189],["thermique",-11.21781970438414],["BFM",-11.217936634736285],["Croix",-11.218191733069693],["ordonnance",-11.218241758102861],["isolement",-11.218367890579584],["déplacé",-11.219738941617969],["permettrai",-11.219865716919376],["réplique",-11.219959459023382],["allure",-11.220522858390758],["milliardaire",-11.220541028975052],["Johns",-11.220676593306484],["Lo",-11.220730834619104],["rappeur",-11.221807352600267],["bourg",-11.22242689299402],["introduit",-11.222464983922945],["Texa",-11.222489119986005],["déception",-11.223013455501622],["favoris",-11.223084408535888],["suscite",-11.223763533231525],["dévoile",-11.2245869689862],["obten",-11.225237287573785],["ages",-11.22527541548405],["dispos",-11.2253667978643],["témoign",-11.225437808189875],["Édu",-11.226525315102664],["verge",-11.226642158729668],["oublié",-11.227135700391106],["prouver",-11.227290876526418],["acheteur",-11.22951163458729],["marocaine",-11.229823672707113],["oreille",-11.229932068192788],["promouv",-11.2300237163973],["74",-11.231781174647592],["prévien",-11.232506925468368],["diffusée",-11.233289411981573],["Code",-11.233723436627093],["royale",-11.234419660340931],["regrett",-11.234784849068744],["phare",-11.234791303257609],["dure",-11.234970542234063],["provinciale",-11.234990866537977],["parisien",-11.235382558677605],["traiter",-11.23550184189598],["éliminé",-11.235534124327174],["interdir",-11.235688462502758],["oppose",-11.235855498501348],["Na",-11.236211933719169],["350",-11.236562470440258],["reproché",-11.236973806268807],["ven",-11.237642388861644],["ède",-11.237958503650017],["environnementale",-11.237997519489987],["déclenché",-11.238075241732842],["Alexi",-11.238448855871791],["superbe",-11.239208273561442],["Afghan",-11.239319072385786],["Tokyo",-11.239329656668351],["héritage",-11.239380083426324],["conviction",-11.23939615432797],["meeting",-11.239435058336118],["prioritaire",-11.239577070412277],["considération",-11.239616239144853],["remarquable",-11.239646860502294],["hébergement",-11.239696812853456],["agi",-11.240050495890996],["satellite",-11.240187782167636],["atmosphère",-11.240342366789992],["Togo",-11.240360842238712],["féminine",-11.240493499182307],["Karim",-11.240672104991468],["abordable",-11.24086383854618],["Nada",-11.241157445983903],["littéraire",-11.241376022293363],["finaliste",-11.241784298235547],["séparatiste",-11.241986366069924],["correspondant",-11.242073933923612],["trésor",-11.242134152625832],["compagne",-11.242177764589655],["Pe",-11.243040694654951],["introducti",-11.2434630462482],["délit",-11.243597482083603],["duré",-11.244046138750011],["lecteur",-11.244114922876705],["suiv",-11.24414588792783],["devr",-11.244207286295952],["douard",-11.245086235035888],["validé",-11.245206870078759],["prolonger",-11.245373353159012],["lit",-11.24542656352278],["continuité",-11.245921808722379],["remarquer",-11.246079860100565],["III",-11.246515384729433],["refuser",-11.246650894296582],["Final",-11.246715513087928],["Raphaël",-11.24689986148583],["Dijon",-11.246950942861776],["fiche",-11.247326851563304],["selo",-11.247336717183984],["disparaîtr",-11.247393640914314],["bâton",-11.247547705668543],["revendique",-11.247787715656663],["satisfaction",-11.247802479411103],["Pala",-11.247895351220428],["Nova",-11.248238461836038],["froide",-11.248289126436593],["illes",-11.248421649213027],["ardi",-11.249014884546323],["diminué",-11.249796110864338],["start",-11.250219006023224],["canon",-11.25050650968794],["présentent",-11.25081802920865],["79",-11.25133344480892],["réunis",-11.252146424800872],["Wa",-11.252369645975188],["81",-11.253623108469785],["entamé",-11.253933979363648],["détaillé",-11.25402858058344],["Stade",-11.254322215185077],["copie",-11.254327656475944],["comptai",-11.254339289005],["RC",-11.255248371807198],["transaction",-11.256132877872336],["développe",-11.256633921548836],["char",-11.257692343590463],["portai",-11.258039402571448],["land",-11.258833315617668],["grimper",-11.25913804103163],["parcour",-11.259340425882769],["Free",-11.259421692675627],["interven",-11.259815296316399],["bouger",-11.259896604902126],["Économi",-11.260197344424302],["3D",-11.260232093855649],["allemande",-11.260735028098724],["subir",-11.260858950742762],["trait",-11.261112067151696],["ôme",-11.261718022900276],["Chef",-11.261958022597929],["cosmétique",-11.26210383447952],["caractéristique",-11.262114173624138],["Standard",-11.262129399846764],["confrontation",-11.262147697188267],["monétaire",-11.262214225503154],["régulier",-11.262216623880494],["concentration",-11.262287269815586],["compromis",-11.262300600267125],["préalable",-11.262354667595286],["cerveau",-11.262395186618335],["ralentissement",-11.262488214347862],["cru",-11.262525855407981],["Communauté",-11.26263519403117],["craindr",-11.262683803289992],["Ministre",-11.262729571117418],["provoque",-11.262747285451393],["variable",-11.263124928727017],["convoqué",-11.263146278382052],["concernée",-11.263451095238544],["Sahara",-11.263658991080483],["savon",-11.263876990220353],["suppression",-11.264473053164025],["diagnostic",-11.26449237869748],["sprint",-11.26485812519313],["bête",-11.264880667859476],["manquer",-11.265014047307139],["Cinq",-11.265021105051199],["monstre",-11.265335155252117],["contien",-11.265513466152804],["ourage",-11.265969088482727],["maternelle",-11.266220243680802],["indiqu",-11.266356144795367],["staff",-11.2664158248406],["Julie",-11.266607120204355],["avertissement",-11.266660570209586],["affirm",-11.266694964878901],["Californie",-11.26693556654455],["embauche",-11.26702242745584],["Da",-11.267060852728502],["igny",-11.267139473222056],["légitime",-11.267311003216365],["environnemental",-11.267441375462056],["adverse",-11.26756444547042],["célébré",-11.267664199601883],["ille",-11.26797102947286],["docteur",-11.268183310955557],["évaluer",-11.26848710240996],["processeur",-11.268691837647005],["italienne",-11.268841511265997],["chasseur",-11.268884267503587],["ecteur",-11.268888753912922],["décrocher",-11.269196251540176],["trio",-11.269330727833681],["emporté",-11.270075061478256],["multi",-11.270230910668287],["soulign",-11.270365447313313],["aille",-11.270426653244288],["oblige",-11.270598744251618],["cisme",-11.271033713718525],["Ver",-11.271337807890891],["TT",-11.273146883902697],["maintenu",-11.273596482238858],["repartir",-11.273834586517035],["panne",-11.275461328786687],["étudier",-11.276144000750259],["visa",-11.277115374885366],["peinture",-11.27745994472932],["Tu",-11.277920649460782],["intéressante",-11.278295464760216],["grandi",-11.278448197098138],["Do",-11.27898767408313],["Gille",-11.27906705382028],["Alexand",-11.279642762120783],["Tribuna",-11.280623987297034],["motion",-11.281273572285812],["cherch",-11.28136446674749],["DH",-11.28145355260062],["industrielle",-11.281641189162636],["publier",-11.28175551018061],["éco",-11.282304674253915],["FM",-11.282904906229517],["recharge",-11.283061188278026],["hybride",-11.283071418224187],["princip",-11.283835056481955],["MONT",-11.284508919004878],["contrôlé",-11.28468211130235],["junior",-11.285306438622435],["Hollywood",-11.285307530804797],["Cheikh",-11.285341377150843],["fantastique",-11.28535460108771],["immersi",-11.285355802066125],["cliché",-11.285371253842758],["cardiaque",-11.285372651301111],["consécutif",-11.285376012570339],["Atlantique",-11.285408436062669],["irection",-11.285433715388567],["dis",-11.285462894442041],["catholique",-11.285530625535067],["Département",-11.285559292345983],["Azur",-11.285589886128722],["ressortissant",-11.285638328679928],["promoteur",-11.285731457665499],["blocage",-11.285740758403934],["écosystème",-11.285833829701968],["disponibilité",-11.28601997836616],["pointé",-11.28611804219666],["relatif",-11.28619847722222],["retenue",-11.286267989932318],["spécialisée",-11.286334959785474],["Fort",-11.286352835414505],["Golf",-11.286388713411945],["clôture",-11.286572164498185],["provoquer",-11.286599703392586],["populari",-11.28663874151896],["193",-11.28687301746034],["trône",-11.287331997784815],["tunnel",-11.287830831955379],["dirigée",-11.287972807709309],["inspiration",-11.288164832520991],["terrestre",-11.288467453542497],["all",-11.288719223681968],["leçon",-11.28878436882528],["fragile",-11.288882967531466],["conservé",-11.288897842599296],["uniforme",-11.28910999287628],["systématique",-11.289329514885456],["ites",-11.29041526646437],["guère",-11.290573917282206],["Isabell",-11.290862510746006],["traversé",-11.290883356788893],["explosif",-11.29106559907682],["royal",-11.291080028298143],["enthousiasme",-11.291125046205163],["fuir",-11.291460451190128],["remet",-11.291562305459685],["tribune",-11.291697440091816],["saisir",-11.292189721245983],["remercier",-11.29224571534771],["résolu",-11.292375871362577],["annuler",-11.292443801655256],["Mike",-11.292491643008347],["eut",-11.293380074809674],["grosses",-11.293747936810625],["nette",-11.29405330272632],["faille",-11.294627913636496],["répété",-11.295171647418908],["turc",-11.295354499225278],["étroit",-11.29586357750941],["Bill",-11.296597947675005],["basse",-11.297028492779662],["semestre",-11.297415909729988],["oré",-11.297634573436012],["exploration",-11.298321839669013],["audio",-11.29848101457889],["kg",-11.298639453346274],["traverser",-11.29893511160492],["positionne",-11.299065388145731],["photographe",-11.299123554085364],["ification",-11.299349050580625],["espagnole",-11.299436414897794],["noire",-11.300002668441131],["repose",-11.30014866522946],["Rem",-11.30195364873399],["83",-11.302044890159271],["assurant",-11.302336432797429],["territoriale",-11.302377425071338],["circuler",-11.30245202818153],["coupe",-11.302584471131265],["accorder",-11.304027762328703],["Début",-11.30417228490439],["TVA",-11.304275743067816],["restaur",-11.304579407523844],["wi",-11.30469999628836],["hésion",-11.30508243663901],["annoncée",-11.305548220576107],["IB",-11.30686826853372],["()",-11.30707558352765],["Champions",-11.307104565908961],["remarqué",-11.30761872885567],["way",-11.308040409183306],["honnête",-11.309005681753423],["supprimer",-11.309035554208599],["Horizon",-11.309120323203851],["chaussure",-11.30920629142744],["SNCF",-11.309253371411742],["complémentaire",-11.309298868554034],["insulte",-11.30943071565565],["NFT",-11.309473744360167],["rédaction",-11.309515510798798],["recrue",-11.309856963955713],["mett",-11.309872814611216],["météorologique",-11.309885508329186],["bilité",-11.310040722483851],["signale",-11.310159456719475],["spatiale",-11.310495419045798],["robot",-11.310901067213653],["passeport",-11.3109515432075],["raciste",-11.311555862353163],["vérifier",-11.311788908872519],["Ahmed",-11.31189703980353],["épargne",-11.312459313942956],["Kher",-11.312714581663144],["connaisse",-11.312859985483486],["Clément",-11.313361874251434],["sincère",-11.313485181640363],["progresser",-11.314499425072182],["trou",-11.314681645439254],["utilis",-11.314978272575548],["Fall",-11.315506002134581],["Rabat",-11.315975386693658],["Nationale",-11.316966689156013],["sentier",-11.317324439859368],["hésite",-11.317553228338483],["toile",-11.317648962509908],["Ç",-11.318069193004984],["profonde",-11.31816406914084],["dépens",-11.319224932091423],["Dep",-11.319350329801388],["Wall",-11.319469494460602],["mine",-11.319837668027658],["Féli",-11.320333822398293],["Anvers",-11.320715694612964],["bu",-11.321263613890595],["show",-11.321295394811015],["sable",-11.321499154593587],["justifie",-11.321671684725528],["orage",-11.32210899712873],["charbon",-11.322466682809669],["enregistrement",-11.322836425452891],["recev",-11.324371663957422],["afficher",-11.32461453821363],["Liver",-11.324668997918176],["poing",-11.324857766006158],["bain",-11.324916075239429],["ning",-11.325126263025819],["Six",-11.325670488379117],["leaders",-11.325872243041776],["séparé",-11.32591291584296],["conserve",-11.325940320716315],["implique",-11.326094444317015],["bat",-11.32659707213877],["Dix",-11.326632348795988],["tnik",-11.326731168038583],["paquet",-11.32716475866126],["Ti",-11.327199439025629],["Bob",-11.32738203344229],["ressent",-11.327385239594856],["revu",-11.327744845132722],["résumé",-11.328059413799913],["baissé",-11.328257333694744],["guinéen",-11.329203457279307],["entent",-11.329465397393705],["Gen",-11.330645498743452],["dépit",-11.331419586694174],["rassemblé",-11.331480108031148],["asile",-11.331602093960568],["revienne",-11.331902950275289],["onne",-11.331960698510382],["chaise",-11.332215245807067],["respecté",-11.33244744940967],["Egypt",-11.332949845265967],["occidental",-11.332977363005082],["expliqu",-11.33312163749015],["certificat",-11.33334507033316],["espér",-11.33341923744331],["morale",-11.333541237390754],["précaution",-11.333549768846197],["news",-11.333593519432348],["minorité",-11.333615275290217],["complicité",-11.33361904258923],["FIFA",-11.333724870909416],["cannabi",-11.333740565844796],["précipitation",-11.333782033453687],["positions",-11.333787058811351],["reflète",-11.333790632996363],["Sûre",-11.333812588030018],["configuration",-11.333825525408741],["interprétation",-11.33388064065899],["Mamadou",-11.33395129988117],["interlocuteur",-11.333955627707043],["dégradation",-11.334036988165451],["munition",-11.334142934943248],["tel",-11.334275214600103],["Rwanda",-11.334364113748029],["communiquer",-11.334424896580996],["Sénégalais",-11.335680016588467],["peintre",-11.335814778453166],["circule",-11.336232461267853],["deviendra",-11.33677139453785],["Place",-11.33692156019558],["accordée",-11.337090226765318],["encourage",-11.337370039204048],["Contrai",-11.337591356396402],["Ving",-11.337851832213264],["Ray",-11.338206875166646],["parisienne",-11.338439455884965],["créant",-11.33902125652692],["LED",-11.339096633303699],["exclusive",-11.339680972643514],["consulte",-11.33994790414253],["roulant",-11.339952124041883],["idé",-11.340011172231467],["be",-11.340277789022519],["Radio",-11.340305811238128],["présentant",-11.340842167880384],["PI",-11.341309798887439],["inutile",-11.341928301898363],["détruir",-11.342341635571916],["réchauffe",-11.342380570446878],["cri",-11.34238097456479],["inédit",-11.342408551378904],["Bruge",-11.342917411792348],["capture",-11.343341561915354],["mp",-11.343347727769366],["Cor",-11.34362802502956],["Chels",-11.344536498415202],["lieutenant",-11.34454165951479],["alerté",-11.344587079974543],["connais",-11.345030543508976],["graphique",-11.345228918372257],["releve",-11.345815688754648],["parlant",-11.346104855181181],["pleur",-11.346171905479942],["ignon",-11.346302214151635],["justifié",-11.346463007957627],["exercer",-11.346556142834249],["da",-11.346876637451558],["explorer",-11.346933471093251],["prière",-11.347020410338411],["chi",-11.347256139579095],["oublie",-11.347989476552325],["opéré",-11.348011757629669],["erie",-11.348429379444156],["tuée",-11.34875926646749],["empreinte",-11.349660266989144],["optique",-11.349770270081766],["liquide",-11.349935444896772],["débuter",-11.35035578833655],["intervenant",-11.350479827054194],["costume",-11.350493272677971],["franchir",-11.350850380710504],["coupé",-11.351206552215023],["détien",-11.35122915888423],["notion",-11.352205672821748],["Certaine",-11.353228580934996],["dépendance",-11.35324920767334],["Marocain",-11.354080323757069],["hi",-11.354713792679302],["cré",-11.35519392577785],["aborder",-11.355250387153031],["Jay",-11.355280131504191],["sauvegarde",-11.355919704064211],["surprenant",-11.356533207798844],["ivement",-11.35666449908287],["Big",-11.357229062715618],["fo",-11.357687819846824],["F1",-11.358024215068385],["Gar",-11.358171035183789],["conjointe",-11.358401673270041],["Méditerranée",-11.358501268863938],["82",-11.358531240677522],["protagoniste",-11.358537412678878],["Andrew",-11.35854662912144],["Gouvernement",-11.358553376170937],["Résultat",-11.358734084884968],["répète",-11.358762411361976],["concentre",-11.358825034050628],["parrainage",-11.358829083855582],["interruption",-11.35884204756466],["Nigeria",-11.358908655539908],["prudence",-11.358928040567392],["domestique",-11.359045872373557],["tragédie",-11.359148015750481],["OLED",-11.359300414281023],["répétition",-11.359451020447267],["abstention",-11.35957821999434],["transmission",-11.35970411043114],["considérer",-11.359742710809387],["conformé",-11.359863059504676],["Autorité",-11.359931152961966],["arriv",-11.359949975508],["riverain",-11.360118045333213],["doré",-11.360195024305266],["86",-11.360292163683786],["singe",-11.360335542829448],["oubli",-11.36034787616815],["VR",-11.360723462639802],["administrateur",-11.361099763562763],["internation",-11.361247890039436],["ens",-11.36127916167398],["apprécie",-11.361499979386046],["internationa",-11.361522309641963],["plonge",-11.361788464458687],["joint",-11.361880273659857],["fiscal",-11.361933236066362],["vieille",-11.362609439132545],["contenant",-11.362718004943666],["transmis",-11.362781818449708],["barrière",-11.362817483481653],["totalit",-11.362977252292755],["visité",-11.363318585142057],["denrée",-11.363875044102258],["sauvetage",-11.363883262748173],["occident",-11.363890480249859],["José",-11.363890826324035],["entreten",-11.364190489387367],["esthétique",-11.364405818024863],["Africain",-11.364504712014165],["abrite",-11.364554225216011],["ticket",-11.36456497851153],["connecter",-11.364719620350018],["dédiée",-11.364758873315218],["Nup",-11.36495844080433],["saisie",-11.365041984351409],["percuté",-11.365664808996003],["répondant",-11.365888819304223],["rése",-11.366058437006991],["archive",-11.366112771385463],["couvrir",-11.36644443639892],["rival",-11.36645374589877],["opérationnel",-11.367262543786751],["multiplié",-11.367784344531948],["Steven",-11.367951876635487],["gard",-11.368144004166505],["bourse",-11.368170522122423],["USA",-11.36856627472486],["déterminé",-11.368887357815945],["Ya",-11.369534333212908],["istan",-11.369624258582775],["félicite",-11.370025879575461],["recommande",-11.37051383383369],["Mohammed",-11.370613789023011],["19h",-11.37189326517855],["Dame",-11.372087009388393],["diplôme",-11.37277467559786],["photographie",-11.373035110506063],["Moussa",-11.373398610209366],["enchère",-11.374471800657602],["utter",-11.374588253935139],["Mauric",-11.37513537275608],["patrouille",-11.375665708246014],["disposer",-11.376064431884432],["résister",-11.37621876973505],["franco",-11.377100052788823],["intrigue",-11.377315032104732],["assemblement",-11.378089875793838],["Christin",-11.378188089092951],["Green",-11.378212008927125],["Camar",-11.378724023750909],["manifester",-11.378739139884267],["val",-11.379202728770672],["he",-11.379281425664809],["retourné",-11.37936560853485],["Tech",-11.379996066289621],["el",-11.380212102183394],["connecté",-11.380212980316552],["pack",-11.380698754715356],["communale",-11.380985594406631],["Européen",-11.381296560856715],["voyant",-11.381600311756587],["Gand",-11.38176570152798],["Sala",-11.381999917963572],["ber",-11.382660185813064],["ray",-11.382797058942817],["serre",-11.382901795867696],["Sky",-11.382913053608377],["alisation",-11.383193670659619],["avoue",-11.38334712531184],["remplir",-11.38340233889383],["œuf",-11.383991967693063],["formidable",-11.384142424058448],["cryptomonnaie",-11.38420777343199],["bulletin",-11.38424341411512],["gestionnaire",-11.384256942470541],["bagage",-11.384285405457323],["Provenc",-11.384290106934689],["centime",-11.38434693110227],["rose",-11.3843942347192],["suivie",-11.384396884436727],["mosquée",-11.38446544350949],["élevage",-11.384519503966075],["interpellation",-11.38459185458636],["variol",-11.384631585898909],["décisive",-11.38465602063293],["Rafael",-11.38471830678329],["burkinab",-11.384861255285635],["récupération",-11.384930156007467],["imag",-11.3849541844262],["joindr",-11.385099735826076],["Long",-11.385156104733213],["apparence",-11.385226362113013],["Égypt",-11.385633915348663],["Château",-11.38599802654316],["substance",-11.386283842246566],["Rie",-11.386561577198611],["mensonge",-11.386728657809265],["roquette",-11.386858549343932],["conten",-11.386884541251938],["inspection",-11.387022281161155],["considérée",-11.387592070151804],["schéma",-11.387753918313404],["Ryan",-11.387847642246403],["chapeau",-11.388140597341557],["emplacement",-11.38860539239464],["fêter",-11.388787389886112],["gamin",-11.388850280983103],["piège",-11.389066292849677],["enveloppe",-11.389230327360519],["déploré",-11.389906760557611],["tique",-11.390088189304475],["aît",-11.3903571770975],["Orient",-11.39043087336498],["Dio",-11.390699471999525],["Ange",-11.3909131291387],["sports",-11.391290196243851],["antenne",-11.392127996108934],["blé",-11.392429117975746],["Fi",-11.392449195672224],["Mark",-11.392816541813248],["agira",-11.392985342361001],["fraîche",-11.393305121369377],["fameuse",-11.393372811312876],["rondelle",-11.39342447403483],["Belle",-11.394433356672476],["evoir",-11.394576079206058],["accus",-11.394740384584319],["enregistrée",-11.394762467189054],["Thi",-11.395248081357432],["privilégié",-11.39544455267259],["Ar",-11.395493662722481],["Ta",-11.395763983800729],["rendement",-11.395841988323625],["centr",-11.395843873058032],["fac",-11.396374301078106],["adolescente",-11.39645234542793],["chauffage",-11.39645842431279],["agriculteurs",-11.396784304215567],["dougou",-11.397139814044012],["ho",-11.397242006453233],["ège",-11.397788830262598],["roues",-11.398398712186163],["ariat",-11.399357752421784],["ruine",-11.39954754010352],["Pog",-11.39969040393949],["gère",-11.400079649514936],["mette",-11.400282756622644],["grippe",-11.400601780532705],["inconnue",-11.401006578935752],["envoie",-11.401254003276422],["3000",-11.401382806855512],["WT",-11.401636002133902],["précéde",-11.402082940785117],["maximale",-11.402337934083675],["cett",-11.402435540584957],["erez",-11.402457660991521],["proie",-11.403376586402103],["réalis",-11.404243016502608],["Top",-11.40438181392913],["révision",-11.404707166533898],["im",-11.405659049920208],["achant",-11.40572812235799],["bert",-11.406234290109856],["salariale",-11.406511828611585],["ouffer",-11.407131566150731],["prononcer",-11.407159913820534],["constituer",-11.408166140071934],["patien",-11.408507190485082],["Xi",-11.408757246751456],["ailier",-11.409349204806366],["compréhension",-11.409678951288678],["ferroviaire",-11.410458087881304],["juridiction",-11.410458841664074],["Élysée",-11.410477008596995],["retrouv",-11.410552896347307],["surveille",-11.41059971783993],["penalty",-11.410606691952225],["GR",-11.410670439091305],["provocation",-11.410753802100139],["Tant",-11.4107829633411],["Drummondvill",-11.41083560752762],["détermin",-11.411289305360427],["rémunération",-11.411311862633982],["ample",-11.411453987819725],["folie",-11.411699697154694],["allégation",-11.411769571392194],["Armée",-11.4122349980669],["grandir",-11.412429889255684],["récession",-11.412489417238321],["fabriqué",-11.41262484276724],["attribué",-11.412771057333915],["activiste",-11.412895616193754],["amassé",-11.413208926048828],["Master",-11.413289547965809],["pêcheur",-11.413321493822144],["alloir",-11.413357488297631],["renouvelle",-11.413531942545498],["comté",-11.41367048500092],["genevois",-11.413930163275838],["manga",-11.414152679058596],["perçu",-11.414345810609625],["Hôtel",-11.41499206663596],["touchant",-11.415455215044894],["envisager",-11.41549561045431],["entouré",-11.415828489930314],["IA",-11.416082655083226],["Boy",-11.416115201541315],["éclaté",-11.416161384528863],["synonyme",-11.416181194139398],["CNR",-11.416749800036678],["han",-11.417413517240924],["pérer",-11.417918515300697],["iranienne",-11.418004924803734],["sembl",-11.41813861028376],["Berne",-11.41845629576115],["ée",-11.418611620073817],["progress",-11.418706032657326],["entrepris",-11.418771129778943],["Steve",-11.41904496577573],["Ja",-11.41905915842866],["gardé",-11.419271608607836],["demandeur",-11.419621390663002],["amako",-11.419642005858988],["poignée",-11.419904612520046],["mérité",-11.420132682431852],["urgent",-11.420829773340671],["lâche",-11.421411906683723],["pren",-11.42180058357972],["Miss",-11.421986717016239],["Bertra",-11.42211293888986],["gramme",-11.42235658919994],["compliquée",-11.422379438476753],["05",-11.422933470761762],["GP",-11.423226418535961],["tels",-11.424014095823788],["?\"",-11.424671745439824],["médecine",-11.425318208633925],["maîtriser",-11.425626015151057],["compteur",-11.425823123256206],["blague",-11.426386348780442],["accompagnée",-11.4264681326876],["anticipe",-11.427118007647758],["Victor",-11.427280173184409],["sert",-11.427457211920034],["empire",-11.427545185430589],["balance",-11.427605897911288],["buteur",-11.428207093722369],["5000",-11.42836608928473],["libér",-11.428413310118856],["Ko",-11.42851290579296],["Natha",-11.42887183855688],["École",-11.42935745985313],["colline",-11.429359061640351],["pharmacie",-11.429869212430958],["Capitale",-11.430334186080735],["racine",-11.430427442128133],["Dub",-11.431241163430151],["soulevé",-11.432427085561613],["om",-11.432479181790825],["Watch",-11.433767947725768],["intensif",-11.434114929678966],["Lapi",-11.434273866167391],["110",-11.435583379659981],["japonaise",-11.435641819720557],["connectée",-11.435863568460245],["défensive",-11.436291184709189],["renforcé",-11.436515319935799],["historien",-11.43694368408024],["Br",-11.437041733018868],["estim",-11.437175020043034],["assumer",-11.437275543267237],["Ndiaye",-11.437501773589345],["Confédération",-11.437527919106648],["géopolitique",-11.43752985502209],["cortège",-11.437530412692047],["dérive",-11.437544896089078],["examiné",-11.437561402179213],["vétérinaire",-11.437567812828604],["Gérald",-11.437653771109993],["douzaine",-11.438031314442926],["Luka",-11.438033967491165],["remboursement",-11.438102725835584],["légendaire",-11.438142330431905],["royaume",-11.438239669795571],["Orange",-11.438390298767176],["féministe",-11.438405325961368],["trailer",-11.438781913810704],["meurtrier",-11.438857607529407],["bloquer",-11.43919669698617],["langage",-11.439198741915567],["Jér",-11.43983763680411],["Messi",-11.440226321490636],["spécialité",-11.44051531328446],["Kenya",-11.440679757453665],["attire",-11.440951082130116],["Mor",-11.441421762935306],["chrono",-11.441490503008767],["Khark",-11.441712378992827],["malien",-11.44229137462101],["CO2",-11.442716110689249],["délibéré",-11.44273073051544],["Maire",-11.442773503235703],["assume",-11.442901879829158],["compare",-11.443312758937395],["exclusion",-11.443484785296382],["travaill",-11.443589738731198],["supermarché",-11.444347071144872],["renoncer",-11.444384624181163],["report",-11.444606930463713],["exigeant",-11.44488803119236],["Jan",-11.44505183339876],["VA",-11.445097747567457],["plafond",-11.446843972568242],["125",-11.44694829506118],["neutrali",-11.44710615586048],["prêter",-11.447262916191416],["onsieur",-11.447759689596825],["expérimenté",-11.447819961882809],["Th",-11.44794385648663],["gravit",-11.448555664156455],["suisses",-11.449073683218106],["rentré",-11.44915806235389],["Bang",-11.449414490216002],["restée",-11.449522762824781],["qualifiée",-11.449844547272555],["plaide",-11.450040329440352],["emporter",-11.450506529812266],["maîtrise",-11.45072395911342],["olsonar",-11.450765010621337],["distribué",-11.45102535548214],["échéance",-11.451326462167449],["canicule",-11.451613153334861],["rendue",-11.452062378760466],["machines",-11.452709390435679],["Météo",-11.452946908726553],["aboutir",-11.453033881995061],["inclu",-11.45364964148174],["ntre",-11.454040875314377],["Pix",-11.454140204589223],["restant",-11.454255895103177],["marchandise",-11.454417653929152],["Commerce",-11.45452238157024],["donn",-11.455640252153984],["Sel",-11.456061190723698],["ambulance",-11.456081202041796],["Souven",-11.457058979898932],["intime",-11.457821609793278],["aube",-11.457876402704372],["virtuel",-11.457956446839114],["visuel",-11.458404965776667],["97",-11.458882824417568],["parm",-11.460733737051813],["carbure",-11.461277020096569],["sollicité",-11.462552271013848],["applique",-11.462830080163092],["radicale",-11.463287659486868],["mportant",-11.463311304699301],["partagée",-11.46334462217866],["tapis",-11.463417563285876],["triple",-11.463588091260021],["modifié",-11.463816925739422],["acquér",-11.46454760696621],["existant",-11.464570625449017],["oigner",-11.464981910964497],["Montpelli",-11.465150000215997],["Telegra",-11.465298344933373],["Grégo",-11.465330295233397],["Crimée",-11.465337694766678],["Charlotte",-11.465343988719479],["thèse",-11.465361126273336],["Panther",-11.465398452155082],["permanence",-11.465439056924605],["Munich",-11.46544553939631],["fleuve",-11.465452822528743],["intègre",-11.465557468331431],["Bour",-11.465722684603904],["pédagogique",-11.46573719549789],["indemnité",-11.46574608574708],["préventive",-11.465872377636822],["permette",-11.46601934013522],["Ouat",-11.466049359529757],["Jacob",-11.46663244432513],["quarant",-11.46663762546449],["distributeur",-11.466658731140942],["Irland",-11.466699030207343],["réacteur",-11.467125415149834],["trottinette",-11.467194369166904],["trajectoire",-11.467196423166092],["agresseur",-11.467354238167104],["équip",-11.467790905676434],["Arnau",-11.468029211332759],["panier",-11.4680699759599],["inégalité",-11.468094102746155],["Mac",-11.468125472585463],["pénal",-11.468355527016863],["festiv",-11.468728281612991],["anonyme",-11.468767864315854],["effectue",-11.468974993454152],["180",-11.469109568854458],["Israélien",-11.46926106404965],["boulot",-11.469331813250246],["définition",-11.469591093538646],["mbledo",-11.471130545791484],["tabac",-11.471316457297487],["Marcel",-11.471479636087961],["Abdoul",-11.471586309537035],["nazis",-11.471855488812011],["manette",-11.472081794315196],["versé",-11.472663439779287],["Antho",-11.473169467290699],["Point",-11.473434243872173],["patiente",-11.473746349692908],["réaliste",-11.473792915211062],["examiner",-11.474152862850513],["composer",-11.474174934234307],["placement",-11.47417879156185],["rendra",-11.47430895328351],["réclamé",-11.474472138428704],["soumise",-11.474872847288612],["valu",-11.475647419276308],["tar",-11.475975042593657],["occupée",-11.476184814703055],["otage",-11.476416476410344],["citer",-11.476527422812401],["natal",-11.476869202728643],["Pi",-11.477137604463334],["Marchand",-11.477236630559133],["fréquent",-11.477519039879493],["fusion",-11.477962146940092],["analyser",-11.478778352551068],["scénariste",-11.479151295205204],["intelligent",-11.479333643631536],["chaude",-11.479531632453764],["veiller",-11.479570280017967],["planche",-11.479623932813903],["cheval",-11.480270183485482],["humoriste",-11.480364568303301],["galerie",-11.480766463097911],["convenu",-11.480931796632685],["méga",-11.481033290043904],["remplacement",-11.481088047928122],["golf",-11.481534961689245],["rassurer",-11.482385473711037],["survenue",-11.482623350993054],["maires",-11.48269587950127],["tilisant",-11.482886253011785],["allée",-11.48316249556505],["1500",-11.484815984255864],["loca",-11.485077810175325],["Second",-11.485144013442003],["ogo",-11.485184581325434],["échanger",-11.485703601204031],["résilien",-11.48634123292696],["prêté",-11.487272008782071],["Anna",-11.487362063752178],["détour",-11.487580577623914],["arrivai",-11.487661349951109],["soupçonné",-11.488525171152775],["Juste",-11.48871542269141],["jeté",-11.488761850609775],["Cond",-11.48928977528895],["mortel",-11.48956144597437],["sommeil",-11.489926100094022],["dévoiler",-11.490220684086749],["Hama",-11.4902208987198],["intitulé",-11.490318947707934],["Asi",-11.4907583155824],["regret",-11.490766680013776],["enlevé",-11.490848142769954],["étonnant",-11.490968780909409],["tagne",-11.491417668498112],["GT",-11.491473223223526],["câble",-11.49166417293325],["LE",-11.49183967085768],["Africa",-11.491874919066767],["coréen",-11.491895314586175],["souffrir",-11.492184478177784],["débarque",-11.492381202301585],["fui",-11.492993216730564],["Marco",-11.493139535781667],["stage",-11.49316775885029],["obtien",-11.493587393744388],["institut",-11.493809608470269],["´",-11.493834317329114],["épicerie",-11.493849614788745],["gazoduc",-11.493879001781863],["protestation",-11.493984871828205],["rêver",-11.494143896209309],["installe",-11.494290635128891],["pelouse",-11.494324063882836],["survivr",-11.494394214753223],["mutation",-11.494468323868475],["uni",-11.494592555043642],["accélération",-11.494840068037787],["adaptée",-11.494873313389837],["éthique",-11.494899651664376],["Adrien",-11.494978145672643],["accroît",-11.495003813192202],["variété",-11.495156130462885],["pavillon",-11.495311528262091],["riz",-11.495536342606673],["break",-11.495602990960725],["diminution",-11.495697703622461],["concentré",-11.49571359934682],["ime",-11.495788050236673],["randonnée",-11.495800750742308],["Hongr",-11.495888961688122],["inématographique",-11.496115604821538],["panique",-11.49641694855681],["Mat",-11.496544937859937],["cyclable",-11.496700596964597],["Monc",-11.497007441755382],["Racin",-11.497249556159385],["connaissai",-11.497349856103998],["distinction",-11.497396822185742],["Met",-11.498248665413142],["morte",-11.498617107526695],["dignit",-11.499115731463796],["incapable",-11.49989802897427],["terminal",-11.499924770362707],["Aviv",-11.50001939957638],["requête",-11.500066493146015],["mobiliser",-11.500261815975746],["anglaise",-11.500351472125477],["souhaitai",-11.501512909091845],["liaison",-11.501532325915724],["écouteur",-11.501823912855405],["Gu",-11.501913231297557],["descendr",-11.502463895625976],["diminuer",-11.502474676591946],["grille",-11.502674040188422],["stricte",-11.502711976665532],["voler",-11.502744533980884],["posture",-11.502807439307805],["contemporain",-11.50294714955611],["marine",-11.503104888142193],["SB",-11.503486341063374],["préven",-11.503892280799585],["arc",-11.504069830928842],["Algérien",-11.504509468486813],["ers",-11.50453405171518],["altitude",-11.505167677648227],["press",-11.505203557034685],["wa",-11.505427686721575],["hôte",-11.50666666915135],["faiblesse",-11.506942885992316],["Ghan",-11.506998004984387],["nage",-11.507313724711059],["Homme",-11.507397795075581],["retrouvée",-11.50759694049756],["93",-11.507970009402458],["job",-11.508779180850173],["démarrer",-11.509201957864093],["Anti",-11.509446512521672],["montage",-11.5096740906733],["appuie",-11.510012131908477],["recruté",-11.510364609284188],["contraste",-11.51127658333282],["insécurité",-11.511533587445998],["Francis",-11.511585496684788],["Mayo",-11.512211438767066],["magi",-11.512375180046611],["agénaire",-11.513509178510533],["ourir",-11.513559469013625],["rond",-11.514375804001121],["Ky",-11.514475043607165],["Dia",-11.514742321923956],["urgences",-11.515059771653085],["Rio",-11.515408288539343],["sonore",-11.516229304523591],["glisse",-11.516255576477398],["orchestre",-11.516582508323355],["91",-11.516592137116643],["cédé",-11.517167882033092],["Benz",-11.517171600311645],["polonais",-11.517342590074598],["essais",-11.51798810808456],["onald",-11.518302217893734],["Ru",-11.518628269664884],["avo",-11.518744992842333],["riez",-11.518820884588754],["inspire",-11.518946193008162],["robe",-11.519040370626842],["résidentiel",-11.51918414219426],["conseille",-11.519338197008075],["Mille",-11.51985535985754],["exigé",-11.520977612547693],["monte",-11.52135877505428],["représent",-11.521404875919117],["unie",-11.521694628476407],["ett",-11.521771345670807],["comprenne",-11.522132707159297],["soumettr",-11.522208547527766],["adore",-11.523246408364235],["homicide",-11.523247691967727],["jouai",-11.523253519331613],["Église",-11.523254895735228],["America",-11.523255914445102],["raisonnable",-11.523258890694539],["CEDEA",-11.523317891483439],["façade",-11.523354570816682],["créature",-11.523402903350062],["intérim",-11.523438897697037],["Burund",-11.52348928744544],["Prince",-11.523598568545811],["catastrophique",-11.523642766231935],["oux",-11.523785549856067],["téléviseur",-11.52391104056892],["Hugh",-11.523916682610114],["progressiste",-11.523924541402064],["révéler",-11.52414219313566],["injection",-11.5241607900074],["définitif",-11.524194051371566],["Romain",-11.52421366126436],["inévitable",-11.524528736280477],["Titan",-11.524680218836474],["virage",-11.5247772862948],["Lille",-11.525128693526202],["Sau",-11.525326424208618],["inculpé",-11.525414505611195],["soulage",-11.525477237387603],["survivant",-11.526282302948344],["meuble",-11.526391282783951],["rembourser",-11.526512102136934],["promenade",-11.526573037792215],["Maria",-11.526746112812631],["Moyen",-11.527143737200806],["arrivant",-11.527144358813482],["Trop",-11.527433573705746],["JO",-11.527535719867124],["verser",-11.527642958716159],["Rouman",-11.5278390078538],["renverser",-11.528333809280811],["pilier",-11.528847711687584],["adoptée",-11.528971257387209],["insoumis",-11.52910761625323],["magique",-11.529204013917964],["manifesté",-11.529332483130617],["RE",-11.529368736414542],["attent",-11.529405619314781],["contesté",-11.529561382207078],["signalement",-11.52968569858957],["Abou",-11.529712292476914],["priori",-11.529791597996013],["slogan",-11.530307477441129],["serveur",-11.53030907513526],["sui",-11.53072562178524],["diesel",-11.530748209643193],["Har",-11.530837366789582],["réside",-11.531061615743642],["clou",-11.531332138732925],["Space",-11.531683599227907],["Pou",-11.532238073807456],["92",-11.532457328936626],["psychologue",-11.532900906063219],["endommagé",-11.532937808559895],["Brad",-11.533207072488473],["Tr",-11.533359806928157],["transforme",-11.533611444945416],["parcelle",-11.533742357833937],["herbe",-11.53385934441505],["qualifie",-11.534346734283758],["uivre",-11.534397921964509],["Lac",-11.534864882506493],["merci",-11.535230314726848],["suspens",-11.535444362906004],["cesser",-11.535533212271895],["nourrir",-11.536015939030012],["SM",-11.536263815671951],["détecté",-11.536374372464183],["Time",-11.53661661792445],["libérale",-11.536731231068233],["inclus",-11.5368189718072],["élue",-11.53689244966072],["cherché",-11.53699849216154],["pareil",-11.537384768340925],["devise",-11.537482963938153],["étudiante",-11.537498844897673],["chev",-11.537665669697445],["Ain",-11.538022974902034],["construite",-11.538261907344513],["turque",-11.538297081225515],["Thor",-11.538830999665027],["ouvain",-11.538884421807914],["OTA",-11.539204235280305],["file",-11.539422859975693],["Sarr",-11.539924397096652],["inquiétant",-11.54022656184722],["affirma",-11.540330928709821],["ralentir",-11.540403911854114],["Énergie",-11.540411405690708],["jugée",-11.540753651792215],["partant",-11.540757786580048],["Nou",-11.540920650000547],["estivale",-11.541065336351911],["charte",-11.541168257195997],["enco",-11.541381557971416],["ten",-11.541526172665026],["opposer",-11.541783333632466],["09",-11.542633700560435],["croissant",-11.54267894320597],["20h",-11.542775240651014],["ités",-11.543067607811626],["sobri",-11.543089760768641],["ama",-11.544208710351331],["gains",-11.544260017596871],["apparu",-11.54437941530713],["consensu",-11.544887807769122],["malaise",-11.545233719862749],["Évi",-11.545524616739012],["AT",-11.545584788409801],["Russ",-11.545694560179431],["déploy",-11.545695538722002],["tester",-11.545945669608862],["140",-11.546320764634167],["He",-11.546390648666566],["dur",-11.546746799560974],["Hu",-11.546856479489088],["voic",-11.546977154046308],["accept",-11.547095575810742],["oalition",-11.547174483246298],["REM",-11.547633701883365],["Min",-11.548154521841033],["heureu",-11.548447464617688],["exemplaires",-11.549057870873362],["Anglais",-11.549147716469225],["wallon",-11.549584236698877],["ron",-11.549862920301806],["déclar",-11.55000368120934],["Will",-11.550056658537004],["généré",-11.550087318383767],["apprécier",-11.55009858715102],["boucle",-11.550203034748101],["stand",-11.550474679682795],["apparente",-11.551245795855145],["redonner",-11.55131593957194],["Mary",-11.551456413173602],["philosophi",-11.551948352046818],["génie",-11.551989725915478],["réduite",-11.552836977593067],["offensif",-11.552863194622455],["perquisition",-11.553247070037441],["hebdomadaire",-11.55354911302513],["fair",-11.553565510332561],["blindé",-11.553575752544448],["Gérard",-11.553608267062675],["verdict",-11.553639646204374],["fichier",-11.55368221496876],["Autrich",-11.553735414923281],["Thibau",-11.553776558173904],["bibliothèque",-11.553785054405516],["respiratoire",-11.553817842934182],["réglementaire",-11.55385514166866],["Darman",-11.553915816940503],["mystère",-11.553937475982007],["dépistage",-11.553948059582815],["drastique",-11.553969303427378],["implantation",-11.553978604783264],["sécurisé",-11.554019305054549],["crédible",-11.554048707689912],["contestation",-11.554053618004739],["détresse",-11.55406121255752],["Olympique",-11.554118230905871],["infirmier",-11.554177187071922],["fauteuil",-11.554177506414048],["peloton",-11.554186597987298],["marcher",-11.554240192380021],["puce",-11.554643202116651],["réputé",-11.554720235431754],["incidence",-11.554993190145197],["Vienne",-11.555051265179372],["inquiet",-11.55506666629156],["princesse",-11.555466130346364],["evant",-11.555503834312004],["prétext",-11.55565828358687],["Virgini",-11.555692715012214],["glissement",-11.555751449177963],["déjeuner",-11.555865291791763],["consultant",-11.555938190265152],["asiatique",-11.556072685162981],["programmé",-11.556136783711082],["intellectuel",-11.556236494839037],["agglomération",-11.556351604751175],["Noir",-11.556619180296073],["furent",-11.55666104172596],["futurs",-11.556732400292155],["uite",-11.557169605789717],["Touj",-11.557463803328542],["Ram",-11.557750316372513],["protège",-11.558070483018678],["malienne",-11.558283547516531],["Web",-11.558833374494206],["NU",-11.559164640095128],["successeur",-11.559190319076057],["amendement",-11.55944790592467],["tunisienne",-11.559652309773963],["Aliou",-11.559706550809825],["adepte",-11.55991979656415],["Casab",-11.560798912665481],["exploitant",-11.56115711075649],["transmettr",-11.561375511221286],["Bal",-11.56139648300974],["fondée",-11.561420754545257],["balade",-11.561427087460295],["diplômé",-11.561463901253138],["incarné",-11.56150081794959],["artifice",-11.561602278563232],["amène",-11.5617171591668],["Batm",-11.562363685026032],["Mal",-11.562647428678112],["réparer",-11.563742126519157],["Trembla",-11.563772464649611],["Liz",-11.563824053967604],["êtr",-11.564432523488259],["riposte",-11.564907682620861],["saint",-11.565361782999934],["Né",-11.565371917580274],["Rousse",-11.565600296904039],["gan",-11.565665889230326],["tweeté",-11.565801235642036],["chanter",-11.566342366291885],["attiré",-11.566562831144575],["sénégalaise",-11.566634848200746],["pôle",-11.56731685399167],["admet",-11.567740770043347],["ntaine",-11.56805965176708],["satisfai",-11.568240538439143],["mystérieu",-11.568312649176466],["Jeff",-11.568337185668097],["passera",-11.568591664645218],["jihadiste",-11.568595813495483],["espére",-11.568630315939664],["tendre",-11.568749123520416],["Even",-11.569061883861213],["Congr",-11.569079467544777],["contacter",-11.569415775927588],["helem",-11.569459872819781],["coopérative",-11.569529026422423],["Con",-11.570506934169556],["footballeur",-11.570911755469108],["prudent",-11.57101930304477],["\"\"",-11.571334174656899],["utre",-11.57137967019352],["habite",-11.571491227619438],["manquement",-11.571723854759753],["amélioré",-11.572005844468116],["pixel",-11.572953882262311],["rapproche",-11.573862055086927],["imposant",-11.574382394220484],["ANA",-11.57440494957763],["Eh",-11.574506161674204],["apparaîtr",-11.575061825344958],["Milla",-11.575782785488073],["exécuté",-11.576859634812504],["hésit",-11.576934184380992],["Brig",-11.577117673101831],["remplaçant",-11.577308644434178],["congolais",-11.577367094774115],["cacher",-11.577371839717026],["index",-11.57738341378145],["ékin",-11.577688885053792],["restreint",-11.578564890482847],["socio",-11.578942918399122],["vois",-11.578968484033766],["abordé",-11.579184378838839],["Fer",-11.579805313717987],["God",-11.579976845349545],["croisé",-11.581522677987923],["AGE",-11.58165582196841],["tunisien",-11.58176519965497],["Av",-11.582169629565383],["pain",-11.58297469554754],["190",-11.583070590369426],["constitué",-11.583324281019603],["explose",-11.58407498318886],["déployée",-11.584186370460138],["Niger",-11.584523770381484],["Shaw",-11.584693151811233],["renseigne",-11.584739920092554],["mercenaire",-11.584800307518147],["fantôme",-11.584803588309281],["vérification",-11.584825804336074],["compositeur",-11.584866297996474],["Libye",-11.584895410810722],["autoriser",-11.58507820808338],["réglementation",-11.585099412992696],["assiste",-11.585144515103739],["démonstration",-11.585205464190508],["inclusif",-11.585210092601343],["Secrétaire",-11.585247054878977],["valable",-11.585377630001831],["idéologique",-11.585484170602957],["confortable",-11.585743360483109],["discrète",-11.585753226744592],["régulation",-11.585811866385054],["Rama",-11.58582471456935],["interrogation",-11.585909364539436],["décisif",-11.586042345747025],["Dragon",-11.586124941324389],["échoué",-11.586275859377789],["animée",-11.586302414364543],["Hassan",-11.586473430591647],["mor",-11.586675762318695],["fixer",-11.586810612585271],["consacrée",-11.586874143265362],["Col",-11.587323413503062],["fillette",-11.58746478923575],["Award",-11.588013960319905],["potable",-11.588437639770692],["république",-11.588573942345512],["blanchi",-11.588704287500775],["Grè",-11.589070652353401],["Unite",-11.58923455555113],["Ferra",-11.589263114503826],["March",-11.589288324594579],["luxembourgeois",-11.58934927898156],["rire",-11.589682507573585],["metteur",-11.590117795001433],["allocation",-11.590122933200282],["Cyril",-11.590453327673194],["pacifique",-11.590542193833727],["Char",-11.591124041300043],["Parisien",-11.591541904080046],["ascension",-11.591619628979087],["sauvé",-11.591634764283805],["saoudi",-11.591635255995984],["vivai",-11.591795967915424],["caus",-11.592002765234046],["arkozy",-11.592110339313765],["zon",-11.592887986803657],["évalué",-11.592902453795379],["Robin",-11.593181864528884],["AC",-11.593558582202867],["160",-11.593721236982574],["Retour",-11.593925954271935],["Bennet",-11.594154791973168],["mensuel",-11.594260437392432],["lent",-11.595064833153865],["assistant",-11.59528991288883],["stein",-11.59563998501464],["ert",-11.596498871704753],["Spu",-11.596684736446793],["landais",-11.596910806876577],["Yanni",-11.59700641923366],["ë",-11.597174117567734],["Wout",-11.59789329169161],["céder",-11.598229399513977],["bleue",-11.598417642237516],["SG",-11.598510516114574],["Américaine",-11.598675702645089],["renfort",-11.598900802776242],["auf",-11.598984749586933],["canal",-11.599074227328641],["11h",-11.599429370359248],["grossesse",-11.59980042363453],["genou",-11.600457095647762],["toxique",-11.600735011413196],["sacrifice",-11.600795108037232],["Croat",-11.601600864238574],["né",-11.601732329585495],["domination",-11.602052943860501],["CR",-11.60250210348191],["fondamenta",-11.60253244793267],["dos",-11.602608577357577],["plonger",-11.602699719582844],["Programme",-11.602803218918952],["imaginé",-11.602869170669281],["pénétr",-11.603089166001135],["Global",-11.60324648827686],["tendu",-11.60324920488152],["rassembler",-11.60326997177745],["Com",-11.604340446772877],["fonctionn",-11.605532220028302],["émerge",-11.605536798911256],["décid",-11.605620666435211],["évité",-11.605737964270098],["Che",-11.606132595285791],["définir",-11.606303173942635],["roy",-11.606470900642798],["Ros",-11.607425658533566],["br",-11.607734944874167],["Pont",-11.607878319218877],["Polic",-11.608343319817255],["recensé",-11.608755307264214],["procurer",-11.608860772296142],["ouvrant",-11.609123793484788],["ralenti",-11.610108877624793],["avoué",-11.610123355413954],["ondation",-11.610167653415568],["Cité",-11.610206470935145],["gang",-11.610732869924618],["tres",-11.611063459195112],["alles",-11.611314176408493],["Mb",-11.611390431466772],["at",-11.611544838839045],["achète",-11.611601703977037],["déclin",-11.611824253037268],["PN",-11.61225641728264],["ney",-11.612523415192967],["ilité",-11.613453466713029],["gri",-11.613892105350418],["Bleu",-11.6140926203707],["Rein",-11.614355437124996],["attache",-11.615998696068113],["hyper",-11.616125173481311],["chimique",-11.616209969748585],["PL",-11.6163444399441],["Toulous",-11.61667144736229],["ac",-11.616859841419194],["embarque",-11.616905050819234],["Émirat",-11.617058329408522],["Bruxellois",-11.617074856901667],["miracle",-11.617087311554194],["propagation",-11.617104439616895],["rafraîchissement",-11.617332049216937],["indemnisation",-11.617378373743678],["Raymond",-11.617394572712449],["bitcoin",-11.617583477169584],["inaugur",-11.6176060235207],["Antoni",-11.617843475575485],["approbation",-11.618014719696454],["citant",-11.618253667694866],["Studio",-11.618278416714505],["statue",-11.618366486639292],["reportage",-11.618531897828646],["décroché",-11.618601557858323],["SPV",-11.61882179204525],["entamer",-11.619253321198206],["syrien",-11.619606585537271],["soutenue",-11.619942051404879],["entame",-11.620075502519617],["enregistrer",-11.620106756137105],["Franck",-11.620201186746817],["secrète",-11.620479233914342],["failli",-11.620550329288214],["leadership",-11.620633593330844],["icône",-11.620806916731485],["appuyé",-11.620992764432527],["senti",-11.621027417798896],["corriger",-11.621321588392513],["compren",-11.62166251521925],["wer",-11.622293775651144],["démenti",-11.622323461899889],["envergure",-11.622459926681882],["mie",-11.622502711647858],["détenteur",-11.622661214023557],["opu",-11.623237272082942],["effondrement",-11.623313590344186],["Roi",-11.623315448946201],["portion",-11.623418886174996],["AL",-11.623666386455158],["économiser",-11.624155488545775],["annonçai",-11.6242361045582],["commente",-11.62429016919954],["marchand",-11.62439495988994],["ollah",-11.625870793924857],["Kan",-11.626122199299845],["dirai",-11.626182414290511],["palestinienne",-11.626216460519363],["Stream",-11.626318419378837],["brutale",-11.626344257054008],["valide",-11.626590043680066],["ira",-11.626731542724354],["Tandi",-11.627036717827579],["Camill",-11.627083368291144],["préserve",-11.62717565355303],["transactions",-11.627361854834234],["cassé",-11.627426995504035],["guise",-11.628120427292089],["rage",-11.628365867162005],["supprimé",-11.628757120838957],["adresser",-11.628786103250599],["Barc",-11.628874670013204],["Noire",-11.628988718153053],["confiée",-11.629322373741328],["An",-11.629486987539892],["04",-11.62948770154479],["tirage",-11.629587462673808],["démarré",-11.629960859283344],["syndical",-11.63004957204606],["otamment",-11.630406877578952],["publi",-11.63049837830322],["patin",-11.631157962327691],["subit",-11.63121765351131],["absolue",-11.631277964840425],["label",-11.631628773963579],["négative",-11.631637957984307],["débours",-11.633736508831928],["Rock",-11.633759758236401],["limitation",-11.634458178097342],["approfondi",-11.634567346451009],["déroulée",-11.635069406860804],["foire",-11.635422348887651],["ador",-11.63593588102799],["Amado",-11.635987556567937],["Canal",-11.636433985614532],["Contre",-11.636473253766221],["SE",-11.636764848735105],["financé",-11.636922067710456],["encadre",-11.637109363551051],["renvoyé",-11.637160382477056],["constitution",-11.63746938813765],["étroite",-11.638296903315295],["engou",-11.63860076556056],["grec",-11.638774253204096],["urnes",-11.638805298150826],["exagon",-11.638923917101334],["nommée",-11.639076291929952],["tire",-11.63943571441875],["sérieu",-11.639557398831787],["Europ",-11.639604761059136],["ov",-11.640522260222316],["parvienne",-11.640591705033376],["mouri",-11.64063742175161],["bulle",-11.64072467030839],["envahi",-11.641833814318536],["Total",-11.641934182937279],["pop",-11.642319365725609],["oût",-11.642361716122606],["arrache",-11.642397202383428],["02",-11.642437879368108],["chalet",-11.642639741507846],["Jim",-11.642859770594379],["visan",-11.643148425347627],["demeurer",-11.643548230854151],["fournit",-11.643576164538619],["iment",-11.643821514889751],["transporter",-11.644394751897813],["permanente",-11.644746094514682],["témoigner",-11.644819718665975],["Baie",-11.644831102488194],["éleveur",-11.645854155659695],["municipa",-11.64699993820438],["écrite",-11.647178064215352],["quai",-11.647493835679223],["amuse",-11.647687596351123],["appé",-11.647985857305423],["autrice",-11.64821076260203],["australien",-11.648411251117498],["réchauff",-11.648439053610922],["Bri",-11.649299141279329],["Somme",-11.649646429181162],["importé",-11.649679305653777],["remontée",-11.649774525994935],["ach",-11.649833721196945],["Bonne",-11.649957483650727],["ransition",-11.6500401612488],["Journal",-11.650162392061583],["thérapie",-11.650363258143019],["²",-11.650390510187489],["curiosité",-11.650393569117439],["propagand",-11.650396028627727],["Hôpita",-11.65040426864918],["cigarette",-11.65040432711993],["XIX",-11.650419739811543],["Chevalier",-11.650420060922919],["cyberattaque",-11.650609742572541],["fourniture",-11.65073946770692],["Hier",-11.6508839147771],["modalité",-11.65104861963579],["camping",-11.651222885092228],["artillerie",-11.651253992612352],["Pedro",-11.651639838218387],["forum",-11.651652034615168],["recherché",-11.65167679149987],["écologi",-11.651915252415709],["biologique",-11.651983453833017],["tragique",-11.65198801717105],["cathédrale",-11.652113651544644],["suggère",-11.65219729532296],["réitéré",-11.652413241580566],["anonym",-11.65307450476882],["compenser",-11.653121898963153],["…)",-11.653291025637143],["Arrivé",-11.653308032946914],["charme",-11.653309425961881],["dévoilée",-11.653376805911495],["incarner",-11.653660614152347],["Ronald",-11.653891208614013],["lizzard",-11.653966288982675],["taxi",-11.65425643406164],["optimiste",-11.654331645469158],["demandai",-11.654446781619773],["illustré",-11.654601217132882],["Far",-11.65468436982383],["94",-11.654739297790941],["Roussel",-11.65481280195418],["Ell",-11.655437179921856],["Fox",-11.655438313433528],["étend",-11.655535381337703],["renchéri",-11.655849154981984],["appelée",-11.656196925804245],["traduir",-11.65648906094771],["réfléchi",-11.656661389932168],["courriel",-11.656874455821573],["IV",-11.657258010591667],["faibles",-11.657327112897216],["carrefour",-11.657412972889293],["203",-11.65747888203012],["AM",-11.657740224905195],["appliquée",-11.65806405201253],["travaillai",-11.658086841124547],["import",-11.658179305106264],["Boucher",-11.65848680078463],["explosé",-11.659123161308049],["crypto",-11.659438232758289],["Nor",-11.660199585507241],["parfum",-11.660424018787484],["dîner",-11.660598457978729],["agressé",-11.660782517429992],["Nicole",-11.66105214131582],["pair",-11.661735348170595],["sèche",-11.661968213196078],["pâte",-11.662156134988525],["bascule",-11.662383869719129],["couver",-11.662518789430322],["exploité",-11.6628931009647],["escroquerie",-11.662907885177438],["délicat",-11.663355964909272],["salue",-11.66386363164283],["rou",-11.663979075757766],["boisson",-11.664139608759623],["Fo",-11.664267094020836],["Lui",-11.664394771339499],["rouler",-11.664428746134174],["domine",-11.664569074914013],["abouti",-11.664569893553596],["étiquette",-11.66464941037644],["15h",-11.665265080582595],["arros",-11.665336066624448],["remporte",-11.665536232680829],["bâti",-11.666040831503032],["fusil",-11.666381499056673],["ein",-11.666617068815636],["ifficile",-11.667075287099053],["modéré",-11.667985564610401],["Neuve",-11.668286519062368],["exploite",-11.668327030629904],["boire",-11.668475772262784],["Mons",-11.668576443228318],["plate",-11.668579236794503],["rent",-11.668649054116047],["NF",-11.66894448786746],["perturbé",-11.669155520740018],["MC",-11.66965971501092],["jet",-11.670053233180557],["avéré",-11.670523917135398],["tracé",-11.671099090109204],["cloche",-11.671263839297135],["séduit",-11.67152038164719],["battant",-11.671553579979626],["Berger",-11.672064299007076],["insecte",-11.672431455918097],["orthodoxe",-11.672611153467418],["repère",-11.672766342121957],["lanceur",-11.673264690615232],["HC",-11.673331015166145],["divise",-11.673459963806877],["10h",-11.673542372753815],["lâché",-11.673918932698582],["ger",-11.67432159423961],["Fair",-11.674401236352205],["effectuée",-11.674564317169867],["Sorti",-11.674852813292393],["amont",-11.67559500704308],["Feder",-11.6761448275013],["emblée",-11.676382169024],["ta",-11.676457671622224],["opérationnelle",-11.676652250704539],["pui",-11.676918748546385],["précoce",-11.677304000904462],["ww",-11.67741069956498],["consulté",-11.67764670772363],["hu",-11.67855255173051],["contenter",-11.67855315255402],["unis",-11.678980323685753],["logo",-11.679114001853549],["col",-11.679878492173568],["drôle",-11.68012222345537],["indiquer",-11.680176331509713],["prolongé",-11.68038340082192],["posée",-11.68062603671977],["échangé",-11.680840222619036],["externe",-11.68084683827171],["ignan",-11.680861193336916],["affirmer",-11.68145858558901],["bris",-11.68198884396607],["congr",-11.6822077500681],["XX",-11.682316664621936],["prédi",-11.68242160126216],["mesur",-11.682461805429984],["nier",-11.682584307928261],["nent",-11.68277689285322],["pirate",-11.68324191968868],["légume",-11.683325340348372],["valorisation",-11.683402649292141],["débutera",-11.68402283641426],["feuilles",-11.684393273802977],["challenge",-11.684438347611902],["préliminaire",-11.684873990256634],["Windows",-11.684876963857153],["particularité",-11.684885471018472],["Norvégien",-11.684894903115632],["Knight",-11.684903366817908],["échevin",-11.684913884344162],["publicitaire",-11.68492534882964],["Elysée",-11.684937092039142],["Lorrain",-11.68495019834809],["portugais",-11.684975456564251],["Ouaga",-11.684980664800173],["prouve",-11.685012419013457],["confusion",-11.685072069701043],["Xiaomi",-11.685110984485299],["paisible",-11.685126428502626],["prénom",-11.6851788332566],["pénalité",-11.68537416265587],["Villeneuv",-11.6853810766385],["Cédri",-11.685429832233682],["mettra",-11.685723755362243],["Hydro",-11.685741420669933],["Carl",-11.685761280323463],["?»",-11.685952165054005],["trilogie",-11.686090019298726],["Holland",-11.686090898286245],["tissu",-11.686156593015646],["directive",-11.68663313924862],["indication",-11.686663661003337],["suffrage",-11.686704700527374],["stupéfiant",-11.68678252981238],["Swiss",-11.687289507063033],["CHU",-11.687315509428107],["impliqua",-11.687466552895751],["gabonais",-11.687731697872906],["restaurateur",-11.687752395281395],["facilité",-11.687977552698216],["attraction",-11.688054460906535],["Tampa",-11.688240718934322],["ros",-11.688309588232752],["risqu",-11.688329165013313],["échelon",-11.688534761170976],["stopper",-11.688817416884827],["MT",-11.689376196541215],["travaillant",-11.689491189091015],["affrontent",-11.689502615463073],["mail",-11.690350921980748],["intégral",-11.690907085778186],["confirmée",-11.691157643946903],["riv",-11.691189535407378],["étudié",-11.691256356151014],["Norv",-11.691289462452982],["Arth",-11.691948994856345],["Rocket",-11.692282585640806],["réconcili",-11.692514340382456],["SAN",-11.692682456597453],["rive",-11.692936109215951],["ïv",-11.692995443214821],["accords",-11.693676000374952],["liant",-11.693972162811878],["onko",-11.694142309415867],["module",-11.694511012563204],["Modern",-11.694808209472445],["performant",-11.69540915543322],["généra",-11.695423240191289],["aimer",-11.695437001178938],["islam",-11.695463186106352],["Lewi",-11.695484821835844],["Matt",-11.695500442637304],["prononcée",-11.695506758009081],["gilet",-11.695642617383763],["générer",-11.69577548997664],["funérai",-11.695852314597694],["envol",-11.695901529582274],["enregistre",-11.696080621132145],["notable",-11.696447397795247],["soudain",-11.69672719208144],["neuv",-11.696960510390953],["couler",-11.697681541705307],["Ultra",-11.698153127986883],["autorisée",-11.698157743149732],["vaincu",-11.6983345190359],["ache",-11.698372248454895],["cross",-11.698650076292935],["sanctionné",-11.699178234823762],["ab",-11.699237683509587],["deuil",-11.699265941473621],["Irak",-11.699448703961673],["relâche",-11.69946723278865],["lunette",-11.700404340476785],["œur",-11.70060857557187],["juré",-11.700622150337859],["brûlé",-11.701066903198889],["soupçon",-11.701677274339822],["ey",-11.702274784451928],["ak",-11.702748581128972],["Brian",-11.703016381413734],["surnommé",-11.703255644927285],["Atlas",-11.70326020303662],["constitu",-11.703288521415821],["Mada",-11.703859090269365],["tube",-11.703889847909629],["viation",-11.704026380509212],["atténue",-11.704037281862483],["Renau",-11.704244558282552],["inauguré",-11.70447341665831],["renouvelé",-11.70504928257019],["gissant",-11.705470433478636],["immigré",-11.705544001395587],["reçoive",-11.705568678298377],["départemental",-11.70584060806544],["Sy",-11.70605718384287],["axe",-11.706256036741154],["BB",-11.70640475673645],["printe",-11.70646290297374],["voile",-11.70703070675434],["Arc",-11.707771608242837],["Fed",-11.708017383254044],["450",-11.708173131148213],["consigne",-11.708200246313035],["Jin",-11.708383906128073],["Lucas",-11.708463862065834],["Kent",-11.709193320286326],["reporté",-11.709950274704527],["arrêtée",-11.710347235951083],["croyai",-11.710449876077206],["mortelle",-11.710520120723624],["complice",-11.710633253945563],["vend",-11.710664062824677],["légale",-11.710689190115136],["recense",-11.711100354219202],["susciter",-11.711281342628915],["plaint",-11.711496051279124],
[...]
