{"version":"1.0","truncation":null,"padding":null,"added_tokens":[{"id":0,"special":true,"content":"<UNK>","single_word":false,"lstrip":false,"rstrip":false,"normalized":false},{"id":1,"special":true,"content":"<SEP>","single_word":false,"lstrip":false,"rstrip":false,"normalized":false},{"id":2,"special":true,"content":"<MASK>","single_word":false,"lstrip":false,"rstrip":false,"normalized":false},{"id":3,"special":true,"content":"<CLS>","single_word":false,"lstrip":false,"rstrip":false,"normalized":false}],"normalizer":null,"pre_tokenizer":{"type":"Whitespace"},"post_processor":null,"decoder":null,"model":{"type":"WordPiece","unk_token":"<UNK>","continuing_subword_prefix":"##","max_input_chars_per_word":100,"vocab":{"<UNK>":0,"<SEP>":1,"<MASK>":2,"<CLS>":3,"!":4,"\"":5,"$":6,"%":7,"&":8,"'":9,"(":10,")":11,"*":12,"+":13,",":14,"-":15,".":16,"/":17,"0":18,"1":19,"2":20,"3":21,"4":22,"5":23,"6":24,"7":25,"8":26,"9":27,":":28,";":29,">":30,"?":31,"A":32,"B":33,"C":34,"D":35,"E":36,"F":37,"G":38,"H":39,"I":40,"J":41,"K":42,"L":43,"M":44,"N":45,"O":46,"P":47,"Q":48,"R":49,"S":50,"T":51,"U":52,"V":53,"W":54,"X":55,"Y":56,"Z":57,"`":58,"a":59,"b":60,"c":61,"d":62,"e":63,"f":64,"g":65,"h":66,"i":67,"j":68,"k":69,"l":70,"m":71,"n":72,"o":73,"p":74,"q":75,"r":76,"s":77,"t":78,"u":79,"v":80,"w":81,"x":82,"y":83,"z":84,"~":85,"£":86,"¦":87,"«":88,"®":89,"°":90,"²":91,"³":92,"´":93,"·":94,"º":95,"»":96,"¼":97,"½":98,"À":99,"Á":100,"Ä":101,"Å":102,"Ç":103,"È":104,"É":105,"Ê":106,"Î":107,"Ï":108,"Ô":109,"Ö":110,"×":111,"Ø":112,"Û":113,"à":114,"á":115,"â":116,"ã":117,"ä":118,"å":119,"æ":120,"ç":121,"è":122,"é":123,"ê":124,"ë":125,"ì":126,"í":127,"î":128,"ï":129,"ð":130,"ñ":131,"ó":132,"ô":133,"õ":134,"ö":135,"ø":136,"ù":137,"ú":138,"û":139,"ü":140,"ā":141,"ă":142,"ć":143,"č":144,"ē":145,"ğ":146,"ļ":147,"ł":148,"ń":149,"Ō":150,"ō":151,"Œ":152,"œ":153,"ř":154,"ş":155,"Š":156,"š":157,"ū":158,"Ÿ":159,"ž":160,"ș":161,"̀":162,"́":163,"̂":164,"̈":165,"̧":166,"α":167,"а":168,"е":169,"с":170,"ᵉ":171,"‐":172,"‑":173,"‒":174,"–":175,"—":176,"―":177,"‘":178,"’":179,"“":180,"”":181,"‡":182,"•":183,"…":184,"‰":185,"′":186,"″":187,"‹":188,"›":189,"₂":190,"€":191,"™":192,"−":193,"▪":194,"▶":195,"◆":196,"☹":197,"♦":198,"✍":199,"✓":200,"❤":201,"➢":202,"➤":203,"":204,"ﬁ":205,"ﬂ":206,"️":207,"﻿":208,"##8":209,"##0":210,"##T":211,"##B":212,"##n":213,"##t":214,"##e":215,"##r":216,"##p":217,"##i":218,"##s":219,"##a":220,"##u":221,"##c":222,"##h":223,"##d":224,"##é":225,"##o":226,"##f":227,"##m":228,"##g":229,"##z":230,"##k":231,"##q":232,"##l":233,"##x":234,"##G":235,"##»":236,"##v":237,"##j":238,"##K":239,"##b":240,"##y":241,"##C":242,"##D":243,"##P":244,"##w":245,"##ó":246,"##́":247,"##9":248,"##H":249,"##3":250,"##5":251,"##ï":252,"##2":253,"##4":254,"##I":255,"##A":256,"##S":257,"##è":258,"##F":259,"##J":260,"##ô":261,"##ç":262,"##ê":263,"##ö":264,"##O":265,"##R":266,"##M":267,"##L":268,"##û":269,"##E":270,"##6":271,"##â":272,"##V":273,"##X":274,"##1":275,"##U":276,"##7":277,"##N":278,"##)":279,"##,":280,"##ë":281,"##î":282,"##ü":283,"##…":284,"##.":285,"##\"":286,"##Z":287,"##Q":288,"##ä":289,"##œ":290,"##Y":291,"##ł":292,"##̀":293,"##à":294,"##̧":295,"##'":296,"##W":297,"##ã":298,"##!":299,"##:":300,"##*":301,"##’":302,"##ń":303,"##”":304,"##̂":305,"##á":306,"##;":307,"##–":308,"##À":309,"##«":310,"##-":311,"##È":312,"##а":313,"##™":314,"##+":315,"##õ":316,"##ø":317,"##ā":318,"##“":319,"##Ô":320,"##í":321,"##€":322,"##É":323,"##ᵉ":324,"##&":325,"##ļ":326,"##‘":327,"##Û":328,"##¦":329,"##Å":330,"##Ä":331,"##ñ":332,"##å":333,"##/":334,"##?":335,"##ù":336,"##ū":337,"##ō":338,"##%":339,"##Ÿ":340,"##̈":341,"##(":342,"##ğ":343,"##ž":344,"##ć":345,"##ì":346,"##Ï":347,"##º":348,"##‰":349,"##·":350,"##с":351,"##е":352,"##č":353,"##ú":354,"##﻿":355,"##›":356,"##ş":357,"##š":358,"##Î":359,"##ē":360,"##Ê":361,"##æ":362,"##ř":363,"##ș":364,"##ă":365,"##‹":366,"##es":367,"##nt":368,"##on":369,"de":370,"##er":371,"##ur":372,"##re":373,"##is":374,"##it":375,"##an":376,"##ent":377,"##ti":378,"##ou":379,"##le":380,"la":381,"##ar":382,"##in":383,"##en":384,"le":385,"qu":386,"un":387,"##our":388,"##or":389,"en":390,"##te":391,"##qu":392,"et":393,"##us":394,"##tion":395,"##ra":396,"les":397,"##om":398,"des":399,"pr":400,"##el":401,"##ment":402,"##st":403,"##ant":404,"##il":405,"au":406,"##al":407,"##as":408,"##ce":409,"##me":410,"##ir":411,"##ont":412,"du":413,"est":414,"##ans":415,"dé":416,"##ch":417,"##ie":418,"par":419,"av":420,"pour":421,"##és":422,"##et":423,"##ta":424,"une":425,"##ne":426,"##au":427,"##ri":428,"##ec":429,"##ion":430,"##ation":431,"##ais":432,"##té":433,"##que":434,"##ire":435,"##se":436,"pl":437,"##di":438,"##li":439,"que":440,"dans":441,"##ait":442,"##ci":443,"##eu":444,"qui":445,"##ée":446,"com":447,"sur":448,"##ol":449,"##ag":450,"##os":451,"##tre":452,"con":453,"pas":454,"##ous":455,"pro":456,"in":457,"##de":458,"il":459,"##mp":460,"##at":461,"ch":462,"##ers":463,"se":464,"##ouv":465,"ré":466,"##ff":467,"an":468,"##ro":469,"##res":470,"plus":471,"re":472,"##urs":473,"##pp":474,"##si":475,"##ès":476,"##les":477,"Le":478,"##ère":479,"##ran":480,"ce":481,"##ité":482,"##aire":483,"##am":484,"##ale":485,"##ux":486,"##ine":487,"##ac":488,"##iv":489,"ex":490,"##ab":491,"##end":492,"avec":493,"son":494,"##oir":495,"##pr":496,"ac":497,"ont":498,"##ois":499,"20":500,"##ni":501,"ne":502,"##ig":503,"##ort":504,"##out":505,"##ien":506,"été":507,"La":508,"##id":509,"##ille":510,"##né":511,"##ue":512,"##elle":513,"sa":514,"##uis":515,"##ure":516,"ent":517,"##ic":518,"##ul":519,"##mb":520,"##ette":521,"##ré":522,"cont":523,"##oi":524,"sont":525,"##ai":526,"ou":527,"ar":528,"##mi":529,"##ge":530,"##ons":531,"##ite":532,"##and":533,"éta":534,"tr":535,"##ve":536,"Il":537,"##ut":538,"##ist":539,"##ques":540,"int":541,"su":542,"Les":543,"##ain":544,"##lle":545,"##che":546,"##age":547,"##onn":548,"##eau":549,"pre":550,"##ces":551,"##un":552,"aux":553,"ser":554,"##ui":555,"##ill":556,"##ens":557,"##ique":558,"mo":559,"##pé":560,"##ors":561,"aut":562,"on":563,"##mes":564,"pré":565,"##oup":566,"##ay":567,"##ction":568,"##ati":569,"##ours":570,"peu":571,"cette":572,"##oc":573,"tra":574,"app":575,"mais":576,"##mé":577,"fait":578,"##ise":579,"di":580,"comp":581,"deux":582,"##ins":583,"##ions":584,"déc":585,"##ot":586,"##ance":587,"ca":588,"»,":589,"prés":590,"mar":591,"##lé":592,"##ace":593,"al":594,"##près":595,"##ss":596,"tout":597,"entre":598,"at":599,"res":600,"ses":601,"##ér":602,"202":603,"so":604,"comm":605,"##ts":606,"##ants":607,"##du":608,"##ub":609,"être":610,"##ême":611,"##ter":612,"nous":613,"jeu":614,"##iss":615,"##ier":616,"parti":617,"##air":618,"##ard":619,"En":620,"##co":621,"dev":622,"der":623,"##cé":624,"si":625,"##aux":626,"per":627,"ann":628,"##ations":629,"##teur":630,"fin":631,"premi":632,"imp":633,"elle":634,"no":635,"##ussi":636,"ra":637,"##og":638,"##00":639,"##ond":640,"##orm":641,"mon":642,"##ient":643,"derni":644,"##nement":645,"leur":646,"était":647,"##ence":648,"comme":649,"##tu":650,"avait":651,"##ées":652,"pers":653,"##bre":654,"nouv":655,"éc":656,"tou":657,"##ord":658,"##man":659,"acc":660,"##aires":661,"exp":662,"Un":663,"##puis":664,"vous":665,"##op":666,"##ad":667,"aussi":668,"dép":669,"min":670,"même":671,"te":672,"ans":673,"##ru":674,"##dre":675,"##oy":676,"inter":677,"##aine":678,"##ouver":679,"##tes":680,"##able":681,"##ème":682,"##ition":683,"##im":684,"##cu":685,"dis":686,"après":687,"faire":688,"mé":689,"##alement":690,"Ch":691,"##ble":692,"me":693,"ces":694,"##oire":695,"##itu":696,"tro":697,"##ric":698,"##if":699,"##ures":700,"trav":701,"pay":702,"ad":703,"##ct":704,"bien":705,"ter":706,"sou":707,"##nes":708,"Je":709,"##dé":710,"es":711,"##iste":712,"don":713,"##min":714,"év":715,"##ren":716,"gran":717,"##ident":718,"##ubli":719,"depuis":720,"nom":721,"##ner":722,"##ate":723,"ai":724,"avoir":725,"ret":726,"ag":727,"##éné":728,"personn":729,"ob":730,"rés":731,"ass":732,"gr":733,"##qué":734,"##tions":735,"##oit":736,"aff":737,"conf":738,"##ments":739,"##pe":740,"##aient":741,"or":742,"ma":743,"##elles":744,"##ang":745,"##cer":746,"ég":747,"##eux":748,"##av":749,"##ités":750,"lui":751,"##uss":752,"##ég":753,"##jet":754,"##elon":755,"pays":756,"Mar":757,"##ver":758,"car":759,"ab":760,"jus":761,"très":762,"dire":763,"cl":764,"pos":765,"Fran":766,"sé":767,"contre":768,"Ce":769,"po":770,"pass":771,"je":772,"Pour":773,"##ves":774,"ju":775,"prop":776,"che":777,"On":778,"##rit":779,"eff":780,"##orte":781,"##core":782,"##enir":783,"cons":784,"##ères":785,"ils":786,"##lement":787,"##tif":788,"Mais":789,"ren":790,"19":791,"inf":792,"##mps":793,"##rait":794,"jour":795,"##rent":796,"##ph":797,"##met":798,"co":799,"lors":800,"##qui":801,"##use":802,"Qu":803,"mil":804,"##ler":805,"##um":806,"##endre":807,"déb":808,"##ong":809,"##ante":810,"avant":811,"rec":812,"##ici":813,"##alis":814,"man":815,"peut":816,"déf":817,"président":818,"##kra":819,"autres":820,"encore":821,"».":822,"##mbre":823,"publi":824,"##ib":825,"##aut":826,"##oint":827,"jou":828,"sec":829,"rég":830,"##ration":831,"sans":832,"##all":833,"##ap":834,"diff":835,"trois":836,"##ente":837,"##ête":838,"Par":839,"De":840,"##ix":841,"off":842,"##its":843,"201":844,"##lar":845,"##cip":846,"att":847,"Une":848,"##ing":849,"env":850,"également":851,"quel":852,"##aint":853,"##ass":854,"où":855,"Et":856,"rapp":857,"\",":858,"éle":859,"##uer":860,"cer":861,"##ém":862,"##nées":863,"trava":864,"Al":865,"for":866,"##lis":867,"monde":868,"im":869,"Au":870,"part":871,"##onne":872,"sera":873,"aur":874,"##ole":875,"soci":876,"##enu":877,"##par":878,"##mment":879,"cel":880,"##ales":881,"col":882,"##ieurs":883,"dont":884,").":885,"fil":886,"cha":887,"eur":888,"nombre":889,"##insi":890,"##rer":891,"##sion":892,"##enne":893,"##cher":894,"grand":895,"tous":896,"##aison":897,"##oul":898,"pol":899,"hom":900,"##ieux":901,"leurs":902,"indi":903,"fois":904,"mal":905,"cent":906,"2022":907,"pé":908,"mes":909,"##vent":910,"##tra":911,"##lè":912,"fran":913,"##dent":914,"vis":915,"mois":916,"##ront":917,"déj":918,"##iques":919,"produ":920,"annon":921,"##ign":922,"##cl":923,"##tat":924,"Dans":925,"##istre":926,"##pec":927,"année":928,"##els":929,"##em":930,"trans":931,"nouveau":932,"##ov":933,"##ages":934,"rev":935,"prof":936,"moins":937,"premier":938,"Nous":939,"##gan":940,"##ob":941,"##ose":942,"const":943,"équi":944,"enf":945,"temps":946,"##endant":947,"##ché":948,"he":949,"emp":950,"déjà":951,"##oupe":952,"seu":953,"personnes":954,"certa":955,"cas":956,"tour":957,"##alité":958,"place":959,"##ron":960,"vi":961,"##jours":962,"pouv":963,"##ième":964,"dernier":965,"##ieu":966,"va":967,"gouver":968,"point":969,"mont":970,"puis":971,"inst":972,"##gé":973,"##teurs":974,"ép":975,"ét":976,"##tique":977,"vo":978,"##int":979,"arri":980,"sy":981,"##érie":982,"donc":983,"##tiv":984,"pren":985,"géné":986,"##istes":987,"première":988,"sem":989,"##éb":990,"##oute":991,"France":992,"ministre":993,"plusieurs":994,"alors":995,"##ises":996,"toujours":997,"##su":998,"ph":999,"),":1000,"##ents":1001,"##omp":1002,"cour":1003,"autre":1004,"##tin":1005,"ainsi":1006,"##lig":1007,"dro":1008,"serv":1009,"fé":1010,"rép":1011,"##era":1012,"##uni":1013,"sous":1014,"##ôt":1015,"vers":1016,"nation":1017,"rel":1018,"##olog":1019,"##aines":1020,"polit":1021,"beau":1022,"can":1023,"organ":1024,"Ukra":1025,"permet":1026,"dit":1027,"##cur":1028,"##omm":1029,"selon":1030,"cap":1031,"projet":1032,"pres":1033,"##usse":1034,"oc":1035,"##çais":1036,"##ert":1037,"notre":1038,"ins":1039,"gouvernement":1040,"##isse":1041,"coup":1042,"An":1043,"##semb":1044,"vie":1045,"##ense":1046,"##ice":1047,"##ues":1048,"##ats":1049,"##az":1050,"prix":1051,"##ement":1052,"met":1053,"nu":1054,"##ellement":1055,"ça":1056,"mer":1057,"Elle":1058,"##mis":1059,"Des":1060,"amé":1061,"##ches":1062,"##illeurs":1063,"déclar":1064,"repr":1065,"dév":1066,"cré":1067,"situ":1068,"Cette":1069,"##ié":1070,"organis":1071,"conn":1072,"mat":1073,"prév":1074,"disp":1075,"soit":1076,"toute":1077,"long":1078,"##ière":1079,"##art":1080,"##eur":1081,"##onom":1082,"##des":1083,"inc":1084,"000":1085,"cin":1086,"##oin":1087,"début":1088,"Ukraine":1089,"fa":1090,"expli":1091,"##ral":1092,"##olu":1093,"##rib":1094,"Si":1095,"##ez":1096,"cor":1097,"##ies":1098,"préc":1099,"pet":1100,"##tement":1101,"fem":1102,"mill":1103,"##omb":1104,"##cre":1105,"##vé":1106,"années":1107,"jusqu":1108,"import":1109,"vic":1110,"##agne":1111,"poli":1112,"dés":1113,"nota":1114,"uti":1115,"##oci":1116,"fam":1117,"##lo":1118,"dém":1119,"##coup":1120,"##ture":1121,"##ances":1122,"sal":1123,"##port":1124,"##one":1125,"présent":1126,"10":1127,"##cep":1128,"##ourd":1129,"aj":1130,"##orti":1131,"entrepr":1132,"##ari":1133,"équipe":1134,"##estion":1135,"##ains":1136,"sc":1137,"st":1138,"##ak":1139,"jours":1140,"##ah":1141,"hist":1142,"##quer":1143,"##tant":1144,"notamment":1145,"##iter":1146,"##fin":1147,"pris":1148,"##ision":1149,"faut":1150,"journ":1151,"##tats":1152,"##ines":1153,"Av":1154,"am":1155,"##tation":1156,"quelques":1157,"nos":1158,"non":1159,"##bil":1160,"là":1161,"mom":1162,"proch":1163,"2021":1164,"bas":1165,"##opp":1166,"public":1167,"esp":1168,"##ide":1169,"beaucoup":1170,"##ivers":1171,"##rique":1172,"nouvelle":1173,"vé":1174,"rep":1175,"##ites":1176,"face":1177,"##anc":1178,"som":1179,"mati":1180,"##ctions":1181,"cli":1182,"##cont":1183,"Russ":1184,"##ables":1185,"français":1186,"soir":1187,"ci":1188,"hab":1189,"millions":1190,"hui":1191,"##ris":1192,"##mand":1193,"##ser":1194,"##tent":1195,"dur":1196,"##ateur":1197,"##illes":1198,"cours":1199,"né":1200,"suis":1201,"##are":1202,"cela":1203,"##lus":1204,"##mer":1205,"partie":1206,"commun":1207,"jam":1208,"cet":1209,"##orté":1210,"##ger":1211,"retr":1212,"prog":1213,"##he":1214,"##opé":1215,"##ram":1216,"propos":1217,"effet":1218,"anci":1219,"##dic":1220,"##adi":1221,"##itions":1222,"match":1223,"##undi":1224,"##ges":1225,"##itaire":1226,"##for":1227,"##ivre":1228,"vendre":1229,"arr":1230,"sep":1231,"##agn":1232,"##êt":1233,"##aî":1234,"##igne":1235,"cô":1236,"fer":1237,"appel":1238,"avons":1239,"##jourd":1240,"travail":1241,"région":1242,"##elopp":1243,"doit":1244,"ville":1245,"cro":1246,"##rés":1247,"men":1248,"##ission":1249,"cr":1250,"char":1251,"économ":1252,"éch":1253,"cond":1254,"déclaré":1255,"prov":1256,"##manche":1257,"Con":1258,"autor":1259,"##der":1260,"moment":1261,"##fois":1262,"diffé":1263,"as":1264,"##credi":1265,"Ils":1266,"15":1267,"##rie":1268,"##uses":1269,"étaient":1270,"Selon":1271,"vra":1272,"##anté":1273,"##ateurs":1274,"##eurs":1275,"##élé":1276,"##mple":1277,"jamais":1278,"contin":1279,"##sible":1280,"prin":1281,"eu":1282,"pop":1283,"prob":1284,"groupe":1285,"euros":1286,"ailleurs":1287,"politique":1288,"gar":1289,"##iron":1290,"utilis":1291,"loc":1292,"##cess":1293,"milli":1294,"##ène":1295,"##atre":1296,"##voir":1297,"Après":1298,"pouvoir":1299,"##rig":1300,"intern":1301,"##medi":1302,"vol":1303,"eng":1304,"jeudi":1305,"##ud":1306,"saison":1307,"##iveau":1308,"atta":1309,"##iers":1310,"concer":1311,"Québ":1312,"##ell":1313,"port":1314,"semaine":1315,"dernière":1316,"mercredi":1317,"##seil":1318,"form":1319,"##lles":1320,"quand":1321,"##iens":1322,"popul":1323,"##ade":1324,"réalis":1325,"##oule":1326,"niveau":1327,"dimanche":1328,"fon":1329,"mardi":1330,"développ":1331,"lundi":1332,"##rence":1333,"fra":1334,"lieu":1335,"inv":1336,"In":1337,"vendredi":1338,"film":1339,"##asion":1340,"##vier":1341,"##nent":1342,"rencont":1343,"##atri":1344,"##ode":1345,"homme":1346,"##per":1347,"élect":1348,"##aiss":1349,"mis":1350,"actu":1351,"chef":1352,"près":1353,"##ress":1354,"Saint":1355,"##pons":1356,"chez":1357,"##uerre":1358,"gra":1359,"##cteur":1360,"##enant":1361,"Russie":1362,"sécur":1363,"##endu":1364,"représ":1365,"##iment":1366,"grande":1367,"situation":1368,"##été":1369,"compte":1370,"##ich":1371,"trouv":1372,"##lic":1373,"##rée":1374,"ess":1375,"sorti":1376,"lég":1377,"bon":1378,"toutes":1379,"##asse":1380,"ouver":1381,"côté":1382,"quatre":1383,"Ar":1384,"##jec":1385,"##ôle":1386,"améric":1387,"étu":1388,"##rier":1389,"jeunes":1390,"samedi":1391,"inform":1392,"##lu":1393,"plan":1394,"##cle":1395,"voir":1396,"contra":1397,"##oix":1398,"\".":1399,"##est":1400,"Com":1401,"porte":1402,"##rale":1403,"##gie":1404,"souv":1405,"remp":1406,"seront":1407,"##atique":1408,"##idé":1409,"communi":1410,"##gment":1411,"##cul":1412,"##cident":1413,"rapport":1414,"fond":1415,"##isé":1416,"avaient":1417,"russe":1418,"##isme":1419,"12":1420,"veu":1421,"annoncé":1422,"enfants":1423,"##tien":1424,"art":1425,"respons":1426,"afin":1427,"lib":1428,"reste":1429,"devant":1430,"votre":1431,"18":1432,"Can":1433,"esti":1434,"sol":1435,"##hé":1436,"prom":1437,"Québec":1438,"guerre":1439,"##ok":1440,"##ange":1441,"##vre":1442,"##ût":1443,"question":1444,"vac":1445,"##enue":1446,"augment":1447,"but":1448,"##tres":1449,"demand":1450,"pa":1451,"voit":1452,"##rant":1453,"##iller":1454,"environ":1455,"deuxième":1456,"##ences":1457,"opé":1458,"cir":1459,"pu":1460,"##én":1461,"tit":1462,"##uel":1463,"##od":1464,"retour":1465,"certains":1466,"police":1467,"spé":1468,"suite":1469,"ici":1470,"##bles":1471,"heures":1472,"##antes":1473,"##mée":1474,"rem":1475,"comb":1476,"assur":1477,"pendant":1478,"jeune":1479,".»":1480,"##ienne":1481,"mettre":1482,"différent":1483,"dom":1484,"##th":1485,"opp":1486,"##tive":1487,"##anger":1488,"mort":1489,"##did":1490,"##ili":1491,"semb":1492,"##mande":1493,"empl":1494,"##semble":1495,"maint":1496,"##dition":1497,"##enus":1498,"prendre":1499,"poursu":1500,"histoire":1501,"##rir":1502,"aujourd":1503,"camp":1504,"##ards":1505,"ris":1506,"##illet":1507,"all":1508,"péri":1509,"##cent":1510,"Eur":1511,".\"":1512,"rien":1513,"candid":1514,"##iti":1515,"tech":1516,"internation":1517,"spéci":1518,"réf":1519,"réseau":1520,"aurait":1521,"europé":1522,"##aud":1523,"##isation":1524,"##rière":1525,"éner":1526,"affir":1527,"conv":1528,"14":1529,"Cel":1530,"cher":1531,"Re":1532,"pourrait":1533,"reg":1534,"30":1535,"mus":1536,"##ices":1537,"##act":1538,"atte":1539,"donn":1540,"moy":1541,"accord":1542,"Car":1543,"ple":1544,"maj":1545,"##lier":1546,"celui":1547,"voul":1548,"san":1549,"ant":1550,"série":1551,"##ression":1552,"ukra":1553,"##vée":1554,"activ":1555,"ukrain":1556,"centre":1557,"##cès":1558,"##iser":1559,"supp":1560,"sécurité":1561,"famille":1562,"Ces":1563,"##éré":1564,"meille":1565,"##ile":1566,"enqu":1567,"##tée":1568,"end":1569,"Jean":1570,"princip":1571,"jan":1572,"hu":1573,"##gré":1574,"##lex":1575,"Avec":1576,"eux":1577,"##ué":1578,"##enti":1579,"200":1580,"occ":1581,"ancien":1582,"fonction":1583,"Br":1584,"matin":1585,"sus":1586,"##oles":1587,"##less":1588,"profes":1589,"##len":1590,"chaque":1591,"##tiques":1592,"entra":1593,"11":1594,"##ative":1595,"janvier":1596,"2020":1597,"25":1598,"mi":1599,"télé":1600,"##pit":1601,"elles":1602,"soulig":1603,"Ma":1604,"bes":1605,"déce":1606,"##ath":1607,"victi":1608,"raison":1609,"inves":1610,"retrouv":1611,"sour":1612,"Mal":1613,"li":1614,"suc":1615,"##ock":1616,"13":1617,"trop":1618,"syst":1619,"dou":1620,"santé":1621,"gens":1622,"ceux":1623,"mise":1624,"cinq":1625,"##ige":1626,"particip":1627,"op":1628,"##ia":1629,"##gent":1630,"particu":1631,"##ivent":1632,"minist":1633,"##tout":1634,"déci":1635,"##taire":1636,"ref":1637,"disc":1638,"bl":1639,"hô":1640,"vu":1641,"champ":1642,"sta":1643,"exe":1644,"16":1645,"agit":1646,"ver":1647,"réc":1648,"program":1649,"##lière":1650,"expl":1651,"is":1652,"##ug":1653,"demande":1654,"juin":1655,"Af":1656,"bless":1657,"fais":1658,"tent":1659,"##émie":1660,"constru":1661,"Mac":1662,"peuvent":1663,"##ormais":1664,"St":1665,"Sur":1666,"État":1667,"dir":1668,"décembre":1669,"oct":1670,"Mont":1671,"sub":1672,"17":1673,"ach":1674,"do":1675,"occasion":1676,"Bel":1677,"représent":1678,"Ré":1679,"mars":1680,"devrait":1681,"ban":1682,"##aise":1683,"Unis":1684,"nationale":1685,"droit":1686,"fl":1687,"Di":1688,"ha":1689,"lan":1690,"nécess":1691,"24":1692,"No":1693,"##mbres":1694,"Sa":1695,"Son":1696,"##ève":1697,"serait":1698,"nombreux":1699,"femmes":1700,"##oh":1701,"ensemble":1702,"mondi":1703,"offici":1704,"cul":1705,"##tés":1706,"site":1707,"marché":1708,"##icu":1709,"##icile":1710,"##vembre":1711,"imm":1712,"indiqué":1713,"explique":1714,"ur":1715,"##ril":1716,"##une":1717,"##ël":1718,"membres":1719,"service":1720,"rou":1721,"points":1722,"femme":1723,"##form":1724,"accus":1725,"possible":1726,"Th":1727,"général":1728,"celle":1729,"tête":1730,"savoir":1731,"rap":1732,"béné":1733,"rac":1734,"##erv":1735,"personne":1736,"##tri":1737,"##ern":1738,"##amb":1739,"novembre":1740,"##cin":1741,"##tembre":1742,"entraî":1743,"accue":1744,"aura":1745,"Europ":1746,"amb":1747,"##oût":1748,"##âce":1749,"##ton":1750,"##èle":1751,"##onde":1752,"##ane":1753,"##olution":1754,"enquête":1755,"dos":1756,"fort":1757,"hum":1758,"##pl":1759,"##pes":1760,"##vrier":1761,"priv":1762,"dépl":1763,"bonne":1764,"tir":1765,"médi":1766,"abord":1767,"comment":1768,"dès":1769,"sp":1770,"entreprise":1771,"septembre":1772,"##jectif":1773,"veut":1774,"##hait":1775,"##ourn":1776,"ni":1777,"États":1778,"##çon":1779,"heure":1780,"Depuis":1781,"##itaires":1782,"##ils":1783,"##issement":1784,"br":1785,"sau":1786,"Plus":1787,"souhait":1788,"capit":1789,"Is":1790,"feu":1791,"désormais":1792,"crise":1793,"##cun":1794,"colle":1795,"##ori":1796,"Tout":1797,"##ensi":1798,"##rain":1799,"surtout":1800,"juillet":1801,"Cela":1802,"anim":1803,"respec":1804,"##nant":1805,"commer":1806,"joueurs":1807,"véh":1808,"##raient":1809,"reç":1810,"##ps":1811,"##mo":1812,"associ":1813,"sig":1814,"##obre":1815,"##tine":1816,"Europe":1817,"eau":1818,"étab":1819,"attend":1820,"##suite":1821,"février":1822,"pens":1823,"quar":1824,"##cole":1825,"Ab":1826,"orig":1827,"##tier":1828,"ind":1829,"contr":1830,"six":1831,"presse":1832,"sommes":1833,"abs":1834,"Pre":1835,"##ention":1836,"##pét":1837,"cadre":1838,"véhicu":1839,"##osition":1840,"entreprises":1841,"mieux":1842,"gros":1843,"souvent":1844,"objectif":1845,"habit":1846,"bar":1847,"##cation":1848,"appro":1849,"Paris":1850,"bou":1851,"pe":1852,"##ly":1853,"##vers":1854,"services":1855,"période":1856,"pi":1857,"##anci":1858,"autant":1859,"décision":1860,"commen":1861,"société":1862,"titre":1863,"octobre":1864,"##éra":1865,"##ilité":1866,"parc":1867,"recher":1868,"manif":1869,"semaines":1870,"font":1871,"Dé":1872,"##aly":1873,"seul":1874,"##yant":1875,"dernières":1876,"effec":1877,"seulement":1878,"mai":1879,"œu":1880,"étran":1881,"Ne":1882,"##orité":1883,"##usses":1884,"Gu":1885,"##dien":1886,"voy":1887,"laiss":1888,"##alif":1889,"national":1890,"journée":1891,"vraiment":1892,"##minist":1893,"passé":1894,"##nel":1895,"##énement":1896,"événement":1897,"##ses":1898,"##oise":1899,"club":1900,"accomp":1901,"tant":1902,"autorités":1903,"##ry":1904,"Or":1905,"passe":1906,"suiv":1907,"##ada":1908,"passer":1909,"reconn":1910,"annonce":1911,"vidé":1912,"##iles":1913,"##gement":1914,"avril":1915,"##toire":1916,"##itter":1917,"##aul":1918,"##ik":1919,"consi":1920,"##gique":1921,"##ètres":1922,"tu":1923,"##oque":1924,"##ovid":1925,"arrê":1926,"##rendre":1927,"emb":1928,"tard":1929,"##fs":1930,"Me":1931,"lim":1932,"##orta":1933,"confir":1934,"directeur":1935,"exemple":1936,"dol":1937,"nég":1938,"moi":1939,"##oli":1940,"rédu":1941,"travers":1942,"Covid":1943,"##oires":1944,"derniers":1945,"##ime":1946,"dét":1947,"##nique":1948,"cause":1949,"Bl":1950,"##tice":1951,"ext":1952,"partir":1953,"rappel":1954,"milliards":1955,"##quant":1956,"état":1957,"100":1958,"Int":1959,"ligne":1960,"##ore":1961,"administ":1962,"obt":1963,"Mon":1964,"chose":1965,"vont":1966,"”,":1967,"##fic":1968,"journal":1969,"mag":1970,"##bilité":1971,"territ":1972,"gaz":1973,"dess":1974,"parce":1975,"communiqué":1976,"liv":1977,"##lent":1978,"##quent":1979,"action":1980,"troisième":1981,"ress":1982,"second":1983,"rapide":1984,"##éd":1985,"profession":1986,"fut":1987,"##sez":1988,"##lément":1989,"##ame":1990,"##uc":1991,"##assi":1992,"##ets":1993,"##ionn":1994,"aide":1995,"dollar":1996,"méd":1997,"secteur":1998,"résul":1999,"2019":2000,"chi":2001,"expé":2002,"##utes":2003,"21":2004,"##tro":2005,"nouvelles":2006,"##ible":2007,"##ox":2008,"hommes":2009,"fédé":2010,"système":2011,"aller":2012,"Premi":2013,"préf":2014,"##ires":2015,"vaccin":2016,"##fait":2017,"grâce":2018,"Se":2019,"##érence":2020,"22":2021,"août":2022,"cit":2023,"ajou":2024,"##ow":2025,"change":2026,"produits":2027,"besoin":2028,"Gran":2029,"loi":2030,"##éli":2031,"##ende":2032,"phot":2033,"défense":2034,"ensuite":2035,"##ature":2036,"##ider":2037,"##lég":2038,"petit":2039,"important":2040,"autour":2041,"sujet":2042,"Pro":2043,"rue":2044,"##non":2045,"##tel":2046,"développement":2047,"bat":2048,"numé":2049,"aucun":2050,"##ager":2051,"##cune":2052,"front":2053,"mul":2054,"##osé":2055,"trouver":2056,"id":2057,"loin":2058,"pand":2059,"maison":2060,"##ek":2061,"occu":2062,"vient":2063,"##pecta":2064,"insc":2065,"Comme":2066,"tot":2067,"tomb":2068,"2023":2069,"consé":2070,"##la":2071,"##œur":2072,"appar":2073,"##rend":2074,"parole":2075,"puiss":2076,"ministère":2077,"##uté":2078,"##éri":2079,"lar":2080,"réun":2081,"prend":2082,"semble":2083,"##lièrement":2084,"sens":2085,"##aute":2086,"sais":2087,"manière":2088,"Afrique":2089,"univers":2090,"conseil":2091,"##utôt":2092,"##ception":2093,"hausse":2094,"forces":2095,"##lisse":2096,"civ":2097,"##yp":2098,"##neur":2099,"Macron":2100,"##éc":2101,"autom":2102,"mesure":2103,"##avant":2104,"Conseil":2105,"us":2106,"##aces":2107,"armée":2108,"mod":2109,"##ruct":2110,"Etat":2111,"##lée":2112,"Char":2113,"pandémie":2114,"Ph":2115,"##pendant":2116,"##auche":2117,"expéri":2118,"pra":2119,"##ze":2120,"##oses":2121,"quelque":2122,"rencontre":2123,"dollars":2124,"Em":2125,"Vous":2126,"##lin":2127,"Alors":2128,"choix":2129,"50":2130,"taux":2131,"ajouté":2132,"ali":2133,"jouer":2134,"offre":2135,"invest":2136,"bal":2137,"initi":2138,"nouveaux":2139,"compét":2140,"##igue":2141,"permis":2142,"##tte":2143,"##oot":2144,"##ber":2145,"##èg":2146,"##érit":2147,"crit":2148,"##ribu":2149,"##forme":2150,"Sh":2151,"sign":2152,"##xim":2153,"##oud":2154,"##ourg":2155,"campagne":2156,"donner":2157,"cri":2158,"##aï":2159,"##ète":2160,"exc":2161,"termin":2162,"programme":2163,"finale":2164,"lut":2165,"vue":2166,"plutôt":2167,"tourn":2168,"Ben":2169,"ayant":2170,"##ones":2171,"plate":2172,"interv":2173,"risque":2174,"succès":2175,"Am":2176,"##ach":2177,"parta":2178,"intér":2179,"précé":2180,"financi":2181,"production":2182,"Lors":2183,"##land":2184,"clim":2185,"population":2186,"étudi":2187,"##tur":2188,"##xte":2189,"répond":2190,"prochain":2191,"rend":2192,"##be":2193,"temp":2194,"soutien":2195,"##resse":2196,"minutes":2197,"arrivée":2198,"nuit":2199,"##aît":2200,"Canada":2201,"bénéf":2202,"dist":2203,"specta":2204,"val":2205,"##ive":2206,"donné":2207,"##pital":2208,"Rép":2209,"dû":2210,"gen":2211,"tém":2212,"##iver":2213,"scène":2214,"##ouss":2215,"sein":2216,"publique":2217,"##ras":2218,"##tal":2219,"chiff":2220,"th":2221,"tri":2222,"##ande":2223,"##aisse":2224,"collec":2225,"gé":2226,"##ège":2227,"##onie":2228,"direction":2229,"victoire":2230,"Pl":2231,"##oti":2232,"mesures":2233,"##lie":2234,"juste":2235,"viole":2236,"##aître":2237,"##ast":2238,"##dit":2239,"##yn":2240,"assez":2241,"gl":2242,"##ira":2243,"visite":2244,"père":2245,"sû":2246,"base":2247,"Suis":2248,"chois":2249,"ident":2250,"##raph":2251,"##ierre":2252,"Cl":2253,"##reg":2254,"ense":2255,"##agner":2256,"grands":2257,"charge":2258,"##itif":2259,"##inte":2260,"cam":2261,"sout":2262,"ta":2263,"##gence":2264,"##lation":2265,"plu":2266,"##ack":2267,"consomm":2268,"##rents":2269,"parten":2270,"toutefois":2271,"énergie":2272,"Républi":2273,"sent":2274,"terrain":2275,"russes":2276,"école":2277,"##ota":2278,"dég":2279,"##téri":2280,"écrit":2281,"décidé":2282,"doivent":2283,"bâ":2284,"Du":2285,"doc":2286,"##ied":2287,"concl":2288,"impos":2289,"seule":2290,"polici":2291,"combat":2292,"Comm":2293,"main":2294,"sort":2295,"condu":2296,"rôle":2297,"##ed":2298,"##iennent":2299,"##ocra":2300,"sociaux":2301,"multi":2302,"vale":2303,"##alités":2304,"choses":2305,"##abor":2306,"employ":2307,"manifes":2308,"El":2309,"##ute":2310,"##uve":2311,"##rations":2312,"##part":2313,"durant":2314,"##ros":2315,"rester":2316,"##usement":2317,"jeux":2318,"maintenant":2319,"œuvre":2320,"ém":2321,"##lant":2322,"aucune":2323,"dossi":2324,"reçu":2325,"23":2326,"##fi":2327,"##gl":2328,"##quel":2329,"argent":2330,"inté":2331,"midi":2332,"Es":2333,"dispon":2334,"As":2335,"Mos":2336,"fac":2337,"##anche":2338,"compr":2339,"##ppe":2340,"##oun":2341,"qualif":2342,"indique":2343,"bi":2344,"##chés":2345,"viol":2346,"citoy":2347,"départ":2348,"##ologie":2349,"provin":2350,"##estiv":2351,"##indre":2352,"##tait":2353,"##vention":2354,"total":2355,"Don":2356,"Ou":2357,"haut":2358,"difficile":2359,"organisation":2360,"façon":2361,"lancé":2362,"pati":2363,"##joint":2364,"forte":2365,"pense":2366,"##ension":2367,"aliment":2368,"##auv":2369,"ouv":2370,"##érer":2371,"nombreuses":2372,"syn":2373,"rendre":2374,"##réal":2375,"prépar":2376,"##atives":2377,"##itude":2378,"40":2379,"rece":2380,"pén":2381,"condam":2382,"lance":2383,"pied":2384,"##ky":2385,"justice":2386,"##tifs":2387,"dirige":2388,"##ennes":2389,"analy":2390,"Emman":2391,"Nord":2392,"##ara":2393,"vidéo":2394,"règ":2395,"##lème":2396,"##orter":2397,"Maroc":2398,"26":2399,"##éro":2400,"##auté":2401,"##oupes":2402,"terme":2403,"racont":2404,"indus":2405,"violen":2406,"indé":2407,"droits":2408,"répon":2409,"précisé":2410,"Cent":2411,"##quet":2412,"premiers":2413,"Suisse":2414,"Ac":2415,"route":2416,"##labor":2417,"##acité":2418,"##agement":2419,"social":2420,"conditions":2421,"Belgique":2422,"##gal":2423,"intég":2424,"##ablement":2425,"##unicip":2426,"connu":2427,"Cer":2428,"nord":2429,"##cou":2430,"##urant":2431,"enc":2432,"##quée":2433,"gauche":2434,"soi":2435,"édition":2436,"##cteurs":2437,"sud":2438,"souff":2439,"mess":2440,"prochaine":2441,"témo":2442,"politiques":2443,"volont":2444,"réseaux":2445,"activités":2446,"rent":2447,"##nelle":2448,"quant":2449,"suff":2450,"dépar":2451,"actuellement":2452,"informations":2453,"opération":2454,"28":2455,"pat":2456,"ri":2457,"dix":2458,"transport":2459,"##itution":2460,"corps":2461,"estime":2462,"27":2463,"##temps":2464,"##quelle":2465,"oblig":2466,"199":2467,"projets":2468,"américain":2469,"ukrainien":2470,"date":2471,"##rou":2472,"##édé":2473,"##iné":2474,"quoi":2475,"parfois":2476,"territoire":2477,"Alle":2478,"Jus":2479,"gu":2480,"zone":2481,"laquelle":2482,"enreg":2483,"##ball":2484,"commune":2485,"propri":2486,"coû":2487,"victimes":2488,"étrang":2489,"Emmanuel":2490,"Mich":2491,"fr":2492,"lit":2493,"mouv":2494,"##son":2495,"##ograph":2496,"classe":2497,"neu":2498,"##ata":2499,"##app":2500,"dénon":2501,"petite":2502,"sortie":2503,"fav":2504,"trib":2505,"##af":2506,"##lection":2507,"déta":2508,"objet":2509,"obser":2510,"diffic":2511,"produit":2512,"meilleur":2513,"recherche":2514,"Tw":2515,"quoti":2516,"##illé":2517,"soli":2518,"certaines":2519,"démocra":2520,"formation":2521,"procé":2522,"données":2523,"milieu":2524,"République":2525,"mê":2526,"##rès":2527,"##oil":2528,"économique":2529,"cœur":2530,"##cs":2531,"améli":2532,"##estival":2533,"stra":2534,"vos":2535,"##ple":2536,"##kin":2537,"qualité":2538,"militaire":2539,"dispos":2540,"problème":2541,"huit":2542,"Su":2543,"Union":2544,"forme":2545,"droite":2546,"responsable":2547,"atteint":2548,"rapidement":2549,"joueur":2550,"500":2551,"élè":2552,"adap":2553,"possi":2554,"prison":2555,"contrôle":2556,"municip":2557,"##atur":2558,"faits":2559,"Cha":2560,"travaux":2561,"Quand":2562,"malgré":2563,"Val":2564,"bel":2565,"présence":2566,"affaire":2567,"Pou":2568,"log":2569,"we":2570,"##vid":2571,"##abilité":2572,"finalement":2573,"européenne":2574,"Pas":2575,"affaires":2576,"Coupe":2577,"bout":2578,"cy":2579,"fourn":2580,"##ey":2581,"##usé":2582,"accès":2583,"post":2584,"différents":2585,"Man":2586,"venir":2587,"##FP":2588,"vill":2589,"surv":2590,"##ick":2591,"manque":2592,"longtemps":2593,"plein":2594,"Est":2595,"cal":2596,"##nés":2597,"##ument":2598,"##til":2599,"Premier":2600,"Face":2601,"Ville":2602,"auprès":2603,"simp":2604,"##énégal":2605,"effectu":2606,"Cô":2607,"Fin":2608,"sex":2609,"époque":2610,"attaque":2611,"Lou":2612,"##tég":2613,"propose":2614,"accident":2615,"dipl":2616,"Isra":2617,"habitants":2618,"maire":2619,"##enn":2620,"super":2621,"perform":2622,"##érieur":2623,"Ainsi":2624,"##iance":2625,"prise":2626,"position":2627,"course":2628,"Pierre":2629,"bure":2630,"mère":2631,"##30":2632,"##onnes":2633,"ordre":2634,"idée":2635,"parler":2636,"avez":2637,"expri":2638,"extr":2639,"lu":2640,"##entes":2641,"##ague":2642,"conc":2643,"carrière":2644,"permettre":2645,"ajout":2646,"sept":2647,"trouve":2648,"peine":2649,"porté":2650,"sci":2651,"resta":2652,"retrouver":2653,"Poutine":2654,"##quis":2655,"Français":2656,"##atiques":2657,"donne":2658,"Montréal":2659,"capitale":2660,"amélior":2661,"Ça":2662,"gestion":2663,"##rage":2664,"parmi":2665,"##médi":2666,"découv":2667,"ord":2668,"médic":2669,"étant":2670,"##ting":2671,"française":2672,"majorité":2673,"##lit":2674,"##endance":2675,"image":2676,"histor":2677,"voiture":2678,"circul":2679,"vir":2680,"##ars":2681,"##quoi":2682,"conse":2683,"mobil":2684,"marque":2685,"Brux":2686,"Ant":2687,"sac":2688,"table":2689,"viv":2690,"##ret":2691,"pri":2692,"sait":2693,"##lam":2694,"##ash":2695,"compagn":2696,"environnement":2697,"bâti":2698,"Col":2699,"foot":2700,"lieux":2701,"plac":2702,"Moscou":2703,"aider":2704,"hôpital":2705,"##vision":2706,"##atoire":2707,"accep":2708,"force":2709,"ciném":2710,"candidat":2711,"négoci":2712,"Grand":2713,"train":2714,"techn":2715,"victime":2716,"vois":2717,"adop":2718,"affront":2719,"dossier":2720,"Même":2721,"Te":2722,"fig":2723,"surpr":2724,"perdu":2725,"matière":2726,"syndic":2727,"Cor":2728,"pourtant":2729,"##airement":2730,"enfant":2731,"presque":2732,"##inement":2733,"##rées":2734,"##atif":2735,"##phone":2736,"créer":2737,"longue":2738,"Ad":2739,"tôt":2740,"##urent":2741,"précise":2742,"continuer":2743,"Joh":2744,"conte":2745,"renfor":2746,"##erts":2747,"##let":2748,"direc":2749,"expliqué":2750,"favor":2751,"Alex":2752,"Sam":2753,"danger":2754,"##erté":2755,"##unal":2756,"##arder":2757,"demandé":2758,"expérience":2759,"##iner":2760,"entrée":2761,"lorsque":2762,"partis":2763,"démar":2764,"sûr":2765,"Ser":2766,"cra":2767,"doute":2768,"hau":2769,"voix":2770,"##ières":2771,"diz":2772,"établisse":2773,"Cour":2774,"ON":2775,"##tie":2776,"##dio":2777,"##idence":2778,"dispar":2779,"présidenti":2780,"install":2781,"extrême":2782,"af":2783,"##ville":2784,"##arde":2785,"##rice":2786,"armes":2787,"céré":2788,"##tations":2789,"grandes":2790,"AFP":2791,"Go":2792,"div":2793,"##ev":2794,"##illi":2795,"##auff":2796,"##clus":2797,"économie":2798,"particulièrement":2799,"kil":2800,"##main":2801,"##ki":2802,"##çois":2803,"##oss":2804,"affi":2805,"##ritan":2806,"parents":2807,"affirmé":2808,"cherche":2809,"conséqu":2810,"Ber":2811,"CO":2812,"PC":2813,"##ror":2814,"parle":2815,"##andis":2816,"##oyer":2817,"Deux":2818,"Gr":2819,"##eter":2820,"personnel":2821,"sélection":2822,"mondiale":2823,"pomp":2824,"##tor":2825,"Twitter":2826,"iss":2827,"ras":2828,"âge":2829,"##nor":2830,"##inaire":2831,"réussi":2832,"##action":2833,"simple":2834,"PS":2835,"air":2836,"mauv":2837,"norm":2838,"##nels":2839,"##ke":2840,"réalité":2841,"exer":2842,"arrêt":2843,"garde":2844,"source":2845,"lutte":2846,"intérêt":2847,"divers":2848,"##cée":2849,"Chine":2850,"générale":2851,"prévu":2852,"ouvert":2853,"voyage":2854,"bud":2855,"juge":2856,"Mer":2857,"Sud":2858,"cou":2859,"fille":2860,"mand":2861,"pan":2862,"vérit":2863,"##ysi":2864,"##arité":2865,"derrière":2866,"clients":2867,"internationale":2868,"accueill":2869,"intéress":2870,"Centre":2871,"Bar":2872,"ty":2873,"équ":2874,"##êts":2875,"inflation":2876,"2018":2877,"travailler":2878,"scol":2879,"##io":2880,"révé":2881,"équipes":2882,"différentes":2883,"supplément":2884,"médias":2885,"Bruxelles":2886,"%.":2887,"dra":2888,"unique":2889,"défin":2890,"##ibles":2891,"New":2892,"Israël":2893,"avoc":2894,"pourra":2895,"##amer":2896,"##endra":2897,"##aissance":2898,"isra":2899,"Li":2900,"##aix":2901,"complè":2902,"présente":2903,"##issant":2904,"individ":2905,"faci":2906,"ajoute":2907,"##att":2908,"applic":2909,"collabor":2910,"souligne":2911,"commencé":2912,"Roy":2913,"belle":2914,"##ption":2915,"##ume":2916,"espace":2917,"##avantage":2918,"tes":2919,"##iés":2920,"##estions":2921,"enregist":2922,"Amé":2923,"bord":2924,"lo":2925,"##ule":2926,"exploit":2927,"véhicule":2928,"35":2929,"Tro":2930,"rê":2931,"questions":2932,"malad":2933,"communauté":2934,"international":2935,"association":2936,"km":2937,"pil":2938,"vite":2939,"##clé":2940,"##ma":2941,"parv":2942,"##tées":2943,"##otes":2944,"##ologique":2945,"considé":2946,"résultats":2947,"60":2948,"Ent":2949,"##uré":2950,"quit":2951,"arti":2952,"premières":2953,"éviter":2954,"matéri":2955,"propre":2956,"rempl":2957,"29":2958,"ve":2959,"direct":2960,"fils":2961,"bénéfici":2962,"proprié":2963,"mouvement":2964,"israéli":2965,"hy":2966,"##gée":2967,"##êtes":2968,"demi":2969,"##tection":2970,"inqui":2971,"engag":2972,"véhicules":2973,"Gen":2974,"davantage":2975,"tota":2976,"vivre":2977,"##seur":2978,"accé":2979,"impact":2980,"physi":2981,"Certa":2982,"alle":2983,"##ost":2984,"##yth":2985,"##alent":2986,"oub":2987,"rende":2988,"31":2989,"##uelle":2990,"##itié":2991,"assure":2992,"record":2993,"##alisation":2994,"buts":2995,"activité":2996,"quartier":2997,"médec":2998,"plupart":2999,"1er":3000,"cé":3001,"##oter":3002,"2017":3003,"mêmes":3004,"vari":3005,"##ase":3006,"##unis":3007,"##mées":3008,"information":3009,"citoyens":3010,"Ass":3011,"##més":3012,"##nif":3013,"devenu":3014,"obtenir":3015,"Sp":3016,"Ste":3017,"mission":3018,"avenir":3019,"écran":3020,"élections":3021,"origine":3022,"week":3023,"fu":3024,"fai":3025,"##con":3026,"chac":3027,"##oph":3028,"piè":3029,"thé":3030,"vit":3031,"##eront":3032,"##isc":3033,"##ana":3034,"destin":3035,"parfait":3036,"écri":3037,"terror":3038,"poste":3039,"##obil":3040,"Malgré":3041,"multip":3042,"Bou":3043,"bil":3044,"fall":3045,"##gue":3046,"réuss":3047,"mot":3048,"décès":3049,"évo":3050,"soirée":3051,"augmentation":3052,"affirme":3053,"genre":3054,"Bor":3055,"##aume":3056,"sav":3057,"compos":3058,"épis":3059,"##semblée":3060,"familles":3061,"frapp":3062,"américaine":3063,"souligné":3064,"avance":3065,"##nies":3066,"version":3067,"coups":3068,"##atrice":3069,"retrouve":3070,"occup":3071,"quotidien":3072,"rendu":3073,"sport":3074,"##ani":3075,"exception":3076,"impression":3077,"images":3078,"susp":3079,"valeur":3080,"fix":3081,"tandis":3082,"##rez":3083,"##tient":3084,"##ork":3085,"##qués":3086,"rév":3087,"##utés":3088,"compar":3089,"siè":3090,"infra":3091,"régu":3092,"importante":3093,"matchs":3094,"commerci":3095,"inscrit":3096,"straté":3097,"afric":3098,"baisse":3099,"livre":3100,"Etats":3101,"liste":3102,"##ck":3103,"##écu":3104,"plaint":3105,"maxim":3106,"arrive":3107,"essenti":3108,"précédent":3109,"cinéma":3110,"celles":3111,"stat":3112,"##ède":3113,"##alog":3114,"François":3115,"effic":3116,"Bien":3117,"lang":3118,"tenu":3119,"”.":3120,"##ancer":3121,"##ication":3122,"effort":3123,"empê":3124,"ouverture":3125,"assurer":3126,"construction":3127,"administration":3128,"%)":3129,"mètres":3130,"pal":3131,"##rans":3132,"##magne":3133,"##isions":3134,"##termin":3135,"écl":3136,"conférence":3137,"Marc":3138,"instal":3139,"Mé":3140,"Sy":3141,"faud":3142,"And":3143,"sanctions":3144,"tribunal":3145,"difficul":3146,"John":3147,"ait":3148,"##tir":3149,"dél":3150,"montre":3151,"canadi":3152,"##rieur":3153,"dessus":3154,"paix":3155,"##èmes":3156,"##ala":3157,"peuple":3158,"simplement":3159,"##oie":3160,"pla":3161,"##uxe":3162,"réser":3163,"198":3164,"appelé":3165,"liberté":3166,"moyenne":3167,"compagnie":3168,"Prés":3169,"The":3170,"tar":3171,"##ote":3172,"del":3173,"##chi":3174,"exam":3175,"puisque":3176,"voie":3177,"création":3178,"urgence":3179,"Allemagne":3180,"diplom":3181,"pompiers":3182,"jur":3183,"##nov":3184,"##sy":3185,"##ka":3186,"Ang":3187,"hiver":3188,"mor":3189,"##get":3190,"entend":3191,"retra":3192,"militaires":3193,"endro":3194,"Esp":3195,"compris":3196,"hos":3197,"##rais":3198,"mode":3199,"pétro":3200,"Inst":3201,"For":3202,"He":3203,"gagner":3204,"##dici":3205,"##issent":3206,"légis":3207,"nav":3208,"vente":3209,"él":3210,"##eté":3211,"exist":3212,"chaî":3213,"petits":3214,"milliers":3215,"##ault":3216,"modèle":3217,"Jo":3218,"##istique":3219,"protection":3220,"##ureusement":3221,"devenir":3222,"musique":3223,"fédéral":3224,"pot":3225,"chance":3226,"##rétaire":3227,"##ricité":3228,"Aujourd":3229,"essay":3230,"Côte":3231,"Ex":3232,"Tour":3233,"natur":3234,"rais":3235,"ul":3236,"##aw":3237,"##mir":3238,"##tives":3239,"##veur":3240,"##uter":3241,"publié":3242,"faisant":3243,"achat":3244,"village":3245,"Bur":3246,"##até":3247,"lead":3248,"avent":3249,"pourquoi":3250,"enfin":3251,"70":3252,"Mo":3253,"ving":3254,"##mar":3255,"##jou":3256,"##cemment":3257,"avais":3258,"acteurs":3259,"##lèmes":3260,"vrai":3261,"promo":3262,"plateforme":3263,"bureau":3264,"football":3265,"##onner":3266,"interp":3267,"responsables":3268,"policiers":3269,"historique":3270,"App":3271,"Ligue":3272,"Rob":3273,"##urer":3274,"##entif":3275,"##iev":3276,"##ambre":3277,"##ides":3278,"maî":3279,"lorsqu":3280,"continue":3281,"poursuiv":3282,"sanitaire":3283,"Dav":3284,"mas":3285,"##gh":3286,"pourraient":3287,"##limin":3288,"##mestre":3289,"découver":3290,"imag":3291,"nuclé":3292,"croiss":3293,"problèmes":3294,"human":3295,"##isée":3296,"##ind":3297,"lequel":3298,"judici":3299,"attendre":3300,"élection":3301,"élector":3302,"électricité":3303,"oppos":3304,"spécial":3305,"##lymp":3306,"changement":3307,"Beau":3308,"Sénégal":3309,"##ares":3310,"proche":3311,"##rog":3312,"conflit":3313,"##alisé":3314,"présenté":3315,"struct":3316,"habitu":3317,"opposition":3318,"Aut":3319,"Paul":3320,"##mage":3321,"concur":3322,"chant":3323,"##endie":3324,"##ignement":3325,"supé":3326,"carte":3327,"conserv":3328,"Kh":3329,"Sal":3330,"##val":3331,"##ouse":3332,"arb":3333,"appare":3334,"##issions":3335,"vote":3336,"réunion":3337,"soient":3338,"Ju":3339,"Ot":3340,"impli":3341,"197":3342,"salle":3343,"invasion":3344,"sortir":3345,"##tivement":3346,"chiffres":3347,"##ritannique":3348,"At":3349,"##monie":3350,"##agné":3351,"changer":3352,"passage":3353,"consul":3354,"incendie":3355,"##idemment":3356,"remporté":3357,"élèves":3358,"Gab":3359,"fré":3360,"gam":3361,"##vés":3362,"##ination":3363,"##inée":3364,"##enait":3365,"##ives":3366,"groupes":3367,"débat":3368,"transition":3369,"remar":3370,"province":3371,"réponse":3372,"présidentielle":3373,"kilom":3374,"Luc":3375,"Mme":3376,"stu":3377,"##ducation":3378,"insp":3379,"concernant":3380,"message":3381,"Santé":3382,"festival":3383,"##âte":3384,"##isés":3385,"##ina":3386,"proté":3387,"parties":3388,"terre":3389,"rappelle":3390,"champion":3391,"département":3392,"solid":3393,"rendez":3394,"rang":3395,"##ustra":3396,"procès":3397,"##roy":3398,"actions":3399,"étape":3400,"##enses":3401,"##mettre":3402,"immédi":3403,"trouvé":3404,"Notre":3405,"arrêté":3406,"identif":3407,"deme":3408,"récemment":3409,"compter":3410,"assist":3411,"joué":3412,"##apon":3413,"assuré":3414,"Sch":3415,"red":3416,"ouest":3417,"##itement":3418,"relations":3419,"espère":3420,"Phili":3421,"noir":3422,"##bo":3423,"##AN":3424,"finance":3425,"joue":3426,"sociale":3427,"sommet":3428,"sold":3429,"morts":3430,"mondial":3431,"Vl":3432,"of":3433,"##erie":3434,"##ricul":3435,"atteindre":3436,"moyens":3437,"mandat":3438,"delà":3439,"Kiev":3440,"Pri":3441,"##uy":3442,"##gn":3443,"détermin":3444,"milit":3445,"collè":3446,"rouge":3447,"80":3448,"##aie":3449,"##odes":3450,"auteur":3451,"angl":3452,"via":3453,"continu":3454,"candidats":3455,"##este":3456,"process":3457,"réag":3458,"##niques":3459,"moyen":3460,"UE":3461,"bomb":3462,"hier":3463,"##of":3464,"esc":3465,"confiance":3466,"##issements":3467,"représente":3468,"meilleure":3469,"indép":3470,"véritable":3471,"coule":3472,"fab":3473,"sin":3474,"voi":3475,"yeux":3476,"élé":3477,"exécu":3478,"carb":3479,"somme":3480,"remont":3481,"discours":3482,"Plusieurs":3483,"possibilité":3484,"découvrir":3485,"300":3486,"45":3487,"Ge":3488,"Nouv":3489,"hor":3490,"##usion":3491,"suivre":3492,"devait":3493,"Chris":3494,"##ario":3495,"explos":3496,"Mus":3497,"plais":3498,"cependant":3499,"##vement":3500,"##veill":3501,"##ays":3502,"##ruit":3503,"centrale":3504,"##ariat":3505,"pratique":3506,"type":3507,"processus":3508,"##na":3509,"##can":3510,"##vant":3511,"##esse":3512,"exté":3513,"tradition":3514,"appré":3515,"##acement":3516,"garant":3517,"particulier":3518,"stade":3519,"signé":3520,"répondre":3521,"violence":3522,"Net":3523,"aéri":3524,"pou":3525,"énor":3526,"##VI":3527,"##liers":3528,"éval":3529,"seconde":3530,"##assé":3531,"certain":3532,"##tention":3533,"films":3534,"étude":3535,"convain":3536,"employés":3537,"contexte":3538,"potenti":3539,"##char":3540,"##atar":3541,"existe":3542,"outre":3543,"régions":3544,"constat":3545,"utiliser":3546,"er":3547,"##cri":3548,"##oré":3549,"##acer":3550,"réalisé":3551,"suivi":3552,"document":3553,"solution":3554,"villes":3555,"##trie":3556,"##bes":3557,"##rement":3558,"##table":3559,"##taires":3560,"étais":3561,"##cupé":3562,"Alg":3563,"capacité":3564,"Avant":3565,"énergé":3566,"nécessaire":3567,"budget":3568,"psy":3569,"riv":3570,"station":3571,"tel":3572,"##rodu":3573,"comprendre":3574,"comprend":3575,"##oth":3576,"devraient":3577,"chemin":3578,"secrétaire":3579,"transform":3580,"arriver":3581,"généra":3582,"locaux":3583,"##atrième":3584,"championn":3585,"disponible":3586,"%,":3587,"Rou":3588,"ment":3589,"nature":3590,"enj":3591,"proc":3592,"soins":3593,"Parmi":3594,"##ologue":3595,"##olutions":3596,"espoir":3597,"contrat":3598,"fonds":3599,"Nic":3600,"Sans":3601,"##idi":3602,"##we":3603,"##ancé":3604,"##ley":3605,"##rid":3606,"reb":3607,"arme":3608,"marqué":3609,"épre":3610,"court":3611,"domaine":3612,"technique":3613,"consid":3614,"volonté":3615,"Louis":3616,"chacun":3617,"Aff":3618,"Be":3619,"##och":3620,"##mique":3621,"alli":3622,"personnage":3623,"concerne":3624,"double":3625,"accusé":3626,"souhaite":3627,"Entre":3628,"Elles":3629,"##ttes":3630,"##FA":3631,"##ony":3632,"##isant":3633,"##tiers":3634,"prêt":3635,"rele":3636,"mari":3637,"aband":3638,"régime":3639,"auront":3640,"revenir":3641,"provo":3642,"circu":3643,"parcours":3644,"Certains":3645,"Ter":3646,"vites":3647,"##car":3648,"quitter":3649,"##ettes":3650,"Quel":3651,"transf":3652,"emploi":3653,"compétition":3654,"procéd":3655,"maladie":3656,"##mm":3657,"##aste":3658,"dér":3659,"délég":3660,"##chent":3661,"pourront":3662,"conne":3663,"##mière":3664,"devient":3665,"annul":3666,"dirigeants":3667,"industri":3668,"Cap":3669,"##cles":3670,"quatrième":3671,"parlement":3672,"##eth":3673,"concent":3674,"catég":3675,"note":3676,"député":3677,"publics":3678,"##ancée":3679,"étudiants":3680,"célè":3681,"législ":3682,"Algérie":3683,"Oli":3684,"Tru":3685,"amis":3686,"fera":3687,"rom":3688,"##lise":3689,"##va":3690,"##çant":3691,"##cier":3692,"##ames":3693,"compli":3694,"##tern":3695,"députés":3696,"transp":3697,"montant":3698,"Pen":3699,"hors":3700,"sorte":3701,"##tures":3702,"##ip":3703,"##anie":3704,"##atis":3705,"salari":3706,"kilomètres":3707,"éléments":3708,"Tous":3709,"côt":3710,"pap":3711,"élimin":3712,"##onné":3713,"##itation":3714,"##orie":3715,"##chant":3716,"proches":3717,"intérieur":3718,"entrep":3719,"command":3720,"meur":3721,"agence":3722,"profiter":3723,"augmenter":3724,"poursuit":3725,"Brun":3726,"dirig":3727,"##écois":3728,"plainte":3729,"croissance":3730,"##uration":3731,"outil":3732,"##cén":3733,"membre":3734,"heur":3735,"durée":3736,"principal":3737,"initiative":3738,"Van":3739,"York":3740,"ir":3741,"##riques":3742,"##oll":3743,"récl":3744,"moitié":3745,"##otte":3746,"marche":3747,"advers":3748,"clair":3749,"offrir":3750,"##géri":3751,"européen":3752,"lancer":3753,"Trois":3754,"Président":3755,"Bra":3756,"Vin":3757,"porta":3758,"tran":3759,"pron":3760,"audi":3761,"espr":3762,"présidente":3763,"connaiss":3764,"regard":3765,"ressour":3766,"photo":3767,"climatique":3768,"rassemb":3769,"Vladi":3770,"Co":3771,"bois":3772,"célé":3773,"##oins":3774,"##fier":3775,"chin":3776,"##ids":3777,"##oyé":3778,"classi":3779,"engagement":3780,"porter":3781,"puissance":3782,"consommation":3783,"belge":3784,"cérémonie":3785,"Vladimir":3786,"##gés":3787,"laisse":3788,"lesqu":3789,"avis":3790,"##agers":3791,"##ignes":3792,"comporte":3793,"instant":3794,"contraire":3795,"veulent":3796,"libé":3797,"domicile":3798,"suspec":3799,"libre":3800,"confirmé":3801,"Min":3802,"Ren":3803,"sensi":3804,"vent":3805,"##cipe":3806,"##aye":3807,"estimé":3808,"laisser":3809,"journaliste":3810,"Michel":3811,"neuf":3812,"application":3813,"veille":3814,"Cont":3815,"tient":3816,"##rin":3817,"modi":3818,"perd":3819,"reprises":3820,"ancienne":3821,"administra":3822,"excell":3823,"raisons":3824,"Iv":3825,"##go":3826,"quas":3827,"prol":3828,"coopé":3829,"2015":3830,"pouvez":3831,"dévoil":3832,"communication":3833,"Assemblée":3834,"scientif":3835,"conséquences":3836,"bilan":3837,"chaîne":3838,"vain":3839,"##gu":3840,"##ko":3841,"##ald":3842,"illus":3843,"rej":3844,"espé":3845,"évent":3846,"résultat":3847,"raconte":3848,"céléb":3849,"##âtre":3850,"Univers":3851,"agents":3852,"justif":3853,"travaille":3854,"risques":3855,"ukrainienne":3856,"culture":3857,"numérique":3858,"##ribution":3859,"directement":3860,"article":3861,"Ital":3862,"##née":3863,"##ga":3864,"quin":3865,"contrib":3866,"Enfin":3867,"Marie":3868,"Quant":3869,"Parti":3870,"envie":3871,"travaill":3872,"profit":3873,"fémin":3874,"populaire":3875,"respect":3876,"obtenu":3877,"inscri":3878,"largement":3879,"encour":3880,"ryth":3881,"##ha":3882,"##my":3883,"##ènes":3884,"##struct":3885,"avions":3886,"final":3887,"texte":3888,"évidemment":3889,"amour":3890,"études":3891,"opérations":3892,"Noël":3893,"absence":3894,"numéro":3895,"enseign":3896,"patron":3897,"##alogue":3898,"David":3899,"fi":3900,"faute":3901,"scén":3902,"zones":3903,"##iée":3904,"reti":3905,"revient":3906,"pression":3907,"physique":3908,"Ed":3909,"Lu":3910,"aéro":3911,"britannique":3912,"voire":3913,"##tini":3914,"##aude":3915,"chang":3916,"poss":3917,"renouv":3918,"constitu":3919,"contrô":3920,"large":3921,"spectacle":3922,"partenaires":3923,"couver":3924,"mention":3925,"olymp":3926,"ru":3927,"##rom":3928,"##él":3929,"##by":3930,"##çons":3931,"##anne":3932,"##endi":3933,"##rient":3934,"payer":3935,"aime":3936,"défait":3937,"2016":3938,"couple":3939,"famili":3940,"réfug":3941,"participer":3942,"refus":3943,"discuss":3944,"approche":3945,"tournoi":3946,"mauvais":3947,"vitesse":3948,"75":3949,"Ver":3950,"##iendra":3951,"##mart":3952,"##èse":3953,"##oué":3954,"let":3955,"##ressi":3956,"##chement":3957,"##issait":3958,"importance":3959,"stock":3960,"tempéra":3961,"##ynam":3962,"Ze":3963,"##ône":3964,"##iement":3965,"récupé":3966,"contact":3967,"importe":3968,"consci":3969,"instru":3970,"gratu":3971,"pleine":3972,"méda":3973,"exerci":3974,"faudra":3975,"Ali":3976,"Jac":3977,"Nice":3978,"cab":3979,"sang":3980,"##gne":3981,"chale":3982,"##abil":3983,"appelle":3984,"devra":3985,"nouvel":3986,"minim":3987,"influ":3988,"partout":3989,"centaines":3990,"symb":3991,"client":3992,"faisait":3993,"Charles":3994,"étrangères":3995,"affiche":3996,"Har":3997,"Tra":3998,"Toute":3999,"peur":4000,"trent":4001,"##urie":4002,"chauff":4003,"sim":4004,"recomm":4005,"artiste":4006,"blessés":4007,"cultur":4008,"réduire":4009,"signal":4010,"glob":4011,"siècle":4012,"infrastruct":4013,"##uxemb":4014,"II":4015,"Lé":4016,"tenir":4017,"##mant":4018,"##anmo":4019,"##ries":4020,"entretien":4021,"commission":4022,"mém":4023,"Pourtant":4024,"##assade":4025,"hôtel":4026,"choisi":4027,"##anmoins":4028,"Bre":4029,"Nation":4030,"aim":4031,"nour":4032,"élus":4033,"êtes":4034,"##rons":4035,"##SS":4036,"confront":4037,"##verse":4038,"pouvait":4039,"relig":4040,"probablement":4041,"##énom":4042,"allait":4043,"issue":4044,"plaisir":4045,"procure":4046,"Fond":4047,"ble":4048,"gri":4049,"##ament":4050,"comité":4051,"entendre":4052,"préoc":4053,"devoir":4054,"résident":4055,"infec":4056,"travailleurs":4057,"revanche":4058,"ouverte":4059,"remise":4060,"besoins":4061,"participation":4062,"commencer":4063,"événements":4064,"##édération":4065,"accueillir":4066,"complètement":4067,"pronon":4068,"32":4069,"90":4070,"Mor":4071,"Rom":4072,"Tur":4073,"bra":4074,"telle":4075,"##ys":4076,"écoles":4077,"positif":4078,"##ington":4079,"##asser":4080,"##assin":4081,"auraient":4082,"##alestini":4083,"montrer":4084,"arrière":4085,"entraîneur":4086,"privé":4087,"Commission":4088,"nucléaire":4089,"ressources":4090,"Ban":4091,"Pendant":4092,"TV":4093,"mig":4094,"##isté":4095,"surf":4096,"196":4097,"courant":4098,"occident":4099,"##oindre":4100,"prochaines":4101,"Canadi":4102,"efforts":4103,"Cet":4104,"Dès":4105,"Que":4106,"patri":4107,"##ètre":4108,"quart":4109,"##amment":4110,"##ortun":4111,"##iden":4112,"##atifs":4113,"appr":4114,"appli":4115,"##aliser":4116,"2014":4117,"attention":4118,"francs":4119,"phénom":4120,"incar":4121,"##heureusement":4122,"actuelle":4123,"##rants":4124,"blanc":4125,"récol":4126,"négociations":4127,"judiciaire":4128,"Bas":4129,"Lib":4130,"fans":4131,"honne":4132,"ton":4133,"##zz":4134,"##lir":4135,"extra":4136,"##endar":4137,"##igner":4138,"phase":4139,"démont":4140,"portes":4141,"islam":4142,"classement":4143,"psych":4144,"côtés":4145,"fro":4146,"mains":4147,"##nie":4148,"##erte":4149,"##èrent":4150,"##illon":4151,"complex":4152,"##cup":4153,"Cependant":4154,"forcé":4155,"arrivé":4156,"magas":4157,"surprise":4158,"hauteur":4159,"Philippe":4160,"célèbre":4161,"Moh":4162,"cant":4163,"fête":4164,"garder":4165,"##h30":4166,"##lor":4167,"##vel":4168,"##çu":4169,"##itée":4170,"prises":4171,"parquet":4172,"##èrement":4173,"##igh":4174,"##lées":4175,"mén":4176,"Che":4177,"évac":4178,"coût":4179,"revenus":4180,"##isseurs":4181,"vacances":4182,"retrouvé":4183,"Inter":4184,"aventure":4185,"protéger":4186,"Né":4187,"Pet":4188,"Vol":4189,"##ôme":4190,"desc":4191,"incident":4192,"entière":4193,"atti":4194,"offensi":4195,"situé":4196,"présenter":4197,"réaliser":4198,"anti":4199,"ministres":4200,"Déf":4201,"industrie":4202,"blo":4203,"##vres":4204,"Laurent":4205,"entour":4206,"arch":4207,"preuve":4208,"commence":4209,"experts":4210,"clairement":4211,"ferme":4212,"aéroport":4213,"Tunis":4214,"ara":4215,"##ya":4216,"##èles":4217,"déli":4218,"##alen":4219,"grève":4220,"utilisation":4221,"fonctionn":4222,"scolaire":4223,"stratégie":4224,"soldats":4225,"36":4226,"400":4227,"Air":4228,"satis":4229,"émo":4230,"##chir":4231,"##olé":4232,"trou":4233,"locale":4234,"bande":4235,"reconnu":4236,"Olivier":4237,"Pat":4238,"Sim":4239,"US":4240,"ram":4241,"tenue":4242,"##sky":4243,"##amp":4244,"##esti":4245,"##erait":4246,"intervention":4247,"retrait":4248,"mach":4249,"envis":4250,"élevé":4251,"puisqu":4252,"##onomie":4253,"menace":4254,"artistes":4255,"professionnels":4256,"crimin":4257,"condamné":4258,"circulation":4259,"erre":4260,"Mad":4261,"fou":4262,"lien":4263,"mine":4264,"##pond":4265,"##ano":4266,"##quie":4267,"##ett":4268,"##tage":4269,"acteur":4270,"##ots":4271,"cad":4272,"permettra":4273,"communes":4274,"attaques":4275,"frontière":4276,"Amaz":4277,"lumière":4278,"Alexand":4279,"inquié":4280,"totalement":4281,"championnat":4282,"Affaires":4283,"bo":4284,"gendar":4285,"vise":4286,"##itut":4287,"chante":4288,"##range":4289,"franco":4290,"ambassade":4291,"animaux":4292,"arrêter":4293,"journalistes":4294,"soutenir":4295,"Espagne":4296,"Pé":4297,"bonnes":4298,"vague":4299,"##uves":4300,"##DC":4301,"##roph":4302,"acquis":4303,"##éros":4304,"##érité":4305,"permettant":4306,"connaître":4307,"prévue":4308,"prévoit":4309,"faveur":4310,"crois":4311,"économiques":4312,"urb":4313,"spor":4314,"commerce":4315,"terminé":4316,"climat":4317,"règles":4318,"Chaque":4319,"ajouter":4320,"Genève":4321,"tarif":4322,"pétrole":4323,"Dis":4324,"idé":4325,"éd":4326,"élu":4327,"##pt":4328,"##itch":4329,"##itue":4330,"##ensions":4331,"peux":4332,"dépos":4333,"envers":4334,"puisse":4335,"opportun":4336,"origin":4337,"maximum":4338,"recommand":4339,"CN":4340,"Den":4341,"Mc":4342,"Port":4343,"Ra":4344,"##téra":4345,"incl":4346,"##acé":4347,"exclus":4348,"mots":4349,"##rick":4350,"Martin":4351,"coord":4352,"demander":4353,"##ockey":4354,"banque":4355,"violences":4356,"bâtiment":4357,"immédiate":4358,"esprit":4359,"Gar":4360,"Peu":4361,"Sw":4362,"Sar":4363,"cru":4364,"haute":4365,"veux":4366,"##iel":4367,"##ED":4368,"##onnement":4369,"##chée":4370,"##ung":4371,"accueil":4372,"Abd":4373,"Université":4374,"34":4375,"Biden":4376,"fus":4377,"tendance":4378,"venu":4379,"##ye":4380,"##ann":4381,"prim":4382,"avion":4383,"##old":4384,"exig":4385,"##ades":4386,"Marine":4387,"génération":4388,"effets":4389,"susc":4390,"tax":4391,"améliorer":4392,"technologie":4393,"établissement":4394,"ONU":4395,"propriétaire":4396,"prolong":4397,"Camer":4398,"We":4399,"cuis":4400,"nor":4401,"smart":4402,"##onge":4403,"dési":4404,"rejet":4405,"##lém":4406,"meilleurs":4407,"agricul":4408,"défi":4409,"frais":4410,"actuel":4411,"vouloir":4412,"##landais":4413,"chiffre":4414,"supplémentaires":4415,"Améric":4416,"allemand":4417,"leader":4418,"rythme":4419,"honneur":4420,"Her":4421,"Per":4422,"Vic":4423,"boule":4424,"##sé":4425,"##uelles":4426,"dédi":4427,"surp":4428,"##agé":4429,"##néra":4430,"termes":4431,"##phones":4432,"vice":4433,"Ukrain":4434,"capable":4435,"dispose":4436,"ukrainiens":4437,"futur":4438,"performance":4439,"dizaines":4440,"faible":4441,"langue":4442,"retraite":4443,"endroit":4444,"Apple":4445,"financement":4446,"énergétique":4447,"Cas":4448,"Cro":4449,"Lond":4450,"ami":4451,"cité":4452,"##ba":4453,"##rand":4454,"##nier":4455,"##outes":4456,"##onnés":4457,"mécan":4458,"adoles":4459,"personnages":4460,"affec":4461,"sépar":4462,"consac":4463,"chefs":4464,"voitures":4465,"sources":4466,"lancement":4467,"FC":4468,"Iran":4469,"Wash":4470,"dynam":4471,"##rist":4472,"##oni":4473,"##tic":4474,"remis":4475,"##ama":4476,"##oile":4477,"intention":4478,"dimin":4479,"algéri":4480,"ath":4481,"##ientôt":4482,"touché":4483,"Anne":4484,"coron":4485,"corres":4486,"grave":4487,"responsabilité":4488,"Guinée":4489,"investissement":4490,"facile":4491,"##book":4492,"##VID":4493,"Seu":4494,"Uni":4495,"vais":4496,"île":4497,"##acté":4498,"##abeth":4499,"##endue":4500,"acces":4501,"entrer":4502,"déplo":4503,"##olet":4504,"##ronique":4505,"symp":4506,"corre":4507,"Max":4508,"blessé":4509,"ouvrir":4510,"Défense":4511,"mic":4512,"massi":4513,"sites":4514,"test":4515,"##TA":4516,"##ements":4517,"##ks":4518,"##inet":4519,"##quées":4520,"##aga":4521,"moder":4522,"siège":4523,"passion":4524,"populations":4525,"voulu":4526,"téléphone":4527,"anglais":4528,"réfugiés":4529,"Washington":4530,"33":4531,"Ag":4532,"Dj":4533,"Tou":4534,"vert":4535,"##ty":4536,"##50":4537,"##ener":4538,"ench":4539,"##alition":4540,"##eaux":4541,"seraient":4542,"présents":4543,"2024":4544,"interpr":4545,"adjoint":4546,"conser":4547,"secours":4548,"organisé":4549,"##formes":4550,"poursuivre":4551,"tirs":4552,"approvision":4553,"démocratie":4554,"COVID":4555,"correspond":4556,"Oues":4557,"file":4558,"pouss":4559,"##uation":4560,"##gies":4561,"##irus":4562,"réforme":4563,"##érés":4564,"Mali":4565,"##oriz":4566,"barre":4567,"épisode":4568,"Amazon":4569,"37":4570,"CA":4571,"Jeux":4572,"Met":4573,"ache":4574,"bras":4575,"ly":4576,"solutions":4577,"âgé":4578,"##gées":4579,"##yst":4580,"chap":4581,"2000":4582,"restent":4583,"class":4584,"recru":4585,"filles":4586,"##ologiques":4587,"utilisé":4588,"développer":4589,"dizaine":4590,"extérieur":4591,"Az":4592,"Del":4593,"dérou":4594,"##neurs":4595,"##ousse":4596,"##ates":4597,"##uler":4598,"maroc":4599,"accro":4600,"résist":4601,"##allon":4602,"Parlement":4603,"##ventions":4604,"million":4605,"Russes":4606,"suisse":4607,"officielle":4608,"balle":4609,"patients":4610,"témoign":4611,"régulièrement":4612,"Ouest":4613,"Nations":4614,"Pal":4615,"Puis":4616,"##sa":4617,"##uels":4618,"##ham":4619,"##êche":4620,"##onst":4621,"québ":4622,"##lix":4623,"##ffe":4624,"perte":4625,"Maison":4626,"connaît":4627,"milliard":4628,"chercher":4629,"Red":4630,"civils":4631,"géant":4632,"établissements":4633,"Nicol":4634,"Ivoire":4635,"Austra":4636,"Dire":4637,"Fer":4638,"banc":4639,"##ael":4640,"##ith":4641,"##iew":4642,"##ney":4643,"##olf":4644,"sond":4645,"##iennes":4646,"évolution":4647,"poids":4648,"attente":4649,"revenu":4650,"voulait":4651,"manifest":4652,"laissé":4653,"embar":4654,"photos":4655,"difficultés":4656,"Ses":4657,"Trans":4658,"##euse":4659,"##ste":4660,"illég":4661,"choc":4662,"entendu":4663,"reprise":4664,"croire":4665,"échang":4666,"condition":4667,"augmenté":4668,"acheter":4669,"réduction":4670,"partage":4671,"conseiller":4672,"figure":4673,"avocat":4674,"circuit":4675,"Bour":4676,"bre":4677,"viennent":4678,"##éren":4679,"##fique":4680,"##ity":4681,"##vez":4682,"##érieux":4683,"interd":4684,"vision":4685,"relève":4686,"créé":4687,"petites":4688,"souvenir":4689,"référence":4690,"immobil":4691,"absolu":4692,"disponibles":4693,"répondu":4694,"juridi":4695,"Italie":4696,"Ly":4697,"Pa":4698,"bientôt":4699,"hyp":4700,"piste":4701,"##cations":4702,"##ura":4703,"##urants":4704,"##diction":4705,"réac":4706,"cata":4707,"devons":4708,"hommage":4709,"gardien":4710,"Intern":4711,"suffis":4712,"observ":4713,"dispositif":4714,"renforcer":4715,"Royaume":4716,"matériel":4717,"défaite":4718,"préoccup":4719,"(.":4720,"##rite":4721,"##iz":4722,"##line":4723,"##itant":4724,"##tig":4725,"##meub":4726,"##anda":4727,"fini":4728,"reprendre":4729,"engage":4730,"allons":4731,"européens":4732,"civile":4733,"préparer":4734,"accélé":4735,"Dom":4736,"ate":4737,"jau":4738,"lic":4739,"pont":4740,"soup":4741,"tellement":4742,"##hi":4743,"##tim":4744,"printe":4745,"##ardin":4746,"##avirus":4747,"déclaration":4748,"importants":4749,"électrique":4750,"américains":4751,"opéra":4752,"principale":4753,"rappelé":4754,"secondes":4755,"##igueur":4756,"enregistré":4757,"poursuivi":4758,"printemps":4759,"Kar":4760,"Qatar":4761,"har":4762,"éducation":4763,"##jour":4764,"##tian":4765,"enne":4766,"##ieuse":4767,"##lien":4768,"inde":4769,"chasse":4770,"maisons":4771,"rav":4772,"minute":4773,"##ports":4774,"tenté":4775,"tenter":4776,"flam":4777,"changements":4778,"analyse":4779,"##novation":4780,"Joe":4781,"salariés":4782,"heureux":4783,"audience":4784,"sensibil":4785,"Zelen":4786,"99":4787,"Ev":4788,"##nelles":4789,"##uments":4790,"##flix":4791,"##istiques":4792,"##alle":4793,"troupes":4794,"apporter":4795,"##ott":4796,"passant":4797,"recours":4798,"publiques":4799,"immeub":4800,"visant":4801,"jeunesse":4802,"humains":4803,"livrais":4804,"vaccination":4805,"Facebook":4806,"virus":4807,"quitté":4808,"Burkin":4809,"Netflix":4810,"exercice":4811,"manifestants":4812,"Jér":4813,"Rich":4814,"##naire":4815,"##amé":4816,"appris":4817,"##paravant":4818,"certaine":4819,"prochains":4820,"échec":4821,"principe":4822,"nécessaires":4823,"signif":4824,"usine":4825,"émission":4826,"pièces":4827,"gamme":4828,"classique":4829,"Oc":4830,"bons":4831,"lende":4832,"##da":4833,"##bor":4834,"détention":4835,"places":4836,"##cipé":4837,"proxim":4838,"chans":4839,"introdu":4840,"trafic":4841,"##érée":4842,"participé":4843,"perdre":4844,"interro":4845,"séries":4846,"##apt":4847,"ciel":4848,"proposé":4849,"techniques":4850,"refusé":4851,"valeurs":4852,"fortement":4853,"placé":4854,"écriv":4855,"promotion":4856,"Vincent":4857,"rejoindre":4858,"phénomène":4859,"lendemain":4860,"Non":4861,"Sta":4862,"fle":4863,"héros":4864,"hockey":4865,"lois":4866,"roy":4867,"souver":4868,"score":4869,"##ctu":4870,"##gra":4871,"##stroph":4872,"chambre":4873,"##amin":4874,"oui":4875,"traitement":4876,"##duc":4877,"méth":4878,"adul":4879,"cartes":4880,"attent":4881,"##résil":4882,"échange":4883,"échapp":4884,"##ressé":4885,"principalement":4886,"construire":4887,"identité":4888,"extrêmement":4889,"collaboration":4890,"changé":4891,"Zelensky":4892,"proximité":4893,"Fédération":4894,"Ham":4895,"Luxemb":4896,"RT":4897,"four":4898,"nul":4899,"tué":4900,"##titude":4901,"##umé":4902,"##mont":4903,"##bert":4904,"##rages":4905,"prot":4906,"##resser":4907,"##ocation":4908,"alb":4909,"proposer":4910,"proposition":4911,"anciens":4912,"nécessité":4913,"étranger":4914,"manifestation":4915,"statut":4916,"chinois":4917,"Londres":4918,"Nicolas":4919,"Sé":4920,"San":4921,"bour":4922,"pire":4923,"rues":4924,"##taine":4925,"##dia":4926,"##atoires":4927,"remer":4928,"##nements":4929,"expert":4930,"centres":4931,"relation":4932,"immig":4933,"objectifs":4934,"financière":4935,"visiteurs":4936,"conclu":4937,"riches":4938,"Champ":4939,"logement":4940,"directrice":4941,"##âteau":4942,"couleurs":4943,"entrepre":4944,"forcément":4945,"gagn":4946,"##pin":4947,"##quence":4948,"excl":4949,"##geois":4950,"prévenu":4951,"invité":4952,"music":4953,"professeur":4954,"représentants":4955,"brux":4956,"critiques":4957,"sentiment":4958,"Donc":4959,"hospit":4960,".”":4961,"Fab":4962,"Sec":4963,"Tch":4964,"Wall":4965,"fisc":4966,"##off":4967,"##ood":4968,"##ON":4969,"##orer":4970,"déch":4971,"cong":4972,"chute":4973,"appui":4974,"complé":4975,"exposition":4976,"##ruption":4977,"expliquer":4978,"moments":4979,"combats":4980,"exemp":4981,"privil":4982,"micro":4983,"bruxell":4984,"Dou":4985,"Rég":4986,"gagné":4987,"lire":4988,"lignes":4989,"tâ":4990,"##wa":4991,"##EA":4992,"##any":4993,"##ene":4994,"##ellig":4995,"##ecture":4996,"##cien":4997,"réjou":4998,"exac":4999}}}