{"version":"1.0","truncation":null,"padding":null,"added_tokens":[{"id":0,"special":true,"content":"<UNK>","single_word":false,"lstrip":false,"rstrip":false,"normalized":false},{"id":1,"special":true,"content":"<SEP>","single_word":false,"lstrip":false,"rstrip":false,"normalized":false},{"id":2,"special":true,"content":"<MASK>","single_word":false,"lstrip":false,"rstrip":false,"normalized":false},{"id":3,"special":true,"content":"<CLS>","single_word":false,"lstrip":false,"rstrip":false,"normalized":false}],"normalizer":null,"pre_tokenizer":{"type":"Whitespace"},"post_processor":null,"decoder":null,"model":{"type":"Unigram","unk_id":0,"vocab":[["<UNK>",0.0],["<SEP>",0.0],["<MASK>",0.0],["<CLS>",0.0],["s",-2.690915836108335],["de",-3.3676526003547718],[".",-3.4079899542180563],[",",-3.4443102540832555],["e",-3.5498271415706064],["a",-3.8712710675414357],["en",-4.127937457290502],["t",-4.181764482145043],["la",-4.283170662677726],["d",-4.461175051557987],["’",-4.6320615917075045],["the",-4.697308631878068],["y",-4.717789824671579],["n",-4.796939017165247],["que",-4.83014990299835],["in",-4.910553920772516],["el",-5.07031570405028],["l",-5.087383921452519],["to",-5.115115979087907],["-",-5.176467865125476],["o",-5.292068355240437],["le",-5.293060198582301],["un",-5.302925200995691],["of",-5.336087932508361],["on",-5.394948073807349],["and",-5.400402577541962],["'",-5.409634689126744],["is",-5.523976404612869],["à",-5.5894184472874375],["van",-5.683315024977912],["u",-5.706830735920008],["het",-5.796054028195167],["les",-5.810551426232113],["los",-5.8298963644413355],["een",-5.835301604394488],["ing",-5.837302458134559],["\"",-5.85839801993499],["i",-5.8730549535435195],["“",-5.944977535701273],["al",-5.98973226660063],["ó",-6.0231372882484315],["er",-6.028788971844985],["est",-6.037177746020367],["du",-6.047085775156624],["del",-6.122182274257639],["con",-6.124053329822546],["dat",-6.184617373671355],["ción",-6.2119898540544],["op",-6.2507988331457565],["(",-6.25139975974102],["no",-6.261643540520973],["por",-6.291099530186662],["for",-6.298116462760872],["that",-6.308058419509196],["A",-6.3296543851500005],["be",-6.334087249985071],["r",-6.344458217660652],["para",-6.347217874954353],[":",-6.36176385272211],["De",-6.385539314618587],["ly",-6.388083414315618],["une",-6.393458455450183],["pour",-6.396655236112453],["La",-6.406340180059168],["una",-6.450487688070108],["The",-6.463019593079618],["was",-6.480671302225801],["it",-6.497416182755444],["qui",-6.5503302012635185],["I",-6.576062378371816],["je",-6.591001129161173],["dans",-6.5947400141632535],["with",-6.601185923836132],["voor",-6.618406830887059],["met",-6.622897880263407],["au",-6.624131108791525],["«",-6.640526181056742],["sur",-6.664465174514085],["ce",-6.698741527490046],["zijn",-6.704277030246278],["die",-6.706140887243416],["lo",-6.707939121183092],["niet",-6.721900710403077],["par",-6.7268208428184835],["il",-6.730311600278155],["pas",-6.7474534253273255],["las",-6.7519393128665985],["En",-6.758097564935573],["C",-6.7682684346516115],[")",-6.7707603462758374],["om",-6.809356996235909],["El",-6.809667926634919],["an",-6.813662709202545],["re",-6.8264882366255595],["ment",-6.827689398800905],["é",-6.8461279363675835],["m",-6.885276527705429],["ha",-6.897141947736895],["Le",-6.900126113633847],["c",-6.931657219395355],["más",-6.943062733370027],["we",-6.949004888701234],["are",-6.958497977215549],["he",-6.981038847163971],["aan",-6.98495797072027],["?",-6.9941717908121],["have",-7.016976559392653],["said",-7.060077584232536],["ont",-7.072548944356923],["plus",-7.081850174745277],["over",-7.10063523920601],["son",-7.116894251124878],["S",-7.124377716698204],["L",-7.128463895908032],["ook",-7.153915464008714],["f",-7.178032573041685],["como",-7.17925891487832],["me",-7.1814941392134415],["qu",-7.191784050781388],["from",-7.1926339165124915],["z",-7.197232530135317],["19",-7.199030221034716],["by",-7.202673748275627],["has",-7.205968415276141],["1",-7.214051710508844],["aux",-7.219649085218139],["”",-7.237295794664487],["or",-7.2400764017396515],["will",-7.2572667769571275],["avec",-7.2573649076051865],["p",-7.257964847376382],["bij",-7.269349563464445],["mente",-7.2766227624854345],["maar",-7.277350607430552],["20",-7.285665588941862],["ze",-7.287138982480743],["not",-7.30663675892292],["uit",-7.3163325173995535],["été",-7.3362937700479804],["In",-7.366345851004338],["dan",-7.376201400932249],["had",-7.3829094529646095],["this",-7.4012805442682055],["2",-7.405184856093069],["%",-7.420034237184712],["E",-7.427080168371155],["ik",-7.432218150685875],["Het",-7.4441986431269935],["his",-7.4484610145653125],["nog",-7.450009590090753],["h",-7.458773740222298],["‘",-7.46156934334855],["este",-7.491056695929334],["but",-7.504787916947414],["you",-7.505730243641814],[".”",-7.506378099689501],["ent",-7.5170569315070725],["”,",-7.52795862392361],["sus",-7.535063487752151],["entre",-7.552790442939807],["out",-7.5569543993027235],["their",-7.557976137419741],["door",-7.563729570329208],["zo",-7.583627217898629],["can",-7.58771096277782],["als",-7.596348258183088],["»",-7.596501132660327],["her",-7.605042809043967],["g",-7.610941547713175],["wel",-7.619965178096367],["naar",-7.6264923499286805],["T",-7.638587512803268],["3",-7.641183215047617],["who",-7.6456062114866015],["mi",-7.647609760493033],["»,",-7.652197616825925],["sont",-7.653056624297545],["ión",-7.653370260993629],["Il",-7.656609397952467],["ou",-7.662749138243301],["heeft",-7.662799171447512],["5",-7.672853981083081],["ge",-7.682508869713603],["M",-7.70604147985347],["x",-7.706652902044942],["up",-7.715569495468557],["Les",-7.719655052954545],["D",-7.7228474164188015],["ciones",-7.723395959713578],["k",-7.7382244984221575],["been",-7.740893223073401],["We",-7.742046046294709],["000",-7.7426728048801365],["ver",-7.743576160470587],["all",-7.74459056016576],["4",-7.749263353844112],["dit",-7.755482226661734],["they",-7.760449298217406],["fue",-7.766497869593637],["more",-7.777196423359072],["were",-7.7826809397498575],["hij",-7.797146942656562],["cette",-7.804487707083599],["meer",-7.809237138408205],["mais",-7.81859083327676],["fait",-7.819837048825775],[",”",-7.832573926735558],["mos",-7.843400028886736],["étai",-7.846954436083275],["hebben",-7.855907914343399],[").",-7.856702948530309],["man",-7.858342643828184],["one",-7.860318363355821],["moet",-7.872025703996075],["kan",-7.880729322275405],["about",-7.888704707883619],["pero",-7.8890952041599025],["people",-7.890263551619224],["also",-7.894191169348018],["word",-7.9112705025700425],["dos",-7.914373050660155],["tout",-7.915072605845312],["bien",-7.915518106483647],["worden",-7.91845355116029],["It",-7.919821215124145],["6",-7.919987093683458],["jaar",-7.922124166573962],["time",-7.927134661958865],["años",-7.927719340405556],["$",-7.937424867111398],["10",-7.957639028424415],["esta",-7.966015672044508],["P",-7.9715583000656896],["puis",-7.977110672760119],["han",-7.977690233843738],["”.",-7.978406066815165],["être",-7.9843220160577655],["B",-7.98770153952132],["wat",-7.987724713073895],["which",-7.98895493770036],["He",-7.997981827557135],["nous",-7.9991985092141675],["elle",-8.001816769008196],["también",-8.014090669702519],["On",-8.014802492224096],["va",-8.016951620987872],["\",",-8.018324100642864],["está",-8.020074504714598],["leur",-8.020928023609837],["No",-8.021833105821878],["Un",-8.034640751141653],["tiene",-8.040195511791058],["Dat",-8.045397582491916],["waar",-8.048964034666733],["like",-8.04921729772492],["–",-8.049474640397547],["even",-8.05373415816685],["j",-8.054242316983004],["year",-8.055677175590839],["deux",-8.057445054514822],["Je",-8.058849054673681],["),",-8.074417998400309],["sobre",-8.077341521770089],["Ik",-8.08296510171232],["would",-8.08695292682301],["…",-8.090149792017737],["ndo",-8.090527917112148],["día",-8.09713124257091],["Los",-8.097502573231104],["/",-8.097865447642533],["2022",-8.10326390194838],["ón",-8.10520339474901],["our",-8.107235725665085],["ve",-8.108612416969732],["8",-8.108672284677027],["F",-8.111252966108486],["O",-8.111700348671333],["autre",-8.114530296648628],["même",-8.114763211385952],["new",-8.117765735897978],["geen",-8.117788351016754],["avait",-8.131467502719516],["lui",-8.138352489081688],["7",-8.14280942643618],["v",-8.142958471898938],["comme",-8.14775036164656],["N",-8.152460496441416],[";",-8.164650995403711],["ies",-8.177010700141802],["aussi",-8.177778904160254],["ant",-8.17890850222909],["vous",-8.179016718065471],["when",-8.184030182376619],["fin",-8.187052653541734],["zich",-8.188389717368205],["other",-8.189422189606473],["after",-8.19437538307941],["werd",-8.200668271357376],["per",-8.219158962976627],["—",-8.219208635941804],["if",-8.22137921438467],["9",-8.222625737004076],["day",-8.222753984349103],["cause",-8.222890986303225],["30",-8.235403772048214],["place",-8.238933062749732],["kunnen",-8.238980750306974],["ans",-8.240867956545127],["todo",-8.24094366863938],["puede",-8.243287663157586],["week",-8.251414834711312],["Y",-8.253327728591165],["faire",-8.257440367662182],["there",-8.2580698853401],["Si",-8.261715464012402],["what",-8.266147210721945],["she",-8.268619149628789],["just",-8.270576386660464],["veel",-8.270634092761517],["0",-8.272103934147692],["2020",-8.273231754744138],["parte",-8.273638171908878],["daar",-8.275774401792603],["après",-8.281438094736078],["G",-8.283143784918437],["muy",-8.286173304139488],["b",-8.286626606087603],["some",-8.29538301708859],["hun",-8.298712558684063],["Al",-8.301972815887527],["!",-8.303329044574193],["part",-8.30414181237943],["than",-8.305336065210742],["país",-8.308536956124755],["».",-8.31554945784681],["U",-8.323138015860447],["año",-8.329429404351723],["Maar",-8.330006783595945],["gaan",-8.332108439682195],["eux",-8.332851324390848],["année",-8.333753022494836],["gaat",-8.335360401287595],["point",-8.337405248885528],["ando",-8.339970679974034],["mensen",-8.344505322044023],["avoir",-8.345298572872633],["R",-8.347899776620487],["now",-8.34815189761196],["hasta",-8.358219230398985],["onder",-8.362187191948173],["Por",-8.366036723028731],["rès",-8.366467182896798],["get",-8.36763700319802],["them",-8.368250806014473],["first",-8.372480370155742],["zou",-8.382479859456872],["15",-8.38360247393802],["its",-8.386023046353271],["two",-8.387765926144311],["public",-8.392336976055343],["plan",-8.39430914888198],["J",-8.397613430686476],["fois",-8.39776575704434],["weer",-8.400156432954347],["2021",-8.405463412796184],["Se",-8.410648554638229],["hay",-8.413179652256007],["tegen",-8.413425267610506],["how",-8.414491314469158],["want",-8.414814093707568],["deze",-8.415374561601489],["my",-8.417302165873476],["desde",-8.418358694407537],["million",-8.420188479712372],["go",-8.427300164806159],["oit",-8.428027474511982],["17",-8.432946045278586],["12",-8.434851828040179],["ux",-8.435286539774136],["16",-8.441603126418443],["moment",-8.441998042220565],["personas",-8.449774396071776],["co",-8.451043148409845],["him",-8.455176743201086],["back",-8.455505590890473],["cuando",-8.46280329028837],["ía",-8.466041426816684],["11",-8.4730088309141],["donde",-8.475467895011098],["durant",-8.480855957891173],["w",-8.487311463911794],["contre",-8.510117388373487],["Een",-8.51415203300034],["lors",-8.516478240414884],["This",-8.51672467399177],["long",-8.518210459330128],["pays",-8.520168418695516],["haar",-8.524653073832527],["Pour",-8.525418318539689],["state",-8.526064244371643],["nos",-8.528623328664754],["most",-8.528927965052167],["But",-8.531303858337557],["your",-8.532118152078626],["contra",-8.532436674964089],["caso",-8.535912199013627],["24",-8.538780885613992],["land",-8.541954322309977],["toda",-8.546657972092827],["peu",-8.547010623881702],["could",-8.550134334539566],["jour",-8.552260019893431],["car",-8.563066404607431],["18",-8.567758499488162],["dijo",-8.570005467458262],["COVID",-8.572073175048224],["ser",-8.575685312414944],["ces",-8.577639299975138],["egún",-8.581249111872568],["coup",-8.583369792918237],["personne",-8.594427763956702],["any",-8.59646855355317],["près",-8.600874566199188],["13",-8.602854667178203],["goed",-8.603690975278838],["heb",-8.604061882982858],["total",-8.605103255921918],["zelf",-8.606336262868762],["ación",-8.607363821192687],["work",-8.61027961687132],["tot",-8.615424507817327],["V",-8.616898424587518],["vez",-8.620650977360985],["Mais",-8.622272785240357],["porque",-8.622990209736741],["komen",-8.627357925365857],["into",-8.627483131523745],["avant",-8.62901156748327],["peut",-8.630881710118448],["premier",-8.634419054549278],["mee",-8.635843196819414],["ar",-8.642052364648599],["ir",-8.642399241799552],["being",-8.645316950188963],["take",-8.652814639447644],["through",-8.653628430587933],["able",-8.65503890876455],["real",-8.65514487178407],["Trump",-8.65613321263416],["last",-8.656533478045034],["momento",-8.657256376763236],["temp",-8.657469464762741],["dernier",-8.658118141108538],["final",-8.658300674568743],["staat",-8.659272713044142],["¿",-8.664586000745288],["andere",-8.670806593732502],["toute",-8.670854240198786],["tiempo",-8.670898008340597],["twee",-8.671044392768755],["hier",-8.671097688203963],["police",-8.673165059396105],["K",-8.676591796951687],["25",-8.677950594361956],["during",-8.679712879243233],["face",-8.680483544465783],["solo",-8.682676816009664],["ante",-8.685056207951606],["social",-8.688543513955462],["forma",-8.68905878331643],["50",-8.689631657336124],["había",-8.69040202171221],["make",-8.690440206533486],["ù",-8.695022029353392],["14",-8.698704471059159],["quien",-8.699009550093308],["ma",-8.704985146246148],["where",-8.706303091579258],["coronavirus",-8.71063428107244],["millones",-8.714278459789664],["way",-8.715538740949658],["nombre",-8.71625172478711],["doen",-8.722410548116466],["kom",-8.725839455175496],["home",-8.72736595387737],["Van",-8.729076940360509],["auto",-8.730695209658261],["Et",-8.73227586589936],["todos",-8.735431475840077],["Une",-8.738294092694517],["hacer",-8.739416133231678],["án",-8.74133671523013],["maken",-8.743644128604505],["iendo",-8.747678510377273],["well",-8.750202776517252],["encor",-8.75367473173888],["monde",-8.754148013177797],["every",-8.755589300182068],["nieuwe",-8.7558198411503],["sera",-8.757620281559088],["base",-8.757660788381918],["high",-8.75801364682593],["krijg",-8.759730257398786],["many",-8.761906680558443],["government",-8.762193577696596],["off",-8.76404544997433],["team",-8.764105101066573],["going",-8.765427441247898],["président",-8.77379361318383],["Er",-8.774706811170777],["San",-8.782200620263618],["zal",-8.783292999193495],["están",-8.784190911855823],["whil",-8.785422760614214],["cuenta",-8.789094077136845],["moin",-8.79058505045866],["New",-8.79200968853969],["tijd",-8.793048453133423],["before",-8.793505506288579],["equipo",-8.793539253278848],["sans",-8.793959198012718],["Estado",-8.797419012849907],["100",-8.798040745634156],["première",-8.798581450156295],["mayor",-8.801126605983068],["nuevo",-8.801442818456135],["Con",-8.804287820908035],["ex",-8.805089035887796],["And",-8.812106281559824],["galement",-8.813066823186453],["sido",-8.816582594894882],["need",-8.81870881829144],["ville",-8.81872436073333],["help",-8.819748642845749],["thos",-8.820545193511851],["toch",-8.820768353158481],["France",-8.820970011405505],["club",-8.82283353682968],["vida",-8.825110698969585],["tous",-8.82522069676261],["hace",-8.825609635443396],["mismo",-8.828266252398107],["down",-8.82828480046637],["partido",-8.82917038640494],["years",-8.833600547521145],["cada",-8.83421933022058],["primera",-8.83433684221262],["H",-8.834921522405288],["mis",-8.836172277923213],["emos",-8.840643404761064],["semana",-8.841342541547636],["health",-8.8447703117779],["film",-8.845159768146758],["tres",-8.84571031794907],["vind",-8.84599851876677],["mijn",-8.851123779551127],["wil",-8.85333828479622],["euros",-8.857709055837836],["weg",-8.859766284768206],["gran",-8.860148698336225],["should",-8.860359602179255],["alle",-8.864973826979721],["media",-8.869928987533712],["Ze",-8.870287656065038],["question",-8.871024294963297],["dont",-8.871467274183168],["importante",-8.87418140796151],["embre",-8.87628357193443],["ministre",-8.879970816099966],["know",-8.881548692959129],["volgen",-8.882283219228306],["mois",-8.88266733392495],["otros",-8.88734046941919],["era",-8.887669436764833],["continue",-8.887838847826352],["presidente",-8.891776857133626],["Op",-8.89226465678675],["thing",-8.892829584022419],["agains",-8.89461314724159],["así",-8.897724511789974],["hoe",-8.897959917897243],["Nous",-8.899482222187675],["tras",-8.903476653123526],["después",-8.90772589964805],["Lo",-8.909158264101729],["Als",-8.910181219081604],["zegt",-8.910542774381295],["á",-8.91062178645654],["th",-8.911319384806378],["mal",-8.911396133920828],["último",-8.911502569385679],["déjà",-8.912195899970726],["nueva",-8.916057942196987],["nouveau",-8.916627191747803],["lugar",-8.916748109066663],["idad",-8.917423998426264],["pasado",-8.918439578731412],["heel",-8.91861984191453],["still",-8.91933632290502],["Dans",-8.919904855838519],["local",-8.922264425536618],["cas",-8.922287119163547],["Ook",-8.924462691866108],["euro",-8.924767345002415],["21",-8.927827470153044],["Hij",-8.929712480557292],["nouvelle",-8.930094955897667],["eerste",-8.9309684610241],["será",-8.938483863926091],["ujour",-8.940927847822898],["quelque",-8.941833276654268],["made",-8.943709089277977],["ci",-8.94417618074634],["certain",-8.944641559477157],["ju",-8.947336040601332],["trois",-8.9492456813991],["40",-8.951619143227887],["three",-8.952739807299306],["start",-8.952970687716329],["vie",-8.954150698948279],["tanto",-8.956799654485884],["200",-8.959481529103531],["leurs",-8.961227267763467],["donc",-8.965090439289558],["medio",-8.965987613838028],["iets",-8.968134734063188],["force",-8.969226973633365],["22",-8.973991368301888],["Die",-8.975853991264698],["Nederland",-8.978653613567479],["game",-8.979326906221363],["may",-8.982190486945004],["Ademá",-8.98262855259586],["Daar",-8.982899911703608],["She",-8.983773583351905],["don",-8.984819973469246],["lopen",-8.985057597384209],["second",-8.986016037578892],["support",-8.986974687983679],["sector",-8.987241855994291],["00",-8.990139396646702],["ça",-8.990369547434984],["hem",-8.992492184239312],["plusieur",-8.992707402053998],["very",-8.994727764398702],["mejor",-8.994915009361735],["entras",-8.996071337947136],["zien",-8.998003016877725],["hecho",-8.998513519758149],["sous",-8.998562572166769],["hele",-9.000279975589951],["ever",-9.002248985476863],["virus",-9.003792405444276],["best",-9.006465101740133],["semaine",-9.008927406712889],["trabajo",-9.00908260349316],["Elle",-9.010121755689854],["otro",-9.010765353735692],["ils",-9.011181220661733],["ca",-9.011449987633023],["dernière",-9.013123345935131],["ainsi",-9.013363334723364],["situation",-9.01356886699299],["Zo",-9.015265897911558],["match",-9.015302010686298],["tussen",-9.015830955529474],["sociale",-9.018656327808063],["alleen",-9.018793499574016],["school",-9.019697568707308],["grote",-9.02241565275044],["ation",-9.02336794229734],["alors",-9.027532978489315],["country",-9.028016240820985],["tant",-9.030152359666353],["much",-9.030625751887715],["heure",-9.032075633176742],["good",-9.032522848009107],["À",-9.033143825230798],["suite",-9.034428352063424],["Pero",-9.036557025072756],["under",-9.040628453447741],["menos",-9.042852109892994],["use",-9.044127373721214],["Esta",-9.04592259270693],["issue",-9.046122546052032],["via",-9.046483838417481],["voir",-9.048065184912534],["pandemic",-9.04916188822904],["Na",-9.049968138082892],["antes",-9.050418957424753],["punto",-9.058079481174264],["Au",-9.060911778091448],["selon",-9.06126011551892],["number",-9.061731238164928],["change",-9.063586086052394],["horas",-9.064804405838661],["open",-9.065117489528873],["homme",-9.067210224772985],["important",-9.070280630499138],["cases",-9.070350879527982],["projet",-9.07139843154739],["business",-9.072179000648251],["chez",-9.073506082332072],["There",-9.077589137013248],["ahora",-9.078615712890379],["service",-9.078984568202065],["tener",-9.079045094589045],["procent",-9.079212395719257],["mucho",-9.07981150897933],["information",-9.081504119484672],["test",-9.081740231032835],["think",-9.081747489064698],["Covid",-9.082064021986696],["empresa",-9.082461355479916],["says",-9.08564388072191],["around",-9.086043715102956],["China",-9.087646374764494],["So",-9.087659505754454],["équipe",-9.092391822126352],["Europe",-9.0927499467047],["ciudad",-9.096526485726331],["primer",-9.096871141032633],["calle",-9.097004044290387],["these",-9.099029940649782],["Este",-9.100746818655983],["right",-9.101044658207215],["Ukraine",-9.105005044205795],["heid",-9.106292707288159],["If",-9.108280577142924],["Be",-9.108889719842526],["finale",-9.109929724402575],["come",-9.110502689783656],["actual",-9.110963386650795],["familia",-9.1112083218825],["Para",-9.11264583081783],["politique",-9.11434522409331],["ado",-9.115356211099291],["old",-9.115454614845236],["beau",-9.115975657935902],["W",-9.116296382090695],["manera",-9.11661529099614],["world",-9.116721791612562],["fuero",-9.119057339634171],["ico",-9.120727696408837],["qué",-9.121058748583318],["acuerdo",-9.123786951450864],["water",-9.125172823310486],["season",-9.125787931745087],["Me",-9.126405279123603],["such",-9.127485516745981],["Sin",-9.127839275663046],["mundo",-9.127969614154205],["look",-9.128597342719539],["23",-9.129337520763695],["dag",-9.129615513506577],["ur",-9.132719350559187],["&",-9.133341330059638],["vers",-9.134318595075854],["Cett",-9.135515806255963],["close",-9.135777666820015],["estado",-9.136952999563357],["leven",-9.138755049822993],["grand",-9.139925064423172],["did",-9.141792193990572],["gouvernement",-9.142229567465126],["general",-9.143606770926386],["site",-9.144645986179881],["hard",-9.145691877372911],["mil",-9.146343035718942],["later",-9.147856059625108],["kun",-9.148055770176997],["life",-9.149366720365535],["jusqu",-9.149849939020351],["embargo",-9.150249971959754],["estaba",-9.15138475545391],["estos",-9.15212841592145],["gas",-9.152538753033376],["echt",-9.15505279893268],["possible",-9.163253353550392],["since",-9.167000372201754],["début",-9.168624918875434],["lieu",-9.169743346603724],["gobierno",-9.170759344595197],["communit",-9.171688076759903],["video",-9.173265803048794],["Gobierno",-9.174080171791587],["US",-9.174885744498793],["lot",-9.176614272937424],["ba",-9.176780867247125],["show",-9.17808951185089],["self",-9.180112870294304],["company",-9.182444307169053],["zona",-9.184720757357072],["altijd",-9.186118422881544],["For",-9.187055505807452],["especial",-9.187918094789017],["keer",-9.190429813669045],["proyecto",-9.19217434858853],["That",-9.19309635748265],["vol",-9.193210130731142],["afge",-9.194142826035051],["men",-9.194491954537938],["play",-9.195909795338224],["femme",-9.195939272642292],["ben",-9.196114959744364],["26",-9.196327543799693],["État",-9.196790811498024],["empre",-9.198578485693039],["situa",-9.199206573656193],["family",-9.199345383732794],["servicio",-9.200237180175876],["Dit",-9.200349037356071],["kwam",-9.201147890240446],["hoy",-9.202590517685156],["came",-9.203641541105451],["nuestro",-9.205332774005328],["500",-9.20741758589628],["eigen",-9.208057245011565],["algo",-9.20810728902723],["tuvo",-9.213448233883277],["president",-9.213574886544908],["waren",-9.214536296920027],["Su",-9.21646192120879],["60",-9.217823300702051],["nada",-9.21843065383955],["niveau",-9.218635054835946],["gewoon",-9.21889672840301],["national",-9.220602694963764],["uego",-9.221900304985265],["including",-9.22265287010826],["hand",-9.225337675760862],["hui",-9.226026465223601],["28",-9.2291173257158],["faut",-9.230595344974557],["next",-9.23161845692034],["result",-9.232542030557116],["estar",-9.233699682852443],["mogelijk",-9.236059853176844],["personal",-9.237207571952506],["partir",-9.237498858669658],["2023",-9.240139388403335],["Twitter",-9.240237201863922],["report",-9.242741607056665],["cours",-9.243759436263407],["27",-9.244243630225109],["age",-9.248057326527116],["venir",-9.251759371807188],["grupo",-9.253674995319077],["Dan",-9.257265977476294],["entreprise",-9.25830741213097],["main",-9.258356388997589],["notamment",-9.25919756774876],["ja",-9.260040156915315],["avai",-9.262276352445554],["groupe",-9.26506578286667],["Ma",-9.267046961127587],["grande",-9.267924287511729],["ready",-9.268206199040838],["recent",-9.268795254779587],["crisis",-9.26926420341307],["uur",-9.27010559051729],["record",-9.272373984304103],["poco",-9.274044103754527],["2018",-9.275086752459767],["Nacional",-9.277423124582306],["política",-9.278900164229531],["zoal",-9.278922789417885],["head",-9.280847911864768],["Mr",-9.281799507063862],["partie",-9.283423633419616],["say",-9.283442461437076],["terug",-9.285272862888863],["person",-9.28666463314611],["onze",-9.28788839930625],["travé",-9.287934997705602],["student",-9.290045651109054],["casa",-9.291945871508734],["binnen",-9.29264674062623],["rapport",-9.296433433584795],["care",-9.298502038411591],["told",-9.299739391476997],["own",-9.300305285107537],["laten",-9.300698997008263],["between",-9.300718390178957],["poder",-9.302338945652266],["same",-9.303357246582188],["rix",-9.303844191616461],["centre",-9.304449214444817],["mij",-9.304861229491904],["Biden",-9.306687131315634],["impact",-9.306730869031023],["houden",-9.307011336071554],["both",-9.307160687355104],["tijden",-9.30755410746821],["Met",-9.30854354178015],["lang",-9.308987634703659],["mo",-9.309165789349397],["You",-9.309807051461343],["vent",-9.312338179929188],["group",-9.31374618325642],["tipo",-9.313862369592112],["cual",-9.31437165111936],["podría",-9.317827107938546],["ait",-9.319060174790081],["President",-9.319061101321577],["minder",-9.322998981231216],["nother",-9.323653249587995],["hospital",-9.325043160975703],["put",-9.325449304819164],["large",-9.326205728810795],["amos",-9.327117203775352],["steed",-9.327890587733108],["hombre",-9.330432119134478],["services",-9.330924269229861],["rond",-9.331377854113214],["él",-9.33140635989973],["six",-9.33198165031836],["politie",-9.334614070961543],["ambién",-9.334625090031476],["otra",-9.334902092987507],["control",-9.33678826935392],["Esto",-9.340578307881207],["notr",-9.340675364113705],["top",-9.342694687185368],["great",-9.343227432536587],["drie",-9.343483187797958],["mes",-9.344087869880077],["got",-9.344601560986028],["vote",-9.351640810052384],["droit",-9.352595846091816],["chose",-9.355253949491962],["autoridad",-9.358007843766853],["problem",-9.358079411304919],["déclaré",-9.358983047677942],["Wat",-9.36139795279118],["maal",-9.361445204449849],["problema",-9.36222036570975],["X",-9.362702732217814],["jeu",-9.363217367219791],["29",-9.363415794743005],["won",-9.365581333615918],["côté",-9.366012185176551],["alguno",-9.367038681123956],["four",-9.367416834024796],["post",-9.368037045745714],["Voor",-9.369322092070249],["mon",-9.36962998899139],["staan",-9.370172876257577],["court",-9.370276272360998],["keep",-9.370633910706776],["ôt",-9.371728976872564],["medida",-9.372125315910797],["effet",-9.372476844112906],["ello",-9.373042662714717],["Z",-9.373718753703116],["Par",-9.376296616729656],["saison",-9.376487792601777],["Una",-9.377630537766318],["current",-9.37782801261502],["pris",-9.378389310592054],["line",-9.379556986835304],["travail",-9.380337366970023],["avon",-9.381068568051083],["compte",-9.382539796449134],["geld",-9.382570905561389],["haber",-9.383087883716774],["few",-9.383418903131764],["low",-9.383764917369174],["werk",-9.385424342543569],["Méx",-9.385690983951193],["jaren",-9.388847102957127],["Europa",-9.390502755097753],["€",-9.391120478301644],["contact",-9.391467400885464],["extra",-9.394099768996192],["ici",-9.39424496889944],["ging",-9.394473993926955],["dar",-9.395244010787696],["cambio",-9.39529965960705],["director",-9.397235313685131],["York",-9.397361131384805],["coming",-9.397407463304624],["Friday",-9.397863551555002],["air",-9.398028975607408],["meses",-9.398979889685341],["pendant",-9.400901283157488],["nuestra",-9.402957808964372],["action",-9.403144136545382],["far",-9.405640803383033],["ga",-9.410199515859702],["tan",-9.410421881086814],["To",-9.41163645189318],["actividad",-9.412635157399666],["ooit",-9.414419078384597],["call",-9.414706349236017],["Mi",-9.415405839552275],["proceso",-9.41766618211389],["live",-9.418073053202807],["35",-9.41976592566729],["mucha",-9.419872064312582],["achter",-9.421203405853774],["70",-9.42264191152551],["í",-9.424821456609914],["Oekraïne",-9.424853549100881],["State",-9.42486953145501],["España",-9.425157642410657],["provide",-9.425631159617183],["última",-9.42571534750778],["famille",-9.427299732967525],["American",-9.430381753515466],["case",-9.431663321586932],["laatste",-9.431676347944979],["ailleur",-9.431895745487918],["31",-9.433566700201556],["één",-9.434945306010775],["pu",-9.43534820247599],["night",-9.435827413474318],["pourrai",-9.436402299935867],["willen",-9.436529491926033],["jamai",-9.436984127109303],["ter",-9.437192331857851],["though",-9.439048622537321],["election",-9.439866811598613],["app",-9.44006406740621],["région",-9.443677262817118],["wereld",-9.443839487284817],["aurai",-9.44473696130108],["programa",-9.445270180775278],["condition",-9.44655707613941],["mag",-9.448103107771255],["cent",-9.448607086386808],["Rusland",-9.448973564936122],["chef",-9.449760943531476],["Saint",-9.450631617808025],["seguridad",-9.451896668724299],["nivel",-9.452505282704914],["different",-9.452650368391403],["direct",-9.453466957859533],["jeudi",-9.45558838253509],["pouvoir",-9.455591833111892],["80",-9.457155465097511],["month",-9.46003549250333],["centro",-9.467969589051897],["Re",-9.468390182031392],["plaats",-9.46881823452902],["cosa",-9.469261418629994],["online",-9.46943700110111],["bon",-9.469752825697688],["Selo",-9.470726362481148],["huis",-9.471074562943297],["mercredi",-9.47339448383141],["Russisch",-9.473881947265875],["joueur",-9.474496426068505],["junto",-9.475498266144552],["historia",-9.475945547124972],["love",-9.476181851797936],["annoncé",-9.477863009405219],["unos",-9.478214671250562],["otras",-9.478404865764515],["dimanche",-9.478553177802063],["found",-9.479877515195398],["anti",-9.479974549148928],["zij",-9.48018085250471],["bajo",-9.48217381171634],["cuatro",-9.482383256551014],["each",-9.483085749591151],["include",-9.483293347655493],["esto",-9.483336899602751],["mardi",-9.483540009461995],["system",-9.483579769869632],["city",-9.484217493947844],["lundi",-9.484679029439217],["ès",-9.48508017413873],["hizo",-9.486765164877808],["principal",-9.487280638826494],["verder",-9.488011019129033],["Volgen",-9.488704442039936],["alguna",-9.48920274769656],["near",-9.489527130045987],["decision",-9.491427838633612],["vendredi",-9.491447156409926],["produit",-9.491457162338484],["Sur",-9.491573074822817],["tien",-9.494180537723722],["cómo",-9.494277066303939],["win",-9.494943793918022],["Russi",-9.49621252005743],["russe",-9.497368888724742],["term",-9.498024478293797],["persona",-9.499429327089445],["eront",-9.499607183116773],["Bij",-9.50113474181115],["Unidos",-9.50215181566249],["inform",-9.503937011031656],["dire",-9.505252001722331],["kinder",-9.505922775791264],["agua",-9.506073459687034],["weten",-9.506882918603296],["Dr",-9.507686710515717],["course",-9.507979034900742],["voorbeeld",-9.50803315718527],["gebruik",-9.509600083849651],["population",-9.511055536374997],["reported",-9.511678458722935],["zit",-9.512469624907936],["half",-9.514019827050433],["informa",-9.514629634309184],["mesure",-9.515681156021417],["vrai",-9.515813362080436],["salud",-9.516064891982992],["across",-9.516493776323959],["resultado",-9.517459645631186],["celle",-9.51761255274684],["fans",-9.517842290381171],["used",-9.517939085614346],["onderzoek",-9.518182885349635],["unque",-9.518645624931246],["quand",-9.520166101793274],["série",-9.521178567705835],["té",-9.521341901875754],["tenía",-9.52176603651988],["nodig",-9.521919646478212],["Ucrania",-9.522768048218808],["When",-9.524866414681195],["weet",-9.526012271408106],["45",-9.52645465910301],["vier",-9.527760569935449],["blijven",-9.528561819861597],["gente",-9.529036003804197],["porte",-9.529278033298345],["raison",-9.53015277712726],["aantal",-9.531545547710213],["vía",-9.531999016623764],["bedrijf",-9.532809144889537],["posible",-9.534622507449829],["vooral",-9.535953660894315],["tour",-9.536305520519292],["cet",-9.536510109447816],["full",-9.537723925675653],["vient",-9.538294530665057],["adde",-9.538758642521326],["remain",-9.540674807721597],["gemaakt",-9.542391732523775],["stad",-9.543457923753099],["90",-9.543713097099133],["give",-9.544942004248668],["próximo",-9.54541502090779],["frente",-9.545976304441538],["zonder",-9.546591568885933],["source",-9.547021981692854],["reste",-9.547415803438525],["cela",-9.548717674777542],["trata",-9.548880015262853],["mettre",-9.549303205350904],["minister",-9.549481386822658],["quatre",-9.550291763048849],["aient",-9.552098300512426],["samedi",-9.553638157268779],["charge",-9.55509720544433],["sigue",-9.556884686749163],["miento",-9.55791443416792],["concern",-9.558201896869605],["derecho",-9.55877584280778],["working",-9.559001805626435],["event",-9.559348395305523],["suis",-9.561597480418069],["red",-9.562259689657463],["guerre",-9.562325438381382],["lado",-9.562577595992462],["hour",-9.564504740211241],["side",-9.565839993964406],["zone",-9.566290105648864],["número",-9.56858680293267],["encuentra",-9.571057569097556],["entro",-9.571354764543603],["capital",-9.57175362192754],["area",-9.572006929879397],["dólar",-9.572543581623496],["señal",-9.5725545738314],["Apple",-9.573109652383364],["endo",-9.573716970240323],["maakt",-9.57410200130221],["ullen",-9.575695550568938],["dio",-9.575736049211116],["parent",-9.576140961028726],["big",-9.576879695983006],["militaire",-9.577282221176398],["kind",-9.577458125997785],["March",-9.578270128157104],["pro",-9.579878390780944],["grandes",-9.580546588651977],["mort",-9.580757946733982],["position",-9.580881134276137],["misma",-9.581239287088474],["price",-9.581649619081032],["Son",-9.583196097572301],["image",-9.58390155476642],["level",-9.58441905389787],["sistema",-9.585475740799684],["niño",-9.587769003967647],["oficial",-9.58790365909207],["pre",-9.588185673020632],["left",-9.588262086865193],["never",-9.588682052311826],["prendre",-9.588829370284902],["sino",-9.588987731909853],["laat",-9.589388439518526],["nacional",-9.589475838478817],["llegar",-9.589764987761821],["objetivo",-9.589784829607316],["market",-9.590349140860273],["according",-9.590666889921678],["jarige",-9.591003365183596],["histoire",-9.59104770205754],["sí",-9.591467956654231],["City",-9.591700847647534],["cualquier",-9.59369246478553],["body",-9.59406423525223],["hit",-9.594209183918705],["segundo",-9.594838831395787],["United",-9.5951034801875],["devant",-9.595138419588048],["casi",-9.596315689840978],["bonne",-9.596478596078974],["decir",-9.599295098237613],["production",-9.600103221930254],["comment",-9.600266324312306],["effort",-9.600962257896708],["present",-9.604202585705378],["ancien",-9.604488602389342],["beter",-9.6082753956124],["muchos",-9.60877385793542],["mean",-9.610021789898244],["return",-9.610687941542233],["Jean",-9.611024821600957],["snel",-9.612166974306867],["positive",-9.613921904220458],["avond",-9.6141798263457],["something",-9.614545459111165],["nationale",-9.615202573409858],["Québec",-9.615313519452695],["devrai",-9.61554060909905],["TV",-9.616058723014879],["statement",-9.616152311987872],["share",-9.6163015995985],["Monday",-9.616814717928477],["rien",-9.618302502539866],["jeune",-9.61902342547723],["Of",-9.619760702995283],["hora",-9.619818475079217],["primero",-9.621300074002466],["project",-9.622128759868303],["geven",-9.622147970741114],["occasion",-9.62527413833361],["deuxième",-9.62574264070605],["oorlog",-9.626978067543824],["receive",-9.62800092527424],["elkaar",-9.629060157978742],["votr",-9.629344355330618],["West",-9.629756487395888],["enfants",-9.63101043467347],["minuto",-9.631531028494578],["investiga",-9.632488882579104],["zitten",-9.634861912211612],["better",-9.634954437632446],["feel",-9.636774817368913],["Nederlands",-9.637283151165379],["vu",-9.63933734303937],["must",-9.642653240056308],["za",-9.64270400563439],["until",-9.642707005649788],["Chine",-9.64305504160762],["nemen",-9.643071484041371],["believe",-9.643429029133348],["noche",-9.644785916399979],["Así",-9.644884401474899],["seule",-9.649427511577382],["gemeente",-9.649548453979609],["quiere",-9.64959754073297],["What",-9.650892072045444],["mar",-9.652047368495266],["South",-9.652758190709193],["miljoen",-9.65461536731816],["haci",-9.655472503089396],["kon",-9.65570329623403],["wij",-9.655727053936577],["zeker",-9.656582341496334],["groot",-9.656708710361936],["lunes",-9.657385245665123],["chance",-9.658432319323694],["zeggen",-9.658815600977109],["Rusia",-9.658918697042012],["directeur",-9.659011468321722],["eerder",-9.661110927614263],["children",-9.66299220847396],["soir",-9.663152377414852],["vario",-9.66368333903067],["mise",-9.664915434797281],["expert",-9.667336875878012],["afin",-9.667829849384232],["quarter",-9.668209250897434],["might",-9.668441190206252],["Du",-9.66863284603111],["viern",-9.668704364574424],["wh",-9.669667202081687],["vehículo",-9.669774771125578],["ré",-9.669948220293179],["order",-9.670720532020734],["bekend",-9.670912749531361],["former",-9.67095873690049],["does",-9.670980409769356],["anders",-9.672526058930345],["didn",-9.673027683310952],["cargo",-9.673406370577407],["begin",-9.674358112034547],["Pro",-9.675374068925757],["petit",-9.67545724178751],["redes",-9.676355707687996],["future",-9.676464617519883],["mercado",-9.676578702666545],["cinco",-9.676653016471349],["Hoe",-9.677935950177645],["months",-9.68102198913218],["five",-9.681411294646695],["arly",-9.68172585568836],["público",-9.682099749716063],["things",-9.682109102772749],["trop",-9.682352816788804],["iedere",-9.683012338446861],["away",-9.684636722580976],["alles",-9.68542430249856],["increase",-9.686297995257116],["aujourd",-9.68767692684099],["National",-9.688175112480183],["mujeres",-9.688238554485938],["serie",-9.688255288616539],["mujer",-9.688515151209494],["pay",-9.688551650979052],["sécurité",-9.688923728415713],["County",-9.690820697153082],["somme",-9.692147859601633],["hijo",-9.69351252712256],["power",-9.69475151253496],["réseau",-9.694874187274703],["stock",-9.695449356295072],["ally",-9.695480384311104],["Canada",-9.695537551708124],["werken",-9.695668244724498],["Ja",-9.696966411013566],["alway",-9.697496527984555],["nation",-9.697603675968647],["ciento",-9.698110485614087],["Zij",-9.699504123809861],["energie",-9.69988472783579],["sentido",-9.700353222889522],["bank",-9.700464137534638],["route",-9.701654116832433],["Plus",-9.701685535372391],["demande",-9.703322734530598],["producto",-9.704508753730419],["here",-9.705312822070953],["affaire",-9.706597687547555],["mañana",-9.707335915053177],["vast",-9.709804501593048],["tendrá",-9.71000182682295],["dice",-9.711629252053429],["David",-9.711633688173666],["Black",-9.711739492849173],["All",-9.712287390575007],["sábado",-9.713017242305051],["ellos",-9.71302232558369],["making",-9.714028201995646],["Health",-9.714445848912625],["officer",-9.71475847891492],["Whil",-9.71601612805506],["minutes",-9.717557156810338],["front",-9.718558596606954],["juego",-9.719166059367303],["members",-9.719215229262478],["risk",-9.719293312942888],["jugador",-9.71971346972074],["process",-9.721102867244557],["stay",-9.721844984947591],["realizar",-9.721852478559482],["With",-9.722356010445411],["Thursday",-9.723046414790762],["blijft",-9.724677677017265],["ín",-9.726446349169095],["idea",-9.726498067063883],["become",-9.726754499369463],["pueda",-9.726847946292413],["cerca",-9.727098490027705],["aún",-9.728096086940129],["spread",-9.729303235627102],["global",-9.729536118628229],["Etat",-9.731186784798147],["allemaa",-9.731466262995903],["Or",-9.731558864747672],["víctima",-9.731722783520524],["ken",-9.733788320502251],["food",-9.734594551415274],["vrij",-9.736040668796381],["veces",-9.736087748708144],["went",-9.736100597920977],["international",-9.737745519731536],["Argentina",-9.737750315108205],["staff",-9.738085018947402],["EU",-9.741381093363866],["again",-9.741670297598208],["name",-9.744234462722],["office",-9.744621468191202],["Sunday",-9.746431708756475],["domingo",-9.747852536223299],["General",-9.747968324781937],["One",-9.748362504401786],["vaak",-9.748800432131922],["produc",-9.749149029165629],["espera",-9.749750483457442],["seguir",-9.750954026298434],["doet",-9.75149626609591],["Madrid",-9.752266924494196],["Tuesday",-9.753750352612915],["boven",-9.754477289176705],["Ces",-9.754801178181888],["quoi",-9.755567294361757],["Om",-9.755607683986929],["pandemia",-9.758214610137546],["aura",-9.758499555435769],["money",-9.758676791958134],["crime",-9.759267417648323],["chaque",-9.759363130147111],["parti",-9.759517554890405],["ch",-9.760858143253019],["Hay",-9.761447773942894],["gens",-9.76150225348773],["May",-9.76262347535588],["dollar",-9.763981416529987],["Saturday",-9.764197959221985],["juli",-9.764419997028192],["experience",-9.767024628661016],["Nu",-9.76716755842184],["janvier",-9.767213343052532],["onces",-9.768417719928507],["fuera",-9.768777996116292],["ité",-9.771652305842263],["agit",-9.773149965616168],["women",-9.773299977642264],["risque",-9.773327941295243],["light",-9.773952597289359],["law",-9.774234173708626],["samen",-9.774420916606818],["lijkt",-9.774536298686535],["temporada",-9.774687088883976],["Entre",-9.776444375985097],["John",-9.777502996685921],["ban",-9.777937419597624],["buena",-9.778209629921115],["eves",-9.778588267585699],["taking",-9.778735115592422],["foto",-9.779099272989242],["erg",-9.779519724111768],["uso",-9.779802139220122],["field",-9.781137669325883],["Sa",-9.782206874744057],["%.",-9.783020440990775],["rol",-9.783088895282859],["sport",-9.78405392090653],["incident",-9.784203868054455],["free",-9.78448589854154],["sol",-9.784889937026044],["little",-9.785452559343495],["locale",-9.785610960522884],["encuentro",-9.785818124478599],["fall",-9.786142020744222],["anté",-9.786463425357422],["fecha",-9.786557333810086],["crise",-9.786862876398388],["français",-9.787313735959593],["death",-9.787679579318372],["titre",-9.787994933544912],["ligne",-9.788040228120595],["normal",-9.78859237746185],["comunidad",-9.790027243372355],["message",-9.790161022747565],["mars",-9.790979303586939],["find",-9.791617537640057],["series",-9.793305543489394],["marché",-9.794733132413938],["train",-9.795558451239785],["together",-9.795600070720088],["disponible",-9.79621287931575],["décision",-9.797621724599349],["moest",-9.799296067524542],["300",-9.800188000726884],["rest",-9.800709069373639],["martes",-9.801649469531757],["wide",-9.802099837720412],["basis",-9.802132223271983],["move",-9.802257461637657],["programme",-9.804597545538169],["cinq",-9.80553915919369],["victime",-9.805548839165713],["League",-9.805587713730473],["retour",-9.805644927435747],["podrá",-9.80751126312191],["bar",-9.807860320707702],["activité",-9.808169560500012],["oportunidad",-9.80868394006251],["tête",-9.808730103667802],["besoin",-9.808906907603959],["tarde",-9.80893081814522],["inclus",-9.809235192158367],["past",-9.810197647206273],["natuurlijk",-9.810267737092058],["allow",-9.810719373516251],["aten",-9.81162406510147],["job",-9.811766656343375],["Ha",-9.812077007335738],["Paris",-9.813738741963439],["75",-9.814343831662292],["aciones",-9.818024575541012],["Ben",-9.81824589327763],["cost",-9.819722869275607],["iércol",-9.81974340894005],["ron",-9.820390856211862],["aske",-9.820983964381593],["jeunes",-9.821117836797303],["zetten",-9.822511653019603],["carrera",-9.822903654257185],["Deze",-9.82312560997445],["puesto",-9.8232856121218],["popular",-9.823685034977418],["vraag",-9.823928523463183],["cadre",-9.82411503075274],["paso",-9.824483302668437],["simple",-9.825329754018199],["worker",-9.82553397836174],["Co",-9.825715985923054],["zelfs",-9.82803241990596],["edad",-9.828694464748045],["indic",-9.829183580687161],["St",-9.830119817360444],["km",-9.830719765060163],["Wednesday",-9.830889317689723],["segunda",-9.83088949052838],["happen",-9.830993810967763],["Juan",-9.83199477764482],["diferentes",-9.832967599638947],["veu",-9.833695655619318],["jó",-9.834440740604611],["semble",-9.834980291662145],["period",-9.835031852661814],["principale",-9.835903419791599],["federal",-9.836304729405686],["taken",-9.836451787479609],["couple",-9.837420579229537],["having",-9.839558330034532],["shares",-9.839666432177598],["Car",-9.84015248666504],["dici",-9.840442903867999],["société",-9.84264856222077],["note",-9.84270610942697],["poste",-9.842891543652794],["corona",-9.843580731115425],["mai",-9.846839912653042],["program",-9.846977630790658],["several",-9.847972103037145],["mask",-9.848046174159583],["complete",-9.848255761816905],["Facebook",-9.848703471141917],["soort",-9.84872325347032],["ensemble",-9.84893368628624],["cuerpo",-9.850245214026565],["trade",-9.850670608333136],["Man",-9.85073776029759],["Joe",-9.850815464585187],["respecto",-9.851701125750385],["dad",-9.851854740319787],["décembre",-9.85197366709236],["matin",-9.852057767542405],["internacional",-9.852161741582542],["rate",-9.852384695675251],["kijken",-9.85433522471671],["dagen",-9.854818195309488],["pública",-9.85568196583925],["version",-9.855992705187557],["patients",-9.856235999801],["stand",-9.857145193739587],["gan",-9.857457179720894],["pai",-9.858377362213616],["conocer",-9.858482002225148],["vrouw",-9.858541348760255],["appel",-9.859149586579012],["lockdown",-9.860216070607619],["How",-9.860283776659513],["mission",-9.861097279296757],["militar",-9.863022135188562],["star",-9.863234837735389],["run",-9.863254882299207],["paar",-9.864091521148504],["brand",-9.864421350911416],["etting",-9.864527319080956],["nieuw",-9.865041696586658],["juist",-9.865663200655085],["marca",-9.866242817886594],["announced",-9.866817902644625],["solution",-9.867257063648598],["particular",-9.867990122903308],["32",-9.868401378764352],["landen",-9.868709812403274],["ministro",-9.869104244384665],["explique",-9.87003083180152],["today",-9.870519245955492],["annonce",-9.870699389423006],["clear",-9.871400496345286],["général",-9.872319798497621],["create",-9.872667956870362],["fil",-9.87283025401517],["along",-9.872868416826648],["India",-9.873032782521735],["Ver",-9.87337040166867],["enquête",-9.87342787135048],["zei",-9.875197465243078],["Union",-9.875450406612316],["dado",-9.87619082265611],["milliard",-9.8767925294753],["indiqué",-9.876837199942873],["using",-9.877184757629887],["passé",-9.8781666273267],["passe",-9.879190897960147],["wie",-9.879315981786045],["tard",-9.879448190085517],["organisation",-9.8798166590407],["Todo",-9.879918414424083],["least",-9.880219601102002],["art",-9.88096833948158],["individual",-9.88138282905565],["aire",-9.881453692527645],["secteur",-9.881890224051311],["autorité",-9.88190326114228],["document",-9.882478321789971],["hi",-9.882708461708482],["Premier",-9.883577500939435],["miss",-9.8838665941735],["young",-9.883936668563695],["Police",-9.8842624244916],["Minister",-9.885138710027773],["took",-9.885437244257188],["prueba",-9.88588785837756],["sinds",-9.886029585249908],["aide",-9.886483254229773],["responsable",-9.88691907397602],["journée",-9.887002209873884],["aller",-9.888288910668704],["Paul",-9.889005654876575],["house",-9.8891768168623],["fuerza",-9.88923592483322],["bus",-9.889260381885382],["ley",-9.889920108496502],["système",-9.890357474522604],["verschillen",-9.890487645613124],["bi",-9.89069554279574],["presse",-9.89258820405586],["simismo",-9.892853416820994],["joven",-9.893808361189485],["weekend",-9.894107276116038],["precio",-9.894784542900416],["duidelijk",-9.895181165976851],["similar",-9.895502592967397],["super",-9.895585777043546],["hoofd",-9.895950514160859],["race",-9.896788368600497],["client",-9.896805465581652],["padre",-9.896820978529554],["varia",-9.897739089957264],["gelede",-9.897755251330063],["accord",-9.89785922174471],["mer",-9.898230084281959],["After",-9.898874472442966],["Washington",-9.898909251873238],["période",-9.898916645928207],["political",-9.900251535881011],["+",-9.900309244741793],["eerst",-9.900502291094117],["libre",-9.900754106488257],["campagne",-9.902348592861951],["Ya",-9.902478550590777],["legó",-9.903142579723417],["tweede",-9.90453934251779],["rencontre",-9.904910551215703],["given",-9.905431869643046],["hope",-9.90550189884936],["officials",-9.905755402542104],["pueblo",-9.905799667881071],["José",-9.90593307655133],["largo",-9.906112503640502],["falta",-9.906146725234837],["enero",-9.906153939880932],["Carlo",-9.907112664343503],["sión",-9.907300620672736],["woning",-9.908751978613143],["administration",-9.909281563093417],["Unis",-9.910025298034007],["posición",-9.910330852723284],["fire",-9.911005466077428],["Cela",-9.911208794894353],["Macron",-9.911572638915104],["informe",-9.91227341106378],["valor",-9.913613439442027],["Ministerio",-9.91449484931642],["doesn",-9.914500514646758],["iemand",-9.914635680297692],["dollars",-9.914741279552842],["geef",-9.91491994556086],["Ils",-9.916052265161627],["violence",-9.916234325887395],["membres",-9.91623642685725],["maison",-9.916635080584076],["talk",-9.917713689761808],["provincia",-9.917831651545589],["34",-9.917954511721002],["línea",-9.918172086123004],["apoyo",-9.918556700581142],["option",-9.918569395228143],["Red",-9.918746414336418],["400",-9.918975889927644],["permet",-9.919554153732468],["muerte",-9.919748563353988],["ólo",-9.920441241286735],["novemb",-9.921072999503735],["meeting",-9.921915824281502],["Como",-9.921923651861762],["budget",-9.923237817469754],["campaign",-9.923238269541834],["33",-9.923250186597093],["presente",-9.924327720445818],["población",-9.924997316272625],["prochain",-9.92527798525398],["désor",-9.926512823907213],["municipio",-9.926761701171381],["fuerte",-9.926768130340538],["problème",-9.926779022868136],["debido",-9.926817504205097],["uillet",-9.927733764591846],["genoeg",-9.928529826501169],["party",-9.929530064637497],["familiar",-9.929664730330416],["gezien",-9.929681495996146],["small",-9.929910678404694],["Howe",-9.93038694822026],["nunc",-9.930490327643223],["2014",-9.931007504162551],["North",-9.931850452908646],["guerra",-9.932073204992754],["among",-9.93212950199454],["manier",-9.933051377264167],["genomen",-9.933173769099268],["Jan",-9.93353901131917],["tra",-9.93354462526197],["Go",-9.934163025257186],["held",-9.935084889712186],["justice",-9.935378568531343],["actuelle",-9.93545065989267],["claim",-9.935597150892347],["players",-9.935819927092126],["lead",-9.935971706673403],["bijna",-9.936553788140763],["école",-9.93805847018129],["â",-9.93862914155628],["interview",-9.938676128466508],["seul",-9.939131063570969],["third",-9.939219606451097],["House",-9.939419026002795],["moi",-9.940317417949458],["My",-9.940938255152236],["ejemplo",-9.942775559948831],["ness",-9.94344677762285],["mayoría",-9.943463408530924],["further",-9.944579374291646],["wedstrijd",-9.944622581081806],["certaine",-9.947160049786707],["com",-9.947478311161145],["jornada",-9.948171732558837],["vec",-9.948404087186056],["publique",-9.948427391464122],["major",-9.948922691149825],["pues",-9.949367982085308],["arrive",-9.949573004707439],["direction",-9.950052242515131],["élection",-9.950966691364531],["asegur",-9.951105077455404],["buiten",-9.95170710538934],["évrier",-9.951847158724231],["milieu",-9.952299284025619],["board",-9.952442878319175],["short",-9.954709702415869],["rue",-9.955246747723372],["ago",-9.95643902524471],["denk",-9.957986038244652],["availab",-9.958582441229659],["souven",-9.958656974125685],["espacio",-9.958699008126427],["vice",-9.958792417001112],["Amerikaans",-9.95936620104905],["maanden",-9.959408595366256],["strong",-9.960008757785241],["chien",-9.960989809597539],["enkele",-9.961157226939875],["estas",-9.961453069814784],["2015",-9.964342335372272],["Instagram",-9.964535525910616],["igual",-9.968790519618926],["fact",-9.968911997772135],["ard",-9.968930215307541],["expres",-9.97051583284225],["rapide",-9.970521051051245],["zie",-9.970901112687635],["estamo",-9.971035786575136],["football",-9.971969021498833],["festival",-9.972452908150693],["Do",-9.974200816717834],["legal",-9.97435435652969],["grave",-9.975149335824764],["breng",-9.97571152987053],["fund",-9.97576092643953],["Universit",-9.97588505015009],["model",-9.97732295432256],["Pas",-9.978825687459835],["soutien",-9.979267146896037],["mensaje",-9.97929554757363],["goede",-9.98070704889082],["causa",-9.981900217692822],["llevar",-9.982081286283037],["nough",-9.982176438779792],["turn",-9.982578792821986],["vi",-9.982964769811279],["objectif",-9.983084548911531],["rez",-9.983264033399912],["exemple",-9.983469773894496],["tema",-9.983904073739133],["internationale",-9.984381753444385],["recurso",-9.984808011551639],["Luis",-9.98568469786122],["figure",-9.985895080237945],["genera",-9.98598193446454],["stond",-9.986286951269218],["combat",-9.986570646951385],["serai",-9.987055194678698],["buy",-9.987128270441744],["evento",-9.987454000343105],["offre",-9.987694446340397],["weinig",-9.988661375164593],["passer",-9.988830369393463],["octob",-9.98892140225014],["decisi",-9.989502569366312],["ayuda",-9.989648101096893],["ido",-9.98983563012627],["reg",-9.990650686131715],["hausse",-9.992092568866212],["late",-9.993320530369083],["Q",-9.993683291510319],["líder",-9.99620067741793],["continu",-9.996761776843485],["bit",-9.997923539622487],["World",-9.998096166605151],["état",-9.99818617144826],["following",-9.998277303707997],["central",-9.998598080357521],["pesos",-10.001097496713903],["attack",-10.001311944223488],["coach",-10.001565691379518],["measure",-10.001613877079954],["straat",-10.001724375536106],["armée",-10.002294085335791],["consider",-10.002805006558852],["gedaan",-10.003121970189678],["Grand",-10.003748581139096],["propuesta",-10.003811792836938],["profesional",-10.004310063596039],["importanc",-10.005775472051468],["junio",-10.006120072834687],["interest",-10.006426367002161],["amelijk",-10.006941216290187],["starte",-10.007152846818311],["policía",-10.007628128062645],["ij",-10.007742584215094],["36",-10.008622270955183],["done",-10.00914177754743],["Qatar",-10.009530398700896],["bedrijven",-10.0097520249535],["attend",-10.010704937453102],["font",-10.010857070221633],["fiscal",-10.010990550061699],["stop",-10.011110298087463],["estará",-10.011168968270443],["Que",-10.01147405690583],["try",-10.012654999772161],["ic",-10.01311949768924],["%)",-10.01344086792568],["vanaf",-10.014581473396479],["utant",-10.014963824297329],["value",-10.015298353498434],["Waar",-10.016587287074936],["fight",-10.016699691745622],["propio",-10.017227409244972],["type",-10.01768383414062],["septemb",-10.018371648726596],["dinero",-10.019093896608538],["communiqué",-10.019172409252128],["Final",-10.02006377070532],["avance",-10.020322356873407],["groep",-10.02311506565162],["Yo",-10.023500220880035],["viene",-10.023737754993572],["halen",-10.023783188889452],["Mo",-10.024006914077427],["PC",-10.024592270124],["octubr",-10.024988014313742],["fille",-10.025151156303895],["percent",-10.025343598437322],["FC",-10.026890425506714],["rijden",-10.027690584061437],["pez",-10.027712077807212],["gek",-10.027873563888416],["hold",-10.029120932398094],["challenge",-10.029510273363531],["ier",-10.029932806822611],["sujet",-10.030067389486906],["forme",-10.030236031613896],["demand",-10.030312273498689],["Donald",-10.030850067909537],["muestra",-10.031112098506894],["novi",-10.031228349820651],["grow",-10.032787996477566],["economic",-10.032861782386085],["abord",-10.032870483286418],["beetje",-10.033018526544568],["meilleur",-10.033494045669551],["expected",-10.033901717133666],["Durant",-10.034173243321517],["avril",-10.034233166794744],["blijk",-10.034295264382955],["appear",-10.035424366186536],["scène",-10.036419521604472],["trabajador",-10.03678954490888],["once",-10.036863994876132],["precios",-10.037734776859754],["parole",-10.038012135215668],["require",-10.038124320585439],["eigenlijk",-10.038600794427165],["woman",-10.038661551154476],["événement",-10.038696179974119],["kree",-10.038730250972957],["travel",-10.039606885033724],["confirmed",-10.039666616858426],["terme",-10.039771042634356],["bring",-10.039998313882913],["visit",-10.040227013339049],["prochaine",-10.040405707679156],["security",-10.04095513707757],["meter",-10.041215047254866],["verwacht",-10.0413604739722],["spite",-10.041385588541413],["civil",-10.04167480345302],["ataque",-10.041702160932417],["quelle",-10.041917485508062],["Sam",-10.042460663192099],["licht",-10.043899232487608],["score",-10.04487283896636],["desarrollo",-10.045534703349805],["gewe",-10.045580678336346],["sería",-10.045682737961991],["partij",-10.045872812939088],["plein",-10.04624222289419],["previous",-10.046827567546249],["official",-10.047814911237372],["wear",-10.049418570465765],["loi",-10.04971464442093],["April",-10.050665737764614],["terwij",-10.050720399710212],["septi",-10.051034394758178],["difficile",-10.051272946841376],["environ",-10.051352427221229],["war",-10.051368135450396],["tell",-10.051668272491359],["américain",-10.051696830023985],["geval",-10.051706372671543],["necesario",-10.05263044992748],["commune",-10.053018763179757],["Kie",-10.053310574576578],["respect",-10.054553893170977],["Mundial",-10.05463454104573],["seem",-10.055027229471449],["vijf",-10.056497237864278],["compañía",-10.056642464692295],["Real",-10.057989040846579],["comes",-10.05827972466355],["known",-10.058330835234639],["futuro",-10.058370626591827],["économique",-10.058631848073492],["berg",-10.058688532590406],["sexual",-10.059366735409785],["propose",-10.05984532585732],["opportunit",-10.060664999719993],["Policía",-10.060676230217755],["obra",-10.061597128687492],["leader",-10.061978278855907],["realidad",-10.063341730829105],["riesgo",-10.063659152851397],["ruso",-10.063977212984444],["box",-10.064238333439341],["platform",-10.064351062250488],["48",-10.064685727003784],["experiencia",-10.064723565224114],["release",-10.06511921605008],["rating",-10.065875144927404],["existe",-10.06588523468687],["Door",-10.06603285589517],["poner",-10.066489556874403],["space",-10.066793763647496],["attaque",-10.066846247218846],["candidat",-10.066992220993239],["troisième",-10.068796944716532],["busca",-10.069654254212594],["watch",-10.070638600646339],["evitar",-10.071072669995608],["dejar",-10.072091934999298],["candidate",-10.072606607085667],["encontrar",-10.073117226159633],["matter",-10.073356183268277],["Di",-10.073638519859617],["weken",-10.074332948259293],["vont",-10.075678351697658],["Tout",-10.075933400082494],["June",-10.076677485743867],["training",-10.076767434246097],["potential",-10.07695112276237],["dicho",-10.076989705392634],["99",-10.077715581457987],["safe",-10.077888501802681],["whe",-10.07865066845373],["transport",-10.07909570273339],["unique",-10.080212955911673],["According",-10.08119442672273],["dossier",-10.0812229185698],["forward",-10.08160420906573],["Niet",-10.082229239409312],["Even",-10.082964538967431],["seizoen",-10.083034835783643],["mano",-10.083128741044737],["hotel",-10.083651442197535],["centrale",-10.084758492057482],["companies",-10.085165461173608],["culture",-10.08519176099215],["performance",-10.085662358464887],["alta",-10.085817393278539],["natural",-10.085892200369903],["Some",-10.085921681665944],["comunicado",-10.08682848541741],["billion",-10.087224316613062],["aumento",-10.088166248091369],["hub",-10.08832005687044],["cabo",-10.088526556981808],["cut",-10.088901621392159],["application",-10.08933219612862],["worth",-10.089349893973658],["thought",-10.08956082607354],["account",-10.089790415777367],["Bank",-10.089814847092232],["story",-10.09063986220584],["tenido",-10.090710050076677],["unidad",-10.091146739610142],["développement",-10.091496944518774],["cción",-10.091505952567454],["effect",-10.092112849105005],["weeks",-10.092338825245314],["°",-10.093494114033362],["markt",-10.094091550223151],["games",-10.094297066803195],["ziet",-10.09437821561935],["shot",-10.095067079532086],["internet",-10.09517994755852],["œuvre",-10.095192038416076],["Not",-10.095314235758098],["vue",-10.095387146631744],["victoire",-10.09558192071005],["outside",-10.096811107299562],["formation",-10.096896898113478],["recht",-10.097030143641467],["jeux",-10.098150185316548],["parce",-10.098595087257273],["recherche",-10.098883873565761],["37",-10.09917097846991],["accione",-10.099903327420993],["prijzen",-10.100013420888455],["Over",-10.100570322887377],["province",-10.101887599980099],["petite",-10.10196561750299],["original",-10.102299349188826],["Robert",-10.102731199217969],["vis",-10.10318231542188],["énergie",-10.103976400292659],["ligt",-10.10447075356389],["wege",-10.104951289961438],["average",-10.105093495352842],["Santa",-10.105402322912678],["actor",-10.105697132368828],["Google",-10.10608703774679],["quick",-10.10611304701801],["material",-10.106516467989024],["resto",-10.106722779606306],["contract",-10.107746873045517],["core",-10.108334402675645],["fun",-10.108363301513247],["aucun",-10.110517419433219],["ajouté",-10.110651805825773],["râce",-10.112207542370028],["ministère",-10.112454120151824],["Comme",-10.113091624552267],["maakte",-10.113436868069835],["zorgen",-10.113458606797897],["feu",-10.11396143853831],["prison",-10.115142974318832],["firm",-10.11558588624182],["probleem",-10.116702069964175],["août",-10.11744770128309],["residents",-10.1176326558733],["saying",-10.117922701518705],["posibilidad",-10.118098814386975],["présent",-10.118471542866992],["Tour",-10.118510061600045],["news",-10.118614590461025],["opération",-10.118625240253353],["respuesta",-10.118896595740555],["avantage",-10.119307107307645],["38",-10.12004984155525],["eind",-10.12083926858033],["député",-10.12084350322214],["vandaag",-10.120980439587766],["Club",-10.120982462222777],["Tras",-10.121330695134056],["mogen",-10.121962263813908],["199",-10.123542759281023],["autour",-10.124548963487321],["limite",-10.124797501382618],["necesidad",-10.125276679407685],["restriction",-10.125316581235923],["maintenan",-10.125428641827828],["reden",-10.126714080837727],["Dus",-10.127087510269062],["inicio",-10.127329106573299],["denken",-10.127438834059074],["human",-10.129361725459372],["campaña",-10.129596016448328],["gebied",-10.129903867670317],["vrouwen",-10.130011745426977],["conseil",-10.130546057880927],["ruim",-10.130733011301384],["uando",-10.130916754906],["voiture",-10.131741373225625],["prensa",-10.131785090748092],["manière",-10.131879018560117],["America",-10.132037330094883],["ven",-10.132476433909698],["prise",-10.133237560852994],["pri",-10.133855552516152],["explicó",-10.133994458860826],["page",-10.134025229501184],["tion",-10.134373875356287],["rôle",-10.134682853047444],["pa",-10.134930031809375],["Jul",-10.136285160608946],["hoor",-10.136541187924918],["construction",-10.13667049478238],["55",-10.136857219572217],["ismo",-10.13701769707248],["asse",-10.13770926705806],["Johnson",-10.137713616676018],["gosto",-10.138219081673865],["económica",-10.138255249363542],["research",-10.13854893141686],["Bar",-10.13866160259732],["65",-10.138974947932542],["haut",-10.139542845245316],["Fue",-10.140804307310107],["agreg",-10.140953816016015],["rying",-10.141293669871386],["donné",-10.141803210574817],["prijs",-10.142517372758046],["stellen",-10.142791874164281],["infection",-10.144808415692875],["difícil",-10.14484227228348],["association",-10.144851574147683],["terrain",-10.14543752859295],["response",-10.145775222592839],["aldu",-10.146631019029504],["regard",-10.14693201837773],["nosotros",-10.148285363872724],["act",-10.148904734608347],["estadounidense",-10.149242717462506],["color",-10.149996102256356],["parece",-10.150140526003604],["naast",-10.150209690231506],["gest",-10.151053110192105],["pen",-10.151430223293982],["elección",-10.151665208550881],["haya",-10.15184208941328],["jouer",-10.152880181988383],["remos",-10.153233249326137],["résultat",-10.153662612336777],["target",-10.153744220427269],["amigo",-10.154132845519928],["esos",-10.155546056784162],["vecino",-10.155949892076281],["calidad",-10.156485702780095],["condicione",-10.156643957177232],["gaz",-10.15677322106445],["organiza",-10.157012970684018],["Hospital",-10.158091274334211],["miembro",-10.158102364122872],["reçu",-10.158102723200678],["Center",-10.158638250379012],["medical",-10.158828608550442],["nom",-10.159119635414504],["wa",-10.16003771743829],["seis",-10.160054327217695],["trabajar",-10.160184978410488],["claro",-10.161232728428569],["protest",-10.161345156136836],["financial",-10.161707847065118],["industr",-10.161783766943092],["form",-10.162228231048282],["California",-10.162331015037793],["energía",-10.162566674523582],["stage",-10.163162391044086],["neem",-10.163566725335963],["participa",-10.164008047889753],["morning",-10.164804509888256],["store",-10.165256969068942],["carrière",-10.165671549814174],["donner",-10.166319718914451],["drive",-10.16684490553957],["mayo",-10.166987949724511],["„",-10.16704073272919],["Afrique",-10.167222837405092],["digital",-10.167242779942196],["bureau",-10.16735057048241],["personnel",-10.167379661668278],["reason",-10.16755705246327],["Mark",-10.168307842548705],["wind",-10.168716237298554],["trouver",-10.168744250566489],["accident",-10.16922613707074],["Emmanuel",-10.169288081272857],["behind",-10.169298592372957],["voter",-10.170879375811545],["website",-10.171649626263942],["soci",-10.17245768283448],["Ten",-10.172555433776413],["capacidad",-10.173023353383167],["Conseil",-10.173609222741478],["palabra",-10.173802053173958],["special",-10.173883866677272],["Centre",-10.173954632691292],["deaths",-10.174294296467266],["bad",-10.174421912543732],["Día",-10.174633516721801],["idée",-10.175632108360738],["Vou",-10.175650681189968],["countries",-10.176095570391006],["sociedad",-10.176124278856594],["Day",-10.176394479488394],["Air",-10.17655737357863],["maand",-10.177186907084536],["pareja",-10.178259710905547],["pandémie",-10.178327703680678],["zaterdag",-10.178327821200876],["enige",-10.178404629014338],["econom",-10.178940379335259],["list",-10.179233285782129],["table",-10.180108106840386],["42",-10.180260556417075],["tomar",-10.18118628084861],["entidad",-10.181302883391776],["permis",-10.182389424677751],["single",-10.182395595034505],["arrivée",-10.182429083490256],["town",-10.182866883096372],["Department",-10.182890990911144],["Salud",-10.18365492899967],["web",-10.183901310022213],["vorig",-10.184443111040501],["middels",-10.184531448214116],["Amazon",-10.184539033094595],["kosten",-10.185617855616119],["madre",-10.185689276159382],["ayant",-10.185791392520276],["Iran",-10.186654140978808],["départ",-10.186746249494878],["cifra",-10.18721964049772],["bent",-10.187539780933157],["ish",-10.187943147707731],["thuis",-10.18839078944962],["God",-10.188477532030326],["echter",-10.188870003628402],["feature",-10.189499488799719],["bo",-10.189538062821502],["Central",-10.189636483907037],["ú",-10.189663696183171],["double",-10.190318794797392],["abril",-10.191969107071374],["alto",-10.192057514746523],["marz",-10.192533984689813],["gún",-10.193432176911795],["presencia",-10.194283958820122],["entire",-10.194848597560803],["gracia",-10.196347457417449],["regering",-10.196614925459517],["violencia",-10.196655945987743],["ambos",-10.197329713884091],["zoude",-10.197873119396],["focus",-10.198361513285523],["woensdag",-10.198970458893525],["choi",-10.200287338933125],["connu",-10.200409070160521],["camino",-10.200844156482532],["Poetin",-10.20387036306705],["building",-10.204664270362407],["Now",-10.205409011740974],["Venezuela",-10.205947242912695],["édition",-10.205947626181448],["pasar",-10.206976296831485],["overheid",-10.207647226644507],["Centro",-10.20814065723697],["municipal",-10.209257908370269],["released",-10.2096786891737],["conjunto",-10.210644471422482],["senior",-10.210742491731278],["history",-10.210745634211557],["pesar",-10.211970515785069],["vivienda",-10.21201795186986],["ganar",-10.212441121138054],["ement",-10.212594315590422],["additional",-10.212651853075952],["vragen",-10.212659351293375],["plut",-10.212946190214135],["territoire",-10.212973011575665],["moyen",-10.2131000711809],["père",-10.213908820382521],["Park",-10.21407047602093],["band",-10.215066134407316],["check",-10.215707475016462],["pued",-10.215798373717334],["delito",-10.216090719805145],["role",-10.216570372666524],["update",-10.216977106765592],["involve",-10.217089510014425],["febrero",-10.21770447707072],["kabinet",-10.217749094601922],["décidé",-10.217797696516211],["anterior",-10.217854126406227],["Ju",-10.21821823397158],["gevolg",-10.218496932432975],["relate",-10.21948020130468],["room",-10.22109802671514],["surprise",-10.22135324630954],["book",-10.221858311871802],["planne",-10.222040128684911],["maandag",-10.222446778301467],["radio",-10.223493102470318],["Nord",-10.223803635947837],["mannen",-10.224237582937018],["succès",-10.224801683233798],["James",-10.225243765360062],["station",-10.225969879994025],["venta",-10.226014487831664],["virtual",-10.227174514311157],["proche",-10.227431014212709],["reunió",-10.227497867471126],["43",-10.227609158812623],["employee",-10.227845332941367],["content",-10.2296503390819],["druk",-10.229892125649709],["lives",-10.23033388613956],["ander",-10.230693964985171],["leave",-10.231748146789887],["ham",-10.231842326632643],["visite",-10.232775358703536],["Qué",-10.232792385105975],["Ló",-10.233280833920269],["habitant",-10.233393886769125],["cher",-10.23404917238998],["único",-10.23459093953008],["sortie",-10.234891105399079],["park",-10.235225308576563],["reciente",-10.23576286632695],["travers",-10.236176595947928],["Michael",-10.23675364173188],["vrijdag",-10.23687824536013],["region",-10.237434523882847],["meest",-10.23870412398334],["Street",-10.239187690540504],["gré",-10.239207122958565],["mí",-10.23975271398278],["39",-10.240560577220744],["área",-10.240627567596958],["?”",-10.241447247048562],["attention",-10.241598783587456],["manifest",-10.242127487886947],["favor",-10.242156793463373],["dû",-10.242488578547803],["600",-10.24251381166686],["werkt",-10.243639436564518],["vidéo",-10.244434007313007],["afirm",-10.244905008506649],["ingreso",-10.244986975925654],["val",-10.245177147029292],["alrededor",-10.245320356593355],["White",-10.245637039023373],["doctor",-10.245972803706795],["enfermedad",-10.246430081913797],["recover",-10.246498437818687],["often",-10.247039094051347],["debate",-10.247222647007538],["goal",-10.247375723337953],["development",-10.247580487787747],["lleva",-10.248166172840339],["phone",-10.248200449358489],["photo",-10.248539296593218],["salir",-10.248748028841963],["hoger",-10.249363229636234],["safety",-10.250329584036855],["sub",-10.250965251520007],["intérêt",-10.251311588480545],["zat",-10.25151001683126],["donnée",-10.252335913966007],["Putin",-10.252619708135082],["mantener",-10.253790321293293],["August",-10.254009605698062],["customer",-10.254098298803967],["grootste",-10.25446520058724],["village",-10.254472218154191],["diferencia",-10.254691561561497],["façon",-10.254693166023738],["cuanto",-10.256207924196822],["plataforma",-10.25623139724209],["UK",-10.256239576178142],["Service",-10.25631468055991],["44",-10.257847326454714],["character",-10.25909063108544],["emment",-10.259520236322478],["propos",-10.259789220294405],["español",-10.259940624810763],["design",-10.26016651233601],["benefit",-10.261321842107872],["vond",-10.261735816991205],["ruimte",-10.262393860425995],["produce",-10.262423586541203],["operation",-10.262758401683492],["ukrainien",-10.263346984695232],["Suisse",-10.26347203016413],["150",-10.264309093634775],["aquí",-10.264600566931328],["nuit",-10.264689512843809],["significant",-10.264767354435193],["realiz",-10.264821077073641],["Our",-10.26566083696551],["zaak",-10.265961655496465],["fan",-10.26599237210359],["cantidad",-10.266093966406618],["graag",-10.266106451759047],["iPhone",-10.266205326378792],["demanda",-10.266487381214889],["Super",-10.266545478252123],["raise",-10.266712945292433],["profit",-10.26777125607203],["vehicle",-10.26854312092986],["began",-10.268783015043361],["AFP",-10.268881008925925],["Open",-10.26897184253687],["expect",-10.27017752596974],["sabe",-10.270183168625199],["46",-10.270232374075988],["detail",-10.2705926681816],["betalen",-10.271269404968173],["belle",-10.271424362578475],["liste",-10.271612048299556],["menor",-10.271762974726169],["franc",-10.272160013249557],["http",-10.272599092881293],["Martin",-10.273406474256586],["round",-10.273549810681288],["spelen",-10.274022833014115],["vos",-10.274390146743066],["etc",-10.274915396027119],["Ante",-10.275250983575305],["regular",-10.275880909024739],["langer",-10.275903100643802],["victoria",-10.276059124420367],["situatie",-10.276167628700794],["motivo",-10.276316142386971],["Liga",-10.276551769226451],["familie",-10.276748196789171],["kant",-10.277523604499303],["ster",-10.27760584773584],["Dur",-10.278171968922228],["baja",-10.278365878566234],["vaccine",-10.278683936793417],["saw",-10.27868826454225],["Ahor",-10.27946936438904],["naam",-10.279699458734733],["elke",-10.279784897330217],["confirm",-10.280855247102462],["inflación",-10.281129135034833],["plazo",-10.281187315980592],["friends",-10.282556531875283],["II",-10.283006718895336],["suspect",-10.283431569995576],["carte",-10.283503982359976],[":/",-10.2838115107361],["ciudadano",-10.283874241329519],["zorg",-10.283875354056478],["animal",-10.284151311751698],["avion",-10.284157941262112],["letter",-10.284353576187595],["George",-10.284771289603489],["usuarios",-10.284974610752249],["comenz",-10.285545816545316],["presenta",-10.286058958953234],["Hier",-10.286149885550248],["Francisc",-10.286196103178167],["recibi",-10.286730218968874],["kort",-10.28689974777114],["His",-10.287590249893531],["ither",-10.28776276995659],["midi",-10.288164405698335],["member",-10.28830410638631],["viaje",-10.288367623656725],["iving",-10.288407199926096],["qualité",-10.288706369171408],["trouve",-10.289618666514093],["key",-10.2899893887115],["meet",-10.291196820028553],["effective",-10.291202454710188],["anunci",-10.291548012371386],["hoge",-10.292584922914713],["gave",-10.292591346393912],["buen",-10.292765666574184],["reduce",-10.292806710429213],["access",-10.292985294606275],["artista",-10.293393603414952],["esté",-10.293486865735531],["hôpita",-10.293701382785494],["étude",-10.293746498989474],["pago",-10.293770889281245],["outbreak",-10.294178967084171],["Court",-10.295307788009168],["humano",-10.295384694703282],["article",-10.295713579553986],["volver",-10.29636534594959],["lograr",-10.296561341793762],["coût",-10.296658694590867],["tribunal",-10.296924647393643],["enorme",-10.297766658133689],["85",-10.298750695762738],["européenne",-10.299009895373626],["child",-10.299099477149063],["haciendo",-10.29910693491292],["factor",-10.299266302859692],["times",-10.299808678210148],["dood",-10.300511053068156],["permite",-10.300511247681968],["savoir",-10.30089232715193],["totaal",-10.301410247107501],["families",-10.301418000153955],["gegeven",-10.301799986788268],["orden",-10.303789277702752],["shows",-10.304262376929284],["jefe",-10.304682676480667],["spend",-10.304908293288271],["proces",-10.304989754808027],["Belgi",-10.305128933978839],["donne",-10.305272409073858],["beste",-10.30541244279922],["gelijk",-10.305917236571252],["technique",-10.306150954740573],["ahí",-10.306439326683694],["Netflix",-10.306522063369213],["dinsdag",-10.306540888613537],["noticia",-10.306561206989286],["prend",-10.307674376841486],["Bo",-10.309018910847906],["económico",-10.30908390335582],["película",-10.309106307086012],["principio",-10.309110860497011],["concert",-10.309483183426842],["compromiso",-10.310009825877767],["peine",-10.310593196272542],["Mar",-10.310705895291463],["duda",-10.310790875707672],["camera",-10.311056252658734],["trabaja",-10.311213018816785],["corps",-10.311499450468283],["private",-10.311715952986766],["ningún",-10.312071391359385],["acceso",-10.312160918194408],["mejore",-10.31248340899575],["press",-10.312589714295049],["protection",-10.312890519905352],["black",-10.313957912214361],["¡",-10.314178129231419],["indique",-10.314503692136622],["baar",-10.314546332232608],["stead",-10.315004828801687],["visto",-10.315492027047053],["52",-10.3162959577459],["Ciudad",-10.316786367641686],["ki",-10.316818463319496],["pequeño",-10.316898322318906],["arme",-10.317558197498183],["active",-10.317692271198892],["PS",-10.317775837530714],["sept",-10.317816780285264],["bal",-10.317896644894589],["ko",-10.318748184134213],["gros",-10.319947309249361],["ayer",-10.320283369085406],["heden",-10.320633785553529],["cœur",-10.321404634724008],["opposition",-10.321437172669235],["ran",-10.321487712118689],["valeur",-10.321714148955166],["initiative",-10.322173693686754],["investigation",-10.32222289271319],["track",-10.322288359894046],["offer",-10.322526502028119],["aba",-10.324395038622692],["générale",-10.324595620079117],["negocio",-10.324977442684416],["ring",-10.325345795769302],["41",-10.325965682917303],["modelo",-10.32627345494921],["Januar",-10.327398850674639],["music",-10.327938550651654],["Michel",-10.32835816673149],["abilit",-10.329273741364453],["unning",-10.330156629448066],["zeer",-10.330437989436374],["Eso",-10.331039270825816],["nombreuse",-10.331280188399791],["habría",-10.332694614678301],["Green",-10.33279903198148],["institu",-10.332948704662723],["valt",-10.333929041172832],["dienst",-10.33476232891169],["follow",-10.334859629416783],["ensure",-10.335025891341456],["ball",-10.33589729850635],["nadie",-10.336391090268116],["rendre",-10.33648138310252],["directe",-10.336630916600878],["interior",-10.33664011116267],["lancé",-10.337519582585902],["zondag",-10.33794869260841],["aucune",-10.338015084336263],["gekomen",-10.338122020446779],["wait",-10.33836240857471],["States",-10.338566014758428],["comunica",-10.339743296669091],["Wij",-10.340082203999986],["hoog",-10.340539848948376],["pic",-10.340598592445811],["volledig",-10.340651762137693],["earlie",-10.341242363541962],["llí",-10.341430985223711],["someone",-10.341980681156837],["pied",-10.342857934587117],["mundial",-10.343281006455893],["800",-10.343791275205508],["UE",-10.344208098420772],["sort",-10.344691292764079],["winter",-10.345362064938204],["playing",-10.34563653198817],["ves",-10.345804553230746],["po",-10.34605746035444],["Pierre",-10.34617311241966],["iba",-10.346842806277067],["Mon",-10.347606366428158],["verhaal",-10.3477621988093],["argent",-10.348413583578003],["Daniel",-10.348469654801736],["nécessaire",-10.348689023847392],["donderdag",-10.348699517626937],["Smith",-10.348735044503645],["Barcelon",-10.348805457901523],["propre",-10.349058574950869],["danger",-10.349613953621194],["difficult",-10.350315036580653],["Commission",-10.35072280664576],["ive",-10.350984722235166],["serious",-10.351473192484296],["leden",-10.351493890589573],["contrôle",-10.351583641903881],["bout",-10.351609720761331],["stuk",-10.352163962797537],["activit",-10.352812852406172],["Oekraïens",-10.354087144008957],["emergenc",-10.354089720774747],["Colombia",-10.354257635697877],["André",-10.35438373509902],["modo",-10.354384608466724],["49",-10.35454287926893],["miles",-10.354740089396032],["luz",-10.354953289233677],["toward",-10.355030692697245],["livre",-10.355042752513299],["efecto",-10.35587253735088],["motor",-10.35606086264319],["authorit",-10.356253824003655],["communication",-10.356297081807748],["bas",-10.356498282791218],["School",-10.356523554352643],["economía",-10.356948348607656],["bord",-10.357003252604429],["grado",-10.357656027244953],["genre",-10.357917276743922],["voi",-10.358059842895443],["Group",-10.35820687187077],["É",-10.358975005338486],["fundamental",-10.35897945113264],["pense",-10.359001083987643],["gebruikt",-10.359331313918005],["ernández",-10.359367238380273],["próxima",-10.35951456263339],["Rutte",-10.359521102171954],["langs",-10.359935709471873],["eleccione",-10.36031952694471],["vak",-10.360486878091246],["mother",-10.360743383941765],["mooi",-10.360834875646704],["trav",-10.36182185477225],["jij",-10.361844265291992],["pan",-10.362022863899615],["rente",-10.362610416198823],["regen",-10.362763165505495],["uiteindelijk",-10.363314095674674],["protect",-10.363663704241207],["lista",-10.364351192895782],["nature",-10.364847383920718],["sanction",-10.364890437567876],["signe",-10.365310958552556],["llev",-10.366320040332246],["précisé",-10.366374526415878],["soi",-10.366998893097279],["puerta",-10.367713350171707],["Tom",-10.367801196624743],["mère",-10.36790101359112],["beleid",-10.368089091463101],["hablar",-10.368249323287797],["juste",-10.368445418122448],["Her",-10.368705663019089],["chief",-10.369394853211574],["María",-10.369632012041663],["fase",-10.36990992921773],["matière",-10.370465228132852],["territorio",-10.370735018623705],["Federal",-10.370922555063519],["95",-10.371730014129962],["mov",-10.37312327841671],["média",-10.37338717809575],["ongeveer",-10.37365574201225],["heart",-10.373874594156923],["suggest",-10.373928084073597],["jugar",-10.375050709422094],["International",-10.375451573734011],["covid",-10.375998461103553],["playe",-10.37695255653188],["Max",-10.377017443808715],["punten",-10.377125056634094],["nord",-10.377708876592429],["fútbol",-10.377760222793967],["executive",-10.378747007372787],["programma",-10.37876578857649],["pudo",-10.379068244861145],["Hoy",-10.379131297890515],["moeder",-10.3792108096841],["Manuel",-10.379466006937133],["sanitaire",-10.37970087335415],["camp",-10.379774225047582],["changement",-10.379998370767712],["plek",-10.380014655430518],["periodista",-10.381668272334458],["waarom",-10.381845433215556],["lucha",-10.381996491824486],["única",-10.382928590123438],["Charles",-10.383612889116034],["waardoor",-10.384127459182007],["Texa",-10.385794674131613],["siete",-10.385895680742674],["welke",-10.38603779451671],["district",-10.386139193669258],["rappel",-10.386238461922684],["assure",-10.386445782696374],["elemento",-10.386597727701567],["Después",-10.387102523584918],["communauté",-10.387102595389578],["tarjeta",-10.387102670810538],["deben",-10.387934553476878],["gauche",-10.388014324905004],["liggen",-10.388404022014836],["Cha",-10.388413323300204],["speak",-10.389752848905683],["immediate",-10.38990363197506],["transition",-10.389927585056402],["Ram",-10.39032150932335],["ther",-10.390357673192398],["ordre",-10.39085563808165],["espace",-10.391381059326003],["Star",-10.392063658162282],["phase",-10.392147572246705],["wilde",-10.392345095419891],["cierto",-10.392411857826993],["expérience",-10.392712610970868],["bio",-10.393081375675836],["Amsterdam",-10.393573140891665],["organisatie",-10.39372029763912],["explica",-10.393800805591525],["vamo",-10.394445609043542],["compare",-10.39458958246841],["clave",-10.394805414464916],["práctica",-10.395529512055596],["économie",-10.395529598450217],["People",-10.395533569592395],["quartier",-10.395584896512776],["ploeg",-10.395843272102233],["llega",-10.396072285810277],["cliente",-10.396176212438368],["leggen",-10.396609840270546],["needs",-10.397289012439561],["reach",-10.397713068920911],["career",-10.39772734265975],["Want",-10.397870869289498],["paciente",-10.398351305005214],["particulière",-10.398354538261],["pratique",-10.398364240805009],["maire",-10.398878267282992],["break",-10.399507883273799],["Est",-10.400386773399397],["concerne",-10.400572590404856],["More",-10.400615962330178],["agente",-10.400806454379378],["loin",-10.40107315388584],["modèle",-10.401187525359855],["September",-10.401187580640382],["crecimiento",-10.401215481701103],["wrot",-10.401294760144886],["Nigeria",-10.401489228036704],["journaliste",-10.401598328513739],["terre",-10.40180069641405],["visita",-10.401876162861315],["objet",-10.40250866756272],["inter",-10.402605901362843],["player",-10.402852346040316],["opera",-10.402932416002509],["road",-10.403021950110602],["campo",-10.403159519224317],["walk",-10.403510335213578],["escenario",-10.404074813873256],["wante",-10.40451638649304],["houdt",-10.405044698714146],["agenda",-10.405194803846133],["estudio",-10.40523508946156],["Wie",-10.405265602449948],["seconde",-10.405536733794067],["capacit",-10.40577932937865],["belangrijk",-10.406051380967272],["técnico",-10.40651967334017],["cara",-10.406529293169188],["Ali",-10.406560583516997],["agent",-10.4070235258427],["girl",-10.407190801488719],["nothing",-10.407368193657303],["miljard",-10.407466023316726],["soon",-10.407989786254603],["dieron",-10.408133600802831],["Novemb",-10.40882214240007],["count",-10.409629699555877],["Villa",-10.40993784229606],["Congreso",-10.410020036393977],["llowed",-10.410820645043318],["friend",-10.410875137827208],["zoveel",-10.411263086922055],["movie",-10.411465564983162],["mode",-10.412375637142055],["celebra",-10.412390286255675],["institution",-10.412444190994684],["Octob",-10.412612452611874],["Pedro",-10.412721828600114],["parler",-10.412843663747115],["gol",-10.413287533076682],["47",-10.413369341108346],["derde",-10.414989776678702],["amount",-10.415745869618506],["boeren",-10.416945102154664],["vallen",-10.417431394553141],["punt",-10.417907417174199],["address",-10.418024692960515],["criminal",-10.418260220448984],["Chief",-10.418385230170117],["zomer",-10.419429220616426],["élu",-10.421120951670094],["industrie",-10.421140898831908],["discussion",-10.421300208753976],["prévu",-10.421439931648184],["Peter",-10.421495747762101],["study",-10.42157367447593],["War",-10.422636610804958],["acto",-10.422665148459906],["pré",-10.422679205647547],["regel",-10.423049673040865],["seguro",-10.423443204723448],["réussi",-10.423453108743981],["fast",-10.42379138458639],["Toda",-10.424096748897172],["música",-10.424143753612803],["bied",-10.424241379041217],["estime",-10.42460867265582],["ocho",-10.424903767030397],["Nation",-10.425079269736031],["ampoco",-10.426146759059215],["Australia",-10.426207377121314],["2010",-10.426506688931207],["République",-10.427062471034215],["Universidad",-10.427068222930615],["57",-10.427117865917005],["pool",-10.427423182347084],["siguiente",-10.427695716845793],["lijk",-10.429807414318574],["gang",-10.429936167823772],["zaken",-10.42995430925356],["máximo",-10.43001956270473],["habrá",-10.430085566590387],["college",-10.430087304102862],["victim",-10.430361411683299],["distinto",-10.43042632401606],["plu",-10.432279648271894],["Japan",-10.432419379721118],["deliver",-10.432562251427814],["Coupe",-10.432899114275049],["vuelta",-10.432916952146773],["República",-10.433034987020127],["Per",-10.433052475661718],["permettr",-10.434824704733774],["responsables",-10.434993334263336],["localidad",-10.435188878959014],["2000",-10.435345000143919],["eeded",-10.435716372053895],["defensa",-10.435843577154301],["partner",-10.436174214664568],["perfect",-10.43658140506926],["quedar",-10.43662753428056],["PP",-10.43725309305489],["niks",-10.4372790058076],["richting",-10.437309724863786],["accè",-10.43743476901395],["dix",-10.438274067968896],["ieder",-10.438348655008275],["présence",-10.438765349727298],["titular",-10.438819691277327],["location",-10.438846363886375],["político",-10.43938292462138],["leaders",-10.439536181943755],["ouvert",-10.439816264970023],["structure",-10.440052277478767],["marque",-10.440605264923066],["mantiene",-10.440656368883275],["oud",-10.440955832668482],["mondiale",-10.4411037405414],["entrada",-10.441208277456766],["movimiento",-10.441722464434063],["white",-10.441891094301123],["rrière",-10.442290188321037],["hoop",-10.442386234798304],["exist",-10.442938058663866],["artiste",-10.443799934304177],["amor",-10.444071586371697],["2012",-10.44417872201323],["Civil",-10.444706795725004],["voto",-10.444767812601764],["impacto",-10.44568656407965],["others",-10.446143524998316],["rij",-10.446372340681364],["necesita",-10.446673384861631],["presentar",-10.447331681724393],["Thomas",-10.447704142331869],["parties",-10.44773857294119],["daily",-10.447768799060235],["rare",-10.448007285009833],["Sud",-10.448293273584868],["montre",-10.448311193002311],["Pen",-10.448537662711377],["garde",-10.448994092585407],["kleine",-10.449028075786199],["esas",-10.44978022956191],["read",-10.450473237766428],["accidente",-10.450995811264328],["disease",-10.451016307490292],["Brit",-10.452924920067865],["beteken",-10.453140637830739],["citoyen",-10.453380740148443],["attempt",-10.453630330101879],["66",-10.453738589948877],["entrée",-10.453930067635186],["album",-10.454598588142707],["bigge",-10.454991360990036],["vive",-10.455057022558833],["russes",-10.455486362678322],["mail",-10.455826784562877],["Israël",-10.45594942514994],["bill",-10.455979917514336],["vista",-10.456167891610306],["Plan",-10.456653682787861],["grond",-10.45685970443078],["oferta",-10.458039651801798],["cabeza",-10.45815492044498],["différente",-10.458292243313927],["Ar",-10.45917713400074],["kopen",-10.459684638897286],["growth",-10.4598171796672],["250",-10.45983518698087],["multiple",-10.460207320923924],["actie",-10.460220360428933],["forte",-10.460661999529137],["contrat",-10.461015374729447],["scene",-10.461567616335905],["vente",-10.461588461414145],["Democrat",-10.461656455187818],["loopt",-10.462179020909181],["interés",-10.462688039973624],["vorige",-10.463572810679363],["propia",-10.46369126369205],["Just",-10.46434576502775],["suma",-10.464746728656387],["longer",-10.465519826065464],["kille",-10.465614333743709],["époque",-10.465641468091146],["ergens",-10.46564620217771],["gestion",-10.465701577944555],["Social",-10.465790563572359],["juge",-10.466339472526565],["song",-10.46725291188719],["tenga",-10.467331101169496],["élève",-10.467479593691362],["kilómetro",-10.468661474335478],["centrum",-10.468931231100601],["prêt",-10.468998062373363],["veld",-10.469030172408146],["fond",-10.469288914827125],["lekker",-10.470096900343698],["saber",-10.470505781349155],["totale",-10.47097150631902],["sait",-10.471128801951814],["défense",-10.47143061854024],["esfuerzo",-10.471700993450316],["éxito",-10.47170151027805],["che",-10.472288940911131],["fonction",-10.472334681430395],["actions",-10.472373842353017],["rang",-10.472786534727902],["Louis",-10.473553020699946],["Vladimir",-10.474752291974486],["emploi",-10.474765056397297],["lorsqu",-10.474814921034255],["minute",-10.475055552115455],["libertad",-10.475122072705037],["54",-10.475837110946932],["ending",-10.475896011977195],["capacité",-10.475907807642457],["rendu",-10.475934156688641],["manager",-10.47630940094019],["reprise",-10.47682712025854],["marco",-10.477007085932865],["lever",-10.477139329555108],["understand",-10.477469751324826],["participar",-10.477472398318412],["mejorar",-10.477547958485442],["européen",-10.477568846055842],["título",-10.477807881144841],["bueno",-10.477893676547179],["gobernador",-10.478089385014123],["Consejo",-10.480875357835924],["Musk",-10.481010073566589],["58",-10.4810255551216],["enfant",-10.481245772286574],["origine",-10.481328410109139],["Bueno",-10.481558905844581],["différents",-10.481598380310114],["capitale",-10.482164410528934],["periode",-10.482198185883938],["wanne",-10.482236625006701],["entrega",-10.482479594546433],["contar",-10.482622052594365],["demandé",-10.482820298103029],["regional",-10.483783152320285],["fuego",-10.483800534915545],["Government",-10.48413749064106],["Africa",-10.484298390692771],["droite",-10.484485218884242],["industria",-10.486089763987115],["decade",-10.486207737576208],["sign",-10.486766786465264],["Maroc",-10.487088794082618],["responsabilidad",-10.487157972125887],["ochtend",-10.487333452578575],["argentino",-10.487361091849358],["practice",-10.488220581809385],["cita",-10.48825237033957],["essential",-10.488357060804672],["bezig",-10.489485761220994],["rechter",-10.489994089599488],["escuela",-10.490217048695769],["ofrece",-10.490537434294328],["Ville",-10.490539135497933],["daarom",-10.491010458048745],["Bay",-10.491126904518538],["management",-10.491144614354718],["ecember",-10.491676792731575],["longue",-10.491875591117427],["doute",-10.492036594015538],["interven",-10.492131205495639],["distanc",-10.492133884302042],["seek",-10.492389699458569],["detalle",-10.492643532215109],["tecnología",-10.493240291770842],["smartphone",-10.493257111165658],["middag",-10.493642286163427],["maatregelen",-10.493769965564363],["incluye",-10.494129149512323],["driver",-10.494916032816096],["representa",-10.495081495767202],["audience",-10.496357668205919],["iniciativa",-10.496357795566013],["prima",-10.496360676271049],["relationship",-10.496380961169642],["Februar",-10.496555705481855],["accusé",-10.496722438454906],["systeem",-10.497527008955299],["EE",-10.498153803958061],["appelé",-10.49870385576476],["metros",-10.49879780290031],["Luc",-10.498815405655185],["schedule",-10.499232258447538],["inside",-10.499484805982991],["década",-10.499581144259281],["father",-10.499891859636284],["revenue",-10.500229210886586],["avez",-10.500302402233949],["Marc",-10.50036097928923],["Mijn",-10.500436799865835],["voie",-10.500516685036752],["eguridad",-10.500693653730561],["hacen",-10.501020060397812],["aider",-10.501328660653787],["propert",-10.501527494589336],["meilleure",-10.50155012760747],["Poutin",-10.502675775554223],["volume",-10.502678691096595],["64",-10.502716559517989],["plaza",-10.503499927831493],["Don",-10.503551206747659],["jou",-10.504247684762497],["Bien",-10.504904983783533],["beeld",-10.505060043948426],["extrême",-10.505759958031415],["América",-10.5058047893149],["wife",-10.505852825261071],["debería",-10.505855401279089],["écran",-10.505880047914761],["ho",-10.506398112276488],["72",-10.506460287452335],["hulp",-10.506498341289797],["Mario",-10.506516938110535],["Ça",-10.507221891938507],["echnology",-10.508210506478626],["ground",-10.50835133401614],["ayudar",-10.508432443260215],["quality",-10.508555517357252],["example",-10.508932978930254],["positivo",-10.509408718482767],["tengo",-10.509412491065778],["précise",-10.509521817605137],["quarantine",-10.510085948047198],["Many",-10.510750360611688],["precie",-10.51097622036309],["cijfer",-10.511379544968776],["mouvement",-10.512029858069964],["infrastructure",-10.512082105721817],["cap",-10.51213522156409],["CEO",-10.512137035284736],["Sport",-10.513055783907909],["américaine",-10.51342444171823],["ninguna",-10.5135835851212],["rester",-10.513635487464828],["tasa",-10.51385724637947],["grands",-10.514351952710623],["states",-10.514641470528593],["Antoni",-10.514731089968809],["amente",-10.514764994440995],["atteint",-10.51487551369895],["talent",-10.515140310206544],["Inter",-10.515286744568405],["huidig",-10.515388637869329],["française",-10.51568707676893],["flink",-10.515768156495165],["serve",-10.517017585149327],["klimaat",-10.517574570343704],["conclu",-10.518210578869823],["établissement",-10.51844799036438],["perdu",-10.518505579821237],["lutte",-10.51903012583673],["majorité",-10.519176195836287],["policier",-10.519380297620426],["Ains",-10.519484260473565],["Can",-10.52008316118889],["vertelt",-10.520272201828476],["hors",-10.520877826098705],["contrato",-10.520947463490662],["lluvia",-10.521651555878858],["plateforme",-10.521696477289106],["tax",-10.52189032596347],["Casa",-10.52197707073267],["makes",-10.52209679519039],["guien",-10.522359775563846],["écrit",-10.522436779618003],["vader",-10.522461501712172],["Play",-10.522569562762797],["doive",-10.522957005632474],["presión",-10.523414641622868],["zag",-10.523418040310487],["tests",-10.523764017334877],["lower",-10.52380187616847],["añadi",-10.523827622805692],["clase",-10.523878197074161],["armes",-10.523896685648452],["nacht",-10.524562680463546],["fácil",-10.524846768748876],["nieuws",-10.524867208840103],["revenu",-10.524943837532625],["guy",-10.525569742691234],["Net",-10.525745251822329],["policy",-10.525840204319369],["Alle",-10.526077586229972],["étant",-10.526197112451346],["product",-10.526263558056392],["tension",-10.526480805421967],["Comis",-10.527547389880894],["VS",-10.527736408905465],["Aan",-10.527911965663762],["describe",-10.527994516568723],["Duitsland",-10.528074126052218],["Association",-10.528076545474352],["sitio",-10.52809782017927],["Florida",-10.528110022878943],["llamado",-10.528514632641674],["pick",-10.528608163040843],["créer",-10.529434695045186],["films",-10.529743853557433],["mètre",-10.530024935531081],["ère",-10.530124160585293],["Bill",-10.530728361613908],["vaccin",-10.530788716197847],["inflation",-10.53106443361824],["temperatura",-10.531279722384735],["organization",-10.531355741027308],["cre",-10.531368328024755],["Christian",-10.531466018083183],["zelfde",-10.53275003000809],["Toen",-10.53278519335212],["peuple",-10.533748786086372],["voit",-10.534288262646253],["arrêt",-10.534378018056177],["daarna",-10.53439878816252],["barrio",-10.534935983904402],["restaurant",-10.53518684733099],["62",-10.535401357445497],["commission",-10.535408692291444],["News",-10.535524654695685],["helpen",-10.535960672374303],["aange",-10.536751900366376],["sûr",-10.536970474168367],["honderd",-10.537494842548465],["compagnie",-10.537762985792696],["Copa",-10.538406321771184],["acht",-10.538422628473445],["partijen",-10.540126302192741],["detenido",-10.540209483428903],["telle",-10.540416070965215],["argument",-10.541798396519486],["vot",-10.542135530120747],["halve",-10.542416192472352],["invers",-10.543815891343195],["Russen",-10.544085007682147],["hechos",-10.544211164676206],["gedrag",-10.54459548169806],["populaire",-10.54520677819092],["OS",-10.545501446028172],["meeste",-10.54570330011078],["user",-10.54579754531411],["relatie",-10.545931193453999],["arm",-10.546450419746272],["education",-10.546590030133899],["candidato",-10.546747996965891],["patient",-10.547016713246297],["Lors",-10.547145159142838],["Disney",-10.547567030387125],["superior",-10.547570452435178],["ría",-10.547708070723463],["conocido",-10.547978226413232],["dirigeant",-10.548414255422468],["golpe",-10.548604225999764],["mental",-10.549547534468356],["ity",-10.549773606281537],["76",-10.550461024240617],["Même",-10.55086894211334],["expliqué",-10.550954846391642],["groter",-10.55121017499614],["retrouve",-10.551556200677918],["manque",-10.551748901768025],["fi",-10.551841945074482],["entrevista",-10.551916603355945],["Tu",-10.551983140423484],["jury",-10.552037765031944],["balance",-10.552201920811813],["fer",-10.552260308876964],["kilometer",-10.553181582004088],["vacuna",-10.553197676821313],["ary",-10.553612448164166],["iones",-10.554109599487383],["mexicano",-10.55415646117931],["présente",-10.554430193381002],["salida",-10.554550375164062],["request",-10.554714902608541],["adelant",-10.554772168271468],["Cruz",-10.554822601693626],["representante",-10.555427023678277],["WK",-10.555551268713621],["particip",-10.556545212774381],["marcha",-10.556942134242307],["ocurri",-10.557004117096941],["facilit",-10.557032028834207],["klaar",-10.557067478875027],["Justice",-10.55748288473492],["whole",-10.55772742890775],["pop",-10.55785076082312],["âge",-10.558334946797652],["regio",-10.55841278640329],["affirmé",-10.558841448073082],["usual",-10.558944899042494],["initial",-10.559150864105781],["67",-10.559205659199634],["construc",-10.55925172245152],["ización",-10.559874213830039],["Montréal",-10.560700379740112],["blessure",-10.560868077775556],["intervention",-10.56101571454224],["meerdere",-10.561652192075405],["alcalde",-10.562216918996487],["vivre",-10.56251063183701],["class",-10.563181310071418],["53",-10.563711795738948],["contacto",-10.563881634640072],["leuk",-10.564085582625474],["réalité",-10.564120259163346],["relative",-10.56414215846749],["materia",-10.564371932593705],["transporte",-10.564609915084201],["doel",-10.564902345965699],["ship",-10.56580960225038],["officielle",-10.566269668591248],["véhicule",-10.566609190319891],["enjoy",-10.567126021175614],["summer",-10.567501577807427],["mini",-10.567555317902485],["51",-10.567884052381181],["exact",-10.567973007831041],["teste",-10.568133719590373],["particulier",-10.568349505452186],["accuse",-10.568821500175826],["répond",-10.56908372385822],["rival",-10.569124881421487],["Garc",-10.569943597349805],["eight",-10.570009220701415],["resource",-10.570565171077018],["range",-10.572774162746125],["funciona",-10.573359682900406],["slag",-10.573823379282736],["distinta",-10.574221259529848],["vite",-10.574276179599511],["estudiante",-10.574390281068833],["micro",-10.57476999315677],["distance",-10.575061616344293],["technologie",-10.5750616407433],["manage",-10.575580814183992],["purchase",-10.576045764167151],["title",-10.5762976256006],["soldat",-10.576524652005073],["step",-10.576679581854082],["59",-10.578296242182013],["68",-10.578501170921182],["ouders",-10.579240228729311],["rekening",-10.579688638177137],["kids",-10.579831139897069],["lack",-10.580082189908765],["daughter",-10.580871145154987],["estrategia",-10.580959596086075],["oplossing",-10.581004247230666],["comercial",-10.581198479353938],["reports",-10.581293252178664],["treatment",-10.581631830933468],["Prime",-10.581639690633022],["presqu",-10.58215906929203],["standard",-10.582367179993433],["etapa",-10.58276692030821],["genes",-10.582898865858354],["trekken",-10.584114880323089],["réponse",-10.584360083585988],["Miguel",-10.58436048711814],["anyon",-10.58438610175205],["categoría",-10.584454738934964],["dicht",-10.584992954702162],["78",-10.58590972523579],["Gran",-10.585953895091803],["liet",-10.585973785152518],["opening",-10.58622197507788],["dura",-10.586855102002874],["politiek",-10.587553603520407],["auteur",-10.587638540161086],["dizaine",-10.587774446023367],["cultura",-10.588391554454343],["Mosco",-10.588762013742171],["pagar",-10.589409303835346],["aron",-10.589577891899246],["error",-10.590051175672658],["Vi",-10.590369983819755],["gebracht",-10.590558210823247],["critique",-10.590569707717895],["ida",-10.590641447682355],["capable",-10.590922745725571],["isation",-10.590948074911449],["center",-10.591231969794983],["brough",-10.591285622837372],["pena",-10.591442850983118],["represent",-10.591566316886482],["fiesta",-10.591894000845508],["baby",-10.592227619247222],["diputado",-10.592488298361921],["labor",-10.592816221964894],["gevallen",-10.593137745319796],["passage",-10.593184289480913],["voyage",-10.593245960132116],["€™",-10.594638006567681],["allá",-10.594800446691131],["étape",-10.594958374356821],["encourage",-10.595195358418291],["imagen",-10.595274472556111],["voorbij",-10.595383777871785],["travailler",-10.595663396693901],["quite",-10.597033820582578],["rie",-10.597132342966567],["diario",-10.597346632752418],["56",-10.597541829985134],["eran",-10.59760437434206],["arrêté",-10.597659111093286],["termin",-10.597795073739418],["acte",-10.597955003058924],["commerce",-10.598121499538905],["facile",-10.598146479777924],["emergencia",-10.598165770513752],["cash",-10.598774524706409],["fonds",-10.598811473522089],["Israel",-10.598828250759171],["obras",-10.598904036481212],["view",-10.600079896521784],["East",-10.60123969443404],["soirée",-10.601689396659825],["olie",-10.601898431356336],["completa",-10.601939857472908],["privé",-10.601947232717333],["Qu",-10.602153511440857],["recibir",-10.60260781870082],["waarschijnlijk",-10.603737424424377],["print",-10.604225310929735],["decided",-10.604936922489884],["felt",-10.604968682227096],["Ga",-10.605007778871755],["documento",-10.605017642742695],["ask",-10.606064379294875],["conflicto",-10.606140121403186],["alleged",-10.606341160192223],["Chile",-10.606400377390232],["rise",-10.606455615847164],["ach",-10.6067149111649],["libro",-10.60688053366341],["700",-10.606915680038174],["analyse",-10.607364145984473],["horen",-10.607375268893223],["approach",-10.607396533003755],["habla",-10.60741058789375],["Hast",-10.60743643036194],["ajoute",-10.607692927882631],["69",-10.60804740259885],["trimestre",-10.608500302183199],["strijd",-10.608614600087343],["mandatario",-10.608709370787025],["llegada",-10.608797823167151],["schools",-10.608815652427124],["fair",-10.60889019101964],["Toch",-10.60889611745484],["conflit",-10.608945767641288],["Más",-10.609019222086022],["realiza",-10.609477177155952],["pression",-10.609661894700082],["above",-10.609735199164545],["destino",-10.610185808816603],["themsel",-10.610336692050945],["Ni",-10.610524134860118],["pasada",-10.610757717848905],["winning",-10.611244921600246],["voy",-10.611372543432708],["deberá",-10.61162904102655],["inflatie",-10.611785855267286],["augmentation",-10.612015110717305],["torneo",-10.61201692942657],["lange",-10.612543755433045],["fail",-10.612600705449967],["mind",-10.61304880535447],["Congress",-10.61358828821333],["worke",-10.61393576826357],["77",-10.614148689789113],["eten",-10.614196142040747],["variant",-10.61425853196604],["moeilijk",-10.614364303846841],["meld",-10.614924941307535],["gne",-10.615275995571361],["simplement",-10.6153123572538],["baisse",-10.616826910805948],["Po",-10.616835394655908],["realizado",-10.616985701154706],["probablement",-10.617541434300783],["card",-10.617551118653704],["Every",-10.618138805782426],["prevent",-10.618142373435239],["limit",-10.618539097237653],["Instituto",-10.61864133128684],["code",-10.618692945501524],["Festival",-10.61906517119089],["Fiscalía",-10.619091263131217],["comité",-10.619147183775176],["conférence",-10.619184607619605],["huizen",-10.619757651931153],["pie",-10.620271468222999],["icieron",-10.620413130228954],["Democrati",-10.620734847665478],["estatal",-10.620880173825457],["89",-10.621292676092953],["63",-10.621380722702776],["considera",-10.62143980517185],["Français",-10.621650692694663],["nummer",-10.622143271445006],["ieron",-10.622408918078516],["thousand",-10.622602797329256],["retrouver",-10.622757823571508],["ogen",-10.622938864034987],["Public",-10.623243196260077],["ballot",-10.623637036431436],["cover",-10.623742718040718],["style",-10.624037130878271],["Mac",-10.62447446855361],["achat",-10.624767352732299],["dingen",-10.625176939619287],["relations",-10.62522746827807],["civile",-10.62529966745544],["alcohol",-10.625650640199364],["publié",-10.625692007295738],["diverse",-10.625869935474055],["mediante",-10.625928505392476],["obstant",-10.626106050643982],["leading",-10.626174290046972],["review",-10.627307870417365],["mitad",-10.628257143927218],["ouverture",-10.628747011107587],["justicia",-10.629335942291416],["anderen",-10.629419033941911],["Ángel",-10.62966588333629],["commencé",-10.629750735172422],["buscar",-10.63021892479841],["Force",-10.630473203035008],["rusa",-10.630737947768443],["declar",-10.630748678743661],["urgence",-10.631441858646223],["necessar",-10.631718597996688],["Wel",-10.631942471765532],["stress",-10.632393403129807],["opge",-10.632420339874763],["ronde",-10.632570836267508],["souligne",-10.632683328500114],["François",-10.633235363633851],["véritable",-10.633235389622754],["moved",-10.6336716219081],["vorm",-10.634308935078064],["ette",-10.635283593320972],["cumplir",-10.635800305168736],["tier",-10.635809244212755],["trial",-10.6361845007768],["muziek",-10.636820867670254],["empleo",-10.637077562537252],["specific",-10.637448343702356],["encontraba",-10.637472653492113],["ried",-10.63761560490326],["compra",-10.637956032242771],["96",-10.638135050394677],["wood",-10.63817003445763],["Office",-10.638620378410875],["stelt",-10.638632566197495],["commercial",-10.63979821881882],["huge",-10.640078144977846],["join",-10.640381169677614],["Bruxelles",-10.640417359006765],["deja",-10.640713396410112],["hoeveel",-10.640868325100147],["venu",-10.641009647216315],["happ",-10.64105019797914],["Angeles",-10.641628816728321],["judicial",-10.641790597166167],["opinion",-10.641811561953906],["Aire",-10.642433883721502],["adas",-10.64316031413368],["niemand",-10.64319762546113],["vo",-10.643533563793385],["incendie",-10.643983079230054],["avocat",-10.644124694189323],["studio",-10.6442356179113],["tierra",-10.644417153254896],["crear",-10.644473417074956],["administra",-10.644813077119593],["agree",-10.644816916767198],["voorzitter",-10.64615129819669],["provincial",-10.646337465173932],["damage",-10.646848362039073],["domaine",-10.646978207862539],["affirme",-10.647512556420057],["disfrutar",-10.647570712118151],["Groningen",-10.647650152198656],["ukrainienne",-10.648001338865093],["beide",-10.648408843298593],["feeling",-10.648436330781998],["boek",-10.648740197479194],["gevoel",-10.648827530589386],["department",-10.648940407177946],["coment",-10.648998155507826],["devenu",-10.649197574176224],["nam",-10.649653450428481],["plane",-10.650045050468009],["professionnel",-10.650083953449677],["gevon",-10.650328511601108],["ziekenhuis",-10.650425418489029],["teams",-10.650764615984784],["build",-10.651127450850401],["rápida",-10.65128678073826],["policial",-10.651298899070305],["sense",-10.651529706106942],["historique",-10.652003738188974],["création",-10.652021272135267],["jonge",-10.65336430012826],["Pi",-10.654154512502984],["vroeg",-10.654676682284881],["Rodríguez",-10.654936010694005],["impuesto",-10.654943680572924],["étudiant",-10.655135340743328],["elles",-10.655173343633784],["estimate",-10.655199167028853],["cree",-10.655228833574345],["éviter",-10.6553926977018],["various",-10.65555977093471],["consumo",-10.655566089510078],["continúa",-10.656362646562002],["réunion",-10.656405800398502],["reactie",-10.657660823594128],["Blue",-10.658648558496402],["answer",-10.658927228233239],["contenido",-10.65898565630387],["moyenne",-10.658986136468243],["Director",-10.659335107618677],["develop",-10.659344405318343],["rouge",-10.659493019263632],["blij",-10.6595191679741],["tenu",-10.66010096593363],["duizend",-10.660309146712457],["lucht",-10.660608753625379],["pourra",-10.660760177080245],["minuten",-10.661257166887411],["cámara",-10.662275588972435],["prime",-10.66281074353639],["vivir",-10.662935173640731],["réalisé",-10.663036511908604],["foot",-10.66359753546205],["hacerlo",-10.663647109823868],["professional",-10.664273489415567],["vervolgen",-10.664343415723415],["toekomst",-10.664479771636415],["extreme",-10.66449986508446],["save",-10.665012894267136],["Verenigd",-10.665974545837594],["hart",-10.666409668432163],["High",-10.666496611085666],["temas",-10.666521683734192],["organismo",-10.666620487913054],["probabl",-10.666691517424864],["vision",-10.668009323391498],["Val",-10.668040143514254],["ras",-10.669104434940035],["reforma",-10.669146332068525],["wegen",-10.66929228841973],["Nueva",-10.669693559763576],["prett",-10.669870940513757],["eventual",-10.669997108844225],["spokes",-10.670244264044593],["dezelfde",-10.671073022357437],["African",-10.671979850942604],["piece",-10.672134906332005],["creo",-10.672443508377212],["inten",-10.672528738498208],["pod",-10.672564419365703],["vakantie",-10.672688668753626],["conversation",-10.673432286527753],["liberté",-10.673518897857189],["episode",-10.673967420594739],["Duitse",-10.67409935702339],["conséquence",-10.674262175113828],["aspecto",-10.67445892331384],["présenté",-10.675059102731897],["cambiar",-10.675550560684487],["dirigente",-10.67577789522505],["voel",-10.6762335197006],["boy",-10.676626532811909],["Council",-10.676721890793726],["tercera",-10.676976779516924],["zoek",-10.677054303571094],["absence",-10.677118403002726],["supplémentaire",-10.677120349793025],["frontière",-10.677181277677084],["gemiddeld",-10.677232942627697],["décè",-10.677367857473314],["verkiezing",-10.677521462601348],["ruta",-10.677569058407377],["addition",-10.677570781430852],["belasting",-10.677701721132408],["teacher",-10.67770312612518],["Kamer",-10.677718940985159],["aught",-10.67788376844809],["buurt",-10.678234791009407],["estoy",-10.67835257824926],["instant",-10.67918307093347],["bijzonder",-10.679293820228061],["crea",-10.679972495483124],["verdad",-10.680078469796165],["menores",-10.680134058462745],["ición",-10.68042141662841],["European",-10.680747147351461],["représentant",-10.681035012084507],["engagement",-10.681253375658926],["surface",-10.68142155369166],["incremento",-10.681642967753703],["papel",-10.68211111026151],["science",-10.682472966231101],["conference",-10.683058206708074],["mooie",-10.683728342192483],["ogró",-10.68408256387389],["ig",-10.684387268449004],["lezen",-10.684793351722975],["Jorge",-10.684803448284452],["cast",-10.685491178469094],["Ka",-10.685540642431661],["employé",-10.685578770801877],["cancer",-10.685928008841739],["municipale",-10.685963491635835],["bleek",-10.686022332462995],["UU",-10.686038347221558],["lijn",-10.686042969136096],["status",-10.686124467219013],["betrokken",-10.686205812982255],["imá",-10.686850009467593],["Williams",-10.687393980952773],["Since",-10.687470622754237],["rechts",-10.68753584492006],["easy",-10.688142295809012],["Brasil",-10.688152530469267],["massive",-10.688415196705204],["medewerker",-10.688439117309116],["pakken",-10.688445920195218],["Río",-10.68856697100446],["energy",-10.688768923063424],["directa",-10.689376729359282],["Chris",-10.689582029112238],["voetbal",-10.690928598058477],["protec",-10.691175818063206],["Eric",-10.691691290253845],["Uni",-10.691810599236922],["Cup",-10.692007826214624],["partenaire",-10.692199506505379],["Secretaría",-10.692323701966103],["helft",-10.692456397163681],["tech",-10.692688851967446],["tir",-10.693142780158206],["intention",-10.693198912823618],["host",-10.694054991797131],["learning",-10.694186369377718],["avis",-10.69475388290617],["beat",-10.69498898497982],["rich",-10.695035275514009],["idió",-10.695198021969656],["asegura",-10.695268036686233],["drugs",-10.695962943343934],["dosis",-10.696311515531434],["border",-10.696446153785523],["nez",-10.696580164959475],["learn",-10.696807903878094],["King",-10.696851179322373],["texte",-10.696958458614528],["amenaza",-10.697185514691245],["banque",-10.697372383878793],["paz",-10.69737846072878],["hile",-10.698167645646771],["assuré",-10.698171392869506],["q",-10.698252065717526],["égale",-10.698371769046428],["Will",-10.698422161043787],["elk",-10.698705178099118],["maximum",-10.69918531724349],["MP",-10.699399565030696],["musical",-10.699435854675073],["Justicia",-10.699805731042852],["conductor",-10.70001578060473],["Richard",-10.700154331990344],["Geen",-10.700234175453406],["obteni",-10.700561090586186],["avoid",-10.70068343309223],["queda",-10.700965726102604],["peor",-10.70170760992378],["arreste",-10.702054636702897],["compris",-10.702261219351879],["conflict",-10.702548582205948],["Victoria",-10.702556227667234],["ducación",-10.703084815409841],["artículo",-10.70363471482311],["Suprem",-10.703652593610625],["drone",-10.70413984339206],["podía",-10.70431147356628],["habl",-10.704890058441746],["Costa",-10.705205150838463],["reduc",-10.706311739594398],["generar",-10.70725099632823],["cinéma",-10.707416738632254],["élément",-10.707564659610359],["gesprok",-10.708321155675804],["spot",-10.708425891499264],["wachten",-10.708431967533642],["Deux",-10.709472524433739],["electoral",-10.709674797355934],["Ayuntamiento",-10.711341872612035],["evidence",-10.711342013216113],["cuarto",-10.711342146469914],["physique",-10.711342149833602],["sommige",-10.711343774562373],["symptom",-10.711359717865061],["souligné",-10.711578434668034],["item",-10.711836784525776],["incendio",-10.711861622311094],["mocht",-10.711927609914198],["speed",-10.711980832830267],["maladie",-10.712226968726895],["assurer",-10.712881125622804],["brief",-10.713575603995883],["klein",-10.714880053740433],["79",-10.715189279154977],["functie",-10.715218091333767],["deur",-10.715245199864086],["investissement",-10.715279883122896],["tie",-10.71550165796679],["inscrit",-10.715683532685599],["lid",-10.715900481415666],["eron",-10.715929939990993],["cité",-10.716600572914123],["destac",-10.716667118994703],["Mike",-10.717615068304768],["block",-10.717672024062917],["tweet",-10.718112840053376],["principe",-10.718126814301689],["participant",-10.718157466625147],["chacun",-10.71912589212156],["millier",-10.719293762709626],["cantante",-10.71930220612906],["physical",-10.71957834379264],["investment",-10.719622918700084],["possibilité",-10.719654569069808],["ocasione",-10.720168944484929],["Onder",-10.72039760598458],["importe",-10.720805747004215],["sports",-10.720821518659728],["flight",-10.721062038118815],["macht",-10.72119902261991],["Inc",-10.721440956212778],["recupera",-10.72157470466502],["Uno",-10.721800379691238],["gone",-10.721997185971986],["conocimiento",-10.722173942737589],["norte",-10.722821066858682],["mobile",-10.722849041408537],["Cámara",-10.723015606131591],["spel",-10.723282597230583],["cour",-10.7233055945546],["gezet",-10.723357928581917],["supporters",-10.723411317580801],["aanwezig",-10.723924765189107],["common",-10.723937460066665],["Big",-10.724072299090608],["deep",-10.724499418091456],["denuncia",-10.72476182838896],["ities",-10.725230054902255],["Da",-10.725343111662141],["tratar",-10.725464178741701],["patron",-10.72556940562862],["hiver",-10.725760863935857],["Carolina",-10.726656675745318],["centaine",-10.726972537955696],["84",-10.727067611920742],["café",-10.727185486017607],["figura",-10.727578522347946],["true",-10.727606694562885],["kennen",-10.727756907139401],["improve",-10.727830885648988],["Marie",-10.72808911253036],["ista",-10.728313839525766],["rock",-10.728808364315118],["tarea",-10.729080164009105],["armas",-10.729120420547392],["slecht",-10.729685856228976],["aandacht",-10.729863427188452],["products",-10.729909267280096],["98",-10.729914754534633],["operativo",-10.730472391466991],["cultural",-10.730506602963573],["scolaire",-10.730875680413376],["climatique",-10.73089160747789],["reality",-10.731186772758907],["decidi",-10.731219367836523],["atrás",-10.731341082727447],["huit",-10.731897823622923],["ONU",-10.73202906990808],["120",-10.732167198329941],["Act",-10.73243526778562],["voulai",-10.732931999382707],["holding",-10.733490067126318],["aspect",-10.733756263893014],["acteur",-10.733961719821064],["aquello",-10.734101839181104],["threat",-10.734283286474746],["Chicago",-10.734826352795316],["husband",-10.734826530538108],["Harry",-10.734846801194923],["België",-10.734859859304493],["73",-10.734961229645283],["Road",-10.735003901851648],["suficiente",-10.735069371239389],["preocupa",-10.735109712172811],["verdachte",-10.735238568067041],["nchester",-10.736087089092191],["empez",-10.736405447264815],["size",-10.736531406149869],["software",-10.736799605924206],["terecht",-10.737512746388987],["choice",-10.737926389871564],["slechts",-10.738230542493032],["German",-10.738489023101357],["januari",-10.73879455146349],["Gabriel",-10.738797670589495],["Ejecutivo",-10.739048311796338],["étranger",-10.739143471601992],["schade",-10.739289020312196],["personeel",-10.739365113741222],["niña",-10.73938354784999],["mandat",-10.739694523749879],["hará",-10.73984427623791],["drop",-10.740169219140638],["spent",-10.740311792901236],["Alex",-10.740314956120084],["Meanw",-10.740353876443766],["zin",-10.740458289484838],["gebeurt",-10.740778419060154],["earning",-10.740824046683993],["invasion",-10.74188691751824],["Malgr",-10.742504062586319],["edificio",-10.742779000122884],["herramienta",-10.742782124602758],["woordvoerder",-10.742787057490297],["From",-10.74297323893585],["gratis",-10.743394804864993],["Watch",-10.744006976293806],["min",-10.744034949859815],["1er",-10.744049363003855],["circuit",-10.744422693495558],["daarme",-10.745138987499963],["manos",-10.745462819283478],["email",-10.745732257713572],["enkel",-10.745795791089598],["environment",-10.745905565053834],["quant",-10.746038946722381],["juicio",-10.746436558612277],["Franci",-10.74672777477777],["contexto",-10.746778425009392],["bastante",-10.746793233054532],["profiter",-10.74737957569095],["Internacional",-10.747531578148024],["winnen",-10.748073605068178],["amplia",-10.748481210668718],["Kan",-10.750124238354672],["tandis",-10.75018885365051],["aving",-10.750460049696724],["gezegd",-10.750722107345178],["collection",-10.75075691971466],["ucraniano",-10.750796499573129],["vulnerable",-10.750796733295182],["compétition",-10.750799762725137],["musique",-10.750804711602626],["Ligue",-10.750875508807955],["periodo",-10.751440116668903],["economie",-10.751693880650098],["rust",-10.75173659510515],["links",-10.751930084299275],["campus",-10.752171438342652],["2008",-10.753015034980818],["hear",-10.753379871924402],["session",-10.753828003690963],["souhaite",-10.754252432663538],["humain",-10.754255603036778],["tren",-10.754777170641553],["Pablo",-10.754827050583696],["revealed",-10.755058949769136],["curso",-10.755199339652293],["pese",-10.755420786825447],["médico",-10.755614077249046],["engage",-10.755730535180053],["push",-10.75573200680499],["tre",-10.756586839178624],["coche",-10.756982789714874],["ski",-10.75725457401267],["chaîne",-10.758125112870541],["ratio",-10.758127476432405],["fédéral",-10.75873733994418],["montant",-10.758813485688044],["begon",-10.759343357036233],["league",-10.759396772522974],["mond",-10.759636509960485],["sloten",-10.760006847954543],["arse",-10.760026515224371],["fuentes",-10.760166957291688],["joué",-10.760327754880183],["marge",-10.760399638541598],["London",-10.760439647883484],["cross",-10.760737502401593],["£",-10.760956843469701],["mot",-10.76142642088459],["winst",-10.762457389175943],["normale",-10.762511118798983],["Microsoft",-10.762942029365245],["faudra",-10.762942038403956],["épisode",-10.762964937807785],["bâtiment",-10.763056389050917],["alcanzar",-10.763109402178412],["rules",-10.7632894251364],["!”",-10.763581154204136],["ándose",-10.76382258377852],["verano",-10.763856790467884],["véhicules",-10.763985502834316],["reducir",-10.764064163439555],["réc",-10.764180561084853],["Cour",-10.764678976238406],["AP",-10.76490824030072],["slachtoffer",-10.765077399449673],["piste",-10.76517758901974],["pouvai",-10.765489857952394],["volvi",-10.765710562761697],["machine",-10.765868783446628],["depend",-10.765882762207205],["showe",-10.765962529022985],["changer",-10.766336565449846],["ways",-10.766991304901257],["gasto",-10.767026154383775],["By",-10.767060736718783],["denkt",-10.767181643514348],["Anne",-10.768132496445697],["multi",-10.768407798431262],["champion",-10.768467628354891],["difficulté",-10.76864487526247],["absolu",-10.7686636954072],["mostr",-10.768710896956357],["pose",-10.768751469069834],["Ra",-10.769749784242531],["oog",-10.770010964477105],["planning",-10.770075945657872],["conseguir",-10.770237699116095],["Municipal",-10.770602879021599],["liep",-10.771105447738123],["oficina",-10.771125833253054],["88",-10.771185820224932],["leadership",-10.77158701587803],["sung",-10.77167228513737],["vin",-10.77193112406902],["émission",-10.772171672678544],["zoeken",-10.772849193990096],["frontera",-10.773195660590305],["honor",-10.773784009932514],["banda",-10.773944112446483],["throw",-10.773948308898309],["handen",-10.77458366627166],["DC",-10.774804058469957],["River",-10.774918958477233],["pompiers",-10.775166155005317],["numérique",-10.775235770700746],["término",-10.775235784764991],["belge",-10.775526786841104],["máxima",-10.775546336764698],["declaraciones",-10.775664736307288],["ejercicio",-10.775788796639723],["pensar",-10.77656061695724],["apena",-10.77677290849311],["encontr",-10.77702358097441],["voorkomen",-10.777034182903954],["présidentielle",-10.777054418093755],["Ho",-10.7775965159349],["significa",-10.777599476331938],["voice",-10.777803117559994],["citizens",-10.778103966943846],["secretario",-10.77814115928463],["86",-10.778704803182043],["quotidien",-10.77881412598955],["restaurants",-10.778984011541198],["propriétaire",-10.77914302391575],["verschil",-10.779175655092779],["Zelensky",-10.779368022490024],["supply",-10.779369789452014],["premio",-10.779375920240433],["competencia",-10.77937869059491],["launch",-10.779678728752163],["poor",-10.77983074933569],["Toute",-10.780047770722813],["Radio",-10.780199768396269],["einde",-10.780209588116143],["Qui",-10.78052889792904],["estrella",-10.780608506094694],["Ko",-10.780978910821734],["Fernand",-10.781205909087115],["gaf",-10.781681493901118],["gesprek",-10.781929638138546],["lijst",-10.782047575199968],["afectado",-10.782338885454582],["74",-10.78254934710371],["leger",-10.782984409207073],["trip",-10.783082048711247],["risico",-10.783109223909118],["anim",-10.78326587251227],["rappelle",-10.783407275029365],["hermano",-10.783446357153078],["pérdida",-10.783517562416339],["annual",-10.783529683845117],["Cómo",-10.783533264922328],["papier",-10.783552297413898],["sostuv",-10.78357735597512],["agence",-10.783664562755218],["ritten",-10.784004434569216],["payment",-10.784164837348168],["graden",-10.7843395204767],["Côte",-10.784765974943806],["Banco",-10.784927347190882],["cha",-10.786566038034875],["winkel",-10.786625062173977],["sentir",-10.786631614821596],["imply",-10.786639265326153],["rece",-10.786690149552296],["heard",-10.787153326133431],["Jo",-10.787396758430436],["stroom",-10.78762079328243],["beelden",-10.787630591439335],["Vlaams",-10.787684226836083],["género",-10.787684651756809],["pressure",-10.787717978551363],["terminar",-10.787988976191851],["pnieuw",-10.788004137108258],["beginnen",-10.788097516526264],["triunfo",-10.788099953970145],["firma",-10.788694560239637],["inderda",-10.788908084177876],["pou",-10.78936451787908],["quart",-10.789691549120779],["trouvé",-10.790603513789321],["direc",-10.791317236916505],["financier",-10.791513919898321],["procè",-10.791882673834087],["ouverte",-10.791920806708056],["natuur",-10.791926077288302],["perdi",-10.792105616883962],["peso",-10.792125087691627],["fear",-10.792196165780997],["pedido",-10.792464581821333],["integrante",-10.79257061167747],["élevé",-10.792605281236696],["chi",-10.79284457159568],["William",-10.792985025261084],["analyst",-10.792991664421386],["carry",-10.793087618148292],["giving",-10.793403970587377],["goes",-10.793441366540534],["Messi",-10.793968806440914],["leg",-10.794320034602393],["soms",-10.794958767476277],["deuda",-10.795102568443697],["commence",-10.795132764761531],["tercer",-10.795432694994352],["nivele",-10.795535493360877],["estadio",-10.795676063790005],["signé",-10.795945151881824],["estructura",-10.796042127479115],["diálogo",-10.7960701134871],["atteindr",-10.796070197963896],["arma",-10.796223416400121],["tratamiento",-10.796318521589667],["network",-10.796446619550139],["Capital",-10.796630506349898],["nuclear",-10.796631004076715],["venes",-10.796954516268244],["continuer",-10.797215315988254],["Bi",-10.797610108665957],["sterk",-10.798811829128104],["remember",-10.799130896110917],["Kremlin",-10.80028925070583],["faisant",-10.800480289143936],["participation",-10.800523599323977],["Last",-10.800545903236788],["influence",-10.800864435050887],["shop",-10.80155909101716],["arrivé",-10.801564449095876],["continuar",-10.801659911857202],["sacar",-10.801900157729257],["acteurs",-10.802303402960963],["strak",-10.802552466880265],["fut",-10.802721568297551],["Face",-10.80339995505647],["agents",-10.803487237335117],["imos",-10.80372782316472],["trokken",-10.803829602622073],["wrong",-10.804414661487225],["income",-10.804424240012535],["appeal",-10.804697109658498],["sorte",-10.804833394111826],["señala",-10.804843481437901],["comenzar",-10.804882005249393],["hot",-10.805040903841352],["Franse",-10.80506953616412],["Cuba",-10.805222341245324],["informatie",-10.805245257271554],["subi",-10.805710808605816],["Lake",-10.805747665136838],["gagner",-10.806488430171136],["mostrar",-10.80655587265219],["ventaja",-10.806605056259798],["Torre",-10.806625143884913],["finance",-10.806725469862965],["vons",-10.80676527273446],["affiche",-10.807193888127005],["implement",-10.807536155296],["completo",-10.80783802136894],["auron",-10.807993981982722],["fiets",-10.8082023137925],["Senat",-10.808273798623782],["usted",-10.808627643050682],["instala",-10.808834705188456],["Indian",-10.808872891340762],["venue",-10.809171398760157],["fac",-10.80923791018268],["ancienne",-10.809793222310013],["classes",-10.810214473476435],["faisai",-10.810331488178583],["wild",-10.810795392685515],["delante",-10.811248115247555],["fiance",-10.811466477270134],["buil",-10.811549466106761],["photos",-10.811667994307077],["Uit",-10.812026133691198],["moral",-10.812265685361746],["mark",-10.812792044327383],["voldoende",-10.812823752964803],["spectacle",-10.81305554461974],["followed",-10.813597951335945],["vlucht",-10.8136359692672],["Port",-10.814164358432622],["ooking",-10.814334336652848],["instance",-10.814490805535565],["suivr",-10.814635875385225],["quería",-10.815395534857092],["perder",-10.816077113303514],["podem",-10.816088116489082],["caída",-10.816180066571325],["preuve",-10.816316450566756],["haga",-10.816338593211153],["spreken",-10.81640578727348],["turne",-10.816524443206239],["mid",-10.816710584335343],["suivi",-10.816874281331742],["constante",-10.817129005845576],["credit",-10.817296292530417],["alternative",-10.817350842312155],["Bas",-10.817510194474615],["jobs",-10.817551140812625],["confianza",-10.817556484885195],["amarilla",-10.817560627463331],["manifestation",-10.817563582361391],["begint",-10.81784982391523],["probable",-10.818087459659283],["97",-10.818151192089683],["success",-10.818279395999532],["clara",-10.818282348150955],["ocas",-10.81833259489278],["verantwoordelijk",-10.818622902382554],["lager",-10.81866661458394],["touche",-10.818905979215604],["sortir",-10.819044976123445],["presidenti",-10.8191036162895],["pleine",-10.81926541757164],["Veel",-10.819603629383646],["gen",-10.819694305637228],["Noord",-10.819725279087145],["Quan",-10.820157155686227],["juni",-10.820660411677762],["vague",-10.821155491003555],["électrique",-10.821655799610351],["juez",-10.82222905839437],["gusta",-10.822341171598078],["marqué",-10.82250417973951],["carga",-10.823295007772868],["standing",-10.823646248372459],["artist",-10.823664090889437],["arte",-10.824311592945868],["tuvier",-10.82464695703236],["sommet",-10.82475013366041],["Party",-10.824850628926836],["Zuid",-10.82486315105866],["vic",-10.825050079070195],["funcionarios",-10.825382614589246],["Sá",-10.825388321372206],["toma",-10.825467944205238],["judiciaire",-10.825990769120237],["cierre",-10.826007859222752],["sueño",-10.826020601810363],["logement",-10.826058909763237],["kamer",-10.826078043888103],["Otro",-10.826205302035177],["Euro",-10.826244147237547],["supuesto",-10.826526626024553],["Martín",-10.826609006518037],["passed",-10.827241591276492],["mondial",-10.827433627978422],["VVD",-10.8277469076689],["Cabe",-10.827759080906663],["ieurs",-10.828266777367542],["speelt",-10.8285377621859],["ance",-10.828591983347488],["fête",-10.828659807868029],["alimentos",-10.82910862273829],["Arm",-10.82932588793139],["Britse",-10.829553560370611],["aid",-10.830047990919294],["Frank",-10.8301639793968],["chemin",-10.831357236984541],["dacht",-10.831423710327925],["cumple",-10.831877111265943],["registro",-10.832064471379546],["pull",-10.832076563647249],["peur",-10.832899458782476],["referencia",-10.834017322749544],["Nada",-10.834233086464188],["vio",-10.834286606447668],["teléfono",-10.834701181371067],["pequeña",-10.834701343920628],["Alejandr",-10.834701386333482],["Puerto",-10.834702052911044],["nucléaire",-10.83479372857056],["Presidente",-10.834859064761059],["poll",-10.835343121444776],["Ministr",-10.835608123728164],["mesa",-10.835619996441384],["warm",-10.836210171035166],["viel",-10.8371035933455],["baan",-10.837324625040711],["colabora",-10.837638417626005],["bouw",-10.83788302728894],["plainte",-10.838449420885501],["razó",-10.838576054347532],["sound",-10.83867498473649],["noir",-10.838756878703183],["podium",-10.83930513301896],["clair",-10.83934500095928],["parc",-10.839475852913726],["concept",-10.839802985976181],["paper",-10.840010028629738],["zeg",-10.840195455625064],["storie",-10.840402442115558],["Haag",-10.840925537871321],["banco",-10.841736207150234],["échange",-10.841853396225016],["diferente",-10.8421933750822],["sali",-10.842393696553327],["ña",-10.842653159987078],["Minnesota",-10.843492578540328],["England",-10.843499466476676],["First",-10.84356929015878],["golf",-10.843584688389944],["llegado",-10.84362439508191],["abogado",-10.843652091368611],["remporté",-10.843883158850536],["gebeur",-10.843913646205356],["discours",-10.844052169504472],["Col",-10.844235557422378],["publiek",-10.844378991738703],["61",-10.845367728227352],["premiers",-10.845458325152114],["calles",-10.845522724384185],["représente",-10.845989776321488],["vertrouwen",-10.845999569737934],["viven",-10.846406497862686],["rend",-10.847319994348366],["recordar",-10.848159101040393],["comprar",-10.84827841526982],["secret",-10.848333569881222],["politic",-10.848388694115304],["zwaar",-10.848575615582567],["critical",-10.848586076777872],["entrar",-10.848622907106712],["ió",-10.849006454745478],["nou",-10.849011430507996],["ische",-10.849090866665334],["escribi",-10.849279544280485],["électrici",-10.84999890515714],["sentiment",-10.85021936174585],["adolescente",-10.851223728975294],["Home",-10.851536419080311],["steun",-10.851780138954723],["llamada",-10.852413609204387],["brother",-10.852443243185984],["choisi",-10.852542533414951],["increasing",-10.852677965246022],["cadena",-10.852923602050431],["régime",-10.85298406032282],["quién",-10.853018213578533],["Tesla",-10.853045409025727],["collaboration",-10.85314545028047],["Alberto",-10.853470347894687],["dorp",-10.853668699858428],["begrijp",-10.853756800117052],["broad",-10.85430562100695],["09",-10.85439176130588],["empleado",-10.855072545669277],["reache",-10.855074327823303],["lancer",-10.855131783586387],["televis",-10.855399774054696],["Marine",-10.855519638077958],["Champions",-10.85551971742732],["gre",-10.856099392650398],["pot",-10.856391420692653],["combustible",-10.856804806828503],["offensive",-10.856826243907467],["abierta",-10.8568318722849],["González",-10.856834419482034],["cuál",-10.856842870488508],["común",-10.856858400283198],["successful",-10.856942398369164],["OM",-10.857048992841234],["Ave",-10.857706608431812],["Belgisch",-10.857955944959192],["Jones",-10.858118025547663],["marche",-10.858537538596044],["endroit",-10.858909001686698],["rule",-10.859052938520035],["zware",-10.85913808892638],["schrijft",-10.859296152440464],["Fox",-10.859322106585639],["encima",-10.85952534695979],["negocia",-10.859639691801886],["entorno",-10.859735071278958],["gain",-10.860045945241595],["promo",-10.860389155621988],["maintain",-10.860531940504124],["spring",-10.860579611293431],["fera",-10.860613287891749],["korte",-10.86091077984366],["Ajax",-10.861314622344189],["Martínez",-10.861334441505921],["Obrador",-10.86136508007727],["Certain",-10.861627472138187],["claire",-10.861685429669928],["county",-10.861765048744655],["muerto",-10.862151618245987],["assist",-10.862587148831084],["considere",-10.863498071450945],["notice",-10.863891003175716],["Santé",-10.864561290551494],["wonen",-10.864777787085995],["sell",-10.864858575010457],["Elizabeth",-10.865814925775538],["Santiago",-10.865826442879918],["hundred",-10.865827460586896],["découvrir",-10.865845277105212],["Patrick",-10.865890470403224],["locatie",-10.866045724854132],["tendencia",-10.866160768261533],["personaje",-10.866880976460624],["streaming",-10.866988534111561],["82",-10.867927911335723],["tué",-10.869286707059675],["volk",-10.86934316122083],["retrouvé",-10.86980148094504],["attendr",-10.870303024995387],["temperature",-10.87033969482389],["página",-10.87035970345924],["examen",-10.870385608634145],["rendez",-10.87041396404726],["discurso",-10.870418057729719],["Mal",-10.8706024044011],["Tribunal",-10.870929259227228],["D66",-10.870987597834162],["obtener",-10.871347331237516],["indica",-10.87139685783606],["september",-10.871444820499137],["ujourd",-10.871914210467995],["ocurrido",-10.871946873714275],["département",-10.872115429735182],["NL",-10.87243124578145],["hoeft",-10.872435900941554],["convertir",-10.872436148626955],["afecta",-10.87263313429049],["Daarnaa",-10.873131368536852],["politieke",-10.87321670181527],["perte",-10.873630589422895],["BB",-10.873781803663245],["parcours",-10.87390343129052],["elektrisch",-10.874901519424297],["puissance",-10.874911738636005],["afstand",-10.874938568507835],["déclaration",-10.875291450690721],["served",-10.875944040918945],["fines",-10.8764827981208],["71",-10.876505017357378],["tool",-10.87662960484196],["adding",-10.877095561844982],["usar",-10.877313785065382],["funding",-10.87756887423978],["Mont",-10.87782279605698],["ck",-10.878740049310464],["exchange",-10.878845538539329],["kracht",-10.878899779989748],["Post",-10.879115062292003],["física",-10.87916080855662],["judge",-10.879161543370982],["81",-10.879251309458791],["search",-10.879264121394012],["Corte",-10.879354597329478],["Perú",-10.879511145441818],["salaire",-10.879990067473368],["tráfico",-10.880380654459652],["vluchtelingen",-10.880406670816805],["storm",-10.88088138400545],["realizará",-10.881232421758655],["klanten",-10.88164999388761],["mate",-10.881892405327903],["noem",-10.882030671954498],["Tho",-10.882264309040515],["climate",-10.882637124485312],["règle",-10.882959377390897],["Mercedes",-10.884096370871852],["presupuesto",-10.884111024276768],["Royal",-10.884195804330574],["stemmen",-10.884362532987916],["Station",-10.884477089068495],["refuse",-10.884753472134093],["tient",-10.885552572718927],["entretien",-10.885583194140224],["ambiente",-10.885597170978846],["porté",-10.885611159174989],["kilo",-10.886391452881817],["bare",-10.886911209027275],["médecin",-10.88725401601031],["actuel",-10.887328732542624],["movement",-10.88734103584728],["Alleen",-10.887370222482128],["trein",-10.88749506869312],["ullie",-10.887726576530856],["espère",-10.887861781093328],["Most",-10.88795143545798],["hadde",-10.888251386252817],["porter",-10.88843237199618],["Two",-10.888602801468178],["section",-10.888619848570574],["britannique",-10.888646753206242],["agency",-10.888649981172254],["neuf",-10.88868863892892],["abierto",-10.88874103674134],["gar",-10.888868195211781],["río",-10.889117837555071],["entrenador",-10.88915617746408],["espacios",-10.88953863753768],["omgeving",-10.889808735390972],["rose",-10.889941302401542],["keuze",-10.88997010259937],["réforme",-10.890115322160536],["pur",-10.890324187544783],["stem",-10.890640912167548],["utiliser",-10.890692998497295],["trainer",-10.891327789826509],["esperar",-10.891578884604845],["environnement",-10.89172722014943],["bedrag",-10.892042642293426],["roi",-10.892434002947773],["rent",-10.892634987479761],["woord",-10.893263704136405],["voormalig",-10.893278998230972],["Dieg",-10.893502632539175],["Agenc",-10.89359941982509],["disposición",-10.893701353976084],["médica",-10.893818243489491],["drug",-10.893976707982869],["verbod",-10.894203524671951],["hoogte",-10.894820507466843],["audio",-10.895253667055332],["augmenter",-10.895310648181699],["Hill",-10.8953198994962],["Scott",-10.896199237285995],["Team",-10.89623310312647],["cuest",-10.89626071066572],["langue",-10.89655620494001],["precis",-10.897264063594436],["Rob",-10.897376911651897],["è",-10.897832658305811],["departamento",-10.897927622130469],["Alemania",-10.897930850539304],["espoir",-10.89793194466106],["nueve",-10.897940908593014],["obligation",-10.897994714274624],["assistance",-10.898197643960447],["Heb",-10.898695517842157],["launche",-10.89898600339885],["Brown",-10.899497346691568],["legt",-10.899647570399466],["Republican",-10.899995320903518],["conoce",-10.900846502366978],["reporter",-10.901347271915885],["konde",-10.901700167461254],["laboral",-10.901818414971165],["loc",-10.90196541888448],["comprend",-10.901976427290155],["journalist",-10.902188564656932],["Pérez",-10.902610476265615],["ontwikkeling",-10.902780143137907],["diez",-10.90293198097054],["infecte",-10.903107370279827],["trust",-10.903293475086935],["confirmé",-10.903524999810529],["Grande",-10.903596331334045],["violent",-10.903598072788078],["aná",-10.904012606342175],["belangrijke",-10.904195001195857],["necesaria",-10.904340343727558],["rigen",-10.904387734061801],["suele",-10.904497494742003],["provid",-10.904709836695949],["cuidado",-10.9047957651775],["omos",-10.904901027087801],["personnage",-10.905162604172169],["ë",-10.905171786734543],["asking",-10.90599201702476],["novel",-10.906478949791751],["invite",-10.90679307776992],["ebruar",-10.907005283417528],["prévue",-10.90711646451949],["négociation",-10.907295278497884],["habitual",-10.90731716074089],["Verstappen",-10.907344310121815],["altura",-10.907360715742893],["favorite",-10.907485209435997],["touché",-10.90750526683933],["commun",-10.907666942006287],["cuyo",-10.907776156170522],["screen",-10.907851772521921],["overall",-10.90825547726524],["ger",-10.908540098751125],["permanente",-10.90865867176474],["kost",-10.908941011604984],["antwoord",-10.908994489552356],["parle",-10.909696639230074],["funcione",-10.909891120655033],["allait",-10.910062826537793],["Jim",-10.910292479204037],["worst",-10.910656203714954],["chiffres",-10.910834219235714],["kieze",-10.91086503728599],["Juli",-10.911325430884846],["âgé",-10.911511535519146],["pourron",-10.911553004456486],["grens",-10.9115978112988],["móvil",-10.911834300724728],["naturale",-10.9118642021608],["responsabilité",-10.912012963289438],["alimentaire",-10.912030203142123],["kilomètre",-10.912039974960116],["Comité",-10.912067958216456],["equipment",-10.912128682627369],["Avant",-10.91262889641888],["distribution",-10.912674254678997],["promedio",-10.912797686035047],["Tot",-10.91315441211253],["voeren",-10.913161166549335],["Mayor",-10.913839171453045],["lance",-10.91411905819863],["Gu",-10.914148307378362],["link",-10.914448562985498],["enfrentar",-10.914757736598824],["Here",-10.915080578759312],["universit",-10.915278440414763],["enorm",-10.916135688746788],["estimé",-10.916161193387115],["correspondiente",-10.916751882306503],["TikTok",-10.916752232117247],["wijk",-10.916822680731425],["persoon",-10.916855017051853],["comida",-10.9168557125437],["sturen",-10.917077683833867],["proposition",-10.91718676714083],["absolute",-10.917607852380343],["contexte",-10.918068000546294],["Simon",-10.91821322017553],["relacione",-10.91829061767979],["respond",-10.918586423270757],["normaal",-10.919207283485626],["intérieur",-10.919557183034739],["celebrate",-10.920046897542036],["primar",-10.920302357848037],["Ri",-10.920736177067706],["participer",-10.92093679424293],["registr",-10.921406073671118],["mínimo",-10.921514828185478],["NFL",-10.921632949296377],["geweld",-10.921807373284086],["bepaalde",-10.921982449149645],["hands",-10.922009245964361],["diseño",-10.922071433299994],["positie",-10.92239414130171],["tjes",-10.922401068460285],["trabaj",-10.922468179892888],["Twee",-10.922562459605361],["recibido",-10.9227428331119],["raad",-10.923246588480865],["sometime",-10.923453493171785],["asocia",-10.923599502852777],["rechtbank",-10.923620627436549],["Mari",-10.923840179449869],["sufri",-10.924212170003859],["excuse",-10.924612970620469],["ulement",-10.92475925515421],["ros",-10.924948708931389],["yond",-10.92496073834172],["Valencia",-10.926151936214339],["tournoi",-10.926397595045604],["Londr",-10.926415416438385],["Andrew",-10.926452957731097],["attente",-10.926506976551451],["shooting",-10.927695427273566],["ministra",-10.927697636402868],["ministerie",-10.927781793358463],["Liver",-10.927791330542624],["plaatsen",-10.927864820422144],["ix",-10.928569173277495],["aventure",-10.929196345794056],["mur",-10.929493963983097],["finish",-10.929913646786897],["battle",-10.929974348682066],["bond",-10.930784428018848],["ful",-10.930872260350515],["régulière",-10.931042485382555],["secrétaire",-10.931105882991151],["venezolano",-10.931105908819488],["Frankrijk",-10.931117143596383],["Sergi",-10.931121013185834],["respective",-10.9311853112372],["productie",-10.931459960675806],["unité",-10.931612391333525],["situé",-10.931637859189632],["explaine",-10.931737473228612],["versie",-10.931937975362757],["mening",-10.932065373997963],["electric",-10.932442926273728],["planta",-10.932457967185155],["personen",-10.933579007416387],["scale",-10.933698958691307],["charges",-10.933954049141207],["chat",-10.93421254697166],["gesloten",-10.934876678656984],["stappen",-10.935701139839146],["técnica",-10.935845179246055],["stoppen",-10.935873489758297],["tradition",-10.935948675916393],["políticos",-10.935963123071357],["liever",-10.935997390138628],["Cor",-10.936006634084826],["excellent",-10.936044570537195],["guideline",-10.936160109807613],["pobre",-10.936165247443595],["liefst",-10.93626255600914],["utilisé",-10.936323555015537],["graves",-10.936449040563495],["decline",-10.936486345899825],["economisch",-10.937046191816151],["Adam",-10.937183252737194],["Nic",-10.937331408297597],["complex",-10.937370886610264],["herido",-10.937587225521561],["rán",-10.937750762217284],["schrijven",-10.93828752948821],["hija",-10.939619476002925],["supone",-10.940494715114685],["étrangère",-10.940791169892222],["Portugal",-10.940791177288016],["carretera",-10.940791223974994],["appareil",-10.940842345516824],["géant",-10.94084718221644],["empresario",-10.940899247705605],["Oscar",-10.94101164115882],["drama",-10.941057679836412],["invité",-10.94125936726833],["abilidad",-10.941263313230543],["bezoek",-10.941342734482369],["efectivo",-10.941519941644549],["répondr",-10.94157507399032],["sch",-10.942059054826569],["Miam",-10.942573042255628],["wist",-10.942773342617286],["española",-10.943125861846077],["nforcement",-10.94337674523674],["outre",-10.943842387630017],["sectore",-10.943855445441503],["isme",-10.943929691764103],["division",-10.9440413794174],["trans",-10.944118448215935],["membre",-10.944370871115636],["neer",-10.944714416573019],["ouest",-10.945105445235821],["Well",-10.945268818864067],["cérémonie",-10.945669218297137],["offering",-10.945731554765274],["volonté",-10.94577017506751],["mari",-10.94602688935263],["Mc",-10.946352546641712],["fourth",-10.946365483945307],["funcionario",-10.946377139605087],["belang",-10.946524713992218],["registrar",-10.946816095673533],["endant",-10.94769894871914],["registrado",-10.948200980683694],["prove",-10.948425195416494],["complet",-10.948452839417119],["vlak",-10.949074414569587],["vuelve",-10.949107111138197],["sumar",-10.949115275352089],["Defens",-10.949177724907381],["pad",-10.949220459251325],["termijn",-10.949329980328415],["coin",-10.949996504924327],["génération",-10.950366955865821],["siècle",-10.950571180847188],["numéro",-10.950571184912304],["dispositivo",-10.95064703291027],["hockey",-10.950874335829095],["accusation",-10.950884952410847],["visible",-10.950966445458373],["investor",-10.951012671177217],["ubicado",-10.951253573174828],["picture",-10.951281073500606],["Tous",-10.951413910355178],["compara",-10.951839502645676],["contain",-10.952005589123072],["anual",-10.952175279730259],["1000",-10.952471223861362],["compter",-10.9530990169621],["cine",-10.95315441754467],["taine",-10.953247663483955],["importa",-10.953341851989599],["inwoners",-10.953353134777188],["Berg",-10.95344488467516],["discover",-10.953939523057198],["klink",-10.954507166111624],["NH",-10.954883120757412],["ura",-10.954992883516836],["doble",-10.95499834993202],["bevolking",-10.95506227233602],["draw",-10.955118666694146],["lugare",-10.95515767577158],["vuelo",-10.955267280363799],["Sch",-10.955721391554238],["koers",-10.955750191224496],["91",-10.955760856139271],["provincie",-10.956360656267394],["remise",-10.956783004866509],["echte",-10.957204188196616],["Santo",-10.957548406930181],["geloof",-10.957702001010857],["Justin",-10.957785911724349],["raconte",-10.95788794369928],["objeto",-10.958012350016308],["kerk",-10.958462168986463],["vele",-10.95973071216222],["council",-10.960236859801178],["izquierda",-10.960447782178887],["championnat",-10.960450993681338],["installation",-10.960474465797578],["defense",-10.960496473301795],["beginning",-10.960535851490102],["hacía",-10.960653932639472],["craft",-10.960669197627059],["198",-10.960884249859769],["missile",-10.960910035143574],["entraîneur",-10.960999219114571],["affecte",-10.96109039937097],["jouw",-10.961090577130822],["elected",-10.961282849222187],["productor",-10.961477351800493],["tenue",-10.961532150814987],["Rafael",-10.961992957705505],["Ana",-10.962410045487669],["agreement",-10.962482681499317],["comprendre",-10.962741294582933],["loop",-10.962744687769646],["vit",-10.962950805010236],["vaya",-10.963073282486107],["Hace",-10.963193864417253],["frère",-10.96320983747682],["balle",-10.963611763464673],["eur",-10.963695152838834],["crowd",-10.964031056479532],["rêve",-10.964362820835099],["voz",-10.964624690293208],["Sports",-10.964730015843806],["retire",-10.964981687363835],["ng",-10.96506384665889],["Nigerian",-10.965094399145002],["Media",-10.965275200609689],["anuncio",-10.96533044396349],["blood",-10.965403356139134],["church",-10.965423161072867],["ktober",-10.965427172562809],["District",-10.965456264448648],["publicado",-10.965511899212824],["débat",-10.965782720312031],["collega",-10.965814771436499],["Va",-10.965896428821736],["gun",-10.966136338834847],["campe",-10.966849654692147],["ought",-10.966874607116917],["hield",-10.967274091794216],["Norte",-10.967544359726322],["alone",-10.967547314802239],["défi",-10.968436205140344],["promise",-10.970111111969128],["sancione",-10.970274962553024],["panel",-10.970282539586137],["diensten",-10.970367826943354],["persoonlijk",-10.970406539261875],["énergétique",-10.970422906359282],["comercio",-10.97042829350234],["Management",-10.970434413965082],["Christmas",-10.97044285809562],["propiedad",-10.970449333932546],["Bull",-10.970474525105477],["winner",-10.970561145747096],["privado",-10.9705781908052],["negative",-10.970612237014292],["betref",-10.970861109549205],["Game",-10.9711846370232],["consumer",-10.971518426502008],["Ter",-10.971617608068435],["épreuve",-10.971671270867907],["iniciar",-10.971998890656778],["Chi",-10.972237461776206],["succes",-10.972677373350617],["Marco",-10.972809379722204],["acusado",-10.972827318443866],["remove",-10.973835521081446],["Esa",-10.973852082012899],["revenir",-10.974313074566211],["Kim",-10.974385460071943],["uren",-10.974396537087621],["docente",-10.975379306163127],["•",-10.975448031987202],["croissance",-10.975449026855982],["consommation",-10.975456272154076],["generation",-10.975703949203876],["domicilio",-10.975770017255027],["burger",-10.976214216741472],["couleur",-10.976233974492954],["fraude",-10.976348050337622],["approve",-10.976577448918334],["texto",-10.976778973030854],["Tal",-10.977153594591293],["2025",-10.977261249902924],["approche",-10.977296243342856],["veille",-10.977492776456666],["studenten",-10.977612724748013],["herida",-10.978171823677267],["street",-10.978292066304856],["sprake",-10.978679251176352],["derecha",-10.979087341762876],["Misschie",-10.979153563003955],["Nee",-10.980311193162988],["futbolista",-10.98035808252693],["digitale",-10.980381968040566],["quatrième",-10.980498538843847],["stations",-10.98086832397989],["leider",-10.980932397374037],["bag",-10.981256945805274],["erhaps",-10.98130209582476],["actualidad",-10.981382462483674],["presentado",-10.981595060379021],["ducation",-10.981605182271748],["pantalla",-10.981999048405637],["marketing",-10.982111338594741],["enir",-10.982310447169219],["parking",-10.982385624687172],["bak",-10.982679953231516],["Nog",-10.982691475719427],["shut",-10.982711074919695],["Gar",-10.982759661635555],["fit",-10.982985299254771],["dolor",-10.983009410804087],["Bu",-10.983048661749933],["ën",-10.983087133565189],["foreign",-10.983088054387878],["trás",-10.983191835771779],["console",-10.983232706072581],["plant",-10.98329028483173],["jongeren",-10.983431656768332],["kop",-10.98361063743164],["Ley",-10.983683598667604],["courant",-10.984026209791855],["display",-10.984129973692752],["favorable",-10.984281431697024],["unit",-10.98431129198267],["Fund",-10.984848783883757],["named",-10.985069658191946],["Fire",-10.985084737656619],["Sobre",-10.985325748486378],["velocidad",-10.985574729626547],["museum",-10.985574764216182],["agencia",-10.985678948499915],["contrario",-10.985748102476048],["vitesse",-10.985778208324433],["bilan",-10.985973382588158],["poursuit",-10.986490001299153],["requiere",-10.986670894189865],["Jack",-10.986738753030933],["contraire",-10.98702263148883],["loos",-10.98724258744965],["Algérie",-10.987356073911657],["sleep",-10.988323810938965],["besluit",-10.98832791421128],["Tijden",-10.98883960922467],["ncia",-10.989043622732353],["proper",-10.989378304311856],["terreno",-10.990270589999078],["declara",-10.990519112353653],["difference",-10.990682144972604],["maatschappij",-10.990684492571656],["pronto",-10.990908281483925],["Series",-10.990944786167788],["Cristin",-10.990975931177946],["delivery",-10.991092309454423],["conclusion",-10.991230362661948],["garantizar",-10.991388301715716],["IT",-10.991536778683194],["College",-10.99157997677127],["condamné",-10.992157656744888],["groei",-10.992343370786998],["kzij",-10.992565660126676],["ferme",-10.992726007647772],["employment",-10.993437545729211],["nette",-10.994171733121124],["offrir",-10.994963534849216],["célèbre",-10.995804925115056],["dochter",-10.996057712631695],["siglo",-10.996453646100019],["explosion",-10.996542884101832],["touch",-10.996688356089093],["Ferrar",-10.996858490337802],["Staten",-10.99690878289596],["wagen",-10.99754865901555],["fondo",-10.997832069643628],["rural",-10.997879563917593],["classe",-10.998441347682617],["ête",-10.998670933396753],["leren",-10.999051091097048],["financière",-10.999889522213325],["impose",-10.999933226003055],["hall",-10.999972232773306],["progress",-10.999973099473499],["explain",-11.000341824201357],["trend",-11.000512440571562],["payer",-11.000613315963827],["kept",-11.00076652560901],["affect",-11.00090885390712],["victor",-11.000942875736238],["ving",-11.00095420931586],["quasi",-11.001139830098918],["empezar",-11.00120761446151],["boom",-11.001523968272192],["BTC",-11.001565672002041],["barre",-11.001758907314628],["recuperar",-11.001831718078861],["época",-11.002000561668678],["producten",-11.002296932045194],["guide",-11.002319045637798],["activa",-11.002915139256997],["talló",-11.003113345725435],["durée",-11.003135277595357],["subject",-11.003281135241728],["900",-11.004581502678146],["Tim",-11.004712704609577],["ultra",-11.00483538259731],["Prince",-11.005248414722361],["Brussel",-11.005515379879679],["utilizar",-11.005728670271619],["Pública",-11.0061409114432],["histórico",-11.006140943324063],["domicile",-11.006141296668762],["infraestructura",-11.006143130211953],["conferencia",-11.006193723835619],["Alexander",-11.006203792426762],["promotion",-11.006206576233302],["2007",-11.006386395311887],["Rock",-11.006891467156922],["Nou",-11.007053139433214],["Educación",-11.00706982686959],["bestaan",-11.007330162269485],["union",-11.007408503966097],["micron",-11.00838083606054],["entend",-11.009359880909678],["Parti",-11.009414453131619],["Any",-11.009421089462123],["arned",-11.009515583263351],["visitante",-11.009546848825703],["Nederlanders",-11.009783184644576],["ient",-11.009866847798477],["asistencia",-11.010070283892997],["puisqu",-11.010086281547837],["lokale",-11.010582901150627],["tendance",-11.011254845712799],["rápido",-11.011347707323669],["perspective",-11.01134924480133],["stratégie",-11.01134925347419],["passenger",-11.01137078648248],["dialogue",-11.011399001704575],["83",-11.011564269113975],["impossible",-11.01186055208212],["vital",-11.011896366156169],["franchise",-11.012031359138506],["taxe",-11.012270330069871],["Times",-11.012446858806168],["2030",-11.012475976755344],["Regional",-11.012644616167504],["ervoor",-11.012925877607753],["stade",-11.012979737184875],["eken",-11.013387879200678],["dicen",-11.013393142254298],["artikel",-11.013988800455717],["slow",-11.014262569164497],["tienda",-11.014582441806335],["kijkt",-11.014767851333902],["burn",-11.014776730688357],["potencia",-11.014980655965141],["darle",-11.015529215977384],["investigador",-11.015538293631396],["87",-11.015909371491858],["gingen",-11.016250029836545],["transfer",-11.016497533951906],["moitié",-11.016585049809198],["Partido",-11.016744601175288],["industrial",-11.016780341214787],["ás",-11.016860329371735],["salario",-11.016938533436814],["stikstof",-11.017007250808577],["ather",-11.017098888266656],["Global",-11.017290159953387],["ï",-11.017379022455419],["Philippe",-11.018076999453246],["spraak",-11.01863560327173],["liée",-11.018875500322029],["rally",-11.018989381489998],["permett",-11.019041119183344],["solicitud",-11.019098040999136],["wan",-11.019165581494525],["señalar",-11.019647477856985],["siège",-11.020247545000814],["cabinet",-11.020272959346642],["aumentar",-11.0203992937241],["Sinds",-11.020522244300064],["ideas",-11.020858198552471],["woorden",-11.020910492746923],["reconnu",-11.021068334345012],["Har",-11.021191960410658],["uitge",-11.02126897033854],["NAVO",-11.021863274296553],["esprit",-11.021922923931207],["dicha",-11.022004037253671],["recuerda",-11.02202570292048],["estima",-11.022491791742208],["zorgt",-11.022621580373961],["laisse",-11.023169644168183],["mix",-11.023346287073252],["informar",-11.023348496183617],["rates",-11.023796342915983],["laisser",-11.023913228903904],["Xi",-11.024024992726769],["bouwen",-11.024234195661494],["intent",-11.024610718975108],["Boris",-11.024637435827245],["twintig",-11.02490005124053],["conduct",-11.025122935274112],["couldn",-11.025580456803107],["born",-11.025794804137568],["94",-11.025798559842118],["spelers",-11.025891676655995],["aime",-11.025992290173534],["continent",-11.026029988521746],["introduce",-11.02609425817207],["cultuur",-11.026447545988322],["feet",-11.026869125163909],["Vincent",-11.027188321535057],["dejado",-11.027404603671478],["segment",-11.027458274055308],["ressource",-11.027471193506821],["collective",-11.027902688640175],["tafel",-11.027914896661382],["index",-11.028070492031837],["protesta",-11.028189058903667],["Dios",-11.028195688198478],["veulen",-11.028362784536906],["Ford",-11.029195698112881],["november",-11.029206807298989],["scenario",-11.0292837809591],["Boy",-11.029556633944186],["acusa",-11.029790407550998],["asunto",-11.029791648829846],["ofrecer",-11.029865456088476],["expertos",-11.03015520613165],["coraz",-11.03030326523406],["crew",-11.03033863742527],["spoke",-11.030434321511347],["évolution",-11.030657112953955],["previa",-11.030660387559685],["ble",-11.0307143223383],["facility",-11.030860170056263],["derrota",-11.030962716131777],["poca",-11.031962495638314],["reed",-11.03236068730875],["surance",-11.032425525095654],["búsqueda",-11.032465078536877],["horario",-11.032529294460021],["obliga",-11.03288131418963],["cal",-11.032945483815862],["melding",-11.03304545275148],["dak",-11.03305743296887],["92",-11.033119560966862],["fiscale",-11.033189119333212],["seguirá",-11.03329773471956],["lisi",-11.033352997983673],["fell",-11.033448989960766],["larga",-11.033757894574737],["dog",-11.034094676738386],["yester",-11.034911656480368],["draaien",-11.035569513171398],["Rotterdam",-11.035905745328527],["esposa",-11.036195410649455],["contenu",-11.036355440480605],["bloque",-11.036741764595531],["wall",-11.037211364833597],["dividend",-11.03762319342321],["reporte",-11.037690899354654],["Mali",-11.037706436727849],["Sénégal",-11.037717317234721],["Assemblée",-11.037807460683172],["verlies",-11.037852728832894],["finding",-11.037856479208028],["afectada",-11.038090213495288],["pide",-11.038101916710064],["concluy",-11.038407583088489],["ww",-11.0388506015349],["quiero",-11.03904125398824],["Hamil",-11.039159557645853],["Han",-11.039174040423454],["mont",-11.039331389388476],["constant",-11.039356436969815],["hauteur",-11.03950378839484],["Island",-11.039758146481969],["consecuencia",-11.040238483456587],["Bre",-11.040668057819232],["Marcel",-11.04075487005786],["tank",-11.04115134261932],["YouTube",-11.04133505352193],["solu",-11.04134167906184],["bu",-11.041736816114435],["keren",-11.041913873437519],["rode",-11.041925383281818],["arrest",-11.042723627481578],["welcome",-11.04274721602075],["travailleur",-11.043118844711937],["límite",-11.0431831424479],["síntoma",-11.043188372855122],["obvious",-11.043205875319074],["voorlopig",-11.043217009708812],["troupe",-11.043247646277873],["Board",-11.043290766297481],["Marvel",-11.043753528219966],["Olivier",-11.04401003249361],["identifie",-11.044099427370298],["arriver",-11.04414392396279],["gathering",-11.044237273406589],["Verder",-11.044272914491437],["majorit",-11.04497921168505],["dijer",-11.045348534999164],["namen",-11.045792486995843],["devra",-11.046071802864489],["enregistré",-11.046615851381846],["vivo",-11.046710216867268],["lejo",-11.047527720526512],["habitantes",-11.047673177058634],["siente",-11.047754274567724],["pone",-11.047843517406204],["insiste",-11.048516249290007],["holiday",-11.04858800458411],["instruction",-11.048602236551197],["Parlement",-11.048617963248638],["inició",-11.048631254179368],["comentario",-11.048665902135706],["tennis",-11.048671052536001],["Noël",-11.048691150482917],["détail",-11.0487006239933],["acceder",-11.049166135560103],["droga",-11.049211746422916],["tacó",-11.04938602141079],["claime",-11.049556724568651],["treat",-11.050266822979186],["ambas",-11.050452792817744],["noemen",-11.051475147911876],["write",-11.051686385519963],["zeven",-11.051695348779186],["vacunación",-11.051862784749474],["ées",-11.05221647296332],["ira",-11.052371443856623],["tengan",-11.052372769792782],["sales",-11.053430675127448],["conseiller",-11.053576254722373],["purpose",-11.053809550614268],["Com",-11.053856830015782],["kwaliteit",-11.053879401763574],["peace",-11.053913712014598],["madrugada",-11.0540222869509],["nomination",-11.054056327861941],["morgen",-11.054073877412446],["trasladado",-11.054195024641487],["subray",-11.054397635903719],["ús",-11.054469387711919],["guard",-11.054504053582198],["amour",-11.054761005559602],["portavo",-11.054841579398378],["financement",-11.055401141870979],["haute",-11.05552117038587],["áreas",-11.055536085920092],["Trois",-11.055845729610677],["reopen",-11.056052000670896],["attendu",-11.056337887664068],["pregunta",-11.057294796077695],["Bon",-11.057617999329734],["alert",-11.057668695087928],["posterior",-11.057729114622447],["05",-11.05785070575838],["permanent",-11.058099135175668],["placé",-11.05850246537452],["Président",-11.058810273347603],["imagine",-11.058843452080602],["quitter",-11.058891049618989],["geldt",-11.059153308693375],["retraite",-11.059196441692784],["resolu",-11.059218770034487],["opvang",-11.059324625157448],["voertuig",-11.059402750781985],["participante",-11.059455704179232],["scientifique",-11.059486765552645],["lichaam",-11.059488354032847],["tentative",-11.059490743857262],["évidem",-11.059507999132553],["privada",-11.059508213738155],["classique",-11.059524160872824],["competition",-11.059525811187031],["aquella",-11.059588374567948],["financië",-11.059597511192024],["miedo",-11.05969170760875],["dénonce",-11.059844939813544],["catégorie",-11.060114165943885],["nood",-11.0606065925523],["geraakt",-11.060880746393167],["reconocimiento",-11.06109788909394],["nouvel",-11.061114047454005],["fout",-11.061827062177317],["burgemeester",-11.062058403546903],["verwachting",-11.062100354852127],["Why",-11.062240801410347],["peligro",-11.062269653853575],["vienne",-11.062446514984495],["mez",-11.06248031397283],["robo",-11.063147817853663],["plicación",-11.063183274663384],["turno",-11.063706137713897],["bericht",-11.064032523656241],["utiliza",-11.064035360182228],["passion",-11.064094824211331],["clean",-11.064148192566396],["geschiedenis",-11.064405553969769],["joint",-11.064438880108604],["accept",-11.06453303877839],["obtenu",-11.064719373694036],["export",-11.064745770905905],["impression",-11.06485372927332],["aard",-11.064883739248458],["Grupo",-11.064990812870976],["téléphone",-11.065008931313926],["establecimiento",-11.065009491819449],["réduir",-11.065046040350772],["kozen",-11.065423294457176],["respeto",-11.065657923096257],["prepara",-11.066060160893855],["verandering",-11.066078883262389],["revanch",-11.066239866779366],["NBA",-11.066353134315769],["hurt",-11.066469918153395],["truck",-11.067207837389066],["ciclo",-11.06772084051804],["pens",-11.06879793445613],["upon",-11.068887704006396],["mando",-11.069081266553766],["appelle",-11.069143042383079],["tip",-11.069181798777583],["engagé",-11.069200626041429],["krege",-11.069473113139816],["forcé",-11.069576643984618],["organisé",-11.069644903461455],["lien",-11.070142154852755],["hearing",-11.07017404667856],["sloot",-11.07023725790574],["suelo",-11.070278637874946],["minimum",-11.070506475984436],["speech",-11.07050709058485],["tomó",-11.070613073747328],["Press",-11.07095506050441],["putting",-11.071078264409628],["Like",-11.0711117945017],["loan",-11.071394197631301],["feit",-11.071497771597844],["straight",-11.071874767809428],["revient",-11.071991597312008],["insist",-11.072140112428649],["île",-11.072301649451514],["terminé",-11.072352193678594],["subir",-11.072499949402484],["tekort",-11.072648879765916],["bol",-11.073420580890222],["owner",-11.07345379295176],["sister",-11.073598367571204],["diverso",-11.074901854617664],["univers",-11.075229924917494],["menace",-11.075250245105536],["Solo",-11.075307808951564],["Nicol",-11.075339073809225],["usage",-11.075429742184092],["penal",-11.075581639478525],["cay",-11.075712199719598],["ended",-11.075762073108013],["toernooi",-11.076015277594657],["migrant",-11.076048765202238],["grève",-11.076131848912043],["prévenu",-11.076205560539432],["compañeros",-11.076230606806892],["verkeer",-11.076349719939854],["daarvan",-11.076492081935125],["tegenover",-11.076795857643855],["advies",-11.076821005956434],["réaction",-11.076873384842933],["Jackson",-11.077296943588703],["quiera",-11.077358528657875],["degree",-11.0773802629038],["device",-11.077671805682094],["comis",-11.078005827328589],["servir",-11.078068867180884],["producer",-11.07821736940453],["bestuur",-11.079389448014366],["iste",-11.079502789082476],["gener",-11.079780388600891],["bang",-11.079902786309766],["terroriste",-11.08018818459156],["rá",-11.080857449413593],["adulto",-11.08102712245165],["précédent",-11.081044258444],["declare",-11.081079394445142],["animale",-11.081208731420375],["ië",-11.08137687873538],["volunteer",-11.081648320816974],["procédure",-11.081649226672699],["WhatsApp",-11.081651228638492],["delantero",-11.081684460591461],["moto",-11.08184078113386],["militant",-11.081903903306477],["calls",-11.08239470925387],["society",-11.082961748162779],["jug",-11.08297984205765],["intentar",-11.083272333396337],["champ",-11.083439929575036],["Asocia",-11.08385990896085],["oins",-11.08438843543663],["dragen",-11.084468837898424],["veiligheid",-11.084542270403954],["mill",-11.08460493961214],["ndroid",-11.084607835040277],["Hug",-11.084666741746751],["audiencia",-11.084698886287882],["Quant",-11.08476613220011],["volgend",-11.084907494545682],["file",-11.08529896685255],["1990",-11.085913395868968],["fresh",-11.085996539645233],["tri",-11.08625840441191],["Ba",-11.087250196594837],["lumière",-11.087273485298267],["Hollywood",-11.087294659080818],["stap",-11.087539064061652],["threaten",-11.088043081348685],["advance",-11.088154373351301],["amid",-11.088178866999627],["democracia",-11.088261312934211],["middle",-11.088269743664913],["roepen",-11.088300743134656],["especialista",-11.088447664023734],["classement",-11.088622658662814],["diversa",-11.088721971353774],["nacionales",-11.089103573749126],["matche",-11.08928131454574],["overigen",-11.089529463870132],["Cada",-11.089962003246185],["crash",-11.090420151822745],["Up",-11.090512019146981],["directo",-11.09082672543526],["geschr",-11.09108198378592],["asegurar",-11.091102282024217],["cerrar",-11.091170618707126],["Free",-11.0913042538829],["scherm",-11.091750882502236],["officiel",-11.091874800628178],["Hall",-11.092060211200721],["vaste",-11.092172152350118],["costo",-11.09251125469138],["arrière",-11.092590121309318],["titel",-11.09272968302349],["Top",-11.092789005025978],["Business",-11.092923014925727],["Toronto",-11.092957060100936],["dream",-11.0929818563337],["esperanza",-11.093057347047326],["Governor",-11.093141054099371],["weight",-11.093211688031076],["chambre",-11.093237772312563],["escolar",-11.09337054431938],["alumno",-11.09343341188983],["operate",-11.093814168244998],["tough",-11.093900390163864],["tendría",-11.093950053871549],["struggle",-11.0940008216061],["rio",-11.094092132770108],["Mensen",-11.094359374441808],["zoon",-11.094410529118631],["gesteld",-11.09456206712813],["weather",-11.094591052095137],["fondos",-11.094655429496559],["tourism",-11.094675843555759],["oui",-11.095077982561026],["modern",-11.095142254614743],["vrienden",-11.09527390987531],["Wi",-11.095382543520142],["incredibl",-11.095465291425016],["abri",-11.095602899756873],["schuld",-11.09571295580529],["laag",-11.095789960325162],["returne",-11.095911537668616],["mejora",-11.096697790483145],["caus",-11.09682055288141],["leiden",-11.098175163367667],["Committee",-11.098597794125027],["Internet",-11.09860497273114],["circulation",-11.09865194652982],["afternoon",-11.098760620435545],["contribution",-11.098866447336654],["toll",-11.099060088906757],["hop",-11.099153055041114],["onderzoeker",-11.099186809402308],["Cet",-11.099362776524831],["Lewis",-11.09945878188459],["lastig",-11.099627278694427],["estilo",-11.09966451011255],["atender",-11.099888653946632],["wave",-11.10024357071654],["sneller",-11.100349553914647],["goles",-11.100368418057098],["hôtel",-11.100849651504697],["desarrollar",-11.101087185590716],["committee",-11.101620455004712],["envie",-11.101656027497587],["Castillo",-11.10173499702609],["especie",-11.10183289051583],["sujeto",-11.102115659404788],["connaîtr",-11.102582547009574],["poi",-11.102604418336277],["burgers",-11.102943300480622],["justo",-11.102996419976165],["clubs",-11.103402573831723],["Oost",-11.103419888003387],["recorde",-11.10342395361911],["exercice",-11.104312086525095],["Desarrollo",-11.104312105436316],["Rome",-11.104353598279127],["destination",-11.104382459060595],["sluiten",-11.10457348764515],["april",-11.10465245738628],["dagelijks",-11.1048846966379],["capture",-11.105237505582714],["Guardia",-11.105681953244849],["informado",-11.106258672633137],["jóv",-11.106881243749912],["Bal",-11.106951379767658],["93",-11.107206839983515],["norma",-11.107827983061075],["transmis",-11.107983565022096],["roll",-11.108147320034416],["leeftijd",-11.10855113365891],["Antwerpen",-11.108661066433655],["Long",-11.108879136635021],["exception",-11.109379202711345],["relation",-11.109589847635478],["período",-11.11005922214435],["Ku",-11.110247566897336],["coalition",-11.110438942897407],["publishe",-11.110483461883128],["flu",-11.110887561908335],["speelde",-11.111078450255956],["duur",-11.111798135945207],["fruit",-11.11208459294878],["flow",-11.112160146316098],["agression",-11.112283787489272],["wise",-11.112369790248577],["hair",-11.112502053235993],["makkelijk",-11.11270616414141],["dispose",-11.11275940145677],["institucion",-11.112798586031179],["chiffre",-11.113454394198302],["precisa",-11.113502429439091],["lettre",-11.113695318495086],["waarvan",-11.113834777456635],["kaart",-11.113963253276427],["evening",-11.114688741040375],["existen",-11.115500368364993],["reveal",-11.11562137753717],["abrir",-11.115718947107949],["Secretar",-11.115838718765973],["ucraniana",-11.115840545992093],["europeo",-11.115840855029962],["samenwerking",-11.115859648212055],["Occident",-11.1158978573131],["FIFA",-11.115917737455955],["habitude",-11.115925134100328],["Derecho",-11.115945477774378],["praten",-11.116062786080423],["previsto",-11.116104532276934],["relief",-11.116534503162024],["domestic",-11.11668440787123],["gevraagd",-11.11674034765132],["pol",-11.117039289401294],["focuse",-11.117366756911153],["Direc",-11.117571592759802],["profesor",-11.118879956980344],["mention",-11.119070240995145],["gehaald",-11.119293471004235],["Water",-11.11943045181599],["maxima",-11.119663475170512],["resume",-11.119698315546792],["seguidor",-11.119888043921279],["aproximada",-11.12012816022883],["publication",-11.120197880487321],["Affaire",-11.120318963132142],["Love",-11.120406071193958],["pair",-11.120640202614656],["bois",-11.120961311063368],["outil",-11.121273239047987],["Está",-11.121648253039286],["connection",-11.121651159389565],["eléctrica",-11.121651539304402],["ámbito",-11.1216535114316],["plaisir",-11.121653999209215],["adversaire",-11.121655669370128],["procureur",-11.12171779880679],["extranjero",-11.121729885882916],["lawyer",-11.121741570521282],["aanval",-11.12200951426783],["destaca",-11.122247653325406],["Control",-11.122262900960699],["distancia",-11.122350689642237],["organisme",-11.122360539892304],["matériel",-11.122787327087032],["Hong",-11.122919030985852],["committe",-11.123034495306591],["CBS",-11.123083983899082],["prévoi",-11.12308936045434],["citie",-11.123466404387692],["Kevi",-11.123481328454503],["emps",-11.123642382830052],["roman",-11.12391046292824],["Ro",-11.124198028651648],["traditional",-11.124936561979013],["extend",-11.125424095788247],["voisin",-11.12564240422612],["adult",-11.12578984968239],["plante",-11.125845965839098],["aplica",-11.126135881220083],["lie",-11.126401398763925],["concierto",-11.126450465519538],["esión",-11.12669462204768],["cell",-11.126729089215663],["negro",-11.126825427897664],["definite",-11.127411494754533],["faveur",-11.127502217771603],["signature",-11.127506913805332],["Palacio",-11.127509579016195],["gehoude",-11.127565119257893],["positif",-11.127608899141023],["vaccination",-11.127721355476503],["complètement",-11.128207370196684],["bra",-11.128499202517755],["accueillir",-11.128506478152088],["warne",-11.128560982015095],["contribu",-11.128564539969638],["fallecido",-11.129348731613426],["rights",-11.129500232587569],["liga",-11.129504157532942],["escuchar",-11.129851497042988],["Creo",-11.130166575264724],["Beau",-11.131106663838075],["Unie",-11.13117773363929],["Plata",-11.13124460506462],["destacar",-11.131542384539621],["firmado",-11.132018895576671],["ervaring",-11.13202935183236],["Sol",-11.132128024516394],["trabajos",-11.13233375704295],["blanco",-11.132490891019838],["Brun",-11.132494875371316],["Jé",-11.132748165052053],["entender",-11.13277744196472],["frappe",-11.132841337741016],["olympique",-11.1333838147461],["kwartaal",-11.13341860681454],["futur",-11.133601607033821],["tramo",-11.133771053693973],["cancel",-11.133803386944841],["protéger",-11.133835914171437],["Valley",-11.133838178781374],["Afghan",-11.134102630259122],["sorti",-11.134221350662045],["créé",-11.134278322607242],["abuse",-11.134929182366381],["assurance",-11.135202070687633],["5G",-11.135725915014003],["lesquel",-11.135813067437248],["entendu",-11.135950211466978],["alza",-11.136169178576422],["chico",-11.136301922762673],["Jong",-11.136412693529103],["montrer",-11.136665384759738],["helpe",-11.13668433019891],["GB",-11.136853004555007],["december",-11.137691774936886],["apertura",-11.137739565949843],["actif",-11.13800589283579],["passant",-11.138306057982463],["immers",-11.138468925504167],["beneficios",-11.138555324210415],["canal",-11.138808766609966],["Local",-11.139166044685616],["procedure",-11.139309149164978],["hubiera",-11.139313234434228],["Boston",-11.139370575407685],["rendimiento",-11.13945110050349],["demander",-11.139493359195374],["Hernández",-11.139628270463614],["recorrido",-11.139642954392187],["disposition",-11.139698683310858],["woon",-11.139842632845392],["confirmar",-11.140605267386235],["Laurent",-11.140809451265213],["consumidor",-11.141014672098581],["Australian",-11.141044365309945],["urió",-11.141196167401937],["intento",-11.142181397111747],["poursuivi",-11.142325177148647],["Was",-11.142550768045695],["crédito",-11.142684270775758],["discus",-11.142973828588701],["vait",-11.143361125309994],["réaliser",-11.143428000762416],["accessible",-11.143524197376042],["survive",-11.143750785279638],["alerta",-11.144244660657703],["stream",-11.144323132072369],["entendre",-11.144479713197377],["piloto",-11.144603863940201],["ideal",-11.14461937878401],["Pat",-11.144695713932862],["cible",-11.144852045447553],["corto",-11.145029422048665],["température",-11.145253538591117],["French",-11.145263205605403],["lanzamiento",-11.145280011780892],["looks",-11.145445634596697],["corruption",-11.145710492152721],["pieza",-11.145950852110424],["Ryan",-11.145995996559185],["perdido",-11.146336116735053],["actrice",-11.146529875778825],["tuin",-11.14676355522193],["ilegal",-11.146907751791828],["straf",-11.14725754464903],["blanc",-11.147306256934732],["migrante",-11.147489830356513],["deportivo",-11.147765324927025],["Delh",-11.148055473571139],["sche",-11.14823258762412],["afirma",-11.148344774892877],["decide",-11.148509063254494],["Mexic",-11.14877545002626],["voulo",-11.148961606231083],["debt",-11.149383064306456],["Utrecht",-11.14944180910107],["parquet",-11.149464377355645],["pedir",-11.149735667622215],["Russe",-11.150088445248077],["observe",-11.150295341520591],["elling",-11.150362938626072],["hou",-11.150404744387508],["semi",-11.15109848532748],["BA",-11.151123522614014],["réfugié",-11.151241377163569],["honneur",-11.151241435902303],["porcentaje",-11.151241674849055],["característica",-11.151242656974773],["ciudadanía",-11.151243466374037],["Taylor",-11.151254814994182],["utilisation",-11.151277594895149],["magasin",-11.151310065440269],["Nov",-11.151554778182451],["gewon",-11.151574561802773],["querido",-11.15161306906175],["Both",-11.151838396604075],["intelligence",-11.151914886543931],["Javier",-11.152012890727224],["wing",-11.152126862913528],["extérieur",-11.152155841718823],["vert",-11.15232944476434],["sick",-11.152358961634512],["ependant",-11.152378034968631],["travaille",-11.153240229489633],["please",-11.153240229708654],["directora",-11.153275481963188],["complexe",-11.153389953133665],["Also",-11.15375215591861],["ajouter",-11.15375903329582],["listen",-11.153945989910083],["expand",-11.154061244731071],["tonne",-11.154384407165761],["pilote",-11.154541667718908],["Genè",-11.154674576788782],["activos",-11.15477572483409],["pack",-11.15482495244782],["larges",-11.155144949864201],["perro",-11.155173353994808],["exterior",-11.155278499842682],["estudios",-11.155295343762159],["Bovend",-11.155368110064703],["revel",-11.156078680637354],["manche",-11.156444076670043],["ium",-11.156699607465939],["pelea",-11.156739443142929],["valore",-11.156966374921995],["razon",-11.15696657141404],["Unido",-11.157007615430222],["responsibilit",-11.157265473620523],["Chelsea",-11.157265904392213],["veilig",-11.157670756583258],["murder",-11.157699875885031],["august",-11.157849735508425],["cierta",-11.15790111803757],["sanctie",-11.158080267401104],["pendiente",-11.158336701610029],["vacance",-11.158630389440436],["dependencia",-11.158631929700322],["bande",-11.158747753301181],["solucione",-11.1591471336484],["sky",-11.15915749995413],["verleden",-11.159264597216373],["présenter",-11.159447737825712],["130",-11.159549600052362],["getroffen",-11.159751395958812],["Actual",-11.159823822587438],["chang",-11.160183761222882],["turismo",-11.160938970553026],["Sony",-11.16097182064863],["Tweede",-11.161260662819355],["verkoop",-11.16184390295949],["ciudade",-11.162182663257575],["ocupa",-11.162223142588822],["fini",-11.162423033581561],["Público",-11.16332607961086],["doubt",-11.163327269580218],["pandemie",-11.163334327021218],["shift",-11.163334350767643],["transmission",-11.16340172456191],["permit",-11.163586539227776],["green",-11.163734787018882],["agricultur",-11.163913224873859],["relacionado",-11.164002369244201],["Other",-11.164033838071967],["viento",-11.164638787430999],["kunst",-11.164683522843792],["médicos",-11.164833622264885],["offere",-11.164834344856658],["destacado",-11.164844729286798],["Mat",-11.164886623464788],["actri",-11.165027836408434],["NN",-11.165039685318341],["belangrijkst",-11.165616451530537],["bringing",-11.165793824000847],["Fi",-11.165821502866287],["plekke",-11.166230278630549],["Rac",-11.166763213872784],["dieren",-11.166900946342022],["Korea",-11.167156024270968],["Asia",-11.16724702686257],["proposé",-11.167516271398153],["aban",-11.167531264203747],["podcast",-11.167959898495724],["governor",-11.168534347357825],["journal",-11.168730539358652],["référence",-11.168731975001517],["Steve",-11.168739514108886],["rythme",-11.169465863298024],["showing",-11.16951460454958],["Wall",-11.169897191418762],["señalado",-11.170429073786192],["overleden",-11.170443511145928],["tijdelijk",-11.17049563612497],["provider",-11.170648299430813],["Ou",-11.170742377950816],["Lueg",-11.17091037580404],["chargé",-11.171452838944713],["bras",-11.171578419694491],["dando",-11.172463498540106],["Officer",-11.172485069814947],["Sept",-11.172876793967625],["ibilidad",-11.172943316932248],["bewust",-11.173043846481399],["commencer",-11.173542555512913],["experiment",-11.17400399598772],["vertelle",-11.174093314763315],["Onze",-11.174239109467074],["carta",-11.174567046616394],["interese",-11.174613868570122],["régimen",-11.175087046683915],["koop",-11.17509970443965],["sprong",-11.175217597236514],["owie",-11.17550914599872],["traitement",-11.175800080207368],["Tech",-11.176174259164174],["plat",-11.17626684322541],["ément",-11.176419255856153],["Space",-11.176475280685619],["calor",-11.176511047853815],["erreur",-11.176657957746755],["discuss",-11.177002048879363],["blessé",-11.17747253183655],["hous",-11.177499563484256],["maker",-11.17755443833157],["master",-11.177840754744519],["superar",-11.178330537615125],["gelukkig",-11.178356040213615],["defeat",-11.17849147987674],["invasi",-11.179002791481942],["presidenta",-11.180280162799862],["wouldn",-11.180548170875063],["vliegtuig",-11.180728060263899],["policie",-11.180848963178924],["dés",-11.180883870537553],["feest",-11.180979777614906],["CD",-11.181075611399699],["implemente",-11.181082408803821],["gardien",-11.181522014909767],["surveillance",-11.181731450054128],["procedimiento",-11.181748253473831],["blessés",-11.181808326319354],["presunto",-11.18228516817626],["chute",-11.182402942540968],["verkopen",-11.182515052443904],["précédente",-11.182673471418859],["esperan",-11.182884373635828],["immédiate",-11.182930357678474],["Nick",-11.183189203732796],["01",-11.183199220849309],["eyes",-11.18395635233209],["climat",-11.18398759340499],["kick",-11.184517904654546],["stijgen",-11.185242356669143],["joue",-11.185494181987782],["Gov",-11.18550592910341],["midden",-11.18610216065512],["joine",-11.18617682043247],["faible",-11.187753359193263],["torno",-11.187766260397709],["laissé",-11.187778733809552],["fotografía",-11.187942963215093],["samenleving",-11.187942980648451],["exploitation",-11.188022558128303],["thème",-11.188044819230502],["colectivo",-11.188074182854496],["durable",-11.188263237697553],["vermogen",-11.188508106284697],["vais",-11.188509338559008],["Fed",-11.188627141386426],["intense",-11.188658407614497],["suministro",-11.188787879601552],["yourself",-11.18945883363741],["Harris",-11.189566170327923],["wish",-11.189871134563656],["dur",-11.189875874027717],["verlor",-11.190371301979166],["tenté",-11.19038626632155],["Rica",-11.190398346613321],["actief",-11.190733795681753],["slachtoffers",-11.190966406698623],["amis",-11.191028064026002],["gezin",-11.191173498144488],["deporte",-11.191431789643776],["mine",-11.191911251260297],["aquel",-11.192241408435919],["luxe",-11.192794880295295],["sensible",-11.192923836623816],["frais",-11.192980678284119],["issent",-11.193316702243477],["amp",-11.193339763564435],["enter",-11.193431711185703],["interna",-11.193772618347696],["*",-11.194149026523844],["comienza",-11.194192659496064],["salarié",-11.194194260920955],["Nuevo",-11.194199917269888],["beslissing",-11.194200327822779],["incluido",-11.19421054464105],["parlementaire",-11.194245866810629],["Coronavirus",-11.194272375486456],["associate",-11.194296824389227],["inmediata",-11.194380201803437],["household",-11.194451520374603],["Departamento",-11.194817257164988],["Matt",-11.194969437181982],["escena",-11.195021396615772],["kijk",-11.195292350497906],["ties",-11.195307940738427],["ticket",-11.195402030696492],["ores",-11.19556300744928],["université",-11.195673418394701],["beneficio",-11.195906372552848],["mener",-11.196074194963309],["llevado",-11.196093407380836],["protagonista",-11.196535950682149],["homes",-11.196553102624687],["installer",-11.196856585071435],["protester",-11.196892595209935],["celebrar",-11.196892996649437],["asil",-11.197398709869068],["vino",-11.197773274875964],["Best",-11.198470572113084],["acerca",-11.19851188131057],["Porque",-11.198823463948997],["expression",-11.19894312754317],["parlement",-11.198979581893852],["permettra",-11.19902546527752],["farm",-11.199388215191604],["gold",-11.199744765952676],["telling",-11.199968076689686],["middel",-11.200083698810893],["bier",-11.200130968703881],["Constitu",-11.200411813001022],["démocratie",-11.200481937814722],["homicidio",-11.200481938112798],["floor",-11.200534980403141],["Company",-11.200654687564533],["déplacement",-11.20066939491445],["viral",-11.200904180945269],["professeur",-11.2024243401912],["killing",-11.203113838459444],["tro",-11.203280475971237],["conocida",-11.203431195703999],["cool",-11.2037073277077],["défaite",-11.203767567073145],["arts",-11.203997309479748],["dará",-11.204049925237534],["wijzen",-11.204309851427702],["actuar",-11.204623709711932],["Albert",-11.204709038947664],["drivin",-11.204806586649884],["voelen",-11.204875348700142],["correct",-11.204979145659163],["remis",-11.205098410300748],["accueil",-11.205113831236522],["Mary",-11.205171780514888],["looke",-11.205229302557079],["Cap",-11.205708838277431],["surge",-11.20575996061865],["comparti",-11.2058291556157],["telefoon",-11.206536750184544],["secure",-11.20668647512279],["akkoord",-11.206809871549098],["espectáculo",-11.206811051759011],["alternativa",-11.20681515495356],["suerte",-11.20682880679292],["vídeo",-11.20685582380048],["identidad",-11.206919993629704],["instancia",-11.20699262831804],["Finland",-11.207001430519544],["apuesta",-11.207199697333763],["améliorer",-11.207217161944424],["anunciado",-11.207270494192127],["Mil",-11.207408411840174],["incidente",-11.20760724555295],["zi",-11.207631278128739],["Mosc",-11.207806854210293],["exposition",-11.207982397993106],["estaría",-11.208623712344671],["apunt",-11.208764608912531],["corrup",-11.208870294028205],["thank",-11.208873253250855],["kar",-11.208955046267679],["carbon",-11.209087165085103],["formal",-11.209848171723227],["cycle",-11.210102079272819],["aware",-11.210382460200965],["contagios",-11.210586957559048],["defender",-11.211525427889988],["350",-11.211571301012125],["Italia",-11.211642076090357],["suisse",-11.211706724241708],["avenida",-11.211839037502518],["compartir",-11.211944017802022],["indicate",-11.211956592396607],["AI",-11.212643248697436],["relevant",-11.212718122076335],["comienzo",-11.21318062851546],["respectiva",-11.213183593212243],["pétrole",-11.213185385427192],["Canadian",-11.213185669079575],["Alguno",-11.213193274169871],["convocatoria",-11.213203297092182],["Ecuador",-11.213213229789975],["ritmo",-11.213222699508243],["Espagn",-11.21322754127634],["raakte",-11.213227876658658],["violation",-11.213342392744163],["begonnen",-11.21340863856486],["Ken",-11.213445361896003],["fui",-11.213747134129962],["Virginia",-11.213785489684213],["stick",-11.214119804945641],["aéroport",-11.214127813555589],["lancement",-11.21466744933084],["hogar",-11.214678583618024],["writing",-11.214824328000692],["Hé",-11.214940344286255],["independent",-11.214961480995434],["plastic",-11.21500294851408],["independiente",-11.215352366074281],["volgt",-11.215644239093546],["snap",-11.21564477028389],["permitirá",-11.216383257649877],["FA",-11.216757877138487],["divers",-11.216832140488076],["Université",-11.216891044217602],["Jordan",-11.217190612555747],["apoyar",-11.217431056923832],["socio",-11.217762993288677],["pain",-11.218035319264747],["avanzar",-11.218057822670202],["implica",-11.218099144244459],["Nederlander",-11.218692170244879],["invloed",-11.21880976385356],["légère",-11.219594559252196],["thinking",-11.21961535837292],["récord",-11.219620242710407],["públicos",-11.219766692536368],["gezicht",-11.219798685827111],["múltiple",-11.219882147239193],["inicial",-11.219899357908464],["isolation",-11.21992745047218],["angst",-11.21993907579266],["generatie",-11.219986429645566],["rug",-11.220074402280211],["stil",-11.220288780429978],["strict",-11.220388413269244],["FB",-11.220938502183712],["piso",-11.220941906520032],["leiding",-11.221401455071117],["condi",-11.221900745784605],["militare",-11.221907537934499],["tegenwoordig",-11.221951995433479],["element",-11.221988076959015],["broken",-11.222170361257854],["CO2",-11.222184183123836],["Prix",-11.222319242611308],["Servicio",-11.22242991684529],["krant",-11.222517348856481],["arrêter",-11.222697846924937],["regreso",-11.222875927158533],["PM",-11.222897136563219],["develope",-11.223191924804553],["omzet",-11.22321681452755],["logrado",-11.22335351718363],["Bob",-11.223578080849236],["arbre",-11.22362021495977],["puisse",-11.223663289926282],["Guinée",-11.224053925887372],["Sub",-11.224333485592446],["plena",-11.224366681907245],["anteriores",-11.224924042895172],["?\"",-11.225323323610635],["ambition",-11.225495687069124],["trap",-11.225645768031667],["strateg",-11.225739335679396],["ONG",-11.225760642435853],["beschikbaar",-11.225965066459603],["Uruguay",-11.226042574968593],["language",-11.226044810942122],["ultimate",-11.22613961976467],["subida",-11.226524267033678],["videos",-11.228030884265285],["heet",-11.228047908209371],["verdacht",-11.228050092717538],["Morena",-11.22821059348112],["poursuivr",-11.228472990476725],["extension",-11.228592913687454],["kennis",-11.229025599802485],["III",-11.229116583288953],["promis",-11.229366508597646],["effectué",-11.229393268737018],["patiënten",-11.22976828300667],["jeugd",-11.229817565179797],["apply",-11.229869099817533],["setting",-11.230254408806882],["tradicional",-11.23058761956522],["performances",-11.231100281785118],["contest",-11.231169420242825],["kamp",-11.231471919203486],["Nicolas",-11.231702301426957],["north",-11.23178654308202],["bloed",-11.232180026514463],["Otra",-11.232274363493094],["allerle",-11.232505063043924],["différence",-11.232541052618021],["phénomène",-11.23254287206803],["réduction",-11.232547050875533],["sorpresa",-11.232547632104081],["asesinato",-11.232552143962272],["souhait",-11.232558084438582],["freedom",-11.23259175519867],["vivi",-11.23260173802949],["hommage",-11.232605201375193],["Federación",-11.2326668403242],["survey",-11.232803926121289],["Aucun",-11.232830086401702],["pus",-11.232869393825112],["augmenté",-11.23287080745483],["Reino",-11.233126022020048],["snelheid",-11.23313644032589],["CDC",-11.233550731438521],["proteger",-11.234157022775985],["eeuw",-11.234210158794044],["abandon",-11.23450950825205],["Aug",-11.235074729106472],["Brita",-11.235639061743555],["immense",-11.235924006169522],["bewoners",-11.236036743024192],["ouvrir",-11.236209709180748],["alerte",-11.236326700152652],["Europea",-11.23694430486474],["locate",-11.23702631305204],["construir",-11.237639597243005],["merk",-11.237682580666693],["rait",-11.237836969971056],["ondank",-11.238046115969192],["vrije",-11.238367807242525],["vroeger",-11.238425160633401],["Art",-11.238612196588031],["dark",-11.238616570399014],["duro",-11.238774146478445],["responsibl",-11.238907434517808],["carburant",-11.239038172850382],["resolver",-11.239067839017277],["réalisateur",-11.23909665117346],["Georgia",-11.239099782683073],["directrice",-11.239127260635518],["sier",-11.2392450627869],["Eerder",-11.239416277605777],["TP",-11.239607084854349],["Power",-11.23966011394809],["pleno",-11.239682528363085],["voulu",-11.239707929436218],["clasifica",-11.239732324879006],["maak",-11.2399606513329],["Isabel",-11.23998789856723],["approximate",-11.240263732397214],["firme",-11.240382205919481],["Djoko",-11.240614454591872],["weapon",-11.240706334451586],["cia",-11.240709008637896],["Ex",-11.240740746383295],["mené",-11.240748911486307],["delay",-11.240909956093898],["entière",-11.241252309248392],["Beach",-11.241513964745215],["asielzoekers",-11.24160241566727],["intendo",-11.24202312766949],["merken",-11.242353435344404],["wapens",-11.242522239898985],["revis",-11.243019077000302],["eigenaar",-11.243135087189167],["smart",-11.243614865266021],["burg",-11.24377362513466],["fuente",-11.243797454630284],["Allema",-11.244084377142109],["gate",-11.244422293701241],["provoc",-11.244646904361161],["gebeurde",-11.24470448148244],["sang",-11.24495422991157],["wapen",-11.245157194715977],["severe",-11.245192664476406],["potencial",-11.24541983840329],["demasiado",-11.245650759337087],["Vlaanderen",-11.245655946436905],["histórica",-11.245691754937882],["prevé",-11.245840108888887],["Joseph",-11.245842089522354],["Naast",-11.245853802865781],["Year",-11.245869799427444],["efficace",-11.245883501015577],["pit",-11.246032069253188],["Claude",-11.246051307345084],["trouwens",-11.24605326879067],["flood",-11.246066988779358],["rueda",-11.24653382957099],["verklaring",-11.246561393963926],["statut",-11.246775084239594],["financiero",-11.247061740135255],["circula",-11.247573589032426],["déficit",-11.248502827968576],["ington",-11.248654140224424],["odido",-11.24878909976951],["regione",-11.248814696500357],["Institute",-11.249029688820816],["yards",-11.249127980267968],["exercise",-11.249284840332304],["package",-11.250207315302088],["menu",-11.250343100740025],["divis",-11.250375883555021],["fijn",-11.25049350192546],["pluie",-11.250498505680468],["2003",-11.250983286197144],["Bou",-11.25108941879838],["Álvar",-11.251398809426838],["cielo",-11.251838349276207],["Plaz",-11.251942019737854],["older",-11.251984679345723],["youth",-11.252006794756563],["spectateur",-11.252273401161059],["kritiek",-11.252297245258756],["Right",-11.252309049903198],["Vorig",-11.25234735005813],["window",-11.252370713891253],["Down",-11.252437727178052],["ramp",-11.252509508795537],["percentage",-11.252638688309274],["producteur",-11.252808982099133],["realizada",-11.253169687508844],["waarde",-11.25334989620511],["mensual",-11.253677081016775],["previo",-11.25371107644785],["steps",-11.253717141401445],["cam",-11.253751631574179],["steden",-11.253868056828239],["sprak",-11.25422753337255],["werknemers",-11.254241820172606],["inmediato",-11.25446058853469],["agres",-11.254701255235748],["groeien",-11.254732464895742],["corner",-11.254915760265813],["protocol",-11.254936102414838],["slot",-11.254996921470347],["disparo",-11.255297131642353],["poging",-11.25533664969347],["meant",-11.2561674872548],["!\"",-11.25621143677259],["Vegas",-11.25641653023167],["constat",-11.256460312496174],["Research",-11.2565701342758],["trouble",-11.256666215289524],["recognize",-11.256711184161437],["majeur",-11.25673600304712],["apparent",-11.257104539631989],["VA",-11.257115602896302],["passen",-11.257192300908496],["autor",-11.257238655947424],["usine",-11.257690464227618],["basketball",-11.258289453862599],["verkocht",-11.258430041920665],["centra",-11.258751749036406],["relève",-11.25883037052547],["liefde",-11.258909600330686],["consommateur",-11.258942857669483],["Défen",-11.258951190297608],["actuación",-11.259045211001727],["convirtió",-11.259068702689694],["wereldwijd",-11.259132829724535],["Oranje",-11.259150535116458],["schap",-11.2592409833251],["Gi",-11.2593630722566],["Law",-11.259686379612177],["Mol",-11.259788023614991],["absoluta",-11.259970037864985],["draagt",-11.260031665258602],["cancha",-11.260167297545113],["sportif",-11.260169032727953],["gewond",-11.26044486331839],["vriend",-11.26045508360149],["duurder",-11.260515694766141],["equit",-11.260520353484237],["USA",-11.260874112453354],["solicitar",-11.261124055540975],["ID",-11.261255238151593],["reserva",-11.261833594181633],["decía",-11.261915452155833],["consulta",-11.261971970574741],["Vice",-11.26208583177777],["argue",-11.26257227202646],["aim",-11.26261773017388],["aar",-11.263021648707532],["advirti",-11.263179694339543],["catch",-11.263385567149033],["brandweer",-11.263506549469614],["comfortabl",-11.26356840491411],["menée",-11.264245486224468],["Your",-11.26474197890477],["rat",-11.265084209191407],["Laura",-11.265110342488683],["tenter",-11.26565838603921],["professor",-11.265670333959296],["commissie",-11.265682426547425],["dozen",-11.26578297643957],["atelier",-11.265798309574258],["02",-11.265801257996703],["viol",-11.265844087050892],["Alexandr",-11.265949910445858],["Petro",-11.26618575463505],["Good",-11.266218454422717],["distribu",-11.266277792926664],["solicit",-11.266420493267345],["controle",-11.266458502265813],["positief",-11.266725624848561],["leek",-11.266870309506004],["Communit",-11.266986682793135],["filed",-11.267178499844583],["Rosa",-11.267665621698669],["segui",-11.268018246096863],["hoogste",-11.268031013166066],["bough",-11.268061190109044],["marc",-11.268389769150117],["expresse",-11.268443547116192],["GP",-11.268745631687498],["fallo",-11.268894939737828],["Fas",-11.269104843154533],["PSV",-11.269327095112128],["apps",-11.26969525073808],["Paz",-11.269777876113645],["naissance",-11.270192305410927],["boost",-11.270508440066616],["Market",-11.270533366255501],["africain",-11.270665816817733],["berichten",-11.271172443218436],["produj",-11.271443176151966],["Monte",-11.27158240207104],["partners",-11.271622392261],["kwijt",-11.272224152254507],["existence",-11.272297256190901],["petróleo",-11.272408098658808],["Fuerza",-11.272408648574949],["Turismo",-11.272422774751645],["attaquant",-11.272452026684027],["tekst",-11.272485816461067],["quitté",-11.272552562075095],["collectif",-11.272636537010928],["blee",-11.272655088815682],["Young",-11.27265996649739],["Denis",-11.272667268129144],["separate",-11.27268305776852],["Morgan",-11.27273931361378],["vélo",-11.272784841320208],["agricole",-11.272915238435974],["vrijheid",-11.272926224599058],["ador",-11.273105247836373],["précis",-11.273111363143999],["dirigido",-11.273315006246342],["priorité",-11.273561646989947],["Vooral",-11.273695281199627],["bajar",-11.274001073415164],["refusé",-11.27402726275734],["innovation",-11.274150484999158],["concreto",-11.27465165314289],["tuck",-11.275823039391245],["probeer",-11.275848317649444],["sale",-11.276244948733996],["consciente",-11.27629567921557],["collecte",-11.276385842895952],["sum",-11.276404219511285],["debat",-11.27671952390549],["visage",-11.277144932588248],["optie",-11.277168922736735],["Iedereen",-11.277275651541954],["goals",-11.277296710177284],["viendo",-11.277411409237036],["puesta",-11.277762967422946],["Christophe",-11.278160242448813],["priorit",-11.27856797113514],["souten",-11.278731364930161],["vertelde",-11.278780144185312],["residente",-11.27883120100362],["Anthony",-11.279210841397589],["feliz",-11.279211646748843],["Mohamed",-11.279224201072351],["changé",-11.279225047242596],["stijging",-11.279572479634208],["convertido",-11.279653773296925],["raken",-11.279810559260056],["développer",-11.280008451673924],["cuya",-11.280506479070262],["overwinning",-11.280911145017818],["pijn",-11.280926567729892],["gebouw",-11.281020135749205],["papa",-11.281564180589537],["Earl",-11.282026573767531],["fais",-11.282076271727977],["gift",-11.282656404797585],["BC",-11.28279836832156],["Maria",-11.283215985460664],["Bel",-11.283393338938666],["extende",-11.283441587851874],
[...]
