{"version":"1.0","truncation":null,"padding":null,"added_tokens":[{"id":0,"special":true,"content":"<UNK>","single_word":false,"lstrip":false,"rstrip":false,"normalized":false},{"id":1,"special":true,"content":"<SEP>","single_word":false,"lstrip":false,"rstrip":false,"normalized":false},{"id":2,"special":true,"content":"<MASK>","single_word":false,"lstrip":false,"rstrip":false,"normalized":false},{"id":3,"special":true,"content":"<CLS>","single_word":false,"lstrip":false,"rstrip":false,"normalized":false}],"normalizer":null,"pre_tokenizer":{"type":"Whitespace"},"post_processor":null,"decoder":null,"model":{"type":"WordPiece","unk_token":"<UNK>","continuing_subword_prefix":"##","max_input_chars_per_word":100,"vocab":{"<UNK>":0,"<SEP>":1,"<MASK>":2,"<CLS>":3,"!":4,"\"":5,"$":6,"%":7,"&":8,"'":9,"(":10,")":11,"*":12,"+":13,",":14,"-":15,".":16,"/":17,"0":18,"1":19,"2":20,"3":21,"4":22,"5":23,"6":24,"7":25,"8":26,"9":27,":":28,";":29,"<":30,">":31,"?":32,"A":33,"B":34,"C":35,"D":36,"E":37,"F":38,"G":39,"H":40,"I":41,"J":42,"K":43,"L":44,"M":45,"N":46,"O":47,"P":48,"Q":49,"R":50,"S":51,"T":52,"U":53,"V":54,"W":55,"X":56,"Y":57,"Z":58,"`":59,"a":60,"b":61,"c":62,"d":63,"e":64,"f":65,"g":66,"h":67,"i":68,"j":69,"k":70,"l":71,"m":72,"n":73,"o":74,"p":75,"q":76,"r":77,"s":78,"t":79,"u":80,"v":81,"w":82,"x":83,"y":84,"z":85,"~":86,"¢":87,"£":88,"¤":89,"¥":90,"¦":91,"§":92,"«":93,"®":94,"¯":95,"°":96,"±":97,"²":98,"³":99,"´":100,"·":101,"¹":102,"»":103,"¼":104,"½":105,"¾":106,"À":107,"Ä":108,"Å":109,"É":110,"Í":111,"Î":112,"Ó":113,"Ö":114,"×":115,"Þ":116,"ß":117,"à":118,"á":119,"â":120,"ã":121,"ä":122,"å":123,"æ":124,"ç":125,"è":126,"é":127,"ê":128,"ë":129,"í":130,"î":131,"ï":132,"ð":133,"ñ":134,"ó":135,"ô":136,"õ":137,"ö":138,"ø":139,"ú":140,"ü":141,"Ā":142,"ā":143,"ă":144,"ć":145,"Č":146,"č":147,"ē":148,"ğ":149,"Ġ":150,"ġ":151,"ħ":152,"İ":153,"ı":154,"Ľ":155,"ł":156,"ń":157,"ņ":158,"ō":159,"œ":160,"ş":161,"š":162,"ţ":163,"ū":164,"Ÿ":165,"Ż":166,"ż":167,"Ž":168,"ž":169,"ƅ":170,"ț":171,"ȼ":172,"ɑ":173,"ʏ":174,"ʻ":175,"ʼ":176,"˚":177,"˜":178,"́":179,"β":180,"γ":181,"Ё":182,"Ђ":183,"Ѓ":184,"І":185,"Ј":186,"Њ":187,"Ў":188,"А":189,"Г":190,"П":191,"Р":192,"Т":193,"У":194,"Ш":195,"Щ":196,"Ъ":197,"Ь":198,"Э":199,"Ю":200,"Я":201,"а":202,"б":203,"г":204,"д":205,"е":206,"ж":207,"о":208,"с":209,"т":210,"у":211,"ю":212,"я":213,"ђ":214,"ѓ":215,"ѕ":216,"і":217,"њ":218,"ќ":219,"ў":220,"џ":221,"қ":222,"һ":223,"օ":224,"א":225,"ב":226,"ד":227,"ה":228,"ו":229,"י":230,"ל":231,"ם":232,"מ":233,"נ":234,"ע":235,"צ":236,"ק":237,"ש":238,"ת":239,"ن":240,"ߋ":241,"ं":242,"अ":243,"क":244,"घ":245,"च":246,"ट":247,"ड":248,"त":249,"न":250,"ब":251,"म":252,"य":253,"र":254,"ल":255,"श":256,"स":257,"ा":258,"ि":259,"ी":260,"ु":261,"े":262,"्":263,"က":264,"င":265,"ည":266,"တ":267,"န":268,"ပ":269,"ဖ":270,"မ":271,"ရ":272,"လ":273,"သ":274,"အ":275,"ါ":276,"ာ":277,"ိ":278,"ု":279,"ေ":280,"်":281,"ြ":282,"ွ":283,"ှ":284,"ᥙ":285,"ᴠ":286,"ḥ":287,"‎":288,"‐":289,"‑":290,"–":291,"—":292,"‘":293,"’":294,"‚":295,"“":296,"”":297,"„":298,"‡":299,"•":300,"․":301,"…":302,"‪":303,"‰":304,"′":305,"″":306,"›":307,"‼":308,"⁠":309,"⁣":310,"₁":311,"₦":312,"€":313,"₵":314,"₹":315,"™":316,"ⅼ":317,"−":318,"─":319,"├":320,"┬":321,"╕":322,"╖":323,"▪":324,"◆":325,"☺":326,"⚽":327,"⛓":328,"✨":329,"❌":330,"❤":331,"➡":332,"ー":333,"化":334,"地":335,"暖":336,"温":337,"球":338,"ﬁ":339,"️":340,"﻿":341,"－":342,"ｅ":343,"##o":344,"##l":345,"##a":346,"##r":347,"##c":348,"##i":349,"##n":350,"##s":351,"##m":352,"##t":353,"##e":354,"##u":355,"##d":356,"##b":357,"##k":358,"##g":359,"##w":360,"##p":361,"##h":362,"##y":363,"##f":364,"##z":365,"##v":366,"##B":367,"##M":368,"##T":369,"##P":370,"##C":371,"##1":372,"##7":373,"##A":374,"##I":375,"##2":376,"##x":377,"##3":378,"##5":379,"##0":380,"##9":381,"##j":382,"##S":383,"##O":384,"##R":385,"##q":386,"##N":387,"##U":388,"##F":389,"##6":390,"##L":391,"##K":392,"##E":393,"##D":394,"##V":395,"##ó":396,"##H":397,"##â":398,"##G":399,"##.":400,"##8":401,"##4":402,"##W":403,"##Y":404,"##Z":405,"##X":406,"##'":407,"##”":408,"##J":409,"##í":410,"##á":411,"##Q":412,"##~":413,"##õ":414,"##ã":415,"##/":416,"##?":417,"##ç":418,"##é":419,"##+":420,"##ü":421,"##օ":422,"##š":423,"##ñ":424,"##%":425,"##,":426,"##)":427,"##﻿":428,"##$":429,"##-":430,"##ê":431,"##—":432,"##ú":433,"##Í":434,"##’":435,"##ġ":436,"##ă":437,"##ï":438,"##“":439,"##ä":440,"##ł":441,"##–":442,"##‘":443,"##ʻ":444,"##ū":445,"##ø":446,"##Ġ":447,"##ђ":448,"##ў":449,"##Э":450,"##д":451,"##я":452,"##ā":453,"##Ю":454,"##ḥ":455,"##\"":456,"##ż":457,"##တ":458,"##်":459,"##ရ":460,"##ှ":461,"##ု":462,"##န":463,"##ိ":464,"##င":465,"##ပ":466,"##ါ":467,"##သ":468,"##ည":469,"##€":470,"##!":471,"##Ľ":472,"##ı":473,"##Р":474,"##Ў":475,"##ô":476,"##:":477,"##ţ":478,"##è":479,"##ş":480,"##(":481,"##т":482,"##А":483,"##Я":484,"##Ш":485,"##ž":486,"##ö":487,"##ʏ":488,"##<":489,"##²":490,"##У":491,"##£":492,"##‚":493,"##…":494,"##́":495,"##ߋ":496,"##ा":497,"##य":498,"##å":499,"##č":500,"##ć":501,"##¦":502,"##Ÿ":503,"##Ž":504,"##¯":505,"##е":506,"##च":507,"##न":508,"##क":509,"##Ь":510,"##ﬁ":511,"##ë":512,"##₹":513,"##É":514,"##″":515,"##;":516,"##џ":517,"##‡":518,"##ț":519,"##ō":520,"##ħ":521,"##े":522,"##┬":523,"##à":524,"##Ѓ":525,"##с":526,"##Ђ":527,"##ѕ":528,"##ѓ":529,"##І":530,"##Т":531,"##ж":532,"##ќ":533,"##Њ":534,"##њ":535,"##у":536,"##Ъ":537,"##Г":538,"##Ј":539,"##ו":540,"##ם":541,"##Ó":542,"##ु":543,"##ब":544,"##्":545,"##र":546,"##त":547,"##ק":548,"##ב":549,"##ל":550,"##ע":551,"##צ":552,"##מ":553,"##א":554,"##ת":555,"##ट":556,"##ी":557,"##ʼ":558,"##Щ":559,"##і":560,"##ȼ":561,"##ю":562,"##ğ":563,"##*":564,"##ि":565,"##म":566,"##ं":567,"##ड":568,"##ｅ":569,"##³":570,"##һ":571,"##ð":572,"##™":573,"##ד":574,"##י":575,"##נ":576,"##ה":577,"##æ":578,"##г":579,"##ေ":580,"##ာ":581,"##က":582,"##ွ":583,"##श":584,"##ल":585,"##¥":586,"##·":587,"##®":588,"##қ":589,"##ē":590,"##ņ":591,"##‰":592,"##ー":593,"##>":594,"##⁣":595,"##球":596,"##温":597,"##暖":598,"##化":599,"##˜":600,"##ြ":601,"##မ":602,"##လ":603,"##о":604,"##Ā":605,"##`":606,"##±":607,"##ń":608,"##ß":609,"##he":610,"##er":611,"the":612,"##in":613,"##on":614,"##at":615,"##es":616,"##or":617,"##en":618,"##ed":619,"##nd":620,"##ing":621,"to":622,"##ar":623,"##an":624,"##al":625,"##it":626,"##ou":627,"in":628,"of":629,"##as":630,"##is":631,"and":632,"##re":633,"##ic":634,"th":635,"##om":636,"##il":637,"##ion":638,"##ent":639,"##el":640,"##id":641,"##ec":642,"##st":643,"##et":644,"##ay":645,"##ot":646,"on":647,"##ve":648,"##ur":649,"##ac":650,"##le":651,"##ow":652,"##ut":653,"be":654,"for":655,"##ol":656,"is":657,"##ad":658,"##ir":659,"##ly":660,"that":661,"st":662,"##am":663,"##ver":664,"##ig":665,"The":666,"re":667,"pr":668,"##ith":669,"##ter":670,"##im":671,"it":672,"##ill":673,"with":674,"wh":675,"##ation":676,"##os":677,"##us":678,"al":679,"##ers":680,"as":681,"##op":682,"ha":683,"an":684,"##em":685,"##est":686,"was":687,"at":688,"##ce":689,"##ld":690,"con":691,"sa":692,"##ess":693,"he":694,"##ch":695,"##her":696,"are":697,"##ul":698,"##ak":699,"com":700,"##th":701,"fr":702,"##ate":703,"##oc":704,"##ect":705,"we":706,"##ag":707,"##od":708,"have":709,"ne":710,"said":711,"##ain":712,"##pp":713,"##and":714,"you":715,"##ort":716,"##um":717,"sh":718,"has":719,"##ity":720,"##igh":721,"##ies":722,"##un":723,"##ear":724,"##ist":725,"from":726,"ex":727,"##ment":728,"##iv":729,"##ore":730,"##ive":731,"tr":732,"##art":733,"##ant":734,"not":735,"by":736,"will":737,"##ould":738,"##if":739,"##se":740,"##ct":741,"##ab":742,"##ust":743,"or":744,"de":745,"ch":746,"##ial":747,"su":748,"se":749,"##all":750,"go":751,"this":752,"pl":753,"##nt":754,"##ome":755,"ab":756,"##ight":757,"##ast":758,"his":759,"##ack":760,"wor":761,"##our":762,"##out":763,"##gh":764,"##ud":765,"##ard":766,"sp":767,"##end":768,"20":769,"##ere":770,"##ice":771,"their":772,"##ov":773,"le":774,"##ok":775,"they":776,"##ie":777,"##rou":778,"##ost":779,"out":780,"all":781,"##ap":782,"Th":783,"whe":784,"who":785,"##ell":786,"can":787,"##ik":788,"but":789,"year":790,"##av":791,"ad":792,"up":793,"res":794,"been":795,"##ong":796,"##ep":797,"##ff":798,"##ans":799,"off":800,"do":801,"##ue":802,"##ge":803,"##ally":804,"##ich":805,"##ip":806,"In":807,"##ther":808,"pe":809,"##ions":810,"##ine":811,"cl":812,",”":813,"##ia":814,"##so":815,"##ib":816,"were":817,"had":818,"##ople":819,"##ime":820,"her":821,"rec":822,"##mp":823,"comp":824,"cont":825,"It":826,"more":827,"ac":828,"##ob":829,"##ount":830,"en":831,"##day":832,"##one":833,"##ated":834,"##ous":835,"##ake":836,"also":837,"ag":838,"##own":839,"people":840,"inc":841,"##ure":842,"about":843,"##act":844,"##ame":845,"St":846,"##ide":847,"one":848,"me":849,"##ry":850,"exp":851,".”":852,"##ents":853,"##og":854,"##ays":855,"Ch":856,"##fter":857,"man":858,"He":859,"which":860,"##ely":861,"##oll":862,"##ub":863,"##ose":864,"##00":865,"per":866,"work":867,"new":868,"she":869,"##ace":870,"un":871,"over":872,"##age":873,"int":874,"so":875,"its":876,"would":877,"##ord":878,"##ber":879,"##iz":880,"##ire":881,"##ary":882,"##ike":883,"##ile":884,"##qu":885,"19":886,"##ence":887,"##ew":888,"qu":889,"##mer":890,"rep":891,"##ail":892,"ev":893,"cr":894,"time":895,"us":896,"We":897,"##ind":898,"##ks":899,"##ook":900,"part":901,"other":902,"after":903,"##ations":904,"dis":905,"##ase":906,"##ance":907,"app":908,"there":909,"when":910,"##are":911,"some":912,"##able":913,"fir":914,"##ass":915,"tw":916,"our":917,"##ors":918,"##orm":919,"them":920,"##ign":921,"than":922,"sc":923,"##ult":924,"##ra":925,"##ings":926,"bec":927,"get":928,"##oss":929,"##ach":930,"##ro":931,"just":932,"##uc":933,"##ict":934,"##ond":935,"op":936,"imp":937,"##ree":938,"like":939,"ar":940,"ser":941,"##ens":942,"kn":943,"##aus":944,"##ick":945,"rel":946,"##ark":947,"##ite":948,"##ock":949,"##ition":950,"comm":951,"##ough":952,"##ical":953,"acc":954,"##oy":955,"what":956,"##reat":957,"##oin":958,"pre":959,"##uring":960,"##ru":961,"##very":962,"##lic":963,"pol":964,"##vern":965,"now":966,"first":967,"##ian":968,"two":969,"##irus":970,"##ident":971,"gr":972,"act":973,"any":974,"##anc":975,"##ning":976,"##ade":977,"Pr":978,"my":979,"into":980,"play":981,"add":982,"back":983,"wee":984,"Tr":985,"##ates":986,"br":987,"##alth":988,"if":989,"##nder":990,"your":991,"##ild":992,"count":993,"te":994,"hel":995,"##ied":996,"##rough":997,"##itt":998,"201":999,"could":1000,"##ang":1001,"##hed":1002,"need":1003,"##enc":1004,"##ress":1005,"no":1006,"inter":1007,"##aw":1008,"##ert":1009,"him":1010,"As":1011,"##ove":1012,"##amp":1013,"##iver":1014,"dec":1015,"##fer":1016,"##ood":1017,"This":1018,"##ious":1019,"##ause":1020,"##ities":1021,"##old":1022,"Wh":1023,"how":1024,"cor":1025,"##ound":1026,"But":1027,"again":1028,"##form":1029,"##lud":1030,"##und":1031,"##ump":1032,"##ory":1033,"##ish":1034,"supp":1035,"Al":1036,"##ating":1037,"last":1038,"am":1039,"##vernment":1040,"fe":1041,"dr":1042,"##ne":1043,"inv":1044,"under":1045,"##ool":1046,"Fr":1047,"##iss":1048,"rem":1049,"##ink":1050,"##vel":1051,"att":1052,"##ath":1053,"being":1054,"report":1055,"mon":1056,"##fore":1057,"##ement":1058,"includ":1059,"##ason":1060,"##round":1061,"##ational":1062,"##ery":1063,"only":1064,"##ublic":1065,"through":1066,"ind":1067,"##oun":1068,"el":1069,"sec":1070,"##wn":1071,"str":1072,"##any":1073,"##urn":1074,"show":1075,"bet":1076,"##other":1077,"##pt":1078,"during":1079,"want":1080,"##ater":1081,"202":1082,"years":1083,"every":1084,"##ily":1085,"see":1086,"did":1087,"##als":1088,"##oint":1089,"##hing":1090,"help":1091,"most":1092,"##ues":1093,"CO":1094,"prov":1095,"##erson":1096,"##ID":1097,"offic":1098,"##esident":1099,"because":1100,"many":1101,"##ince":1102,"And":1103,"reg":1104,"co":1105,"##ise":1106,"pro":1107,"week":1108,"bl":1109,"##ased":1110,"##ected":1111,"know":1112,"##arg":1113,"government":1114,"##illion":1115,"000":1116,"day":1117,"##ft":1118,"##uch":1119,"fl":1120,"##aking":1121,"cons":1122,"even":1123,"fam":1124,"make":1125,"call":1126,"##VID":1127,"##ection":1128,"##ases":1129,"Un":1130,"before":1131,"COVID":1132,"end":1133,"those":1134,"Br":1135,"should":1136,"look":1137,"down":1138,"fin":1139,"while":1140,"state":1141,"well":1142,"##we":1143,"##onav":1144,"where":1145,"##erm":1146,"##onavirus":1147,"ve":1148,"home":1149,"##ting":1150,"don":1151,"lead":1152,"des":1153,"##chool":1154,"ass":1155,"##ife":1156,"bu":1157,"health":1158,"ear":1159,"against":1160,"##ven":1161,"month":1162,"stud":1163,"contin":1164,"##ital":1165,"##ited":1166,"start":1167,"New":1168,"##read":1169,"bus":1170,"ret":1171,"##urr":1172,"##emic":1173,"going":1174,"serv":1175,"Trump":1176,"team":1177,"##ful":1178,"An":1179,"##ward":1180,"own":1181,"##ons":1182,"resp":1183,"long":1184,"test":1185,"##xt":1186,"##cc":1187,"##arr":1188,"say":1189,"##uct":1190,"coronavirus":1191,"##ual":1192,"##les":1193,"##iness":1194,"may":1195,"dif":1196,"made":1197,"##ever":1198,"She":1199,"##oth":1200,"ph":1201,"still":1202,"these":1203,"take":1204,"three":1205,"##elf":1206,"##hn":1207,"##istr":1208,"2020":1209,"They":1210,"commun":1211,"ro":1212,"##air":1213,"##ives":1214,"num":1215,"way":1216,"min":1217,"##ures":1218,"med":1219,"person":1220,"##hip":1221,"##ters":1222,"mem":1223,"right":1224,"##gan":1225,"##ently":1226,"gu":1227,"##ier":1228,"10":1229,"ke":1230,"sur":1231,"##ible":1232,"contr":1233,"##ounc":1234,"##med":1235,"##irect":1236,"then":1237,"says":1238,"##ix":1239,"##con":1240,"very":1241,"##andemic":1242,"##ower":1243,"cases":1244,"good":1245,"Mar":1246,",\"":1247,"high":1248,"wr":1249,"##hen":1250,"think":1251,"##ner":1252,"##io":1253,"##eral":1254,"support":1255,"country":1256,"pandemic":1257,"##ility":1258,"##ording":1259,"Com":1260,"cent":1261,"For":1262,"##ollow":1263,"##its":1264,"bel":1265,"pos":1266,"public":1267,"There":1268,"much":1269,"##ont":1270,"prod":1271,"##ets":1272,"##eb":1273,"##ank":1274,"##osp":1275,"##ices":1276,"##ather":1277,"prot":1278,"##iew":1279,"##au":1280,"loc":1281,"sy":1282,"eff":1283,"def":1284,"school":1285,"##man":1286,"around":1287,"conf":1288,"soc":1289,"##pr":1290,"does":1291,"##ouse":1292,"##land":1293,"##up":1294,"##ange":1295,"inf":1296,"##roup":1297,"set":1298,"business":1299,"Amer":1300,"##ric":1301,"If":1302,"##way":1303,"##ines":1304,"##der":1305,"Americ":1306,"##ivers":1307,"such":1308,"point":1309,".\"":1310,"##oot":1311,"sm":1312,"win":1313,"ann":1314,"##ull":1315,"ins":1316,"Ar":1317,"old":1318,"##ope":1319,"season":1320,"vot":1321,"world":1322,"##urs":1323,"##ific":1324,"##ram":1325,"##bers":1326,"##ative":1327,"##ee":1328,"rest":1329,"##ina":1330,"##loy":1331,"##alk":1332,"follow":1333,"care":1334,"since":1335,"sign":1336,"invest":1337,"##ah":1338,"trans":1339,"police":1340,"million":1341,"##ief":1342,"hand":1343,"company":1344,"##ister":1345,"##ments":1346,"open":1347,"##ular":1348,"quar":1349,"cour":1350,"##ene":1351,"That":1352,"##omet":1353,"cap":1354,"##ject":1355,"dep":1356,"family":1357,"shar":1358,"##son":1359,"##imes":1360,"happ":1361,"##atch":1362,"ext":1363,"iss":1364,"How":1365,"##ior":1366,"On":1367,"Sh":1368,"##ork":1369,"including":1370,"game":1371,"run":1372,"##arm":1373,"##eng":1374,"##ency":1375,"##hes":1376,"differ":1377,"im":1378,"##ern":1379,"conc":1380,"Ind":1381,"##conom":1382,"law":1383,"##ision":1384,"##ash":1385,"bo":1386,"plan":1387,"life":1388,"mov":1389,"next":1390,"Min":1391,"mark":1392,"four":1393,"direct":1394,"##line":1395,"You":1396,"big":1397,"##ty":1398,"##atur":1399,"Bl":1400,"##osed":1401,"##eg":1402,"##iving":1403,"death":1404,"come":1405,"##ween":1406,"car":1407,"##ax":1408,"##get":1409,"child":1410,"stat":1411,"##erv":1412,"##iel":1413,"##ually":1414,"##velop":1415,"second":1416,"really":1417,"inst":1418,"told":1419,"##ave":1420,"##ug":1421,"fil":1422,"wom":1423,"Jo":1424,"disc":1425,"del":1426,"put":1427,"though":1428,"curr":1429,"sub":1430,"between":1431,"##iday":1432,"official":1433,"sl":1434,"number":1435,"Mr":1436,"##let":1437,"##ying":1438,"Sp":1439,"ask":1440,"both":1441,"gen":1442,"lot":1443,"same":1444,"##ution":1445,"##aj":1446,"##ics":1447,"##az":1448,"##olog":1449,"rele":1450,"feel":1451,"##ng":1452,"##ised":1453,"So":1454,"emp":1455,"econom":1456,"great":1457,"##res":1458,"##ecial":1459,"es":1460,"use":1461,"social":1462,"prog":1463,"place":1464,"##ton":1465,"real":1466,"allow":1467,"requ":1468,"prop":1469,"##outh":1470,"group":1471,"##ross":1472,"##ys":1473,"pass":1474,"##aff":1475,"##ness":1476,"days":1477,"##akes":1478,"fac":1479,"rece":1480,"another":1481,"somet":1482,"##ale":1483,"##tern":1484,"id":1485,"##uth":1486,"##ists":1487,"##ames":1488,"post":1489,"keep":1490,"few":1491,"##led":1492,"##ued":1493,"ob":1494,"##ants":1495,"incre":1496,"US":1497,"##ged":1498,"Ad":1499,"##ider":1500,"##ember":1501,"adv":1502,"remain":1503,"cle":1504,"det":1505,"President":1506,"Mon":1507,"opp":1508,"##stem":1509,"##ts":1510,"arr":1511,"result":1512,"found":1513,"##ody":1514,"##iend":1515,"##nes":1516,"At":1517,"pat":1518,"##ned":1519,"##ars":1520,"prob":1521,"dem":1522,"pres":1523,"got":1524,"virus":1525,"av":1526,"best":1527,"poss":1528,"##ived":1529,"##ential":1530,"develop":1531,"12":1532,"##ience":1533,"prev":1534,"##ll":1535,"##reak":1536,"par":1537,"community":1538,"##ving":1539,"added":1540,"##ling":1541,"camp":1542,"##ral":1543,"Friday":1544,"##ately":1545,"cond":1546,"##ism":1547,"##orts":1548,"##att":1549,"near":1550,"##ret":1551,"##ission":1552,"too":1553,"head":1554,"gl":1555,"pay":1556,"president":1557,"leg":1558,"Le":1559,"proc":1560,"Is":1561,"cre":1562,"different":1563,"De":1564,"30":1565,"import":1566,"##itive":1567,"##ren":1568,"##ety":1569,"read":1570,"saf":1571,"find":1572,"##per":1573,"##uss":1574,"##thing":1575,"polit":1576,"che":1577,"##ention":1578,"oper":1579,"each":1580,"##orn":1581,"across":1582,"##ruct":1583,"ent":1584,"here":1585,"reported":1586,"##ense":1587,"city":1588,"em":1589,"trad":1590,"##gg":1591,"ris":1592,"##red":1593,"case":1594,"Comm":1595,"When":1596,"things":1597,"inform":1598,"used":1599,"red":1600,"##ways":1601,"air":1602,"hosp":1603,"meet":1604,"##iven":1605,"15":1606,"##over":1607,"##rat":1608,"unt":1609,"May":1610,"##ept":1611,"##ield":1612,"without":1613,"spe":1614,"product":1615,"announc":1616,"able":1617,"fact":1618,"return":1619,"system":1620,"Go":1621,"left":1622,"11":1623,"term":1624,"##ient":1625,"##down":1626,"##ott":1627,"came":1628,"pop":1629,"quarter":1630,"sit":1631,"##ands":1632,"##ask":1633,"sever":1634,"order":1635,"char":1636,"coll":1637,"hour":1638,"Cl":1639,"far":1640,"exper":1641,"according":1642,"working":1643,"hard":1644,"##ey":1645,"Count":1646,"##ves":1647,"night":1648,"##ute":1649,"##ird":1650,"##ized":1651,"##ready":1652,"sim":1653,"##iting":1654,"belie":1655,"local":1656,"##ved":1657,"months":1658,"##aim":1659,"never":1660,"##artment":1661,"expl":1662,"##oney":1663,"ed":1664,"job":1665,"friend":1666,"level":1667,"something":1668,"already":1669,"vis":1670,"##orth":1671,"##side":1672,"State":1673,"members":1674,"fund":1675,"main":1676,"##ided":1677,"students":1678,"Pol":1679,"##earch":1680,"Cent":1681,"Monday":1682,"lik":1683,"past":1684,"news":1685,"due":1686,"top":1687,"##ained":1688,"##augh":1689,").":1690,"move":1691,"program":1692,"better":1693,"##ots":1694,"until":1695,"##ically":1696,"adm":1697,"mod":1698,"##uck":1699,"However":1700,"grow":1701,"Sc":1702,"##ces":1703,"record":1704,"##view":1705,"##ages":1706,"##ared":1707,"aff":1708,"didn":1709,"power":1710,"2019":1711,"let":1712,"must":1713,"continue":1714,"build":1715,"##echn":1716,"called":1717,"quest":1718,"partic":1719,"ll":1720,"might":1721,"##iversity":1722,"Me":1723,"What":1724,"Dr":1725,"tot":1726,"##ittle":1727,"All":1728,"col":1729,"hold":1730,"With":1731,"five":1732,"##ball":1733,"happen":1734,"##ata":1735,"##ecut":1736,"##ortun":1737,"employ":1738,"##ms":1739,"prof":1740,"##atter":1741,"##rem":1742,"always":1743,"##gin":1744,"away":1745,"turn":1746,"##cept":1747,"County":1748,"##ional":1749,"market":1750,"beh":1751,"##ize":1752,"China":1753,"##ajor":1754,"process":1755,"Re":1756,"South":1757,"manag":1758,"dist":1759,"##ley":1760,"March":1761,"took":1762,"seen":1763,"##ple":1764,"art":1765,"children":1766,"##cent":1767,"##ired":1768,"Thurs":1769,"ref":1770,"Thursday":1771,"lear":1772,"##uthor":1773,"200":1774,"While":1775,"important":1776,"based":1777,"##ended":1778,"val":1779,"war":1780,"##ney":1781,"##less":1782,"##ians":1783,"offer":1784,"),":1785,"organ":1786,"event":1787,"Sund":1788,"met":1789,"##ients":1790,"claim":1791,"weeks":1792,"John":1793,"Be":1794,"##ending":1795,"Tues":1796,"est":1797,"##app":1798,"Tuesday":1799,"won":1800,"Af":1801,"vide":1802,"stand":1803,"##pl":1804,"early":1805,"##aturday":1806,"Saturday":1807,"##reen":1808,"##ote":1809,"##urch":1810,"shares":1811,"fut":1812,"##iam":1813,"change":1814,"sk":1815,"##ted":1816,"equ":1817,"Health":1818,"Am":1819,"making":1820,"##aken":1821,"money":1822,"stay":1823,"Sunday":1824,"went":1825,"##une":1826,"addition":1827,"major":1828,"##ested":1829,"deal":1830,"women":1831,"less":1832,"why":1833,"exc":1834,"former":1835,"class":1836,"election":1837,"lock":1838,"prom":1839,"positive":1840,"small":1841,"food":1842,"##aring":1843,"eas":1844,"times":1845,"##ries":1846,"Rep":1847,"face":1848,"##ertain":1849,"One":1850,"media":1851,"later":1852,"little":1853,"Dem":1854,"mus":1855,"14":1856,"distr":1857,"##self":1858,"along":1859,"project":1860,"staff":1861,"information":1862,"Co":1863,"##gy":1864,"25":1865,"##uly":1866,"today":1867,"stop":1868,"fur":1869,"trav":1870,"Ph":1871,"Wed":1872,"free":1873,"complet":1874,"##ined":1875,"seem":1876,"Chr":1877,"effect":1878,"confir":1879,"six":1880,"##idents":1881,"chang":1882,"list":1883,"Car":1884,"##els":1885,"intern":1886,"statement":1887,"Can":1888,"Jan":1889,"##urity":1890,"give":1891,"toget":1892,"appear":1893,"Gr":1894,"together":1895,"area":1896,"##ocrat":1897,"##nesday":1898,"Wednesday":1899,"##ides":1900,"United":1901,"##aid":1902,"hit":1903,"kill":1904,"total":1905,"asked":1906,"##ests":1907,"doing":1908,"24":1909,"hal":1910,"chall":1911,"sol":1912,"##cr":1913,"##ards":1914,"officials":1915,"##ator":1916,"short":1917,"hist":1918,"##han":1919,"several":1920,"##oor":1921,"##ished":1922,"concern":1923,"Man":1924,"##verage":1925,"having":1926,"young":1927,"consider":1928,"##oved":1929,"spread":1930,"future":1931,"##ivid":1932,"percent":1933,"getting":1934,"##uation":1935,"##ream":1936,"announced":1937,"13":1938,"##aining":1939,"##ovid":1940,"hospital":1941,"full":1942,"##iod":1943,"foot":1944,"perform":1945,"indust":1946,"mom":1947,"techn":1948,"sing":1949,"50":1950,"line":1951,"18":1952,"##aign":1953,"##enn":1954,"##usp":1955,"least":1956,"likely":1957,"Mc":1958,"investig":1959,"El":1960,"##iously":1961,"national":1962,"series":1963,"avail":1964,"hum":1965,"##ured":1966,"doc":1967,"##ins":1968,"##ony":1969,"price":1970,"Acc":1971,"talk":1972,"players":1973,"service":1974,"given":1975,"done":1976,"online":1977,"cost":1978,"No":1979,"house":1980,"doesn":1981,"film":1982,"After":1983,"mil":1984,"##iger":1985,"press":1986,"services":1987,"Dep":1988,"hig":1989,"##ature":1990,"elect":1991,"Or":1992,"love":1993,"pot":1994,"##ai":1995,"comes":1996,"become":1997,"fire":1998,"##err":1999,"taking":2000,"##rew":2001,"##used":2002,"##ified":2003,"##oub":2004,"meas":2005,"Con":2006,"National":2007,"close":2008,"##ced":2009,"##yp":2010,"stock":2011,"campaign":2012,"data":2013,"susp":2014,"const":2015,"coming":2016,"clear":2017,"emer":2018,"vac":2019,"period":2020,"opt":2021,"using":2022,"party":2023,"among":2024,"American":2025,"16":2026,"##te":2027,"##stand":2028,"##acy":2029,"Police":2030,"Democrat":2031,"cust":2032,"lim":2033,"sw":2034,"##here":2035,"sure":2036,"enough":2037,"possible":2038,"tell":2039,"##ality":2040,"third":2041,"##vers":2042,"started":2043,"bring":2044,"taken":2045,"activ":2046,"looking":2047,"proble":2048,"author":2049,"further":2050,"ball":2051,"##aun":2052,"##ched":2053,"##ology":2054,"mor":2055,"others":2056,"Bid":2057,"##ck":2058,"##ising":2059,"100":2060,"##ancial":2061,"attack":2062,"Pl":2063,"##ipp":2064,"##ten":2065,"##oci":2066,"video":2067,"Covid":2068,"invol":2069,"yet":2070,"##ury":2071,"Ass":2072,"##inal":2073,"Don":2074,"whether":2075,"recent":2076,"appro":2077,"Col":2078,"thing":2079,"available":2080,"workers":2081,"vict":2082,"impact":2083,"##ead":2084,"Ab":2085,"Tw":2086,"leaders":2087,"My":2088,"deb":2089,"##ances":2090,"Afric":2091,"Biden":2092,"Sen":2093,"risk":2094,"City":2095,"kind":2096,"water":2097,"##ari":2098,"court":2099,"current":2100,"hours":2101,"strong":2102,"mid":2103,"##iol":2104,"##ederal":2105,"##anies":2106,"following":2107,"##itions":2108,"House":2109,"York":2110,"side":2111,"##arge":2112,"begin":2113,"ens":2114,"fall":2115,"clos":2116,"##eal":2117,"##ph":2118,"##omes":2119,"##ague":2120,"Ir":2121,"live":2122,"##ees":2123,"##port":2124,"##ison":2125,"political":2126,"Cal":2127,"story":2128,"lockdown":2129,"games":2130,"reason":2131,"##ains":2132,"decision":2133,"##ebr":2134,"cut":2135,"##ories":2136,"##oke":2137,"Black":2138,"##aly":2139,"low":2140,"form":2141,"ant":2142,"enter":2143,"within":2144,"crit":2145,"polic":2146,"succ":2147,"travel":2148,"July":2149,"sal":2150,"fight":2151,"ra":2152,"book":2153,"alle":2154,"provide":2155,"Just":2156,"##ably":2157,"Ed":2158,"##irl":2159,"expected":2160,"known":2161,"opportun":2162,"confirmed":2163,"Niger":2164,"Se":2165,"Ex":2166,"view":2167,"##ri":2168,"17":2169,"Apr":2170,"West":2171,"foc":2172,"##hic":2173,"ever":2174,"##ences":2175,"expect":2176,"##itted":2177,"##ald":2178,"bene":2179,"##reet":2180,"Inst":2181,"eng":2182,"hope":2183,"non":2184,"##ively":2185,"University":2186,"##ger":2187,"office":2188,"To":2189,"famil":2190,"April":2191,"Aust":2192,"##idence":2193,"half":2194,"##gency":2195,"##ored":2196,"design":2197,"fun":2198,"##pite":2199,"Eur":2200,"fans":2201,"##sel":2202,"priv":2203,"special":2204,"deaths":2205,"potential":2206,"North":2207,"cand":2208,"patients":2209,"According":2210,"Oct":2211,"Off":2212,"21":2213,"companies":2214,"access":2215,"success":2216,"Dec":2217,"##ats":2218,"share":2219,"enc":2220,"##co":2221,"##be":2222,"##ham":2223,"contact":2224,"cou":2225,"ago":2226,"Cor":2227,"sent":2228,"##lier":2229,"##oad":2230,"outside":2231,"experience":2232,"##lement":2233,"residents":2234,"final":2235,"tax":2236,"##inc":2237,"##hers":2238,"gener":2239,"fail":2240,"##lor":2241,"trying":2242,"late":2243,"sum":2244,"cris":2245,"India":2246,"Minister":2247,"June":2248,"##oming":2249,"##ented":2250,"front":2251,"##wards":2252,"Te":2253,"##inistr":2254,"compet":2255,"billion":2256,"##por":2257,"##for":2258,"##ones":2259,"##oms":2260,"##obal":2261,"quick":2262,"benef":2263,"Aug":2264,"mas":2265,"treat":2266,"inj":2267,"##elebr":2268,"needs":2269,"died":2270,"led":2271,"##by":2272,"##head":2273,"saying":2274,"lives":2275,"wa":2276,"##ev":2277,"##reed":2278,"doll":2279,"large":2280,"##imate":2281,"##ecutive":2282,"Pe":2283,"rul":2284,"control":2285,"Sec":2286,"miss":2287,"##tain":2288,"##bs":2289,"##omm":2290,"##ilities":2291,"men":2292,"states":2293,"certain":2294,"held":2295,"received":2296,"believe":2297,"##ners":2298,"once":2299,"##aces":2300,"##ization":2301,"security":2302,"points":2303,"##aur":2304,"##ators":2305,"economic":2306,"vacc":2307,"##most":2308,"##orr":2309,"mean":2310,"friends":2311,"light":2312,"makes":2313,"##rap":2314,"forward":2315,"ide":2316,"##que":2317,"##ination":2318,"Some":2319,"viol":2320,"##lex":2321,"##empt":2322,"educ":2323,"custom":2324,"##ering":2325,"##opp":2326,"means":2327,"##ouncil":2328,"restr":2329,"##ium":2330,"Ge":2331,"bas":2332,"Christ":2333,"Will":2334,"pract":2335,"##ources":2336,"account":2337,"action":2338,"situation":2339,"land":2340,"sen":2341,"protect":2342,"spec":2343,"laun":2344,"##ids":2345,"research":2346,"interest":2347,"financial":2348,"##ference":2349,"everyone":2350,"larg":2351,"##uce":2352,"individ":2353,"road":2354,"behind":2355,"##ered":2356,"These":2357,"##ush":2358,"2018":2359,"issues":2360,"countries":2361,"esp":2362,"Sept":2363,"targ":2364,"##ecially":2365,"average":2366,"watch":2367,"currently":2368,"crisis":2369,"celebr":2370,"cho":2371,"charg":2372,"States":2373,"repres":2374,"charac":2375,"question":2376,"ur":2377,"##road":2378,"Feb":2379,"ep":2380,"##onse":2381,"bit":2382,"mess":2383,"phot":2384,"entire":2385,"Department":2386,"Res":2387,"vol":2388,"address":2389,"morning":2390,"nation":2391,"##work":2392,"medical":2393,"course":2394,"occ":2395,"##par":2396,"threat":2397,"understand":2398,"businesses":2399,"##vir":2400,"##ane":2401,"22":2402,"##ann":2403,"Europe":2404,"Cr":2405,"released":2406,"##go":2407,"##ancing":2408,"thought":2409,"industry":2410,"init":2411,"appr":2412,"##aily":2413,"everything":2414,"buy":2415,"history":2416,"especially":2417,"fav":2418,"break":2419,"lost":2420,"##elt":2421,"canc":2422,"release":2423,"restrict":2424,"##ds":2425,"shows":2426,"cover":2427,"additional":2428,"aw":2429,"creat":2430,"join":2431,"##aps":2432,"position":2433,"##viron":2434,"Bar":2435,"##iding":2436,"reve":2437,"Wor":2438,"pick":2439,"##utes":2440,"candid":2441,"wanted":2442,"net":2443,"##asing":2444,"economy":2445,"Republic":2446,"##aut":2447,"meeting":2448,"nec":2449,"name":2450,"contract":2451,"results":2452,"##break":2453,"##irt":2454,"include":2455,"tested":2456,"Sup":2457,"conn":2458,"##ensive":2459,"##ode":2460,"vote":2461,"music":2462,"##crib":2463,"##uary":2464,"##ither":2465,"response":2466,"Gu":2467,"plans":2468,"human":2469,"40":2470,"His":2471,"step":2472,"##ops":2473,"woman":2474,"discuss":2475,"Eng":2476,"ap":2477,"##itiz":2478,"Rob":2479,"##af":2480,"##aged":2481,"sugg":2482,"recently":2483,"00":2484,"often":2485,"Dav":2486,"signific":2487,"ident":2488,"##ening":2489,"##ilar":2490,"neg":2491,"vehic":2492,"Austral":2493,"Now":2494,"began":2495,"##ades":2496,"almost":2497,"worth":2498,"##uced":2499,"abs":2500,"needed":2501,"caus":2502,"norm":2503,"##ron":2504,"Canad":2505,"relations":2506,"board":2507,"safety":2508,"Sm":2509,"dev":2510,"##vironment":2511,"Par":2512,"##venue":2513,"##bo":2514,"areas":2515,"testing":2516,"host":2517,"America":2518,"profess":2519,"thr":2520,"##ills":2521,"##ector":2522,"outbreak":2523,"played":2524,"role":2525,"challeng":2526,"##ler":2527,"actually":2528,"##selves":2529,"director":2530,"measures":2531,"Bo":2532,"heart":2533,"##rupt":2534,"increase":2535,".,":2536,"ban":2537,"##hest":2538,"doub":2539,"matter":2540,"##icult":2541,"federal":2542,"##hold":2543,"##medi":2544,"##irc":2545,"##ival":2546,"##ift":2547,"unc":2548,"Brit":2549,"##uk":2550,"##ech":2551,"dra":2552,"loss":2553,"tem":2554,"##ulation":2555,"##abor":2556,"##ails":2557,"black":2558,"23":2559,"girl":2560,"significant":2561,"Har":2562,"##ability":2563,"space":2564,"diff":2565,"moment":2566,"families":2567,"cur":2568,"mult":2569,"##ural":2570,"saw":2571,"closed":2572,"administr":2573,"higher":2574,"Cour":2575,"Fin":2576,"##aced":2577,"soon":2578,"##rug":2579,"global":2580,"January":2581,"mind":2582,"rating":2583,"typ":2584,"##wh":2585,"someone":2586,"couple":2587,"building":2588,"development":2589,"particular":2590,"##sh":2591,"respons":2592,"Our":2593,"##oring":2594,"assist":2595,"schools":2596,"isn":2597,"star":2598,"dead":2599,"playing":2600,"Part":2601,"fig":2602,"walk":2603,"##oon":2604,"difficult":2605,"News":2606,"key":2607,"##ows":2608,"sex":2609,"dise":2610,"anything":2611,"issue":2612,"UK":2613,"seven":2614,"body":2615,"decl":2616,"respond":2617,"target":2618,"reveal":2619,"rate":2620,"terr":2621,"”.":2622,"##uff":2623,"##aker":2624,"officers":2625,"reports":2626,"visit":2627,"purch":2628,"##iff":2629,"##ibility":2630,"imm":2631,"tal":2632,"##ps":2633,"##ental":2634,"shot":2635,"##ights":2636,"member":2637,"demand":2638,"Gen":2639,"Pro":2640,"gave":2641,"##hel":2642,"personal":2643,"immedi":2644,"allowed":2645,"Geor":2646,"dam":2647,"self":2648,"##den":2649,"##aster":2650,"##ama":2651,"deep":2652,"single":2653,"World":2654,"field":2655,"sell":2656,"##br":2657,"##though":2658,"August":2659,"hot":2660,"##iter":2661,"club":2662,"##ober":2663,"lat":2664,"orig":2665,"earlier":2666,"lo":2667,"##eter":2668,"##lege":2669,"##fully":2670,"running":2671,"pack":2672,"track":2673,"nothing":2674,"suff":2675,"##okes":2676,"##ape":2677,"compl":2678,"events":2679,"interview":2680,"##int":2681,"##ections":2682,"mother":2683,"##ana":2684,"##umb":2685,"parents":2686,"sn":2687,"cann":2688,"wrote":2689,"Not":2690,"##uge":2691,"##ends":2692,"related":2693,"check":2694,"opportunity":2695,"September":2696,"chief":2697,"dig":2698,"poll":2699,"ess":2700,"nearly":2701,"##tt":2702,"##back":2703,"##isc":2704,"international":2705,"Iran":2706,"TV":2707,"ahead":2708,"##ashing":2709,"##ateg":2710,"##ung":2711,"latest":2712,"##ify":2713,"became":2714,"however":2715,"##mber":2716,"##itary":2717,"comb":2718,"Calif":2719,"Court":2720,"Med":2721,"School":2722,"aut":2723,"farm":2724,"##istry":2725,"##ogn":2726,"App":2727,"round":2728,"worked":2729,"Nove":2730,"bank":2731,"jud":2732,"mot":2733,"##ressed":2734,"ensure":2735,"November":2736,"hon":2737,"try":2738,"private":2739,"31":2740,"##use":2741,"environment":2742,"##itting":2743,"focus":2744,"October":2745,"masks":2746,"##ging":2747,"White":2748,"attempt":2749,"phys":2750,"involved":2751,"##atory":2752,"whole":2753,"26":2754,"bad":2755,"daily":2756,"goal":2757,"##attle":2758,"ple":2759,"##itch":2760,"##ips":2761,"En":2762,"jour":2763,"song":2764,"##ule":2765,"##aving":2766,"prep":2767,"encour":2768,"28":2769,"prior":2770,"##ample":2771,"officer":2772,"quarant":2773,"Day":2774,"San":2775,"##book":2776,"Ang":2777,"general":2778,"safe":2779,"Center":2780,"problem":2781,"##erts":2782,"particip":2783,"27":2784,"sched":2785,"longer":2786,"career":2787,"restrictions":2788,"rac":2789,"Chief":2790,"People":2791,"Pat":2792,"hop":2793,"##ached":2794,"##ittee":2795,"propert":2796,"district":2797,"victim":2798,"##ino":2799,"##ighb":2800,"amount":2801,"room":2802,"inside":2803,"growth":2804,"Mich":2805,"age":2806,"port":2807,"##sw":2808,"##abl":2809,"plat":2810,"##ought":2811,"guid":2812,"Government":2813,"Cong":2814,"Many":2815,"Russ":2816,"cult":2817,"##amed":2818,"vaccine":2819,"Sy":2820,"review":2821,"technology":2822,"relationship":2823,"ground":2824,"emergency":2825,"drug":2826,"##ches":2827,"##fect":2828,"moving":2829,"deliver":2830,"High":2831,"##joy":2832,"##reg":2833,"##rove":2834,"##ruary":2835,"##rought":2836,"continued":2837,"similar":2838,"February":2839,"necess":2840,"Act":2841,"wind":2842,"##rod":2843,"##ender":2844,"himself":2845,"ey":2846,"town":2847,"executive":2848,"upd":2849,"pret":2850,"respect":2851,"employees":2852,"December":2853,"##atives":2854,"##oud":2855,"shoot":2856,"##aper":2857,"anyone":2858,"##aud":2859,"govern":2860,"leave":2861,"else":2862,"coach":2863,"present":2864,"dom":2865,"father":2866,"tit":2867,"##me":2868,"##AR":2869,"##itution":2870,"reop":2871,"##aging":2872,"##ubl":2873,"phone":2874,"Do":2875,"##ring":2876,"##dle":2877,"##ume":2878,"##ibut":2879,"player":2880,"##anger":2881,"surpr":2882,"disease":2883,"Mark":2884,"gather":2885,"Donald":2886,"customers":2887,"60":2888,"living":2889,"mass":2890,"##iec":2891,"region":2892,"leader":2893,"circ":2894,"date":2895,"##uel":2896,"##yn":2897,"##atures":2898,"shut":2899,"describ":2900,"education":2901,"500":2902,"Even":2903,"##ota":2904,"prim":2905,"##imately":2906,"white":2907,"seek":2908,"infl":2909,"happened":2910,"policy":2911,"35":2912,"Her":2913,"exist":2914,"2016":2915,"study":2916,"capital":2917,"Commission":2918,"match":2919,"##esh":2920,"##ores":2921,"##itter":2922,"minutes":2923,"essential":2924,"div":2925,"vers":2926,"##iet":2927,"reach":2928,"conv":2929,"drive":2930,"teams":2931,"ready":2932,"football":2933,"var":2934,"wife":2935,"training":2936,"issued":2937,"movie":2938,"Serv":2939,"##BC":2940,"##ises":2941,"##ille":2942,"recogn":2943,"Face":2944,"dest":2945,"analy":2946,"create":2947,"doct":2948,"platform":2949,"##amer":2950,"wasn":2951,"Californ":2952,"29":2953,"Ag":2954,"##come":2955,"enjoy":2956,"popular":2957,"distancing":2958,"quickly":2959,"rat":2960,"##ements":2961,"##ials":2962,"199":2963,"##rugg":2964,"efforts":2965,"##ruction":2966,"Park":2967,"citiz":2968,"lower":2969,"sold":2970,"##erc":2971,"despite":2972,"##aughter":2973,"Net":2974,"fear":2975,"ways":2976,"neighb":2977,"aud":2978,"paid":2979,"isol":2980,"hands":2981,"production":2982,"idea":2983,"##while":2984,"##na":2985,"##body":2986,"##yc":2987,"##ester":2988,"Ste":2989,"Americans":2990,"remains":2991,"killed":2992,"##hern":2993,"conduct":2994,"cannot":2995,"Gl":2996,"either":2997,"##vest":2998,"wants":2999,"summer":3000,"senior":3001,"administration":3002,"Em":3003,"fell":3004,"##band":3005,"##action":3006,".'":3007,"Ms":3008,"Ne":3009,"Reg":3010,"##aul":3011,"--":3012,"Mo":3013,"##ilt":3014,"##eth":3015,"##urning":3016,"##ession":3017,"comment":3018,"represent":3019,"California":3020,"During":3021,"lack":3022,"takes":3023,"scene":3024,"weekend":3025,"military":3026,"##iers":3027,"##my":3028,"##ects":3029,"ener":3030,"alleged":3031,"character":3032,"bar":3033,"brought":3034,"homes":3035,"pur":3036,"##gest":3037,"strugg":3038,"##akers":3039,"##inese":3040,"slow":3041,"require":3042,"kids":3043,"race":3044,"##ett":3045,"above":3046,"themselves":3047,"numbers":3048,"Air":3049,"eight":3050,"virt":3051,"##ivil":3052,"##iple":3053,"Chinese":3054,"provided":3055,"##retary":3056,"son":3057,"##oid":3058,"##ique":3059,"##nings":3060,"quite":3061,"quality":3062,"groups":3063,"Nigeria":3064,"By":3065,"Des":3066,"ill":3067,"##gr":3068,"spokes":3069,"arg":3070,"decided":3071,"authorities":3072,"Congress":3073,"##ened":3074,"##itness":3075,"thous":3076,"trade":3077,"##ource":3078,"repl":3079,"applic":3080,"communities":3081,"performance":3082,"##ole":3083,"##AS":3084,"##ams":3085,"example":3086,"##ograp":3087,"teac":3088,"throughout":3089,"showed":3090,"voters":3091,"dollar":3092,"##omp":3093,"Street":3094,"Char":3095,"traded":3096,"investigation":3097,"David":3098,"boy":3099,"sense":3100,"restaur":3101,"approach":3102,"God":3103,"Washing":3104,"fair":3105,"##lt":3106,"##atic":3107,"shared":3108,"extra":3109,"receive":3110,"lif":3111,"##ara":3112,"below":3113,"Every":3114,"oil":3115,"tour":3116,"Intern":3117,"Washington":3118,"pain":3119,"##where":3120,"##rael":3121,"previous":3122,"changes":3123,"Africa":3124,"felt":3125,"mater":3126,"##itc":3127,"rev":3128,"regular":3129,"moved":3130,"determ":3131,"terms":3132,"Cap":3133,"##emb":3134,"chance":3135,"incident":3136,"leading":3137,"symp":3138,"instead":3139,"products":3140,"##lus":3141,"##uals":3142,"answ":3143,"webs":3144,"clean":3145,"Democratic":3146,"various":3147,"##ael":3148,"##icip":3149,"indic":3150,"2021":3151,"legal":3152,"##oph":3153,"acqu":3154,"continues":3155,"biggest":3156,"seems":3157,"epis":3158,"Ear":3159,"broad":3160,"hous":3161,"mask":3162,"tre":3163,"##ument":3164,"noted":3165,"##epend":3166,"cred":3167,"grad":3168,"Israel":3169,"favor":3170,"##amb":3171,"accept":3172,"gets":3173,"block":3174,"tests":3175,"pict":3176,"sector":3177,"##igr":3178,"Inc":3179,"surv":3180,"Comp":3181,"pretty":3182,"More":3183,"mis":3184,"##uing":3185,"heav":3186,"recover":3187,"minister":3188,"required":3189,"questions":3190,"concerns":3191,"bud":3192,"##ya":3193,"conditions":3194,"jobs":3195,"normal":3196,"Facebook":3197,"huge":3198,"pull":3199,"##ault":3200,"##hood":3201,"##yl":3202,"fore":3203,"force":3204,"##aught":3205,"Per":3206,"store":3207,"##ampions":3208,"probably":3209,"Direct":3210,"Mor":3211,"##oom":3212,"##off":3213,"##ming":3214,"##ply":3215,"touch":3216,"##chie":3217,"screen":3218,"Since":3219,"bed":3220,"mar":3221,"tel":3222,"##ese":3223,"##orters":3224,"##ench":3225,"##isions":3226,"##str":3227,"compared":3228,"##ishing":3229,"quarantine":3230,"anim":3231,"levels":3232,"rules":3233,"energy":3234,"##ective":3235,"recomm":3236,"##encies":3237,"arrested":3238,"East":3239,"Of":3240,"rather":3241,"##uf":3242,"##idge":3243,"super":3244,"General":3245,"70":3246,"Bank":3247,"bord":3248,"park":3249,"##gn":3250,"##osing":3251,"##ude":3252,"disp":3253,"serious":3254,"rights":3255,"department":3256,"increased":3257,"easy":3258,"Phil":3259,"specific":3260,"bill":3261,"##ining":3262,"ste":3263,"2017":3264,"produc":3265,"Indian":3266,"William":3267,"Australia":3268,"hus":3269,"publ":3270,"stream":3271,"works":3272,"regard":3273,"Mean":3274,"vehicle":3275,"citizens":3276,"cast":3277,"##of":3278,"##yle":3279,"##ols":3280,"stage":3281,"ord":3282,"evidence":3283,"firm":3284,"capac":3285,"obs":3286,"prevent":3287,"learning":3288,"Council":3289,"Germ":3290,"##iety":3291,"##fort":3292,"##ON":3293,"ability":3294,"di":3295,"site":3296,"##tion":3297,"itself":3298,"##undred":3299,"Joe":3300,"establ":3301,"limited":3302,"daughter":3303,"roll":3304,"##uit":3305,"revenue":3306,"pred":3307,"crow":3308,"Red":3309,"piec":3310,"sound":3311,"##nal":3312,"##hi":3313,"##ites":3314,"##lying":3315,"spent":3316,"##ibly":3317,"insp":3318,"created":3319,"treatment":3320,"Del":3321,"coun":3322,"##wide":3323,"##arried":3324,"Associ":3325,"Meanwhile":3326,"Group":3327,"##wood":3328,"##enge":3329,"##urt":3330,"##uty":3331,"carry":3332,"##ructure":3333,"experi":3334,"revealed":3335,"fill":3336,"##ny":3337,"##ges":3338,"##itals":3339,"##ster":3340,"improve":3341,"effort":3342,"##ox":3343,"##TC":3344,"##utions":3345,"League":3346,"value":3347,"Twitter":3348,"War":3349,"student":3350,"management":3351,"Rec":3352,"base":3353,"den":3354,"##isl":3355,"hear":3356,"##apan":3357,"resources":3358,"Angel":3359,"ful":3360,"hol":3361,"##ville":3362,"##agn":3363,"trust":3364,"true":3365,"extrem":3366,"Johnson":3367,"property":3368,"Jack":3369,"mat":3370,"##arily":3371,"##ceed":3372,"##oyal":3373,"starting":3374,"turned":3375,"cause":3376,"via":3377,"##erve":3378,"##urk":3379,"prem":3380,"sympt":3381,"husband":3382,"Sch":3383,"##ona":3384,"##ushed":3385,"conference":3386,"chair":3387,"calls":3388,"communic":3389,"Carol":3390,"Flor":3391,"Japan":3392,"pan":3393,"##iant":3394,"##inated":3395,"growing":3396,"message":3397,"Canada":3398,"capacity":3399,"##imb":3400,"wearing":3401,"##elling":3402,"twe":3403,"common":3404,"included":3405,"wrong":3406,"happy":3407,"website":3408,"Hosp":3409,"Public":3410,"Ser":3411,"achie":3412,"fast":3413,"ones":3414,"##vey":3415,"##lear":3416,"##agement":3417,"letter":3418,"##going":3419,"initial":3420,"Mal":3421,"vo":3422,"##ani":3423,"##ida":3424,"goes":3425,"introd":3426,"cross":3427,"attention":3428,"regul":3429,"laws":3430,"Qu":3431,"bur":3432,"##ek":3433,"##DA":3434,"whose":3435,"words":3436,"agre":3437,"implement":3438,"Senate":3439,"raised":3440,"##light":3441,"##ex":3442,"peace":3443,"income":3444,"includes":3445,"looks":3446,"followed":3447,"population":3448,"bre":3449,"cal":3450,"natur":3451,"wond":3452,"##fr":3453,"##oper":3454,"consum":3455,"winning":3456,"Dis":3457,"cash":3458,"lab":3459,"##ha":3460,"##0s":3461,"##elines":3462,"##ady":3463,"##iring":3464,"perfect":3465,"##ength":3466,"progress":3467,"speed":3468,"Offic":3469,"individuals":3470,"analyst":3471,"King":3472,"##irst":3473,"##ems":3474,"heard":3475,"enfor":3476,"##ension":3477,"opened":3478,"tradition":3479,"claims":3480,"African":3481,"immediately":3482,"Pal":3483,"sel":3484,"##FL":3485,"##inary":3486,"##aries":3487,"forced":3488,"##ires":3489,"attend":3490,"defin":3491,"learn":3492,"European":3493,"range":3494,"san":3495,"grand":3496,"##itten":3497,"From":3498,"sales":3499,"Last":3500,"Sw":3501,"Val":3502,"nom":3503,"rise":3504,"##eed":3505,"previously":3506,"presidential":3507,"model":3508,"thousands":3509,"camer":3510,"##itor":3511,"##osition":3512,"tried":3513,"sports":3514,"impr":3515,"associ":3516,"posted":3517,"problems":3518,"Super":3519,"Bu":3520,"Bay":3521,"gone":3522,"##oes":3523,"launch":3524,"Mus":3525,"giving":3526,"exch":3527,"##ction":3528,"##ipment":3529,"Invest":3530,"knew":3531,"increasing":3532,"challenges":3533,"Lond":3534,"Road":3535,"civil":3536,"##cast":3537,"convers":3538,"commer":3539,"##unt":3540,"##aves":3541,"activities":3542,"45":3543,"##AN":3544,"##enced":3545,"annual":3546,"Tex":3547,"hundred":3548,"wel":3549,"##ugh":3550,"content":3551,"serve":3552,"county":3553,"London":3554,".’":3555,"partners":3556,"brother":3557,"built":3558,"box":3559,"Ob":3560,"rad":3561,"sat":3562,"sil":3563,"##ston":3564,"supply":3565,"challenge":3566,"certainly":3567,"necessary":3568,"aren":3569,"seeing":3570,"speak":3571,"caused":3572,"gas":3573,"##urance":3574,"##istic":3575,"##room":3576,"ended":3577,"finally":3578,"foreign":3579,":/":3580,"?”":3581,"Bel":3582,"danger":3583,"mill":3584,"##uled":3585,"##ously":3586,"helped":3587,"opening":3588,"hospitals":3589,"estim":3590,"candidate":3591,"particularly":3592,"International":3593,"symptoms":3594,"://":3595,"htt":3596,"##ago":3597,"agency":3598,"adding":3599,"calling":3600,"details":3601,"funding":3602,"digital":3603,"Over":3604,"mob":3605,"rout":3606,"stories":3607,"##abb":3608,"resol":3609,"overall":3610,"Commun":3611,"Alex":3612,"towards":3613,"stra":3614,"Then":3615,"##aby":3616,"Prime":3617,"independ":3618,"passed":3619,"considered":3620,"CE":3621,"James":3622,"bal":3623,"gun":3624,"##anks":3625,"beaut":3626,"scient":3627,"Union":3628,"##play":3629,"leadership":3630,"England":3631,"budget":3632,"32":3633,"Ke":3634,"rates":3635,"inn":3636,"refer":3637,"Those":3638,"scen":3639,"changed":3640,"Dan":3641,"Je":3642,"##ding":3643,"##ground":3644,"##yond":3645,"##aine":3646,"places":3647,"climate":3648,"remember":3649,"attr":3650,"Another":3651,"esc":3652,"demon":3653,"Smith":3654,"Michael":3655,"##ufact":3656,"Hospital":3657,"AP":3658,"Green":3659,"Sal":3660,"mur":3661,"poor":3662,"source":3663,"vill":3664,"beyond":3665,"##sequ":3666,"served":3667,"##ipped":3668,"violence":3669,"largest":3670,"influ":3671,"Lib":3672,"##ci":3673,"##fl":3674,"drop":3675,"facilities":3676,"simply":3677,"equipment":3678,"multiple":3679,"https":3680,"Ken":3681,"sle":3682,"##anch":3683,"stated":3684,"##emp":3685,"dog":3686,"unl":3687,"partner":3688,"appoint":3689,"active":3690,"driver":3691,"asking":3692,"pressure":3693,"Party":3694,"##ij":3695,"##itely":3696,"reached":3697,"exact":3698,"parts":3699,"couldn":3700,"charges":3701,"##esterday":3702,"Here":3703,"nov":3704,"beat":3705,"providing":3706,"explained":3707,"First":3708,"Hol":3709,"Most":3710,"##ky":3711,"##field":3712,"##DC":3713,"##aches":3714,"##oses":3715,"##oken":3716,"fourth":3717,"feeling":3718,"Scott":3719,"British":3720,"##estern":3721,"##alls":3722,"appeal":3723,"prec":3724,"transport":3725,"avoid":3726,"talking":3727,"individual":3728,"George":3729,"physical":3730,"Distr":3731,"fan":3732,"##owers":3733,"perm":3734,"brief":3735,"infected":3736,"recorded":3737,"Florida":3738,"lib":3739,"##overy":3740,"##haps":3741,"expand":3742,"experts":3743,"brand":3744,"reality":3745,"operations":3746,"funds":3747,"virtual":3748,"link":3749,"sust":3750,"##coming":3751,"##elled":3752,"described":3753,"Vict":3754,"council":3755,"squ":3756,"##izing":3757,"register":3758,"benefits":3759,"\".":3760,"Che":3761,"hom":3762,"vari":3763,"##ivery":3764,"##mas":3765,"##ware":3766,"##xic":3767,"##irth":3768,"comfort":3769,"sup":3770,"##apt":3771,"unf":3772,"soft":3773,"accused":3774,"##uction":3775,"signed":3776,"investment":3777,"Ministry":3778,"Two":3779,"choice":3780,"Texas":3781,"Nov":3782,"battle":3783,"##ma":3784,"##ustr":3785,"separ":3786,"league":3787,"meant":3788,"planning":3789,"Minnes":3790,"complete":3791,"highest":3792,"guidelines":3793,"Paul":3794,"reb":3795,"##unte":3796,"trial":3797,"subs":3798,"subm":3799,"options":3800,"primary":3801,"Bec":3802,"Mic":3803,"Port":3804,"Rs":3805,"bott":3806,"wear":3807,"##anda":3808,"blood":3809,"basis":3810,"ratio":3811,"Ant":3812,"Cont":3813,"Mad":3814,"##rop":3815,"prison":3816,"save":3817,"Stud":3818,"crim":3819,"crime":3820,"earnings":3821,"reduce":3822,"college":3823,"effective":3824,"beginning":3825,"anti":3826,"Office":3827,"title":3828,"80":3829,"CB":3830,"Sim":3831,"kept":3832,"##liam":3833,"##hib":3834,"##ford":3835,"disapp":3836,"##anced":3837,"amid":3838,"protest":3839,"Democrats":3840,"launched":3841,"Republican":3842,"damage":3843,"Sand":3844,"hy":3845,"##lin":3846,"door":3847,"charge":3848,"practice":3849,"episode":3850,"District":3851,"Mid":3852,"pair":3853,"sens":3854,"##ta":3855,"##bur":3856,"##icks":3857,"ongoing":3858,"##ament":3859,"##vert":3860,"note":3861,"spending":3862,"##iction":3863,"looked":3864,"Any":3865,"smart":3866,"passeng":3867,"claimed":3868,"critical":3869,"scheduled":3870,"##liament":3871,"Are":3872,"Cons":3873,"Sing":3874,"loved":3875,"nine":3876,"ult":3877,"##care":3878,"pros":3879,"wouldn":3880,"delivery":3881,"facility":3882,"returned":3883,"failed":3884,"suggest":3885,"natural":3886,"Let":3887,"aim":3888,"##cial":3889,"##eless":3890,"##oles":3891,"leaving":3892,"manufact":3893,"parties":3894,"written":3895,"center":3896,"infections":3897,"directly":3898,"sometimes":3899,"email":3900,"figure":3901,"original":3902,"Despite":3903,"Director":3904,"EU":3905,"Law":3906,"Other":3907,"cook":3908,"pers":3909,"rob":3910,"search":3911,"ten":3912,"yesterday":3913,"##men":3914,"##vent":3915,"##estic":3916,"spot":3917,"agreed":3918,"##berg":3919,"usually":3920,"affected":3921,"agreement":3922,"Ben":3923,"Tod":3924,"ut":3925,"##ER":3926,"##itz":3927,"##olf":3928,"traff":3929,"upon":3930,"198":3931,"retail":3932,"voting":3933,"request":3934,"Add":3935,"option":3936,"Justice":3937,"Minnesota":3938,"Fl":3939,"Sam":3940,"kick":3941,"mention":3942,"witness":3943,"##astic":3944,"legisl":3945,"critic":3946,"draw":3947,"seeking":3948,"Mont":3949,"Que":3950,"named":3951,"##iance":3952,"##IN":3953,"##ena":3954,"##isation":3955,"##rect":3956,"spir":3957,"adj":3958,"thank":3959,"Govern":3960,"##opping":3961,"initi":3962,"murder":3963,"36":3964,"Ac":3965,"##kn":3966,"##orney":3967,"##owing":3968,"##raft":3969,"sett":3970,"obv":3971,"movement":3972,"McC":3973,"charged":3974,"absol":3975,"purp":3976,"90":3977,"Gold":3978,"Hall":3979,"Mart":3980,"gives":3981,"tick":3982,"##oned":3983,"##omb":3984,"##acing":3985,"alone":3986,"deg":3987,"Str":3988,"amb":3989,"votes":3990,"Central":3991,"majority":3992,"engine":3993,"shooting":3994,"##leg":3995,"stake":3996,"items":3997,"##ecting":3998,"##agram":3999,"##unch":4000,"users":4001,"features":4002,"##ification":4003,"proper":4004,"wait":4005,"network":4006,"34":4007,"fre":4008,"##erem":4009,"##ocks":4010,"incred":4011,"grant":4012,"feet":4013,"refl":4014,"projects":4015,"victory":4016,"Christmas":4017,"Los":4018,"Well":4019,"vul":4020,"##LC":4021,"##ander":4022,"except":4023,"decades":4024,"manager":4025,"version":4026,"##ampionship":4027,"Vir":4028,"mand":4029,"wide":4030,"wild":4031,"##ala":4032,"##uments":4033,"owns":4034,"histor":4035,"Victor":4036,"worst":4037,"organiz":4038,"eventually":4039,"costs":4040,"volunte":4041,"journal":4042,"straight":4043,"55":4044,"award":4045,"cat":4046,"mix":4047,"##lies":4048,"##ero":4049,"##urb":4050,"prices":4051,"resident":4052,"qual":4053,"justice":4054,"Why":4055,"Although":4056,"driving":4057,"society":4058,"emb":4059,"offering":4060,"negative":4061,"Board":4062,"33":4063,"300":4064,"Kore":4065,"Mac":4066,"fat":4067,"north":4068,"swe":4069,"##eat":4070,"##ki":4071,"##za":4072,"forces":4073,"altern":4074,"Chic":4075,"##ression":4076,"condition":4077,"systems":4078,"organization":4079,"completely":4080,"crowd":4081,"tweet":4082,"novel":4083,"##ario":4084,"##itation":4085,"##itute":4086,"asp":4087,"comments":4088,"fresh":4089,"spring":4090,"keeping":4091,"managed":4092,"Instagram":4093,"Association":4094,"Like":4095,"Rich":4096,"bi":4097,"birth":4098,"narr":4099,"##inks":4100,"although":4101,"##ibution":4102,"aftern":4103,"##angu":4104,"province":4105,"evening":4106,"capt":4107,"subject":4108,"facing":4109,"warned":4110,"stopp":4111,"appeared":4112,"Angeles":4113,"Carolina":4114,"exactly":4115,"vulner":4116,"BTC":4117,"Su":4118,"cry":4119,"er":4120,"page":4121,"sun":4122,"##rol":4123,"##ES":4124,"##uries":4125,"##pped":4126,"##iful":4127,"##oving":4128,"appre":4129,"defense":4130,"imag":4131,"putting":4132,"candidates":4133,"temper":4134,"commercial":4135,"%.":4136,"Big":4137,"lay":4138,"wat":4139,"##iqu":4140,"##ubb":4141,"197":4142,"Also":4143,"middle":4144,"complain":4145,"37":4146,"Jos":4147,"pen":4148,"ren":4149,"send":4150,"##CA":4151,"##ania":4152,"Franc":4153,"##loyment":4154,"lawy":4155,"boost":4156,"offered":4157,"concerned":4158,"elections":4159,"credit":4160,"75":4161,"Prem":4162,"mail":4163,"##oul":4164,"exerc":4165,"remind":4166,"owners":4167,"##ledge":4168,"Adv":4169,"Apple":4170,"##ograph":4171,"afternoon":4172,"NFL":4173,"Oh":4174,"dream":4175,"jump":4176,"sad":4177,"##yan":4178,"##enty":4179,"##atever":4180,"spoke":4181,"196":4182,"helping":4183,"investors":4184,"object":4185,"dollars":4186,"fully":4187,"CEO":4188,"Bill":4189,"cell":4190,"##chers":4191,"##person":4192,"##ales":4193,"relig":4194,"decisions":4195,"delay":4196,"completed":4197,"Lake":4198,"card":4199,"pet":4200,"spend":4201,"commit":4202,"##ancy":4203,"##airs":4204,"planned":4205,"##asket":4206,"afford":4207,"behav":4208,"benefit":4209,"photo":4210,"culture":4211,"published":4212,"Chicago":4213,"Tom":4214,"sick":4215,"tim":4216,"##ein":4217,"##CC":4218,"##inn":4219,"##akh":4220,"##ager":4221,"##istan":4222,"guy":4223,"feels":4224,"artic":4225,"freed":4226,"size":4227,"trip":4228,"unique":4229,"committed":4230,"actor":4231,"bringing":4232,"38":4233,"Both":4234,"Jew":4235,"cities":4236,"paper":4237,"##ship":4238,"##PS":4239,"##ivity":4240,"commission":4241,"##ressive":4242,"healthy":4243,"owner":4244,"discover":4245,"Committee":4246,"Secretary":4247,"girls":4248,"border":4249,"39":4250,"Harr":4251,"Mike":4252,"log":4253,"offers":4254,"##icted":4255,"knows":4256,"centre":4257,"successful":4258,"joined":4259,"victims":4260,"definitely":4261,"Ol":4262,"dark":4263,"rap":4264,"ton":4265,"€™":4266,"##bum":4267,"street":4268,"trail":4269,"placed":4270,"assess":4271,"simple":4272,"waiting":4273,"##opped":4274,"professional":4275,"band":4276,"und":4277,"tough":4278,"##ocal":4279,"weather":4280,"plant":4281,"showing":4282,"minute":4283,"contribut":4284,"##ricult":4285,"subst":4286,"domestic":4287,"Service":4288,"bag":4289,"baby":4290,"caught":4291,"south":4292,"##oo":4293,"##cement":4294,"##nel":4295,"##DP":4296,"##ola":4297,"##ategy":4298,"scr":4299,"yourself":4300,"winter":4301,"patient":4302,"developed":4303,"trades":4304,"Play":4305,"policies":4306,"purchase":4307,"doctors":4308,"picture":4309,"Governor":4310,"Bus":4311,"fine":4312,"station":4313,"hair":4314,"haven":4315,"##unk":4316,"myself":4317,"reporting":4318,"central":4319,"arrived":4320,"emot":4321,"classes":4322,"easily":4323,"household":4324,"approx":4325,"fighting":4326,"eyes":4327,"recommend":4328,"voice":4329,"camera":4330,"Today":4331,"48":4332,"Kar":4333,"Turk":4334,"har":4335,"mach":4336,"table":4337,"##20":4338,"##ici":4339,"weap":4340,"##ables":4341,"##ellig":4342,"Star":4343,"infr":4344,"infection":4345,"campus":4346,"crew":4347,"collabor":4348,"meaning":4349,"restaurants":4350,"favorite":4351,"millions":4352,"Ber":4353,"gold":4354,"langu":4355,"yards":4356,"##lim":4357,"##iders":4358,"##oti":4359,"owned":4360,"transm":4361,"debate":4362,"Mel":4363,"Up":4364,"##ke":4365,"unemp":4366,"thinking":4367,"politics":4368,"##reme":4369,"Amaz":4370,"College":4371,"sleep":4372,"Lou":4373,"born":4374,"fem":4375,"nurs":4376,"##ros":4377,"##to":4378,"##BA":4379,"##eder":4380,"toll":4381,"##ado":4382,"##imum":4383,"willing":4384,"clin":4385,"display":4386,"2014":4387,"##formation":4388,"##arri":4389,"Management":4390,"construction":4391,"competition":4392,"approved":4393,"uncertain":4394,"housing":4395,"orders":4396,"analysts":4397,"Mil":4398,"Pre":4399,"categ":4400,"##eated":4401,"##EC":4402,"toward":4403,"##ette":4404,"stores":4405,"adult":4406,"2015":4407,"strateg":4408,"Brown":4409,"##egr":4410,"believed":4411,"massive":4412,"teachers":4413,"counter":4414,"demonstr":4415,"ele":4416,"hers":4417,"path":4418,"##sc":4419,"##orthern":4420,"##oval":4421,"##ocked":4422,"Def":4423,"programs":4424,"learned":4425,"debt":4426,"focused":4427,"sexual":4428,"##night":4429,"##set":4430,"##atively":4431,"##iser":4432,"##oves":4433,"shel":4434,"Island":4435,"electric":4436,"alleg":4437,"cancel":4438,"steps":4439,"judge":4440,"governor":4441,"vulnerable":4442,"Ev":4443,"Hill":4444,"Jud":4445,"La":4446,"##ze":4447,"##vention":4448,"##omen":4449,"##ube":4450,"##igned":4451,"becoming":4452,"committee":4453,"flood":4454,"consist":4455,"Spe":4456,"holding":4457,"distance":4458,"suspect":4459,"Robert":4460,"autom":4461,"green":4462,"mag":4463,"##IS":4464,"##iced":4465,"hearing":4466,"youth":4467,"##antly":4468,"##astructure":4469,"outd":4470,"relief":4471,"insurance":4472,"transfer":4473,"extended":4474,"runs":4475,"difference":4476,"markets":4477,"maintain":4478,"standard":4479,"tempor":4480,"heavy":4481,"push":4482,"##aith":4483,"##ushing":4484,"recovery":4485,"actions":4486,"amaz":4487,"produce":4488,"##erved":4489,"##ortunately":4490,"promot":4491,"appears":4492,"missing":4493,"Britain":4494,"Because":4495,"Met":4496,"bought":4497,"mental":4498,"sources":4499,"##lines":4500,"##sy":4501,"##orter":4502,"##oman":4503,"##alled":4504,"expressed":4505,"slight":4506,"limit":4507,"reasons":4508,"opportunities":4509,"characters":4510,"appreci":4511,"approximately":4512,"Amazon":4513,"MP":4514,"Under":4515,"grew":4516,"lic":4517,"nature":4518,"##pm":4519,"##ja":4520,"church":4521,"Thom":4522,"adop":4523,"##ibute":4524,"university":4525,"France":4526,"flag":4527,"buying":4528,"protests":4529,"Once":4530,"piece":4531,"wonder":4532,"traditional":4533,"criminal":4534,"43":4535,"65":4536,"Cup":4537,"Fire":4538,"Mem":4539,"mer":4540,"##time":4541,"##AC":4542,"##jected":4543,"##het":4544,"##esters":4545,"shown":4546,"##antage":4547,"word":4548,"##ghan":4549,"strategy":4550,"highly":4551,"happens":4552,"advice":4553,"valued":4554,"Instead":4555,"watching":4556,"type":4557,"Russia":4558,"existing":4559,"material":4560,"diagn":4561,"hundreds":4562,"41":4563,"42":4564,"basket":4565,"catch":4566,"vent":4567,"##wa":4568,"##iled":4569,"##utely":4570,"album":4571,"##emy":4572,"contain":4573,"##roy":4574,"##ensus":4575,"##iverse":4576,"filed":4577,"operating":4578,"Mexic":4579,"aware":4580,"vehicles":4581,"double":4582,"declared":4583,"Williams":4584,"Tor":4585,"breat":4586,"##ears":4587,"scale":4588,"writing":4589,"cars":4590,"proposed":4591,"document":4592,"attacks":4593,"apart":4594,"##ruption":4595,"Prof":4596,"hopes":4597,"answer":4598,"beautiful":4599,"Mod":4600,"marg":4601,"purs":4602,"rally":4603,"##lam":4604,"##auc":4605,"##HS":4606,"##owl":4607,"Their":4608,"prosp":4609,"sport":4610,"##ogle":4611,"text":4612,"confl":4613,"winner":4614,"status":4615,"activity":4616,"assistance":4617,"isolation":4618,"regarding":4619,"traffic":4620,"46":4621,"Gov":4622,"II":4623,"Wil":4624,"ran":4625,"warm":4626,"##iar":4627,"##hol":4628,"##edic":4629,"##eline":4630,"##abin":4631,"sche":4632,"provides":4633,"healthcare":4634,"greater":4635,"reduced":4636,"Centre":4637,"skills":4638,"identified":4639,"responsible":4640,"talks":4641,"farmers":4642,"##embly":4643,"dangerous":4644,",’":4645,"49":4646,"Gre":4647,"Jones":4648,"Leg":4649,"mission":4650,"sort":4651,"tack":4652,"##hlet":4653,"##TA":4654,"##raw":4655,"feature":4656,"French":4657,"location":4658,"remained":4659,"##itutional":4660,"achieve":4661,"Virgin":4662,"Mary":4663,"fix":4664,"horr":4665,"lose":4666,"lived":4667,"##ef":4668,"stuff":4669,"athlet":4670,"train":4671,"notice":4672,"dism":4673,"scored":4674,"teach":4675,"decade":4676,"depart":4677,"receiving":4678,"ordered":4679,"Coronavirus":4680,"responded":4681,"gradu":4682,"extremely":4683,"Francis":4684,"Federal":4685,"Gar":4686,"Home":4687,"Sun":4688,"UN":4689,"aid":4690,"fest":4691,"##ray":4692,"##iny":4693,"##aded":4694,"ang":4695,"##obe":4696,"opin":4697,"##encing":4698,"assault":4699,"minor":4700,"medic":4701,"survey":4702,"operation":4703,"Scot":4704,"meth":4705,"designed":4706,"Republicans":4707,"figures":4708,"Georg":4709,"infrastructure":4710,"Mag":4711,"hurt":4712,"rain":4713,"##rim":4714,"##more":4715,"##ica":4716,"monit":4717,"Force":4718,"politic":4719,"risks":4720,"Google":4721,"##apped":4722,"prepared":4723,"Ham":4724,"lines":4725,"##iest":4726,"##erous":4727,"storm":4728,"stress":4729,"##ulated":4730,"##agon":4731,"##pper":4732,"shop":4733,"ship":4734,"complex":4735,"appar":4736,"surf":4737,"negoti":4738,"conducted":4739,"LLC":4740,"il":4741,"ir":4742,"rank":4743,"pray":4744,"goals":4745,"doz":4746,"corpor":4747,"supposed":4748,"knowledge":4749,"floor":4750,"guys":4751,"profit":4752,"solid":4753,"ballot":4754,"anticip":4755,"##evision":4756,"terror":4757,"allegedly":4758,"Charl":4759,"amazing":4760,"conflict":4761,"Fund":4762,"##bit":4763,"##BI":4764,"tom":4765,"truth":4766,"unp":4767,"score":4768,"located":4769,"##ological":4770,"ballots":4771,"Nigerian":4772,"creating":4773,"draft":4774,"Germany":4775,"holiday":4776,"balance":4777,"herself":4778,"44":4779,"Av":4780,"Nav":4781,"Pet":4782,"cool":4783,"fif":4784,"wish":4785,"”,":4786,"##alt":4787,"whatever":4788,"resear":4789,"Ins":4790,"##izes":4791,"Andrew":4792,"governments":4793,"Att":4794,"excited":4795,"miles":4796,"clearly":4797,"choose":4798,"responsibility":4799,"journey":4800,"freedom":4801,"ign":4802,"sitting":4803,"##oe":4804,"##makers":4805,"##zz":4806,"##isters":4807,"##ifying":4808,"Inter":4809,"dropped":4810,"maybe":4811,"faced":4812,"modern":4813,"happening":4814,"Supreme":4815,"circum":4816,"neighbor":4817,"adjust":4818,"Premier":4819,"Lab":4820,"Miss":4821,"cop":4822,"princ":4823,"anal":4824,"##isted":4825,"exam":4826,"##anta":4827,"plays":4828,"upcoming":4829,"##anging":4830,"corner":4831,"##ounds":4832,"feed":4833,"surround":4834,"allowing":4835,"opposition":4836,"Develop":4837,"speech":4838,"colle":4839,"standing":4840,"changing":4841,"photos":4842,"recovered":4843,"enforcement":4844,"innov":4845,"Business":4846,"Int":4847,"NAS":4848,"River":4849,"bond":4850,"cerem":4851,"fit":4852,"sister":4853,"##lig":4854,"theat":4855,"##reets":4856,"##uted":4857,"##aming":4858,"proud":4859,"##ocr":4860,"##acks":4861,"outl":4862,"agree":4863,"unable":4864,"Frank":4865,"confidence":4866,"older":4867,"allows":4868,"speaking":4869,"believes":4870,"interesting":4871,"update":4872,"Delhi":4873,"Community":4874,"Penn":4875,"die":4876,"liter":4877,"sem":4878,"ver":4879,"##iable":4880,"##mar":4881,"##FC":4882,"##arian":4883,"##iles":4884,"hasn":4885,"seg":4886,"##eph":4887,"regional":4888,"supporting":4889,"##crip":4890,"measure":4891,"##tainment":4892,"largely":4893,"independent":4894,"##elligence":4895,"language":4896,"Coll":4897,"Kh":4898,"Max":4899,"losing":4900,"mount":4901,"veter":4902,"##EN":4903,"##rel":4904,"troub":4905,"##outhern":4906,"Though":4907,"helps":4908,"consult":4909,"continuing":4910,"surge":4911,"##loyd":4912,"movies":4913,"Const":4914,"##orrow":4915,"urged":4916,"Services":4917,"treated":4918,"Disney":4919,"attract":4920,"sustain":4921,"purpose":4922,"Bre":4923,"Haw":4924,"Ram":4925,"Your":4926,"cyc":4927,"pun":4928,"rent":4929,"##well":4930,"##oug":4931,"##ada":4932,"cong":4933,"##uman":4934,"##arden":4935,"unit":4936,"integr":4937,"Trans":4938,"Art":4939,"films":4940,"propos":4941,"Chris":4942,"injuries":4943,"talent":4944,"prosecut":4945,"stopped":4946,"400":4947,"Jim":4948,"joint":4949,"rule":4950,"sides":4951,"##ban":4952,"##osure":4953,"worse":4954,"perhaps":4955,"Who":4956,"elected":4957,"protesters":4958,"Mayor":4959,"maint":4960,"effects":4961,"solution":4962,"potentially":4963,"cancer":4964,"suggested":4965,"doubt":4966,"reopen":4967,"doctor":4968,"circumst":4969,"Fox":4970,"Good":4971,"Mah":4972,"Rock":4973,"Year":4974,"##de":4975,"##wise":4976,"##asc":4977,"##adium":4978,"stars":4979,"suit":4980,"resc":4981,"uns":4982,"##anges":4983,"rising":4984,"hotel":4985,"established":4986,"Valley":4987,"Thomas":4988,",'":4989,"Ill":4990,"fle":4991,"vice":4992,"forec":4993,"##lywood":4994,"reform":4995,"##odies":4996,"science":4997,"proceed":4998,"ending":4999}}}